#include <math.h> 
 #include <string.h> 
#include "./include/k2c_include.h" 
#include "./include/k2c_tensor_include.h" 

 


void emmodel(k2c_tensor* input1_input, k2c_tensor* l7_output) { 

float l5_output_array[324] = {0}; 
k2c_tensor l5_output = {&l5_output_array[0],1,324,{324,  1,  1,  1,  1}}; 
float l5_kernel_array[104976] = {
+5.02063427e-03f,-8.70781168e-02f,-2.89721359e-02f,+6.49403706e-02f,+1.51440799e-01f,
-1.33596286e-01f,+3.52209713e-03f,-1.40796795e-01f,+1.10519296e-02f,-9.91704781e-03f,
+3.45193185e-02f,+1.32808656e-01f,+1.82648852e-01f,+3.72036487e-01f,+2.31327012e-01f,
+6.95122257e-02f,+6.51549324e-02f,+8.35000072e-03f,+9.79072228e-02f,+1.77523270e-01f,
-1.36542603e-01f,-7.29049295e-02f,+8.48412439e-02f,-1.42405033e-01f,+8.28801095e-02f,
+1.20631419e-02f,-2.09386647e-02f,+8.67810547e-02f,-2.93323994e-02f,-5.09004714e-03f,
-8.84325057e-02f,+1.50488332e-01f,+4.72234702e-03f,+1.80581957e-01f,+2.41399974e-01f,
+7.14568943e-02f,-6.84595108e-02f,-4.05836552e-02f,-4.19410467e-02f,+1.15565479e-01f,
+1.79025456e-01f,+3.21385860e-02f,+8.46690685e-02f,+8.85963589e-02f,+1.67041108e-01f,
+1.77216046e-02f,+3.23660416e-03f,+1.96102709e-01f,-6.24188446e-02f,-8.84128734e-02f,
+8.39009359e-02f,+2.77990475e-02f,+3.04286361e-01f,+2.44821552e-02f,-2.06906870e-01f,
+1.36790633e-01f,+1.86114624e-01f,+4.07274589e-02f,+1.71723753e-01f,+1.46263376e-01f,
+1.82063401e-01f,-2.29819100e-02f,+1.64454997e-01f,-5.74941523e-02f,+1.05200410e-01f,
+7.42631555e-02f,+2.46274218e-01f,+5.91065362e-02f,+4.17010635e-02f,-4.05175239e-02f,
+1.33535890e-02f,+1.59586564e-01f,+9.67566445e-02f,+1.86885633e-02f,+1.79782525e-01f,
-1.94171742e-02f,-6.93959147e-02f,+1.26970829e-02f,+2.09213600e-01f,-6.69369027e-02f,
-4.35076058e-02f,+9.48183164e-02f,+1.19695067e-01f,+3.30947712e-02f,+1.48562506e-01f,
-1.60517395e-02f,+1.80698529e-01f,+1.60020009e-01f,+2.77973842e-02f,+9.89665911e-02f,
+2.08316416e-01f,+1.62303776e-01f,-8.34247023e-02f,-1.08978888e-02f,+1.87031567e-01f,
+5.56661040e-02f,+6.76856115e-02f,+8.86508375e-02f,-7.30152205e-02f,+1.93358839e-01f,
+2.70300508e-01f,-5.89367747e-03f,+1.13964140e-01f,+4.89285886e-02f,+1.51246876e-01f,
-2.89616674e-01f,-4.31727320e-02f,+1.28525317e-01f,-3.79160605e-02f,+1.17643714e-01f,
-9.52835530e-02f,+8.23898539e-02f,+3.49887997e-01f,-1.64470244e-02f,+9.98174995e-02f,
+1.48177326e-01f,+1.74206227e-01f,-1.20874994e-01f,-9.96721238e-02f,+6.03516102e-02f,
+5.47593795e-02f,-1.58063117e-02f,+2.71793772e-02f,-2.08790451e-02f,+2.35979185e-01f,
+9.82936993e-02f,+5.15194684e-02f,+1.01054773e-01f,+1.10229045e-01f,+1.57493547e-01f,
+4.76344377e-02f,+2.65468687e-01f,-1.45556899e-02f,+1.71926185e-01f,+6.85804263e-02f,
+1.17980510e-01f,+2.05574799e-02f,+2.37641081e-01f,-4.52748202e-02f,+8.80189165e-02f,
-3.83716486e-02f,-1.01849571e-01f,-3.49639282e-02f,-2.98064156e-03f,+6.80660009e-02f,
-4.89177965e-02f,+1.07373044e-01f,-2.29131505e-01f,-9.59679931e-02f,+5.55302463e-02f,
+1.82204917e-02f,+1.38302362e-02f,-1.18280448e-01f,+1.09700650e-01f,+3.43417935e-02f,
-1.34859970e-02f,-1.95466983e-03f,+1.94939837e-01f,-7.03570768e-02f,+1.51801124e-01f,
-2.59071658e-03f,-7.69852009e-03f,-5.46853580e-02f,+1.09466441e-01f,+9.52564776e-02f,
-5.52698039e-04f,+1.89158730e-02f,+2.80040801e-01f,-7.51732439e-02f,+1.04853220e-01f,
+2.02078253e-01f,-1.78623602e-01f,-5.10833524e-02f,+1.21198028e-01f,-1.20659754e-01f,
+5.63757941e-02f,-1.23532519e-01f,-9.85333472e-02f,+1.10016549e-02f,+6.16897270e-02f,
-7.49225542e-02f,-4.82637770e-02f,-4.17719074e-02f,+3.77402194e-02f,+6.87955245e-02f,
+1.04102693e-01f,-4.19446379e-02f,+1.46283790e-01f,-1.35205656e-01f,-3.09694503e-02f,
-6.02287166e-02f,-2.10433379e-01f,-8.56593326e-02f,-7.07566564e-04f,+2.24763304e-01f,
+1.45938411e-01f,+1.17130637e-01f,+1.47841126e-01f,+2.18356978e-02f,-1.51342466e-01f,
+9.69893560e-02f,+4.16912735e-02f,+1.32690191e-01f,-3.57611388e-01f,-4.32180129e-02f,
-5.00662178e-02f,+1.25099346e-01f,+2.93431971e-02f,+6.23267367e-02f,+1.16839916e-01f,
+1.37949392e-01f,+1.00642078e-01f,+3.71873342e-02f,+1.37975425e-01f,+1.55714735e-01f,
-7.10334033e-02f,-1.40173316e-01f,-5.16472347e-02f,-1.84149429e-01f,+5.71875870e-02f,
+1.24657996e-01f,+3.95008139e-02f,+1.09617738e-02f,+1.10555775e-01f,+5.28038628e-02f,
+1.57649189e-01f,+1.06991187e-01f,+4.15515564e-02f,-7.75814876e-02f,+8.42653215e-02f,
-1.30841091e-01f,+7.44363433e-03f,+1.68787435e-01f,+1.64948747e-01f,+2.82546505e-02f,
+7.74563244e-03f,-3.49285528e-02f,+1.26393989e-01f,+1.07987970e-01f,+5.11672683e-02f,
-7.18236491e-02f,+2.85395652e-01f,-6.50206804e-02f,+7.88544714e-02f,+4.31753471e-02f,
-3.40301841e-02f,+2.45629609e-01f,-3.47348638e-02f,+1.08389013e-01f,+1.24798991e-01f,
+3.59687284e-02f,+7.63562992e-02f,-7.08585083e-02f,+1.31597847e-01f,+1.21866621e-01f,
+1.15558103e-01f,+2.40085557e-01f,-9.60841924e-02f,-1.25974998e-01f,+2.54365981e-01f,
+1.03207417e-01f,-3.71152788e-01f,-9.93296802e-02f,+6.73094438e-03f,-4.14312677e-03f,
-2.85150670e-02f,-6.55467063e-02f,+1.01639703e-01f,-1.13340065e-01f,+1.05729342e-01f,
-2.68791653e-02f,+2.38423020e-01f,-1.15364864e-01f,+1.18023857e-01f,+8.24351981e-03f,
-6.75820485e-02f,+6.77478984e-02f,+2.96371318e-02f,-7.83841908e-02f,-1.12020761e-01f,
+4.91019636e-02f,+2.10280363e-02f,+5.12740668e-03f,-6.28453270e-02f,-9.52676684e-02f,
-1.98927913e-02f,+1.68490499e-01f,-2.70371381e-02f,+1.42953983e-02f,+1.37812451e-01f,
+1.35723829e-01f,+1.46025717e-01f,-9.31667443e-03f,+2.96517879e-01f,-2.66878400e-02f,
+3.07412688e-02f,-5.50327972e-02f,+4.17226218e-02f,+1.45642608e-01f,+1.40378863e-01f,
+1.29993275e-01f,-2.60152053e-02f,-1.31068919e-02f,+2.51584172e-01f,+1.89456344e-01f,
+1.03808694e-01f,+1.19338214e-01f,-1.60081629e-02f,+8.00064579e-02f,+4.46425900e-02f,
+5.39972670e-02f,+5.23746088e-02f,-7.46414885e-02f,-4.13440429e-02f,+8.91412422e-03f,
+2.90935397e-01f,-1.01829723e-01f,+5.90605102e-02f,-1.61260031e-02f,+8.36351141e-02f,
-6.24180026e-02f,+8.50570425e-02f,+2.60977354e-02f,+2.32282467e-02f,-1.41089305e-01f,
+1.36521891e-01f,-1.10454157e-01f,+3.56943786e-01f,-2.27179583e-02f,+1.78325072e-01f,
+1.32545590e-01f,+2.77138561e-01f,-7.00005665e-02f,+2.03729808e-01f,+7.01285228e-02f,
-5.85774295e-02f,-2.37582073e-01f,+2.54866421e-01f,+1.46721944e-01f,+1.47469826e-02f,
+1.46025315e-01f,-5.19472510e-02f,-1.83525130e-01f,+3.56779993e-01f,+1.91075996e-01f,
+1.38179455e-02f,-2.02282980e-01f,+2.83084869e-01f,+2.84770061e-03f,+1.57628089e-01f,
+2.81282425e-01f,+1.68971390e-01f,+7.22497478e-02f,+1.93979908e-02f,-1.26357898e-01f,
-5.00415489e-02f,-4.29362394e-02f,+2.79551059e-01f,+3.37190577e-03f,+2.72349594e-03f,
-1.06507912e-02f,+1.94062516e-01f,+1.22145578e-01f,+1.15024962e-01f,+8.02639574e-02f,
+3.26585844e-02f,-1.12433687e-01f,+5.00388816e-02f,+1.67056337e-01f,-1.75554335e-01f,
+1.51544809e-01f,-2.26129636e-01f,+4.47659753e-02f,+1.83861300e-01f,+9.30969715e-02f,
+5.64243831e-03f,+2.16679201e-02f,+2.94102341e-01f,+6.95110932e-02f,+2.11925715e-01f,
+8.63602757e-03f,+6.02328517e-02f,-1.91489279e-01f,-2.88887247e-02f,+1.39328716e-02f,
+1.03272855e-01f,+2.00736269e-01f,+1.46859393e-01f,+9.08302516e-02f,+1.04826115e-01f,
+4.38900292e-01f,-3.91259827e-02f,+1.51927412e-01f,+1.27859250e-01f,+8.68262202e-02f,
-2.95801252e-01f,-9.54078361e-02f,+1.91125184e-01f,+5.73248118e-02f,-1.91412315e-01f,
-5.04740654e-03f,-2.44043678e-01f,+4.59652066e-01f,+2.53251851e-01f,-1.06081488e-02f,
-6.51340885e-03f,+9.82606784e-02f,-1.94869526e-02f,+1.34376988e-01f,-1.62127204e-02f,
-6.47180080e-02f,+9.91351679e-02f,-2.90428530e-02f,-3.74325141e-02f,+1.23560792e-02f,
+7.11891577e-02f,+3.21309455e-02f,+3.79520059e-02f,-9.04762968e-02f,+1.13017455e-01f,
-2.20330749e-02f,+1.44179359e-01f,+1.34176105e-01f,+1.21488869e-01f,+3.99232805e-02f,
+4.90233004e-02f,-1.17863730e-01f,+2.28415668e-01f,-2.52218675e-02f,+9.86140594e-02f,
+9.54088643e-02f,-3.80687751e-02f,+3.07797432e-01f,-2.70451128e-01f,+2.65686244e-01f,
+3.66500020e-02f,+4.62305844e-01f,+2.13958900e-02f,-2.00742275e-01f,-1.14948303e-01f,
-4.83443998e-02f,+5.53333871e-02f,+9.96145457e-02f,-7.54548386e-02f,+1.69964373e-01f,
+1.46235615e-01f,-9.80780125e-02f,+1.77414324e-02f,+1.06875487e-01f,+4.10414040e-02f,
+3.25998142e-02f,+9.63857174e-02f,+6.99604377e-02f,-2.62086004e-01f,+8.24635923e-02f,
-3.05141346e-03f,-1.59931824e-01f,+4.47806111e-03f,-2.00502217e-01f,+8.29084367e-02f,
+1.55545756e-01f,-1.52120173e-01f,+2.57539582e-02f,+7.94348717e-02f,+1.37784898e-01f,
+1.60386771e-01f,+6.91922903e-01f,-8.99277534e-03f,+3.01083387e-03f,+5.55961207e-02f,
-1.44724268e-04f,+2.80979902e-01f,-2.83911009e-03f,+1.66188236e-02f,-6.56852275e-02f,
-1.35683805e-01f,+4.75802310e-02f,-6.60353675e-02f,+1.38312504e-01f,+1.24446407e-01f,
+1.46988168e-01f,+3.28667909e-02f,+1.68595493e-01f,+1.14235580e-01f,-3.98886323e-01f,
+3.95035923e-01f,+2.61263609e-01f,+1.80992961e-01f,+1.28358036e-01f,-1.91927217e-02f,
+1.40805706e-01f,+1.12396911e-01f,-5.58727570e-02f,-4.01643515e-02f,-1.30408853e-01f,
+1.64406598e-01f,-1.84350446e-01f,-5.92626631e-02f,-9.84615311e-02f,-1.88444510e-01f,
+8.73475224e-02f,-2.86346339e-02f,+2.39018708e-01f,-1.07339568e-01f,-2.92558130e-02f,
-1.37159843e-02f,+1.59779228e-02f,-2.99600996e-02f,-1.23222983e-02f,-3.77735198e-01f,
+4.12929570e-03f,-6.52091503e-02f,-1.22565879e-02f,+2.15614602e-01f,+1.78984523e-01f,
+2.43819863e-01f,+9.71716270e-02f,+1.90729767e-01f,-1.11592628e-01f,+3.40210706e-01f,
+1.79387599e-01f,+1.90721273e-01f,-6.06125928e-02f,+1.09055199e-01f,-1.43750757e-01f,
-3.73245366e-02f,-5.01112789e-02f,+2.27807224e-01f,+1.62187532e-01f,+2.20755920e-01f,
+8.95072371e-02f,+4.46171314e-02f,-3.22955921e-02f,-1.02276586e-01f,-1.73490614e-01f,
+1.65533513e-01f,+1.40411019e-01f,+1.56878546e-01f,-1.02744875e-02f,+2.20301747e-01f,
+1.47099197e-01f,+1.58100605e-01f,+1.93244979e-01f,-1.46395132e-01f,-5.74497171e-02f,
+1.47391722e-01f,+7.06023872e-02f,+1.52191043e-01f,+2.85113100e-02f,-6.83808792e-03f,
-7.98532888e-02f,-2.34093949e-01f,+7.12899193e-02f,-5.18986173e-02f,-2.62293011e-01f,
+1.38003305e-01f,-1.21262416e-01f,+3.93491127e-02f,+1.24422066e-01f,+2.29173243e-01f,
-3.17573994e-01f,+1.41715840e-01f,+3.49635892e-02f,+1.23207293e-01f,-3.69867384e-01f,
+9.87622514e-02f,+1.98105022e-01f,-4.01088037e-02f,+2.33619530e-02f,+2.77320296e-02f,
+9.92137939e-02f,-2.87806422e-01f,+1.12476088e-01f,+1.11153781e-01f,-5.75769693e-02f,
+9.36604515e-02f,+2.35559847e-02f,-4.77051809e-02f,-2.65242700e-02f,-4.96354476e-02f,
+3.12460363e-01f,+1.12476513e-01f,-2.37064898e-01f,-3.89213138e-03f,+7.41858706e-02f,
-1.45774364e-01f,+4.25135732e-01f,-2.38209590e-02f,+9.35820304e-03f,+9.31895673e-02f,
+2.74143293e-02f,+2.03822345e-01f,+1.10005923e-01f,+1.49900779e-01f,-6.66671479e-03f,
-1.12936668e-01f,-7.43679702e-02f,-1.47960871e-01f,-2.00817093e-01f,+1.73511773e-01f,
+1.39540181e-01f,+9.14474800e-02f,-3.81676495e-01f,+7.32926726e-02f,-1.16336673e-01f,
+1.18721455e-01f,+1.51373416e-01f,+2.23399073e-01f,+1.18379049e-01f,+7.19783977e-02f,
+3.81216146e-02f,+1.12004340e-01f,+1.66519374e-01f,+2.73770750e-01f,-3.35920863e-02f,
-3.57021876e-02f,+2.45728232e-02f,-6.68665022e-02f,-9.31308568e-02f,-2.08490849e-01f,
+2.21622944e-01f,+1.02184035e-01f,+7.12215975e-02f,+8.58479962e-02f,-2.08754260e-02f,
+4.85089384e-02f,+1.45394549e-01f,+6.57023862e-02f,+2.72549652e-02f,+1.07352778e-01f,
+1.85322329e-01f,-5.19902483e-02f,-1.13104098e-02f,+1.99799284e-01f,+5.36336601e-01f,
+7.88725540e-02f,+2.82528251e-02f,+5.69303706e-02f,-8.68036821e-02f,-9.43929181e-02f,
+1.52384430e-01f,-1.83270440e-01f,-9.66524892e-03f,+1.27351865e-01f,+1.45411715e-01f,
+2.63910145e-01f,+9.82122198e-02f,+4.21668589e-02f,-2.71258920e-01f,+4.35381047e-02f,
+1.49344709e-02f,-3.18020195e-01f,+2.53994405e-01f,+5.88768981e-02f,+8.57048631e-02f,
+1.62238672e-01f,+1.13016993e-01f,+2.59231478e-01f,-7.31461644e-02f,+5.01888320e-02f,
-2.35712856e-01f,-4.86399196e-02f,-6.85477280e-04f,+1.71538636e-01f,+1.80478394e-01f,
-2.28200424e-02f,-4.03026551e-01f,+2.73922626e-02f,+3.95679623e-02f,+1.54201817e-02f,
+1.94516152e-01f,+1.05428845e-02f,-4.92704026e-02f,-7.69743770e-02f,-1.64073985e-02f,
-1.15135789e-01f,-3.11054243e-03f,+2.10115891e-02f,+4.08236951e-01f,-1.35179162e-01f,
+1.52087003e-01f,+5.38822152e-02f,+1.36878043e-01f,+2.21812092e-02f,-5.05544133e-02f,
+2.19946150e-02f,+1.23894915e-01f,-7.05041140e-02f,-8.20026770e-02f,-4.03285027e-01f,
+7.07866531e-03f,-1.19100139e-01f,-9.71809495e-03f,+2.74384975e-01f,-3.04451957e-02f,
+1.55592918e-01f,-1.41856283e-01f,-2.43914261e-01f,+1.57755077e-01f,-7.06223547e-02f,
-6.20990545e-02f,-3.47902447e-01f,-8.35828483e-02f,+3.03187640e-03f,-1.39939293e-01f,
+5.41836140e-04f,-2.44792223e-01f,+8.44276845e-02f,-1.68363735e-01f,-1.20963924e-01f,
+2.10160986e-01f,+5.99236712e-02f,+3.98785882e-02f,-1.99391082e-01f,+3.59700993e-02f,
+8.45772102e-02f,-2.58934379e-01f,-2.85457909e-01f,+2.64878482e-01f,+3.94610852e-01f,
-6.79716617e-02f,-1.66073278e-01f,+1.49044037e-01f,+1.46256626e-01f,+1.06236443e-01f,
+2.05787599e-01f,+4.92974855e-02f,+2.36685589e-01f,+1.48666531e-01f,+7.40585383e-03f,
+1.33861274e-01f,+1.40808165e-01f,-7.56357834e-02f,-9.46418662e-03f,+1.11780884e-02f,
+4.89307977e-02f,-1.12706549e-01f,-1.79220038e-03f,+6.24086112e-02f,-1.67055607e-01f,
-5.40797487e-02f,+1.02309532e-01f,+2.75733192e-02f,-7.08687752e-02f,+1.21441662e-01f,
+1.02122441e-01f,-6.09482937e-02f,+1.04266383e-01f,-9.05139819e-02f,-5.72711378e-02f,
+5.81028126e-02f,+2.51241803e-01f,-1.59467962e-02f,-4.30458486e-01f,-1.85714319e-01f,
-3.13701555e-02f,+1.21036448e-01f,+9.48660448e-02f,+3.68999094e-02f,+5.91833927e-02f,
+9.79581196e-03f,-5.42711794e-01f,+1.64208800e-01f,-1.17493391e-01f,+2.20873952e-01f,
+2.09275454e-01f,-7.32722953e-02f,+1.17708324e-02f,+3.14794987e-01f,+1.10019150e-03f,
+1.37609303e-01f,+8.08385238e-02f,+7.18101021e-03f,+9.13815759e-03f,-2.04153314e-01f,
-2.97887206e-01f,-8.15618187e-02f,+1.54309541e-01f,-4.16760482e-02f,+1.47550538e-01f,
-1.21481858e-01f,-3.06003653e-02f,-2.13766824e-02f,+4.89445068e-02f,-1.91693834e-03f,
+6.39346540e-02f,-1.88002884e-01f,-2.37217307e-01f,-1.37875289e-01f,+1.78207271e-02f,
+1.21059284e-01f,+2.35059541e-02f,+2.65346289e-01f,-6.82514012e-02f,+3.74512970e-02f,
-3.74897122e-01f,-9.52364039e-03f,-6.90170601e-02f,+6.27169609e-02f,-1.61906600e-01f,
-4.11934145e-02f,-1.39059275e-01f,-1.12163119e-01f,-1.20563872e-01f,-4.90113720e-02f,
-4.94627021e-02f,-1.02065273e-01f,-3.94321494e-02f,-8.63426849e-02f,-1.80667549e-01f,
+1.38415419e-03f,-1.24862371e-02f,-2.83430587e-03f,+3.76630425e-02f,+1.60547778e-01f,
+4.56908494e-01f,+1.59603596e-01f,+3.01421314e-01f,-1.02165371e-01f,-2.69659519e-01f,
+1.46289140e-01f,-5.93250338e-03f,+6.21473417e-02f,+2.11397246e-01f,-7.73614198e-02f,
-1.96436882e-01f,-6.06986135e-02f,+2.58721739e-01f,-1.60492837e-01f,-3.11122257e-02f,
-3.26515943e-01f,+8.27361718e-02f,-5.48378229e-02f,+2.20407799e-01f,-2.03712299e-01f,
+9.75669697e-02f,-8.78191143e-02f,-2.99760878e-01f,+2.65838578e-02f,-1.82181656e-01f,
+3.86842005e-02f,-4.08039019e-02f,-1.71689317e-02f,-2.33130112e-01f,+7.66356662e-02f,
+2.65625954e-01f,+3.18205953e-02f,-2.97071725e-01f,-8.84015709e-02f,+6.42154962e-02f,
-5.64336367e-02f,+1.67884320e-01f,-1.93354748e-02f,+4.63829786e-02f,-4.74578775e-02f,
-2.24291191e-01f,-1.22203622e-02f,+1.70010179e-01f,-1.10425830e-01f,-3.97097133e-02f,
+1.51378633e-02f,+3.60665947e-01f,+9.41622183e-02f,-7.69057050e-02f,-1.78007066e-01f,
-2.96139479e-01f,+1.73370332e-01f,+2.86029637e-01f,-3.34663749e-01f,-1.11634210e-01f,
-6.26484603e-02f,+2.47178599e-02f,+1.92044422e-01f,+7.93487430e-02f,-5.39907031e-02f,
+1.33452132e-01f,+4.78396825e-02f,+1.68101400e-01f,+5.09326518e-01f,-1.71791047e-01f,
+6.36742916e-03f,+1.81589529e-01f,-1.87636167e-01f,-2.14543968e-01f,+3.13110054e-01f,
+1.14746757e-01f,+6.11049086e-02f,-1.00977257e-01f,+3.73865575e-01f,+3.43766287e-02f,
+3.92461903e-02f,+2.33600244e-01f,-1.64791069e-04f,+3.80536057e-02f,-3.25120986e-02f,
-1.68834984e-01f,-1.53583828e-02f,+2.41527826e-01f,-2.30082572e-01f,-1.18671700e-01f,
+3.91626637e-03f,+3.72077599e-02f,-3.45757097e-01f,+5.47631606e-02f,+5.09051085e-01f,
+1.88165411e-01f,-2.10451767e-01f,+1.32142724e-02f,-1.83827311e-01f,-1.61431660e-03f,
-9.93582234e-02f,+7.04314187e-02f,-3.49952221e-01f,+1.02004796e-01f,+2.33681798e-01f,
+9.00846124e-02f,+1.94190085e-01f,+8.51904154e-02f,+3.09200082e-02f,+1.59018151e-02f,
-1.22808591e-01f,+4.71992046e-01f,+3.43198329e-01f,+2.74288595e-01f,-9.85503197e-02f,
-7.17644915e-02f,+3.38543147e-01f,-5.79605587e-02f,-4.70435917e-02f,-3.17337304e-01f,
-5.04509620e-02f,-1.65435076e-02f,-3.79538871e-02f,+1.29650250e-01f,+2.58818537e-01f,
-3.50689858e-01f,-3.67725268e-02f,-4.27193083e-02f,-1.00789636e-01f,+2.17090055e-01f,
-1.89889878e-01f,+2.17047960e-01f,+9.48592946e-02f,+1.15932062e-01f,+8.02197680e-02f,
+2.96825171e-02f,-9.66357142e-02f,-9.66805369e-02f,+2.53619194e-01f,-3.94101860e-03f,
+1.52843043e-01f,+2.25466296e-01f,+1.69487521e-01f,+1.12680674e-01f,+5.61589897e-01f,
-1.48630477e-02f,+1.48977414e-01f,-1.18355401e-01f,-1.89353645e-01f,+2.44626012e-02f,
+1.12378739e-01f,-2.71151476e-02f,+1.65213764e-01f,-1.07172914e-01f,+1.38068840e-01f,
-1.22838840e-01f,-1.52115999e-02f,+8.84990320e-02f,+3.90480906e-02f,+1.73588648e-01f,
+1.99918434e-01f,-2.74322987e-01f,+1.19021475e-01f,+1.74492121e-01f,+1.85399309e-01f,
-4.35403675e-01f,-1.90272033e-01f,-1.68640971e-01f,-1.37973443e-01f,-3.26991007e-02f,
+1.48798898e-01f,-2.00338379e-01f,+1.68428078e-01f,+9.86322612e-02f,+5.29922321e-02f,
-1.42214760e-01f,-1.77139163e-01f,+3.36916670e-02f,+4.22717296e-02f,+1.05129354e-01f,
+5.03226280e-01f,-6.12886474e-02f,+7.91998208e-02f,+1.41808838e-01f,+2.18570828e-02f,
-3.32758315e-02f,-1.90180987e-01f,-1.13432601e-01f,-1.06344678e-01f,+1.06972195e-01f,
+8.28675702e-02f,-2.97457613e-02f,+7.40301237e-02f,+2.78313905e-01f,-2.82596171e-01f,
-4.95845601e-02f,+5.33908233e-02f,+1.25772551e-01f,+1.11516919e-02f,+7.94125944e-02f,
-1.10817961e-02f,+2.25351565e-02f,-6.59409836e-02f,+3.92518640e-01f,+9.53528136e-02f,
-2.16345079e-02f,+4.86827642e-02f,+2.50649191e-02f,+4.25988548e-02f,-2.65785642e-02f,
-1.55302957e-01f,+3.87227908e-02f,+1.93961352e-01f,+7.29170907e-03f,-2.79496913e-03f,
+6.51182607e-02f,-8.97076204e-02f,+2.07129896e-01f,+1.41473249e-01f,-2.45168015e-01f,
+3.86940569e-01f,+1.96506932e-01f,+5.46631366e-02f,-4.79666032e-02f,-3.34073380e-02f,
+2.22209394e-02f,-1.11575678e-01f,-1.41355783e-01f,-4.82832864e-02f,-3.89496796e-02f,
+2.02992231e-01f,+1.56813368e-01f,+1.93185790e-03f,-1.71122685e-01f,+1.44692823e-01f,
+3.40483710e-02f,-5.30937798e-02f,+2.72359371e-01f,-1.69326708e-01f,+2.50804871e-01f,
-1.20114081e-01f,-6.45238906e-02f,-3.27881202e-02f,+1.88256919e-01f,+5.05816899e-02f,
+2.91146860e-02f,-2.84337513e-02f,-1.27571180e-01f,+1.20862219e-02f,-1.31376222e-01f,
+3.20812136e-01f,-8.64874851e-03f,-1.30759835e-01f,+3.87060523e-01f,+1.59196872e-02f,
+1.01784699e-01f,+6.53374894e-03f,-2.21529096e-01f,+1.67332411e-01f,-2.56387115e-01f,
+5.23628742e-02f,+1.82003140e-01f,-1.74417481e-01f,+2.48492330e-01f,-1.01933271e-01f,
+4.31440910e-03f,-8.64276662e-02f,+2.10406035e-01f,+3.60767722e-01f,+5.84963895e-02f,
-5.88165075e-02f,-5.58997653e-02f,+7.82711506e-02f,-1.21936083e-01f,-1.10421218e-01f,
+1.24001205e-01f,+1.70942158e-01f,+6.49908930e-02f,+3.71510983e-02f,+3.49839106e-02f,
-1.71961877e-02f,-4.36841957e-02f,-2.08938360e-01f,-5.92921823e-02f,-7.47798905e-02f,
+2.51143664e-01f,-1.37165293e-01f,+3.03920787e-02f,+1.65024459e-01f,+1.03627458e-01f,
+3.61800380e-02f,+1.53015345e-01f,+1.62060291e-01f,-1.33843541e-01f,+1.45025074e-01f,
+3.28589410e-01f,-3.96463946e-02f,-1.60787150e-01f,-1.23034678e-01f,+8.03292543e-03f,
+1.93536535e-01f,+5.24247512e-02f,+1.52068138e-01f,-1.03135519e-01f,+1.66202247e-01f,
-9.15987492e-02f,+1.54132426e-01f,+2.71595679e-02f,-1.81594700e-01f,+1.61204085e-01f,
+1.02214545e-01f,+2.35618521e-02f,-5.32095432e-02f,+1.94198206e-01f,+2.03362003e-01f,
+2.59717144e-02f,+2.55241934e-02f,+1.41889945e-01f,+3.24657187e-02f,+1.65705122e-02f,
+9.49473586e-03f,+1.15545616e-01f,+4.23294067e-01f,+2.29975417e-01f,-1.44955501e-01f,
+1.06461998e-02f,-2.09799111e-01f,+2.28905082e-01f,+2.63970852e-01f,-1.11695714e-01f,
-2.10378736e-01f,-1.72344759e-01f,+1.77525595e-01f,+1.12164151e-02f,+1.80570975e-01f,
-9.84153003e-02f,-1.09127000e-01f,-7.92298317e-02f,-8.89225155e-02f,+1.11298256e-01f,
-4.43750381e-01f,+1.32876858e-02f,-7.02860355e-02f,+1.34490684e-01f,+1.19043142e-01f,
+1.27004221e-01f,+5.54406494e-02f,+4.20909345e-01f,+2.76557177e-01f,-2.12876010e-03f,
+1.62718937e-01f,-2.59274412e-02f,-6.07450455e-02f,+4.23027910e-02f,-5.82442284e-02f,
-1.25301942e-01f,-6.85726181e-02f,+1.23690993e-01f,-7.96349198e-02f,-1.20817177e-01f,
+1.38655722e-01f,+2.41910651e-01f,+2.43151739e-01f,+5.41866608e-02f,+2.64565468e-01f,
-3.09586793e-01f,+1.64757818e-01f,-1.35481432e-01f,-6.32756352e-02f,-5.76271117e-02f,
-1.42561913e-01f,+1.11281335e-01f,+9.42275748e-02f,+8.85847732e-02f,-1.22799166e-01f,
-7.00771734e-02f,-2.95205531e-03f,+1.65480539e-01f,+2.59025306e-01f,+1.94413826e-01f,
-7.69903809e-02f,-1.36553511e-01f,+1.72830656e-01f,-3.18581820e-03f,+5.14829531e-03f,
+2.06023306e-02f,-2.24504285e-02f,+3.63418534e-02f,-1.15132831e-01f,+1.86861053e-01f,
-1.31263241e-01f,-7.31507689e-02f,-5.09038903e-02f,-1.88633114e-01f,+7.08298236e-02f,
-2.33736545e-01f,+2.88544953e-01f,-2.29818672e-02f,+6.32412955e-02f,-9.15001035e-02f,
+1.97815835e-01f,-1.54056773e-01f,+1.60315707e-01f,-1.12193353e-01f,-3.88957500e-01f,
-3.36068235e-02f,-1.11714266e-01f,+2.11076871e-01f,-1.83964700e-01f,+2.00546160e-01f,
-1.08707190e-01f,-1.62200317e-01f,+2.39649922e-01f,+1.39428094e-01f,+1.03898466e-01f,
+9.98568460e-02f,+4.26037490e-01f,+1.63834929e-01f,-6.06577620e-02f,-2.64014155e-01f,
+3.55437726e-01f,-1.89714074e-01f,+2.24671647e-01f,-1.01626858e-01f,-1.25617117e-01f,
+2.27933511e-01f,+2.21270591e-01f,-1.65986478e-01f,-2.30928376e-01f,+2.04369843e-01f,
-1.66110583e-02f,-3.46795693e-02f,+6.58333004e-02f,-2.04002425e-01f,+2.44032338e-01f,
-1.68703228e-01f,+6.87667802e-02f,-1.74419567e-01f,+1.20796211e-01f,+8.07268471e-02f,
-1.69708163e-01f,+6.23065196e-02f,+2.82898955e-02f,+6.29611909e-02f,+1.53711960e-01f,
-7.53990039e-02f,-8.87546614e-02f,-2.23884936e-02f,-1.94297805e-02f,-2.57459313e-01f,
-7.57793663e-03f,+2.26921111e-01f,+1.58842310e-01f,-1.70860410e-01f,+1.54740661e-01f,
-9.78413373e-02f,+1.28606647e-01f,+2.52997056e-02f,+1.27837382e-04f,+1.18648618e-01f,
-1.11875869e-01f,+1.12481661e-01f,-4.07240838e-02f,+1.16879813e-01f,-2.64085591e-01f,
-1.78386159e-02f,-1.61973849e-01f,+9.13538709e-02f,-1.52599245e-01f,+1.05655432e-01f,
-8.91735256e-02f,-1.07124589e-01f,+4.56233695e-02f,-4.83764857e-02f,-1.00226983e-01f,
+1.83055624e-01f,-2.68567830e-01f,+2.66204178e-01f,+1.40468478e-01f,+2.49495760e-01f,
-1.23083442e-01f,-1.18642092e-01f,-2.35442612e-02f,+6.37250319e-02f,+7.38595501e-02f,
+2.00978681e-01f,+2.58020163e-01f,+3.81595083e-02f,-3.62518579e-02f,-7.43846372e-02f,
+2.02857658e-01f,+2.03812182e-01f,+1.08643778e-01f,+1.62217155e-01f,+8.49803612e-02f,
-3.47024463e-02f,-6.08335808e-02f,-7.58880749e-02f,+8.82661045e-02f,-1.42423004e-01f,
-1.65699143e-02f,+2.53234476e-01f,-2.81657279e-01f,+1.25483096e-01f,+1.18460253e-01f,
+2.22549200e-01f,-2.14857325e-01f,+5.41838594e-02f,+3.97779375e-01f,-9.58408117e-02f,
+1.88247859e-01f,-5.64448163e-02f,-2.43655704e-02f,+5.31200506e-02f,+5.87493256e-02f,
-1.46438787e-02f,-8.87968987e-02f,-1.85275704e-01f,+2.13937446e-01f,+7.87254721e-02f,
+5.83942570e-02f,+1.61712039e-02f,+9.40442011e-02f,-6.51120842e-02f,-4.93577980e-02f,
+2.88478822e-01f,-3.83595601e-02f,+2.56897062e-01f,+5.91855869e-02f,-3.02480236e-02f,
+1.94856077e-01f,+6.39170185e-02f,+2.85292452e-04f,-1.02090709e-01f,+9.66794416e-02f,
+1.53513625e-01f,-1.17894202e-01f,+1.69102162e-01f,+2.70873636e-01f,+4.12544198e-02f,
+8.28256682e-02f,+1.56310126e-01f,-1.64473593e-01f,+7.60969967e-02f,-2.09546074e-01f,
+8.48671421e-02f,+2.54665501e-02f,+2.58063767e-02f,+1.26104325e-01f,+8.33241940e-02f,
+1.36463389e-01f,-7.93137401e-02f,-6.52807951e-02f,-6.91989553e-04f,+7.52321631e-02f,
-1.65183663e-01f,-1.05646618e-01f,+8.52770880e-02f,+3.02365515e-02f,+1.76985681e-01f,
+4.10047136e-02f,-4.78061661e-02f,+3.48853767e-01f,-1.15191385e-01f,+5.36002740e-02f,
-2.60288686e-01f,+2.30071083e-01f,+1.64338395e-01f,-6.45553768e-02f,-9.64188129e-02f,
-9.89957750e-02f,+9.05340016e-02f,+8.43560398e-02f,+9.53283980e-02f,-9.14926678e-02f,
+6.48183078e-02f,+1.14925243e-01f,+1.43705279e-01f,+5.81374504e-02f,-9.02859569e-02f,
-8.75661820e-02f,+1.44573510e-01f,+8.26826841e-02f,+2.10024551e-01f,-1.68229472e-02f,
-4.18772222e-03f,+1.64442565e-02f,-7.29522780e-02f,+1.62229862e-03f,+6.80943802e-02f,
+1.77003145e-02f,+2.56047603e-02f,-1.78644672e-01f,-1.54501330e-02f,+1.79277077e-01f,
+1.62653908e-01f,-1.17581375e-01f,+1.25710875e-01f,+1.36889175e-01f,+5.71801998e-02f,
-7.64707252e-02f,-4.66505624e-03f,+5.32801859e-02f,+1.23249657e-01f,+8.72928947e-02f,
+2.09932283e-01f,+1.94600523e-01f,+1.55307502e-01f,+1.48175761e-01f,-4.32379879e-02f,
+6.08627126e-02f,-9.06000845e-03f,-1.00157455e-01f,-1.47667825e-02f,+2.13227853e-01f,
+2.21597150e-01f,-1.90678775e-01f,+6.74826130e-02f,+1.14432067e-01f,-1.57013237e-01f,
+6.14549182e-02f,+2.07983404e-01f,+1.63519178e-02f,-1.31423548e-01f,-3.30735743e-02f,
-1.15416847e-01f,-1.93307355e-01f,+1.00787804e-01f,+1.56882152e-01f,+6.47618473e-02f,
+6.47324696e-02f,+2.07952753e-01f,+1.80062383e-01f,-2.66257245e-02f,-5.70318177e-02f,
+8.88251439e-02f,+3.15702334e-02f,+9.93207470e-02f,-9.92279947e-02f,+5.26073650e-02f,
+2.22357973e-01f,+1.06466167e-01f,-1.33651838e-01f,+1.26893401e-01f,+2.25012049e-01f,
-6.70964494e-02f,+6.46138797e-03f,+1.01599842e-01f,-3.59481014e-02f,-7.28073865e-02f,
+7.75273237e-03f,+2.94844974e-02f,-2.26952687e-01f,+3.78385365e-01f,+6.51672184e-02f,
-2.06221063e-02f,-1.05825812e-01f,+2.57059596e-02f,-2.93179452e-01f,+2.32550681e-01f,
-1.84498861e-01f,+4.47195061e-02f,-7.23907351e-02f,-1.41509518e-01f,+2.37528831e-01f,
+2.00806335e-01f,-3.77192348e-02f,+3.04250922e-02f,-2.16390178e-01f,+3.96509841e-02f,
+1.75389498e-01f,-2.42738217e-01f,-4.28636670e-02f,+2.93257646e-02f,+1.60367489e-01f,
+1.91628084e-01f,+2.17791870e-01f,+7.79465809e-02f,+2.99665798e-02f,+6.61613345e-02f,
+1.65273905e-01f,-1.52161360e-01f,-5.71863428e-02f,-1.08087607e-01f,+2.41451889e-01f,
-4.50843126e-02f,+3.61686721e-02f,+5.09996340e-02f,-4.16090563e-02f,-6.18538745e-02f,
-5.87703697e-02f,+2.29972571e-01f,-1.55410007e-01f,-1.93091422e-01f,+1.17239505e-01f,
-1.35102749e-01f,+8.05939957e-02f,+6.69971630e-02f,+1.18063942e-01f,-1.23834871e-01f,
+2.05031052e-01f,-9.11112279e-02f,+2.20934257e-01f,-2.84662396e-01f,-4.97101322e-02f,
+3.43770415e-01f,-3.97584289e-02f,-1.69327203e-02f,+1.05212279e-01f,+1.19986835e-04f,
-2.76193983e-04f,+9.46464017e-02f,-8.13232139e-02f,+5.64422011e-02f,+2.58715779e-01f,
+1.34597778e-01f,+2.49632224e-02f,+5.29431216e-02f,+1.03160232e-01f,+1.18951574e-01f,
-4.70508374e-02f,-2.26560503e-01f,+4.02415805e-02f,+9.34022442e-02f,+1.43809691e-01f,
+4.87741865e-02f,-2.25639641e-01f,+2.49505639e-01f,-2.22320985e-02f,+1.12105228e-01f,
+1.00511827e-01f,-6.74325675e-02f,+1.07383899e-01f,-1.10230006e-01f,+2.39704400e-01f,
+2.94703186e-01f,-8.81700218e-03f,-3.61518376e-02f,-6.29866794e-02f,-1.42474880e-03f,
+9.42772850e-02f,+3.13085853e-03f,+1.79639429e-01f,+1.37992457e-01f,-1.76535591e-01f,
+6.36388510e-02f,+6.80863038e-02f,-1.39531121e-01f,+2.42639735e-01f,-1.96967036e-01f,
-4.08111550e-02f,+1.82712406e-01f,-4.82907258e-02f,+1.26391739e-01f,-1.08250445e-02f,
+3.76298390e-02f,-1.15377707e-02f,+9.67961997e-02f,-3.87197249e-02f,-7.98210949e-02f,
+2.44789328e-02f,-3.68520357e-02f,-1.63720265e-01f,+1.04511850e-01f,+2.21665829e-01f,
-4.11695288e-03f,-5.80546185e-02f,-1.68970898e-01f,+2.34588496e-02f,+1.53955340e-01f,
+5.68579361e-02f,-1.52786076e-02f,+4.23168615e-02f,+2.01175988e-01f,-3.87476981e-02f,
-6.92548677e-02f,+5.27881086e-03f,+2.20800415e-01f,+2.11659864e-01f,+7.16248751e-02f,
+1.25725521e-03f,-9.65130478e-02f,+9.36535671e-02f,+1.16160316e-02f,+9.54660103e-02f,
+5.45281172e-02f,+9.71148387e-02f,-1.42119020e-01f,-1.72686726e-01f,+1.65489152e-01f,
+1.90555960e-01f,+2.04103455e-01f,+1.35757148e-01f,-2.74110846e-02f,+1.63123310e-01f,
+5.21416254e-02f,+1.47789881e-01f,-8.23248476e-02f,+3.11741838e-03f,-1.93948492e-01f,
+2.52365917e-01f,+2.79690266e-01f,-2.85043772e-02f,-7.45998845e-02f,-5.32293692e-03f,
-2.12967366e-01f,+2.63055682e-01f,+3.99561301e-02f,+4.64792065e-02f,-7.90556222e-02f,
+2.89792120e-01f,-3.27861942e-02f,-1.57546431e-01f,+4.49147850e-01f,+2.02141002e-01f,
+7.61247799e-02f,+8.96954387e-02f,-1.18876308e-01f,-9.14736688e-02f,+8.85261223e-03f,
+1.60111278e-01f,+3.84325571e-02f,-3.16912644e-02f,+9.93922725e-02f,-1.14984162e-01f,
-5.83176203e-02f,+1.26680911e-01f,+5.81278175e-04f,-9.57121700e-02f,+1.38554275e-01f,
+4.39486504e-02f,+3.49193737e-02f,-1.29795492e-01f,-8.29811841e-02f,-1.63915113e-01f,
-1.02989614e-01f,-4.65576053e-02f,-1.79002091e-01f,-1.14891633e-01f,+1.76736727e-01f,
+9.00207162e-02f,+1.88169003e-01f,+2.60590047e-01f,+9.45892036e-02f,+2.03990296e-01f,
-9.61872470e-03f,+6.61289841e-02f,-6.89584240e-02f,+7.20162988e-02f,-2.24450350e-01f,
+9.94265899e-02f,-1.63178965e-01f,-6.06872607e-03f,+4.78492603e-02f,-5.82382046e-02f,
-1.13521196e-01f,+1.33998588e-01f,+3.73975933e-02f,+1.05502643e-01f,+1.01457506e-01f,
-1.96795017e-01f,+9.33097377e-02f,+1.46251127e-01f,+9.40805525e-02f,-8.25385973e-02f,
+3.74508053e-01f,+6.31199032e-02f,-9.47367847e-02f,+1.44659122e-02f,+8.73915702e-02f,
+2.55059004e-01f,+9.65516046e-02f,-2.79020101e-01f,-7.17147812e-02f,+8.68636966e-02f,
-1.24667600e-01f,+9.16583538e-02f,-9.85357091e-02f,+2.58627441e-02f,+2.49045625e-01f,
-1.43934891e-01f,-1.45821840e-01f,+1.60662115e-01f,+1.82612211e-01f,-6.59586340e-02f,
-2.06428599e-02f,+1.57380521e-01f,+1.70894101e-01f,+7.84656927e-02f,-3.83122228e-02f,
-6.10799082e-02f,+2.55731661e-02f,-6.80046752e-02f,-1.83080614e-01f,+5.19694239e-02f,
+1.17877014e-02f,+7.78832361e-02f,+7.88650755e-03f,+6.63832715e-03f,+1.69882357e-01f,
+2.56711207e-02f,+3.08152498e-03f,-2.20344160e-02f,-2.69178953e-02f,-3.40080500e-01f,
-8.84212833e-03f,-7.75586069e-02f,-3.28945834e-03f,+7.90806040e-02f,-1.45482004e-01f,
+3.84701304e-02f,-1.10562928e-01f,+7.31480420e-02f,+4.59518880e-02f,+2.62518916e-02f,
+4.95602451e-02f,-1.09267145e-01f,-1.55692697e-02f,+4.98715788e-01f,-2.40062729e-01f,
-5.20660877e-02f,-1.80204839e-01f,+2.69531578e-01f,+1.49604321e-01f,-8.21849331e-03f,
+3.21334824e-02f,-7.79135600e-02f,+3.16579670e-01f,+1.84729367e-01f,-1.07344128e-02f,
-2.63556123e-01f,-2.15860188e-01f,+1.27551824e-01f,-1.05255179e-01f,+2.47119099e-01f,
-1.16043136e-01f,+2.12640479e-01f,+5.64681599e-03f,+1.06934555e-01f,+1.87765174e-02f,
-1.21514857e-01f,+2.16565505e-02f,-7.79395923e-04f,-1.47328198e-01f,-4.72532362e-02f,
+5.98045662e-02f,-8.08870941e-02f,-2.50653088e-01f,+1.76089853e-02f,+6.12936430e-02f,
+9.83363464e-02f,-1.81853086e-01f,-1.61773995e-01f,-2.11633295e-01f,-9.03151929e-02f,
-5.68072498e-02f,+1.50411371e-02f,+2.30559513e-01f,+2.70976603e-01f,-8.21267366e-02f,
-7.14336038e-02f,-8.15537125e-02f,+2.01154083e-01f,-4.36841510e-03f,-7.05957189e-02f,
-2.91793235e-02f,+2.81236563e-02f,+1.95716262e-01f,+1.04505949e-01f,+1.51466072e-01f,
-2.62090743e-01f,+2.43073463e-01f,+2.36500487e-01f,-9.00132731e-02f,-8.20415318e-02f,
+3.83297564e-03f,-3.75095844e-01f,-3.25814873e-01f,+8.90205950e-02f,+2.79132836e-02f,
-5.76443737e-03f,-1.21963136e-02f,+1.52256802e-01f,+8.90568197e-02f,-1.92108944e-01f,
+2.43065029e-01f,-2.01384649e-02f,+1.07925631e-01f,+4.23085660e-01f,-2.03530163e-01f,
+1.67074129e-01f,+7.25112632e-02f,+2.49100849e-01f,+1.32702693e-01f,+8.84340629e-02f,
-1.52228579e-01f,-8.01122189e-02f,-8.11127052e-02f,-1.55725658e-01f,+7.27479085e-02f,
-1.01000451e-01f,+9.19160321e-02f,+3.33559625e-02f,+2.43708678e-02f,+1.64036214e-01f,
+6.56227887e-01f,+1.53817162e-01f,-2.51425624e-01f,+1.19739719e-01f,+1.06263883e-01f,
-3.88514176e-02f,-1.60702080e-01f,+7.47496486e-02f,+7.03470290e-01f,-1.50763050e-01f,
+2.10846916e-01f,+1.77206233e-01f,-8.75487626e-02f,+2.79692560e-03f,-1.98636770e-01f,
+1.02376692e-01f,-1.45299822e-01f,-3.67615223e-02f,+2.60221422e-01f,-2.31210411e-01f,
+6.91313893e-02f,-4.32888679e-02f,+9.23372358e-02f,-1.28617615e-01f,+1.31530493e-01f,
-1.72493413e-01f,+3.54663253e-01f,+8.63157958e-02f,-7.08438084e-02f,-1.89045131e-01f,
+1.32121891e-01f,+3.00567430e-02f,-2.56684422e-02f,-9.46183652e-02f,+2.84932882e-01f,
-9.37372148e-02f,+2.69030839e-01f,-6.22996613e-02f,-2.08275869e-01f,+5.58985807e-02f,
+2.74032295e-01f,-2.35920638e-01f,-2.51813084e-02f,-1.48700148e-01f,+2.63334453e-01f,
-2.26689264e-01f,+2.03542560e-01f,+1.95048086e-03f,+4.75784838e-02f,+8.33714977e-02f,
-9.48524997e-02f,+5.84304556e-02f,-1.99087020e-02f,+1.63263798e-01f,+2.26935834e-01f,
+1.05050921e-01f,+2.96396106e-01f,-1.27205551e-01f,-1.14978133e-02f,+2.09869340e-01f,
-1.08910538e-02f,+2.18375310e-01f,-2.08203197e-02f,+9.02657136e-02f,+6.94087520e-02f,
-9.06316265e-02f,+3.40741783e-01f,+4.65831123e-02f,+2.48566433e-03f,+4.63804901e-02f,
+3.79280820e-02f,+4.71207976e-01f,-7.04193860e-02f,+1.70272827e-01f,+1.37355104e-02f,
-9.26028788e-02f,+7.46820495e-02f,-1.01106115e-01f,+9.02491733e-02f,-2.27812424e-01f,
+6.10352494e-02f,+1.75233502e-02f,-5.34189939e-02f,+1.23279110e-01f,-9.67954695e-02f,
+1.05322888e-02f,+4.13675420e-02f,+4.92398925e-02f,+8.11836794e-02f,+2.53204167e-01f,
-8.60424265e-02f,-9.66558233e-02f,+6.42003536e-01f,+7.49744326e-02f,-2.16030568e-01f,
+1.32885009e-01f,-4.29276824e-02f,+3.49463709e-02f,+1.33583039e-01f,-2.51138825e-02f,
-1.94260314e-01f,+6.36783987e-02f,+2.79021412e-02f,+1.62302032e-01f,+1.25022903e-01f,
-2.16983169e-01f,-2.11135983e-01f,-1.16110772e-01f,+2.21532900e-02f,+5.95449582e-02f,
-5.49964011e-02f,+2.29513884e-01f,+1.51379228e-01f,+1.83875978e-01f,-8.16536415e-03f,
-1.90222293e-01f,-1.32557318e-01f,-1.96773019e-02f,-1.10522665e-01f,+5.42173423e-02f,
-1.96295809e-02f,-9.86463130e-02f,-8.35128576e-02f,-1.51279390e-01f,-1.30891085e-01f,
+2.10047588e-02f,-1.24058150e-01f,-1.08618349e-01f,+1.63719624e-01f,+1.34090200e-01f,
+4.63033617e-02f,-1.24681376e-01f,+4.39612791e-02f,-9.72571969e-02f,-8.20215642e-02f,
-2.76866034e-02f,+9.91933867e-02f,-1.47627041e-01f,+1.28944874e-01f,-2.77462788e-02f,
-7.70008788e-02f,+1.48350909e-01f,+2.59795815e-01f,-2.54848808e-01f,+1.57975897e-01f,
-5.41677251e-02f,+5.28915338e-02f,+1.34323826e-02f,-1.89976096e-02f,-5.14885271e-03f,
-3.53143848e-02f,-1.08152911e-01f,-1.46950394e-01f,+1.25987902e-01f,+6.88302591e-02f,
+4.87199947e-02f,-3.94669883e-02f,+1.08654439e-01f,-5.09369411e-02f,-4.31422330e-02f,
+3.79149280e-02f,+2.81697474e-02f,+5.44041395e-02f,-3.12985539e-01f,-9.76042897e-02f,
+7.80016333e-02f,+1.53506756e-01f,-2.52086312e-01f,+1.81597278e-01f,+1.95341706e-01f,
+8.36404264e-02f,+1.29607752e-01f,+1.78607345e-01f,-8.16316605e-02f,+1.52021432e-02f,
-2.84376413e-01f,-4.44350801e-02f,+1.99420884e-01f,-7.56597966e-02f,-1.47105092e-02f,
+7.93156996e-02f,+1.13084629e-01f,-4.57616039e-02f,-8.73012617e-02f,+1.91043884e-01f,
-2.87597179e-01f,+1.61459699e-01f,+1.95618980e-02f,+4.71288599e-02f,-2.98582315e-02f,
-6.00436926e-02f,+1.89039245e-01f,-1.90096609e-02f,+1.79388061e-01f,+3.03244740e-01f,
-3.34368348e-02f,+4.21535708e-02f,+1.81748662e-02f,+5.91446720e-02f,+7.26111308e-02f,
-1.66502699e-01f,-1.13741979e-01f,+1.47448942e-01f,+8.75662342e-02f,+2.58202851e-02f,
+7.24724010e-02f,-2.58338809e-01f,-7.49495178e-02f,-1.42653704e-01f,+1.27501972e-02f,
+1.17531009e-01f,-6.64547384e-02f,+2.03285187e-01f,+1.20521784e-01f,+2.35805541e-01f,
+3.84226330e-02f,-2.34547943e-01f,-6.85097352e-02f,-7.91631415e-02f,-1.71099991e-01f,
+3.11337262e-01f,+1.32032380e-01f,+9.96131971e-02f,+2.47760415e-01f,+2.58449048e-01f,
-1.55676842e-01f,+1.50812596e-01f,+1.59150824e-01f,+7.87280500e-02f,+1.15441129e-01f,
-8.54488835e-02f,+5.66461124e-02f,-1.22143179e-01f,+2.07068734e-02f,-1.09315574e-01f,
+7.21823201e-02f,+2.42002726e-01f,-7.79780746e-03f,-8.80936012e-02f,+4.93046492e-02f,
+1.09699890e-01f,-2.72809744e-01f,+2.78156966e-01f,-3.02261382e-01f,-5.83751984e-02f,
-1.71800166e-01f,-1.10481024e-01f,-1.95171610e-01f,+2.91601699e-02f,+3.41510266e-01f,
+2.00814724e-01f,+7.24009126e-02f,-4.06718478e-02f,-6.75269812e-02f,+7.79824629e-02f,
-2.85784900e-01f,+1.73117161e-01f,+3.60598415e-02f,-1.01164080e-01f,-1.00560123e-02f,
-3.88549790e-02f,-1.07608549e-01f,-2.09314749e-01f,-5.49507551e-02f,+2.13474423e-01f,
+3.86545211e-02f,+2.12786734e-01f,+2.65936647e-02f,+3.06517094e-01f,-2.83680439e-01f,
+5.19341938e-02f,+1.34953320e-01f,-2.85460204e-01f,+8.79252478e-02f,+1.93477552e-02f,
+1.42379999e-01f,+6.52457029e-02f,-2.02704057e-01f,-1.19212396e-01f,+7.86762312e-03f,
+2.45599508e-01f,+5.29112555e-02f,-6.23690430e-03f,-4.72413227e-02f,-5.63952625e-02f,
+3.00750211e-02f,-1.85321718e-01f,-7.18021672e-03f,-2.39733189e-01f,+1.20883249e-01f,
-1.48744762e-01f,-1.98829725e-01f,-2.70839054e-02f,+4.19564135e-02f,-5.66120036e-02f,
+4.16830719e-01f,+1.69941962e-01f,-1.94566622e-02f,-3.53475586e-02f,+5.45081981e-02f,
+3.46074179e-02f,-3.00714970e-01f,-2.04748601e-01f,+2.93488391e-02f,-4.03115362e-01f,
+9.15174745e-03f,-1.96897775e-01f,-3.00547704e-02f,+3.78611088e-02f,+1.47911221e-01f,
+1.45199344e-01f,+7.72316828e-02f,-6.92797229e-02f,-2.35512592e-02f,-4.31086361e-01f,
-7.52896369e-02f,+1.47668839e-01f,+6.28371835e-02f,+8.81917700e-02f,+3.90009850e-01f,
+1.99139029e-01f,-6.07022084e-02f,+9.17900279e-02f,+2.64026821e-01f,+1.67626336e-01f,
-1.58503741e-01f,+1.54446900e-01f,+4.66755852e-02f,-9.72561389e-02f,+7.71296769e-02f,
-3.26131992e-02f,-2.11882442e-01f,-1.76254883e-01f,+6.68082014e-02f,-3.84353548e-02f,
+2.97540247e-01f,+1.88585892e-02f,+5.61730564e-02f,+1.51590392e-01f,-1.49317905e-01f,
-5.73720373e-02f,+1.70866579e-01f,-6.49811551e-02f,+5.45443501e-03f,+3.13551784e-01f,
-1.64591242e-02f,+8.56165513e-02f,+2.51700342e-01f,-2.00470015e-01f,-6.18264861e-02f,
-1.91658288e-02f,-1.05086029e-01f,+2.36610949e-01f,+1.51007250e-01f,+4.60141450e-02f,
-1.52133731e-02f,-3.77137959e-01f,+9.03947800e-02f,-1.36376396e-01f,+3.91800478e-02f,
-1.06303114e-02f,+8.66757035e-02f,+8.70874748e-02f,-1.04995705e-01f,+6.84850290e-02f,
-6.19881339e-02f,-2.08718866e-01f,-3.19465756e-01f,-1.45353675e-01f,-1.89921603e-01f,
-2.18742639e-01f,-4.58417125e-02f,+6.03542626e-02f,-5.35669178e-02f,+3.21303643e-02f,
+1.99281856e-01f,+1.11278057e-01f,-2.36863121e-01f,-1.98380426e-02f,+5.27624935e-02f,
-2.58491989e-02f,+1.25388429e-01f,-5.84088303e-02f,-3.15409765e-04f,-6.17500506e-02f,
-4.61854711e-02f,+8.58319700e-02f,-1.33138895e-01f,+3.76210362e-02f,+4.80287790e-01f,
-5.53596858e-03f,+1.53753981e-01f,-1.86216787e-01f,+2.01909989e-01f,-1.09464318e-01f,
-2.07284376e-01f,+5.66917621e-02f,+2.87198097e-01f,-1.38877615e-01f,-1.66487917e-01f,
-1.88159682e-02f,+1.24800853e-01f,-1.41530484e-01f,+7.25396350e-02f,+2.16472298e-01f,
-6.91985041e-02f,+5.65393604e-02f,-2.81389475e-01f,-6.95557445e-02f,+2.58868247e-01f,
+1.35576233e-01f,-5.48495837e-02f,+3.96598317e-02f,+3.03411126e-01f,+2.69443002e-02f,
+1.42282471e-01f,-5.98718151e-02f,+1.44653559e-01f,+1.43135399e-01f,-1.50861219e-02f,
+1.22840770e-01f,+3.80783118e-02f,-8.69935155e-02f,-1.66084245e-01f,+1.42231360e-01f,
-4.57278825e-02f,-2.15788428e-02f,+3.45454067e-01f,+2.78841183e-02f,+2.18976304e-01f,
-1.00203589e-01f,+1.60624385e-01f,-1.04893863e-01f,+1.68100655e-01f,-9.13715065e-02f,
-1.99811399e-01f,+1.59055054e-01f,-1.17819324e-01f,+1.94085896e-01f,+2.79169083e-01f,
+2.06454694e-01f,+8.31952542e-02f,+1.02537550e-01f,-1.82233043e-02f,+4.38718610e-02f,
-6.26410171e-02f,+1.38859242e-01f,+1.07409500e-01f,+1.25462770e-01f,-4.07919325e-02f,
-3.93314846e-02f,-4.89540510e-02f,+3.72971557e-02f,-1.24895595e-01f,-8.61947462e-02f,
+3.49028334e-02f,+4.73287292e-02f,+1.24548770e-01f,-1.53251499e-01f,-3.16022076e-02f,
+1.00162793e-02f,+1.12165287e-01f,-3.97092514e-02f,-1.84676170e-01f,+1.37824744e-01f,
+1.98478755e-02f,+8.98743868e-02f,+4.01853383e-01f,-6.89137029e-03f,+3.58028978e-01f,
-9.92110968e-02f,-5.91081381e-02f,+3.47420126e-01f,+2.07529381e-01f,-1.45252049e-01f,
-1.12327754e-01f,+1.28335208e-01f,-1.14315063e-01f,+1.85806423e-01f,+5.39843962e-02f,
+1.61285937e-01f,-2.70104885e-01f,+1.75006855e-02f,-1.29165262e-01f,-3.09868027e-02f,
-1.24938935e-01f,-1.70834154e-01f,+4.24791753e-01f,+1.51478931e-01f,+5.93418889e-02f,
-1.78985491e-01f,+4.77414392e-02f,-1.60169825e-02f,+6.09080456e-02f,-1.93123728e-01f,
+7.52794463e-03f,+3.53847556e-02f,-8.96117911e-02f,+2.99281031e-02f,+1.63354874e-01f,
+6.86828852e-01f,-9.59319398e-02f,-1.24838799e-02f,-3.39197330e-02f,-3.32019739e-02f,
-1.05781006e-02f,+3.30676377e-01f,+1.02064475e-01f,+1.25063553e-01f,+1.16267480e-01f,
+4.73970100e-02f,-1.11184325e-02f,+3.43500935e-02f,-1.26479894e-01f,+7.39471763e-02f,
+3.26812446e-01f,+6.85079396e-02f,-1.52792692e-01f,-1.35819629e-01f,+2.00443491e-01f,
+2.23207504e-01f,+2.21129194e-01f,+4.60261367e-02f,+1.85649067e-01f,-1.96939826e-01f,
-6.71474785e-02f,-1.14682823e-01f,+5.51414602e-02f,+3.41425210e-01f,-3.74446422e-01f,
+3.81238997e-01f,+4.92165089e-02f,+5.31097539e-02f,-2.37186313e-01f,-1.56810001e-01f,
+4.16953452e-02f,-1.81814879e-01f,+1.22625999e-01f,+1.55360147e-01f,-1.08495004e-01f,
+1.93533804e-02f,+1.12435028e-01f,+4.86711934e-02f,+3.54358822e-01f,-7.70476907e-02f,
+1.48959741e-01f,+5.49522005e-02f,+2.44139768e-02f,-1.18589818e-01f,+7.14660510e-02f,
-9.18734167e-03f,-2.90426910e-01f,-2.03777194e-01f,+4.06136870e-01f,+8.94993022e-02f,
-6.32901415e-02f,+8.57990682e-02f,+1.69536807e-02f,+1.14210382e-01f,+4.23431903e-01f,
+3.12843584e-02f,+2.80582815e-01f,+1.59698278e-01f,+2.48161629e-01f,-4.59921286e-02f,
+2.67247796e-01f,-3.17463964e-01f,+4.40693289e-01f,-1.83786124e-01f,+1.21618822e-01f,
+2.75641065e-02f,+7.71493763e-02f,+4.81509380e-02f,+2.74753451e-01f,+7.84303769e-02f,
-4.78886208e-03f,+9.02199522e-02f,+1.66623950e-01f,+3.89781483e-02f,+1.70196235e-01f,
-1.13531463e-01f,-2.31594488e-01f,-9.75222811e-02f,+4.08638194e-02f,+1.32964924e-01f,
-1.95539355e-01f,-7.93772191e-02f,+7.61101320e-02f,-3.60306025e-01f,+9.39271152e-02f,
+1.60284594e-01f,+1.37911528e-01f,+7.93367326e-02f,+2.74518788e-01f,+2.33787119e-01f,
+5.19828871e-02f,+6.82444945e-02f,-4.38303426e-02f,-1.82673082e-01f,-8.86536166e-02f,
+4.18972112e-02f,+1.03441976e-01f,-4.08728607e-02f,+9.35460031e-02f,-4.44949001e-01f,
+3.20132961e-03f,+9.05874558e-03f,-1.13512218e-01f,+1.15687922e-01f,-7.04664784e-03f,
+2.62659248e-02f,-6.15404099e-02f,+4.30742688e-02f,-2.30012372e-01f,+2.60018855e-02f,
+2.42522378e-02f,+1.43012792e-01f,-7.78358132e-02f,+1.18619554e-01f,+2.25267231e-01f,
-1.35582760e-01f,+2.18701199e-01f,+3.37588750e-02f,-1.79811686e-01f,-1.11873813e-01f,
+6.71970248e-02f,-8.77357498e-02f,-2.58930959e-02f,+3.25331926e-01f,-7.34980032e-02f,
+1.16148055e-01f,+4.37403888e-01f,-6.21009730e-02f,+2.24900991e-01f,+1.08323745e-01f,
+3.17565024e-01f,-1.04159147e-01f,-1.35954335e-01f,-2.07292438e-01f,-5.71882203e-02f,
-1.87542692e-01f,+1.11645088e-01f,+9.09691751e-02f,-1.76005140e-01f,+2.65806448e-02f,
+8.93845931e-02f,+8.68099555e-02f,+1.92276850e-01f,-9.05891806e-02f,+7.97981471e-02f,
+2.07429215e-01f,-2.23305374e-01f,+5.57677411e-02f,-1.59667969e-01f,-7.17848539e-02f,
-6.29361346e-02f,-2.13587418e-01f,-2.27587670e-01f,-2.14696079e-01f,+1.10883847e-01f,
+4.72038873e-02f,+3.07713728e-02f,+3.79848331e-02f,+4.55036052e-02f,+1.01430140e-01f,
+8.38109106e-02f,-6.04154542e-04f,+1.60245866e-01f,-2.05933541e-01f,-3.26253399e-02f,
-2.02255268e-02f,-5.16408645e-02f,-9.12721232e-02f,-2.88589363e-04f,+2.02878222e-01f,
+1.91375583e-01f,-1.72103681e-02f,-7.91320875e-02f,-1.19773276e-01f,+2.27833137e-01f,
+2.19950993e-02f,+1.99373905e-02f,-1.07903726e-01f,-1.17224045e-01f,+1.73074707e-01f,
-1.81301089e-03f,+2.20933091e-02f,+7.18924776e-02f,-7.44897574e-02f,+2.97548622e-01f,
+4.48116720e-01f,+5.53148426e-02f,-1.92368645e-02f,+8.70871693e-02f,-9.45266262e-02f,
+1.09850846e-01f,-2.17962146e-01f,+5.67894168e-02f,-4.06552762e-01f,-2.09347233e-01f,
-5.97559437e-02f,+4.38068882e-02f,-1.49707794e-01f,-8.80256891e-02f,+2.99627692e-01f,
-1.93601876e-01f,-2.18869094e-02f,-1.03306219e-01f,+5.08548796e-01f,+2.30631247e-01f,
+6.17873594e-02f,-1.51565179e-01f,+3.20576519e-01f,-3.58736128e-01f,-1.90729611e-02f,
-3.08146607e-02f,+1.90371901e-01f,-2.60655791e-01f,-4.60047200e-02f,+1.80968612e-01f,
-3.48573551e-02f,+1.33148074e-01f,+1.28787965e-01f,+1.42269924e-01f,+1.75156385e-01f,
+6.05327785e-02f,+2.00305656e-01f,-2.26650953e-01f,-9.83515382e-02f,+1.09388791e-01f,
-6.64018244e-02f,-1.14909694e-01f,-8.61399900e-03f,+7.50459880e-02f,+6.66745231e-02f,
+7.06996247e-02f,-9.48547497e-02f,-1.00472398e-01f,-6.75149262e-02f,+3.66545953e-02f,
-1.81631833e-01f,-1.08377732e-01f,-5.33255674e-02f,+2.16154024e-01f,+4.23102081e-02f,
+8.10678452e-02f,+2.71335721e-01f,+2.56038141e-02f,-1.61094084e-01f,+5.83077222e-02f,
-8.70428234e-02f,-3.56687546e-01f,+8.99072662e-02f,+1.67055964e-01f,+3.37099075e-01f,
+2.42382124e-01f,+2.23805010e-01f,+5.55238426e-02f,-3.33335474e-02f,-2.26401091e-01f,
+1.79425642e-01f,+9.06327069e-02f,-8.96838829e-02f,+2.18108147e-01f,-2.13734675e-02f,
-1.07153356e-02f,+6.27417043e-02f,+6.83598518e-02f,-3.80667076e-02f,+1.29561216e-01f,
-1.90770403e-02f,+3.17056000e-01f,+4.42263782e-02f,-2.22798496e-01f,+1.72537103e-01f,
-8.47782642e-02f,+1.61454305e-01f,+1.81813776e-01f,+8.45608488e-02f,-1.32415593e-01f,
+3.56962457e-02f,-1.38356492e-01f,+1.60917193e-01f,-8.59619901e-02f,-1.66652605e-01f,
+7.59341046e-02f,+1.30097270e-01f,+2.96597004e-01f,+3.67922075e-02f,-6.41578659e-02f,
+3.57523531e-01f,+4.16105181e-01f,+7.35576153e-02f,-1.86523236e-02f,+2.38599554e-01f,
+1.05903938e-01f,+1.44361749e-01f,-7.61337578e-02f,-5.61623201e-02f,+1.94466725e-01f,
-7.24993050e-02f,+1.80488810e-01f,+6.32030889e-02f,-9.38823000e-02f,-2.29453668e-01f,
+3.80530953e-01f,+6.00083731e-02f,-1.21706285e-01f,+6.44703675e-03f,+8.62155408e-02f,
+2.50307083e-01f,+2.74954233e-02f,+1.26717418e-01f,+1.86039954e-02f,+1.97883636e-01f,
+1.41685292e-01f,-1.38967708e-01f,-5.66508472e-02f,+2.54717827e-01f,-5.34245297e-02f,
-1.23933695e-01f,+6.78279921e-02f,-9.29421112e-02f,+3.78476530e-02f,-2.51408249e-01f,
+9.19882432e-02f,+1.24438636e-01f,+7.71907493e-02f,+8.53510574e-02f,+9.86576080e-03f,
+4.57648821e-02f,+4.79869097e-02f,+1.94845852e-02f,+1.05706379e-01f,-7.94784054e-02f,
-2.00295225e-02f,-4.49187960e-03f,-6.15641028e-02f,-1.02006486e-02f,+1.53700888e-01f,
+7.73064941e-02f,+9.67511609e-02f,+1.46453664e-01f,-4.04224172e-02f,-6.44495934e-02f,
-1.41166285e-01f,+1.42849252e-01f,+8.30176659e-03f,-1.38276622e-01f,+2.08670840e-01f,
+1.09151848e-01f,-1.43784985e-01f,+3.10848709e-02f,-8.72431397e-02f,-8.87296200e-02f,
+2.30046868e-01f,+7.73558319e-02f,+2.22684115e-01f,+2.66718864e-01f,+5.10685146e-02f,
-1.67217702e-02f,-2.00845003e-01f,-4.92147356e-03f,+1.39844060e-01f,+8.03224891e-02f,
+3.75939943e-02f,+2.18332499e-01f,+8.58281404e-02f,+2.94249237e-01f,+1.33750930e-01f,
+1.96570784e-01f,-1.93308860e-01f,-7.72612020e-02f,+3.07911579e-02f,+6.39251992e-02f,
+1.15892850e-01f,+1.67810187e-01f,+1.33709103e-01f,+2.58600134e-02f,+7.19312876e-02f,
+9.11541060e-02f,+1.58876821e-01f,-2.73193866e-01f,+2.05695871e-02f,+1.72079474e-01f,
+2.51625389e-01f,-7.12957606e-03f,+1.98615100e-02f,-2.59629458e-01f,+2.05935001e-01f,
-1.91621762e-02f,+3.38226408e-02f,+3.02918941e-01f,+2.77141422e-01f,+1.67128831e-01f,
+9.58523005e-02f,-2.56645847e-02f,+6.91975579e-02f,-9.24044997e-02f,+2.48372510e-01f,
+2.23570406e-01f,+1.57721967e-01f,-2.21261997e-02f,-4.08328287e-02f,+1.40459329e-01f,
-6.79983720e-02f,+8.08407888e-02f,-2.44722813e-01f,+1.19214207e-01f,+3.25546175e-01f,
+1.52806163e-01f,+1.99553818e-02f,+4.69788201e-02f,+2.96559110e-02f,-2.29938790e-01f,
-1.35462925e-01f,+6.53904304e-02f,+1.88883051e-01f,-6.72050985e-03f,+1.69186175e-01f,
+2.66068220e-01f,+4.19772789e-02f,+1.62534729e-01f,-1.57971174e-01f,+1.16589978e-01f,
+2.33461320e-01f,+2.41933301e-01f,-1.58323631e-01f,+5.32374606e-02f,+1.18309088e-01f,
+1.02429107e-01f,+2.91331615e-02f,-3.17848660e-02f,+2.25934014e-02f,+3.20690461e-02f,
+6.52354397e-03f,+1.48233220e-01f,-8.24010298e-02f,+1.08036086e-01f,-1.52160442e-02f,
+1.85986087e-01f,-3.91010568e-02f,-2.85300929e-02f,-1.41475454e-01f,+2.45239809e-01f,
+7.55052939e-02f,+1.01575635e-01f,+2.50719130e-01f,+1.62018731e-01f,+1.34223223e-01f,
+2.66723305e-01f,-3.41446474e-02f,-2.10524723e-02f,+2.20233053e-01f,+2.08278552e-01f,
-1.67735726e-01f,+3.29959616e-02f,-1.05167285e-01f,+4.93279193e-03f,-1.78634539e-01f,
-8.90176147e-02f,-1.63802266e-01f,-4.44220239e-03f,+2.00333640e-01f,+3.61834168e-02f,
+1.95435043e-02f,-9.15603489e-02f,+3.26943509e-02f,-2.00213686e-01f,-8.45708176e-02f,
-7.75050074e-02f,-3.50345001e-02f,+8.33629519e-02f,-2.04935759e-01f,+9.79082808e-02f,
+2.82346547e-01f,-1.23759076e-01f,+2.13490143e-01f,-1.59106642e-01f,+1.00286324e-02f,
+1.88743055e-01f,+1.07922554e-01f,+2.49802828e-01f,-1.20365709e-01f,-1.19905315e-01f,
+1.06016509e-01f,+8.84700716e-02f,-1.22309038e-02f,-9.90485214e-03f,-1.35077581e-01f,
-6.46007285e-02f,-2.43552193e-01f,+6.29362240e-02f,-4.43082899e-02f,+2.95562893e-01f,
+1.06766075e-01f,-2.50893474e-01f,+6.04382269e-02f,+5.21728992e-02f,-3.30432989e-02f,
+3.50263529e-02f,-2.58966349e-02f,+5.49534708e-02f,+8.80728737e-02f,+1.82453915e-01f,
+1.81990296e-01f,+1.31076291e-01f,+1.09703161e-01f,-1.60083380e-02f,+2.43179396e-01f,
-3.51680517e-02f,+3.21814001e-01f,+1.61928222e-01f,+1.58540085e-02f,-1.27674654e-01f,
-9.97290481e-03f,+1.85648292e-01f,-5.93689978e-02f,+2.30291530e-01f,+5.66611253e-03f,
+3.37331672e-03f,+9.12089199e-02f,+2.15036213e-01f,+5.15617318e-02f,+2.52262026e-01f,
+4.79508052e-03f,+6.63891658e-02f,+5.55535480e-02f,+1.89970791e-01f,+1.28129691e-01f,
-1.39715411e-02f,+2.55014688e-01f,+2.36406978e-02f,+1.84854679e-02f,-1.44694187e-02f,
+6.23635761e-02f,-3.22094373e-02f,-1.11968637e-01f,+7.57359490e-02f,-9.71321017e-02f,
+3.08465362e-01f,+3.54112498e-03f,+3.08596253e-01f,+2.25878835e-01f,-1.13909259e-01f,
+6.75160885e-02f,-1.87792957e-01f,+9.77689698e-02f,+1.78797334e-01f,+1.74208969e-01f,
+2.99264845e-02f,-1.54610015e-02f,+6.28723949e-02f,+2.80552488e-02f,-2.27219854e-02f,
+9.32701826e-02f,+1.84308022e-01f,-1.08259656e-01f,-9.14843306e-02f,+2.42445935e-02f,
+1.88460857e-01f,-1.08452449e-02f,+2.68091291e-01f,+5.63516356e-02f,+1.89419925e-01f,
+5.80025092e-02f,+2.70200521e-02f,-2.36116931e-01f,+5.69568723e-02f,-2.58235067e-01f,
-2.29010865e-01f,+4.89243530e-02f,+1.44714952e-01f,+1.98600158e-01f,+1.19895555e-01f,
+2.19923005e-01f,-3.12859416e-02f,-2.83297673e-02f,+1.33952349e-01f,-2.21004933e-01f,
-1.10533021e-01f,+1.72794655e-01f,+2.88820956e-02f,+3.00743699e-01f,-1.99617177e-01f,
-4.51352634e-02f,-4.40022945e-02f,+1.24565780e-01f,+7.36978427e-02f,+5.17935213e-03f,
+1.78301051e-01f,-3.15263495e-02f,+2.04956122e-02f,+6.80525154e-02f,-2.52841581e-02f,
-2.39931159e-02f,+2.04124197e-01f,+2.37107351e-02f,-6.75503016e-02f,+1.77765474e-01f,
-1.74494758e-01f,+5.31521402e-02f,+1.97816610e-01f,+1.20631613e-01f,-8.05973485e-02f,
+1.66875753e-03f,-1.32890642e-01f,+1.87184468e-01f,+9.15322006e-02f,+9.80590209e-02f,
+9.65105891e-02f,-3.05704167e-03f,+1.12502173e-01f,-4.43119854e-02f,-3.02594267e-02f,
-2.06798881e-01f,-4.09974679e-02f,+6.21321760e-02f,-6.22299239e-02f,+1.14544757e-01f,
+9.59347486e-02f,+6.22970536e-02f,+1.54658794e-01f,+1.39956594e-01f,-1.11601017e-01f,
+6.77600056e-02f,+3.49806957e-02f,+6.77475408e-02f,+1.68495953e-01f,-1.62350908e-01f,
-1.02546811e-01f,+1.32844403e-01f,-1.90163642e-01f,-1.58146605e-01f,+1.52360305e-01f,
+8.49897265e-02f,-2.07361758e-01f,-9.75764915e-03f,+2.53644064e-02f,+3.13225463e-02f,
+1.32889852e-01f,+1.53356043e-04f,+2.22839620e-02f,+1.38060391e-01f,-2.80884832e-01f,
-2.23892760e-02f,-1.85762003e-01f,-2.03403477e-02f,+9.26518887e-02f,-2.39881516e-01f,
+2.11685270e-01f,+3.84976566e-02f,-6.97013550e-03f,-4.97920141e-02f,-6.19917584e-04f,
-3.16296741e-02f,+1.29205659e-01f,-1.05661571e-01f,+3.39864381e-02f,+3.25367481e-01f,
+1.10565990e-01f,+1.47335067e-01f,+1.13507099e-02f,-1.36769906e-01f,-3.41865867e-02f,
+1.27726784e-02f,-1.68031007e-01f,-4.69500385e-02f,+8.76941234e-02f,-8.80545080e-02f,
+5.07737063e-02f,+1.36845961e-01f,+1.44224599e-01f,-1.07687093e-01f,-1.17928036e-01f,
+1.56773821e-01f,-1.20306434e-02f,+2.34582290e-01f,-1.68793082e-01f,+1.67764008e-01f,
+1.55800909e-01f,-1.66897476e-02f,-1.72141418e-01f,-7.55198821e-02f,-6.24037012e-02f,
+8.26701224e-02f,-2.37436220e-01f,+5.87107874e-02f,+4.33050096e-02f,+2.36931279e-01f,
+4.07480560e-02f,-1.94338799e-01f,+4.92824316e-02f,+7.52420872e-02f,-1.66196078e-01f,
+7.22053722e-02f,+1.35318756e-01f,+6.83552101e-02f,+1.57069582e-02f,+1.48793757e-02f,
-5.13772704e-02f,-2.87856311e-02f,+7.78354378e-03f,-1.83159277e-01f,-9.74053070e-02f,
-1.18253276e-01f,+2.70137906e-01f,+2.12092727e-01f,+2.55598456e-01f,-9.12382379e-02f,
+3.76205407e-02f,+1.06790088e-01f,+2.99656540e-02f,+1.55254513e-01f,+5.02860546e-02f,
-1.15190811e-01f,-6.78132549e-02f,+1.08961454e-02f,+1.69903114e-01f,-1.38358533e-01f,
+3.74155715e-02f,+5.45440428e-02f,+3.82930897e-02f,+1.25426218e-01f,-2.70368662e-02f,
-3.42805423e-02f,+5.69381751e-03f,+1.11263338e-02f,-6.67319540e-03f,+2.79672304e-03f,
+2.89268419e-02f,+5.26200840e-03f,+2.22429872e-01f,-3.76132838e-02f,+5.47261722e-02f,
-4.15411592e-02f,+9.05225500e-02f,+1.06051899e-01f,+5.77196218e-02f,-5.61289936e-02f,
+3.31539065e-02f,+2.55009592e-01f,+1.11886621e-01f,+4.55593392e-02f,-1.68743670e-01f,
+2.69200683e-01f,-1.54278070e-01f,+1.51557833e-01f,+1.74457148e-01f,-2.34990582e-01f,
+2.60768056e-01f,+9.56150219e-02f,+1.25651404e-01f,-8.91492292e-02f,-6.40394688e-02f,
+1.01489976e-01f,-4.37289551e-02f,-2.29086190e-01f,-1.55185349e-02f,+3.52787971e-02f,
-1.69897810e-01f,-1.23250023e-01f,+2.40382627e-01f,-1.92901790e-02f,+4.06609513e-02f,
-1.82774216e-01f,-1.66769370e-01f,-5.92034869e-03f,+1.33671716e-01f,+7.22986832e-02f,
+9.14187506e-02f,+6.77319663e-03f,-2.58698702e-01f,-5.17777838e-02f,-1.33535802e-01f,
-2.99772155e-02f,+3.56473476e-02f,-2.05651909e-01f,+1.75540671e-01f,+1.03125006e-01f,
-1.30424043e-02f,+1.44837976e-01f,-1.69208646e-02f,-9.08327177e-02f,-4.50654840e-03f,
+1.19889207e-01f,-2.70349085e-01f,+9.21129528e-03f,+6.54514064e-04f,-5.48106506e-02f,
-1.19088609e-02f,+1.73621148e-01f,+1.43901423e-01f,-1.21136280e-02f,-9.36028287e-02f,
+1.38910577e-01f,+3.40688080e-01f,-5.57793863e-03f,+7.11846799e-02f,+5.42919450e-02f,
+8.55191872e-02f,-1.78995475e-01f,-1.36611536e-01f,+1.67039990e-01f,-8.55421424e-02f,
-9.13729593e-02f,+3.12099099e-01f,-2.56930679e-01f,+7.08883777e-02f,+1.04444377e-01f,
+8.30213651e-02f,-1.50832185e-03f,-1.84614316e-01f,+6.54415414e-02f,-6.79341778e-02f,
+1.09945677e-01f,+2.11660281e-01f,+1.46812089e-02f,-1.26560912e-01f,-8.61817598e-02f,
-1.42948027e-03f,-9.14759748e-03f,+1.29861146e-01f,+2.11961463e-01f,-2.01780036e-01f,
-1.03940792e-01f,+2.61615794e-02f,+1.15702525e-01f,-4.72984975e-03f,-1.57338753e-01f,
-7.23879784e-02f,+4.55097631e-02f,+2.34973103e-01f,+1.33570910e-01f,+2.36904100e-01f,
+3.97455059e-02f,-6.48550093e-02f,+6.67495579e-02f,-1.20291330e-01f,+1.70825958e-01f,
-6.49493262e-02f,-2.07294196e-01f,+1.54906273e-01f,-1.17479108e-01f,-3.02876346e-02f,
-9.64331031e-02f,-2.60102183e-01f,+3.79430242e-02f,-9.30185243e-02f,+1.55609369e-01f,
+1.31185576e-01f,+1.12387672e-01f,+1.60957441e-01f,+1.83485493e-01f,-3.96020748e-02f,
-5.94777949e-02f,+4.36433405e-02f,+8.20034295e-02f,-2.72994414e-02f,-2.34330267e-01f,
-2.38980055e-01f,+1.07350074e-01f,-1.87721267e-01f,+3.99724990e-01f,-1.14345312e-01f,
+9.38928202e-02f,-9.46197435e-02f,-1.14666000e-01f,+1.04755890e-02f,+2.05604911e-01f,
+2.00095892e-01f,+1.53198138e-01f,-1.32334679e-01f,+3.27082984e-02f,+6.73337430e-02f,
-6.03993721e-02f,+2.33843952e-01f,+1.16686441e-01f,-2.17330500e-01f,-1.77548781e-01f,
-8.95354971e-02f,-4.24587987e-02f,-1.05470300e-01f,-7.25396127e-02f,+3.58603708e-02f,
-2.21303821e-01f,-2.44859103e-02f,-1.40441373e-01f,+2.45664313e-01f,+1.60730541e-01f,
-6.85908645e-02f,+2.32486371e-02f,+7.58837759e-02f,+2.32427148e-03f,+1.01719342e-01f,
-1.61428843e-02f,-9.31552052e-02f,-1.86297596e-02f,-8.36542621e-02f,-7.50501603e-02f,
-7.55007789e-02f,+2.02221707e-01f,-2.20939711e-01f,+1.02948518e-02f,+1.86387271e-01f,
-8.55822340e-02f,-9.15348902e-02f,+7.34383687e-02f,+2.21442670e-01f,-4.48486358e-02f,
+1.89982086e-01f,-1.73080519e-01f,+2.23058905e-03f,+9.54144448e-02f,+1.88620508e-01f,
-1.54305145e-01f,-2.59186327e-01f,-7.52985850e-02f,+1.48156017e-01f,-7.08961859e-02f,
+2.73615867e-02f,+9.03518498e-03f,+2.80082047e-01f,+2.27411106e-01f,-1.04031235e-01f,
+7.49946013e-02f,+9.11180452e-02f,-1.48365229e-01f,-7.93598518e-02f,+2.34098017e-01f,
+1.88016906e-01f,+1.51039213e-01f,+4.09883186e-02f,-3.06304954e-02f,-3.43511492e-01f,
+5.91119193e-02f,+7.82787353e-02f,+2.78977249e-02f,+7.10476115e-02f,-7.94588625e-02f,
+1.58126250e-01f,-3.14858444e-02f,-4.13297303e-02f,+1.45112023e-01f,+1.73726827e-01f,
-6.47459459e-03f,-3.29815835e-01f,-1.09967634e-01f,+1.13682210e-01f,-1.46544322e-01f,
+2.10829452e-02f,-1.20223705e-02f,+7.21399933e-02f,+6.78270310e-03f,-1.85688790e-02f,
-1.06565543e-02f,+1.79737523e-01f,-5.31450212e-02f,+2.29800697e-02f,+1.13408044e-01f,
+7.62935281e-02f,-4.29208130e-02f,-1.42060801e-01f,-5.81430905e-02f,-8.15914199e-02f,
+9.23374370e-02f,+5.35909506e-03f,+1.42895207e-01f,+2.98907757e-01f,+7.80975223e-02f,
+9.16455016e-02f,+1.69737879e-02f,-3.75468098e-02f,+8.99991691e-02f,+2.39207186e-02f,
+7.63978139e-02f,+6.64307326e-02f,+1.20138936e-01f,+5.96133508e-02f,+2.90410638e-01f,
+1.29514053e-01f,+7.82807469e-02f,+1.33083254e-01f,+6.42583519e-02f,+1.32479951e-01f,
-5.77380322e-02f,+3.29021998e-02f,+1.88059896e-01f,+1.22902006e-01f,-1.75194663e-03f,
-7.48205855e-02f,+1.02022931e-01f,-7.74885267e-02f,+1.11470275e-01f,-1.10981740e-01f,
-1.28358558e-01f,+1.42260253e-01f,-1.27311155e-01f,+3.98743711e-02f,+2.16706581e-02f,
+8.96792859e-02f,-3.38224955e-02f,+9.07125920e-02f,+2.06668675e-02f,+2.05034032e-01f,
-1.56295806e-01f,-6.18710220e-02f,-3.16270702e-02f,+1.00633338e-01f,+9.29271132e-02f,
+1.90741226e-01f,+6.19257754e-03f,+1.89150244e-01f,+3.32830213e-02f,+6.04481809e-02f,
+1.33402362e-01f,+3.79557461e-02f,-1.35840714e-01f,+8.65130499e-02f,-1.83033813e-02f,
+4.49652337e-02f,+7.16660768e-02f,+1.66939527e-01f,+1.35800287e-01f,+2.70066410e-03f,
+1.71447784e-01f,+5.05121499e-02f,-4.43352759e-02f,+2.64380835e-02f,+1.04707710e-01f,
+3.09154809e-01f,-5.94096556e-02f,-4.92785014e-02f,+5.77707402e-02f,+2.65499473e-01f,
-9.55609232e-02f,+1.87137201e-02f,-3.88113819e-02f,+1.83810726e-01f,+6.32900000e-02f,
-1.19017527e-01f,-1.11510426e-01f,+1.03247359e-01f,+1.19293503e-01f,-8.35439488e-02f,
+7.22285956e-02f,+6.20299876e-02f,-3.34879160e-01f,+7.46658593e-02f,+3.08946799e-03f,
+1.80607997e-02f,-1.44873457e-02f,-2.64464691e-02f,+2.12826401e-01f,+1.41445473e-01f,
+1.66780278e-01f,-1.18790595e-02f,+6.65497333e-02f,+5.20679019e-02f,-5.09334616e-02f,
-4.44782637e-02f,+4.36975434e-02f,+1.40577108e-01f,+1.33241326e-01f,-5.36064021e-02f,
-2.79985040e-01f,-4.69514392e-02f,+2.28649061e-02f,+2.70545240e-02f,-2.70063400e-01f,
+7.95035139e-02f,+1.99732244e-01f,-1.96460500e-01f,+3.48657295e-02f,-1.48073182e-01f,
+1.63792312e-01f,-9.10943970e-02f,+5.46484776e-02f,-6.63531572e-03f,-4.33434267e-03f,
+1.58456147e-01f,+1.49718449e-01f,+1.32201863e-02f,+1.96309805e-01f,-2.33264714e-01f,
-3.58712077e-02f,-7.48131350e-02f,+1.81843892e-01f,-2.55035888e-02f,+2.20324054e-01f,
+2.63800800e-01f,+4.34111804e-02f,-4.91848476e-02f,+5.51222563e-02f,-1.43011302e-01f,
+4.98914160e-02f,+3.95702794e-02f,-1.52279004e-01f,-4.78753597e-02f,-1.15202934e-01f,
-3.27784219e-03f,+3.48944478e-02f,-2.13158712e-01f,+3.23428027e-03f,-3.31928618e-02f,
+4.34981361e-02f,-5.52768409e-02f,+2.79337525e-01f,+7.99456239e-02f,+1.44812921e-02f,
+4.29283977e-02f,-3.93311074e-03f,-1.00007951e-01f,+8.01000819e-02f,+9.46031213e-02f,
+4.95517626e-03f,-9.51725617e-02f,+1.31182417e-01f,+2.59008199e-01f,+9.33259800e-02f,
-2.04638273e-01f,+4.19904470e-01f,+1.10385213e-02f,-9.89269912e-02f,+1.70106888e-01f,
-1.74137275e-03f,-4.24010307e-02f,+1.17562385e-02f,-1.09601982e-01f,-5.49592711e-02f,
+1.51732285e-02f,+1.05680257e-01f,+3.47622186e-02f,-2.83729639e-02f,-4.48814183e-02f,
+2.18565971e-01f,+2.94377178e-01f,+4.49674465e-02f,+1.69835627e-01f,+2.04798073e-01f,
+1.62422806e-01f,-6.80775717e-02f,-2.43657619e-01f,+1.01631810e-03f,+2.93975115e-01f,
-1.64445505e-01f,+2.26362705e-01f,+3.09865605e-02f,+3.21031421e-01f,+1.04850970e-01f,
+8.17123130e-02f,-2.34146547e-02f,+1.42924607e-01f,+6.62424192e-02f,+2.71837920e-01f,
+1.04087815e-01f,+5.24923764e-03f,-2.99012214e-02f,+1.76562518e-01f,-7.87337944e-02f,
-8.45614895e-02f,-1.13514133e-01f,+2.33625889e-01f,-2.31808409e-01f,+7.56767318e-02f,
+2.80707162e-02f,-2.29940787e-01f,+1.60333946e-01f,+1.36602074e-01f,+1.35264471e-01f,
+2.64412761e-01f,-2.64694721e-01f,-2.16135383e-01f,+1.19841352e-01f,-1.17116347e-01f,
-8.29860866e-02f,-1.10295070e-02f,-2.80638158e-01f,-3.90781537e-02f,+1.53827459e-01f,
+1.22394869e-02f,+1.27763674e-01f,+2.72268713e-01f,+2.45854720e-01f,+1.16134189e-01f,
+1.56936273e-01f,-3.57478261e-02f,+1.38322353e-01f,+3.43809389e-02f,+7.93926511e-03f,
-1.16171882e-01f,-5.96747771e-02f,+1.58154741e-02f,-1.14026241e-01f,+2.87195235e-01f,
+1.83874220e-02f,+2.28913769e-01f,-3.05247381e-02f,+1.47003338e-01f,-1.08689085e-01f,
-1.43434688e-01f,-2.21852675e-01f,+3.55171531e-01f,-9.46126357e-02f,-1.87663138e-02f,
+2.41887048e-01f,+9.70998481e-02f,+1.50880486e-01f,-1.30723655e-01f,+3.58927622e-02f,
-2.23773986e-01f,-3.19982395e-02f,-3.75584304e-01f,-1.09373495e-01f,+9.42713991e-02f,
+1.20301716e-01f,-1.04807178e-02f,+3.04256558e-01f,+3.93675953e-01f,+3.66888821e-01f,
-1.16279706e-01f,-2.47691631e-01f,-7.20165670e-02f,-3.83814909e-02f,+2.00498790e-01f,
-2.13206440e-01f,+9.88763794e-02f,+1.07767798e-01f,+4.52776961e-02f,+2.90735036e-01f,
+1.28491133e-01f,+1.28003815e-02f,-6.68987185e-02f,+4.45231572e-02f,+3.80628966e-02f,
-6.10634461e-02f,-4.57572006e-02f,+2.68659741e-02f,+2.65040789e-02f,+4.38029140e-01f,
+2.22218037e-01f,+1.66213457e-02f,+1.51951075e-01f,+1.96021676e-01f,-3.16373229e-01f,
+1.46715259e-02f,-4.81018126e-02f,-3.22999626e-01f,+9.33011100e-02f,-3.51246744e-02f,
+1.72831193e-01f,-2.31666341e-01f,+1.31279649e-03f,-1.84120551e-01f,+1.48577318e-01f,
+3.34100239e-02f,+2.33175844e-01f,-7.74201378e-02f,+5.61117986e-03f,+1.35637939e-01f,
+1.76982120e-01f,+4.30126376e-02f,+1.79368742e-02f,-4.68607433e-02f,+8.56636390e-02f,
+6.78726807e-02f,+5.56419380e-02f,+5.20635508e-02f,-2.45979503e-01f,+1.10878637e-02f,
-1.17685705e-01f,+1.24238878e-01f,+1.84358627e-01f,+1.33908659e-01f,+6.57605100e-03f,
+2.24732637e-01f,+1.52588179e-02f,+3.75089496e-02f,-1.33885786e-01f,-1.54355988e-01f,
+1.63732693e-01f,+3.46898250e-02f,+9.68170092e-02f,+2.96620335e-02f,+4.46268991e-02f,
-1.58079252e-01f,-5.16489819e-02f,-1.40866414e-01f,+9.84260580e-04f,+8.66503734e-03f,
+1.31630927e-01f,-5.11627048e-02f,-1.03759773e-01f,+2.68487215e-01f,+1.93530872e-01f,
+1.62071571e-01f,+1.06036298e-01f,+1.03261180e-01f,+2.62092315e-02f,+3.49575520e-01f,
+1.30684912e-01f,+1.73484668e-01f,+2.53175050e-01f,-1.65146381e-01f,+1.85349062e-01f,
-1.53836250e-01f,+1.89091489e-01f,+1.41101703e-01f,+1.45740435e-01f,+4.48658410e-03f,
-4.16705497e-02f,+9.77998823e-02f,-6.43226877e-02f,+2.30847999e-01f,+1.06907152e-01f,
+4.88610975e-02f,-3.31014730e-02f,+3.42550188e-01f,+1.23242877e-01f,-4.74446937e-02f,
+1.78206846e-01f,-1.87272519e-01f,+1.87786017e-02f,+1.54295698e-01f,+1.32251590e-01f,
+3.15695822e-01f,-8.39721784e-02f,+1.30014634e-03f,-3.02168354e-02f,-1.17766805e-01f,
-3.62900466e-01f,+3.08874156e-02f,-1.57018617e-01f,+4.29516248e-02f,+5.13273701e-02f,
-6.62960783e-02f,+7.14036971e-02f,+2.02478573e-01f,+1.09937847e-01f,+1.95647135e-01f,
+2.75407374e-01f,+2.65404806e-02f,-1.24558501e-01f,-2.81208694e-01f,-7.52866501e-03f,
-2.08573192e-01f,+2.04061091e-01f,+1.29696168e-02f,+1.28986806e-01f,+1.45104574e-02f,
+1.27301514e-01f,-1.27969995e-01f,+9.69493389e-02f,+3.10547277e-02f,-1.54478773e-01f,
+2.65393198e-01f,+1.98966399e-01f,+2.24512890e-01f,+3.65741104e-02f,-5.10703437e-02f,
-4.29105237e-02f,+1.27708703e-01f,+2.14535117e-01f,-8.40492919e-02f,-8.90256688e-02f,
-9.43829026e-03f,+3.83758731e-02f,+6.57223314e-02f,+6.02489803e-03f,+1.98077828e-01f,
+1.89401150e-01f,+2.55687535e-01f,-4.12888117e-02f,-9.87945274e-02f,+3.41364667e-02f,
+9.57740843e-02f,+3.16160433e-02f,+3.32979769e-01f,-9.14264247e-02f,+2.39320219e-01f,
+1.00192547e-01f,-2.50059925e-02f,+1.38106167e-01f,+6.58378527e-02f,+2.28828907e-01f,
+1.98709797e-02f,-5.61999232e-02f,-1.06972687e-01f,-1.57880671e-02f,+7.33555779e-02f,
+1.44617811e-01f,+2.11158171e-01f,-4.19541672e-02f,+1.91584945e-01f,+1.13898627e-01f,
-1.91238835e-01f,+1.93632599e-02f,+2.84038693e-01f,+3.18208933e-02f,-1.07620545e-01f,
+9.56282839e-02f,-1.79062486e-01f,+1.42300770e-01f,-7.75527731e-02f,+7.50146210e-02f,
-4.67736623e-04f,-5.91315702e-02f,+3.58722061e-01f,-4.70082945e-04f,-2.90446788e-01f,
+2.25177661e-01f,+1.08359821e-01f,+1.40817150e-01f,+5.34063764e-02f,+9.38400403e-02f,
-7.53090158e-02f,-8.38353932e-02f,-1.45917460e-01f,+1.59012198e-01f,-7.54327103e-02f,
+3.75565924e-02f,-1.07542515e-01f,+1.61348030e-01f,-1.99828684e-01f,-2.55265623e-01f,
+2.45292578e-02f,-5.37765436e-02f,+2.33774230e-01f,+1.66277096e-01f,-5.30021638e-02f,
+2.53454030e-01f,-1.80345431e-01f,-2.39693075e-02f,-2.10848860e-02f,-3.90253775e-02f,
+1.22008976e-02f,+4.93515544e-02f,+1.38723135e-01f,+2.70905852e-01f,-2.88191694e-03f,
+1.00024477e-01f,+3.76087129e-02f,-2.58217305e-01f,+1.58178225e-01f,-4.92602475e-02f,
-6.27809903e-04f,+6.70111626e-02f,+2.09693015e-01f,-2.17272162e-01f,-7.95357674e-02f,
-9.49565172e-02f,+1.92894985e-03f,-1.86675772e-01f,-1.49532512e-01f,+3.03440094e-01f,
+6.01446740e-02f,+2.52616823e-01f,-7.64582977e-02f,-1.28637165e-01f,+2.84226596e-01f,
+9.31518003e-02f,+9.32836458e-02f,-1.67037189e-01f,+2.21998990e-02f,+2.94557065e-01f,
+1.06168903e-01f,+1.12693846e-01f,-3.15832764e-01f,-1.83603093e-01f,-5.63412160e-02f,
-2.13880762e-01f,+1.15203246e-01f,-1.03044197e-01f,+1.59226805e-01f,+1.27430812e-01f,
-1.93349808e-01f,-1.59737125e-01f,+2.06806496e-01f,+2.12504417e-01f,-3.64540070e-01f,
+1.40079126e-01f,-9.63589549e-02f,+8.06467310e-02f,+1.94932312e-01f,+9.35592055e-02f,
-1.42064601e-01f,+3.16823684e-02f,-4.14960198e-02f,+5.33869974e-02f,-1.60904109e-01f,
-7.82033801e-02f,+1.56368807e-01f,+1.78796321e-01f,-1.89535022e-01f,+4.24120128e-02f,
+5.54802343e-02f,+1.55334463e-02f,+2.06378058e-01f,-7.13277757e-02f,+6.15942664e-02f,
+7.14564845e-02f,-9.77408215e-02f,+3.19771618e-02f,-3.94651555e-02f,+6.64354488e-02f,
+1.05348423e-01f,-3.20304126e-01f,+2.37412471e-02f,+3.85507159e-02f,+9.97368544e-02f,
-1.63629249e-01f,+1.51019424e-01f,+1.66630611e-01f,+5.60381934e-02f,+4.46069129e-02f,
+2.65678287e-01f,+2.35125851e-02f,+2.20199451e-01f,+1.31861418e-01f,-2.13088579e-02f,
-2.25459002e-02f,-1.95131954e-02f,+1.34173527e-01f,-1.53515905e-01f,+5.11213169e-02f,
+1.13608018e-01f,-1.16470933e-01f,-9.42991376e-02f,+1.89170185e-02f,-4.66588549e-02f,
+3.90050607e-03f,+9.21403337e-03f,-1.67899691e-02f,-7.37810954e-02f,-6.22891225e-02f,
-1.31244317e-01f,+3.09889406e-01f,+1.75952286e-01f,+2.59227335e-01f,-1.43625051e-01f,
-9.45880602e-05f,+2.14657336e-01f,+3.80834304e-02f,+2.59926289e-01f,+1.05593182e-01f,
+1.11966088e-01f,-1.93886589e-02f,+1.00741029e-01f,-1.36319920e-01f,+2.11849242e-01f,
-3.15201245e-02f,-1.06464110e-01f,-2.30286509e-01f,+9.12805572e-02f,-1.50929540e-01f,
+3.13915133e-01f,+3.80119532e-02f,-2.77182478e-02f,-1.26834080e-01f,-9.17584524e-02f,
-1.49429828e-01f,-8.49068761e-02f,-1.46180093e-01f,-4.18031849e-02f,-1.59170419e-01f,
+4.35892455e-02f,+2.02171206e-02f,-6.52011111e-02f,-1.50014237e-01f,-7.62371197e-02f,
+1.57868713e-01f,-2.88662966e-02f,-1.49196177e-03f,+4.17088605e-02f,+1.13930013e-02f,
+1.03299104e-01f,+7.89682493e-02f,+1.77626893e-01f,+3.54767740e-02f,-3.24172224e-03f,
-3.72829475e-02f,-3.30291577e-02f,+1.47142291e-01f,-1.68159604e-01f,-5.60208149e-02f,
-1.61815044e-02f,+2.41976738e-01f,-1.31874420e-02f,-5.35111539e-02f,+4.77206185e-02f,
+1.06557705e-01f,+1.65720060e-01f,-7.07392022e-02f,+3.11353028e-01f,+7.24793300e-02f,
+6.76199719e-02f,-8.73340219e-02f,-1.70362890e-01f,+6.43538609e-02f,-5.17405272e-02f,
+1.56562358e-01f,-6.42781844e-03f,+3.30125019e-02f,+4.03347254e-01f,+4.62419093e-02f,
-1.35149390e-01f,-8.61680582e-02f,+1.43618947e-02f,+1.64524272e-01f,+2.90472329e-01f,
+1.15509570e-01f,-3.43754049e-03f,-2.27159947e-01f,-2.14650899e-01f,+8.14634860e-02f,
+1.91209450e-01f,+1.74773499e-01f,+6.48058206e-03f,-1.93123400e-01f,+1.04890428e-01f,
-8.64966288e-02f,-2.07084015e-01f,+3.78378369e-02f,-9.06631723e-02f,-8.02266151e-02f,
-2.20923230e-01f,+2.91308641e-01f,+1.23803236e-01f,-1.88914258e-02f,+2.02592194e-01f,
-1.40392512e-01f,+1.03100568e-01f,+1.36133665e-02f,+7.87582695e-02f,-2.18525350e-01f,
+1.08443327e-01f,+3.91825382e-03f,-3.23482566e-02f,-5.57115301e-02f,+8.20335820e-02f,
+1.81898296e-01f,-1.14536360e-01f,-2.07765102e-02f,+1.18298158e-02f,-1.89319566e-01f,
-8.19332376e-02f,-3.71334478e-02f,-2.00864851e-01f,+1.31824523e-01f,-8.64456818e-02f,
+3.11446697e-01f,-5.80599383e-02f,-2.18756311e-02f,+5.13952374e-02f,+1.15129255e-01f,
+1.29450530e-01f,+2.07955688e-02f,-3.22469063e-02f,-3.03489435e-02f,-2.75241196e-01f,
-1.31099075e-01f,-7.80374557e-02f,+1.49415627e-01f,+8.15409571e-02f,-2.09695518e-01f,
+8.80641639e-02f,-1.37634411e-01f,+9.79727730e-02f,+1.12258114e-01f,+1.11509599e-01f,
-1.71727881e-01f,-1.58882644e-02f,+4.26754542e-02f,-1.97255462e-02f,+5.70162907e-02f,
-2.02551976e-01f,+2.61701159e-02f,+7.19171986e-02f,+2.03147139e-02f,-1.34450212e-01f,
-2.93262070e-03f,-6.12326264e-02f,-6.58728182e-02f,+1.90829098e-01f,+1.28263354e-01f,
+8.13629553e-02f,-1.85598340e-02f,-7.13879168e-02f,-2.67803147e-02f,-1.01561733e-01f,
+1.60937876e-01f,-6.13558590e-02f,-1.93906546e-01f,+4.09704782e-02f,-1.81145474e-01f,
-2.88811415e-01f,-3.72269265e-02f,-1.64313033e-01f,+2.39396933e-02f,-7.41437599e-02f,
+3.62614840e-02f,-7.34061524e-02f,-1.00149676e-01f,+7.10646883e-02f,+3.67992856e-02f,
+1.12022027e-01f,-1.67535678e-01f,+5.89952208e-02f,-5.34410514e-02f,-1.71282530e-01f,
+1.29130008e-02f,+1.58051863e-01f,+6.00837767e-02f,-3.30455825e-02f,+4.11957614e-02f,
+1.65528983e-01f,+2.69148052e-01f,+3.87263969e-02f,-3.00644953e-02f,+1.80018410e-01f,
-9.36419070e-02f,-1.27648011e-01f,+3.12560722e-02f,+3.22841518e-02f,-1.22086301e-01f,
+1.55094698e-01f,-1.03056997e-01f,+2.85271164e-02f,-1.41800091e-01f,+6.93489686e-02f,
-1.15412615e-01f,-8.83914754e-02f,+2.01306283e-01f,-3.20345908e-02f,-2.07702294e-01f,
-1.49422400e-02f,-7.27413148e-02f,-1.11180499e-01f,-1.73834682e-01f,+5.66957444e-02f,
+2.26115137e-01f,-3.27591598e-02f,+8.18046555e-02f,-1.40644133e-01f,+1.25775859e-01f,
+2.08664294e-02f,-5.46506457e-02f,-5.16304150e-02f,-5.45061491e-02f,+9.83561352e-02f,
-4.26137857e-02f,-8.12472403e-02f,+1.60213619e-01f,+6.71168342e-02f,+1.14787475e-03f,
+1.11995585e-01f,+7.83028826e-02f,+5.40548190e-02f,-2.78385609e-01f,-5.16240261e-02f,
+6.25452325e-02f,+1.28981024e-01f,+1.45687535e-02f,+1.63708523e-01f,-4.33993675e-02f,
-4.35241982e-02f,+3.20121050e-02f,+2.01178584e-02f,+1.01784639e-01f,-6.01282567e-02f,
+1.44760683e-01f,-1.59312472e-01f,-6.87654167e-02f,-7.66574442e-02f,+6.09750599e-02f,
+6.95039183e-02f,+3.16578388e-01f,+9.09784809e-02f,+2.46736482e-02f,+4.18719500e-02f,
-4.36384827e-02f,-3.84856611e-02f,+1.53239742e-02f,-8.01500008e-02f,+8.96212235e-02f,
-8.86208490e-02f,-1.56425554e-02f,+1.26721799e-01f,-2.04053938e-01f,+1.65146023e-01f,
+5.86830452e-02f,+3.95529717e-02f,+3.16340360e-04f,+1.63299158e-01f,+1.31493568e-01f,
+3.80157703e-03f,+1.85542312e-02f,-6.88066930e-02f,-2.55210092e-03f,-8.75855982e-02f,
-1.25949562e-01f,-4.65755649e-02f,-5.28508574e-02f,+1.15890101e-01f,-2.83070385e-01f,
-6.56226650e-02f,-1.88753456e-01f,+8.57068896e-02f,+1.43987462e-01f,+6.24890327e-02f,
+6.07243590e-02f,+5.44676594e-02f,-1.16275206e-01f,+3.65879834e-02f,-6.62072655e-03f,
+1.56895652e-01f,-8.75898898e-02f,+1.51267678e-01f,+1.68493897e-01f,-5.16057946e-02f,
-1.80880330e-03f,-1.55661166e-01f,+2.03724086e-01f,-1.67667255e-01f,-2.02189758e-01f,
+1.13292105e-01f,+2.55779624e-02f,+7.37471730e-02f,-1.24067888e-01f,-8.33695084e-02f,
+2.96687454e-01f,-1.91226546e-02f,-1.73387244e-01f,+3.38938497e-02f,+2.50298649e-01f,
+6.88681006e-02f,-9.74525586e-02f,+4.46713762e-03f,-1.26811236e-01f,-1.21658510e-02f,
-1.56149372e-01f,+7.62664378e-02f,-1.40781745e-01f,-1.61353387e-02f,-1.59543904e-03f,
+7.23074377e-02f,-1.68620363e-01f,+1.78611930e-02f,-1.13635678e-02f,-1.03290126e-01f,
+7.54960477e-02f,-1.95526376e-01f,+1.56320184e-01f,+5.24466820e-02f,+2.24911198e-01f,
+2.85137206e-01f,+1.37183204e-01f,+3.31250876e-01f,-6.23188131e-02f,-1.01034135e-01f,
-1.34814113e-01f,+2.53340304e-01f,-3.15412395e-02f,+2.94633240e-01f,+7.79871121e-02f,
-2.31799215e-01f,+2.45249160e-02f,-1.29727229e-01f,-1.49673104e-01f,-2.10840091e-01f,
+3.74521711e-03f,-1.56697229e-01f,-1.34582806e-03f,-1.67597890e-01f,+2.12156009e-02f,
+7.65136331e-02f,+1.29939005e-01f,+2.93668173e-02f,+1.09939855e-02f,-6.36009648e-02f,
-9.88722071e-02f,+1.12608902e-01f,+8.26889724e-02f,+1.30835697e-02f,+1.29344299e-01f,
+2.14560807e-01f,+7.05731194e-03f,+3.10304016e-01f,+7.17929453e-02f,+1.20143324e-01f,
+1.28125772e-01f,+2.15979829e-01f,+4.72437404e-02f,-1.29601702e-01f,-9.54747349e-02f,
+1.53171746e-02f,+7.33243749e-02f,+3.59361053e-01f,-5.17006069e-02f,+1.44800678e-01f,
-1.05106586e-03f,+1.46091715e-01f,+9.77214053e-02f,+2.09125634e-02f,-7.95704052e-02f,
-1.71014778e-02f,-5.93177043e-02f,-2.30911803e-02f,-1.70345888e-01f,-5.08768521e-02f,
-1.10562570e-01f,-1.45537242e-01f,+2.66918465e-02f,-4.64836881e-02f,+4.16687876e-02f,
+3.13084200e-02f,+1.57853305e-01f,+7.68556818e-02f,+2.81525422e-02f,-1.10919289e-02f,
+9.02318805e-02f,+8.76522884e-02f,+1.30664082e-02f,+1.57885402e-01f,-2.59535145e-02f,
-1.64498001e-01f,-4.69994545e-02f,+2.23456949e-01f,+1.50756389e-01f,-1.85240149e-01f,
-1.65211558e-01f,-1.02847917e-02f,+7.29477108e-02f,+1.20242909e-01f,+3.38232033e-02f,
-1.60038739e-01f,+7.00208992e-02f,+1.53718054e-01f,+8.85168370e-03f,+1.80059493e-01f,
-2.49159962e-01f,+4.07705978e-02f,+5.14236279e-02f,+2.20617175e-01f,-8.75980482e-02f,
-3.31985444e-01f,+1.87531129e-01f,+1.65061593e-01f,-9.53435525e-02f,+2.53165942e-02f,
+3.29253942e-01f,+1.64374232e-01f,+2.99007654e-01f,+5.25516495e-02f,-1.36375755e-01f,
-1.36556640e-01f,+6.58022016e-02f,+9.64969844e-02f,-1.32438719e-01f,+1.07120402e-01f,
-8.17416608e-02f,+5.91205359e-02f,-1.06932851e-03f,+6.80362657e-02f,+2.73718536e-02f,
+1.38104111e-01f,-1.02774709e-01f,+2.32196376e-01f,-1.42055213e-01f,+2.08052224e-03f,
+1.31956339e-01f,-1.74084961e-01f,+4.46191192e-01f,-1.01057656e-01f,-1.12480402e-01f,
-1.97790004e-02f,-1.39222011e-01f,+1.45638987e-01f,-2.48043135e-01f,+9.76730287e-02f,
+1.37604354e-02f,-3.17960903e-02f,+6.29393384e-02f,+2.74336815e-01f,-4.84359590e-03f,
-6.66974187e-02f,+5.03109992e-02f,-1.50799453e-01f,+8.36703405e-02f,-1.54158667e-01f,
-4.31623533e-02f,+8.66953433e-02f,-3.23938616e-02f,+1.63200065e-01f,+4.98208478e-02f,
+3.09069287e-02f,+3.12751025e-01f,+5.97698940e-03f,+1.13425791e-01f,-1.35134822e-02f,
+2.93160733e-02f,+1.78643659e-01f,-1.25118131e-02f,+2.56063771e-02f,-1.40042111e-01f,
-1.37908295e-01f,-7.77718127e-02f,+6.48256913e-02f,+1.06058903e-02f,+1.92489386e-01f,
+2.05010772e-01f,-1.40549541e-01f,+7.05333054e-02f,+1.94321887e-03f,-2.33714521e-01f,
-1.07539117e-01f,-1.96625516e-01f,-3.04365456e-01f,-1.03771217e-01f,-3.82997543e-01f,
-4.05373937e-03f,-6.33067638e-03f,+1.29425645e-01f,-1.80776790e-01f,+6.53279424e-02f,
-1.82575464e-01f,-7.70770833e-02f,-2.68008977e-01f,-1.43080562e-01f,+2.56356690e-02f,
+9.76535007e-02f,-2.09515929e-01f,+2.04047292e-01f,-6.98567703e-02f,-9.33255702e-02f,
-2.61109360e-02f,+7.04525113e-02f,-4.26380672e-02f,-1.38976038e-01f,+2.97371387e-01f,
-1.44518539e-01f,+2.22754814e-02f,+1.45146251e-01f,+3.45339216e-02f,+2.58129060e-01f,
-2.31692955e-01f,+6.19490370e-02f,+1.02393210e-01f,-1.30958602e-01f,+3.87769379e-02f,
-1.52212098e-01f,-2.18323424e-01f,+1.44189075e-01f,+1.73635244e-01f,-4.78137517e-03f,
-1.81424171e-02f,+3.07316542e-01f,-1.18349053e-01f,+4.97222394e-02f,-8.07458907e-02f,
+1.28721610e-01f,-1.80591211e-01f,-1.24468438e-01f,-7.21879750e-02f,+2.26117060e-01f,
+5.00814505e-02f,+1.55091345e-01f,-4.63750735e-02f,-1.13749318e-01f,-1.84714735e-01f,
-7.26375058e-02f,-2.79445976e-01f,-8.67130794e-03f,-2.37759091e-02f,-1.98149815e-01f,
+9.49664190e-02f,+1.27664089e-01f,-1.13270760e-01f,-2.13002309e-01f,-1.07350692e-01f,
-7.67920986e-02f,-1.60430461e-01f,-4.46081460e-01f,+8.04801136e-02f,+3.65898088e-02f,
+4.36639749e-02f,+2.28831977e-01f,+4.81887497e-02f,+1.72605328e-02f,-1.66642189e-01f,
+4.61462028e-02f,+2.54510760e-01f,+1.05272397e-01f,-5.90877309e-02f,-8.68813843e-02f,
+2.32063323e-01f,-1.19231306e-01f,-8.02020505e-02f,+1.09353356e-01f,+2.50759237e-02f,
-4.90277857e-02f,+8.63354187e-03f,-2.77878225e-01f,+3.35666910e-02f,-7.85023272e-02f,
+1.24766462e-01f,+1.90638434e-02f,+1.97781861e-01f,+1.90354675e-01f,-1.58414841e-01f,
-1.61445782e-01f,+1.91886574e-01f,+6.52408227e-02f,+4.38443050e-02f,+3.78329083e-02f,
-3.26129973e-01f,+2.51366794e-01f,-2.62733191e-01f,-9.48533863e-02f,+3.51337194e-02f,
+2.71274358e-01f,-1.72574058e-01f,+5.58604002e-02f,-3.60235013e-02f,-1.37271196e-01f,
+2.71814112e-02f,-8.92165080e-02f,+6.44679833e-03f,-6.42338321e-02f,-5.36695123e-02f,
-1.80050489e-02f,-1.23477332e-01f,+1.68701842e-01f,-1.88360125e-01f,+2.39761516e-01f,
-1.77339409e-02f,+7.41548277e-03f,-5.39132878e-02f,-1.44040920e-02f,+2.13004928e-02f,
+8.74164701e-02f,+4.66569625e-02f,+1.26292827e-02f,+1.20401822e-01f,-8.13457593e-02f,
-3.57550085e-02f,-9.33353528e-02f,-1.28811851e-01f,-6.82885498e-02f,+9.44842249e-02f,
+1.11319631e-01f,+4.53581922e-02f,+5.50451875e-02f,+1.78321645e-01f,+3.64426114e-02f,
+3.13093923e-02f,-7.84276403e-04f,+2.10003272e-01f,-2.64155120e-01f,+1.40069023e-01f,
-5.69824576e-02f,+9.99572501e-02f,+3.51727121e-02f,+1.66083738e-01f,+1.41945675e-01f,
-3.28453422e-01f,+1.05516739e-01f,-1.05485655e-01f,+2.03673527e-01f,+1.38807178e-01f,
-2.50149429e-01f,-1.90793753e-01f,-8.48828927e-02f,+1.17570981e-01f,+9.40380096e-02f,
-2.03374580e-01f,+1.90134495e-02f,-1.73591316e-01f,-9.67309475e-02f,+1.30533040e-01f,
+2.21742555e-01f,+2.74284706e-02f,-3.71168330e-02f,-1.72211915e-01f,-1.12079307e-01f,
+5.56373931e-02f,-8.21668506e-02f,-1.71085939e-01f,+1.96676493e-01f,+5.30159213e-02f,
+1.32396102e-01f,-2.27474093e-01f,+1.22613907e-01f,-1.39966324e-01f,-2.13419609e-02f,
-1.29937723e-01f,+6.56178668e-02f,+3.23167562e-01f,+5.98872267e-02f,+1.52346678e-02f,
-6.67892620e-02f,-2.35230718e-02f,+1.33949697e-01f,+3.85220312e-02f,+6.27803281e-02f,
+9.16957855e-03f,-3.11708252e-04f,-1.82122067e-01f,-1.54304937e-01f,-1.01509005e-01f,
+5.79612004e-03f,+2.49261465e-02f,+6.13449290e-02f,-7.27618709e-02f,+1.65842157e-02f,
+2.20851496e-01f,+3.92952859e-02f,+1.26170695e-01f,+2.71202296e-01f,+9.72357318e-02f,
-8.76164250e-03f,+1.58335418e-01f,+2.11908445e-01f,-8.96837488e-02f,+1.16804041e-01f,
+1.34208992e-01f,+6.68425718e-03f,+1.31208703e-01f,-1.19033799e-01f,+7.71457702e-02f,
+4.45666537e-02f,-7.78249800e-02f,-9.46258232e-02f,+1.35940537e-01f,+1.51957218e-02f,
-1.81254838e-02f,+1.88452825e-01f,-2.42594898e-01f,+8.19760710e-02f,+7.18901306e-03f,
-2.32310183e-02f,+2.93984294e-01f,+1.62242241e-02f,+1.65925249e-01f,-1.08375107e-05f,
+3.03592961e-02f,-7.30232298e-02f,-1.03226416e-01f,-1.21383846e-01f,+2.35059932e-01f,
-7.32230544e-02f,-6.23281002e-02f,-1.01863958e-01f,+1.97706348e-03f,+2.72729009e-01f,
+2.98461437e-01f,+1.51350172e-02f,+7.52024651e-02f,+1.70638915e-02f,+1.17905075e-02f,
-3.02225679e-01f,-1.10177949e-01f,+7.07514361e-02f,+3.75920892e-01f,+1.79903924e-01f,
-1.21936746e-01f,+1.19151831e-01f,-9.74346176e-02f,+1.41702771e-01f,-4.48951386e-02f,
-2.54975677e-01f,+5.05864294e-03f,-7.51404278e-03f,+2.63887476e-02f,-1.57770142e-01f,
+1.10189483e-01f,+1.07272588e-01f,+3.03368807e-01f,-8.86664912e-02f,+3.12006334e-03f,
+3.42089385e-01f,+5.44042289e-02f,+2.40634933e-01f,-9.32775885e-02f,+1.81347936e-01f,
+1.93991944e-01f,+8.44895914e-02f,+3.43166143e-02f,+5.80657832e-02f,-5.17922193e-02f,
-1.83129683e-01f,+2.60264903e-01f,-1.13426529e-01f,+2.41191819e-01f,-2.58033484e-01f,
+2.13640913e-01f,+2.34553650e-01f,+3.41539830e-02f,+1.43296868e-01f,+9.57443565e-02f,
+1.62577718e-01f,+1.70839384e-01f,+1.79733858e-01f,-9.92099419e-02f,+1.13635749e-01f,
+1.58089325e-01f,-9.24602523e-02f,+4.09253240e-02f,+5.25861755e-02f,-2.73923092e-02f,
+2.07520559e-01f,-1.23735331e-01f,-1.79658711e-01f,+5.86336814e-02f,+2.04015374e-01f,
+1.46276936e-01f,+4.40355130e-02f,+2.05645964e-01f,+7.23605826e-02f,+5.48096150e-02f,
-1.23067722e-01f,+8.06589648e-02f,-1.32747635e-01f,+4.94091697e-02f,+3.99081521e-02f,
+7.44755566e-02f,+1.44234836e-01f,+1.20601721e-01f,-1.44143224e-01f,+3.86276007e-01f,
+7.04374090e-02f,-1.44689977e-01f,-7.56320879e-02f,-4.85790074e-02f,-2.17310399e-01f,
+2.77434200e-01f,+3.18063676e-01f,+1.31081209e-01f,+4.12591696e-01f,-1.05119087e-01f,
+5.64326197e-02f,+3.59524548e-01f,+7.40169883e-02f,+3.15610051e-01f,+2.13078395e-01f,
+2.55443960e-01f,-4.39069867e-02f,+1.22677274e-01f,-6.28651008e-02f,-3.98080677e-01f,
+3.61081749e-01f,+7.53496438e-02f,+1.58904374e-01f,+1.87573135e-01f,+2.33068973e-01f,
+3.08844984e-01f,-1.23988457e-01f,+6.08151555e-02f,+3.06756515e-02f,+9.49432030e-02f,
-3.14024016e-02f,-7.82616735e-02f,+5.45175262e-02f,-1.68646835e-02f,+9.59951952e-02f,
-1.30373165e-01f,-6.93021044e-02f,-5.50068654e-02f,-6.11147098e-02f,+1.31738827e-01f,
+4.68023010e-02f,+2.40838781e-01f,+1.90377787e-01f,+2.77067840e-01f,+1.73022836e-01f,
+3.51920009e-01f,-4.32582200e-02f,-1.75783795e-03f,+2.53484547e-01f,-2.36922637e-01f,
-1.35202959e-01f,+5.42587698e-01f,-1.09865271e-01f,+8.72259140e-02f,-2.18429878e-01f,
-4.24676575e-02f,+9.92725119e-02f,+7.25691095e-02f,+1.37825564e-01f,+6.73471838e-02f,
-1.99132785e-01f,+1.64891392e-01f,+1.26918972e-01f,-1.11215234e-01f,+2.56384406e-02f,
+3.79989207e-01f,+3.78849715e-01f,-2.12230131e-01f,+4.02673818e-02f,+9.44124088e-02f,
-2.27444679e-01f,+8.22490156e-02f,+2.16246545e-01f,+1.56623632e-01f,+1.55655611e-02f,
+1.19849160e-01f,-8.83511305e-02f,-6.99029788e-02f,-5.11413813e-02f,+1.15084760e-01f,
-1.52984247e-01f,+2.34588653e-01f,+2.08737463e-01f,+1.93188250e-01f,+2.23904829e-02f,
-5.65702319e-02f,-1.81693267e-02f,+1.09542921e-01f,+1.01034688e-02f,-1.17909433e-02f,
+2.26457953e-01f,+6.59714937e-02f,-9.45572928e-02f,+7.82256052e-02f,+3.44594531e-02f,
+2.60027796e-01f,+3.10179219e-03f,+6.07388839e-02f,-1.70385271e-01f,-3.22570205e-02f,
+1.27314985e-01f,+4.31425497e-02f,-9.91525874e-02f,+1.85619235e-01f,+2.59127825e-01f,
-1.08928857e-02f,+1.56018242e-01f,+4.46130075e-02f,-1.74046710e-01f,+3.78635526e-01f,
-2.69990951e-01f,-3.04220524e-02f,+2.00531915e-01f,+5.47882952e-02f,-2.14749500e-01f,
-4.34918925e-02f,-1.26838712e-02f,+7.22529888e-02f,+4.17904019e-01f,-5.07107899e-02f,
-6.10237159e-02f,+2.13595703e-01f,-1.08886957e-01f,+3.05169344e-01f,-2.23476104e-02f,
-1.43206909e-01f,-4.09128331e-03f,+1.94570735e-01f,-3.37646842e-01f,+2.55097985e-01f,
+2.29970599e-03f,-2.47851815e-02f,-1.06857091e-01f,-1.49930745e-01f,+2.16168970e-01f,
+1.15819007e-01f,+9.62478444e-02f,-3.91628779e-02f,-4.32634763e-02f,+3.42917666e-02f,
+1.63068306e-02f,+9.95671377e-02f,+3.77905488e-01f,+1.69515401e-01f,-2.45922850e-03f,
-4.03030356e-03f,+1.21800452e-01f,+9.08325368e-04f,+1.85108244e-01f,-5.03949225e-02f,
-2.49012243e-02f,+6.15768656e-02f,+3.67476761e-01f,-2.26867989e-01f,+3.77479434e-01f,
+3.41322690e-01f,-1.42942294e-01f,+2.22047314e-01f,+1.07466966e-01f,+3.78232752e-03f,
+5.49086258e-02f,+1.16417140e-01f,+7.60513321e-02f,+7.43487626e-02f,+2.23323911e-01f,
+7.54936710e-02f,+4.03858609e-02f,-2.31818497e-01f,+5.03966101e-02f,+5.42631410e-02f,
-2.82282215e-02f,+4.58595268e-02f,+1.17044918e-01f,-5.16808666e-02f,+2.86156666e-02f,
-1.56277806e-01f,+1.33698493e-01f,+3.72755304e-02f,-1.23987496e-01f,-2.38302857e-01f,
+1.51163451e-02f,+1.93389088e-01f,-1.92698404e-01f,+1.03041910e-01f,-1.80695117e-01f,
+7.66626969e-02f,-7.53824785e-02f,-1.17446117e-01f,+6.31951466e-02f,+8.73533785e-02f,
+7.09958375e-02f,-3.93312067e-01f,-9.88552719e-02f,+4.56338655e-03f,+3.60585004e-01f,
-3.25142033e-02f,+1.21860564e-01f,+2.98814736e-02f,+6.49282336e-02f,+1.95885882e-01f,
+3.09504122e-01f,+9.57717672e-02f,+6.47966862e-02f,+3.17692518e-01f,+2.43591562e-01f,
-1.26740068e-01f,+1.76876962e-01f,-2.17390373e-01f,+1.47169530e-01f,-8.05184841e-02f,
-1.56478718e-01f,+5.21021597e-02f,-4.73521315e-02f,+9.46328044e-02f,-1.33666262e-01f,
-8.37506319e-04f,+3.02762061e-01f,+2.29503512e-01f,-2.06601322e-01f,+5.13621941e-02f,
+1.08099028e-01f,-7.23318756e-02f,+1.93951935e-01f,+3.07648145e-02f,-8.79158229e-02f,
+7.44347498e-02f,-1.66827943e-02f,-1.24404319e-01f,-3.39636505e-02f,+2.14868598e-02f,
+4.96100821e-02f,+1.19675271e-01f,+9.15880948e-02f,-1.36282099e-02f,+1.20480992e-01f,
-3.22242141e-01f,+3.35731506e-01f,-3.77632789e-02f,-3.42743844e-02f,+1.91738516e-01f,
+1.47637367e-01f,-2.75029302e-01f,+9.05096307e-02f,+3.39687914e-02f,+2.72408605e-01f,
+5.21973148e-02f,+2.36125328e-02f,+2.96406329e-01f,+7.92891905e-02f,-5.86971529e-02f,
-2.11340785e-01f,+7.49252290e-02f,+6.59002513e-02f,+1.81122482e-01f,+3.64849180e-01f,
+1.26134381e-01f,+1.24723293e-01f,-2.82232128e-02f,-2.02483267e-01f,-2.93447256e-01f,
+1.93723679e-01f,-3.08245212e-01f,+1.45747466e-02f,+2.43641362e-01f,+8.41405392e-02f,
-8.17346573e-02f,+1.79740742e-01f,-2.06061825e-02f,+1.93355516e-01f,-5.90012372e-02f,
+2.48786092e-01f,-2.90631115e-01f,-1.04960904e-01f,-1.24041893e-01f,+6.66161552e-02f,
-2.41204634e-01f,+9.36587527e-02f,+7.96899870e-02f,-1.69799058e-03f,-4.44490612e-01f,
-2.10905120e-01f,-1.60379604e-01f,-1.73772708e-01f,-6.99625015e-02f,-5.86275570e-02f,
+1.21202193e-01f,+2.61487812e-01f,-1.24644451e-01f,+2.49140605e-01f,-1.36822879e-01f,
+8.52036178e-02f,-4.08320457e-01f,-2.22431093e-01f,-1.83511153e-02f,+2.67889082e-01f,
+1.90416291e-01f,-3.59947607e-03f,-1.10491410e-01f,+1.57573327e-01f,-3.47339250e-02f,
+4.29426849e-01f,-5.51585071e-02f,-1.05263568e-01f,+2.08428413e-01f,-1.78034484e-01f,
-2.54587352e-01f,+2.06856295e-01f,+6.76356032e-02f,+1.58413962e-01f,-1.79861430e-02f,
-1.75474778e-01f,+1.21412799e-01f,+1.06263459e-01f,+1.52083516e-01f,-1.10768169e-01f,
-2.88181230e-02f,-8.29501897e-02f,+3.24934840e-01f,+3.51927839e-02f,-3.07737477e-03f,
+3.21481764e-01f,+1.09844998e-01f,-8.31667483e-02f,-4.99327183e-02f,+6.57361820e-02f,
+1.14413761e-01f,-1.82172269e-01f,-6.32888377e-02f,+9.69982520e-02f,-1.51214287e-01f,
-7.40533322e-02f,-2.74247546e-02f,-9.36295688e-02f,+2.53905952e-01f,+3.12604159e-01f,
-2.49862686e-01f,+1.05549432e-01f,+2.20355585e-01f,+1.71251521e-02f,-7.23004490e-02f,
-2.02320054e-01f,+1.91085264e-01f,+3.82237136e-03f,-5.34626283e-03f,-8.93984213e-02f,
-1.04955852e-01f,-3.78505796e-01f,-7.16230040e-03f,-1.10020638e-02f,-1.70412764e-01f,
-6.46107495e-02f,-4.62426804e-02f,-1.01978719e-01f,+1.59016147e-01f,+7.94187710e-02f,
+4.88415221e-03f,+4.81255017e-02f,-3.56767565e-01f,-1.40368594e-02f,+6.93528876e-02f,
-3.80733493e-03f,-6.12668414e-03f,+4.27302510e-01f,+2.80348480e-01f,-2.22312152e-01f,
-1.20737642e-01f,+1.22446351e-01f,+1.00594155e-01f,-8.80837888e-02f,-1.44430369e-01f,
+7.89003372e-02f,+7.25938380e-02f,+7.14172944e-02f,+3.09179008e-01f,-6.59303516e-02f,
+2.77112462e-02f,+2.08711978e-02f,-2.03919951e-02f,-4.63509234e-03f,-7.46187009e-03f,
+1.76888868e-01f,-1.18090633e-04f,-2.75392115e-01f,+1.71652094e-01f,+3.00070178e-02f,
-1.56365544e-01f,+2.98371494e-01f,-6.91726506e-02f,-9.91898868e-03f,-9.71103646e-03f,
+2.48968050e-01f,-3.59248705e-02f,+1.96895465e-01f,-5.13998866e-02f,+5.68818208e-03f,
+5.21865971e-02f,-3.43352519e-02f,+1.23804189e-01f,-1.31746411e-01f,+3.68069932e-02f,
+2.35607311e-01f,+1.25886589e-01f,-3.59682478e-02f,+1.76696181e-01f,+1.64158583e-01f,
+8.86482447e-02f,+6.44227713e-02f,+3.65138836e-02f,+1.79583549e-01f,-1.68779671e-01f,
-4.53836411e-01f,+2.38167662e-02f,-5.77019081e-02f,+7.01386482e-02f,+3.08218241e-01f,
+1.19424887e-01f,+3.69306266e-01f,-3.14908028e-01f,+3.05788785e-01f,+1.51018277e-02f,
+2.14321092e-01f,-2.31205106e-01f,+5.97102270e-02f,+8.10157731e-02f,-5.51914163e-02f,
-1.43513799e-01f,-1.07884463e-02f,-8.39861557e-02f,-3.51080559e-02f,-3.07311356e-01f,
-1.18193161e-02f,+2.14667246e-01f,-3.80977169e-02f,+2.35898554e-01f,-4.77934331e-02f,
-1.77770138e-01f,-7.87394717e-02f,-3.54633816e-02f,+6.27206191e-02f,-5.59468642e-02f,
+9.20725465e-02f,+2.55963415e-01f,+8.63633379e-02f,+1.88118234e-01f,+2.09772348e-01f,
+3.45666945e-01f,+2.09112972e-01f,+1.58169240e-01f,+6.87780082e-02f,+5.47135659e-02f,
-1.67932153e-01f,+2.42473558e-01f,+9.05825123e-02f,+1.81558505e-01f,+8.23549479e-02f,
+3.29550654e-01f,-2.38746971e-01f,+2.29941726e-01f,-2.33083248e-01f,-6.65738657e-02f,
+5.91680445e-02f,-1.37127444e-01f,+1.33475691e-01f,+1.08033448e-01f,-2.05179796e-01f,
+2.78417885e-01f,+1.24412179e-01f,+8.96427110e-02f,-1.81842998e-01f,-7.76485726e-02f,
+1.85727298e-01f,-1.97716150e-02f,+1.61540851e-01f,+2.74422765e-03f,+1.66057482e-01f,
-3.03556502e-01f,+2.12619379e-01f,+1.08745866e-01f,-1.15182977e-02f,+1.62664711e-01f,
+2.75686920e-01f,+2.13636011e-01f,+1.97954953e-01f,+2.59712756e-01f,+7.83390924e-02f,
+8.37958753e-02f,-2.63451308e-01f,+8.50479901e-02f,+9.07176211e-02f,+1.68923452e-01f,
-1.78340878e-02f,-6.27878383e-02f,-5.16141057e-02f,+2.02657983e-01f,-3.53129655e-02f,
+4.47274046e-03f,-1.79901123e-01f,-1.98310956e-01f,-3.42947692e-02f,-1.39730573e-01f,
+2.54827231e-01f,+1.63591519e-01f,+1.98813956e-02f,-1.87968656e-01f,+2.77199037e-02f,
-1.59306422e-01f,+1.05055049e-01f,-2.86637023e-02f,-3.32307667e-01f,+2.25215033e-01f,
+1.60438687e-01f,+3.79961699e-01f,-5.09640984e-02f,-1.46781951e-01f,-2.09020115e-02f,
+1.61455631e-01f,+6.09391779e-02f,-6.10352755e-02f,-9.82332528e-02f,-3.50698233e-02f,
+1.25220731e-01f,-1.80864081e-01f,+5.19645959e-03f,-5.81591874e-02f,-8.72889459e-02f,
+1.97301462e-01f,-1.15794688e-01f,-5.54461405e-02f,+1.35203704e-01f,-2.36287504e-01f,
-9.99100655e-02f,+2.78680801e-01f,-1.44836446e-02f,-2.76762191e-02f,+1.78930178e-01f,
+1.65598184e-01f,+4.45535854e-02f,+2.38637969e-01f,+9.82890055e-02f,-8.30607563e-02f,
+3.20773460e-02f,-6.96118549e-02f,+3.01678497e-02f,-2.59546757e-01f,-2.16743842e-01f,
+6.06839880e-02f,-9.50744450e-02f,-1.59719005e-01f,-1.79159671e-01f,+8.84511322e-02f,
+7.85771478e-03f,+1.44271895e-01f,+1.33886546e-01f,-9.37096626e-02f,+1.22418389e-01f,
-8.40775743e-02f,-1.20051384e-01f,+1.26083821e-01f,-1.04275905e-01f,-3.80284339e-01f,
-1.37511373e-01f,+1.58358783e-01f,-1.59263313e-01f,+1.44976109e-01f,+8.88552740e-02f,
-2.18605369e-01f,+2.21541494e-01f,+4.66900505e-02f,+1.64230138e-01f,-3.40703729e-04f,
-4.34904546e-02f,+8.72272179e-02f,+2.12325484e-01f,-9.51252729e-02f,-4.00024839e-02f,
-7.34422281e-02f,+1.61702503e-02f,-7.07846358e-02f,+1.51468977e-01f,-2.34816913e-02f,
+1.99909031e-01f,-3.23502302e-01f,-1.27338901e-01f,-1.91350356e-01f,-2.00526655e-01f,
-2.65952677e-01f,+5.28025068e-02f,+3.37753683e-01f,-5.16357720e-02f,-4.94029783e-02f,
+9.36870575e-02f,-5.04798628e-02f,+3.43975015e-02f,-1.92287043e-01f,-1.23474352e-01f,
+1.14135638e-01f,+7.74493665e-02f,+7.51831903e-05f,-1.48588330e-01f,+4.91018631e-02f,
-1.46232978e-01f,-2.35997736e-02f,+5.15097082e-02f,+1.34227529e-01f,-2.17593983e-01f,
-2.66979635e-01f,+1.14155635e-01f,-1.22825347e-01f,-1.64187506e-01f,-2.32308209e-01f,
+1.20678663e-01f,-7.65853152e-02f,+3.48524936e-02f,-1.06504589e-01f,-1.23512827e-01f,
+1.88020635e-02f,-1.46276176e-01f,-1.74525723e-01f,-2.50253230e-02f,-1.21757723e-01f,
+6.58615232e-02f,+1.27534866e-01f,+6.76235855e-02f,+1.94761992e-01f,+1.81155145e-01f,
-2.30033204e-01f,-2.76412945e-02f,+3.77922021e-02f,-5.59591800e-02f,+1.13390654e-01f,
+2.28892982e-01f,+2.73676693e-01f,-9.72179398e-02f,-9.89911519e-03f,+4.77592610e-02f,
-4.70202276e-03f,+1.61628053e-01f,+6.11593155e-03f,-6.81650117e-02f,+1.18819445e-01f,
-1.50481779e-02f,+8.76651183e-02f,-1.13037810e-01f,-1.09066777e-01f,+1.86058089e-01f,
+4.74895984e-02f,+2.93879360e-01f,-1.80960894e-01f,+3.26243848e-01f,-1.78503260e-01f,
+1.06527038e-01f,-3.33115086e-02f,-5.37213534e-02f,+2.57124573e-01f,-7.03268945e-02f,
+6.91072084e-03f,-1.57229632e-01f,+1.20645218e-01f,+1.48026094e-01f,+7.05010295e-02f,
+8.52916688e-02f,+2.98888981e-03f,+2.05363780e-02f,-8.69842693e-02f,-2.84695417e-01f,
+1.59050912e-01f,-1.94846075e-02f,+3.91901620e-02f,+1.09774088e-02f,+7.10999072e-02f,
+1.14440374e-01f,+7.21696615e-02f,-1.01772182e-01f,+2.40642130e-01f,+1.07728146e-01f,
-2.17803195e-01f,+1.24622703e-01f,+1.26956524e-02f,-1.02556102e-01f,-1.41566202e-01f,
+1.86022758e-01f,-3.29166830e-01f,+3.20922256e-01f,+2.85686404e-02f,-1.84275433e-01f,
+7.52563626e-02f,-1.65817253e-02f,+3.29942793e-01f,+9.64391828e-02f,-1.74740136e-01f,
-1.90316200e-01f,-1.23310387e-01f,+1.21939152e-01f,+1.12028249e-01f,+1.44327417e-01f,
-5.35140038e-02f,-2.52054222e-02f,-2.40813680e-02f,-1.96812809e-01f,+2.63598323e-01f,
-1.14115596e-01f,+5.30243218e-02f,-2.21351519e-01f,+1.88932374e-01f,+5.89627847e-02f,
+8.20596740e-02f,-1.25054985e-01f,-6.27636397e-03f,+8.58704820e-02f,-3.45506147e-02f,
-3.65997165e-01f,+2.90523529e-01f,+1.12044074e-01f,+1.57775879e-01f,+1.15692750e-01f,
-1.07333913e-01f,+5.28759696e-02f,-2.01601312e-01f,-8.07752311e-02f,+2.31150821e-01f,
+1.33500502e-01f,+1.60749167e-01f,+2.12299466e-01f,+7.58933946e-02f,+3.94125849e-01f,
+5.32662636e-03f,-1.39153212e-01f,-2.56308094e-02f,-2.03645453e-01f,+1.53909370e-01f,
-1.26513660e-01f,-8.82993191e-02f,-3.79391797e-02f,+1.41309336e-01f,-2.88064003e-01f,
-1.69141050e-02f,-2.11225092e-01f,-1.96257874e-01f,+2.08219633e-01f,+4.32292484e-02f,
+7.48387421e-04f,-1.07690925e-02f,+2.09653616e-01f,+8.97973031e-03f,-9.23408009e-03f,
+5.78340553e-02f,+9.45294797e-02f,+8.62375349e-02f,-1.86439380e-01f,-2.14988068e-01f,
+1.81536525e-02f,+2.34628040e-02f,-6.12802431e-02f,-5.74959442e-02f,+8.78685061e-03f,
+1.06778942e-01f,-7.05855489e-02f,-3.38709652e-02f,+3.16737711e-01f,+6.45965859e-02f,
+9.39290039e-03f,+4.63097403e-03f,-3.04208435e-02f,+2.49865994e-01f,+1.24646403e-01f,
+2.65431464e-01f,+3.47999603e-01f,+1.61567688e-01f,-1.23334818e-01f,-9.53581110e-02f,
+7.12272525e-02f,+1.27559051e-01f,-9.70529243e-02f,+1.55629784e-01f,-1.40107960e-01f,
+2.74982005e-01f,-1.27001137e-01f,-7.11207017e-02f,-8.00555348e-02f,+3.91937166e-01f,
+1.26738876e-01f,+3.82787846e-02f,+1.84639562e-02f,-1.04406402e-02f,-2.02336848e-01f,
+2.03262255e-01f,+1.58205733e-01f,+5.28901862e-03f,-4.75887582e-02f,+7.24085793e-02f,
+1.03531465e-01f,+6.57588765e-02f,+5.94097972e-02f,+1.09609246e-01f,-5.74913248e-02f,
-2.86129236e-01f,+7.33102337e-02f,+1.33509785e-02f,+1.05063312e-01f,+3.30937393e-02f,
+2.83101588e-01f,+8.29102844e-02f,-1.94112256e-01f,+1.79766603e-02f,+1.17674917e-01f,
-3.96590829e-02f,-1.31255984e-01f,-4.60896567e-02f,-1.10073209e-01f,+4.81735310e-03f,
-3.79643559e-01f,+2.20134556e-01f,+6.95023090e-02f,+4.43197101e-01f,+3.19534749e-01f,
-1.95251452e-03f,-2.61147376e-02f,+2.67021239e-01f,+1.85278237e-01f,+2.98397809e-01f,
+1.11326687e-01f,-7.08370656e-02f,-1.48440050e-02f,+4.40353639e-02f,+1.26186395e-02f,
+2.31600225e-01f,-3.98796260e-01f,-8.22608769e-02f,+1.09169453e-01f,+3.57501894e-01f,
-2.43290961e-01f,-1.01178959e-01f,+4.98296507e-02f,-2.09631667e-01f,+1.06974512e-01f,
+1.35135487e-01f,-1.59610771e-02f,+3.06239337e-01f,-2.29873583e-01f,-2.40375903e-02f,
-1.03781432e-01f,-1.79484691e-02f,-9.97122750e-02f,+7.89166614e-02f,+1.01409964e-02f,
-2.96226591e-01f,+1.14380531e-01f,-2.75397524e-02f,+1.91134229e-01f,+4.20836918e-02f,
-8.69179815e-02f,-1.32068172e-01f,+1.23143867e-01f,+7.95449540e-02f,+2.50511497e-01f,
-9.09332708e-02f,+2.35858768e-01f,+2.38008812e-01f,-1.08497158e-01f,+1.69180334e-02f,
-2.87535697e-01f,-1.41918644e-01f,+1.10106796e-01f,+2.44675621e-01f,-4.59550470e-02f,
+1.85031116e-01f,-1.46683589e-01f,+1.23957254e-01f,-2.95888446e-02f,-6.24067485e-02f,
+6.62270412e-02f,+6.36324659e-02f,-7.12998882e-02f,-6.81829676e-02f,+9.68124717e-03f,
+2.90269673e-01f,+9.81723219e-02f,-7.25590214e-02f,-1.80144176e-01f,+1.17034145e-01f,
-7.45500019e-03f,+2.38845795e-01f,+4.33872230e-02f,+1.75595820e-01f,+4.06280845e-01f,
+1.29277349e-01f,+6.21657111e-02f,-8.99837315e-02f,-1.39433920e-01f,-1.17688686e-01f,
-1.23849526e-01f,-2.33154520e-02f,+9.98326838e-02f,-1.06929131e-01f,+1.18061900e-01f,
-1.08909486e-02f,-6.50168285e-02f,-2.27414206e-01f,+1.21489363e-02f,-1.46279141e-01f,
-1.38467655e-01f,+7.43006989e-02f,-1.38161913e-01f,+3.92324217e-02f,-1.25009164e-01f,
+9.45191458e-02f,+1.40666738e-01f,+2.14302599e-01f,+1.86424881e-01f,-1.47917956e-01f,
-1.10536709e-01f,-6.54332638e-02f,+1.25864655e-01f,-3.83755922e-01f,+8.80374983e-02f,
+1.42095134e-01f,+1.04351737e-01f,-1.28764480e-01f,-1.71811193e-01f,-9.13473815e-02f,
+2.56940603e-01f,+2.99104154e-01f,-5.95164075e-02f,+9.86420289e-02f,+2.26792153e-02f,
+2.79081278e-02f,-2.15264216e-01f,-1.50019333e-01f,-3.40050012e-02f,+5.02254814e-02f,
+1.09446179e-02f,-5.18776439e-02f,+2.26908743e-01f,-2.21723691e-01f,+2.95294613e-01f,
-2.31725618e-01f,-1.00210302e-01f,-3.32914554e-02f,-2.01946303e-01f,-7.47100711e-02f,
-4.80180718e-02f,-3.75492603e-01f,+1.53697714e-01f,-7.73997456e-02f,-4.40906398e-02f,
-1.38258085e-01f,-1.16659664e-01f,+9.22013149e-02f,-4.55795944e-01f,+8.00649002e-02f,
-4.66081828e-01f,-5.46990745e-02f,+7.04548582e-02f,+3.87626410e-01f,-1.21843152e-01f,
-2.67903715e-01f,-1.10995926e-01f,-1.02309667e-01f,-3.95684363e-03f,-1.05084613e-01f,
-4.57783528e-02f,-2.02279240e-01f,-2.21805006e-01f,+1.92240342e-01f,+1.19158074e-01f,
+1.71172857e-01f,-4.72485870e-01f,+6.46812543e-02f,+4.55460064e-02f,+1.15268193e-01f,
-6.97105825e-02f,+4.13765311e-02f,-3.87310646e-02f,-7.57255107e-02f,-1.17532648e-01f,
-1.76553115e-01f,+3.56561095e-01f,-9.12619680e-02f,-7.63539672e-02f,+2.27504387e-01f,
-4.55295257e-02f,+1.35958225e-01f,+6.98454827e-02f,-1.74068838e-01f,-5.03925644e-02f,
-9.03267413e-02f,-1.68164089e-01f,+5.42882457e-02f,+1.78791508e-01f,-1.17043115e-01f,
+4.21297923e-03f,+1.99397817e-01f,+1.50010973e-01f,+1.54172957e-01f,+7.59537816e-02f,
-1.02261968e-01f,-9.96797085e-02f,-1.22154169e-01f,+6.65082503e-03f,-1.43950939e-01f,
+3.20386380e-01f,-9.39340740e-02f,+6.30160943e-02f,-1.74130514e-01f,-1.21074073e-01f,
-3.87332201e-01f,-2.33619139e-01f,-1.18962057e-01f,+1.54217482e-01f,+1.16786927e-01f,
+1.55146554e-01f,-6.75912946e-02f,-1.82398215e-01f,+1.11111410e-01f,-6.04457408e-02f,
-2.58424655e-02f,+9.48573053e-02f,-2.40033045e-01f,+7.24919280e-03f,-1.50455385e-01f,
+2.63308920e-02f,-4.04237136e-02f,-1.37600631e-01f,-1.62435263e-01f,-1.85593754e-01f,
-2.14370921e-01f,+1.55457690e-01f,-1.17551953e-01f,-1.94576800e-01f,-7.55826011e-02f,
-1.81428120e-01f,+1.41575605e-01f,-1.49288923e-01f,-5.93592338e-02f,+6.92174211e-02f,
-3.59322689e-02f,-2.51847487e-02f,+1.22086503e-01f,+1.42603353e-01f,+2.12384790e-01f,
+1.64125711e-01f,-2.18369350e-01f,+2.56707937e-01f,+1.37763366e-01f,-1.80508912e-01f,
+1.31752700e-01f,-5.43044433e-02f,+3.34615447e-02f,-3.33615355e-02f,+1.07885614e-01f,
-8.07109773e-02f,-6.73400760e-02f,+8.38469118e-02f,-3.27396244e-01f,-9.25054178e-02f,
-1.20222844e-01f,-9.21041071e-02f,+3.85816485e-01f,-1.38431475e-01f,-2.76903421e-01f,
-1.90797582e-01f,+9.35193431e-03f,-1.57989547e-01f,+2.07390398e-01f,-1.19061321e-01f,
-1.25238135e-01f,-1.57679766e-01f,-1.50176287e-01f,+1.11310996e-01f,-7.63849318e-02f,
+1.42378941e-01f,+1.86703131e-01f,+5.08683436e-02f,-1.08674228e-01f,-9.17251334e-02f,
+1.29927292e-01f,-4.26890291e-02f,-1.14464320e-01f,-1.26855224e-01f,-5.53614646e-02f,
-1.23751976e-01f,-2.89215446e-01f,+1.04309060e-01f,+1.80673391e-01f,+4.56364304e-02f,
+8.20347220e-02f,+1.86784565e-01f,-1.80768654e-01f,-1.44786075e-01f,-1.18120097e-01f,
-1.85460627e-01f,-1.36941507e-01f,+8.51802826e-02f,-3.14044245e-02f,+5.35050780e-02f,
-7.11672530e-02f,-1.15556851e-01f,-1.04263825e-02f,-1.56348661e-01f,-4.04783338e-02f,
+8.07484314e-02f,+1.58733308e-01f,+8.26345384e-02f,-1.45550907e-01f,-5.99099323e-02f,
+7.93154985e-02f,+8.39185268e-02f,+9.96460170e-02f,-1.70839548e-01f,-1.24277838e-01f,
+2.75552273e-01f,+2.12651893e-01f,-1.80035010e-01f,-3.99314612e-02f,-3.71902972e-01f,
-3.66860449e-01f,-4.34882998e-01f,-8.47007986e-03f,+3.49024296e-01f,-2.24560708e-01f,
+7.66666308e-02f,+2.60635734e-01f,-5.05851395e-02f,-1.04752807e-02f,+1.35699473e-02f,
-2.36878805e-02f,-1.39465872e-02f,-6.39953688e-02f,+1.13296919e-01f,+1.80628244e-02f,
-4.09178197e-01f,+1.76708534e-01f,-2.33617917e-01f,-1.31186768e-01f,+2.87017077e-01f,
-8.19968618e-03f,-2.46877059e-01f,+5.86428680e-03f,+9.29204151e-02f,-8.18290561e-02f,
-1.47378832e-01f,+3.16747159e-01f,+1.96803153e-01f,+3.38594876e-02f,-7.94357285e-02f,
+1.53593719e-01f,+1.47039890e-01f,+8.72279778e-02f,+2.52964497e-02f,-1.42155915e-01f,
+3.20555508e-01f,+1.10738792e-01f,-1.13355376e-01f,+9.91812721e-02f,+1.62338465e-01f,
-1.82333644e-02f,+1.12535991e-01f,+1.75396372e-02f,+1.25304297e-01f,-2.95868188e-01f,
-2.08745897e-01f,-2.27061212e-01f,+1.23992622e-01f,-1.20475687e-01f,+9.05230194e-02f,
+2.92610172e-02f,-1.14661060e-01f,+1.78842202e-01f,-2.76667267e-01f,-1.01894094e-03f,
-6.93489984e-02f,-8.58030841e-02f,-2.53381342e-01f,+5.04826056e-03f,-6.19526729e-02f,
-9.02167261e-02f,+2.49362022e-01f,+1.43540740e-01f,-6.01785220e-02f,+2.01146096e-01f,
+5.58908135e-02f,+6.04086444e-02f,+1.79915458e-01f,-1.68042049e-01f,-2.38758370e-01f,
-3.17137927e-01f,+8.17363337e-02f,+1.23375691e-01f,+1.52758226e-01f,-1.34197518e-01f,
+9.26884357e-03f,-1.01693705e-01f,-1.29880086e-01f,+7.35125244e-02f,+2.32970268e-02f,
+5.21024726e-02f,+1.06026553e-01f,-2.14841098e-01f,+1.62881911e-01f,+1.50090912e-02f,
-2.89265245e-01f,+3.35247666e-02f,+8.99855718e-02f,-1.35884404e-01f,-1.11631669e-01f,
+4.84509580e-02f,-4.19345088e-02f,+3.91450465e-01f,+1.13985255e-01f,-3.20532829e-01f,
+1.75585866e-01f,-1.00331977e-01f,+4.11891602e-02f,+3.34061205e-01f,-1.63748786e-01f,
-1.16100103e-01f,-1.18051320e-01f,+1.18993804e-01f,-1.33358240e-01f,-2.49151319e-01f,
-2.58783460e-01f,-2.10798025e-01f,+1.59113586e-01f,+1.15260519e-01f,+1.38634726e-01f,
-1.23073816e-01f,-2.00846083e-02f,+1.62480362e-02f,-2.11202234e-01f,-7.89362490e-02f,
+6.12556487e-02f,-5.39736189e-02f,+1.29994467e-01f,+1.52183808e-02f,-1.65178135e-01f,
-1.56261638e-01f,-2.91498125e-01f,-3.05532813e-02f,-4.65669446e-02f,-1.48218438e-01f,
+2.08243635e-03f,+3.24741721e-01f,-5.21713644e-02f,+1.79614678e-01f,+2.81984746e-01f,
-1.12469494e-02f,-1.00420095e-01f,+9.25157145e-02f,-4.66714874e-02f,+1.58765707e-02f,
-6.74430355e-02f,+5.36332317e-02f,-3.03700212e-02f,-1.99179471e-01f,+6.87452499e-03f,
-9.58840698e-02f,+1.01654522e-01f,+3.95181738e-02f,-1.93490773e-01f,+3.17151845e-01f,
-1.43537328e-01f,+2.83504482e-02f,+3.20529610e-01f,+5.78263640e-01f,+2.22700521e-01f,
-3.05953026e-02f,-2.10902337e-02f,-6.59093484e-02f,+4.07676697e-02f,-1.02348395e-01f,
-9.07808468e-02f,-6.84531778e-02f,+2.93781757e-01f,-1.15568656e-02f,+1.13118522e-01f,
+1.30639933e-02f,-1.56012196e-02f,-7.17350561e-03f,-5.55135449e-03f,+8.70425329e-02f,
+1.71644062e-01f,-2.05213670e-02f,-7.12107271e-02f,+2.06457637e-02f,-1.49910063e-01f,
+7.60528147e-02f,+1.47369102e-01f,+1.60260916e-01f,-9.36937109e-02f,-2.59379894e-01f,
-1.97476506e-01f,-1.21496031e-02f,+1.18859492e-01f,-1.28226448e-02f,+2.83935875e-01f,
+1.44272670e-01f,-4.58636463e-01f,-7.62577355e-02f,+2.10213184e-01f,-8.47261176e-02f,
-6.01321533e-02f,+1.41369492e-01f,-1.44989714e-01f,+7.28052408e-02f,+1.81811035e-01f,
+5.85224442e-02f,-2.76304722e-01f,+2.16548368e-01f,-3.09624616e-03f,-1.17625698e-01f,
+5.85172996e-02f,+1.15934778e-02f,+1.38115259e-02f,-7.00040385e-02f,+9.92851704e-02f,
-7.56450593e-02f,-6.47567287e-02f,+6.64235502e-02f,+2.37945616e-01f,+1.21114969e-01f,
+1.43243462e-01f,+2.09265083e-01f,-4.26833034e-02f,+1.08408466e-01f,+5.44887409e-03f,
-4.99283150e-02f,-1.67260394e-02f,+2.00938627e-01f,+3.56029458e-02f,+8.70423540e-02f,
-1.85816139e-01f,+1.85362741e-01f,-7.28166923e-02f,-4.35966142e-02f,-3.72760110e-02f,
+2.03691065e-01f,+3.23289335e-01f,+1.22807518e-01f,-2.11081132e-01f,+5.92695400e-02f,
-6.87839314e-02f,-4.65960130e-02f,-5.50758019e-02f,+1.20652616e-01f,-1.99213028e-01f,
-2.61096507e-01f,-1.26469895e-01f,+1.83435250e-03f,+9.43002291e-04f,+2.12286294e-01f,
-4.34865057e-02f,-1.21920198e-01f,-2.20239565e-01f,+1.32050425e-01f,+2.31030677e-02f,
+3.24870907e-02f,+1.46388654e-02f,-4.94466238e-02f,-4.44609439e-03f,+3.02846551e-01f,
+2.79524680e-02f,+1.53190404e-01f,-2.74156481e-02f,+1.26249850e-01f,-1.44424811e-01f,
+1.61506478e-02f,-1.93919942e-01f,+3.80609334e-01f,+1.89417005e-01f,-3.16900089e-02f,
-1.95131416e-03f,+1.14095956e-02f,+1.08038224e-01f,-7.05599785e-03f,+9.23683718e-02f,
+5.00107519e-02f,-1.31934047e-01f,+1.61029726e-01f,+7.61526749e-02f,+6.18503578e-02f,
-5.95284179e-02f,+1.87366381e-01f,+1.17361128e-01f,-2.22781241e-01f,-1.47689909e-01f,
+1.23260669e-01f,-1.74894199e-01f,-2.81093046e-02f,-2.78488904e-01f,+1.61452860e-01f,
+4.26016152e-02f,+1.90645114e-01f,-2.13440210e-01f,+2.59332925e-01f,-2.04056382e-01f,
+9.58727971e-02f,+2.25756347e-01f,+4.40243892e-02f,-1.44925177e-01f,-2.02603608e-01f,
+9.28165466e-02f,+2.08812401e-01f,+2.12591514e-01f,+1.55086070e-03f,-5.18252403e-02f,
+6.39709011e-02f,-2.15040848e-01f,-1.97442435e-02f,+7.09573478e-02f,+7.48136714e-02f,
+2.50403047e-01f,+3.72684062e-01f,+2.64570070e-03f,-2.39162311e-01f,-7.54936337e-02f,
-8.89276266e-02f,+1.42818451e-01f,+2.05875471e-01f,+1.17193647e-02f,-2.45848969e-01f,
+1.27300322e-01f,-2.59312660e-01f,+1.21757589e-01f,+1.37287855e-01f,-2.71422099e-02f,
-1.17527664e-01f,+1.13662668e-01f,+5.25954587e-04f,-5.20401858e-02f,+1.07862890e-01f,
+2.72540271e-01f,-2.43156925e-01f,+4.81544845e-02f,-6.28718883e-02f,+1.24645397e-01f,
-4.37626481e-01f,+3.28017473e-01f,-8.07444081e-02f,+1.66324064e-01f,-1.78670838e-01f,
+8.97053704e-02f,+1.75888792e-01f,+8.62237345e-03f,-3.96999670e-03f,-1.82136763e-02f,
-5.89827038e-02f,-1.25144660e-01f,+1.36146724e-01f,+4.76398647e-01f,+2.74416476e-01f,
+3.04978669e-01f,+7.62897804e-02f,-8.71430859e-02f,-6.04126230e-02f,-1.09137565e-01f,
+9.76275653e-02f,-3.02283406e-01f,+4.41684108e-03f,-3.85714024e-02f,+2.23455414e-01f,
+4.06938404e-01f,-1.63598955e-01f,+2.98222564e-02f,+1.47239551e-01f,+7.42776766e-02f,
-7.95249045e-02f,+1.53202698e-01f,+5.82277076e-03f,+1.33273989e-01f,+2.83461511e-02f,
-1.32409349e-01f,-9.92434397e-02f,-1.09799728e-01f,-1.21314690e-01f,-2.59206649e-02f,
+7.52412528e-02f,-1.04939274e-01f,-7.21926391e-02f,+4.14452665e-02f,+9.20236558e-02f,
-1.43287346e-01f,+7.20671378e-03f,+2.01929227e-01f,+1.40329823e-01f,+2.16625761e-02f,
-6.92758858e-02f,+1.72848217e-02f,-9.88040119e-02f,-5.55065311e-02f,+2.12987632e-01f,
+6.10578731e-02f,+1.97750211e-01f,-1.37506247e-01f,+1.40058428e-01f,+7.00492561e-02f,
+1.38373896e-01f,-2.91652512e-02f,-1.10509202e-01f,+3.59633356e-01f,+9.87230092e-02f,
+9.70031545e-02f,+1.28383532e-01f,-2.84431517e-01f,-1.14177048e-01f,+1.72997490e-01f,
+2.82267839e-01f,-1.43095970e-01f,-1.01855062e-01f,-7.84733966e-02f,+1.37780786e-01f,
+4.80935797e-02f,-1.61243156e-01f,+1.49131477e-01f,+6.74761534e-02f,+3.94970149e-01f,
-5.50527610e-02f,+2.21910670e-01f,+1.40408888e-01f,+5.34164757e-02f,-3.05799264e-02f,
+3.99925411e-01f,+2.12842450e-01f,-2.00240895e-01f,-1.19001701e-01f,+5.81028722e-02f,
+1.53276652e-01f,-1.59068212e-01f,-1.27764447e-02f,+6.12105541e-02f,+5.54164238e-02f,
+2.33385012e-01f,-1.00763656e-01f,-2.91391253e-01f,+3.65139842e-01f,+1.46195352e-01f,
+1.58692390e-01f,+1.72078490e-01f,+1.65405385e-02f,+2.32770413e-01f,-8.99388567e-02f,
-1.76723693e-02f,+2.07455114e-01f,+2.90160447e-01f,-2.00915970e-02f,-3.78260575e-02f,
+9.39566940e-02f,+5.88890165e-02f,+3.09718758e-01f,-9.22181681e-02f,-3.07362098e-02f,
-7.46854618e-02f,+1.54686272e-01f,-8.79227445e-02f,+1.79712787e-01f,-4.91124876e-02f,
-1.70986116e-01f,-2.88940609e-01f,+3.86286378e-02f,-2.76749022e-02f,+7.47486530e-03f,
+1.57169744e-01f,+1.83610752e-01f,-9.48999971e-02f,-1.54134437e-01f,+1.74243972e-01f,
+1.50102407e-01f,-1.99934408e-01f,+1.85104579e-01f,+1.26583621e-01f,-1.85532138e-01f,
+1.79914966e-01f,-2.16022342e-01f,+5.44833168e-02f,-2.70882696e-01f,-7.10766539e-02f,
+4.97483574e-02f,+2.34631673e-01f,-3.23057473e-02f,-2.69325972e-02f,+8.65065977e-02f,
-1.43138885e-01f,+1.56219870e-01f,-6.26063943e-02f,+1.60350308e-01f,+1.70666501e-02f,
+7.04696476e-02f,-2.90787150e-03f,+9.29780677e-02f,-9.00861695e-02f,+2.76277244e-01f,
-4.15905789e-02f,-1.42557353e-01f,-1.91020429e-01f,-2.19103068e-01f,-1.04326889e-01f,
+1.02511175e-01f,+5.86488247e-01f,+1.12970611e-02f,+3.10663640e-01f,+2.30293646e-02f,
-1.09815769e-01f,-3.12741026e-02f,+1.57597095e-01f,-1.03380159e-01f,-1.54213414e-01f,
+1.98498219e-01f,-1.71102956e-02f,+2.25013122e-02f,+1.20674605e-02f,-3.57768461e-02f,
+1.78204887e-02f,+1.69227514e-02f,-1.07091576e-01f,+2.24679202e-01f,-6.21309616e-02f,
+3.07019770e-01f,+1.28199384e-01f,-1.05297938e-01f,+1.89444005e-01f,-2.58341312e-01f,
+2.54921407e-01f,+4.99261580e-02f,-7.62243345e-02f,+1.55645207e-01f,-9.47251767e-02f,
-2.92934418e-01f,+2.46318027e-01f,-6.15039729e-02f,+2.05471858e-01f,-9.62010864e-03f,
+4.11832817e-02f,+1.60928741e-01f,-4.72690910e-02f,+1.84502482e-01f,-6.74629062e-02f,
+2.80203551e-01f,-6.94008097e-02f,+1.43444359e-01f,+1.96278870e-01f,-1.91659972e-01f,
-1.34380296e-01f,-2.31818721e-01f,+6.50455505e-02f,+1.52823284e-01f,+3.29861104e-01f,
+2.56544109e-02f,+8.94483775e-02f,+1.55988514e-01f,+1.34654626e-01f,-4.51771282e-02f,
+1.11445226e-01f,+8.29614699e-02f,+1.43182412e-01f,-1.53676525e-01f,+2.98103213e-01f,
-2.32395560e-01f,-7.80254528e-02f,+1.00456238e-01f,+1.21942490e-01f,-7.78651014e-02f,
+2.11399749e-01f,+6.52633235e-02f,-4.13823910e-02f,+4.37479429e-02f,+6.85511529e-02f,
+1.40782982e-01f,-1.97952852e-01f,-4.04228196e-02f,+1.05712436e-01f,-5.63349687e-02f,
+1.05620893e-02f,+3.71395200e-02f,-1.31139785e-01f,+2.23626241e-01f,-6.04009517e-02f,
-9.20487866e-02f,+9.98586416e-03f,-1.73844874e-01f,+4.81943935e-02f,+1.40797034e-01f,
-9.94411856e-02f,+1.49653119e-04f,+4.57593501e-02f,-7.91760758e-02f,+2.09084541e-01f,
+1.79400057e-01f,+1.41790390e-01f,+1.63604133e-03f,+2.50314713e-01f,+2.14072093e-01f,
-3.97724956e-01f,+7.25065395e-02f,+1.95738524e-02f,+1.06130153e-01f,+3.73359621e-02f,
-1.09580629e-01f,-2.17971224e-02f,+4.64432761e-02f,-6.02473170e-02f,-1.36070733e-03f,
+2.07350664e-02f,+3.12326372e-01f,-6.81274906e-02f,-3.08756623e-02f,-1.34619087e-01f,
+1.49752483e-01f,-2.77191371e-01f,-3.79600748e-02f,+4.13039148e-01f,+5.91874942e-02f,
+1.07415862e-01f,-1.80270717e-01f,+3.66197526e-02f,-2.91456372e-01f,-1.81924216e-02f,
-3.59835774e-01f,-1.24046549e-01f,-1.03547029e-01f,+3.16053122e-01f,+1.20693348e-01f,
-8.01458657e-02f,+1.47088125e-01f,+1.45225182e-01f,-3.53816032e-01f,-1.01544008e-01f,
-1.13171794e-01f,-1.79455802e-02f,-9.35706943e-02f,+1.10867269e-01f,-1.21657163e-01f,
-8.41399729e-02f,+1.36499763e-01f,-2.16080565e-02f,+1.10223696e-01f,-3.23999561e-02f,
-1.56810492e-01f,+3.63405459e-02f,-3.23889069e-02f,+6.51747454e-03f,+3.21179926e-01f,
-1.75634455e-02f,+1.61060542e-01f,-3.25892530e-02f,-8.77885707e-03f,+8.77349228e-02f,
-4.64205369e-02f,+7.26866648e-02f,-6.19476847e-03f,+1.29465520e-01f,-1.53748775e-02f,
+3.93026359e-02f,+1.16858199e-01f,-4.02284786e-02f,+2.41985098e-01f,-1.32434905e-01f,
+1.39654666e-01f,-2.03161202e-02f,+2.11417049e-01f,-3.03753823e-01f,+1.84956267e-01f,
-7.50117004e-02f,-2.18306169e-01f,+1.11876940e-02f,+1.20691419e-01f,+9.02726948e-02f,
-7.99679235e-02f,-5.33475205e-02f,-2.77055353e-01f,+3.65865231e-02f,+1.20420806e-01f,
+2.66457256e-02f,-2.19076127e-01f,+4.36244393e-03f,-2.58933902e-01f,-6.46311417e-02f,
+1.38447255e-01f,-1.76839173e-01f,-1.74186185e-01f,-5.63028418e-02f,-1.93885446e-01f,
+1.79489359e-01f,+1.15900300e-01f,+2.20505759e-01f,-1.79624170e-01f,+7.71545023e-02f,
-8.51516947e-02f,-3.00729901e-01f,-9.37280729e-02f,-1.05126433e-01f,+3.64361107e-02f,
-3.80884446e-02f,+4.70288061e-02f,+2.94798911e-01f,+8.83227438e-02f,-9.95014980e-02f,
+1.17621027e-01f,-8.63802135e-02f,-4.96309213e-02f,-6.63767904e-02f,-8.70857760e-02f,
-2.77712971e-01f,-1.28055885e-01f,+2.07079172e-01f,-9.16924998e-02f,+1.32551178e-01f,
+8.92190933e-02f,+1.46472007e-01f,-8.14987719e-02f,-8.74419734e-02f,+1.29382154e-02f,
-1.98029891e-01f,+1.57886893e-01f,-3.02770853e-01f,+2.36390420e-04f,+4.97540608e-02f,
+2.07759619e-01f,+1.44760549e-01f,-3.98469508e-01f,-1.30676970e-01f,+3.21909375e-02f,
-3.79273333e-02f,+2.45329197e-02f,-8.97858515e-02f,-3.26097369e-01f,-1.77983895e-01f,
+1.56130478e-01f,-4.74940166e-02f,-2.79932380e-01f,-1.96943969e-01f,-3.23361531e-02f,
+1.07223444e-01f,+1.54907897e-01f,-5.06341420e-02f,+1.79055840e-01f,-1.48013830e-01f,
+8.49924162e-02f,-2.88105644e-02f,+3.14152204e-02f,+1.53527498e-01f,-6.05465472e-02f,
+2.06874982e-01f,-1.90320984e-01f,+1.77865699e-01f,-1.77757069e-01f,-7.36455694e-02f,
-4.32044491e-02f,+1.95070118e-01f,-3.73411775e-02f,+4.82641608e-01f,-6.19415306e-02f,
-7.58587867e-02f,+2.48097047e-01f,-2.76009887e-02f,-3.36993158e-01f,-1.01541683e-01f,
-1.44452617e-01f,+2.48313323e-01f,-4.76700455e-01f,-9.43707526e-02f,+5.38142510e-02f,
-6.12082258e-02f,+1.25631109e-01f,+1.54563382e-01f,+5.43275289e-02f,-8.97674728e-03f,
-3.81022021e-02f,+9.33315381e-02f,+1.53319791e-01f,+6.14508018e-02f,-7.95687661e-02f,
+5.44056073e-02f,-1.00470223e-01f,+6.60191104e-02f,+7.83115029e-02f,-3.43082130e-01f,
+1.71048284e-01f,+2.76496168e-02f,-3.18337262e-01f,+1.85230434e-01f,+1.74078748e-01f,
+5.50944768e-02f,-1.79751188e-01f,-6.88632391e-03f,+2.83212792e-02f,-9.65256393e-02f,
+3.77829164e-01f,-1.53078660e-01f,+9.83751044e-02f,+4.62857634e-02f,-1.87079385e-01f,
-8.61074626e-02f,+9.24838260e-02f,-7.19756633e-02f,+6.99465871e-02f,+1.67185992e-01f,
-1.69042960e-01f,-1.22005969e-01f,+5.46603873e-02f,-1.70409784e-01f,+3.56153809e-02f,
+2.31233075e-01f,-2.63771135e-02f,+1.37332872e-01f,-1.88743845e-01f,+8.08987394e-02f,
+4.99635600e-02f,+2.47145563e-01f,-9.88772288e-02f,-1.39500588e-01f,+9.69974026e-02f,
+9.78112072e-02f,-2.83371955e-01f,-2.58267999e-01f,-2.26904273e-01f,+2.91525126e-01f,
-2.05033869e-01f,+4.23410498e-02f,-4.06001695e-02f,+2.33592421e-01f,+1.42677084e-01f,
-3.69839281e-01f,+4.66093004e-01f,-5.29677309e-02f,+2.78156966e-01f,+2.00681351e-02f,
+1.43412435e-02f,-1.51036009e-01f,-3.89647558e-02f,+1.82983473e-01f,+1.27983436e-01f,
-1.06732644e-01f,+6.25847057e-02f,-3.03153992e-01f,+4.57805581e-02f,+7.20416531e-02f,
+9.97338630e-03f,-6.90964833e-02f,-1.98790934e-02f,+9.82112363e-02f,-8.67171511e-02f,
-1.91880494e-01f,-1.28731290e-02f,+4.15664911e-02f,-6.24858588e-02f,+1.97090790e-01f,
+5.89015847e-03f,+2.45657071e-01f,-1.55778944e-01f,+2.73916066e-01f,+8.74986686e-03f,
+1.91525564e-01f,-3.45489919e-01f,+2.08099335e-02f,+6.86845779e-02f,-1.03062794e-01f,
-3.39643031e-01f,-1.55554935e-02f,-9.69076008e-02f,+1.42843828e-01f,-2.01633573e-01f,
-2.74083287e-01f,+1.96114570e-01f,-2.00327620e-01f,+1.40947580e-01f,+8.13156813e-02f,
+3.55467290e-01f,-4.84711349e-01f,-5.90365529e-02f,-1.40127152e-01f,+8.96998048e-02f,
-1.03272967e-01f,+2.55292077e-02f,+2.35262111e-01f,-1.17295180e-02f,+3.64343263e-02f,
-2.75936365e-01f,-1.60724819e-01f,-2.87747800e-01f,-1.37364104e-01f,+1.70800820e-01f,
+6.77222339e-03f,-1.37935607e-02f,-1.17572129e-01f,-8.06619134e-03f,-1.08856604e-01f,
-1.45727172e-01f,+2.31226385e-01f,+2.96334058e-01f,+9.98939872e-02f,-4.60782722e-02f,
+1.49855882e-01f,+1.32104859e-01f,-8.33020285e-02f,-1.22446232e-01f,+5.71256205e-02f,
-1.00605041e-01f,-8.69230404e-02f,+2.02579424e-01f,+4.65019345e-01f,+3.09139907e-01f,
+2.75851250e-01f,-7.78524578e-02f,-1.05028093e-01f,-1.18403807e-01f,-1.42342255e-01f,
+1.48060903e-01f,-2.01286543e-02f,+7.25473911e-02f,-7.01191202e-02f,-1.82245120e-01f,
-5.27405925e-02f,-5.86114414e-02f,-6.03483617e-02f,+6.71899617e-02f,+5.12220748e-02f,
-1.86637953e-01f,-1.54298916e-01f,+1.77209020e-01f,-1.40969679e-01f,-1.69759631e-01f,
+4.11226362e-01f,-2.53812492e-01f,+3.03596854e-02f,-1.97604135e-01f,-3.64173800e-02f,
+1.50882527e-02f,-4.63055223e-02f,+2.11862475e-02f,+1.28876999e-01f,-4.14565772e-01f,
+4.78028983e-01f,-9.24671162e-03f,-2.16667384e-01f,-2.54371345e-01f,-1.82421394e-02f,
-6.02868535e-02f,+1.34482414e-01f,+2.04746619e-01f,+4.03677940e-01f,+1.90710723e-01f,
+1.82076409e-01f,+1.68784380e-01f,+1.90831706e-01f,-1.98724151e-01f,+7.43069574e-02f,
+1.96504891e-02f,+1.23633638e-01f,-2.82548759e-02f,-9.22361761e-02f,-2.64607012e-01f,
+1.00831315e-01f,-2.10339338e-01f,+5.58250546e-02f,+3.20389047e-02f,-9.63443667e-02f,
-1.64888471e-01f,+2.28476405e-01f,-1.28954306e-01f,-2.36014262e-01f,+2.09747449e-01f,
+9.40479562e-02f,+1.27341390e-01f,+2.18868345e-01f,+7.23759308e-02f,-3.42989415e-01f,
-1.70160115e-01f,-1.42159268e-01f,-6.92464411e-02f,-1.19055465e-01f,+2.00136334e-01f,
+2.20049798e-01f,-2.61437833e-01f,+1.92965940e-01f,-1.00893654e-01f,+7.02965260e-02f,
+1.07466049e-01f,-1.49413675e-01f,-1.26757056e-01f,+5.08963466e-02f,-3.52581181e-02f,
+3.15547317e-01f,-1.49217680e-01f,-4.09486331e-02f,-2.13664085e-01f,-4.96597514e-02f,
+1.76181003e-01f,-2.44382825e-02f,+2.58274466e-01f,-7.44064003e-02f,-7.67150745e-02f,
+1.92413732e-01f,-7.28967562e-02f,-2.05102712e-02f,+3.05071890e-01f,+9.12086070e-02f,
+1.52135670e-01f,+5.38312532e-02f,+5.29902838e-02f,+1.13639839e-01f,+1.80984929e-01f,
-1.90635368e-01f,+4.38652128e-01f,+6.03079349e-02f,+7.05723912e-02f,+7.23921508e-02f,
-2.16464937e-01f,+1.47251874e-01f,+1.10333115e-01f,+1.99463621e-01f,+1.05772972e-01f,
+3.75611961e-01f,+3.64580303e-02f,-3.84621739e-01f,+3.82325828e-01f,-4.26893868e-02f,
-6.46710321e-02f,+3.17159705e-02f,-2.89415866e-01f,+2.45694220e-01f,+2.32251510e-01f,
+1.57433793e-01f,+7.24887922e-02f,+2.41271079e-01f,+4.63070244e-01f,-4.93587516e-02f,
-1.86376229e-01f,-1.91516772e-01f,-8.75970200e-02f,+8.99835676e-03f,+2.12520763e-01f,
-5.66843301e-02f,-3.15661877e-01f,-1.22819617e-01f,+2.04791412e-01f,+6.56145718e-03f,
-6.83796778e-02f,+6.90279622e-03f,-6.53013168e-03f,-6.58841729e-02f,-2.24500895e-01f,
-1.47332445e-01f,+8.58764339e-04f,+1.24929622e-01f,+5.47117069e-02f,+9.82908010e-02f,
+1.44020300e-02f,-3.78053114e-02f,+2.17097238e-01f,+2.65916049e-01f,-3.69005799e-01f,
-5.01158275e-02f,-6.30887523e-02f,+2.64200926e-01f,-2.92662054e-01f,+7.10510537e-02f,
-1.11921296e-01f,+4.55474079e-01f,-1.18514344e-01f,+6.67135268e-02f,-5.12463190e-02f,
-2.27652147e-01f,+4.86611202e-02f,-1.58893794e-01f,-5.17137229e-01f,+1.76891118e-01f,
-1.78865895e-01f,+3.34047899e-02f,+1.84493199e-01f,-4.12529379e-01f,-3.19314390e-01f,
+1.42105713e-01f,+6.62908256e-02f,+1.35517329e-01f,+1.17762454e-01f,-3.34010988e-01f,
-8.21283013e-02f,+5.57927676e-02f,+5.33302546e-01f,-2.18533296e-02f,-1.46116078e-01f,
+1.28052145e-01f,+2.28413969e-01f,-1.45862633e-02f,+1.59988880e-01f,+3.70204955e-01f,
-3.43159661e-02f,+2.18430296e-01f,+2.42524737e-04f,+2.48470344e-02f,-2.58060992e-01f,
+1.58061180e-02f,-2.08212063e-01f,-3.68910223e-01f,+1.67815372e-01f,-1.19554773e-01f,
-1.74908713e-01f,+3.46382633e-02f,-8.19366891e-03f,+7.03817457e-02f,-1.39907831e-02f,
+4.65419799e-01f,+1.47305593e-01f,+3.09066325e-01f,+2.31485385e-02f,-4.51609120e-02f,
+2.98832338e-02f,+3.86340141e-01f,+6.82778582e-02f,+3.49756539e-01f,+1.90176368e-01f,
-7.81133398e-02f,+3.04826766e-01f,-1.55275434e-01f,-2.68898517e-01f,-5.23360908e-01f,
+3.50436062e-01f,+1.34832263e-01f,+8.16169083e-02f,-7.11929873e-02f,-6.29112124e-02f,
+2.34407291e-01f,+2.09015489e-01f,-7.03729242e-02f,-4.21958752e-02f,+2.48652905e-01f,
+1.27529636e-01f,+1.39451390e-02f,-1.96066707e-01f,-1.77750453e-01f,+1.30993366e-01f,
-2.74451524e-02f,-6.19922616e-02f,-1.88871212e-02f,+2.29300302e-03f,+3.91457491e-02f,
-1.98012099e-01f,-2.11857095e-01f,+1.47408560e-01f,-3.79161000e-01f,+1.25846505e-01f,
-8.03773254e-02f,+1.00328088e-01f,+2.96032399e-01f,+2.67047107e-01f,-5.86403422e-02f,
+1.51746899e-01f,+1.16499588e-01f,-1.64284512e-01f,+2.22965311e-02f,+2.07219809e-01f,
-1.12376049e-01f,+2.68602312e-01f,-5.84481098e-02f,+1.26169041e-01f,-1.26725971e-03f,
+8.86023864e-02f,+1.50236127e-04f,+1.09126344e-01f,+2.21524730e-01f,+5.79672217e-01f,
+1.59325197e-01f,-1.23193376e-01f,-2.94256378e-02f,+4.05663908e-01f,+5.09865224e-01f,
-4.34736274e-02f,+1.02351476e-02f,-2.62161285e-01f,+3.56210589e-01f,-6.31052703e-02f,
+2.29797974e-01f,-2.39619076e-01f,+2.80868620e-01f,+1.22065619e-01f,+1.53712198e-01f,
+3.79794799e-02f,-4.97294843e-01f,+2.23850176e-01f,+9.78104025e-02f,+2.53757209e-01f,
+9.98567119e-02f,+1.27398580e-01f,+9.44626704e-02f,+2.51129400e-02f,-3.53011936e-02f,
+1.65504873e-01f,-7.40524530e-02f,+2.69058794e-01f,+1.35030657e-01f,+1.70344517e-01f,
-4.90412973e-02f,+2.65641630e-01f,-4.66002934e-02f,+4.40499604e-01f,-1.27690881e-01f,
-3.41659151e-02f,+3.41927439e-01f,+5.94888739e-02f,-2.33108237e-01f,-8.51275250e-02f,
+9.68176872e-02f,-3.42021614e-01f,+7.60624886e-01f,-1.59872487e-01f,-1.63080856e-01f,
-1.80328324e-01f,+4.02773581e-02f,-2.67709017e-01f,+4.05778587e-01f,+3.25779221e-03f,
+1.88932568e-01f,+9.15424600e-02f,+9.94822234e-02f,+3.14537644e-01f,+3.38369906e-02f,
+2.08447561e-01f,+7.66504407e-02f,+9.59881991e-02f,+6.66887732e-03f,+5.18477857e-01f,
-3.61141264e-01f,+2.03371048e-02f,+3.13168764e-01f,+1.51574582e-01f,-5.15987985e-02f,
+5.89470826e-02f,-2.21277922e-02f,+1.38803825e-01f,-1.33034527e-01f,-1.64554730e-01f,
-2.75083125e-01f,-1.05492651e-01f,-1.58337593e-01f,+9.89897177e-02f,-6.14764616e-02f,
+3.65717672e-02f,+1.32681012e-01f,-1.86282963e-01f,+8.17888975e-02f,-2.34146073e-01f,
-9.82773602e-02f,-1.08389646e-01f,+7.28859901e-02f,+3.30190323e-02f,+1.05382457e-01f,
+1.97132781e-01f,-5.78904664e-03f,+6.19253255e-02f,-2.41018027e-01f,-1.11190705e-02f,
+7.49270618e-02f,-3.05318505e-01f,+7.12861568e-02f,-3.73121053e-02f,-2.02578247e-01f,
+1.02731094e-01f,-2.12735713e-01f,-1.12562962e-01f,+2.85579134e-02f,+1.80700272e-01f,
+1.33242100e-01f,+2.35749647e-01f,-4.43024665e-01f,+2.20868215e-01f,+8.44055936e-02f,
+1.57080650e-01f,+4.99662727e-01f,-5.38069308e-02f,+1.47870496e-01f,-2.79534310e-01f,
+2.92636752e-01f,-8.29491615e-02f,-4.58296835e-01f,+1.07216105e-01f,+1.18278936e-01f,
+1.53075740e-01f,+4.22650240e-02f,-1.98965713e-01f,+1.43431500e-01f,+1.75457448e-01f,
+9.47851390e-02f,+3.86212677e-01f,+5.28870486e-02f,+2.37764418e-01f,-7.48216582e-04f,
-8.66503492e-02f,+2.54480004e-01f,+5.84604964e-02f,-1.17065318e-01f,-1.58772841e-01f,
-2.97593147e-01f,+3.08083240e-02f,-2.51367968e-02f,+9.34170261e-02f,+9.17367935e-02f,
+2.55390912e-01f,+9.00849849e-02f,+5.04884422e-02f,+9.31060985e-02f,+2.86768436e-01f,
-1.94079623e-01f,+2.88238794e-01f,-1.77737623e-02f,+2.56026685e-01f,-1.70556679e-01f,
+1.63400814e-01f,+2.30890065e-01f,+1.52783215e-01f,+4.42046113e-02f,+5.15613928e-02f,
+3.90815064e-02f,+3.10081214e-01f,-5.35594746e-02f,+1.60018131e-01f,+1.13198794e-01f,
-3.67834151e-01f,+1.60669357e-01f,+1.12911433e-01f,+6.90274872e-03f,+1.78092137e-01f,
+1.36484280e-01f,+4.99668159e-02f,-8.94518495e-02f,+2.26544663e-02f,-2.54456662e-02f,
-2.40837485e-01f,-1.65994510e-01f,-1.49601400e-01f,-9.55467373e-02f,+4.46098186e-02f,
-1.24326602e-01f,+2.06900120e-01f,-3.93353879e-01f,+2.80440956e-01f,-1.50893703e-01f,
-1.70572568e-02f,-1.34847099e-02f,+4.68914956e-02f,+1.46722406e-01f,-4.23434861e-02f,
-4.25452068e-02f,+2.23941863e-01f,-9.59028974e-02f,-2.95601487e-01f,+2.20256284e-01f,
+1.18786417e-01f,-4.45709020e-01f,+2.93039352e-01f,+1.10191941e-01f,-5.29687516e-02f,
-1.83178636e-05f,+1.62696764e-01f,-1.71723768e-01f,-1.72487646e-01f,+4.77552772e-01f,
+9.20543168e-03f,-1.46267548e-01f,+9.47631672e-02f,-7.17570260e-02f,+9.30601135e-02f,
-1.04440220e-01f,-1.09776020e-01f,+7.41055906e-02f,+1.78718686e-01f,+6.27494380e-02f,
-3.36140603e-01f,+6.73700199e-02f,+1.81495219e-01f,+8.35133940e-02f,-1.54678253e-02f,
+1.75227150e-01f,-1.12823874e-03f,+1.62392348e-01f,+1.89270929e-01f,+7.63905570e-02f,
-1.03371017e-01f,+1.33495703e-01f,+8.33581015e-02f,+2.48573735e-01f,-5.34457900e-02f,
-1.14937527e-02f,+1.54281616e-01f,-1.25150725e-01f,-2.10773066e-01f,+4.19106483e-02f,
-1.98353212e-02f,-3.24404895e-01f,+1.99978426e-01f,-3.98310304e-01f,+1.45654172e-01f,
-2.82373786e-01f,-1.06320538e-01f,-1.38631895e-01f,+1.84238210e-01f,-1.03402846e-01f,
+3.51663858e-01f,-2.40455985e-01f,+3.77077788e-01f,+1.19278036e-01f,+5.08684292e-03f,
-2.89060652e-01f,+8.10711905e-02f,-4.64455903e-01f,-9.85185802e-02f,+2.73611456e-01f,
+1.70265481e-01f,+2.59096604e-02f,+3.58517766e-01f,-1.32314011e-01f,+3.57235260e-02f,
-1.44608729e-02f,-2.37037539e-01f,+1.80633873e-01f,-8.47083405e-02f,+6.30789697e-02f,
+1.14412531e-01f,-7.77825639e-02f,-6.58191964e-02f,-2.94517517e-01f,-6.33972511e-02f,
+6.37065321e-02f,+1.95400745e-01f,+1.48186728e-01f,-1.22210689e-01f,+3.99881154e-01f,
+3.72922160e-02f,-1.44771546e-01f,-4.83774841e-02f,+2.34131768e-01f,+1.56652048e-01f,
+1.48366198e-01f,+1.18665285e-01f,+1.47687271e-01f,-1.64589167e-01f,+1.75219759e-01f,
+1.44958228e-01f,+1.20785557e-01f,-9.50356051e-02f,+2.22563129e-02f,-6.28538877e-02f,
-2.97411233e-01f,+6.99196085e-02f,+1.75694674e-01f,+2.83526242e-01f,-2.99060494e-01f,
+2.67164350e-01f,-7.00645521e-02f,-3.73973399e-01f,-2.43081182e-01f,+5.61981142e-01f,
-1.85117170e-01f,-3.20227118e-04f,+1.71529800e-01f,+6.29419535e-02f,+1.84911087e-01f,
-1.02287456e-01f,-2.35161841e-01f,-2.38602847e-01f,+5.55842891e-02f,+7.26433545e-02f,
+1.31853953e-01f,-1.44586995e-01f,+4.68518473e-02f,+1.15268491e-01f,+1.73515826e-01f,
+6.89738244e-02f,-1.78336397e-01f,-9.67084244e-02f,-1.75266102e-01f,-1.60388984e-02f,
+8.16821121e-03f,+2.34039709e-01f,+5.67149650e-03f,+2.94264972e-01f,+8.80745947e-02f,
-4.69380915e-02f,-1.67141616e-01f,-1.77689850e-01f,+5.01456372e-02f,-1.17085852e-01f,
+1.41012639e-01f,+1.97592869e-01f,-1.38480499e-01f,-2.17699021e-01f,+3.04862440e-01f,
-8.67023915e-02f,+3.40950526e-02f,-3.73152643e-01f,-1.38139844e-01f,+1.65033549e-01f,
+8.87817238e-03f,-3.60595100e-02f,-1.07812695e-01f,-1.09405123e-01f,+1.68745652e-01f,
-1.10737719e-01f,-1.10709071e-02f,+1.60156623e-01f,+5.16759306e-02f,+4.00563031e-01f,
+3.03299516e-01f,-1.59835175e-01f,+8.11650604e-03f,-2.15125367e-01f,+2.78635234e-01f,
-1.85532078e-01f,+3.57263237e-02f,-2.33461577e-02f,+1.29965529e-01f,+2.61656016e-01f,
-2.08187819e-01f,-5.15218787e-02f,+9.99066532e-02f,+8.92500356e-02f,+3.33258778e-01f,
-2.08876640e-01f,+3.14371914e-01f,+1.47716805e-01f,+1.11011975e-01f,-2.23869517e-01f,
-4.64626819e-01f,-4.36008498e-02f,+1.77362725e-01f,+9.68486816e-03f,-1.17059521e-01f,
+2.54695565e-01f,-9.98820141e-02f,-2.53449559e-01f,+3.52104902e-01f,-1.18288524e-01f,
-1.03158526e-01f,+1.87957615e-01f,+1.09743945e-01f,+1.46790668e-01f,+9.72737670e-02f,
+1.31181777e-01f,-4.97962125e-02f,-4.54801284e-02f,+2.32603699e-02f,-4.42047603e-02f,
-9.58858989e-03f,-1.05652049e-01f,+5.33004478e-02f,+2.08014715e-02f,+1.01350181e-01f,
-1.05527014e-01f,-1.32755086e-01f,+6.63034767e-02f,-4.28340174e-02f,-1.62083030e-01f,
-9.06779021e-02f,-3.87328953e-01f,+2.00225174e-01f,+1.83627512e-02f,+2.12493584e-01f,
+6.41116917e-01f,+3.44723821e-01f,+1.74473599e-01f,+2.01792076e-01f,-1.63841456e-01f,
-5.08148111e-02f,-2.54025400e-01f,+3.14351976e-01f,-1.75447315e-01f,-1.99968386e-02f,
-2.56756574e-01f,+3.70791443e-02f,+7.19783455e-02f,-9.25228745e-02f,+4.05539237e-02f,
+8.18261970e-03f,+2.00595073e-02f,-5.89787215e-02f,-2.82495096e-02f,-3.03560905e-02f,
-1.81237552e-02f,-2.24361122e-02f,-2.41861224e-01f,-2.94932514e-01f,+7.00417757e-02f,
-6.76406920e-02f,-2.96237200e-01f,+1.12382127e-02f,-3.67260277e-02f,+1.39286444e-01f,
+4.43192050e-02f,+8.25682282e-02f,+1.69437274e-03f,+1.05190322e-01f,-8.61142650e-02f,
-3.39797348e-01f,+1.30549088e-01f,+3.18366699e-02f,+2.92685423e-02f,-1.19847007e-01f,
+1.99173331e-01f,-5.71671389e-02f,-6.46596625e-02f,-1.71654299e-01f,-2.21142977e-01f,
+1.61676168e-01f,+1.19118147e-01f,+2.85095185e-01f,+3.53156566e-03f,-6.92929551e-02f,
-1.27371281e-01f,-5.72499372e-02f,-1.46330833e-01f,+9.67979953e-02f,+2.57917102e-02f,
-1.78437471e-01f,+1.45386621e-01f,+1.63686529e-01f,+1.90866757e-02f,+2.42438793e-01f,
+1.15945093e-01f,+2.34527364e-01f,-2.85917465e-02f,+1.31061867e-01f,-8.72526243e-02f,
-1.87585294e-01f,+2.84734726e-01f,-3.08054145e-02f,-1.82670057e-02f,+9.38151032e-02f,
-5.90607040e-02f,-5.49545400e-02f,-3.42621326e-01f,+4.62756939e-02f,-1.80558607e-01f,
-8.27903673e-02f,+1.72475010e-01f,+3.42424884e-02f,+3.61745544e-02f,-8.18178877e-02f,
-1.52390301e-01f,-1.47626549e-01f,-5.94661646e-02f,+1.63175210e-01f,-2.10905910e-01f,
-1.45709842e-01f,+1.18463360e-01f,+8.20253715e-02f,-2.85873532e-01f,+1.94342062e-01f,
+1.91505253e-01f,+2.86698639e-01f,-1.86021805e-01f,+2.51779914e-01f,-2.17366129e-01f,
-9.80648026e-02f,-1.72832116e-01f,+1.11797124e-01f,-9.00585391e-03f,+3.84912863e-02f,
-1.37249395e-01f,-8.83894190e-02f,-1.61402002e-01f,-2.09511191e-01f,-2.34372932e-02f,
+4.79973517e-02f,+4.52115349e-02f,-1.14636719e-01f,-2.18388110e-01f,-1.72779605e-01f,
-4.57835421e-02f,+2.22596630e-01f,-1.50529668e-01f,+6.36512190e-02f,-9.08661336e-02f,
+2.26988569e-01f,+7.84809291e-02f,+2.52282266e-02f,+7.26756826e-03f,+8.46973732e-02f,
-1.18205450e-01f,+1.50507465e-01f,-4.62634414e-02f,+1.78246107e-02f,+9.17027891e-02f,
-8.09674561e-02f,-2.82581776e-01f,+1.60032779e-01f,-3.92559946e-01f,+2.29381785e-01f,
-1.36351421e-01f,+1.66720644e-01f,-2.36332923e-01f,-1.35704041e-01f,+8.48933160e-02f,
-2.73871034e-01f,-2.80530024e-02f,+1.13963328e-01f,-2.70146161e-01f,+2.03760695e-02f,
+7.63206631e-02f,+1.67540893e-01f,-3.30344960e-02f,+3.80458683e-02f,-8.72704480e-03f,
+1.83047161e-01f,+1.27858212e-02f,-3.81565809e-01f,+1.19735584e-01f,-5.46130352e-02f,
-2.64751583e-01f,-1.28745809e-01f,+3.11419070e-01f,+1.64544657e-01f,+3.10629643e-02f,
+7.81519115e-02f,+1.10677510e-01f,+1.76693782e-01f,+6.97871596e-02f,+6.04840852e-02f,
+3.68103087e-02f,-1.07591234e-01f,-7.61629045e-02f,+1.72482759e-01f,-1.45486966e-02f,
+1.10109866e-01f,-2.72311538e-01f,-1.69712231e-01f,-1.59484789e-01f,-4.28286567e-02f,
+1.65411189e-01f,-2.23941788e-01f,+9.90651697e-02f,-5.92309050e-02f,-1.81555420e-01f,
+4.56103170e-03f,-1.10405162e-01f,-4.84959260e-02f,-3.95124145e-02f,-2.19033472e-02f,
+1.35031655e-01f,-5.42620495e-02f,+1.64827794e-01f,-2.71423683e-02f,-9.35446471e-03f,
-1.35269672e-01f,-1.49776399e-01f,+8.91953055e-03f,-1.07718065e-01f,+1.73274517e-01f,
-3.34496915e-01f,+1.38691124e-02f,-8.51127282e-02f,-2.28876904e-01f,+2.55226761e-01f,
+1.83344096e-01f,+1.00598782e-01f,-2.09966883e-01f,-1.47857144e-01f,-2.29424849e-01f,
+5.66614047e-02f,-2.98733711e-01f,+2.15460405e-01f,+6.96325749e-02f,-1.66722253e-01f,
+5.92668839e-02f,+1.77147061e-01f,+2.26812765e-01f,+1.35160133e-01f,+1.87336244e-02f,
-1.13728782e-02f,-8.93815756e-02f,+2.21819162e-01f,+4.94508110e-02f,-3.16115022e-01f,
+2.37467661e-01f,+1.73566312e-01f,+1.01385852e-02f,-4.05813754e-03f,-5.08169010e-02f,
-5.47440574e-02f,+6.18407596e-03f,-5.76455928e-02f,+1.76371932e-01f,+1.32092118e-01f,
+1.85737908e-02f,+1.41340882e-01f,-1.52178839e-01f,+2.47677475e-01f,-2.12126947e-03f,
-4.51298710e-03f,+7.46262893e-02f,+1.89911097e-01f,-2.90236324e-01f,-1.02753215e-01f,
+1.80134833e-01f,+2.43571341e-01f,-1.65354088e-01f,-2.50413548e-02f,-1.64806291e-01f,
-1.59145057e-01f,-1.82657819e-02f,+1.32691696e-01f,-2.41414681e-02f,-1.17011726e-01f,
+1.71000212e-02f,-4.92414087e-02f,-5.14259897e-02f,+1.29701560e-02f,-1.54603168e-01f,
-2.78673470e-01f,+2.61553913e-01f,-4.21309918e-01f,-1.74248725e-01f,-5.87907471e-02f,
-3.07979919e-02f,+2.85809226e-02f,+5.63591309e-02f,+1.03928074e-01f,-3.18652928e-01f,
-2.80216306e-01f,-2.04438403e-01f,+9.12719294e-02f,-7.23464862e-02f,+8.34234282e-02f,
+2.74786294e-01f,-6.77156821e-02f,-2.13544190e-01f,+5.92101812e-02f,+5.90524897e-02f,
-1.15223008e-03f,-2.59824306e-01f,+3.14089656e-01f,+8.31074864e-02f,-2.29158968e-01f,
-2.19267279e-01f,-1.17774650e-01f,+8.66696388e-02f,-1.29031157e-02f,+1.47922233e-01f,
-2.27138832e-01f,+1.13991927e-02f,-8.23139176e-02f,+5.23568913e-02f,+1.48337990e-01f,
+6.36527389e-02f,-2.77428981e-02f,+4.68008637e-01f,-1.23727985e-01f,+3.42549793e-02f,
-3.60352956e-02f,+4.15141396e-02f,-1.53388884e-02f,-1.27067745e-01f,+1.75703913e-01f,
-1.62477225e-01f,-1.86474193e-02f,+1.50639955e-02f,+1.68653697e-01f,+1.17885917e-01f,
+1.52692840e-01f,-1.49043798e-01f,-5.34781925e-02f,+7.52042606e-02f,-3.62371176e-01f,
-1.74750499e-02f,+5.97171560e-02f,+9.80019048e-02f,+1.84314430e-01f,+2.50797700e-02f,
+8.07864666e-02f,+2.97583491e-01f,+5.23146824e-04f,+8.04286972e-02f,+3.40247676e-02f,
-2.55794644e-01f,+1.30847931e-01f,-6.69788197e-02f,-2.89003789e-01f,+6.95020854e-02f,
+8.12840164e-02f,+3.84688705e-01f,+2.15486929e-01f,+1.38152644e-01f,-5.58307320e-02f,
-2.66742170e-01f,+3.41147855e-02f,-1.86115190e-01f,-1.25873074e-01f,-1.69040143e-01f,
-9.81465653e-02f,-1.59348845e-01f,+2.09894516e-02f,-1.52358159e-01f,-1.71323016e-01f,
-9.26290173e-03f,+1.76279262e-01f,+4.35060337e-02f,+7.23456144e-02f,+1.51552921e-02f,
-1.29225671e-01f,+2.98141301e-01f,+2.17725560e-02f,-4.05604430e-02f,+7.71699548e-02f,
-1.79962739e-01f,+4.48907493e-03f,-1.63906246e-01f,+1.17089316e-01f,-1.95688844e-01f,
+6.23570606e-02f,-9.12443399e-02f,+1.46217585e-01f,-3.25345732e-02f,+8.52808803e-02f,
+1.23597868e-01f,+1.76767469e-03f,+7.80524015e-02f,+4.53724228e-02f,-1.58207327e-01f,
+8.34328830e-02f,-1.68586537e-01f,-4.95427735e-02f,-1.15189381e-01f,-4.76291925e-02f,
+2.05345899e-01f,+7.89841413e-02f,+1.51136175e-01f,-1.14913411e-01f,-1.24178767e-01f,
-1.33453412e-02f,+1.06727585e-01f,+3.38420004e-01f,-1.47041187e-01f,+3.26974720e-01f,
+1.51738971e-01f,+1.24293447e-01f,-9.39765349e-02f,-1.08233772e-01f,+1.67287901e-01f,
-3.33708376e-01f,+2.47620810e-02f,+1.85610190e-01f,-6.96366057e-02f,-3.16236585e-01f,
-1.03558358e-02f,-7.86197260e-02f,-2.90599950e-02f,-2.49040812e-01f,-1.43457890e-01f,
+3.68122160e-01f,+2.13164806e-01f,+1.90131709e-01f,+2.39242241e-01f,+1.08165510e-01f,
-4.97345701e-02f,+1.14340901e-01f,+2.37269163e-01f,+3.52869898e-01f,-6.90823272e-02f,
-3.59116383e-02f,-1.19125828e-01f,-3.50649245e-02f,-8.74553770e-02f,-3.87981720e-02f,
+8.28909967e-03f,+1.81850530e-02f,-2.46879071e-01f,+1.50003478e-01f,+4.49750945e-02f,
-1.60254344e-01f,-2.13494539e-01f,+2.39586487e-01f,-1.90983176e-01f,+3.87561545e-02f,
-7.57084191e-02f,+1.84191793e-01f,-2.00164735e-01f,+7.22752810e-02f,+3.54094177e-01f,
-7.03370199e-02f,+2.39968300e-01f,-4.20696363e-02f,-1.12714648e-01f,-1.29568547e-01f,
+9.03415382e-02f,+3.36372554e-01f,+6.37419149e-02f,+2.85735130e-01f,+2.36681759e-01f,
-1.91939622e-02f,-5.60772941e-02f,-2.30456293e-01f,-1.08435228e-01f,+1.00168683e-01f,
-1.00765027e-01f,-1.51304707e-01f,+1.79108530e-01f,-9.18607712e-02f,+2.01998577e-01f,
+7.44887888e-02f,+1.20392051e-02f,+1.83496103e-01f,-2.34606907e-01f,-5.99024035e-02f,
-1.53138325e-01f,+9.80029181e-02f,+1.91906989e-02f,-1.72103986e-01f,+1.48418501e-01f,
+2.31029257e-01f,-4.04130220e-02f,+1.16966888e-01f,-2.02803776e-01f,+9.87813249e-02f,
-5.50345294e-02f,+5.33464625e-02f,+3.90750021e-02f,+1.92633331e-01f,+1.55034170e-01f,
-1.66188374e-01f,+4.69660014e-02f,+3.11828163e-02f,+2.23230124e-01f,-1.34351060e-01f,
-1.00443229e-01f,-5.98260667e-03f,+1.43002421e-01f,+1.16274238e-01f,-1.41805142e-01f,
+6.48545027e-02f,+3.99302363e-01f,-9.95444804e-02f,-2.70867258e-01f,+3.01540308e-02f,
-1.31907120e-01f,+8.93238708e-02f,+2.06356540e-01f,+1.17879696e-01f,-1.79179683e-01f,
-1.02789886e-01f,-7.58752078e-02f,+1.77300215e-01f,+1.07699893e-01f,-3.04607272e-01f,
+4.36621383e-02f,+2.36395940e-01f,-7.20504746e-02f,+7.16226548e-02f,-2.54815489e-01f,
+2.51590431e-01f,-1.16368145e-01f,-4.33432907e-02f,+8.39444697e-02f,+9.55663100e-02f,
+3.00093085e-01f,+7.80355260e-02f,+2.22734377e-01f,+3.30080420e-01f,-7.61160254e-02f,
-5.28431833e-02f,-7.89466053e-02f,+1.86800331e-01f,-9.85376760e-02f,+3.27176899e-02f,
+1.28467783e-01f,+1.30275384e-01f,+3.27782393e-01f,+1.04163662e-01f,+1.69554219e-01f,
+1.85714468e-01f,+3.07590008e-01f,-1.30935252e-01f,+3.04108928e-03f,+6.77986294e-02f,
+2.46234924e-01f,+1.14820786e-01f,-4.97663692e-02f,-8.01268443e-02f,-1.49862245e-01f,
-3.92820034e-03f,+1.34844020e-01f,+3.06102410e-02f,-7.16292709e-02f,+2.28374675e-01f,
+2.76660770e-01f,+1.29479274e-01f,+2.27115024e-02f,+1.43455088e-01f,+2.60385554e-02f,
-4.70617972e-02f,+1.42613113e-01f,+6.16099499e-02f,+2.57157922e-01f,-1.79178491e-01f,
+1.95868894e-01f,+1.22198341e-02f,+2.57214725e-01f,+1.49932995e-01f,-1.47133783e-01f,
+7.52544999e-02f,-8.19205958e-03f,+1.97143599e-01f,-6.47608116e-02f,-1.04829203e-02f,
-4.51651402e-02f,+1.49360020e-02f,+1.35434698e-02f,+1.13481790e-01f,+1.70986298e-02f,
+2.52382597e-03f,+1.63174123e-01f,+1.56328052e-01f,+9.16958749e-02f,-1.80478878e-02f,
+2.69163966e-01f,-6.87989742e-02f,+1.55779481e-01f,-9.76001192e-03f,+6.49957173e-03f,
+1.41952217e-01f,+4.00064588e-01f,-1.35408208e-01f,+8.60724226e-02f,-2.49603793e-01f,
+9.10048559e-02f,-3.29118907e-01f,+1.26398936e-01f,-3.31679620e-02f,-2.08649099e-01f,
+9.08500701e-02f,+2.25564688e-01f,+2.56359905e-01f,+1.97885677e-01f,+2.62938768e-01f,
-1.20098606e-01f,+1.98986351e-01f,+1.22080334e-01f,+7.52505586e-02f,-6.62442893e-02f,
+8.07732791e-02f,-4.17822190e-02f,+2.18872562e-01f,+2.74639010e-01f,+6.69346377e-02f,
-2.25614831e-02f,-2.02456906e-01f,+8.48814845e-02f,-1.20454028e-01f,-8.30947533e-02f,
-2.69108802e-01f,-6.59180954e-02f,+1.51328027e-01f,-2.29293048e-01f,-2.25452632e-01f,
+1.24073178e-01f,-6.02935776e-02f,+1.87526360e-01f,+4.26161960e-02f,-1.68515876e-01f,
+3.97944361e-01f,+4.36480604e-02f,-1.31554201e-01f,+8.39545354e-02f,+3.08426693e-02f,
+9.46893468e-02f,+5.64735383e-02f,+1.43478796e-01f,+9.23503563e-02f,+5.38790002e-02f,
-2.31569618e-01f,-6.17358135e-03f,+1.66590437e-02f,+6.38110787e-02f,-1.81967854e-01f,
+1.79039955e-01f,-1.55076429e-01f,-2.22181696e-02f,-3.13562810e-01f,-2.00107634e-01f,
+3.04496009e-02f,-8.29944983e-02f,+1.07588219e-02f,+8.35016817e-02f,+1.84019387e-01f,
-1.01216227e-01f,+9.44788978e-02f,+4.87728417e-02f,+2.25316808e-02f,-1.66701168e-01f,
-4.36010137e-02f,-3.78328770e-01f,+3.67942313e-03f,-6.08401112e-02f,-1.95566550e-01f,
-3.11171860e-01f,+2.43820306e-02f,+2.44263902e-01f,+1.80178005e-02f,+1.32184163e-01f,
-2.91664541e-01f,-3.76967162e-01f,-1.64998382e-01f,-8.96401005e-04f,-2.47753710e-01f,
-2.07101911e-01f,-2.32076105e-02f,-7.59258419e-02f,-1.35502607e-01f,+1.78057715e-01f,
+1.30705103e-01f,-6.86153173e-02f,-1.49157830e-02f,+2.42417499e-01f,-4.76246148e-01f,
+1.04530178e-01f,+3.22112883e-03f,+3.09752505e-02f,-1.55790865e-01f,+8.36360082e-02f,
+8.33972823e-03f,-1.82007179e-01f,+9.28628370e-02f,+4.30991799e-02f,-5.99603169e-02f,
-1.89259022e-01f,-3.26695181e-02f,+1.97480351e-01f,-1.40474603e-01f,+2.71034637e-03f,
+1.19393282e-01f,+2.26697251e-02f,+1.62287965e-01f,+1.51506841e-01f,+1.09244287e-01f,
+1.30782956e-02f,+2.97197439e-02f,-7.45297894e-02f,+5.62312920e-03f,-1.46477312e-01f,
-5.44351451e-02f,+2.62578011e-01f,+2.28742763e-01f,+2.38727316e-01f,+5.29830456e-02f,
+1.23091832e-01f,+1.99647516e-01f,-7.44764954e-02f,+3.08085471e-01f,+2.29428951e-02f,
-2.11717933e-02f,+2.71056332e-02f,+2.81141996e-01f,+1.61060661e-01f,+4.46519181e-02f,
-1.22347914e-01f,-2.22295430e-02f,+5.91601543e-02f,+6.49818331e-02f,-6.22052364e-02f,
-1.03378914e-01f,+1.27210855e-01f,-5.01084402e-02f,-2.79831767e-01f,+9.30211321e-02f,
+3.80798399e-01f,+4.31283079e-02f,+9.75153819e-02f,+1.68997407e-01f,+6.77939579e-02f,
-1.07189618e-01f,+2.13072062e-01f,+2.87840337e-01f,-2.61040647e-02f,+2.31219437e-02f,
-2.09047869e-01f,-6.94422871e-02f,+4.46550287e-02f,+3.48268956e-01f,+2.25566179e-01f,
-4.99083884e-02f,-3.44594195e-02f,-1.00818157e-01f,+1.19136028e-01f,-8.24658722e-02f,
-1.87219590e-01f,+5.99857932e-03f,+2.35351816e-01f,-4.45024222e-02f,-1.38077021e-01f,
+8.59983917e-03f,-2.37196133e-01f,-1.26462251e-01f,-5.30922562e-02f,-5.45512419e-03f,
-1.95924237e-01f,+1.32704496e-01f,+1.23655841e-01f,+1.21932879e-01f,+1.18621171e-01f,
+1.26948804e-01f,+1.18559174e-01f,+9.43441913e-02f,+9.89624183e-04f,+4.58018892e-02f,
+6.48539439e-02f,+1.49757221e-01f,-6.86397552e-02f,-1.32881701e-01f,-3.52406017e-02f,
-1.74332578e-02f,-4.42931894e-03f,+1.66684911e-01f,+2.85790320e-02f,+7.17184767e-02f,
-1.01930924e-01f,-3.32713127e-02f,-5.94339967e-02f,+1.61284760e-01f,-1.16233230e-01f,
+6.82996865e-03f,-1.18943326e-01f,-3.40795666e-02f,+3.68192568e-02f,+8.98092911e-02f,
+2.77616233e-01f,-3.88842195e-01f,+1.16522938e-01f,+2.37416595e-01f,-5.66439331e-02f,
-2.62070239e-01f,-1.20397344e-01f,+2.35035673e-01f,+1.75386779e-02f,-2.93367177e-01f,
-8.26544687e-03f,-5.20762103e-03f,-8.09001252e-02f,-8.09793994e-02f,+6.29769117e-02f,
-7.73005337e-02f,+2.91090645e-02f,-1.18553087e-01f,-7.95374066e-03f,+2.04253972e-01f,
-4.15437110e-02f,-1.08001597e-01f,-7.88329169e-02f,-1.84831508e-02f,+3.85437071e-01f,
-1.75532877e-01f,-3.02154571e-02f,+1.55528905e-02f,+5.31080328e-02f,-1.80288963e-02f,
-8.06581080e-02f,+9.50927064e-02f,+6.89407215e-02f,+1.01739846e-01f,-4.89654997e-03f,
+8.07158351e-02f,+2.63335079e-01f,-1.49687137e-02f,+3.46447155e-02f,-1.25054181e-01f,
+1.62308186e-01f,-7.11755306e-02f,+3.57658446e-01f,+2.28330512e-02f,+6.90371543e-02f,
-1.37172475e-01f,-5.34661263e-02f,-2.79775232e-01f,+1.26263142e-01f,-1.67096421e-01f,
+1.42047271e-01f,-2.20005158e-02f,+1.11848870e-02f,-8.25789347e-02f,+1.10789143e-01f,
+1.14857107e-01f,+1.47761673e-01f,+4.96786050e-02f,+1.77330717e-01f,+1.23634033e-01f,
+2.04669242e-03f,+4.23613526e-02f,-1.06384851e-01f,+2.19872579e-01f,-1.59351498e-01f,
-5.82494326e-02f,-3.18839140e-02f,-1.12255272e-02f,+1.09345093e-01f,-8.45839754e-02f,
+2.63935584e-03f,+1.72953904e-01f,+1.08327948e-01f,-1.55236438e-01f,+6.54685125e-02f,
+7.13647008e-02f,+3.57292965e-02f,+1.95697531e-01f,+9.37758833e-02f,-7.40343034e-02f,
-1.04277521e-01f,-2.26896554e-01f,+2.60624923e-02f,-2.25836322e-01f,-2.36933544e-01f,
+2.21960545e-02f,+4.72791977e-02f,-2.55848438e-01f,+5.05780280e-01f,+9.52789187e-02f,
-3.47213224e-02f,-2.29528304e-02f,+1.65614590e-01f,+4.97177094e-02f,+9.19927657e-02f,
-2.16306731e-01f,+1.14559524e-01f,+1.94974661e-01f,-9.34516937e-02f,+1.01558909e-01f,
-3.04333176e-02f,-5.01434319e-03f,+1.10206395e-01f,+7.17962906e-02f,+1.35637876e-02f,
+2.39006951e-02f,+1.63298830e-01f,-4.59051095e-02f,-1.10150417e-02f,+4.69346158e-02f,
-1.48683717e-03f,+6.66059777e-02f,-5.27215078e-02f,+3.94464023e-02f,+6.48172647e-02f,
-1.91043764e-02f,+1.25473468e-02f,-1.46194220e-01f,+1.73260197e-01f,-1.82343930e-01f,
-1.49173066e-01f,-2.21462455e-02f,-5.99564463e-02f,+8.61528441e-02f,-8.59306008e-02f,
+2.64283210e-01f,+1.81487516e-01f,-1.03626274e-01f,-4.52988707e-02f,+1.11194625e-01f,
+1.70382373e-02f,-1.80606060e-02f,+2.78929994e-02f,-2.86814660e-01f,+1.13941148e-01f,
+9.61225033e-02f,+5.53411208e-02f,+2.99451470e-01f,+1.06263191e-01f,-1.62578657e-01f,
+4.80985232e-02f,+1.14066921e-01f,+1.80713579e-01f,-2.38504753e-01f,-3.41056511e-02f,
+1.00102402e-01f,-3.57742757e-01f,+4.82229233e-01f,-1.01664893e-01f,+1.63733929e-01f,
+1.18040547e-01f,+2.76888367e-02f,+2.88185831e-02f,+8.91362727e-02f,-7.04460684e-03f,
+7.51805305e-02f,-1.46303684e-01f,+9.86826718e-02f,+6.70215040e-02f,+6.02239929e-02f,
-2.39608422e-01f,-4.84479547e-01f,-5.74428774e-02f,+2.75007039e-01f,+1.47904441e-01f,
-4.70986776e-02f,+1.03792123e-01f,-7.14557990e-02f,+2.11491823e-01f,-1.26631381e-02f,
-2.06539720e-01f,-8.63073543e-02f,-2.83345785e-02f,+5.18199839e-02f,+1.62812173e-01f,
+6.46700636e-02f,+3.08963388e-01f,+1.26703650e-01f,+2.07828298e-01f,-8.28832015e-02f,
+1.41206428e-01f,+9.25705954e-03f,+1.20606735e-01f,-5.44154607e-02f,-1.19189054e-01f,
-8.66796896e-02f,-1.78153500e-01f,-1.13767639e-01f,+1.93512157e-01f,+8.35805684e-02f,
-1.20891601e-01f,-1.02321282e-01f,-1.25206681e-02f,+5.71595691e-02f,+2.30291728e-02f,
+1.46519721e-01f,-5.66249266e-02f,+1.09638989e-01f,+2.54461280e-04f,-9.33222845e-02f,
-1.29186977e-02f,-8.60203132e-02f,-1.88640222e-01f,-5.71168177e-02f,-1.66477725e-01f,
-1.13958977e-02f,+1.19300142e-01f,-1.64503545e-01f,+1.83059335e-01f,-1.51604280e-01f,
-1.09893672e-01f,+2.92306710e-02f,-1.91588596e-01f,+1.37646228e-01f,-1.00314684e-01f,
-8.63575861e-02f,-5.33360653e-02f,+1.99984044e-01f,-1.28687188e-01f,-6.13937676e-02f,
-1.64342612e-01f,+2.35433653e-02f,-2.77637802e-02f,+2.69740671e-01f,-1.81382105e-01f,
-8.78023207e-02f,-9.03675854e-02f,+3.70963007e-01f,-7.75249079e-02f,+2.89518647e-02f,
+4.97330092e-02f,+2.68318914e-02f,+3.41227174e-01f,+4.23152931e-02f,-1.73680544e-01f,
+8.70226473e-02f,+6.00636676e-02f,-2.33411461e-01f,-1.40731096e-01f,-6.66138679e-02f,
-9.77620408e-02f,-6.56374842e-02f,-1.87585026e-01f,+5.75384051e-02f,+8.96006078e-02f,
+2.60880985e-03f,+8.17698240e-02f,+1.37652427e-01f,-3.04483622e-02f,+2.86372632e-01f,
+1.51235685e-01f,+2.27338761e-01f,+4.27493118e-02f,-1.22723453e-01f,-1.39720634e-01f,
-7.99935535e-02f,-1.65177390e-01f,-6.81495368e-02f,+1.72510162e-01f,-1.13425307e-01f,
+9.80462730e-02f,+2.17143428e-02f,+2.88271308e-02f,-1.44417631e-03f,+1.27079159e-01f,
+1.25420809e-01f,-7.39654247e-03f,+1.03607640e-01f,+2.48664349e-01f,-1.26828700e-01f,
-2.39893440e-02f,+9.01853889e-02f,+1.07765578e-01f,+7.22233132e-02f,-9.58047956e-02f,
+2.83737421e-01f,+1.64235070e-01f,-9.05362889e-02f,-9.09187570e-02f,-2.22421095e-01f,
-6.61560148e-02f,-1.88970789e-01f,-2.05003485e-01f,-1.60345495e-01f,-1.71133816e-01f,
-2.76092172e-01f,+1.11499215e-02f,+1.80216655e-01f,-1.24641880e-01f,-4.98890765e-02f,
-8.18734150e-03f,+4.43631709e-01f,-3.12435091e-01f,+2.13024616e-01f,-4.89542559e-02f,
+2.97025405e-02f,-3.21530908e-01f,+2.30440229e-01f,-3.03384545e-03f,-2.68400937e-01f,
-1.75459340e-01f,-4.60737497e-02f,-2.42780261e-02f,-9.13861692e-02f,+3.63200009e-02f,
+2.58124750e-02f,-1.13404905e-02f,-4.01345156e-02f,-3.60866450e-02f,+3.95638198e-01f,
+1.89152122e-01f,-7.03226477e-02f,+4.78200236e-04f,-4.23945934e-02f,+2.60849267e-01f,
-1.34921029e-01f,-7.18581751e-02f,+5.91169745e-02f,-1.24635465e-01f,+1.19472280e-01f,
-9.64085199e-03f,-2.10191801e-01f,-7.87970573e-02f,+2.69732326e-02f,+6.98161498e-02f,
-9.70377997e-02f,-4.18042153e-01f,+1.40934795e-01f,-1.74537033e-01f,+2.69733787e-01f,
-7.12149516e-02f,-1.65152587e-02f,-4.29714806e-02f,-2.76430130e-01f,+1.60551388e-02f,
+6.89846091e-03f,+1.80005550e-01f,-4.78299670e-02f,+2.10761242e-02f,-4.00891572e-01f,
+3.45933855e-01f,+1.60944328e-01f,-1.80093437e-01f,-5.00609763e-02f,+7.81247541e-02f,
+1.63137227e-01f,-1.91452339e-01f,-1.57133192e-01f,-7.42723048e-02f,+9.52591375e-03f,
+7.75323883e-02f,+6.77995905e-02f,+1.82936080e-02f,-1.08252391e-01f,-1.48187786e-01f,
+4.94270585e-02f,-3.39337379e-01f,-1.72575146e-01f,-6.04136661e-03f,-2.31271625e-01f,
-1.93402618e-02f,+1.88725352e-01f,+8.81474279e-03f,+1.06577508e-01f,-6.58022761e-02f,
-5.97216301e-02f,+5.01599573e-02f,+2.33816653e-02f,-2.88892034e-02f,-3.25091541e-01f,
-9.78926346e-02f,-8.49516597e-03f,+1.51311800e-01f,+1.05829149e-01f,+4.28026974e-01f,
+2.59776525e-02f,+2.38722488e-01f,-8.74815211e-02f,+2.67882645e-01f,-8.55062716e-03f,
+6.83374628e-02f,-9.52862501e-02f,+2.97967732e-01f,-3.13535541e-01f,-4.59733196e-02f,
+5.47580533e-02f,-4.60282788e-02f,-2.96493564e-02f,-3.56548280e-02f,+1.58694610e-01f,
+9.40536261e-02f,+1.29383132e-01f,+6.18267693e-02f,-7.36129805e-02f,+2.50765294e-01f,
-1.32150158e-01f,-1.62169233e-01f,+4.92613792e-01f,-1.92403063e-01f,-3.01457010e-02f,
+7.67640471e-02f,-1.85613349e-01f,-8.58128369e-02f,-1.72694605e-02f,+8.01560730e-02f,
+1.28519565e-01f,-2.70789772e-01f,+6.54658154e-02f,-9.43832919e-02f,+3.47541064e-01f,
+9.76918936e-02f,-5.11328466e-02f,-2.10142210e-01f,+6.99081048e-02f,-4.79506738e-02f,
+6.02609329e-02f,+1.51816696e-01f,-1.25488624e-01f,+6.06968217e-02f,+1.21371932e-01f,
-1.16082184e-01f,-8.48016813e-02f,+1.27959952e-01f,-1.59342796e-01f,-2.18059152e-01f,
-1.74758852e-01f,+2.58053243e-02f,+5.35394065e-02f,-1.91669032e-01f,-3.43465626e-01f,
-4.94321287e-02f,+6.47194088e-02f,-1.39748365e-01f,-4.69806194e-02f,-8.25685337e-02f,
+1.10599093e-01f,-2.89214015e-01f,+2.73105074e-02f,+3.65741968e-01f,-4.13242541e-03f,
+2.43745610e-01f,+1.44020200e-01f,+2.28208348e-01f,+2.39212826e-01f,+1.83056816e-01f,
+1.38139993e-01f,-6.07253984e-02f,-1.23709880e-01f,-1.67349771e-01f,-5.12010492e-02f,
-3.42653096e-01f,-1.00483224e-01f,-3.74707878e-02f,-4.95091602e-02f,-3.20577510e-02f,
+3.99083167e-01f,-2.29216933e-01f,+8.96522999e-02f,+1.04829870e-01f,-6.41340464e-02f,
-1.55342028e-01f,-2.18012989e-01f,+9.06703696e-02f,+1.28441259e-01f,-1.40126467e-01f,
+1.59091651e-01f,-1.15682535e-01f,-1.57344103e-01f,-1.50621876e-01f,-2.01902881e-01f,
+1.65204376e-01f,-1.51977405e-01f,-1.29860625e-01f,+5.91406412e-02f,+2.13620648e-01f,
-1.18937731e-01f,+7.84284920e-02f,-6.47132248e-02f,+3.28832656e-01f,-6.39956668e-02f,
+1.25573203e-03f,-3.15648645e-01f,+5.81063852e-02f,-1.14030994e-01f,-2.15140864e-01f,
+3.70294571e-01f,+7.63712376e-02f,-2.20726311e-01f,+1.77883003e-02f,+1.00750506e-01f,
-3.73011343e-02f,-1.38973715e-02f,-1.96418375e-01f,+6.96782917e-02f,+4.57524434e-02f,
+2.19242573e-01f,+8.81837830e-02f,-6.70609239e-04f,-8.12570900e-02f,-3.43281716e-01f,
-3.33840698e-02f,+2.77340442e-01f,-4.69581857e-02f,+1.91509336e-01f,+1.96364094e-02f,
+1.36774108e-01f,-2.99768388e-01f,-8.09254944e-02f,-4.13081869e-02f,-1.84643967e-03f,
+1.29288016e-02f,+1.64928675e-01f,+9.14143398e-02f,+1.77872464e-01f,+3.37267488e-01f,
+2.49559328e-01f,-1.48885563e-01f,-1.29342139e-01f,+3.14575672e-01f,+1.52391300e-01f,
-5.45193814e-02f,-1.81256890e-01f,-4.51852158e-02f,-3.43593024e-02f,-1.17100738e-01f,
+1.12210093e-02f,+1.68837756e-01f,-1.39816165e-01f,-3.74850072e-02f,-3.45808528e-02f,
-9.73149091e-02f,-1.21752813e-01f,+3.61811407e-02f,+8.44488814e-02f,+1.12687863e-01f,
-6.54595122e-02f,-2.29334570e-02f,-1.60204515e-01f,+9.25164372e-02f,-7.50556821e-03f,
-2.92773038e-01f,+1.59176569e-02f,+1.06257670e-01f,-1.31155208e-01f,+3.51158679e-01f,
+8.81417468e-02f,+2.65684366e-01f,+2.04181790e-01f,+1.35099247e-01f,-4.75831106e-02f,
-2.32651696e-01f,-1.49855480e-01f,+6.43675253e-02f,+8.73235464e-02f,-7.30447322e-02f,
-9.01502669e-02f,-7.00360686e-02f,-2.11493708e-02f,-1.73635781e-01f,-1.50726482e-01f,
+3.49806458e-01f,+6.52929321e-02f,-2.72768527e-01f,+2.64829069e-01f,+3.53087559e-02f,
+4.50215749e-02f,+1.64708257e-01f,+1.56061783e-01f,-1.62156343e-01f,+4.42654282e-01f,
-9.46623087e-02f,+1.01213427e-02f,+6.19052202e-02f,-2.30371267e-01f,+3.31152463e-03f,
+4.97487009e-01f,-5.39789677e-01f,-1.56760085e-02f,+2.91210450e-02f,-1.85135808e-02f,
+5.37063740e-02f,+5.47534376e-02f,+1.55850565e-02f,+3.66885364e-01f,+9.65052843e-02f,
+6.57963529e-02f,+5.41243628e-02f,-8.22059363e-02f,-2.91380197e-01f,-8.40039477e-02f,
-1.70372620e-01f,-1.86299905e-02f,-4.44899760e-02f,+1.78425759e-01f,-3.79746467e-01f,
+2.47701779e-01f,+5.17499387e-01f,+1.26425982e-01f,+2.51742363e-01f,+1.83664575e-01f,
-4.11292389e-02f,-7.46533275e-02f,+1.37565881e-01f,-3.01450081e-02f,+3.38986814e-01f,
+1.01170033e-01f,-2.89614439e-01f,+2.29931414e-01f,-2.69138888e-02f,-8.34619030e-02f,
+1.21056028e-01f,+2.29916230e-01f,+4.53004509e-01f,-1.32518649e-01f,+1.71537682e-01f,
-2.15356052e-01f,+1.11736044e-01f,+3.14473271e-01f,-1.07907858e-02f,-1.36100411e-01f,
-3.03673483e-02f,-9.02763158e-02f,+6.04312867e-02f,+2.64549293e-02f,-1.78547487e-01f,
+8.95356983e-02f,+2.81618498e-02f,+9.28367525e-02f,-1.21766470e-01f,-5.10280393e-02f,
+1.35720119e-01f,+1.29653111e-01f,+2.18764320e-01f,-8.22311416e-02f,+6.44042641e-02f,
+2.19930336e-01f,-1.86200649e-01f,+5.47385290e-02f,-1.23465814e-01f,+1.07782081e-01f,
+3.25655192e-01f,-7.98018649e-02f,-1.07717730e-01f,-2.52591640e-01f,+7.75896758e-02f,
+2.45850027e-01f,-3.09284255e-02f,-7.58513138e-02f,+1.10756554e-01f,+2.57257819e-01f,
-5.91689423e-02f,-1.20780997e-01f,+2.73488283e-01f,+3.54210734e-02f,-1.64258227e-01f,
-2.54930276e-03f,+3.33675563e-01f,-9.52239186e-02f,-2.57990956e-01f,-2.16259897e-01f,
+2.01558508e-02f,+1.66217268e-01f,-7.05706850e-02f,+1.59046873e-01f,+4.18239444e-01f,
-8.19064081e-02f,-7.82603696e-02f,+6.95231333e-02f,-7.95708783e-03f,+2.19972357e-01f,
-2.20449433e-01f,-9.05062538e-03f,-5.94689362e-02f,-1.24276623e-01f,-8.27992111e-02f,
+1.82553530e-01f,-3.04238826e-01f,-1.19924538e-01f,+3.75449687e-01f,+3.79852727e-02f,
+1.47230476e-01f,+1.09697059e-02f,-1.22806653e-01f,-1.46976843e-01f,-6.22681640e-02f,
+3.23371738e-02f,+6.17448725e-02f,-1.97455019e-01f,-1.30717605e-02f,+4.62526262e-01f,
+2.74862587e-01f,-1.41856775e-01f,+1.12632448e-02f,-1.09288231e-01f,+4.62661348e-02f,
+2.00582623e-01f,+3.12552564e-02f,+1.24292880e-01f,-1.73841789e-02f,+8.51669610e-02f,
-8.01258385e-02f,+2.28130266e-01f,-1.59374788e-01f,+1.69250861e-01f,+4.46003705e-01f,
+2.37267107e-01f,+3.00783485e-01f,+1.06496383e-02f,-7.00206161e-02f,+2.38327116e-01f,
-1.72428980e-01f,-1.09413713e-01f,+4.38654095e-01f,-1.61165446e-02f,+2.31164843e-01f,
-2.48030275e-02f,+4.83215377e-02f,-4.65389974e-02f,-1.41459927e-01f,+1.43977217e-02f,
-1.01012267e-01f,+8.65604579e-02f,+2.98785359e-01f,-1.09594474e-02f,+4.88655604e-02f,
-5.29465266e-02f,-8.81159529e-02f,+7.40828738e-02f,+3.27796906e-01f,-3.00607294e-01f,
-1.89092502e-01f,-1.89154759e-01f,-1.98248491e-01f,-3.45212668e-02f,-2.87875831e-01f,
+2.51963645e-01f,-5.50690331e-02f,-2.85637587e-01f,-3.30369920e-03f,+2.55774111e-02f,
-2.98426718e-01f,-2.44809479e-01f,-3.24053541e-02f,+2.26996958e-01f,+3.34095508e-01f,
+7.86697045e-02f,-5.13871126e-02f,+1.74544781e-01f,+1.78587884e-01f,-8.59165937e-02f,
-1.09236268e-03f,+1.40831083e-01f,+1.82360649e-01f,+1.60331398e-01f,+2.00802162e-01f,
-2.66549081e-01f,+1.04904719e-01f,-4.19279039e-02f,+1.18922777e-01f,-1.02185138e-01f,
+1.90861657e-01f,+4.38717902e-02f,+5.80584817e-02f,-6.76421225e-02f,-1.61251888e-01f,
-1.07410699e-01f,-2.21380249e-01f,+2.37533510e-01f,-1.48218483e-01f,+2.38948558e-02f,
-4.51872386e-02f,+2.47951105e-01f,-1.63536429e-01f,-1.70180090e-02f,-1.86895505e-01f,
-1.78098857e-01f,-1.11379609e-01f,+1.35354072e-01f,+2.50805050e-01f,-2.18628511e-01f,
+1.35132372e-02f,+3.12090337e-01f,+2.05997854e-01f,+1.62857160e-01f,+1.79414511e-01f,
+1.84395611e-01f,-5.54965436e-02f,+5.37825599e-02f,-3.12218778e-02f,-1.97760463e-01f,
+1.58473253e-01f,-1.10495113e-01f,+1.50552347e-01f,+1.01821251e-01f,-1.06379196e-01f,
+1.12220563e-01f,-7.80072734e-02f,-1.55719459e-01f,-5.67475930e-02f,+7.80104287e-03f,
-1.73691720e-01f,-6.77425265e-02f,-2.33489618e-01f,-1.97678223e-01f,-2.56263345e-01f,
+3.23994845e-01f,-3.87356840e-02f,-1.41439393e-01f,-8.68366137e-02f,+1.90428048e-01f,
+5.17042726e-02f,+3.58268619e-01f,-1.36522502e-01f,+4.68614884e-02f,+5.69852218e-02f,
-1.51964799e-02f,-1.98963404e-01f,-1.56581789e-01f,-2.31327742e-01f,-6.76900744e-02f,
+2.02358693e-01f,-4.63776216e-02f,-2.41343826e-01f,+1.63670570e-01f,-1.72182530e-01f,
-2.21834391e-01f,-1.27741382e-01f,-2.15827674e-01f,-3.07437301e-01f,+1.48425773e-02f,
+1.57972187e-01f,-1.51160300e-01f,-2.46706866e-02f,+9.33176875e-02f,+1.86720103e-01f,
+8.57619718e-02f,-2.30361536e-01f,+3.15401964e-02f,+5.10324724e-02f,+2.44652316e-01f,
+1.46348968e-01f,+2.29640126e-01f,+1.04916459e-02f,+6.20312579e-02f,+2.99410056e-02f,
+4.14239466e-01f,+1.89358499e-02f,+7.64673576e-04f,+2.85586566e-01f,-1.04911365e-01f,
+2.58693486e-01f,-1.61521748e-01f,-1.66936427e-01f,-3.43201429e-01f,-1.56759322e-01f,
+9.70120169e-03f,-1.98061625e-03f,-1.39317736e-01f,+1.79059193e-01f,-8.70682523e-02f,
+1.31097496e-01f,+1.12031817e-01f,+1.62279502e-01f,+7.58428574e-02f,+2.13596791e-01f,
+3.82420003e-01f,-2.33266845e-01f,-6.63819630e-03f,+2.25787029e-01f,-1.41152889e-01f,
-1.32006006e-02f,-1.25304088e-01f,+9.75870863e-02f,-9.76299718e-02f,+3.89885962e-01f,
+5.36952764e-02f,-8.94170180e-02f,+2.04417527e-01f,+8.04018006e-02f,-1.66262746e-01f,
+1.02394037e-02f,-7.53072649e-02f,+1.41030446e-01f,+2.89727420e-01f,+2.35826373e-01f,
-8.62507373e-02f,+2.70104051e-01f,+5.45358006e-03f,+9.35414433e-02f,+1.45580858e-01f,
+9.72464457e-02f,-5.59901178e-01f,+7.81718493e-02f,-2.22423881e-01f,+1.59340546e-01f,
+2.12120667e-01f,-1.00323915e-01f,+4.09625709e-01f,-4.18318510e-02f,+2.57675678e-01f,
+2.75224805e-01f,-6.19601496e-02f,+5.59275150e-02f,+8.63227397e-02f,-1.41402736e-01f,
-5.38360141e-02f,-2.51406562e-02f,+3.13803077e-01f,+2.84508988e-02f,+1.35553449e-01f,
-1.19856641e-01f,-2.03544199e-01f,+3.34336758e-02f,-2.98886806e-01f,-1.46039531e-01f,
+4.69355099e-03f,+5.15045561e-02f,-3.94064128e-01f,+2.54483104e-01f,-1.84577152e-01f,
-1.54471576e-01f,-7.48388693e-02f,-2.14320421e-01f,-4.59168889e-02f,+6.36600032e-02f,
-4.86506820e-02f,+3.26684177e-01f,-4.48635966e-02f,-3.87651742e-01f,+6.88712224e-02f,
+2.29425713e-01f,+9.23186019e-02f,+2.52483815e-01f,+2.62774378e-01f,-1.88951507e-01f,
+1.05893232e-01f,-9.94417593e-02f,+1.32676018e-02f,+3.22474428e-02f,-1.08200453e-01f,
+7.95189589e-02f,+1.36012360e-01f,-6.12600939e-03f,+8.78764167e-02f,+4.00569260e-01f,
+2.69609928e-01f,-3.06270510e-01f,-4.26933244e-02f,+2.50518978e-01f,-3.97747010e-02f,
+1.72137946e-01f,-3.01702261e-01f,-2.74909526e-01f,+6.66071288e-03f,-4.01739478e-01f,
-1.01302266e-01f,-1.61933273e-01f,+3.87766398e-02f,+1.13283791e-01f,-1.61860079e-01f,
+5.84421232e-02f,+1.76735088e-01f,+2.92369157e-01f,-4.74628694e-02f,+4.87490743e-02f,
+1.56112477e-01f,-8.18158835e-02f,+2.49982014e-01f,+1.13794155e-01f,+1.07423641e-01f,
+2.87263989e-02f,+1.16170257e-01f,+1.88837633e-01f,+2.43596897e-01f,-5.52874133e-02f,
+9.14242789e-02f,-2.22624183e-01f,+6.02833480e-02f,+4.37304109e-01f,-1.63781822e-01f,
-1.37471274e-01f,+3.36171836e-01f,+3.69714126e-02f,+4.61131148e-02f,+8.85547251e-02f,
-2.60937959e-02f,+2.59580165e-02f,+5.89142069e-02f,+5.81763275e-02f,-1.29732341e-01f,
-1.65747792e-01f,+2.65543491e-01f,-6.12045601e-02f,+2.38566175e-01f,-1.80405274e-01f,
+3.42963845e-01f,-1.29249215e-01f,-1.68435216e-01f,+9.06025916e-02f,-9.88386869e-02f,
+1.32624775e-01f,-4.25142735e-01f,-2.09693745e-01f,+8.67366940e-02f,+3.11892550e-03f,
+6.38821572e-02f,+3.57472062e-01f,+8.72065499e-02f,+1.48019478e-01f,-7.99291302e-03f,
+3.30056697e-01f,+7.13480450e-03f,+7.44172335e-02f,-6.16239682e-02f,-2.20580623e-01f,
+2.60425173e-02f,+5.63748442e-02f,-1.89312864e-02f,-1.41614124e-01f,+9.06259343e-02f,
+3.01929623e-01f,-6.05550781e-02f,+2.35430986e-01f,+3.55280131e-01f,-1.83945507e-01f,
-1.98324900e-02f,-1.78422943e-01f,-2.44481176e-01f,-1.01049533e-02f,-2.99829632e-01f,
-1.98108703e-01f,+1.11872658e-01f,-1.85356438e-01f,-1.75103210e-02f,+1.21582441e-01f,
-7.01362342e-02f,-1.08316906e-01f,+2.53437907e-01f,+6.97534680e-02f,-1.60517395e-01f,
-1.06760517e-01f,-1.58207715e-01f,-1.63228810e-01f,+1.71356976e-01f,+5.75390495e-02f,
+3.41133140e-02f,-1.16904564e-01f,+1.47516634e-02f,-1.30361237e-03f,+2.92315148e-02f,
-5.01956083e-02f,-1.29266158e-01f,+8.15565977e-03f,+1.19535111e-01f,+2.08928376e-01f,
-1.49019063e-01f,+9.80332717e-02f,-2.79201232e-02f,+2.22060561e-01f,+1.32363275e-01f,
+1.09812632e-01f,-1.81849703e-01f,-9.20014605e-02f,-6.21533208e-02f,+2.42495582e-01f,
+2.88430125e-01f,-5.66897243e-02f,-1.97640866e-01f,-3.61459494e-01f,+1.44484311e-01f,
-1.51730821e-01f,-2.01819502e-02f,-2.39567578e-01f,-7.78931007e-02f,+5.35223819e-02f,
-2.13612437e-01f,+3.88786048e-02f,+1.60107482e-02f,-2.06075788e-01f,+9.53374989e-03f,
+1.66502055e-02f,-1.80996526e-02f,-1.87852681e-01f,-1.57840714e-01f,-2.02767015e-01f,
-1.60931751e-01f,-8.87589753e-02f,-4.78316694e-02f,-1.35971397e-01f,-8.80716443e-02f,
-6.13439679e-02f,-1.39919162e-01f,+3.54021825e-02f,-3.13792564e-02f,+9.67103317e-02f,
-8.61282870e-02f,-2.09619910e-01f,-7.14524016e-02f,+5.46389222e-02f,+1.50578544e-01f,
+8.76575783e-02f,+3.23689133e-02f,-4.67023626e-02f,+1.35695532e-01f,-1.33878589e-01f,
+4.49082740e-02f,+4.13211063e-02f,-8.80731568e-02f,-1.10825039e-02f,-6.48964271e-02f,
+1.68752313e-01f,-1.28674746e-01f,+2.83830851e-01f,-8.04842785e-02f,+3.46234590e-02f,
+1.29017830e-01f,-2.24376917e-02f,+1.16342530e-02f,-1.71802849e-01f,-7.40194097e-02f,
+6.05791546e-02f,+7.94906989e-02f,-2.25888398e-02f,-1.02849230e-01f,+1.90444529e-01f,
+1.35144383e-01f,+5.42547256e-02f,+2.48739161e-02f,+1.38629168e-01f,+2.61316095e-02f,
+8.22768733e-02f,+2.67489523e-01f,+1.93720266e-01f,-1.55868009e-01f,+3.58559377e-02f,
+2.85406947e-01f,+3.34649943e-02f,+1.68752596e-01f,-3.27401817e-01f,+1.74398035e-01f,
+1.39914379e-01f,+1.59876496e-01f,+6.88990653e-02f,+6.86578602e-02f,+2.38578338e-02f,
+3.52325499e-01f,+1.14518680e-01f,-1.07026264e-01f,+3.95824276e-02f,-3.90150491e-03f,
+2.21794054e-01f,+3.59210312e-01f,-1.25983179e-01f,+6.40531629e-02f,+1.32016018e-01f,
-1.17763765e-01f,+6.51980042e-02f,-1.23600654e-01f,+6.03068396e-02f,+2.30670810e-01f,
+1.28730461e-01f,+4.26383056e-02f,+1.84468582e-01f,-2.51299500e-01f,+2.51175374e-01f,
-1.48514509e-01f,-1.39846280e-01f,+7.73154423e-02f,+2.46563062e-01f,-1.22145921e-01f,
+7.86415860e-02f,+2.09705345e-02f,+1.92086443e-01f,-6.73780637e-03f,+6.56958064e-03f,
+2.87293382e-02f,-1.81533694e-02f,+1.76059231e-01f,+3.02727044e-01f,+1.53991029e-01f,
-1.60705224e-01f,+1.31725311e-01f,+9.23707783e-02f,+1.64038211e-01f,-4.66710441e-02f,
+8.05458054e-02f,-2.60241926e-02f,-2.25324869e-01f,-9.41067114e-02f,+1.57948211e-01f,
+3.61613154e-01f,+3.33678722e-01f,+1.25315651e-01f,-2.23303497e-01f,+2.69107930e-02f,
-4.73343357e-02f,+3.48401070e-02f,+1.88994199e-01f,-2.58723229e-01f,+1.98105976e-01f,
+9.88551527e-02f,-9.53909308e-02f,+7.26563036e-02f,-1.52305380e-01f,-1.07467137e-01f,
+3.86874937e-02f,+4.14254628e-02f,+1.21409586e-02f,-2.94047892e-02f,+2.11364910e-01f,
+1.11826263e-01f,+1.27435356e-01f,-1.29629418e-01f,+4.71906178e-03f,-8.16450119e-02f,
+1.61221161e-01f,+8.95413086e-02f,+8.08820352e-02f,-5.45905670e-03f,+6.04480244e-02f,
+1.62179604e-01f,-8.72083306e-02f,-9.10381228e-02f,+2.92257662e-03f,-1.29183576e-01f,
-1.46780327e-01f,-1.67463012e-02f,+1.08028106e-01f,-8.60535502e-02f,-3.02435696e-01f,
-1.76284593e-02f,-2.60702014e-01f,+5.57423010e-02f,-9.18748528e-02f,+8.12273771e-02f,
+3.55794393e-02f,+1.03176005e-01f,+4.10030872e-01f,-7.13336319e-02f,-5.22432886e-02f,
+2.59233356e-01f,+1.23550877e-01f,-2.49368802e-01f,+1.73893683e-02f,+2.36692563e-01f,
+3.14533450e-02f,+2.50453204e-01f,+4.95972186e-02f,-1.75626189e-01f,-1.55389532e-01f,
-1.95807174e-01f,+2.97823280e-01f,-1.94967136e-01f,-3.67952213e-02f,+9.29899216e-02f,
+3.27764526e-02f,+1.26636267e-01f,+8.21971819e-02f,-4.67769336e-03f,-7.94143751e-02f,
+4.80155349e-02f,+6.74902797e-02f,+2.32523099e-01f,+1.70330390e-01f,-1.84215680e-02f,
+8.69650245e-02f,+1.53313309e-01f,-6.29354268e-02f,-1.26191303e-01f,-2.38287672e-02f,
-8.61296579e-02f,-1.67856701e-02f,-1.61934033e-01f,+8.00239742e-02f,-3.79903555e-01f,
+8.56038257e-02f,-1.00061812e-01f,-2.05005646e-01f,+1.25278056e-01f,+1.48009777e-01f,
+1.35063440e-01f,+1.64298862e-01f,-5.08307712e-04f,+1.50672004e-01f,-1.53449073e-01f,
-1.57634690e-01f,-5.79433814e-02f,+1.76800922e-01f,+1.15043364e-01f,+1.82158425e-01f,
+1.35314077e-01f,-5.53277992e-02f,+1.68032378e-01f,-2.39653420e-02f,-1.27271563e-02f,
+1.10301979e-01f,-1.10170409e-01f,+6.59224764e-02f,-4.70456034e-02f,-2.42066607e-01f,
+6.64272234e-02f,+3.92122678e-02f,-1.19455479e-01f,-1.91348828e-02f,-1.04620516e-01f,
+3.97168770e-02f,+2.85071850e-01f,-4.83960770e-02f,-1.78511009e-01f,-4.50902805e-02f,
-3.36733982e-02f,+1.30493477e-01f,+4.20598313e-03f,+1.08163491e-01f,+6.68036193e-02f,
+4.82413210e-02f,+1.10269733e-01f,+9.70429182e-02f,+1.62757352e-01f,-2.90878773e-01f,
-3.30737889e-01f,+1.86363518e-01f,-1.95570022e-01f,+2.04030089e-02f,-3.06371719e-01f,
+3.05945091e-02f,-7.32343793e-02f,-4.19448689e-02f,-7.05801770e-02f,+4.62545976e-02f,
+5.88239729e-02f,+5.16715134e-03f,-2.84833014e-01f,-2.47879758e-01f,+1.39319330e-01f,
+9.66749862e-02f,-4.44749324e-03f,-8.26868191e-02f,-1.14334233e-01f,-1.54819638e-01f,
-4.04250100e-02f,+7.94791877e-02f,+1.60011128e-01f,+1.41239211e-01f,+3.55021149e-01f,
+1.97510809e-01f,-2.86474056e-03f,+7.18506286e-03f,+1.73009746e-02f,-6.73350170e-02f,
+1.63093448e-01f,+6.33838996e-02f,-2.86814272e-01f,-3.88199538e-02f,-1.96723312e-01f,
+4.29314785e-02f,-2.48738863e-02f,-1.18472971e-01f,-1.58869833e-01f,+3.10210045e-02f,
+2.04707339e-01f,+6.26684129e-02f,+5.71891740e-02f,+2.67679989e-01f,+2.12932765e-01f,
-5.32214679e-02f,-2.88816467e-02f,-3.44273224e-02f,-2.08872586e-01f,+1.57645360e-01f,
+5.17101437e-02f,-2.99293876e-01f,-1.97358519e-01f,+5.16871177e-02f,-1.62900239e-01f,
-1.05781175e-01f,+5.23351617e-02f,+1.45880934e-02f,-7.81054944e-02f,+1.49025306e-01f,
-8.96530971e-02f,-1.20435320e-01f,-1.42532721e-01f,-6.36983216e-02f,+2.88552940e-02f,
-1.94411516e-01f,+1.26877457e-01f,-1.24130985e-02f,-4.13732708e-01f,+1.04386257e-02f,
+1.85604811e-01f,+2.21732650e-02f,+7.70535320e-02f,+1.94806889e-01f,-2.19266951e-01f,
-1.13378756e-01f,+3.28072235e-02f,+2.26481646e-01f,-1.46214351e-01f,-1.12727158e-01f,
-4.15629625e-01f,+1.13342509e-01f,-4.27915715e-02f,-5.87008335e-02f,+1.32819504e-01f,
+7.68681541e-02f,-4.27772067e-02f,-2.14593276e-01f,+8.50477666e-02f,+7.73690715e-02f,
+1.58290103e-01f,+3.49636525e-02f,-1.12012088e-01f,-1.62278023e-02f,-2.79392391e-01f,
-4.50056121e-02f,-1.32663608e-01f,+7.19331428e-02f,-1.31728873e-02f,-1.16209619e-01f,
-2.16746151e-01f,-2.62289613e-01f,+3.37307714e-02f,+1.31465672e-02f,-7.67579302e-02f,
+2.55340580e-02f,+7.66407400e-02f,-6.73920661e-02f,-1.27835078e-02f,-1.99829847e-01f,
-2.26912480e-02f,+1.11168467e-01f,+2.08516102e-02f,-2.69907951e-01f,-1.07808508e-01f,
+4.60400991e-02f,-1.21483311e-01f,+1.68370545e-01f,-7.06223398e-02f,+3.25391978e-01f,
-1.27244160e-01f,+1.25813782e-01f,-1.25638610e-02f,+1.04508229e-01f,+1.71446964e-01f,
-1.68918163e-01f,-1.12888381e-01f,+1.05711512e-01f,-7.71825388e-02f,-2.17982620e-01f,
+6.89053675e-03f,+1.17619663e-01f,+1.68736130e-02f,-1.99745089e-01f,-2.50229418e-01f,
+2.12625857e-03f,+3.59157994e-02f,-4.13965061e-02f,-6.41030967e-02f,-2.99821556e-01f,
-7.28992000e-02f,+3.79860848e-02f,+1.55412391e-01f,+1.49736464e-01f,-3.17361861e-01f,
+2.57119387e-01f,+3.59085232e-01f,-1.82015777e-01f,+1.27979413e-01f,+1.66777059e-01f,
+1.67908296e-01f,-8.16010237e-02f,+6.54352009e-02f,+2.82815844e-02f,-2.47850001e-01f,
-1.78547665e-01f,-1.42382368e-01f,-1.17151894e-01f,-9.71195698e-02f,+1.09450087e-01f,
-3.47216427e-01f,+1.16344340e-01f,+1.42975450e-01f,+6.36499152e-02f,+1.43989652e-01f,
+3.52880582e-02f,+1.14794813e-01f,-2.10582584e-01f,+1.74089186e-02f,-4.91116047e-02f,
+1.77830402e-02f,-7.82202259e-02f,-4.24547642e-02f,-5.90266697e-02f,+1.12146258e-01f,
-1.95735708e-01f,+3.78662385e-02f,-1.06969820e-02f,+1.15082644e-01f,-3.91231589e-02f,
+1.73292026e-01f,+4.47697341e-02f,-1.46221384e-01f,+1.28119305e-01f,-1.05504133e-02f,
+2.24220917e-01f,-1.37134299e-01f,+4.63864766e-02f,+6.56319186e-02f,+4.96734381e-02f,
+1.63249206e-02f,-7.82839768e-03f,+1.77484930e-01f,+1.60516128e-02f,+4.31768410e-02f,
-2.93668598e-01f,-1.02493420e-01f,-1.07915051e-01f,-2.20653415e-01f,-3.39905828e-01f,
+8.73010680e-02f,+1.49904609e-01f,+4.38238502e-01f,-2.55597825e-03f,+8.24264809e-02f,
-1.82667479e-01f,-1.45040691e-01f,-5.89712188e-02f,+7.85265043e-02f,-1.13648295e-01f,
+1.32026762e-01f,-2.72682935e-01f,-1.10421754e-01f,+1.97071835e-01f,+1.23086430e-01f,
+1.29659429e-01f,+6.02453314e-02f,+1.44191295e-01f,-1.45855220e-02f,-2.26989985e-01f,
-3.65942530e-02f,-1.58218041e-01f,-1.42806336e-01f,+2.65088886e-01f,-6.16076626e-02f,
-3.32357809e-02f,-6.32716808e-04f,+1.68313116e-01f,+3.87214799e-03f,+3.67163494e-02f,
-6.60114810e-02f,-9.83120650e-02f,-1.57627910e-01f,-2.44123667e-01f,-1.57240815e-02f,
+6.11771196e-02f,-3.40680405e-02f,-2.61286080e-01f,+6.99481890e-02f,+6.73005506e-02f,
+2.40323562e-02f,+6.90782890e-02f,+2.54809976e-01f,-2.70090431e-01f,-9.47459862e-02f,
-4.11633402e-02f,-9.56279486e-02f,-1.60108693e-02f,+5.05052842e-02f,-7.26260021e-02f,
-3.17588061e-01f,-1.62086502e-01f,-3.00437272e-01f,+8.98222327e-02f,-4.71675582e-02f,
+3.95505995e-01f,+2.44106457e-01f,+2.79288113e-01f,+2.17558727e-01f,+7.96571150e-02f,
-7.69372284e-03f,-2.19026297e-01f,+6.88231597e-03f,-6.14451468e-02f,+1.27358720e-01f,
-8.76126960e-02f,+2.45332234e-02f,-2.62145787e-01f,+9.06228423e-02f,-1.33233696e-01f,
+4.58230972e-02f,-9.79234800e-02f,+2.32248902e-01f,-1.72245786e-01f,+1.09551348e-01f,
+1.10157169e-01f,-4.40067574e-02f,+2.45503008e-01f,-3.65613215e-02f,+1.98185623e-01f,
-2.26778358e-01f,-2.97567602e-02f,-1.50902830e-02f,-7.37267062e-02f,+6.30281642e-02f,
+6.92718327e-02f,-3.33432198e-01f,+2.45083094e-01f,+4.29591164e-03f,+4.51509468e-03f,
-1.26923949e-01f,-7.33102784e-02f,+8.40306003e-03f,-4.87272330e-02f,+2.45063335e-01f,
-1.59824491e-02f,+1.67838987e-02f,-1.32709220e-01f,-4.24262285e-02f,-8.64295289e-03f,
+1.79692581e-01f,-1.72685031e-02f,+4.51293170e-01f,-2.13421091e-01f,+1.03171393e-02f,
-1.60926878e-01f,+1.06524326e-01f,+7.77302906e-02f,-2.63884187e-01f,+1.77680925e-01f,
+6.92444444e-02f,+5.02732098e-02f,+2.21236140e-01f,+8.75772685e-02f,+9.39758942e-02f,
+3.60915840e-01f,-1.92507640e-01f,-5.11841998e-02f,+3.87761742e-01f,-8.12854320e-02f,
+4.28699553e-02f,+2.03776896e-01f,+3.60836126e-02f,+6.36236593e-02f,-5.48360161e-02f,
-3.69679183e-02f,+3.12667564e-02f,-6.01579398e-02f,-3.30131620e-01f,+1.28302589e-01f,
-1.86723396e-01f,-5.12373708e-02f,+5.55946454e-02f,+9.92801227e-03f,+4.31262217e-02f,
+1.74274787e-01f,-4.96641174e-02f,+1.01434067e-01f,-8.47849324e-02f,+9.02207755e-03f,
+5.06599963e-01f,-3.79814804e-02f,-1.27536997e-01f,+5.74626364e-02f,+7.45732039e-02f,
+2.38808557e-01f,-5.36309518e-02f,+9.09310579e-02f,-2.73387074e-01f,+2.63093352e-01f,
-7.82393068e-02f,-1.24819383e-01f,-7.37738684e-02f,+2.68594380e-02f,+2.88397074e-02f,
-1.38560534e-01f,+4.98364300e-01f,+2.03419968e-01f,+1.56701699e-01f,+3.05979103e-01f,
-9.80578959e-02f,+5.22997491e-02f,+1.90195873e-01f,+1.07913867e-01f,+1.27770022e-01f,
+5.55238426e-02f,+5.36412410e-02f,-3.23976427e-02f,-3.37676741e-02f,-9.50919557e-03f,
+1.64534062e-01f,+2.46822506e-01f,+1.41489670e-01f,-5.39408475e-02f,-2.97386885e-01f,
+1.93738759e-01f,-3.72596495e-02f,-3.24745655e-01f,+2.36822158e-01f,+2.45395422e-01f,
+2.51527429e-01f,-1.63979739e-01f,-9.72447246e-02f,+1.24372624e-01f,+1.42849321e-02f,
+2.08476305e-01f,-7.87946880e-02f,+6.17123283e-02f,-1.93087801e-01f,-2.35637084e-01f,
-2.64290180e-02f,+1.25877976e-01f,+1.14941008e-01f,-2.60022879e-02f,-1.04441255e-01f,
-2.40119323e-02f,-3.83965634e-02f,-2.10479096e-01f,+1.12993754e-01f,+2.26453081e-01f,
-3.59744094e-02f,+3.45440745e-01f,-1.34136423e-01f,+8.27628672e-02f,+1.07979484e-01f,
-3.25331129e-02f,-1.94523185e-02f,+1.77932918e-01f,+1.74586177e-01f,-1.71726912e-01f,
+1.16832979e-01f,+8.55147541e-02f,+1.42561600e-01f,-1.23509362e-01f,-2.42425889e-01f,
+1.51601344e-01f,-9.44507569e-02f,-4.94932793e-02f,-9.50806439e-02f,+3.02796829e-02f,
+3.49951982e-01f,+1.49243608e-01f,-1.52499989e-01f,+1.65041253e-01f,-2.11323947e-02f,
-3.95948105e-02f,+2.05670804e-01f,+1.22762777e-01f,+2.39184629e-02f,+5.87025955e-02f,
-1.28696654e-02f,-4.17726609e-04f,-7.13350764e-03f,-3.26986969e-01f,+7.09906444e-02f,
-5.70004173e-02f,-1.18418977e-01f,+1.45912051e-01f,-2.06667751e-01f,+2.08327770e-01f,
-8.22802112e-02f,-2.64036328e-01f,-2.49268100e-01f,+9.80769917e-02f,-1.02613121e-01f,
+1.93927824e-01f,+5.41096851e-02f,+6.18316382e-02f,+9.33840498e-02f,+1.36475652e-01f,
-3.30955461e-02f,-1.11505829e-01f,+3.41687500e-01f,+2.02889249e-01f,-2.01804861e-01f,
+2.74184108e-01f,-5.23415245e-02f,+9.64343324e-02f,+2.72449374e-01f,+2.63076961e-01f,
+2.68812329e-01f,-6.75510615e-02f,-1.05171539e-01f,+3.38289253e-02f,-1.75451562e-01f,
-1.48773596e-01f,+5.25481254e-03f,-5.19494228e-02f,-1.05775043e-01f,+1.81179896e-01f,
-5.88829592e-02f,-1.58247679e-01f,-6.52393512e-03f,-1.89464912e-01f,-1.46990538e-01f,
-7.72813708e-02f,+6.21668100e-02f,-1.07216537e-01f,+3.32113147e-01f,-5.81822284e-02f,
+2.89355516e-01f,-2.17319995e-01f,+9.71841067e-02f,+1.28001988e-01f,-1.68318272e-01f,
-2.15508536e-01f,+2.53940579e-02f,-2.59722531e-01f,+9.39121991e-02f,-2.96733797e-01f,
+2.29678825e-02f,+2.04554781e-01f,+3.59911293e-01f,-1.51812002e-01f,+9.81554389e-02f,
+2.66151279e-02f,-5.69200553e-02f,-9.61703900e-03f,-2.57204354e-01f,+2.41185442e-01f,
+5.03974520e-02f,+3.04614957e-02f,+3.13655362e-02f,-1.15232408e-01f,-3.95021215e-02f,
+1.07291371e-01f,+3.15298557e-01f,-5.94392093e-03f,+1.85159536e-03f,-9.78732556e-02f,
+3.69596720e-01f,-2.68112898e-01f,-2.80291364e-02f,-4.30398613e-01f,+1.54514968e-01f,
+7.74180293e-02f,+1.05378330e-02f,-5.02705462e-02f,+1.33189484e-01f,+1.30074576e-01f,
+1.80636644e-01f,-5.99209368e-02f,+1.65113598e-01f,-1.63610503e-02f,-3.28358449e-02f,
+1.78131565e-01f,+2.96461463e-01f,-1.36143845e-02f,-2.06515238e-01f,+3.58174533e-01f,
-1.04745440e-01f,-2.04780266e-01f,-3.79901350e-01f,-1.04294002e-01f,-4.85188961e-02f,
+8.49946886e-02f,-1.63235757e-02f,-1.63629562e-01f,+9.81246755e-02f,+1.37128994e-01f,
-1.09670699e-01f,+4.51306045e-01f,-3.99271864e-03f,+3.91852200e-01f,+8.33662320e-03f,
-2.01109052e-01f,+1.05712965e-01f,-4.78901446e-01f,+3.50491792e-01f,-9.65862200e-02f,
+5.48321716e-02f,-5.11331916e-01f,+1.43260971e-01f,+3.82668599e-02f,+6.37382045e-02f,
+3.89101766e-02f,-1.33633628e-01f,+1.14683593e-02f,+2.20354460e-02f,-1.99032411e-01f,
+8.15526024e-02f,+1.08260803e-01f,-1.38460338e-01f,+2.42755845e-01f,+1.30444869e-01f,
-1.05254121e-01f,-2.98595190e-01f,-6.56862333e-02f,+2.26273172e-04f,-1.02931902e-01f,
+4.69046891e-01f,+4.30451371e-02f,-1.29261175e-02f,-9.47335139e-02f,+2.51318395e-01f,
-5.76302782e-02f,+1.09270543e-01f,+2.83140000e-02f,-1.82206988e-01f,+7.89219290e-02f,
+2.36110911e-01f,-1.89626485e-01f,+2.63626933e-01f,-1.78636611e-01f,+7.51083866e-02f,
-3.69597860e-02f,+2.02070922e-01f,+3.94635424e-02f,+1.01113342e-01f,+1.17140666e-01f,
+6.64015040e-02f,+4.47373122e-01f,+1.91624891e-02f,-1.44315660e-01f,+1.88714579e-01f,
+8.03250298e-02f,-5.18434830e-02f,-3.20868284e-01f,+2.43045196e-01f,+2.05405176e-01f,
+2.95127690e-01f,+1.32888928e-01f,+2.42147803e-01f,+3.85285944e-01f,+1.15160927e-01f,
-2.11732194e-01f,+2.18221650e-01f,-2.74445742e-01f,-1.78193033e-01f,+1.36741892e-01f,
+1.57572970e-01f,-6.62691146e-02f,+2.24248469e-01f,-1.34999026e-02f,+1.47470444e-01f,
-5.00403792e-02f,-1.73747286e-01f,-6.62142485e-02f,+2.58613378e-01f,-1.68136768e-02f,
+1.53154701e-01f,+1.43249735e-01f,-6.50506914e-02f,-8.54886174e-02f,+5.43773353e-01f,
-2.09317893e-01f,-1.82514787e-01f,+2.01762751e-01f,-2.12571666e-01f,+1.16157141e-02f,
+2.66697109e-01f,-6.56363294e-02f,+7.97662660e-02f,+1.81947216e-01f,-1.19137093e-01f,
+8.33488330e-02f,-1.26902643e-03f,-1.87244773e-01f,-2.05445692e-01f,+1.69663399e-01f,
-1.56138882e-01f,-3.77967566e-01f,-3.67070198e-01f,+1.86749116e-01f,-6.96288273e-02f,
+5.56634180e-02f,+2.82080203e-01f,-4.63302359e-02f,+4.87453155e-02f,-2.26977661e-01f,
+2.64868051e-01f,-6.22622408e-02f,-1.41034275e-01f,-6.95677195e-03f,+3.83289568e-02f,
+4.41966616e-02f,-6.84508979e-02f,-1.74204916e-01f,+1.27792612e-01f,+2.62167826e-02f,
-4.03217636e-02f,-1.09854311e-01f,+5.39796427e-02f,+2.37390712e-01f,-3.52777094e-01f,
-1.57380030e-01f,+1.34218037e-01f,+8.67647231e-02f,-2.89080502e-03f,-1.11296535e-01f,
+9.60341014e-04f,-4.05157283e-02f,+2.13058777e-02f,-2.32469141e-01f,-2.80885696e-01f,
-1.07217968e-01f,+1.18826456e-01f,-8.27193782e-02f,-4.36020941e-02f,+2.23866895e-01f,
+2.61364490e-01f,+1.48586050e-01f,+1.11786820e-01f,+1.19373903e-01f,-3.24539561e-03f,
+2.33840242e-01f,+5.08518144e-03f,-9.49554667e-02f,-3.70435379e-02f,+1.48479849e-01f,
-1.90710694e-01f,+1.84789583e-01f,-6.72234669e-02f,+1.11824051e-02f,-2.88651466e-01f,
+1.84525713e-01f,+1.91843584e-01f,-1.43201455e-01f,+1.97996721e-01f,+2.40690708e-02f,
+1.58029899e-01f,-2.01095223e-01f,+1.35558054e-01f,+1.57624081e-01f,+1.94183841e-01f,
+7.94005692e-02f,+1.31699950e-01f,+8.79578739e-02f,-1.65553749e-01f,+2.53188014e-01f,
+2.98223048e-01f,-1.19154125e-01f,+2.21327335e-01f,-1.56915814e-01f,+3.49964738e-01f,
-1.41270310e-01f,+6.19218573e-02f,+9.13095102e-02f,+2.23170310e-01f,+4.72833738e-02f,
-1.39782667e-01f,+2.43837327e-01f,-2.26455003e-01f,-1.15787402e-01f,+6.30277023e-02f,
-9.86389145e-02f,+2.56470721e-02f,-9.18218121e-02f,-1.67165473e-02f,+1.20015234e-01f,
-2.47047499e-01f,-3.70850898e-02f,+9.83675867e-02f,+1.39682785e-01f,+1.87165260e-01f,
+1.94516238e-02f,+1.44873917e-01f,-6.97352067e-02f,-2.26045653e-01f,-1.67625472e-01f,
+1.08585820e-01f,+2.93530345e-01f,+2.71259904e-01f,-8.99511352e-02f,-1.19663449e-03f,
+3.27916831e-01f,-2.69276232e-01f,-2.48947367e-01f,+7.89213926e-02f,-2.44568735e-02f,
+1.00403406e-01f,+1.02014937e-01f,-1.80437341e-01f,+3.88373174e-02f,+6.21297769e-02f,
+1.57140121e-01f,+4.78642732e-02f,-4.69616801e-01f,+8.16409364e-02f,-8.31179321e-02f,
-4.01876606e-02f,+2.69255280e-01f,-1.78102870e-02f,-7.32352287e-02f,+5.72979599e-02f,
+2.87100732e-01f,+8.97057354e-02f,+1.56358257e-01f,-4.72501993e-01f,-6.81372210e-02f,
-9.36056301e-02f,+3.73840809e-01f,-2.13952646e-01f,+6.63423613e-02f,+3.31874430e-01f,
+2.22978041e-01f,+3.45995687e-02f,-1.27288625e-01f,+8.95408988e-02f,+8.96455534e-03f,
-2.47201789e-03f,-4.99864742e-02f,-2.86012381e-01f,-1.87206060e-01f,+3.93724442e-02f,
-1.35263741e-01f,-1.19569361e-01f,+4.35119011e-02f,-4.12482992e-02f,-1.04071192e-01f,
+2.13336926e-02f,-6.73423409e-02f,-1.42200604e-01f,+1.80421859e-01f,+3.29579741e-01f,
-2.99092308e-02f,-6.77218735e-02f,-2.90130079e-01f,+3.31952274e-01f,+1.39738113e-01f,
+1.44453168e-01f,+1.84537306e-01f,-1.94693476e-01f,-1.63985956e-02f,-5.49471080e-02f,
-3.31186086e-01f,+2.59111881e-01f,+1.48425683e-01f,-6.74096048e-02f,-1.72968164e-01f,
+1.26522556e-01f,+8.98363814e-02f,+1.76681206e-03f,+1.40152067e-01f,-3.52463359e-03f,
-5.80342412e-01f,-2.13490114e-01f,-3.43257189e-02f,+3.46758157e-01f,+2.86985040e-01f,
-5.73999323e-02f,-1.83331788e-01f,+5.32406149e-03f,-5.45598678e-02f,-3.90897319e-02f,
+8.50327164e-02f,+1.48319721e-01f,+1.54850081e-01f,+3.52905422e-01f,+1.55739421e-02f,
+1.59554735e-01f,+1.39251009e-01f,+1.56957388e-01f,+2.88502246e-01f,-7.86501467e-02f,
+1.34204417e-01f,-9.98128355e-02f,+3.54587257e-01f,-1.82610735e-01f,+1.77092597e-01f,
+9.35032815e-02f,-3.27330440e-01f,+1.09585278e-01f,-2.06715420e-01f,+9.79538932e-02f,
-4.20875773e-02f,+2.34754547e-01f,-1.37456417e-01f,-1.03986628e-01f,+3.50398347e-02f,
-3.98318321e-02f,-5.42809740e-02f,+6.04384392e-02f,-1.11357488e-01f,+2.86232144e-01f,
+1.22190341e-01f,+1.67151079e-01f,+2.31526554e-01f,-1.07418075e-01f,-8.87643322e-02f,
-2.89629191e-01f,-1.23861926e-02f,+4.12890017e-01f,+4.08636965e-03f,-4.71176833e-01f,
+6.71091080e-02f,-4.78636753e-03f,-1.53913036e-01f,-5.48469052e-02f,-3.62257272e-01f,
+1.35900617e-01f,+2.76930742e-02f,-1.37214527e-01f,-1.17930308e-01f,-3.19297403e-01f,
+1.91161856e-01f,+2.21832201e-01f,+1.48405209e-01f,-7.74927661e-02f,-1.77434050e-02f,
-3.00968289e-01f,-1.55143887e-01f,+9.20791179e-02f,-1.43405169e-01f,-1.39803097e-01f,
+1.01657368e-01f,+1.27526060e-01f,-1.96736068e-01f,-1.32325679e-01f,+5.62301576e-02f,
+3.47224832e-01f,+1.44765556e-01f,-3.87330711e-01f,+5.90310767e-02f,+2.61523366e-01f,
-4.46724519e-02f,-2.00907066e-02f,+3.09523106e-01f,-1.14035964e-01f,+1.99063003e-01f,
-2.38737375e-01f,-1.36019200e-01f,-3.58133502e-02f,-9.74202603e-02f,-2.42891923e-01f,
+3.69447201e-01f,+9.24103856e-02f,-3.69760208e-02f,-5.45534492e-02f,-2.66993970e-01f,
+6.58062696e-02f,+3.77266765e-01f,-7.30811134e-02f,+1.90313701e-02f,-6.94927154e-03f,
-1.94419608e-01f,-2.44456649e-01f,-1.35352254e-01f,+5.71546927e-02f,+1.24299377e-01f,
+2.22665310e-01f,+4.44894023e-02f,-2.81906556e-02f,+6.19071424e-02f,-9.96607542e-02f,
+5.36490679e-02f,+5.62918000e-02f,+1.68188056e-03f,+1.73765957e-01f,-1.18609719e-01f,
-1.84448674e-01f,-1.99355129e-02f,+1.79037452e-01f,+2.59320319e-01f,+7.46586770e-02f,
+1.22126877e-01f,-2.91593075e-01f,-1.58682521e-02f,-2.34443620e-01f,-1.08923852e-01f,
-3.38535309e-02f,-1.55130967e-01f,+1.59577638e-01f,+1.00229107e-01f,+1.98164627e-01f,
+6.98633939e-02f,+2.31243551e-01f,+3.12917799e-01f,-3.17370594e-01f,-1.10727184e-01f,
+2.58121163e-01f,+1.15010045e-01f,+5.25371507e-02f,-1.39372557e-01f,+2.13532954e-01f,
+1.91838637e-01f,-1.45588905e-01f,+2.81273067e-01f,-2.46662963e-02f,-1.46300113e-02f,
-1.51515499e-01f,-1.29465550e-01f,+2.14770004e-01f,-1.16868958e-01f,+1.39477745e-01f,
-1.10867798e-01f,+4.95991334e-02f,-4.94286902e-02f,+4.74197790e-02f,-2.02027895e-02f,
-7.21336231e-02f,-2.09212109e-01f,-1.09147660e-01f,-2.22456470e-01f,+1.12067044e-01f,
+1.52043611e-01f,-5.46146147e-02f,-3.71364579e-02f,+8.63677561e-02f,+3.65894884e-01f,
-6.27683699e-02f,+1.05807111e-01f,-3.45371589e-02f,-1.53029785e-01f,-2.05277994e-01f,
+1.67653099e-01f,-2.82171935e-01f,-1.81704476e-01f,-1.20421454e-01f,-4.88748290e-02f,
+1.86530247e-01f,-6.80923415e-03f,+2.14308307e-01f,-1.31765187e-01f,+1.30347714e-01f,
-3.17673534e-02f,-8.72920454e-02f,-6.10481091e-02f,+1.22856200e-01f,+2.08349913e-01f,
+1.05569497e-01f,+2.43684985e-02f,-6.97575733e-02f,+1.05698951e-01f,+7.08782533e-03f,
+1.55235082e-01f,-9.84519571e-02f,-2.22098991e-01f,+2.61831373e-01f,+9.19668451e-02f,
+3.38496625e-01f,+5.40343635e-02f,-4.01569307e-02f,-4.07043435e-02f,+1.91296674e-02f,
-2.23345995e-01f,+1.11209176e-01f,-4.43462692e-02f,+2.01739922e-01f,-1.98999159e-02f,
+2.57950407e-02f,-1.41659344e-03f,+2.27188990e-02f,+1.62567332e-01f,-7.23435357e-03f,
+3.10669482e-01f,+1.54588819e-01f,+9.66744199e-02f,-4.91498895e-02f,+2.91428878e-03f,
+2.07676813e-01f,+1.51831567e-01f,-4.94181225e-03f,+5.31702861e-02f,-1.72687918e-01f,
+6.57986104e-02f,-9.08770505e-03f,+9.60762873e-02f,+6.23513870e-02f,-9.58618894e-03f,
-1.70101598e-01f,+8.82855058e-02f,-3.79729494e-02f,-1.73384562e-01f,+2.43481129e-01f,
-7.81097785e-02f,+1.24143444e-01f,+1.24445736e-01f,+2.19327986e-01f,+1.92243367e-01f,
-2.06653159e-02f,+1.40407562e-01f,+3.15661952e-02f,+8.82581472e-02f,+1.09243825e-01f,
+8.24676827e-02f,-1.39881268e-01f,+1.48582235e-02f,+6.59906790e-02f,+2.54336238e-01f,
-1.76863931e-02f,-5.40464893e-02f,+1.67903937e-02f,+3.60416770e-02f,+1.59972593e-01f,
-2.04418182e-01f,-1.50061762e-02f,-1.75926536e-02f,-1.53396884e-02f,-1.63857952e-01f,
+5.18913120e-02f,+6.73636571e-02f,+1.45999551e-01f,+3.62675667e-01f,+3.03365350e-01f,
-9.00691673e-02f,+4.31008777e-03f,+2.92002618e-01f,+2.84422133e-02f,+1.53032020e-01f,
+4.45777960e-02f,-6.79820627e-02f,-1.17437840e-01f,-6.44667447e-02f,+8.34657699e-02f,
-3.21680009e-01f,+3.94671224e-02f,-1.72398277e-02f,-6.11519292e-02f,+3.07376739e-02f,
+1.47101238e-01f,-1.69094086e-01f,-1.40669703e-01f,-9.45557728e-02f,+2.05354854e-01f,
-1.80404678e-01f,-9.47671905e-02f,-2.04007789e-01f,-1.43974483e-01f,-4.48770560e-02f,
-1.23957559e-01f,+1.28209978e-01f,+6.87980577e-02f,+9.20718610e-02f,+1.62894771e-01f,
+2.42427170e-01f,-6.85951039e-02f,-1.32709205e-01f,-3.58142555e-01f,+2.34412566e-01f,
-1.53753042e-01f,-1.78162217e-01f,+3.46086659e-02f,-1.21055841e-01f,+2.66554773e-01f,
-1.03411980e-01f,+1.20441271e-02f,-4.85390425e-02f,-4.83500250e-02f,-7.46204406e-02f,
+4.97827232e-02f,+2.30521023e-01f,-1.04994260e-01f,+2.85857003e-02f,-2.07137410e-03f,
+9.17257741e-02f,-1.27009004e-01f,+4.74173091e-02f,-3.90563421e-02f,+1.00804046e-01f,
-5.68299554e-03f,-9.61774439e-02f,-1.09487228e-01f,+2.02100992e-01f,-1.80492073e-01f,
-2.42156181e-02f,+1.79911837e-01f,-1.94217399e-01f,-1.72929484e-02f,+3.22810471e-01f,
-9.66354162e-02f,+3.37167364e-03f,+3.83352935e-02f,-2.47029692e-01f,-1.24383323e-01f,
-1.69850364e-01f,+6.12948947e-02f,-1.77329704e-01f,-2.68711448e-01f,+1.40273198e-01f,
-7.68434629e-02f,-2.49553412e-01f,-1.03515320e-01f,-9.72146988e-02f,-2.08986640e-01f,
-1.14471495e-01f,+1.16195537e-01f,+9.06476453e-02f,-1.43685834e-02f,+2.99754157e-03f,
+1.70222491e-01f,-9.60158184e-02f,+2.82491237e-01f,-1.69940777e-02f,+1.50178894e-01f,
+1.79535329e-01f,-1.27049446e-01f,-1.36141986e-01f,-6.44752830e-02f,+1.99918151e-01f,
-4.94770110e-02f,+8.35538283e-02f,+7.52453730e-02f,+4.05017763e-01f,+6.10043928e-02f,
-7.08662793e-02f,+8.17704573e-02f,+2.60826975e-01f,+9.43483114e-02f,-2.48447686e-01f,
-2.59339690e-01f,-1.50545508e-01f,-9.68258530e-02f,-9.86814871e-02f,+1.56832084e-01f,
+4.10458148e-02f,-7.53517598e-02f,-2.83066053e-02f,+1.79186240e-01f,-1.14642091e-01f,
+3.49217989e-02f,+1.64782941e-01f,-4.84292619e-02f,+1.40490949e-01f,+6.38762042e-02f,
-6.16383478e-02f,-3.78522843e-01f,-1.09291561e-01f,+1.58216864e-01f,+1.59735098e-01f,
+1.47893593e-01f,+3.18650715e-02f,+4.65298966e-02f,+1.57969564e-01f,+1.21495139e-03f,
+2.52807438e-01f,+8.52640867e-02f,+2.97550708e-01f,+1.64767966e-01f,+1.99440897e-01f,
+6.18596328e-03f,-3.23314569e-03f,-1.74445454e-02f,-1.35319963e-01f,-2.75238194e-02f,
-1.96319863e-01f,+1.51610794e-02f,+2.62319118e-01f,+4.74095233e-02f,+6.90976679e-02f,
-1.21932268e-01f,-8.26203004e-02f,-4.24307510e-02f,-1.93109468e-01f,+1.78118169e-01f,
-8.06757808e-03f,+2.95544297e-01f,-1.57163486e-01f,-6.77761734e-02f,-5.89582063e-02f,
-1.75268516e-01f,+1.60706088e-01f,-1.06577903e-01f,+8.84919837e-02f,+2.68613577e-01f,
+2.38202780e-01f,+4.49003577e-02f,-8.91875327e-02f,+1.56951472e-01f,+6.77598342e-02f,
-1.15686588e-01f,-9.12024155e-02f,-5.49048260e-02f,-1.16788179e-01f,-1.34270549e-01f,
+6.92630261e-02f,+1.19411275e-02f,+2.93573141e-01f,+1.72621384e-01f,-1.37294784e-01f,
+1.53234020e-01f,+8.72814655e-02f,-5.66792733e-04f,+5.91509938e-02f,-1.15895577e-01f,
-8.56071413e-02f,-1.48884669e-01f,-6.29652068e-02f,+3.45349312e-02f,+8.56732577e-03f,
+3.13745439e-02f,+1.57801017e-01f,+2.88113598e-02f,-1.04969442e-01f,-4.90042707e-03f,
+6.13674968e-02f,+1.42791659e-01f,+1.25098765e-01f,-5.77775724e-02f,-2.88610030e-02f,
+3.64243723e-02f,+1.71560094e-01f,+1.06752448e-01f,+7.44858831e-02f,-4.03413326e-02f,
-1.50680751e-01f,+1.48863658e-01f,+4.53619659e-02f,-2.31604651e-01f,-7.51220062e-03f,
+2.38580424e-02f,-2.53180057e-01f,-1.52381659e-01f,+3.20626795e-01f,-1.48613542e-01f,
-1.39767984e-02f,+2.57545263e-01f,-2.71542639e-01f,-5.65369613e-02f,+3.18037421e-02f,
+2.37926036e-01f,+3.42427492e-02f,+9.00026411e-02f,-1.07934419e-02f,+5.07284887e-02f,
+7.28594810e-02f,+7.10488670e-03f,-1.39322087e-01f,+1.13781080e-01f,-1.99192092e-02f,
+1.90357342e-02f,+7.77445212e-02f,+1.77025899e-01f,-1.07340887e-01f,+1.71214446e-01f,
+1.18882926e-02f,-3.10503662e-01f,+1.35816084e-02f,+1.52187422e-01f,-1.73912719e-01f,
+2.58572139e-02f,-4.03409861e-02f,+8.17233101e-02f,+2.01431319e-01f,-1.17503002e-01f,
-4.10338938e-02f,+4.26279306e-02f,-1.15657814e-01f,+2.52594519e-02f,+9.73357353e-03f,
+1.72422096e-01f,+2.89278299e-01f,-1.00016654e-01f,+2.12434366e-01f,-1.32762371e-02f,
+5.46338176e-03f,-1.09196268e-02f,+1.20065622e-01f,-1.86717182e-01f,+3.36517990e-01f,
+5.62559739e-02f,-7.28574842e-02f,-5.13419099e-02f,+1.27960294e-01f,-1.35674272e-02f,
-2.08525464e-01f,-1.79486759e-02f,+6.69604093e-02f,+5.85760586e-02f,-2.01477259e-01f,
-3.44447076e-01f,+1.24541864e-01f,-1.35702074e-01f,-1.65739749e-02f,-6.07062429e-02f,
-4.93479781e-02f,+7.33114630e-02f,-2.53830165e-01f,-1.61455482e-01f,+2.20460460e-01f,
+2.19757661e-01f,+8.30157008e-03f,+1.19678833e-01f,-1.89280391e-01f,-7.50995427e-03f,
+1.69510301e-02f,+2.98581701e-02f,+4.50117402e-02f,+7.80799761e-02f,+7.06492737e-02f,
-3.17722827e-01f,-1.07105091e-01f,-2.10522458e-01f,+3.43585350e-02f,+2.22520217e-01f,
-1.13461446e-03f,-8.30641687e-02f,-7.72840306e-02f,-3.18284303e-01f,+4.06684995e-01f,
-1.92524374e-01f,-2.25413680e-01f,-3.67994718e-02f,+1.30914524e-01f,-2.81438436e-02f,
+1.08254328e-01f,+2.82415181e-01f,-2.05420196e-01f,-5.11636660e-02f,-2.05619186e-01f,
+6.92349225e-02f,+8.15085694e-02f,-8.85135084e-02f,+2.57427990e-01f,+1.55517951e-01f,
+1.67946026e-01f,-1.99465513e-01f,+7.20649883e-02f,+5.40538616e-02f,+2.76449621e-02f,
+2.05968425e-01f,+2.03901216e-01f,+1.82353720e-01f,+6.55803010e-02f,-3.44106853e-02f,
+8.09715986e-02f,+1.26173869e-01f,+2.04781950e-01f,+4.20482531e-02f,+7.50398561e-02f,
+7.86499679e-02f,-2.30671123e-01f,+4.75034639e-02f,-2.67174989e-01f,+1.82103768e-01f,
-1.58439148e-02f,-5.62873185e-02f,-8.54872316e-02f,-1.05699264e-01f,+9.53509286e-02f,
+1.26328349e-01f,-1.02805130e-01f,-1.30109295e-01f,-4.64718416e-03f,+8.81962925e-02f,
+8.35763738e-02f,-1.32480979e-01f,-6.81882501e-02f,+9.14365947e-02f,-7.20924661e-02f,
+1.92230232e-02f,-2.74598040e-02f,+1.66806608e-01f,-2.03186914e-01f,+1.22726589e-01f,
-5.33931283e-03f,+4.44778800e-02f,+1.29658625e-01f,-5.79447187e-02f,+6.62297457e-02f,
-3.93420942e-02f,+1.50950402e-01f,-2.06485569e-01f,+9.78057459e-02f,-7.85522535e-03f,
+7.88447708e-02f,-1.80908646e-02f,-1.78145632e-01f,+1.57227322e-01f,+9.61235315e-02f,
+1.10569872e-01f,-4.64801975e-02f,+2.47677639e-01f,-6.73854724e-02f,+1.78212598e-01f,
+1.35528550e-01f,+1.91854045e-01f,-7.76252970e-02f,-4.84701917e-02f,-1.62040561e-01f,
-1.06835279e-04f,-1.42330080e-01f,-4.54086289e-02f,+5.47800586e-02f,-1.36875898e-01f,
-1.50833994e-01f,-3.46906781e-02f,-2.29253829e-01f,-1.47704601e-01f,-1.76482163e-02f,
+7.30228126e-02f,-7.72435870e-03f,+4.94182184e-02f,-1.65185630e-02f,-1.21975586e-01f,
+1.03812076e-01f,-3.09331626e-01f,-1.17518112e-01f,-4.49565649e-02f,-1.97519541e-01f,
-2.24280328e-01f,+4.90887687e-02f,-6.21459261e-02f,-8.38100016e-02f,+7.04690591e-02f,
-1.10546060e-01f,+1.11619700e-02f,-2.22260088e-01f,-1.23724192e-01f,-1.79767869e-02f,
-4.06428240e-02f,+5.06881252e-02f,+5.99403493e-02f,-3.01924556e-01f,+1.49168575e-03f,
+2.56205440e-01f,+1.06302902e-01f,-3.69889848e-03f,+3.09108268e-03f,-2.32898314e-02f,
-9.41561311e-02f,-6.34864643e-02f,+8.67425799e-02f,-3.03150099e-02f,+7.33850598e-02f,
+2.69378662e-01f,-8.14724192e-02f,+6.65083006e-02f,+1.13573316e-02f,-2.71020867e-02f,
+1.83750063e-01f,+2.95426637e-01f,-3.47215915e-03f,-3.14572118e-02f,-3.60833593e-02f,
+7.55444095e-02f,+1.23238102e-01f,-8.52958336e-02f,-4.97883782e-02f,-2.56917685e-01f,
+5.92060350e-02f,-1.14143729e-01f,+8.81827250e-02f,+1.08316958e-01f,-1.38420522e-01f,
+1.23820938e-01f,+7.39305690e-02f,+1.18095405e-01f,+8.81414041e-02f,-2.62238294e-01f,
+4.74063046e-02f,+8.00438970e-02f,-1.04195088e-01f,-8.62871408e-02f,-5.01340395e-03f,
+3.49815995e-01f,+2.04224333e-01f,-1.38866395e-01f,+2.53259875e-02f,+4.44777347e-02f,
+2.39726692e-01f,-5.49988188e-02f,+1.20789468e-01f,-3.06894816e-02f,-8.22247714e-02f,
+2.24282257e-02f,-2.07717732e-01f,-7.22882822e-02f,+1.49566039e-01f,+9.62964445e-02f,
-2.18343198e-01f,-1.73166692e-01f,+5.20496927e-02f,+2.02151358e-01f,-8.50735977e-02f,
+6.74178675e-02f,+6.23269603e-02f,+8.74145180e-02f,-1.63886249e-02f,-4.41255085e-02f,
+1.29650876e-01f,-9.21141431e-02f,+7.92065561e-02f,-3.61589380e-02f,-1.83241218e-01f,
-5.93938045e-02f,-3.18148099e-02f,+4.56676446e-02f,+4.80661690e-02f,+2.01436803e-01f,
-3.29158530e-02f,-3.77056487e-02f,+1.31765887e-01f,+3.18344682e-01f,-1.27864525e-01f,
+1.22812405e-01f,+7.72634670e-02f,+2.60843515e-01f,-4.55851108e-02f,+8.56127292e-02f,
+3.80118608e-01f,-5.41915894e-02f,+2.12400541e-01f,-1.75304171e-02f,+2.11589292e-01f,
+3.12392171e-02f,-4.00638357e-02f,+2.10726392e-02f,-7.85419066e-03f,+9.40253735e-02f,
-2.00152397e-01f,+1.55962482e-01f,+8.40837359e-02f,+1.03414707e-01f,+9.13631916e-03f,
+3.27198096e-02f,+1.67808831e-01f,-1.20575495e-01f,+1.02684744e-01f,+7.42861703e-02f,
-7.92623088e-02f,+6.90289140e-02f,+2.83951253e-01f,-1.38436764e-01f,+6.69168010e-02f,
+3.71895656e-02f,+3.10539431e-03f,+1.44127846e-01f,-1.40122771e-01f,-4.19005565e-02f,
+1.80798784e-01f,+7.96379149e-02f,+1.38287514e-01f,-7.39486217e-02f,-3.00590277e-01f,
+8.41704905e-02f,-1.56013250e-01f,-1.62388757e-01f,-2.03575104e-01f,-1.48980752e-01f,
-1.80653840e-01f,-2.03140043e-02f,+1.40999733e-02f,+2.92614996e-02f,-4.10794420e-03f,
+2.71127783e-02f,+1.62537321e-01f,-1.01103857e-01f,+6.67776838e-02f,-1.00141101e-01f,
-9.97678041e-02f,+5.71349151e-02f,-1.61691070e-01f,+7.20692277e-02f,+1.45261556e-01f,
+6.10394627e-02f,+1.60522282e-01f,+4.43690568e-02f,-6.49871230e-02f,-4.07694280e-02f,
-4.48014401e-02f,-9.55079794e-02f,+1.34314388e-01f,+2.59217739e-01f,-2.01540008e-01f,
-1.19871922e-01f,+1.92781717e-01f,-1.11925110e-01f,+1.65186241e-01f,+2.20176101e-01f,
-1.19795069e-01f,-2.53703184e-02f,+7.11741969e-02f,+3.96608934e-02f,-2.08638310e-01f,
-3.15475076e-01f,+3.04939449e-01f,+9.87912994e-03f,-2.65374519e-02f,+2.08810791e-01f,
-5.40363342e-02f,-2.24104717e-01f,+2.27846935e-01f,+3.50583941e-02f,+8.69666487e-02f,
-1.08032443e-01f,+1.32206768e-01f,+5.09256646e-02f,-2.81605065e-01f,-3.65913101e-02f,
-3.02165542e-02f,-1.04757734e-01f,-1.89895760e-02f,-1.32556871e-01f,+3.20137084e-01f,
-5.01958607e-03f,+2.79102057e-01f,-4.46695499e-02f,+1.37233153e-01f,-8.30923840e-02f,
+2.31121518e-02f,+1.52632132e-01f,+1.44607112e-01f,-1.01295970e-01f,-3.88943166e-01f,
-2.84825355e-01f,-1.46310642e-01f,+3.49095557e-04f,+2.39619985e-01f,-1.96949039e-02f,
-1.39619559e-02f,+1.54743567e-02f,+1.80801257e-01f,+2.90065736e-01f,+2.84314100e-02f,
+2.84897536e-01f,+2.11305976e-01f,+1.35763794e-01f,-3.59652005e-02f,-1.37902483e-01f,
+9.52761918e-02f,+5.83055876e-02f,+5.29637709e-02f,+9.57363620e-02f,+3.30742925e-01f,
+2.26139560e-01f,-9.97782871e-02f,-3.74193490e-02f,+1.30699158e-01f,+2.01560169e-01f,
+1.58837840e-01f,-1.12683780e-01f,+5.32393493e-02f,+9.59080607e-02f,-2.38341853e-01f,
-2.71312416e-01f,+4.53371778e-02f,-2.52335787e-01f,-1.01170093e-01f,-2.33835027e-01f,
+1.08225472e-01f,-1.37699515e-01f,+9.66885686e-02f,+1.57283351e-01f,+2.04030201e-01f,
+2.36708708e-02f,-1.59870416e-01f,-2.11647987e-01f,-4.95457761e-02f,-1.41472623e-01f,
+3.54640931e-01f,+2.85351098e-01f,+1.46506906e-01f,-2.65315384e-01f,+6.42782673e-02f,
+7.09700808e-02f,-6.87725842e-02f,+1.64931402e-01f,+4.13780101e-02f,+1.00529008e-01f,
-5.52526228e-02f,+3.20553690e-01f,-2.02738009e-02f,+5.29562533e-01f,+3.35577846e-01f,
+7.25854561e-02f,+2.96056569e-01f,-6.47230912e-03f,+1.37654215e-01f,-1.93644129e-02f,
+2.28229284e-01f,+9.40145776e-02f,-5.01233451e-02f,+3.08048520e-02f,-4.76177841e-01f,
+2.18575358e-01f,-1.49790747e-02f,-3.57568040e-02f,+1.55356646e-01f,+3.17960054e-01f,
-2.06640884e-01f,+1.11820370e-01f,-1.97109580e-01f,-3.91800962e-02f,+2.00366646e-01f,
-1.40993312e-01f,-9.90151539e-02f,-1.17059954e-01f,+6.07170537e-02f,+5.80812171e-02f,
+1.62228674e-01f,-8.36618990e-02f,-1.07670575e-01f,-1.56110495e-01f,-7.13290926e-03f,
-2.20752671e-01f,-2.89629102e-01f,+2.21334472e-01f,-1.75592899e-01f,+2.07896709e-01f,
-1.81770310e-01f,+1.75787285e-01f,-1.91075936e-01f,+9.51747596e-02f,+3.41642886e-01f,
+6.81464970e-02f,-6.69025350e-03f,-1.35191111e-02f,+5.27861230e-02f,-7.57595003e-02f,
+2.16593027e-01f,+5.14979847e-02f,+8.45301896e-02f,+3.19707125e-01f,-3.15631062e-01f,
-6.67827725e-02f,+8.48003179e-02f,+3.10066372e-01f,-2.05079049e-01f,+1.45359516e-01f,
+4.27983195e-01f,-9.56219248e-03f,-3.04252114e-02f,+8.77572037e-03f,+1.48603067e-01f,
-8.48617777e-02f,+1.16500430e-01f,+3.60582054e-01f,+1.61782339e-01f,+1.33043319e-01f,
-4.60604700e-04f,+1.26329362e-01f,+1.72817037e-01f,-7.92948604e-02f,-1.87518299e-01f,
-9.73390192e-02f,+1.25402808e-01f,+1.64852768e-01f,+1.59060463e-01f,-3.79505724e-01f,
+2.04466078e-02f,+3.15799974e-02f,+1.57151818e-01f,+1.66000556e-02f,-1.81244969e-01f,
+8.97389799e-02f,-9.72356927e-03f,+1.97582766e-01f,-2.01407485e-02f,+1.41086355e-01f,
+5.61800748e-02f,-1.32277042e-01f,+1.21955298e-01f,+8.02478939e-02f,-1.47699580e-01f,
+8.36693943e-02f,-1.27103016e-01f,+1.71894550e-01f,+2.07243830e-01f,+5.61654419e-02f,
-5.74989840e-02f,+2.08794221e-01f,+8.24497491e-02f,+7.19921216e-02f,-1.28473565e-01f,
+5.97801246e-02f,+1.43830895e-01f,-3.36361468e-01f,+8.59702453e-02f,-2.03377500e-01f,
-7.42454827e-02f,+5.09589836e-02f,-7.98030943e-02f,+3.71632986e-02f,+6.11134432e-02f,
-9.72345322e-02f,+3.29601243e-02f,+9.08738598e-02f,+1.37166649e-01f,-1.77935123e-01f,
+1.02332998e-02f,+1.24516092e-01f,+1.34170741e-01f,+1.39325947e-01f,-1.91170231e-01f,
+1.89119816e-01f,-1.88767105e-01f,+1.65993676e-01f,+1.72141328e-01f,+4.46017571e-02f,
+1.18409246e-01f,+1.51678815e-01f,-1.41562536e-01f,+1.09874524e-01f,+9.65942815e-02f,
+2.32567221e-01f,-3.72858569e-02f,-1.13709001e-02f,+9.58447345e-04f,+2.07693037e-02f,
-1.40082851e-01f,+3.95140313e-02f,+6.08879514e-02f,+1.61177412e-01f,+1.95318386e-01f,
-1.32952303e-01f,-9.89485383e-02f,+8.41212124e-02f,-1.33809179e-01f,+1.45572096e-01f,
+2.70467401e-01f,+2.14202240e-01f,-1.11053549e-01f,-2.42867693e-01f,+1.34619633e-02f,
-3.04551255e-02f,-3.25146839e-02f,-1.18888959e-01f,+3.50702405e-02f,+5.52308857e-02f,
-2.26303205e-01f,-3.61712515e-01f,+2.33809520e-02f,-7.35631064e-02f,-1.22038089e-01f,
+2.32251119e-02f,-5.32696620e-02f,+7.05408975e-02f,+1.47157356e-01f,-1.52085304e-01f,
+3.24325919e-01f,+9.25022885e-02f,+1.44431636e-01f,+1.29678715e-02f,+3.48483503e-01f,
-3.54986995e-01f,+1.86949834e-01f,-2.11044490e-01f,+1.98358502e-02f,+1.65061161e-01f,
+1.28266902e-03f,+9.70016792e-02f,-1.53182849e-01f,+3.01986158e-01f,-2.54448578e-02f,
-8.16038996e-03f,-9.06801969e-02f,+1.14955857e-01f,-9.56690460e-02f,+6.32063523e-02f,
+5.08748889e-02f,-6.00623414e-02f,+8.23184550e-02f,+8.10964108e-02f,+2.43654907e-01f,
-1.36186704e-02f,+5.64228483e-02f,+2.34396085e-01f,+3.45040858e-02f,-1.05830431e-01f,
+6.37944937e-02f,-8.44122395e-02f,+8.44859779e-02f,+1.88413456e-01f,+1.18527740e-01f,
-4.76869941e-02f,+1.29253477e-01f,-2.42943317e-01f,-1.22188851e-01f,+7.80826956e-02f,
-1.49918452e-01f,+1.62072375e-01f,-1.10967830e-01f,+2.26945996e-01f,-8.48284960e-02f,
+6.56039044e-02f,-7.42041320e-02f,+3.64513844e-02f,+1.19126057e-02f,-8.79369229e-02f,
+6.88925236e-02f,+1.03092931e-01f,-1.33913040e-01f,+7.02989623e-02f,-1.72802374e-01f,
+1.55291120e-02f,+2.56595463e-01f,-2.83229768e-01f,+1.53996989e-01f,+8.22869763e-02f,
-3.94955188e-01f,-1.15883090e-01f,+1.01413205e-02f,-1.34054706e-01f,+3.19424957e-01f,
-3.03417027e-01f,+4.61994996e-03f,+1.04878239e-01f,+1.83904752e-01f,+4.36724201e-02f,
-1.06476203e-01f,+1.53966546e-01f,+7.31624067e-02f,-1.28404170e-01f,+2.46646747e-01f,
+1.29983366e-01f,+3.66367912e-03f,-2.48339567e-02f,+1.02209471e-01f,-6.91576377e-02f,
-7.11430684e-02f,-1.77834183e-01f,+8.30333829e-02f,+9.17827338e-02f,+4.15592380e-02f,
-1.28052399e-01f,+3.02236736e-01f,+1.45757183e-01f,+1.61760021e-02f,+8.34758114e-03f,
-1.12233922e-01f,-7.19010979e-02f,+6.22358732e-02f,+5.99761456e-02f,+1.83381647e-01f,
+1.88944846e-01f,+1.62281200e-01f,+3.54526490e-01f,+1.14594333e-01f,+5.92187867e-02f,
+2.30660126e-01f,+6.52028546e-02f,+1.11170575e-01f,-9.68893990e-02f,+1.55677885e-01f,
-4.79647741e-02f,+7.51091284e-04f,+3.12388510e-01f,+2.56587956e-02f,-1.94730163e-01f,
+2.95316309e-01f,-7.79739693e-02f,+2.55246665e-02f,-1.42467260e-01f,+1.20964311e-01f,
-1.86023042e-01f,+2.12910458e-01f,-2.52119582e-02f,-1.09306276e-01f,-1.89353704e-01f,
+2.45356366e-01f,-2.12489944e-02f,-1.02296479e-01f,+9.13562849e-02f,+2.43113458e-01f,
+1.45420611e-01f,-2.69584298e-01f,+1.52824268e-01f,-6.60767313e-03f,+2.20548391e-01f,
+1.33965269e-01f,+1.87184393e-01f,+3.25471163e-02f,-9.04787630e-02f,-1.08243160e-01f,
+1.87440336e-01f,-2.17642426e-01f,+7.06877233e-03f,-9.17933434e-02f,-1.01296015e-01f,
+2.71405637e-01f,-1.02693498e-01f,-6.35809377e-02f,-6.74300035e-03f,-2.34567523e-01f,
+2.60755658e-01f,+1.00034654e-01f,-7.74102844e-03f,+2.19997287e-01f,+1.44494161e-01f,
-3.38095352e-02f,+2.95096748e-02f,-1.19568594e-01f,+2.30087906e-01f,+2.43487686e-01f,
+6.11192323e-02f,+1.13827959e-01f,-3.10920984e-01f,-3.83013189e-02f,-8.45105201e-03f,
-2.09954426e-01f,+4.64319289e-02f,-1.57983288e-01f,+2.23070711e-01f,+1.58702191e-02f,
+1.14358969e-01f,+8.23388621e-02f,-4.39845085e-01f,+2.16861412e-01f,+1.61099415e-02f,
+4.62459363e-02f,+4.18935344e-02f,+2.15079468e-02f,-2.71048754e-01f,+1.00290440e-01f,
-6.85567185e-02f,+2.32557103e-01f,+2.81941354e-01f,+7.42175383e-03f,+2.42106482e-01f,
-2.04426631e-01f,+2.17098206e-01f,+7.65787577e-03f,+1.79983169e-01f,-6.60122037e-02f,
+6.24023378e-02f,+1.01855680e-01f,+4.21613343e-02f,+2.72638607e-03f,+1.23285607e-01f,
+1.77525710e-02f,-1.01560861e-01f,+1.25156790e-01f,-7.03162253e-02f,+1.19670942e-01f,
-1.40340626e-01f,+1.25010327e-01f,+1.84907332e-01f,-7.27538913e-02f,-6.59762695e-02f,
+1.66482553e-01f,+3.00134838e-01f,+1.44194946e-01f,+2.68694162e-01f,+1.79889336e-01f,
+1.40883893e-01f,-1.85378641e-01f,-1.13989405e-01f,+4.89789210e-02f,+7.92187750e-02f,
+1.09373584e-01f,+3.01763535e-01f,+1.34895578e-01f,+2.22157058e-03f,-9.54144448e-02f,
+2.08280813e-02f,-2.11939946e-01f,+4.16614264e-02f,+1.99687496e-01f,+1.88184753e-01f,
-1.49141923e-01f,-2.92225871e-02f,+4.24725376e-02f,+1.51210129e-01f,-1.13266096e-01f,
-3.32219839e-01f,+4.50861678e-02f,-1.15354382e-01f,+2.15950295e-01f,-1.12203836e-01f,
-5.66593036e-02f,+9.49127302e-02f,-4.34391610e-02f,+2.10828200e-01f,+5.82784116e-02f,
-8.07028189e-02f,-1.79289598e-02f,+3.32320407e-02f,+4.17326726e-02f,+1.15680043e-02f,
+9.30192545e-02f,+1.43525833e-02f,+9.89050865e-02f,+7.96482712e-02f,-4.88956682e-02f,
+3.00702211e-02f,-2.51497298e-01f,-9.55098197e-02f,+2.51397073e-01f,-1.45464540e-01f,
+2.60896999e-02f,-1.67310491e-01f,-3.39815207e-02f,+4.92462330e-02f,-4.28079590e-02f,
+7.84993619e-02f,+1.00198224e-01f,+2.19098497e-02f,+3.42713445e-01f,-7.90981948e-02f,
-1.13112601e-02f,+3.30298752e-01f,-1.62458532e-02f,+7.80138886e-03f,+1.23469830e-01f,
+2.48678308e-02f,+3.61622497e-02f,+1.86491851e-02f,-1.87080726e-01f,+8.33418146e-02f,
-6.79687709e-02f,-5.51659428e-03f,+1.45050526e-01f,+1.02975070e-01f,+9.68749970e-02f,
+1.34515852e-01f,+4.08852892e-03f,+1.43242314e-01f,+1.86393708e-01f,+6.57425225e-02f,
+1.90644562e-01f,+5.30341938e-02f,+1.57473728e-01f,-6.26723617e-02f,+4.78861593e-02f,
-2.38870997e-02f,+6.63316101e-02f,+1.61160141e-01f,+1.02280593e-02f,-3.00300390e-01f,
+2.67910715e-02f,-9.48408470e-02f,+4.89573739e-02f,-9.10594594e-03f,+2.40932275e-02f,
+4.38360907e-02f,-2.10190453e-02f,-2.05688528e-03f,+1.86051056e-01f,-3.23628709e-02f,
-1.20470122e-01f,+1.08127661e-01f,-6.62773699e-02f,-4.62880097e-02f,-2.85379291e-01f,
-8.46927539e-02f,+9.57800746e-02f,+1.17895538e-02f,-1.66833717e-02f,+2.86117911e-01f,
+1.16044760e-01f,+1.34049639e-01f,-1.04389325e-01f,+1.96627289e-01f,+4.07888256e-02f,
+1.13333389e-01f,+1.29177086e-02f,+6.85985759e-02f,+3.31355900e-01f,-1.55991361e-01f,
+1.15501948e-01f,+1.37614757e-01f,-4.62805212e-01f,-3.57898697e-02f,-2.82135189e-01f,
-8.97151604e-02f,+1.36191934e-01f,+2.40054309e-01f,-2.71561407e-02f,+8.00272971e-02f,
-2.25776080e-02f,+7.27129355e-02f,-2.01165870e-01f,+2.63176650e-01f,+3.84933911e-02f,
+1.80467710e-01f,+2.75051713e-01f,+6.60359636e-02f,-2.98983417e-02f,+2.22722620e-01f,
+3.87571640e-02f,-8.49990994e-02f,+9.80172455e-02f,-6.95005804e-03f,-2.51333416e-01f,
+1.22268260e-01f,-1.30124986e-01f,+6.76698461e-02f,-1.55161411e-01f,-6.20760359e-02f,
-8.35359991e-02f,-4.21377793e-02f,+2.91036703e-02f,+9.43244845e-02f,-1.94082949e-02f,
+1.75979421e-01f,+7.06109703e-02f,-5.29040396e-02f,+2.87633315e-02f,-9.51493531e-03f,
+2.35449821e-01f,+2.93512553e-01f,+1.75761394e-02f,+2.53846366e-02f,+3.65437157e-02f,
-4.60127592e-02f,+1.14939868e-01f,+2.58003697e-02f,+6.47609532e-02f,+7.71259442e-02f,
+3.71251822e-01f,+1.68005198e-01f,-1.33962274e-01f,-1.45802751e-01f,-8.78602732e-03f,
-1.86017677e-01f,+4.35712218e-01f,+1.10567175e-01f,+2.80259699e-01f,+5.65838218e-02f,
+1.35852814e-01f,+8.49451646e-02f,-3.62826958e-02f,-4.00089800e-01f,+1.58269495e-01f,
+2.66137738e-02f,-1.32459790e-01f,-4.82693985e-02f,-1.55227128e-02f,+2.95018256e-01f,
-1.53604802e-03f,+3.84364830e-04f,+8.11398961e-03f,-7.03064129e-02f,+1.24217451e-01f,
+1.45409912e-01f,+4.05674726e-02f,+2.07512036e-01f,-9.23724174e-02f,+1.04850449e-01f,
-3.70442480e-01f,-1.17074989e-01f,+7.66382143e-02f,-9.79982838e-02f,+3.30146998e-02f,
-7.28437677e-02f,-5.01281433e-02f,+2.63537019e-01f,+1.41231343e-01f,+1.52596891e-01f,
+1.31271631e-01f,-2.12118439e-02f,-2.59920713e-02f,+1.80196628e-01f,+2.30740145e-01f,
-4.47229110e-02f,+1.18258134e-01f,+1.10089622e-01f,+1.15506584e-02f,-1.08478636e-01f,
+8.28766152e-02f,+1.11848377e-01f,-3.12554181e-01f,-2.43584231e-01f,-2.49145731e-01f,
+5.48087480e-03f,-4.11376022e-02f,-1.72277987e-01f,+6.32096902e-02f,+4.04455811e-02f,
-5.62051609e-02f,-4.42802608e-02f,+1.68293774e-01f,+1.29377782e-01f,-4.01904315e-01f,
+4.79472578e-02f,-1.43884391e-01f,-1.47263005e-01f,-5.45710623e-02f,+8.32567215e-02f,
-8.05506259e-02f,+1.39071465e-01f,+1.98346511e-01f,-9.00642872e-02f,+2.37742765e-03f,
+1.49897605e-01f,+2.11586237e-01f,-9.94641557e-02f,-7.69959204e-03f,-1.71823308e-01f,
+1.32685393e-01f,+5.38696274e-02f,-2.41198346e-01f,+2.59716567e-02f,-9.07931849e-02f,
-1.41278595e-01f,-3.17053986e-03f,+6.00353032e-02f,-8.31889361e-03f,-9.21281613e-03f,
+2.80164257e-02f,-6.35167304e-03f,-5.72004281e-02f,+2.51463294e-01f,-2.01767176e-01f,
-2.72496313e-01f,+2.22693354e-01f,-9.31574684e-03f,+7.52930194e-02f,-1.70897499e-01f,
-1.03190884e-01f,+2.08053932e-01f,-1.17367178e-01f,-9.77599248e-02f,-1.07218608e-01f,
+7.86775574e-02f,+4.31262180e-02f,+8.55936334e-02f,-2.90482700e-01f,-1.49417007e-02f,
+5.33267483e-03f,-6.48834137e-03f,+2.43440598e-01f,-2.67688841e-01f,+1.85890064e-01f,
-8.06992222e-03f,+1.82568371e-01f,-7.06891268e-02f,+2.87125744e-02f,-4.65914309e-02f,
+2.18572803e-02f,+6.49393946e-02f,+3.94485891e-02f,+5.45582995e-02f,-3.88782248e-02f,
+1.55982420e-01f,-7.62734190e-02f,+1.27295732e-01f,-1.91132784e-01f,+6.94118068e-02f,
+2.72071585e-02f,-5.03901802e-02f,+2.47108012e-01f,-4.76879664e-02f,+2.43336841e-01f,
-1.61672324e-01f,+5.88211827e-02f,-1.66019559e-01f,+1.12044051e-01f,-3.38832662e-02f,
-3.01824957e-02f,-2.12490931e-03f,+4.47661616e-02f,-1.30072474e-01f,-1.37795329e-01f,
+1.24688512e-02f,+2.53547318e-02f,+5.73349297e-02f,+1.01538941e-01f,+1.50517300e-01f,
-2.04125717e-01f,+1.58385746e-02f,+2.31078997e-01f,+1.00502022e-01f,-3.92735749e-01f,
-1.85199842e-01f,-3.56403701e-02f,-1.42074868e-01f,-1.00924373e-01f,-8.07935447e-02f,
+1.32504459e-02f,+3.84928137e-02f,-2.70644575e-01f,+9.85299945e-02f,+8.20334256e-02f,
+4.92345504e-02f,+1.47232726e-01f,+5.56841642e-02f,-1.71960235e-01f,+4.13402170e-02f,
+1.83207050e-01f,-1.36020109e-01f,-1.22904398e-01f,-1.67942896e-01f,-4.70205545e-02f,
-2.12843388e-01f,-5.52073158e-02f,-1.13479234e-01f,-2.77765188e-02f,+1.61092475e-01f,
+2.19718050e-02f,-4.56475019e-02f,-1.02807097e-01f,-4.92649563e-02f,-7.84140825e-02f,
-1.84413210e-01f,+2.42350310e-01f,-1.05576791e-01f,+3.23665403e-02f,-1.45174265e-01f,
-2.54833400e-02f,+1.21239148e-01f,+1.46878630e-01f,+5.80342636e-02f,-4.44285348e-02f,
-4.47749905e-02f,-2.54216641e-01f,+1.52105615e-02f,+1.75306663e-01f,-8.27283561e-02f,
-5.13007268e-02f,+5.63631020e-02f,-2.26015061e-01f,+1.23487329e-02f,+1.21353686e-01f,
-9.08132792e-02f,+1.62410602e-01f,-8.53764340e-02f,-4.84808311e-02f,+1.67839020e-01f,
+2.59413943e-02f,-2.38465726e-01f,-2.05236286e-01f,+9.65235233e-02f,+3.10725659e-01f,
-5.02454825e-02f,-9.10212845e-02f,+6.91491142e-02f,+2.98424691e-01f,+1.72755271e-01f,
-9.79784355e-02f,+1.00541256e-01f,-9.46776122e-02f,+5.05772792e-02f,+4.21234295e-02f,
+2.12620452e-01f,-5.89062050e-02f,-1.00399116e-02f,-3.21705500e-03f,+7.05730990e-02f,
+1.14712447e-01f,+1.44521862e-01f,-2.22723112e-01f,+4.51257601e-02f,-1.29093572e-01f,
-1.44096866e-01f,-7.85747617e-02f,+1.85427293e-01f,-1.88549042e-01f,+5.05907163e-02f,
-7.42094731e-03f,-2.23275423e-01f,+4.39756103e-02f,+2.14318320e-01f,-3.34440991e-02f,
+1.20752797e-01f,-6.50400817e-02f,+1.34187505e-01f,-1.57197848e-01f,+2.49700427e-01f,
+1.60942096e-02f,+5.23247086e-02f,-4.29003239e-02f,+3.55478585e-01f,-3.77170518e-02f,
-6.88430443e-02f,+2.59855296e-02f,+2.35976707e-02f,+3.16124022e-01f,+3.29161473e-02f,
+1.98672652e-01f,-1.54171228e-01f,-7.57741630e-02f,-6.15657084e-02f,+1.40981227e-01f,
+9.86328423e-02f,+1.82377085e-01f,-2.02594046e-02f,+7.16827884e-02f,-1.00313336e-01f,
+2.47688770e-01f,+2.13955358e-01f,+2.02790871e-02f,-7.67107755e-02f,-7.61835724e-02f,
-3.14167812e-02f,+1.82553723e-01f,+5.11005893e-03f,-1.31204456e-01f,-1.98680103e-01f,
-1.29539013e-01f,+1.91942751e-01f,+9.44431350e-02f,-8.27536359e-02f,-9.59053710e-02f,
-6.74987435e-02f,+2.43214726e-01f,-5.60104623e-02f,+1.32457986e-01f,+2.42955238e-03f,
-5.02293967e-02f,+4.26986255e-02f,-8.26037824e-02f,-3.59613113e-02f,+1.12514518e-01f,
-8.54217187e-02f,+1.56597927e-01f,+6.58872188e-04f,-5.11230193e-02f,+4.43985276e-02f,
-2.01257840e-01f,-2.22221017e-01f,-1.43012717e-01f,-3.47254694e-01f,+8.52582157e-02f,
-1.68328509e-02f,+2.05491811e-01f,-3.11740100e-01f,+2.32018203e-01f,-4.68568876e-02f,
+2.19070360e-01f,-8.34460258e-02f,-1.70648992e-01f,-9.24343467e-02f,-8.29583853e-02f,
+3.02728206e-01f,+5.46082631e-02f,+1.00433707e-01f,+1.18622659e-02f,+1.42383739e-01f,
-9.74091664e-02f,-1.01487912e-01f,-1.46020710e-01f,+6.51451126e-02f,-4.01588351e-01f,
+8.84929001e-02f,+3.19068022e-02f,-8.52705166e-02f,+2.60899484e-01f,+1.15278423e-01f,
-1.22555114e-01f,+2.31876448e-02f,+6.17943192e-03f,+2.08080456e-01f,+2.69141048e-02f,
-1.95034798e-02f,-6.16798401e-02f,+1.27384886e-01f,+2.85127014e-01f,+1.59701958e-01f,
-5.96182086e-02f,-1.28499001e-01f,+5.74395852e-03f,-1.60355538e-01f,+4.07879837e-02f,
-6.69662505e-02f,-3.31141874e-02f,+2.30817020e-01f,+1.95716992e-01f,-2.65307665e-01f,
+5.84911183e-02f,-9.43586454e-02f,+9.80118290e-02f,-2.19363973e-01f,-1.38674840e-01f,
+1.04064897e-01f,+2.37702206e-01f,-6.92571774e-02f,+7.06175566e-02f,-4.75893840e-02f,
-1.12993687e-01f,+2.24338725e-01f,-2.14550018e-01f,+1.58307642e-01f,-2.07882989e-02f,
-1.39896870e-01f,+1.70872100e-02f,+5.66329807e-02f,+4.19906937e-02f,+1.20538518e-01f,
+2.53396649e-02f,-6.91274228e-03f,+7.54409879e-02f,-5.74276298e-02f,-2.25591194e-02f,
+8.52433667e-02f,+2.17929818e-02f,-3.18165332e-01f,-1.20877378e-01f,-1.29656389e-01f,
-8.88399556e-02f,-1.01964906e-01f,-5.10501675e-02f,-6.95604309e-02f,-3.94436419e-02f,
+1.92804590e-01f,-9.19546261e-02f,-1.69674844e-01f,+3.03544343e-01f,-1.45493269e-01f,
+2.25643873e-01f,+1.98621936e-02f,+7.00243236e-03f,+2.61429131e-01f,-2.01365408e-02f,
+1.54546961e-01f,+3.21704783e-02f,-3.92037928e-02f,-1.22589298e-01f,+3.55546087e-01f,
+1.21450178e-01f,-3.78974468e-01f,-7.21159531e-03f,+2.39880383e-01f,+4.12470326e-02f,
+2.94100493e-01f,+2.06111580e-01f,+3.42374817e-02f,+6.80989251e-02f,+2.39637852e-01f,
+2.17369407e-01f,-4.44455855e-02f,+2.40841247e-02f,-2.12567765e-02f,-4.96644266e-02f,
-1.06665641e-01f,+2.51421571e-01f,+3.32119584e-01f,+2.97943801e-02f,-1.61240920e-01f,
+2.16391340e-01f,-4.09604535e-02f,-1.42624676e-01f,-3.81046720e-02f,+8.65383372e-02f,
+4.02692370e-02f,-5.54288141e-02f,+2.65075713e-01f,-6.67350441e-02f,+1.31375000e-01f,
+4.55979258e-02f,+8.23088828e-03f,+8.39248206e-03f,+1.48657158e-01f,+6.90571293e-02f,
+1.93819225e-01f,-7.92585835e-02f,-2.41557471e-02f,+9.23589170e-02f,+2.26862095e-02f,
+2.15985924e-01f,+1.78119227e-01f,-2.50213910e-02f,+1.14063453e-02f,+9.99085754e-02f,
-1.51998147e-01f,+6.57019466e-02f,-2.05629423e-01f,+1.43415883e-01f,+1.32397935e-01f,
-9.41690579e-02f,+3.87299880e-02f,+1.12426348e-01f,-5.98857831e-03f,-4.79353182e-02f,
-5.56577481e-02f,+5.93336411e-02f,+2.91724578e-02f,-3.56015898e-02f,-9.41165984e-02f,
+1.82957605e-01f,-6.09696731e-02f,+1.36496723e-01f,+7.28134438e-02f,+3.56653035e-02f,
-1.27883464e-01f,-2.11633295e-01f,-5.33678532e-02f,-2.10522544e-02f,+1.25569208e-02f,
-5.90015650e-02f,-9.50900540e-02f,+1.20667785e-01f,+2.33421415e-01f,+1.27730027e-01f,
+6.17984124e-02f,-2.67846018e-01f,+2.03084365e-01f,+1.82005465e-01f,+9.25421193e-02f,
+1.48497634e-02f,-2.22075302e-02f,+1.58962414e-01f,+2.11628556e-01f,+9.26344618e-02f,
+1.56926528e-01f,+1.03721544e-01f,+1.89891998e-02f,+1.85050778e-02f,+1.88287318e-01f,
-3.76733691e-02f,-5.51943257e-02f,-3.24126557e-02f,+5.20951077e-02f,-2.49240026e-01f,
+1.65889949e-01f,-2.15885155e-02f,-2.27518883e-02f,-1.61467895e-01f,+3.49426180e-01f,
+7.55699575e-02f,+3.08586303e-02f,-3.20224720e-03f,+1.59913655e-02f,-1.18111375e-05f,
+4.36890423e-01f,+8.42817277e-02f,-8.44649822e-02f,-2.83770382e-01f,+1.19581409e-01f,
-3.36591639e-02f,+3.98515940e-01f,+9.43338498e-02f,+8.97377357e-02f,+5.11448504e-03f,
-2.65923828e-01f,+1.81842610e-01f,-1.23960666e-01f,-1.15015782e-01f,+7.00490102e-02f,
-1.54055372e-01f,+6.54393360e-02f,+1.23463653e-01f,-4.23860587e-02f,+3.06687299e-02f,
+6.71503097e-02f,+4.33001257e-02f,+3.34868133e-02f,-1.29011050e-01f,+7.15358779e-02f,
-1.84052125e-01f,+7.39259198e-02f,-2.36443859e-02f,+4.74809296e-02f,+1.05165746e-02f,
-3.50099336e-03f,+9.83912200e-02f,+1.30855992e-01f,-1.43210948e-01f,-8.47561210e-02f,
+7.02954605e-02f,-1.12566561e-01f,+1.52607560e-01f,-1.80852652e-01f,+2.75359750e-01f,
+1.02615058e-01f,+1.83615252e-01f,+6.22157268e-02f,+3.00818980e-02f,+8.02771375e-02f,
-1.29207626e-01f,-1.46379381e-01f,-8.35171267e-02f,-2.03009382e-01f,+7.77689368e-02f,
+1.08208228e-02f,-1.34724051e-01f,+7.66094252e-02f,-3.10479081e-03f,-1.70075133e-01f,
+3.45154166e-01f,-2.87790410e-02f,+1.18327163e-01f,+1.98481828e-01f,-7.24685788e-02f,
-2.75080465e-02f,-4.85107116e-02f,+1.87918805e-02f,+2.25746948e-02f,+2.49532517e-03f,
-1.80796489e-01f,+4.77564447e-02f,+1.63515508e-01f,-1.25132546e-01f,+1.26235142e-01f,
+1.13485746e-01f,+6.25964627e-02f,-9.31014568e-02f,-6.16032705e-02f,-2.50917792e-01f,
+1.41419232e-01f,-7.87691176e-02f,-1.96851194e-02f,+6.35038763e-02f,+2.20172465e-01f,
+1.91643313e-02f,+6.76725730e-02f,+6.32535070e-02f,-6.81741163e-02f,+1.55866090e-02f,
-2.03444883e-01f,+9.54665318e-02f,+2.08079759e-02f,+5.51250875e-02f,+1.47405356e-01f,
+1.84780404e-01f,-4.41149846e-02f,-9.12100002e-02f,-1.83658794e-01f,+3.02221984e-01f,
+2.40655057e-02f,-8.44758749e-02f,+7.93939084e-03f,+7.21930638e-02f,-2.90612936e-01f,
-3.28447856e-02f,-1.31632015e-01f,+2.02370927e-01f,-2.43611917e-01f,-1.16842806e-01f,
+1.23921312e-01f,+2.36260459e-01f,+1.17551655e-01f,-1.89960450e-01f,-5.62362224e-02f,
+1.77194491e-01f,+3.35690051e-01f,-4.54768017e-02f,+2.21537098e-01f,-8.62635747e-02f,
+1.90543115e-01f,-4.56597917e-02f,-7.16092736e-02f,+3.12468931e-02f,+1.76358577e-02f,
-9.67536345e-02f,+5.96927404e-02f,-6.45133555e-02f,-1.66642535e-02f,+8.81358683e-02f,
+3.60170752e-02f,+1.12965770e-01f,-9.58765950e-03f,+1.74537048e-01f,+8.73156786e-02f,
-3.73755023e-02f,+2.64138244e-02f,+4.28187959e-02f,-5.90104721e-02f,-3.43342200e-02f,
+1.26822203e-01f,+1.51107520e-01f,-1.38664961e-01f,+1.72576997e-02f,+2.99804918e-02f,
-1.35029405e-01f,+8.92440416e-03f,-9.71143693e-02f,+2.94840544e-01f,+1.39069661e-01f,
+8.43985304e-02f,+6.70544803e-02f,+1.75345689e-01f,-2.91376233e-01f,+7.98045248e-02f,
-8.37999210e-02f,+2.73402538e-02f,+3.91014442e-02f,-6.54182360e-02f,+7.98688009e-02f,
+4.51128066e-01f,-5.91955893e-02f,+3.06948394e-01f,-5.35339639e-02f,+8.71230364e-02f,
+3.35356928e-02f,-6.59668371e-02f,+2.05547646e-01f,-1.23441026e-01f,-1.06495872e-01f,
+2.41536424e-02f,-1.88359916e-01f,-2.86127552e-02f,+6.63459748e-02f,-1.16309658e-01f,
+1.25618517e-01f,-3.58941369e-02f,+5.54930158e-02f,+2.28894085e-01f,-6.11618832e-02f,
-5.67416809e-02f,+2.23316520e-01f,+3.36494558e-02f,-6.72497526e-02f,-3.94176841e-02f,
+6.34838864e-02f,+1.23236269e-01f,+2.58434415e-02f,-1.10791763e-03f,+2.67754912e-01f,
-1.33195937e-01f,+2.29702771e-01f,+2.84794588e-02f,-2.36599930e-02f,-1.62691157e-02f,
-7.80265406e-02f,+1.77593037e-01f,+2.74802208e-01f,+4.79289033e-02f,-9.23647359e-02f,
+1.58097669e-02f,+1.20942347e-01f,+2.09541187e-01f,-4.63886838e-03f,+2.29162816e-02f,
-6.04065955e-02f,+2.50815488e-02f,+2.13493124e-01f,+2.10249461e-02f,+2.11901441e-01f,
+6.16450310e-02f,-1.17802642e-01f,+1.06327813e-02f,-2.42291123e-01f,-2.81464327e-02f,
+6.02376871e-02f,+1.54588401e-01f,+3.25730257e-02f,+2.57366329e-01f,+3.87226120e-02f,
-1.29630417e-01f,+9.72952917e-02f,+1.78139731e-01f,+1.09617747e-01f,+2.19931696e-02f,
+1.43541306e-01f,+3.47557552e-02f,+2.02178340e-02f,-1.20644597e-02f,+4.56909835e-02f,
+6.61261678e-02f,+8.38257968e-02f,-1.38951883e-01f,+7.90290162e-02f,+4.49740626e-02f,
+1.22535877e-01f,-1.15113653e-01f,+1.21689349e-01f,+2.05769196e-01f,+8.05631056e-02f,
-1.44707963e-01f,+8.29749778e-02f,-3.42032835e-02f,+1.38696373e-01f,-1.25133708e-01f,
+2.10964680e-01f,-1.68546364e-01f,+3.35678756e-01f,+1.73159868e-01f,+4.29782085e-02f,
+8.34723562e-03f,-1.34146079e-01f,+8.72661918e-03f,-3.59452702e-02f,+6.28212988e-02f,
+4.39986959e-02f,-3.32885906e-02f,+8.35905373e-02f,-4.05228809e-02f,-1.03893667e-01f,
+2.76018083e-02f,+1.54119164e-01f,-1.50309771e-01f,-1.09540287e-03f,+4.60474864e-02f,
-1.91590905e-01f,-1.09449118e-01f,-1.27311036e-01f,+2.18212744e-03f,-9.05186757e-02f,
+7.76808634e-02f,+2.52286959e-02f,-1.18784256e-01f,+9.42424610e-02f,+9.75714922e-02f,
+1.00824960e-01f,+3.55535629e-03f,+1.02700539e-01f,+4.77107875e-02f,+1.00449413e-01f,
+4.72327583e-02f,+1.57022521e-01f,+6.50146231e-02f,-4.60098684e-02f,-8.26039165e-02f,
-1.41099587e-01f,-9.48112234e-02f,-5.17883971e-02f,-9.23581570e-02f,+2.03095436e-01f,
+2.66013205e-01f,-1.69096477e-02f,+2.08595589e-01f,+9.83821414e-03f,+5.58753358e-03f,
-4.57819272e-03f,+4.68677022e-02f,-1.87363610e-01f,+1.89135075e-01f,-7.47932941e-02f,
-2.17619091e-02f,-8.80177990e-02f,-1.31091569e-02f,-1.17209159e-01f,-1.54170677e-01f,
-4.01001349e-02f,+1.73766688e-02f,+1.12286303e-02f,-2.27807648e-02f,-1.48540080e-01f,
-3.97224957e-03f,+1.78935267e-02f,+2.39047520e-02f,+1.46916375e-01f,+8.07247087e-02f,
-1.20942026e-01f,-1.52898744e-01f,-1.80547059e-01f,+2.80048400e-01f,+9.59588140e-02f,
+1.45201907e-01f,+6.63972348e-02f,-1.41742289e-01f,-5.18466294e-01f,-1.80876046e-01f,
-9.41808894e-02f,-1.19813336e-02f,+6.83416128e-02f,+1.77868053e-01f,-9.93759111e-02f,
+1.05954660e-02f,-2.11379200e-01f,+1.98059514e-01f,-2.18560663e-03f,-5.87449446e-02f,
-8.22298750e-02f,-2.67428439e-02f,+1.73648149e-01f,-6.13520816e-02f,-2.44020522e-02f,
-4.81622554e-02f,+9.92820784e-02f,+2.30954573e-01f,-2.00187385e-01f,+7.22290541e-04f,
-8.57452024e-03f,-4.26292000e-03f,-7.38120899e-02f,-1.72129143e-02f,+1.53334567e-03f,
+6.23784363e-02f,-8.68398771e-02f,+5.60261458e-02f,+1.59968212e-01f,+8.62599909e-03f,
-7.68110752e-02f,-1.16117910e-01f,+1.40074603e-02f,+5.85637912e-02f,+1.12329409e-01f,
+6.72416240e-02f,+1.34462982e-01f,+1.63077131e-01f,+2.46494532e-01f,+1.13462634e-01f,
+1.96206972e-01f,-8.72392729e-02f,+1.02375999e-01f,-2.05654815e-01f,-1.40631422e-01f,
-5.18638128e-03f,+1.19451143e-01f,-2.77688000e-02f,-1.92472339e-01f,+4.36783098e-02f,
+1.68378964e-01f,+1.21910863e-01f,+6.21302202e-02f,+9.43378285e-02f,-9.97472554e-02f,
+2.77379870e-01f,+2.37413809e-01f,-4.41300077e-03f,+3.62383038e-01f,+2.55724080e-02f,
-3.83371599e-02f,+1.84652478e-01f,+1.50103778e-01f,+1.40851900e-01f,+2.43482664e-01f,
-4.27908776e-03f,-1.88822880e-01f,+1.53952897e-01f,-1.02893509e-01f,+2.67170966e-02f,
+1.12338476e-01f,+1.76032409e-01f,-2.90381461e-02f,+5.65370917e-03f,-9.81000736e-02f,
+1.53557733e-01f,+1.41115291e-02f,-1.51720509e-01f,+2.32071757e-01f,-2.10053194e-02f,
+1.27263606e-01f,-1.79324850e-01f,+6.12596124e-02f,-1.28422931e-01f,-1.90702915e-01f,
-4.86591756e-02f,+2.17527878e-02f,-1.92664117e-01f,-3.53742167e-02f,+3.44927728e-01f,
-3.34098265e-02f,-3.61942388e-02f,-4.88884300e-02f,-1.85003847e-01f,-5.77697642e-02f,
-1.09053245e-02f,+3.75461042e-01f,-1.30642753e-03f,+6.57859072e-03f,+2.32007988e-02f,
+1.69401780e-01f,+1.83028206e-01f,-3.72092053e-02f,-4.53192480e-02f,-9.46661904e-02f,
+1.22683078e-01f,-3.78517881e-02f,+4.55367237e-01f,+2.44149521e-01f,+7.73270875e-02f,
+3.23277801e-01f,+1.47906855e-01f,+1.70843259e-01f,+1.34595754e-02f,-1.22234650e-01f,
+4.56004292e-02f,-1.80243239e-01f,-8.18739757e-02f,-2.64920238e-02f,-1.05660632e-02f,
+1.16376802e-01f,+2.67195459e-02f,-6.47959337e-02f,+1.83370020e-02f,+8.87822062e-02f,
+2.65675075e-02f,+1.42422663e-02f,-4.83057313e-02f,+1.35117322e-01f,-1.91546697e-02f,
-4.07548770e-02f,+1.42331585e-01f,-1.35934055e-01f,-3.33947204e-02f,+3.94759811e-02f,
+1.33644089e-01f,+3.86096910e-02f,+1.35241702e-01f,+1.94416568e-01f,+1.49013428e-02f,
-2.73433775e-01f,+8.15367512e-03f,-6.87583387e-02f,-9.24929753e-02f,+1.86223134e-01f,
-2.39641666e-02f,+2.75067747e-01f,-1.77492157e-01f,-7.66496956e-02f,+6.49519861e-02f,
-3.33821885e-02f,+9.19296294e-02f,+2.92340547e-01f,+1.03735417e-01f,+1.19789630e-01f,
+8.30319524e-02f,+2.18537182e-01f,+6.65718839e-02f,+8.96327570e-02f,+1.96942538e-01f,
-1.53223407e-02f,-2.11216211e-01f,+3.35476808e-02f,+3.78733948e-02f,+1.35851026e-01f,
+5.04767410e-02f,-9.65244845e-02f,+1.22830242e-01f,+2.74735153e-01f,-1.04812242e-01f,
+9.13532525e-02f,-1.17493302e-01f,+1.71132669e-01f,-2.41569102e-01f,+1.49543628e-01f,
+4.46504533e-01f,+1.25225455e-01f,+9.93114859e-02f,-1.61954373e-01f,-1.86460316e-01f,
+6.49409890e-02f,-7.33374432e-02f,+2.26529390e-01f,+1.64884001e-01f,-2.98513267e-02f,
+3.52609962e-01f,+6.84494376e-02f,-7.96723962e-02f,+2.70712912e-01f,+1.88062847e-01f,
-1.23513862e-01f,+1.61547720e-01f,+1.90613165e-01f,+3.31711292e-01f,+2.54543543e-01f,
+1.26870209e-02f,+1.44848466e-01f,-2.25598011e-02f,+1.08571932e-01f,+9.86728594e-02f,
+2.61278272e-01f,-3.18361004e-03f,-1.50563762e-01f,+1.20150559e-01f,-3.18260550e-01f,
+1.14623152e-01f,-1.42997518e-01f,+2.60565989e-02f,-2.29864269e-01f,-5.81283532e-02f,
+6.45848885e-02f,-1.30719349e-01f,+1.65720373e-01f,-5.35990298e-02f,+4.99704964e-02f,
-4.43481244e-02f,-1.93053201e-01f,+4.23554480e-02f,-1.20367311e-01f,+4.79436181e-02f,
-2.65629560e-01f,+4.11785506e-02f,+1.31195467e-02f,+3.51656452e-02f,-9.35493037e-02f,
-1.76942736e-01f,-1.07812457e-01f,+3.50217760e-01f,-1.53843671e-01f,-3.68197501e-01f,
+2.21812457e-01f,-2.14238033e-01f,-3.90108287e-01f,-4.39141989e-01f,+8.58554170e-02f,
-1.90595880e-01f,+8.57674256e-02f,+7.62148947e-02f,-1.45612478e-01f,-3.11155736e-01f,
-1.31222859e-01f,+9.38258246e-02f,+4.30369437e-01f,-4.96073365e-02f,+9.82869118e-02f,
+1.84491366e-01f,-2.33742204e-02f,+2.95709074e-02f,+5.14107384e-02f,+1.07741371e-01f,
-1.83190107e-02f,+1.80465519e-01f,+1.16487667e-01f,+9.34110209e-02f,+1.78326908e-02f,
+6.97122365e-02f,+2.24655002e-01f,+7.42331073e-02f,+4.40988205e-02f,+1.23542108e-01f,
+8.31835493e-02f,+2.33373538e-01f,+5.96682951e-02f,-3.76417547e-01f,+6.29184544e-02f,
-3.13252807e-02f,+2.09161580e-01f,+1.04741916e-01f,+3.36963199e-02f,+2.53979623e-01f,
+1.18048698e-01f,+4.78322580e-02f,+1.33859158e-01f,+5.39465845e-02f,+1.26004294e-01f,
-2.06311464e-01f,+8.86148959e-02f,-3.03080622e-02f,-2.01201569e-02f,+8.26608241e-02f,
+5.54811545e-02f,+2.11399093e-01f,-3.18100639e-02f,+1.74383074e-01f,+1.87226713e-01f,
+1.38003722e-01f,-7.06528872e-02f,+7.18959719e-02f,+1.07139513e-01f,+6.26944080e-02f,
+1.55950904e-01f,-1.57664120e-01f,+1.92759767e-01f,+3.57490361e-01f,+6.64306246e-03f,
+3.07538092e-01f,-1.11669339e-01f,-2.45781988e-01f,+4.13266122e-02f,+9.79875922e-02f,
+1.27365217e-01f,-2.82235056e-01f,+1.46887422e-01f,+5.61892167e-02f,-2.75359154e-01f,
+4.11387235e-02f,+1.23591527e-01f,-1.93197895e-02f,+1.63314342e-01f,-7.10381791e-02f,
+2.60647207e-01f,+2.39301801e-01f,-2.67908047e-03f,+1.73869301e-02f,-7.67461583e-02f,
+1.87405676e-01f,+2.18936875e-01f,+7.19341310e-03f,-1.48375601e-01f,+2.18594745e-01f,
+1.35721758e-01f,-6.33811206e-02f,-1.83815677e-02f,-3.97749618e-02f,+3.01563561e-01f,
-1.94870204e-01f,-7.73603097e-03f,-1.05966784e-01f,+1.15549669e-01f,-1.45262793e-01f,
+2.49193549e-01f,+4.59201157e-01f,-5.99391907e-02f,+1.32435426e-01f,-3.88174534e-01f,
-2.16479390e-03f,+6.78210258e-02f,-1.37243852e-01f,+2.52138674e-01f,-6.66382313e-02f,
+1.25034496e-01f,+1.70258760e-01f,-1.43553345e-02f,+1.45863444e-01f,-1.03233360e-01f,
-1.91463262e-01f,+7.84754530e-02f,-1.71752915e-01f,-1.51573762e-01f,+1.33695856e-01f,
+4.22657765e-02f,+1.45861626e-01f,-2.11108059e-01f,+2.72112519e-01f,+1.69761516e-02f,
+2.65816212e-01f,-1.39082242e-02f,-2.41178736e-01f,-1.57788262e-01f,+8.63803029e-02f,
+1.53345540e-01f,-2.54461970e-02f,-5.06347567e-02f,-3.27723682e-01f,+1.35302380e-01f,
-4.40134481e-02f,+6.90488294e-02f,-8.19462538e-02f,+1.84630945e-01f,-3.75421084e-02f,
-1.46879122e-01f,+8.75632763e-02f,-1.47570372e-02f,-2.34784216e-01f,+2.42786601e-01f,
+4.14534748e-01f,+2.91012138e-01f,+2.27322549e-01f,-7.91790709e-03f,+2.03464344e-01f,
-3.14970583e-01f,+5.77421226e-02f,+2.51041949e-01f,-1.20023243e-01f,-1.30249754e-01f,
+8.42005610e-02f,+1.91520065e-01f,+8.49495158e-02f,+1.35059193e-01f,+7.55600706e-02f,
-3.23806673e-01f,+6.00742288e-02f,+5.34039661e-02f,+3.06037813e-01f,-1.07660405e-01f,
+1.69295534e-01f,+2.68207103e-01f,+2.95630246e-01f,-5.91840893e-02f,-8.69618505e-02f,
-3.76347965e-03f,-2.14594349e-01f,-1.92826718e-01f,-2.39898100e-01f,-2.43108869e-01f,
+2.37932324e-01f,-1.46468226e-02f,+4.29243334e-02f,+2.23854244e-01f,+5.10130674e-02f,
+4.82781008e-02f,+2.65963227e-01f,-6.36777058e-02f,+3.69232297e-01f,-1.27189070e-01f,
+2.22983304e-02f,-9.54341665e-02f,+1.39458030e-01f,-2.07859769e-01f,+1.44197896e-01f,
+6.23207465e-02f,+6.32650405e-02f,-4.42011416e-01f,+4.91681546e-02f,+1.31775618e-01f,
+3.55802290e-02f,-1.43144131e-01f,+4.17553186e-01f,+4.37450781e-02f,+2.49232784e-01f,
+4.21193335e-03f,-1.50750592e-01f,+2.58628190e-01f,+7.74911791e-02f,+2.11625561e-01f,
-4.78978716e-02f,+2.67341793e-01f,-1.11748509e-01f,-1.98175628e-02f,-2.58288711e-01f,
+4.95056435e-02f,-1.05900846e-01f,+1.82117954e-01f,-1.16799660e-01f,+8.79979432e-02f,
+2.54449993e-01f,-9.90301650e-03f,+1.32090310e-02f,-8.67154002e-02f,-1.44938216e-01f,
+1.03010170e-01f,+1.17542014e-01f,-1.04870014e-01f,-1.07775331e-02f,-2.51578763e-02f,
-1.49690956e-01f,-3.12868953e-01f,+1.56917330e-02f,+1.26592278e-01f,-7.94377998e-02f,
+1.92294583e-01f,+1.85052857e-01f,+5.57911247e-02f,-2.53833503e-01f,-1.06015420e-02f,
+2.50213772e-01f,-1.90492049e-01f,+1.45611614e-01f,+2.02991888e-01f,+6.58224151e-02f,
+1.24408796e-01f,+1.07000202e-01f,-1.68719307e-01f,-1.58825994e-01f,+1.53265432e-01f,
+1.62371770e-01f,+3.12257618e-01f,+4.09996659e-02f,-9.29239094e-02f,+2.32465476e-01f,
-2.80640610e-02f,+1.77654535e-01f,+1.58089489e-01f,-2.09209785e-01f,+3.65196653e-02f,
-1.44038171e-01f,-3.95878125e-03f,+2.86978465e-02f,+4.59335446e-02f,+9.89405662e-02f,
+1.23549581e-01f,+1.37605444e-01f,+1.89759836e-01f,-2.25340635e-01f,+6.91312999e-02f,
+3.40596199e-01f,+7.76034668e-02f,-2.67499182e-02f,-1.74950734e-01f,+1.07778281e-01f,
-1.87213093e-01f,+1.92255646e-01f,-1.90209281e-02f,+2.98629075e-01f,-1.67483643e-01f,
-2.89470106e-02f,+2.06806526e-01f,+9.60138068e-02f,-1.99898615e-01f,-6.58724308e-02f,
-1.45388424e-01f,+7.09245279e-02f,-4.01664853e-01f,+2.08753318e-01f,-4.59328148e-04f,
+1.07476860e-01f,-3.27867448e-01f,-5.65062016e-02f,+2.62902558e-01f,+2.88673371e-01f,
-3.37376483e-02f,+9.86599252e-02f,+1.17353939e-01f,+7.59464651e-02f,+3.44409272e-02f,
+8.43004435e-02f,+1.06871381e-01f,-1.30660474e-01f,+2.88988769e-01f,-2.16392636e-01f,
+1.64017946e-01f,-9.62175801e-03f,-4.05991301e-02f,-3.37995887e-01f,+2.31797218e-01f,
-1.96360111e-01f,-2.61562131e-02f,+1.45167992e-01f,-4.49309535e-02f,+3.52493465e-01f,
-4.65575904e-02f,+8.39158613e-03f,-2.52240717e-01f,-1.38943985e-01f,-1.33665204e-01f,
-2.54488923e-02f,+5.10085039e-02f,-2.52981633e-01f,+1.87450473e-03f,+2.21486529e-03f,
-1.77480169e-02f,-3.71163338e-01f,+1.63852736e-01f,+2.44514108e-01f,+1.20128468e-01f,
+4.03580457e-01f,-1.40822947e-01f,-3.08756381e-01f,-1.17344990e-01f,+3.43643576e-01f,
-8.72010291e-02f,-7.65988380e-02f,-4.84432764e-02f,+1.63320050e-01f,+6.27700388e-02f,
-1.36153817e-01f,+1.77633867e-01f,-1.33259222e-01f,-6.18118532e-02f,+1.95599809e-01f,
-1.92336813e-01f,+2.64530391e-01f,+7.72051513e-02f,+2.76515007e-01f,+1.65565982e-01f,
+1.43510122e-02f,-4.07175496e-02f,+2.67396420e-01f,+2.61527970e-02f,+2.65809745e-01f,
-1.26229852e-01f,-2.63016731e-01f,+2.19839871e-01f,+1.96728721e-01f,+2.36513261e-02f,
+1.75126985e-01f,+2.22712070e-01f,+1.50970668e-01f,+3.02945644e-01f,+2.23528132e-01f,
-4.95222360e-02f,-1.85780391e-01f,+2.61800826e-01f,-8.38106126e-03f,+1.81168571e-01f,
+2.23796636e-01f,+3.47911328e-01f,-2.98814267e-01f,+1.14415634e-04f,+8.99722278e-02f,
-1.35717496e-01f,+1.41951814e-02f,+1.65668223e-02f,-9.24502686e-02f,+1.58841878e-01f,
-7.92080462e-02f,-1.51203887e-04f,+6.35614693e-02f,+2.58444905e-01f,+1.59123063e-01f,
-2.17881091e-02f,+1.98418245e-01f,-2.15515479e-01f,-5.27061224e-02f,+5.28961308e-02f,
-1.51802106e-02f,+1.41004473e-01f,+3.62179279e-02f,-1.12922639e-01f,+3.55438106e-02f,
+1.03514850e-01f,-7.60074034e-02f,+9.14816111e-02f,-9.21431929e-02f,-2.71866145e-03f,
+1.29989147e-01f,+2.08505034e-01f,+3.09012175e-01f,+1.16796918e-01f,+3.30190547e-02f,
-1.24272928e-01f,+2.27905214e-02f,+5.73174842e-02f,+1.70880049e-01f,+2.76007783e-02f,
+1.55908927e-01f,-2.46091280e-02f,+2.36567333e-01f,+2.45998174e-01f,+3.85117918e-01f,
+2.26701349e-01f,+1.13050155e-02f,-2.52962738e-01f,-4.27597947e-02f,-7.59082064e-02f,
+3.50479066e-01f,+1.18137039e-01f,+1.16820559e-01f,-9.07349959e-02f,+6.82154065e-03f,
+1.08468927e-01f,+1.13651175e-02f,-2.49145076e-01f,+3.28862704e-02f,+1.74169689e-01f,
-2.56093055e-01f,-2.28294551e-01f,+6.86779022e-02f,+6.45068586e-02f,-8.68598819e-02f,
-7.04723701e-04f,-2.97379587e-02f,+1.11191332e-01f,+7.48459250e-02f,-6.40381724e-02f,
-5.21843769e-02f,+4.25430149e-01f,-5.24823181e-02f,-1.46925732e-01f,+8.80291685e-02f,
+3.60888764e-02f,+1.14505708e-01f,+2.08767071e-01f,+5.75881824e-02f,+1.18448302e-01f,
+1.29195824e-01f,-6.97851107e-02f,-9.11825821e-02f,+6.99694976e-02f,+2.93160766e-01f,
+9.37016099e-04f,+2.38691783e-03f,-3.57931852e-03f,-1.72814563e-01f,-1.17653199e-01f,
+7.54962722e-03f,-1.12091221e-01f,+6.93560392e-02f,-1.52876079e-01f,-8.26385543e-02f,
-5.86380512e-02f,+1.67630732e-01f,+1.33612499e-01f,+1.44482190e-02f,+1.06649417e-02f,
+1.52176768e-01f,-2.07040176e-01f,-5.13840057e-02f,-1.67092890e-01f,+1.53047025e-01f,
-1.13635674e-01f,-2.32265070e-01f,+1.66915476e-01f,-5.88072911e-02f,+2.38970384e-01f,
-1.62647575e-01f,-1.99599966e-01f,+1.56088084e-01f,+9.72082466e-02f,-2.32136101e-01f,
-2.31199101e-01f,+2.04020247e-01f,-2.31427580e-01f,+1.78046942e-01f,+9.76658836e-02f,
-7.69029409e-02f,-1.33800462e-01f,-1.37547683e-02f,-6.93752840e-02f,-2.17493370e-01f,
-2.58555502e-01f,+9.75553691e-02f,-7.00860173e-02f,-1.71767980e-01f,-6.91303238e-02f,
+9.54323709e-02f,+1.30038008e-01f,+1.19780242e-01f,+3.15433025e-01f,+2.49451146e-01f,
+1.64514277e-02f,+2.92311788e-01f,+2.26448491e-01f,+3.36218765e-03f,+1.85661167e-01f,
+2.99806595e-01f,-1.13667746e-03f,-4.18642819e-01f,+1.72604322e-01f,+2.76831120e-01f,
+1.95138186e-01f,+1.15576051e-02f,+4.74899411e-01f,+3.69793400e-02f,-3.15956354e-01f,
+2.25134879e-01f,-1.65514290e-01f,+1.02681361e-01f,+2.45371163e-02f,-1.50120854e-01f,
+2.29463309e-01f,-1.14767201e-01f,+3.71570230e-01f,+8.34796801e-02f,-2.68398747e-02f,
-1.71207502e-01f,-1.05807008e-02f,-5.74306734e-02f,-1.38204515e-01f,+2.18828395e-02f,
-2.67749161e-01f,-1.83558594e-02f,-8.37495178e-02f,+1.12916799e-02f,-7.59644210e-02f,
+1.37827501e-01f,+4.47375514e-02f,+6.94156364e-02f,-1.85737357e-01f,-6.12574369e-02f,
-3.69751751e-02f,+4.42748144e-02f,+1.88831687e-01f,+2.54015565e-01f,-1.36120975e-01f,
+1.99032143e-01f,+3.65215242e-02f,+8.95653740e-02f,+2.83855528e-01f,+1.96976662e-01f,
+1.19046085e-01f,-1.60788316e-02f,-2.13500876e-02f,+3.60201091e-01f,+1.87188402e-01f,
+8.74444842e-02f,+3.11922505e-02f,-1.34089710e-02f,-2.04418413e-03f,+2.23531857e-01f,
+1.45208001e-01f,-6.57943040e-02f,-1.09384768e-01f,+1.82089895e-01f,-3.29048634e-01f,
+1.46737337e-01f,-2.23917544e-01f,+5.82282478e-03f,+9.66587216e-02f,-1.74489379e-01f,
+5.99630550e-02f,+6.55751452e-02f,-6.31360710e-02f,-1.81174874e-01f,-2.94998497e-01f,
+9.37372446e-02f,+8.82975757e-02f,-9.31681618e-02f,+1.04183452e-02f,-2.35274225e-01f,
+7.73264691e-02f,+4.84146364e-02f,+3.19921365e-03f,+1.37750953e-01f,-5.49282432e-02f,
+2.48343661e-01f,-2.96175554e-02f,-1.58279881e-01f,-1.51757717e-01f,-3.68412286e-02f,
-1.75108194e-01f,-5.26089706e-02f,-3.47387753e-02f,-5.41781709e-02f,+8.94384533e-02f,
+3.41011554e-01f,+9.20929164e-02f,+2.30970591e-01f,-5.38044944e-02f,-1.10885084e-01f,
-7.11265206e-02f,-1.35877579e-01f,-5.79105690e-03f,+1.05490871e-01f,+3.35012935e-02f,
-4.34455089e-03f,-1.81914672e-01f,+4.44405019e-01f,+2.81483889e-01f,-2.23188773e-01f,
+7.93637782e-02f,+1.27101228e-01f,-1.20706847e-02f,+7.84755945e-02f,+1.26302585e-01f,
-1.91909015e-01f,+1.12892315e-02f,+6.18272759e-02f,+5.88371931e-03f,+7.95787498e-02f,
-5.98312952e-02f,+1.38727829e-01f,-6.40232638e-02f,+4.75081131e-02f,-1.72281899e-02f,
-2.11071938e-01f,+1.55910134e-01f,-2.46254191e-01f,-6.18529692e-02f,-1.57147452e-01f,
-1.18924573e-01f,+3.99941355e-02f,-1.11882381e-01f,-3.61291692e-03f,-2.16037750e-01f,
-2.18735650e-01f,-3.18039991e-02f,+1.36580179e-02f,-4.69470695e-02f,+2.98558418e-02f,
+2.70351380e-01f,+3.87601666e-02f,-3.29396911e-02f,-7.34388977e-02f,-4.07900661e-02f,
+1.22091688e-01f,-1.61965013e-01f,-6.55372366e-02f,+6.85833991e-02f,+2.25665718e-01f,
-1.00927830e-01f,-1.45997331e-01f,-5.72509989e-02f,+3.62822473e-01f,-1.55189499e-01f,
-3.52045111e-02f,+1.04708672e-01f,+5.22755198e-02f,+5.85030094e-02f,-1.29804790e-01f,
-1.38821438e-01f,-1.06331870e-01f,+4.64768102e-03f,+8.33327100e-02f,+1.63484275e-01f,
+8.91497955e-02f,+5.35549223e-02f,-1.61728844e-01f,+4.13394906e-02f,-1.20882139e-01f,
+1.42854661e-01f,+1.61638185e-01f,-2.92657129e-03f,-2.82801967e-02f,-2.09013879e-01f,
+1.09866440e-01f,+3.14146578e-02f,+1.59666479e-01f,-3.39600027e-01f,-3.49933421e-03f,
+9.48186740e-02f,-1.61268607e-01f,-1.43188387e-01f,+1.16344420e-02f,-2.50715196e-01f,
-9.80094299e-02f,+1.42875329e-01f,-3.97759110e-01f,-3.10256463e-02f,+1.33239897e-02f,
-9.29282680e-02f,+1.90895170e-01f,+6.30453415e-03f,-1.27799585e-01f,+4.64806892e-02f,
-1.63826585e-01f,+6.38575628e-02f,+9.27840695e-02f,-5.08024469e-02f,-1.48380145e-01f,
+1.44531786e-01f,-1.18145691e-02f,-3.71877551e-02f,+1.19640686e-01f,-1.25050932e-01f,
+1.34687200e-01f,+3.11591942e-03f,-1.83470808e-02f,-2.62178630e-01f,-1.45317778e-01f,
+1.04899131e-01f,+2.48517701e-03f,+8.39431025e-03f,+2.92213894e-02f,-5.84976263e-02f,
+1.93768069e-01f,+2.80651778e-01f,-1.23083375e-01f,+5.80867790e-02f,-1.91180781e-01f,
-9.31015909e-02f,-3.08927917e-03f,-2.29882196e-01f,-1.54604833e-03f,+1.02155335e-01f,
-8.52746218e-02f,+2.73597743e-02f,+1.44722927e-02f,+2.97769830e-02f,-9.15752128e-02f,
+8.08081180e-02f,-2.42251288e-02f,-1.94182768e-01f,-8.33916441e-02f,-1.92783684e-01f,
+5.90640530e-02f,+3.54315937e-02f,+3.62085178e-02f,-8.56481493e-02f,+3.51725258e-02f,
-1.05303610e-02f,-4.31429818e-02f,-6.18461668e-02f,-1.17142625e-01f,-3.11833471e-01f,
-5.24686351e-02f,+4.16971482e-02f,-1.29636109e-01f,-8.59779958e-03f,+1.22715145e-01f,
-5.36944084e-02f,-1.85077965e-01f,-7.21703023e-02f,-1.60407647e-01f,+6.40668273e-02f,
+2.00223953e-01f,-3.05292048e-02f,-1.81028485e-01f,+1.01691550e-02f,+2.58878917e-01f,
+1.53451070e-01f,-1.24236859e-01f,+1.42447185e-03f,-1.68398738e-01f,-1.94416530e-02f,
+7.20280558e-02f,+1.83346376e-01f,-1.15365252e-01f,+1.80730030e-01f,+6.26327544e-02f,
-6.43264968e-03f,+4.27619927e-02f,+1.94036752e-01f,+1.34862483e-01f,-1.00887969e-01f,
-1.38157710e-01f,-1.92247152e-01f,-1.78324759e-01f,-1.28033280e-01f,+4.23174836e-02f,
+5.43426685e-02f,-1.53611368e-03f,+1.12884112e-01f,+1.51681319e-01f,-2.99717277e-01f,
-2.52529293e-01f,-5.49295321e-02f,+3.28841396e-02f,+2.17620470e-02f,+4.95812595e-02f,
+1.49496660e-01f,-1.45033762e-01f,+1.36690587e-01f,-8.05247277e-02f,-6.17019124e-02f,
+1.17422594e-02f,-1.53094268e-04f,-2.12156281e-01f,-1.54393539e-01f,+4.79357764e-02f,
-3.29055250e-01f,-1.09285302e-01f,-1.63015947e-02f,+8.02468732e-02f,-6.18838631e-02f,
-1.54838696e-01f,-1.06885336e-01f,+6.82655200e-02f,-1.09266974e-01f,+2.88770080e-01f,
-1.07001901e-01f,+6.32160716e-03f,+6.49528354e-02f,+2.72304326e-01f,-4.28177752e-02f,
+2.42834434e-01f,+1.37304455e-01f,-6.80784211e-02f,-1.01028785e-01f,-1.77768275e-01f,
-2.25288227e-01f,+3.71209392e-03f,-4.89113815e-02f,+2.51178397e-03f,-8.53946209e-02f,
-3.31321582e-02f,-1.29686803e-01f,-1.87643021e-01f,-7.29505569e-02f,-2.49237902e-02f,
+2.85244942e-01f,-2.06469819e-01f,+2.20149115e-01f,-4.76641096e-02f,+8.05113278e-03f,
-7.17489570e-02f,+8.32535699e-03f,-1.20346062e-02f,-2.26055935e-01f,-1.78486824e-01f,
+2.69807935e-01f,+2.05116659e-01f,+3.28835279e-01f,+9.13217664e-02f,-1.61310107e-01f,
+1.62420481e-01f,-2.64650676e-02f,+2.04980135e-01f,-1.24579100e-02f,+3.32927853e-01f,
-6.73255399e-02f,+1.14392443e-02f,+4.30609025e-02f,+1.96769685e-01f,+1.52003184e-01f,
-8.07295665e-02f,-1.12735406e-01f,-5.78836054e-02f,-6.16981871e-02f,+2.00631954e-02f,
-2.02467948e-01f,-8.41551274e-03f,+2.08558261e-01f,+2.15728536e-01f,+3.78623009e-02f,
-1.35716513e-01f,+1.30693525e-01f,-6.96657225e-02f,+1.64249092e-01f,-1.87986106e-01f,
+1.99822098e-01f,+7.87993595e-02f,+1.86109729e-02f,-1.41993416e-02f,-2.14282364e-01f,
+3.48263420e-02f,+2.87858009e-01f,-7.06408098e-02f,-2.44300172e-01f,-9.26151220e-03f,
+2.13750437e-01f,-2.49444425e-01f,-2.10922077e-01f,-2.90961921e-01f,-1.31477818e-01f,
+2.61298046e-02f,+1.20525062e-01f,+3.94750327e-01f,+1.80507347e-01f,-1.28044486e-01f,
+1.28106028e-01f,-8.92616510e-02f,-6.20086789e-02f,+9.81827918e-03f,-2.65975837e-02f,
-8.34652483e-02f,+3.49151000e-04f,-4.54422608e-02f,+5.76993972e-02f,+1.99461296e-01f,
+2.23520204e-01f,-1.79228649e-01f,-7.39869326e-02f,-3.58011983e-02f,-1.27378017e-01f,
+8.90614614e-02f,-7.97149539e-02f,+2.57043123e-01f,-8.23109150e-02f,+1.19240090e-01f,
-2.17437491e-01f,+2.71111012e-01f,-1.01199172e-01f,-3.47417295e-02f,+2.24861875e-01f,
+6.86542988e-02f,+5.26328124e-02f,+1.83919631e-02f,-9.67256203e-02f,-9.54281911e-02f,
-9.00966302e-02f,+4.42600809e-03f,+8.84359851e-02f,+1.91537887e-01f,-4.99880575e-02f,
+1.73452809e-01f,+6.65381998e-02f,-1.91398323e-01f,-1.77752003e-02f,+1.06158815e-01f,
+1.20337442e-01f,-1.75669119e-01f,-1.11723378e-01f,+2.96276689e-01f,-4.77362908e-02f,
-5.81258908e-02f,+1.65594473e-01f,-3.51228639e-02f,-1.75045371e-01f,+2.34029651e-01f,
-1.91628575e-01f,+1.21563330e-01f,-1.90612599e-01f,-8.33566263e-02f,-9.40894485e-02f,
-2.25955043e-02f,+4.78929073e-01f,+4.43470217e-02f,-9.75291654e-02f,+6.52402639e-02f,
-1.18698187e-01f,-1.14561491e-01f,+3.34109366e-02f,-9.93863195e-02f,-2.48107255e-01f,
+1.07910708e-01f,+1.64775535e-01f,+3.06845516e-01f,+2.85179913e-01f,+1.22410454e-01f,
+2.38958016e-01f,+4.67814915e-02f,-7.24668801e-02f,+1.92981914e-01f,-2.53589544e-02f,
-6.54168949e-02f,-1.36334166e-01f,+1.92344531e-01f,+3.15843858e-02f,-5.01514319e-03f,
+1.37548164e-01f,+1.24249794e-01f,+2.51601767e-02f,-8.05461332e-02f,-9.67230182e-03f,
+1.72617808e-01f,+4.18928713e-02f,+1.97010394e-02f,+7.06277266e-02f,-4.63709719e-02f,
-8.32056329e-02f,+2.06023589e-01f,-9.81137305e-02f,+9.56952348e-02f,-1.31484875e-02f,
+1.62415475e-01f,-4.56674807e-02f,+5.86973540e-02f,+1.07559875e-01f,+8.83248299e-02f,
+6.07326739e-02f,+5.97714819e-02f,-1.05054036e-01f,-1.83482707e-01f,-1.35056406e-01f,
-1.21330112e-01f,-2.34707788e-01f,-1.09329365e-01f,+3.88383456e-02f,-4.33570109e-02f,
-1.24795847e-01f,-1.85020953e-01f,+2.08892182e-01f,+2.77758837e-02f,-2.76714545e-02f,
+1.52437463e-01f,+2.31031165e-01f,+1.00605562e-01f,+2.68056631e-01f,+2.88093537e-01f,
+1.33032069e-01f,+6.93364441e-02f,+3.48932706e-02f,+1.09814942e-01f,+6.09711520e-02f,
-4.75473329e-02f,-1.56397715e-01f,+1.70239434e-01f,+4.56588194e-02f,-2.43718680e-02f,
-6.11564890e-02f,+2.55059749e-02f,+9.44520254e-03f,-1.22140691e-01f,-5.00748418e-02f,
+1.76154040e-02f,+2.50722349e-01f,-3.99666965e-01f,+1.17838159e-02f,-9.59682986e-02f,
+2.22851470e-01f,+3.23646776e-02f,+4.08346117e-01f,-7.99409449e-02f,-2.74655484e-02f,
+5.26970103e-02f,+2.42835835e-01f,-4.85206619e-02f,+1.56632200e-01f,+1.58269823e-01f,
-3.94959450e-01f,+1.40825540e-01f,-8.33448246e-02f,-4.62425463e-02f,-3.91664132e-02f,
+1.70255583e-02f,-3.07189040e-02f,+1.97848538e-03f,-3.03020293e-04f,+2.06934050e-01f,
+4.14012402e-01f,+6.13991022e-02f,+2.06160352e-01f,-8.44297707e-02f,-1.63874969e-01f,
+3.92704979e-02f,+1.65664956e-01f,-3.37292224e-01f,+1.39914677e-01f,-4.15038243e-02f,
-9.80190784e-02f,+3.72039452e-02f,+1.99991867e-01f,-1.21417046e-01f,-3.96089554e-02f,
-4.95656244e-02f,-9.68069211e-03f,+1.25833124e-01f,+8.57170019e-03f,+3.01549345e-01f,
-1.19352669e-01f,+1.51402339e-01f,+2.27932021e-01f,-1.13069057e-01f,+9.31853503e-02f,
+3.83005142e-01f,+1.98057488e-01f,+1.11779675e-01f,+2.61138584e-02f,-2.63290256e-02f,
+1.09088816e-01f,+1.66297674e-01f,-1.32708490e-01f,+2.59746134e-01f,+1.10409603e-01f,
-8.03337097e-02f,-2.48157218e-01f,+8.24010223e-02f,+3.17308530e-02f,-2.88260907e-01f,
-3.55261862e-02f,+6.40202835e-02f,+1.33369908e-01f,-6.66493131e-03f,+1.93616271e-01f,
+1.07602358e-01f,-2.57961869e-01f,-1.11267217e-01f,+2.36200914e-01f,+1.29338294e-01f,
+6.60954267e-02f,+2.28701323e-01f,+5.47580533e-02f,+2.55992442e-01f,-1.18806064e-02f,
+9.56380442e-02f,-1.66607633e-01f,-4.82306443e-02f,+7.70177990e-02f,+1.01128824e-01f,
+9.63967666e-02f,+2.78605103e-01f,-2.02027366e-01f,-1.16010070e-01f,-4.89663072e-02f,
+2.33469754e-01f,+3.03928480e-02f,-2.39600450e-01f,+4.24055010e-01f,+7.41458237e-02f,
+6.84353784e-02f,+1.31688714e-01f,-9.02460366e-02f,-3.50244204e-03f,+2.38138624e-02f,
-2.64445543e-02f,+9.67682302e-02f,+8.72672256e-03f,-1.37282684e-02f,+7.21224770e-02f,
+7.95480087e-02f,+5.33246510e-02f,+9.28131565e-02f,+8.51676166e-02f,+1.66261435e-01f,
-1.00188509e-01f,-2.63639428e-02f,-3.21614623e-01f,+1.83267638e-01f,-1.63349465e-01f,
+1.27994329e-01f,+1.22693675e-02f,+2.56031066e-01f,+5.00016868e-01f,+2.46778503e-01f,
+4.83091958e-02f,+1.85251787e-01f,-8.11372995e-02f,+6.68749167e-03f,+1.18338935e-01f,
-1.51153272e-02f,+4.78357151e-02f,+2.83957452e-01f,+1.75329328e-01f,+5.67736551e-02f,
-5.26930429e-02f,-2.69907061e-02f,-1.86427489e-01f,-5.76430336e-02f,+1.71969995e-01f,
+1.91735297e-01f,+1.63596779e-01f,-5.91581464e-02f,+4.84640002e-02f,-2.95135111e-01f,
-3.25123370e-01f,+9.05337930e-02f,+9.30801481e-02f,+1.04129389e-01f,+8.57993960e-02f,
+1.69743858e-02f,-1.22399135e-02f,+1.59742132e-01f,-2.38639057e-01f,+1.79991275e-02f,
-2.09211469e-01f,+2.58496732e-01f,-2.73103565e-01f,+3.01878806e-02f,+1.29432097e-01f,
+2.07655415e-01f,+8.95117149e-02f,-9.63921174e-02f,+1.58028677e-01f,-9.25884172e-02f,
+4.80703264e-01f,-1.02082640e-01f,-4.46016282e-01f,+1.53103054e-01f,-1.01824939e-01f,
-8.43732208e-02f,+1.43888131e-01f,-3.80839892e-02f,+1.85716107e-01f,+6.73211589e-02f,
-8.06936994e-02f,-3.78688388e-02f,+1.48116022e-01f,-1.44485068e-02f,-2.37380087e-01f,
-2.15402812e-01f,+1.56573668e-01f,+4.56289381e-01f,+3.33656371e-03f,+1.27607122e-01f,
+5.24241328e-02f,+1.02813803e-01f,+5.96817657e-02f,+2.49174520e-01f,-1.74700934e-02f,
-7.72412941e-02f,-2.00053439e-01f,-1.97129562e-01f,-2.20502689e-02f,-1.47547377e-02f,
+1.71680570e-01f,-6.64410964e-02f,+1.29194409e-01f,+1.42135575e-01f,+2.18614563e-01f,
+1.14857092e-01f,+5.61798587e-02f,-1.92521960e-01f,+5.66699952e-02f,+9.83852744e-02f,
-2.14311838e-01f,+4.91102301e-02f,+2.21140027e-01f,+1.06815264e-01f,+1.51729390e-01f,
-9.48435441e-02f,-3.42735611e-02f,+2.83469528e-01f,-1.06996819e-01f,-1.18314348e-01f,
+7.36645386e-02f,+2.88725287e-01f,-1.94209337e-01f,-7.20835924e-02f,+1.89655915e-01f,
+1.28170863e-01f,-1.60437480e-01f,-2.26001423e-02f,+1.19154662e-01f,-4.55559790e-02f,
+2.21067473e-01f,-3.25196050e-02f,-4.42410149e-02f,-2.57096827e-01f,-1.37706071e-01f,
+4.55064923e-02f,+4.56329674e-01f,+1.69404775e-01f,-2.41879374e-01f,+1.73036471e-01f,
+4.84684035e-02f,-8.83658975e-02f,-1.33613840e-01f,+7.65228420e-02f,-4.51679289e-01f,
-3.48198086e-01f,+1.28827780e-01f,+4.90542263e-01f,-2.12733895e-01f,-2.05861256e-01f,
+9.02489871e-02f,+3.43551859e-02f,-1.11266650e-01f,+2.80859452e-02f,-1.22426897e-01f,
+1.44978538e-01f,+9.50180739e-02f,+9.74244922e-02f,-1.95106342e-01f,+2.97915161e-01f,
+2.90100455e-01f,-1.71399578e-01f,-1.48899540e-01f,-1.19385503e-01f,+3.13905515e-02f,
-4.46904227e-02f,-1.19785503e-01f,-2.85279989e-01f,-3.52980524e-01f,+1.12213604e-01f,
+7.19542876e-02f,+8.00509080e-02f,+1.58575684e-04f,+8.39412212e-02f,-1.64809853e-01f,
+2.66537294e-02f,+1.37983918e-01f,+1.00050092e-01f,-2.13600352e-01f,-6.46426305e-02f,
-9.04914886e-02f,+3.08861714e-02f,-8.60751420e-02f,+4.42783117e-01f,+2.47604221e-01f,
+1.05172902e-01f,-2.31624078e-02f,-2.50408202e-01f,+4.70323145e-01f,+9.83542297e-03f,
+2.05667287e-01f,+1.92776304e-02f,+7.66780004e-02f,-1.47495598e-01f,+1.47404224e-01f,
-4.97060157e-02f,-5.13417944e-02f,+6.84738383e-02f,+7.13449419e-02f,+8.93354416e-02f,
+2.60688305e-01f,-1.01920255e-01f,-1.76692635e-01f,+1.04792967e-01f,-3.78850490e-01f,
-4.33988422e-02f,-7.61574805e-02f,-9.30984989e-02f,-9.95378867e-02f,+1.83490157e-01f,
+6.50206506e-02f,-3.93358052e-01f,-1.63855460e-02f,-2.28583634e-01f,+2.04718798e-01f,
-4.95284438e-01f,-3.46840583e-02f,+2.26805985e-01f,+7.89603293e-02f,-2.55173773e-01f,
-2.04219714e-01f,-1.50620297e-01f,-1.03892006e-01f,-1.17448010e-01f,+1.12472303e-01f,
+1.17837548e-01f,+2.06330106e-01f,+7.75151746e-03f,+5.73444217e-02f,+3.36947404e-02f,
+2.70196676e-01f,+1.88344419e-02f,-1.14058025e-01f,+1.26176000e-01f,-1.29495319e-02f,
-2.07126319e-01f,-3.03834886e-03f,+1.45595565e-01f,+3.36302936e-01f,-2.20387936e-01f,
-2.03045890e-01f,-2.90497899e-01f,-6.77095875e-02f,-2.43229434e-01f,+8.35438669e-02f,
-8.29910338e-02f,+1.65933043e-01f,+1.10830493e-01f,+3.82202834e-01f,+4.34315175e-01f,
+1.26169086e-01f,-4.82481085e-02f,-4.25116420e-02f,+1.60447478e-01f,-2.59100080e-01f,
+5.84876537e-02f,-2.65510753e-02f,-3.48812848e-01f,-2.10109487e-01f,-2.56981522e-01f,
-2.45884836e-01f,-1.92476124e-01f,+1.62552912e-02f,+2.04045311e-01f,-3.27842951e-01f,
-1.14807123e-02f,-9.26058888e-02f,-3.00618827e-01f,+1.86311260e-01f,+3.72777246e-02f,
+7.50897527e-02f,+2.19307408e-01f,+4.41731542e-01f,+1.73724189e-01f,+1.11191459e-01f,
-2.46767506e-01f,+6.64570332e-02f,+9.49908569e-02f,+1.34442942e-02f,+2.55667984e-01f,
-1.78271219e-01f,-2.01790165e-02f,+2.25356761e-02f,+3.88434492e-02f,-8.44627339e-03f,
+1.30382463e-01f,+1.53248996e-01f,+2.16494828e-01f,+2.54822701e-01f,+1.99210122e-01f,
+1.02387229e-02f,+9.48875174e-02f,-1.69571161e-01f,+1.25542879e-02f,+1.85825214e-01f,
-1.75951019e-01f,-2.47088790e-01f,+8.53479654e-02f,+1.17760204e-01f,-9.78759602e-02f,
+1.21085078e-01f,-2.09065937e-02f,+1.57540202e-01f,-4.04965458e-03f,+5.74945845e-02f,
-1.70272142e-01f,-7.00917393e-02f,-1.59893811e-01f,+1.35356560e-01f,+2.34667256e-01f,
+2.69939840e-01f,-1.98814586e-01f,+2.84157973e-03f,+8.47868398e-02f,-6.34367764e-02f,
+3.38610634e-02f,-3.17449272e-02f,-1.68824494e-01f,-3.46712731e-02f,+1.67413309e-01f,
-1.48684531e-01f,+1.13581195e-02f,+1.48606405e-01f,+6.19369186e-02f,-1.91230718e-02f,
+2.29888838e-02f,+1.90820530e-01f,-8.78850222e-02f,+2.29181096e-01f,-2.51864325e-02f,
+4.93879505e-02f,+3.53181243e-01f,+2.12242007e-01f,-1.86405927e-01f,-2.62888134e-01f,
+2.37545922e-01f,+1.54910475e-01f,+8.89087915e-02f,-4.13069986e-02f,-1.59953058e-01f,
-1.93171892e-02f,-1.54761240e-01f,-2.92703271e-01f,-9.73596871e-02f,+2.54121214e-01f,
-8.83207694e-02f,+1.22700654e-01f,+1.73094690e-01f,+1.12701669e-01f,-2.25878302e-02f,
-2.24910360e-02f,+3.80435796e-03f,+4.89535555e-03f,+6.03230903e-03f,-9.14253891e-02f,
+9.54784006e-02f,-1.33552924e-01f,-1.79459929e-01f,+7.32991174e-02f,+7.68336887e-03f,
+5.17256632e-02f,+3.66012529e-02f,-2.52762586e-01f,-5.95385060e-02f,-8.62825289e-02f,
+2.31019497e-01f,+6.02409206e-02f,+1.49388507e-01f,-1.34411395e-01f,+7.93327112e-03f,
-1.70867294e-01f,-1.25549197e-01f,+3.70151619e-03f,-6.69197366e-02f,-9.14995372e-03f,
+8.22171643e-02f,-2.53062457e-01f,+1.27525195e-01f,-3.53221223e-02f,-2.54831314e-01f,
-2.57468790e-01f,-1.80081651e-01f,+2.20768914e-01f,-2.09100410e-01f,+2.57036656e-01f,
-3.04359883e-01f,+3.14804763e-02f,-1.75806701e-01f,-4.22059372e-02f,-5.74139841e-02f,
+7.64722154e-02f,+6.40322417e-02f,+1.47610113e-01f,+6.06759414e-02f,-3.41929197e-02f,
+3.14000368e-01f,+1.23572193e-01f,-2.43489310e-01f,+1.07338093e-01f,-3.78872693e-01f,
-7.22300932e-02f,+1.55605406e-01f,+1.29178211e-01f,-1.17008463e-01f,-3.38709578e-02f,
-6.17245734e-02f,+2.69970670e-02f,+2.94011295e-01f,+2.35741436e-01f,-2.01003104e-02f,
+1.05606489e-01f,-4.14249331e-01f,-1.14218853e-01f,-1.20029822e-01f,+1.14582106e-02f,
-1.35193631e-01f,-1.22102253e-01f,-5.45262247e-02f,-2.11473685e-02f,-6.93791211e-02f,
+1.53291106e-01f,+2.52991050e-01f,-8.93171355e-02f,+2.46652782e-01f,-3.25309634e-02f,
-1.25120074e-01f,-1.48986399e-01f,-1.08471915e-01f,+8.83696042e-03f,-1.87575355e-01f,
-1.21786490e-01f,+8.22842568e-02f,-1.89025164e-01f,-3.94805595e-02f,+2.34597862e-01f,
-1.27306972e-02f,-2.54200161e-01f,-2.05745846e-01f,-2.07058471e-02f,-3.55752185e-02f,
+1.18277982e-01f,+2.78687209e-01f,+1.17211610e-01f,-1.76594421e-01f,+2.12039858e-01f,
-1.89543739e-01f,-8.82223547e-02f,+1.02256007e-01f,-7.57566020e-02f,+2.63405055e-01f,
+4.48380373e-02f,-5.46058863e-02f,-1.50785372e-01f,+2.90756881e-01f,-1.90104857e-01f,
+2.56656203e-03f,-3.62673365e-02f,+1.32911280e-01f,-2.85528647e-03f,+1.86168417e-01f,
-8.68565217e-02f,-5.97179011e-02f,+7.93623179e-02f,+1.81662261e-01f,-1.43659860e-01f,
+1.28996193e-01f,-2.14111313e-01f,-2.47782305e-01f,+8.83700177e-02f,-1.00986622e-02f,
-1.24597289e-01f,-1.17216334e-01f,+2.60467798e-01f,+1.28353208e-01f,-1.41137198e-01f,
-7.66162425e-02f,-1.57410413e-01f,+1.79681256e-01f,+9.48954299e-02f,-1.78905740e-01f,
+1.21052131e-01f,-2.80590933e-02f,+8.50325625e-04f,+8.06941614e-02f,-7.85024539e-02f,
-3.01248729e-01f,+1.37374282e-01f,+7.58907869e-02f,+6.16039187e-02f,+1.63842455e-01f,
-3.26637387e-01f,+2.72906929e-01f,+3.66504133e-01f,+2.12883592e-01f,+7.29703531e-02f,
+3.52272630e-01f,+1.06249906e-01f,+2.48449624e-01f,+4.20998484e-01f,+1.74504280e-01f,
+9.85534266e-02f,-7.04470184e-03f,+1.39271960e-01f,+1.83796361e-01f,-4.39027995e-02f,
-3.18064839e-01f,-2.63267994e-01f,-1.54496282e-01f,-4.89921458e-02f,-1.13440538e-03f,
+1.24308243e-01f,+7.54237175e-02f,-1.20178699e-01f,-8.47044028e-03f,-1.65290132e-01f,
+9.79073942e-02f,-6.70358241e-02f,+2.63112515e-01f,+2.64786452e-01f,+1.15146063e-01f,
-1.71139091e-01f,+1.69744015e-01f,+1.28091633e-01f,-3.51254404e-01f,-2.13877767e-01f,
-3.21010053e-02f,-9.27320775e-03f,-3.82155001e-01f,-1.37273133e-01f,-2.02626839e-01f,
-1.82371229e-01f,-2.21654736e-02f,+3.09692174e-01f,-2.40196347e-01f,+3.18021253e-02f,
-7.02581704e-02f,+1.92509353e-01f,+5.46678975e-02f,+1.70208275e-01f,+3.37369926e-02f,
+1.92929655e-01f,-1.74124300e-01f,-2.83829749e-01f,-4.07796837e-02f,-9.80219021e-02f,
+1.04351267e-01f,+1.58743575e-01f,-1.93702817e-01f,+1.25372246e-01f,-1.76855072e-01f,
-1.88499540e-01f,+1.23369329e-01f,+2.96319634e-01f,-4.92368415e-02f,+7.62181506e-02f,
+2.60231286e-01f,-4.41762544e-02f,-9.00759026e-02f,+1.29280612e-01f,+1.74281616e-02f,
-1.28946394e-01f,+1.58967257e-01f,+1.00914299e-01f,-3.50256264e-02f,+1.40990987e-01f,
+1.34723142e-01f,+9.47457924e-02f,+1.07721742e-02f,-1.81808233e-01f,-1.34068251e-01f,
-3.18952501e-01f,-1.50065228e-01f,-2.44969770e-01f,-1.22810327e-01f,+1.07926764e-01f,
-6.84647560e-02f,+6.35511130e-02f,-3.65186036e-01f,+3.19256932e-02f,+2.38804981e-01f,
-3.33249979e-02f,+1.58283308e-01f,-2.25542516e-01f,+8.89849588e-02f,+5.63883930e-02f,
+2.38010541e-01f,+2.17598990e-01f,+2.08116714e-02f,-7.39375204e-02f,-1.17530666e-01f,
-1.15856929e-02f,+8.69667605e-02f,+1.53409213e-01f,+3.78419667e-01f,+8.42731223e-02f,
+5.57552427e-02f,+1.99549682e-02f,-7.25690275e-02f,+4.31877114e-02f,+1.64900765e-01f,
+1.91101909e-01f,-8.70031193e-02f,-4.25795257e-01f,+2.75741190e-01f,-4.43387516e-02f,
+1.89981400e-03f,+3.15851986e-01f,+3.32363993e-01f,-7.50813335e-02f,+9.42102727e-03f,
+1.17962070e-01f,-2.33483598e-01f,-1.10720776e-01f,-2.93401659e-01f,+1.77138764e-02f,
-3.53624448e-02f,-4.74666059e-03f,-1.81504428e-01f,+1.11180581e-01f,+1.18818752e-01f,
+1.59739465e-01f,+1.38024539e-01f,+1.55117944e-01f,-2.16589108e-01f,-1.04554653e-01f,
+3.65811765e-01f,+1.74674213e-01f,-1.42486423e-01f,-2.97640741e-01f,-3.77879962e-02f,
-1.81940303e-03f,+2.41347954e-01f,+1.31265774e-01f,+1.64922122e-02f,-1.66988656e-01f,
-3.70670766e-01f,-1.45816868e-02f,-3.90969366e-02f,-1.92118526e-01f,-1.66357800e-01f,
+1.29318431e-01f,+8.11965764e-03f,+1.04299307e-01f,+4.23627794e-02f,+1.08808689e-01f,
+6.40923977e-02f,+3.68714556e-02f,+6.97639436e-02f,+1.72342867e-01f,-1.97560772e-01f,
+6.43754303e-02f,+8.86524469e-02f,+1.30154058e-01f,+3.19381028e-01f,-3.55145782e-02f,
+1.10983774e-01f,+8.60084035e-03f,-4.13249172e-02f,+9.16664116e-03f,+1.07141361e-01f,
-1.34565800e-01f,-1.65094271e-01f,-8.33298266e-02f,-2.05083981e-01f,-6.30990565e-02f,
+9.74811539e-02f,+2.21293747e-01f,-3.86751145e-02f,-3.23773116e-01f,+1.20349973e-01f,
+2.39266947e-01f,+2.74178416e-01f,+1.97358280e-01f,-2.66798567e-02f,+1.13648705e-01f,
+8.04651976e-02f,-4.07739103e-01f,-5.33575602e-02f,+1.35478899e-01f,-4.32906747e-02f,
+7.31578693e-02f,-4.66046669e-02f,+3.43360528e-02f,-1.06674030e-01f,+1.23557150e-01f,
-4.75956202e-02f,+1.17650509e-01f,+2.47620508e-01f,-1.50169685e-01f,-1.67649873e-02f,
+4.08585481e-02f,+2.15492055e-01f,+5.55265024e-02f,-1.29470110e-01f,-4.28222935e-04f,
-1.23338290e-01f,-5.87405488e-02f,-2.60216534e-01f,+4.14085016e-02f,-5.08769900e-02f,
+1.10590294e-01f,-3.46758187e-01f,+1.21761978e-01f,-1.63723171e-01f,+7.23656267e-02f,
+8.16622376e-02f,+2.81470835e-01f,-8.37523118e-03f,-2.35577852e-01f,+1.96046114e-01f,
-3.16555679e-01f,+2.55641669e-01f,-1.72497854e-01f,+8.70602652e-02f,+2.51817465e-01f,
+5.58631942e-02f,-1.31600946e-01f,+1.56731866e-02f,+2.58828532e-02f,+1.05943412e-01f,
-1.44858733e-01f,+1.63953472e-02f,-1.20312445e-01f,+3.92201245e-02f,+9.29141138e-03f,
-1.51696831e-01f,-1.03442088e-01f,+2.17697322e-01f,+6.89069405e-02f,+8.81091207e-02f,
+1.37050986e-01f,+2.55855620e-01f,-2.76006401e-01f,+7.47967213e-02f,-2.06220061e-01f,
+9.13658589e-02f,+2.05064323e-02f,-1.70520470e-01f,+2.12928817e-01f,+2.38304511e-01f,
-4.25426476e-02f,-9.03225020e-02f,-2.81579465e-01f,+3.06049548e-02f,+2.13231489e-01f,
-2.73176073e-03f,+3.60514447e-02f,-4.59395442e-03f,+1.29060388e-01f,-3.30783039e-01f,
+2.38645047e-01f,+1.04872175e-01f,-2.30915640e-02f,+1.81497008e-01f,-5.33683151e-02f,
-6.70768507e-03f,+2.01514632e-01f,-2.12388992e-01f,-1.11977302e-01f,+2.62964591e-02f,
+1.58128604e-01f,+2.77133673e-01f,+6.61124960e-02f,-4.23951633e-03f,-4.71665002e-02f,
+6.41805008e-02f,-5.64641468e-02f,+6.14292584e-02f,+6.98888376e-02f,+1.64921835e-01f,
-2.17053533e-01f,-2.31864274e-01f,+5.42805530e-02f,+3.46282125e-02f,+7.44166747e-02f,
+2.27696970e-01f,-2.41053388e-01f,+1.36475340e-01f,-3.14067975e-02f,+5.22029884e-02f,
-1.14644893e-01f,-3.68139371e-02f,+2.75185965e-02f,+2.47194439e-01f,+1.65120482e-01f,
-4.72928546e-02f,+1.39692158e-01f,+1.03735164e-01f,+3.87439579e-01f,+1.08003229e-01f,
+3.85537110e-02f,+4.82340008e-02f,+3.66374031e-02f,-5.80079593e-02f,+8.48126481e-04f,
+2.57577360e-01f,+4.03339155e-02f,+1.73344821e-01f,+7.60425702e-02f,+3.97017121e-01f,
+1.24321014e-01f,-1.53504983e-01f,+1.22275151e-01f,+2.38208055e-01f,+6.35527372e-02f,
+1.81608126e-01f,+1.22219674e-01f,+2.36361951e-01f,+8.55896845e-02f,+3.00019741e-01f,
-6.02425970e-02f,+2.12566093e-01f,-6.46957010e-02f,-1.14266001e-01f,+3.00498873e-01f,
-4.93114293e-02f,+8.95007253e-02f,+2.00212330e-01f,-2.73746364e-02f,+1.99330404e-01f,
+5.09472750e-02f,+1.39958188e-01f,-6.52456656e-02f,-9.09015760e-02f,+6.85338378e-02f,
+2.46463582e-01f,+1.30968958e-01f,+3.56642492e-02f,-6.43752739e-02f,+8.93648118e-02f,
+4.53750044e-02f,+3.43026847e-01f,-3.40861380e-02f,-1.20485583e-02f,-5.23904786e-02f,
+3.00011393e-02f,-1.18802898e-01f,-1.14765381e-02f,+1.19832791e-01f,+2.83062965e-01f,
-1.23530656e-01f,-1.33499205e-01f,-5.38653620e-02f,+2.22498775e-01f,+1.03390619e-01f,
-1.38960481e-01f,+9.96642336e-02f,+3.00282277e-02f,-1.05503857e-01f,-1.14778556e-01f,
+5.54955415e-02f,+1.69104442e-01f,+1.07586652e-01f,-6.42475337e-02f,+2.37869695e-02f,
+2.97133803e-01f,-3.01068611e-02f,+8.96513239e-02f,-8.61839112e-03f,-1.22999564e-01f,
-1.95774123e-01f,+9.06661153e-03f,-2.45435716e-04f,-2.97836438e-02f,+6.73395162e-03f,
+1.90122202e-02f,+4.09275144e-01f,+3.34961563e-02f,-1.84065238e-01f,-1.69717371e-01f,
+3.78460176e-02f,+5.06275371e-02f,+2.10378528e-01f,-7.39466175e-02f,+1.49540547e-02f,
+2.67043054e-01f,+2.14992296e-02f,+1.87374502e-01f,+1.33576959e-01f,-1.01543695e-01f,
+1.39024034e-01f,-6.39523417e-02f,-1.03987977e-01f,-5.33428043e-02f,+2.23733842e-01f,
-1.11499421e-01f,+4.60552275e-02f,-4.18726467e-02f,+3.42282392e-02f,+7.55089521e-02f,
+1.21917307e-01f,+7.37443864e-02f,+1.02956802e-01f,-1.64055020e-01f,+2.27684408e-01f,
+1.07329115e-01f,+1.94626749e-01f,+3.72545123e-01f,-2.28239223e-02f,+1.48039863e-01f,
+1.12045817e-01f,+1.53987676e-01f,-6.66665798e-03f,-3.51738751e-01f,+6.14977628e-02f,
+2.46089056e-01f,+2.16365367e-01f,-1.04774155e-01f,+1.24324039e-01f,-5.10884449e-02f,
-4.17387858e-02f,-1.03231579e-01f,-5.70721850e-02f,-4.91672084e-02f,-2.21410066e-01f,
-1.02671906e-01f,+2.43550554e-01f,+2.93602776e-02f,-6.16310909e-02f,-2.55293213e-02f,
+4.01191972e-02f,-1.28991585e-02f,+1.32233232e-01f,-2.37240642e-01f,-9.35475156e-02f,
-3.85797210e-02f,+5.20591438e-02f,+4.55048047e-02f,+1.76329419e-01f,-1.89160749e-01f,
-2.39420325e-01f,-1.16518535e-01f,+1.10545836e-01f,+5.36390170e-02f,+1.50550595e-02f,
+7.08225295e-02f,+1.57854244e-01f,-1.17425159e-01f,+3.07684869e-01f,+1.55134387e-02f,
-4.38119136e-02f,-2.71350555e-02f,-1.97638527e-01f,-1.24054611e-01f,+2.34920904e-02f,
+4.13709655e-02f,+8.33333582e-02f,+5.82960472e-02f,-8.40219632e-02f,-2.31519435e-02f,
+2.35430270e-01f,-1.07986927e-01f,+1.66316688e-01f,-3.06442817e-04f,+5.95245697e-02f,
-4.31181341e-02f,-2.45846614e-01f,+3.85931358e-02f,+2.12243898e-03f,+1.56846300e-01f,
+5.83137870e-02f,+1.50219910e-02f,-3.59883271e-02f,+3.69024165e-02f,-7.19693452e-02f,
+1.85153022e-01f,+1.68702364e-01f,+2.75093526e-01f,-3.43647227e-02f,+1.34335250e-01f,
+1.30711719e-01f,+8.17768555e-03f,+1.69085208e-02f,+5.97891957e-02f,+4.27065380e-02f,
+3.13633904e-02f,+6.27784729e-02f,+1.35488376e-01f,-8.19352176e-03f,-2.25531474e-01f,
-1.88089069e-02f,+2.00351194e-01f,+2.22709730e-01f,+7.76605494e-03f,-1.73728719e-01f,
-1.55880414e-02f,+6.05135923e-04f,+6.96828291e-02f,-3.51267517e-01f,+9.84450150e-03f,
+2.79879570e-01f,-7.78297409e-02f,+2.27925628e-01f,-8.27629864e-02f,+1.53558761e-01f,
-2.20524222e-01f,-1.62663475e-01f,+1.30067751e-01f,+1.72594771e-01f,-9.34230685e-02f,
+1.74139991e-01f,+1.28724381e-01f,-1.24845572e-01f,-1.66016802e-01f,-2.16268361e-01f,
+9.25664753e-02f,+2.40140155e-01f,-1.43474042e-01f,+1.36352584e-01f,+1.00297317e-01f,
-2.45015472e-02f,+1.16552249e-01f,-1.34616550e-02f,-9.07712281e-02f,-5.46499044e-02f,
+9.71654989e-03f,-2.54995435e-01f,+8.01141486e-02f,+1.36188537e-01f,+9.32629108e-02f,
-1.46148190e-01f,+2.57315606e-01f,+5.27215935e-03f,+2.94753350e-02f,+2.65521228e-01f,
+1.19362988e-01f,+2.06407189e-01f,-7.53138140e-02f,-6.76446781e-02f,-4.02279422e-02f,
-6.02590553e-02f,+1.67913198e-01f,+2.83554047e-01f,+1.77290291e-01f,+2.30630815e-01f,
-1.71573445e-01f,+6.98585659e-02f,+2.99867570e-01f,-1.30697072e-01f,-2.73054719e-01f,
+2.73174286e-01f,-7.35370219e-02f,+1.62358955e-01f,+2.22184092e-01f,+2.34439999e-01f,
-5.09190634e-02f,+6.70767203e-02f,+2.61151284e-01f,+5.43120205e-02f,+8.29211157e-03f,
-2.50135034e-01f,-2.43415698e-01f,-2.03122526e-01f,+1.19273528e-01f,+1.56623304e-01f,
-2.17848584e-01f,+2.56659687e-01f,+7.86197186e-03f,-1.40766636e-01f,+2.15710953e-01f,
-2.28348613e-01f,+1.43477812e-01f,+7.51625970e-02f,-6.65215477e-02f,-1.16734207e-01f,
-4.33488674e-02f,+2.61313856e-01f,-2.79810250e-01f,-3.61914150e-02f,-5.47465459e-02f,
+8.43763873e-02f,+2.15710625e-01f,-8.89987797e-02f,+8.75725746e-02f,-1.06111370e-01f,
+7.40618724e-03f,+7.28147775e-02f,+1.74629483e-02f,-1.04750820e-01f,+1.33499205e-01f,
+1.97504014e-01f,-8.35058540e-02f,+2.49118775e-01f,-1.36080950e-01f,+2.19293147e-01f,
-2.33475670e-01f,+1.56962276e-01f,+1.92913324e-01f,-1.59523323e-01f,+1.92105994e-01f,
+1.86919540e-01f,+5.71844503e-02f,-1.69034570e-01f,+4.53191489e-01f,+8.59337375e-02f,
+9.61501971e-02f,+9.70755070e-02f,+1.20952532e-01f,+6.63817003e-02f,+1.28469184e-01f,
+1.55759856e-01f,+7.94495940e-02f,-3.88567075e-02f,-2.45183539e-02f,+4.02875710e-04f,
+8.82143304e-02f,+1.53153881e-01f,+4.02779207e-02f,+4.26987000e-02f,-6.54919893e-02f,
-9.48084146e-02f,+1.12615727e-01f,-9.03742835e-02f,+5.41592576e-02f,+1.31460667e-01f,
-1.28751218e-01f,+1.80514812e-01f,+7.44023472e-02f,+8.97070318e-02f,-5.39212637e-02f,
+3.86481047e-01f,+3.27682756e-02f,+2.12792903e-01f,+7.43715465e-02f,+1.28637567e-01f,
+1.44301094e-02f,-4.91382144e-02f,-7.28241950e-02f,-4.30216789e-02f,-8.33953470e-02f,
+2.74340749e-01f,-8.42699483e-02f,+1.23464696e-01f,-7.94187188e-03f,-5.36212772e-02f,
+3.72331768e-01f,-9.64028165e-02f,+3.98858413e-02f,+8.43220055e-02f,-2.69435085e-02f,
+2.75736064e-01f,-3.21116671e-02f,+9.26741809e-02f,+2.56813020e-02f,+2.34231174e-01f,
-1.63515657e-01f,+5.91227673e-02f,+1.97409645e-01f,+1.09721005e-01f,+1.49383554e-02f,
-2.22107813e-01f,+1.55407144e-02f,+7.20829144e-03f,-3.69881243e-02f,-3.58550102e-02f,
+1.46960154e-01f,+2.01660767e-01f,+1.20612681e-01f,-1.33396327e-01f,+8.25407505e-02f,
-1.96959347e-01f,-1.55814305e-01f,-1.88456267e-01f,-1.34295449e-01f,-1.63034633e-01f,
+2.87834615e-01f,-2.71293204e-02f,+4.59278941e-01f,-1.11806683e-01f,-1.25091687e-01f,
+2.14682087e-01f,-4.25229035e-02f,+1.05376355e-01f,-9.03657973e-02f,-1.11637078e-01f,
-1.55157447e-01f,-7.27825835e-02f,+2.19130427e-01f,+1.05223969e-01f,-4.14517522e-02f,
-8.82196650e-02f,+8.69967043e-02f,-4.96492311e-02f,+3.25894505e-01f,+1.03337988e-01f,
+1.73739612e-01f,-6.12054542e-02f,+1.98127240e-01f,-1.12269670e-01f,-7.96719454e-03f,
-1.05933979e-01f,+1.11189866e-02f,+4.54265289e-02f,-3.10584277e-01f,+1.76646963e-01f,
-5.61904050e-02f,+7.26799443e-02f,+7.98675418e-02f,-1.51204482e-01f,+1.99924543e-01f,
+1.81574985e-01f,+3.54546994e-01f,+5.85458986e-02f,+1.66622311e-01f,+6.05867505e-02f,
-5.11707701e-02f,+2.10874423e-01f,+1.92140192e-01f,+8.17108601e-02f,+3.55514854e-01f,
+6.54385313e-02f,-1.17202543e-01f,-3.19324769e-02f,+1.79697156e-01f,-2.29899243e-01f,
+2.26314172e-01f,-1.01432368e-01f,+1.20808035e-01f,+1.24074303e-01f,+2.84586519e-01f,
-2.49121800e-01f,+1.44083247e-01f,-5.99425510e-02f,-4.18026745e-02f,+3.17336768e-01f,
-2.96604335e-01f,+7.11169317e-02f,-2.03725964e-01f,-8.29981863e-02f,-1.92318857e-01f,
+4.36399370e-01f,-6.38412014e-02f,-1.23866729e-01f,+6.46951273e-02f,+6.92962063e-03f,
+1.85603201e-01f,-1.64030626e-01f,+9.87121984e-02f,+4.51111734e-01f,+1.04543999e-01f,
+1.67238966e-01f,-5.42392805e-02f,+3.70630205e-01f,+9.05999392e-02f,+3.46541166e-01f,
-1.31953344e-01f,-5.63139394e-02f,-1.83255374e-01f,-2.15772271e-01f,+7.14665279e-02f,
+9.87971053e-02f,+8.92076716e-02f,+1.45601362e-01f,+1.67655587e-01f,-8.73798355e-02f,
+1.57178804e-01f,+1.85943663e-01f,+7.11307675e-02f,+1.11965261e-01f,-2.62163673e-02f,
+1.65006611e-03f,+6.87617809e-02f,+2.43704483e-01f,+1.22352578e-01f,-1.04492269e-01f,
-9.91407856e-02f,+9.94831249e-02f,+1.57187715e-01f,+2.72527754e-01f,+2.67232001e-01f,
-6.88501587e-03f,+3.98458913e-03f,+9.74206477e-02f,-3.69253457e-01f,+2.48219863e-01f,
-7.90810212e-02f,+1.73470855e-01f,+2.44221836e-01f,+8.52718763e-03f,+1.64774075e-01f,
+7.00257346e-02f,+2.56819248e-01f,+7.39254132e-02f,+3.22943509e-01f,+8.00479650e-02f,
-1.80918962e-01f,-1.66036308e-01f,+1.62672743e-01f,+5.85767888e-02f,-1.20198801e-02f,
+1.03545720e-02f,+1.16302006e-01f,+1.00668266e-01f,+1.61130726e-01f,-2.10293174e-01f,
+1.92496464e-01f,+4.79523122e-01f,+2.33129337e-01f,-4.05026302e-02f,+2.54171014e-01f,
-4.77730222e-02f,-1.18584104e-01f,+2.38862485e-02f,+2.21344531e-01f,-1.47687078e-01f,
-2.43967175e-01f,-1.46437824e-01f,-1.38955787e-01f,+2.84597963e-01f,+4.48673591e-02f,
+4.54516858e-01f,-2.08942760e-02f,+2.50709224e-02f,+3.32739294e-01f,-5.12265377e-02f,
+8.09160918e-02f,+1.99945197e-01f,+2.36588657e-01f,+1.23409763e-01f,+1.61740948e-02f,
+1.06159570e-02f,-2.02672452e-01f,-1.51256889e-01f,+1.04739241e-01f,-2.04119429e-01f,
-3.17405730e-01f,+1.47085398e-01f,+3.49871144e-02f,+1.20609216e-01f,+3.44718248e-01f,
+2.03222886e-01f,+1.45711809e-01f,+1.49248883e-01f,+5.82685582e-02f,+1.90484002e-01f,
+1.62601858e-01f,-1.16694599e-01f,-4.27095219e-02f,-1.78944230e-01f,+1.62108451e-01f,
+3.57405066e-01f,+9.33201537e-02f,+2.20788002e-01f,+1.50890037e-01f,-1.71369180e-01f,
+3.21980380e-02f,+1.77377939e-01f,-1.08764812e-01f,+1.77287888e-02f,+1.25908628e-01f,
+6.88364506e-02f,-2.09489867e-01f,-8.09079036e-02f,-4.70550992e-02f,-1.78374559e-01f,
+2.40202859e-01f,+1.84560955e-01f,-4.33645621e-02f,-1.91282928e-02f,-1.50160119e-01f,
-1.00962892e-01f,-6.40317649e-02f,-2.85668015e-01f,-4.50666025e-02f,+1.29866555e-01f,
+2.78503835e-01f,-4.02014777e-02f,+1.59855604e-01f,+8.90224278e-02f,+2.98036188e-02f,
+3.64235342e-02f,-1.85007662e-01f,-1.88114539e-01f,+7.80876502e-02f,-6.66459426e-02f,
-8.47002119e-02f,+8.63131427e-04f,-8.14524889e-02f,+3.42499107e-01f,+1.16164863e-01f,
+1.91566437e-01f,-4.12258618e-02f,+8.25424194e-02f,-1.41002432e-01f,+1.38844341e-01f,
+5.09750433e-02f,+6.50078654e-02f,-1.30455762e-01f,-9.19004455e-02f,+4.42671999e-02f,
+4.93342690e-02f,+2.25632712e-01f,-4.24040742e-02f,+1.94749907e-02f,+8.28149542e-02f,
-1.94451630e-01f,+9.48101953e-02f,-7.46309757e-02f,-8.90902057e-03f,-2.10295275e-01f,
+6.01133145e-02f,+1.52326733e-01f,-2.05501780e-01f,+4.06822450e-02f,+2.22081110e-01f,
+1.67020515e-01f,+7.26373121e-02f,-1.04965389e-01f,+3.99146117e-02f,-1.91181805e-02f,
-1.74766839e-01f,+1.47381276e-01f,-3.94374371e-01f,-5.66659383e-02f,+4.17839825e-01f,
-2.17226088e-01f,-5.16105779e-02f,-9.13308337e-02f,+8.48293900e-02f,-1.46287426e-01f,
+9.86127481e-02f,-3.62961106e-02f,-5.84357083e-02f,+2.39527181e-01f,+1.28934085e-01f,
-1.85901523e-01f,+1.53914914e-02f,-1.17975675e-01f,-3.61190677e-01f,-1.34185776e-02f,
+1.90011367e-01f,-1.07141986e-01f,+3.70190889e-02f,+1.35852247e-01f,-3.77553236e-03f,
+1.66335821e-01f,-2.29460672e-01f,+2.27900848e-01f,-4.24786508e-02f,+8.05129781e-02f,
+1.69720456e-01f,+9.27257687e-02f,+9.49454382e-02f,-9.29959118e-02f,-1.25463575e-01f,
-1.45306572e-01f,+3.74910571e-02f,+1.56314418e-01f,-1.24846667e-01f,-1.10438988e-01f,
+3.22318643e-01f,-3.76538113e-02f,+2.08627760e-01f,+4.65768784e-01f,+1.86141029e-01f,
-5.13813458e-02f,-8.57367665e-02f,+3.06550902e-03f,+1.23563997e-01f,-2.08490774e-01f,
+1.35825481e-02f,-3.63035619e-01f,+1.09948367e-01f,+7.06808567e-02f,-1.01221941e-01f,
+8.30955431e-02f,+2.19501629e-01f,+9.24676582e-02f,-1.00447863e-01f,+4.06075269e-01f,
-1.00683048e-01f,-3.26100998e-02f,+1.99412227e-01f,+8.32040459e-02f,+1.69672981e-01f,
-5.94858862e-02f,+5.16073033e-02f,-1.00357957e-01f,+4.74042520e-02f,-2.23534480e-01f,
+9.31821242e-02f,+6.60340860e-02f,+1.46061808e-01f,+7.67905638e-02f,+2.27807611e-01f,
+1.44428194e-01f,-9.61734951e-02f,-9.58854184e-02f,-3.98572721e-02f,+3.65562029e-02f,
-5.16314134e-02f,-9.89742763e-03f,+9.52049419e-02f,+5.33922091e-02f,+3.07238586e-02f,
+2.65911575e-02f,-1.62594900e-01f,-1.35700002e-01f,+2.09721938e-01f,-1.38421819e-01f,
+7.92683009e-03f,-1.11314334e-01f,+1.37689561e-02f,-2.98218019e-02f,+6.71933070e-02f,
-1.04229532e-01f,+4.69111562e-01f,-1.32469505e-01f,+1.95273440e-02f,-1.29009131e-02f,
+1.64520174e-01f,+2.01884285e-01f,-3.71073872e-01f,+2.71047503e-02f,+3.95232141e-02f,
+4.79067415e-01f,+2.01700673e-01f,+1.80668414e-01f,-2.03001380e-01f,-8.22638795e-02f,
-8.63932222e-02f,+5.31409159e-02f,+2.16181755e-01f,-1.31760255e-01f,+6.10246547e-02f,
-1.16366357e-01f,+6.30554631e-02f,-1.93124250e-01f,+4.89039067e-03f,+5.52201048e-02f,
-1.54786676e-01f,+2.13121548e-02f,+2.92784814e-02f,-3.46941054e-01f,+9.91311669e-02f,
+3.10840700e-02f,-9.43651497e-02f,-1.73225462e-01f,+9.12352949e-02f,+4.38192785e-01f,
-3.09827566e-01f,-7.02107027e-02f,+7.06473961e-02f,-1.66515991e-01f,-1.05489120e-01f,
+2.95557380e-01f,+4.79534194e-02f,+1.04738072e-01f,-4.10722606e-02f,-1.72384694e-01f,
-3.52092236e-01f,+1.71417490e-01f,+3.53313982e-01f,+1.76053539e-01f,-1.08441813e-02f,
-7.64995515e-02f,-3.41988429e-02f,+6.34463578e-02f,-1.23276049e-02f,-2.27902934e-01f,
+8.81158095e-03f,+2.44491577e-01f,+1.05147667e-01f,+1.77684665e-01f,+1.34241685e-01f,
-4.91375774e-02f,-8.76410231e-02f,-9.49702263e-02f,+1.72207251e-01f,-8.74535888e-02f,
-1.71512574e-01f,-1.80457890e-01f,-4.17775810e-02f,+6.28208145e-02f,-1.79993853e-01f,
+1.19228311e-01f,-1.30473226e-01f,+4.64054719e-02f,-2.14606896e-01f,-3.60839605e-01f,
-2.51138620e-02f,-6.91975048e-03f,+2.33995080e-01f,-4.01179016e-01f,+1.87323734e-01f,
+5.75250760e-02f,-9.57425237e-02f,-1.67658068e-02f,-3.61012220e-02f,+4.64905016e-02f,
+5.22235967e-02f,+2.13815533e-02f,+6.65139556e-02f,-1.52980417e-01f,+1.16179809e-02f,
+3.34364951e-01f,+4.24317457e-02f,-2.70242989e-01f,+2.16574237e-01f,+7.24992454e-02f,
+6.63259104e-02f,+1.51824623e-01f,+2.19950438e-01f,-1.28272906e-01f,-1.09577522e-01f,
-1.21450491e-01f,-2.69804001e-01f,-4.60540682e-01f,+1.43403605e-01f,+1.36119574e-01f,
-9.96824056e-02f,-1.93022415e-01f,-5.78045957e-02f,-1.12939201e-01f,+3.75582762e-02f,
-1.70621201e-01f,-1.44769505e-01f,+1.59459502e-01f,+1.62388831e-01f,+4.73087877e-02f,
-1.55346960e-01f,-1.42988414e-01f,-8.16909447e-02f,+3.01108137e-02f,-1.19459361e-01f,
+9.44210291e-02f,+1.76425949e-01f,+2.02722579e-01f,+3.14856768e-02f,+1.05097719e-01f,
+4.24097091e-01f,-1.05343927e-02f,-1.72486752e-01f,-9.47429240e-02f,-7.84131661e-02f,
+1.18737683e-01f,+1.29699573e-01f,+2.87598819e-01f,+4.59467202e-01f,+1.44974329e-02f,
+2.19897747e-01f,+8.16784278e-02f,+1.49292752e-01f,-1.00877129e-01f,+3.65878013e-03f,
+7.51016438e-02f,-1.94926441e-01f,+1.26297504e-01f,-1.02263071e-01f,-1.29748166e-01f,
+1.40629843e-01f,+2.29851976e-01f,+2.53649265e-01f,+2.28429213e-01f,+2.96338886e-01f,
-2.75244176e-01f,+1.56628579e-01f,+9.85729545e-02f,-2.25809902e-01f,+2.61666000e-01f,
+3.57395150e-02f,+1.60558999e-01f,+6.61698803e-02f,-3.55458781e-02f,-2.22341672e-01f,
+1.51921421e-01f,-3.31563968e-03f,-2.29084268e-01f,-1.04235276e-03f,+1.48146793e-01f,
+5.43271601e-01f,+3.19189340e-01f,+1.67078972e-01f,+1.03482760e-01f,-1.39885709e-01f,
+2.04733387e-01f,+3.06764990e-02f,+1.15600094e-01f,-1.81984216e-01f,+2.24014327e-01f,
+1.00346627e-02f,-2.12145552e-01f,-1.14840761e-01f,+5.02706692e-03f,-1.41602084e-01f,
+1.24727294e-01f,-1.24944448e-01f,-8.56677294e-02f,-3.32962349e-02f,-1.39632121e-01f,
-5.73010705e-02f,-6.33255690e-02f,+4.88436937e-01f,-5.53908162e-02f,+1.05097584e-01f,
+2.48714700e-01f,+2.00436816e-01f,+4.38804030e-02f,-8.39360729e-02f,+3.61671478e-01f,
+9.38376710e-02f,+2.31031850e-01f,+1.00292690e-01f,-8.75639394e-02f,-1.87623054e-01f,
+1.07291140e-01f,-1.96659669e-01f,-3.80471498e-02f,+5.49122654e-02f,-1.77758299e-02f,
-2.35719129e-01f,+3.48106533e-01f,+3.42147164e-02f,+2.38594979e-01f,+1.23166025e-01f,
+9.90285948e-02f,+9.07654762e-02f,-2.23968476e-01f,+1.02284409e-01f,+1.73556313e-01f,
-1.50268450e-01f,-2.06908718e-01f,-1.37997285e-01f,+1.94173828e-01f,+1.86134860e-01f,
+7.77194872e-02f,+8.09439495e-02f,+1.69267077e-02f,-7.13164285e-02f,-3.03908233e-02f,
-2.43887194e-02f,-4.01097210e-03f,-2.58220825e-02f,+7.55009502e-02f,+9.80814695e-02f,
+1.16752647e-01f,-8.50874186e-02f,-1.18929893e-01f,+2.78687254e-02f,+1.84644192e-01f,
+5.73717616e-02f,+1.29742503e-01f,+2.73343265e-01f,+2.08980933e-01f,+7.86973536e-02f,
+2.15957373e-01f,+1.85702182e-02f,-6.01160303e-02f,+1.21207401e-01f,-7.54799396e-02f,
-7.49297161e-03f,+1.34115651e-01f,+1.49768114e-01f,+1.59318507e-01f,+5.49897403e-02f,
-1.40475720e-01f,-1.32392079e-01f,+3.50795835e-02f,+1.34200856e-01f,-1.92333251e-01f,
+1.91318229e-01f,+5.68805747e-02f,+3.28247845e-01f,+6.05244115e-02f,+1.29548028e-01f,
+5.63970860e-03f,+4.40880843e-02f,-9.91770402e-02f,+2.46059254e-01f,+2.17169002e-01f,
-1.16778515e-01f,-1.46250635e-01f,-1.73824281e-02f,+2.80197471e-01f,+5.80748394e-02f,
+2.25916833e-01f,-2.97536671e-01f,+6.97533712e-02f,-2.11106732e-01f,+1.72310069e-01f,
+1.31303400e-01f,-2.56882936e-01f,+2.67460883e-01f,-9.75005478e-02f,-1.96930647e-01f,
+2.50072163e-02f,+2.84285516e-01f,-2.16329098e-01f,-2.77869284e-01f,+3.40592265e-01f,
-7.01070055e-02f,+8.73326436e-02f,-1.19064972e-01f,-4.91542816e-02f,+5.56957275e-02f,
-1.76330954e-02f,-2.21023545e-01f,+6.61836267e-02f,-7.13082775e-02f,-7.37970024e-02f,
-1.25528052e-01f,+1.45748466e-01f,+1.74850419e-01f,-8.00796300e-02f,+9.48557339e-04f,
-2.96451420e-01f,-1.67992830e-01f,+5.11123613e-02f,-2.94835027e-02f,+1.16977014e-01f,
+8.88088942e-02f,-2.71560717e-02f,+2.30701342e-01f,-6.00684658e-02f,+1.07103340e-01f,
-1.00646839e-01f,+8.13168101e-03f,+2.43670925e-01f,-8.09428394e-02f,+3.91382813e-01f,
-8.10058564e-02f,-1.21431045e-01f,-1.34221129e-02f,+2.10606202e-01f,+5.23941815e-01f,
+1.20730288e-01f,+2.87924409e-01f,+5.81457764e-02f,+1.50458053e-01f,-5.84906638e-02f,
-3.86767946e-02f,+4.43987876e-01f,+7.51099959e-02f,+2.77701467e-01f,-3.56455445e-01f,
+1.39292181e-01f,+2.75954932e-01f,+1.21221028e-01f,+9.83112156e-02f,+1.30164742e-01f,
+2.82070469e-02f,-5.32220192e-02f,+1.28494263e-01f,+1.64543360e-03f,-3.36510390e-01f,
-1.80060510e-02f,-1.90544520e-02f,+2.50583947e-01f,-1.12763077e-01f,-1.55551909e-02f,
-2.33317956e-01f,+3.05343300e-01f,+2.03537866e-01f,-9.73377656e-03f,+2.53400169e-02f,
-3.80612798e-02f,+1.39632151e-01f,-5.16349636e-02f,-9.43023711e-03f,+1.80426091e-01f,
+3.56282969e-03f,-2.91701462e-02f,+1.18880056e-01f,-1.01182222e-01f,-2.12987825e-01f,
+1.34813577e-01f,+4.25858051e-02f,+1.56848338e-02f,+9.98834595e-02f,+2.55353212e-01f,
+1.46223009e-01f,+3.35159786e-02f,-5.95119409e-02f,+1.22248091e-01f,+3.43435593e-02f,
-1.22786365e-01f,-1.45825461e-01f,+6.97425231e-02f,+5.25077991e-02f,+2.88553149e-01f,
-9.77325886e-02f,+1.20672226e-01f,+2.71101624e-01f,+5.40388096e-03f,+2.60681719e-01f,
+1.57206148e-01f,+1.37550905e-01f,+1.01101168e-01f,+3.61447573e-01f,-2.51699924e-01f,
+1.82316542e-01f,-1.63178965e-01f,+7.34610334e-02f,+6.77364990e-02f,+4.61890221e-01f,
-7.92908072e-02f,+2.61080861e-02f,-1.10942394e-01f,+3.82025927e-01f,-3.46333683e-01f,
+5.34905754e-02f,-2.38425806e-02f,-6.18560687e-02f,+9.82566774e-02f,+6.72575384e-02f,
+7.03318492e-02f,+2.27959841e-01f,-5.29742204e-02f,-6.36677891e-02f,+6.36212006e-02f,
-6.86098114e-02f,+2.49245554e-01f,-1.59904063e-01f,-3.94005654e-03f,-8.59887749e-02f,
-1.03336796e-01f,-4.14368212e-02f,-8.08626711e-02f,-2.24354595e-01f,-2.64409333e-01f,
+3.59743387e-02f,+2.04095498e-01f,-2.94242450e-03f,+2.69643724e-01f,+3.21916223e-01f,
-6.81172684e-02f,-1.16009869e-01f,-1.45154893e-01f,+8.84940475e-02f,-6.27209246e-02f,
+1.51088566e-01f,+2.04708740e-01f,+1.83683604e-01f,-1.12212330e-01f,+8.51709470e-02f,
+3.78030092e-02f,-7.00956285e-02f,+2.67860055e-01f,-7.01955520e-03f,+1.33550376e-01f,
+1.73193872e-01f,-1.53048255e-03f,-3.48458052e-01f,-5.25969919e-03f,+3.48150656e-02f,
+3.32463235e-02f,-1.12674115e-02f,+8.94973427e-02f,+4.22658511e-02f,-1.93008661e-01f,
-4.35217619e-02f,-6.68056458e-02f,+6.60284609e-02f,-2.57417466e-02f,-2.10861117e-01f,
-2.28192136e-01f,+4.02816504e-01f,-4.57624421e-02f,+7.85875767e-02f,+1.90078035e-01f,
+1.29947200e-01f,-1.77826844e-02f,-2.11913772e-02f,+2.76587699e-02f,-9.41567421e-02f,
+6.38787448e-02f,-6.14533722e-02f,-2.46345490e-01f,+2.24015996e-01f,-1.84792676e-03f,
-3.63426059e-02f,-3.23528461e-02f,-8.66492763e-02f,+7.51938596e-02f,-9.68593955e-02f,
+2.67793059e-01f,-2.60987859e-02f,-6.66742921e-02f,-3.96103144e-01f,+1.00641280e-01f,
+1.40683949e-01f,-3.91127309e-03f,+1.98548157e-02f,+9.26853120e-02f,+2.72840000e-04f,
+1.27033025e-01f,-2.63242483e-01f,-3.19286883e-02f,-1.01165190e-01f,-1.04588494e-01f,
-3.39270115e-01f,+8.74701515e-02f,+1.79737434e-02f,+2.07359225e-01f,+1.36652708e-01f,
-5.44140816e-01f,-1.42171737e-02f,+9.89681482e-02f,-1.82441935e-01f,+1.92977488e-02f,
-2.56280363e-01f,-3.00529916e-02f,-2.06514504e-02f,+2.63285972e-02f,+1.19642377e-01f,
-9.94535089e-02f,+2.64489770e-01f,-1.65878236e-02f,+1.81107745e-01f,+1.22430667e-01f,
+8.75813589e-02f,+2.60483712e-01f,-4.05546039e-01f,+1.23015910e-01f,+2.09267706e-01f,
-2.30956733e-01f,+1.43370358e-02f,+2.49139294e-02f,-1.20587610e-02f,-5.42258471e-02f,
+1.23924486e-01f,+2.42889281e-02f,+1.49397433e-01f,-1.97651908e-01f,+2.08191067e-01f,
+1.03904501e-01f,-1.50914565e-01f,+6.31299540e-02f,+1.81735694e-01f,-2.69285142e-01f,
+1.89308003e-01f,+6.69250414e-02f,+3.35787296e-01f,+1.31763756e-01f,-2.21045557e-02f,
-2.54737347e-01f,+1.97062969e-01f,+1.50623620e-01f,-1.47533774e-01f,+2.20822841e-01f,
-1.70068994e-01f,+1.56466007e-01f,+1.25050679e-01f,+4.40764651e-02f,-5.88406958e-02f,
+9.01896507e-02f,+1.70465305e-01f,-3.50683779e-02f,-6.72137588e-02f,-3.53742242e-01f,
+6.39174506e-02f,+2.39768505e-01f,-1.87478110e-01f,+2.70207500e-04f,-1.71416357e-01f,
+1.06306605e-01f,+9.94383767e-02f,+2.64636219e-01f,+1.31956235e-01f,+1.14268832e-01f,
+1.08803801e-01f,+7.21356124e-02f,-2.76288460e-03f,+7.50503549e-03f,-4.97863740e-02f,
+1.26578463e-02f,+3.60486865e-01f,+5.68892173e-02f,+9.41454247e-02f,+1.61843061e-01f,
+2.61193365e-02f,+1.31621450e-01f,+3.04805636e-01f,+1.42058432e-01f,+9.69936699e-02f,
-6.70946911e-02f,-8.16281140e-02f,-5.68003207e-02f,+2.55522400e-01f,-2.42024660e-01f,
-2.62652729e-02f,+1.46030441e-01f,+2.78529912e-01f,-1.64186671e-01f,+2.76970398e-02f,
+2.57558286e-01f,+1.16852857e-01f,-6.21455684e-02f,+2.65821695e-01f,-9.74555239e-02f,
+7.73091838e-02f,-2.97000799e-02f,+1.47305086e-01f,-4.55134176e-03f,-7.32600242e-02f,
+5.73913530e-02f,-1.37551337e-01f,+5.61612062e-02f,+1.32228062e-01f,+2.00934783e-01f,
+4.52937670e-02f,+2.27767467e-01f,-1.13433920e-01f,+1.50198871e-02f,+3.93401049e-02f,
+1.21833444e-01f,-5.27717061e-02f,+8.66467208e-02f,+4.33868729e-02f,-9.26207155e-02f,
+7.95983449e-02f,+6.11065328e-03f,-3.13272104e-02f,+8.65425020e-02f,-1.27604268e-02f,
+1.93010122e-02f,-3.30518149e-02f,+1.79898173e-01f,-4.44875620e-02f,+1.11932606e-01f,
+1.87586378e-02f,+8.26442018e-02f,+2.88077027e-01f,+2.51186430e-03f,-5.73403202e-02f,
+1.19922515e-02f,-1.91959485e-01f,-1.40871644e-01f,-2.36173838e-01f,-3.33673120e-01f,
+1.01913646e-01f,+3.35415863e-02f,-2.00240258e-02f,-4.92102094e-02f,+1.20213248e-01f,
+1.27264261e-01f,+2.92666294e-02f,+6.12074649e-03f,+1.35990540e-02f,+1.29796252e-01f,
+1.07559264e-02f,+1.97161704e-01f,-1.25132740e-01f,-1.72638372e-01f,-1.08225517e-01f,
+1.16726453e-03f,+3.80426385e-02f,-2.91800462e-02f,-1.23527385e-01f,-1.07060306e-01f,
+2.69379467e-01f,+3.44380476e-02f,-7.11679235e-02f,+2.08906189e-01f,+4.48837988e-02f,
+1.85471699e-01f,-4.53736586e-03f,+1.07796593e-02f,+8.96700770e-02f,+2.57348586e-02f,
+2.17321470e-01f,+6.22629747e-02f,-7.91057572e-02f,+9.66860130e-02f,+1.88674498e-02f,
+2.17177376e-01f,-8.89233127e-02f,-3.75046805e-02f,+2.46799007e-01f,-7.73264393e-02f,
-2.26728264e-02f,+2.39498481e-01f,-5.23540713e-02f,-1.14496864e-01f,-8.99961293e-02f,
-8.95440355e-02f,-1.00074649e-01f,-1.64905228e-02f,-7.10421205e-02f,-1.36118263e-01f,
-2.36323159e-02f,-1.71924129e-01f,+4.65357900e-01f,-3.51571254e-02f,+5.26735932e-02f,
+9.35170054e-02f,+1.09785132e-01f,+3.37061323e-02f,-1.38066933e-01f,-7.71879405e-02f,
-5.55192754e-02f,+1.14360541e-01f,-1.84197903e-01f,-1.03723213e-01f,+4.47062291e-02f,
+4.43346128e-02f,+5.81239462e-02f,+2.95512788e-02f,+1.23346321e-01f,+4.45974506e-02f,
+1.97489515e-01f,+2.82262731e-02f,-4.70164567e-01f,-2.53630131e-01f,+3.66940983e-02f,
+2.72199631e-01f,+1.22778863e-01f,-1.69678163e-02f,-1.54288774e-02f,+1.23769045e-01f,
+1.99095249e-01f,+1.45747289e-01f,-1.61910161e-01f,+1.52250350e-01f,-1.47919640e-01f,
-9.54438467e-03f,+5.96768111e-02f,+1.04386648e-02f,+1.30208850e-01f,-1.81431603e-02f,
+1.80760145e-01f,+1.72890663e-01f,-1.03030898e-01f,+3.15107495e-01f,-1.40169308e-01f,
+6.50394782e-02f,+1.40716672e-01f,-1.75167680e-01f,-3.94406170e-02f,-4.63192202e-02f,
+7.75412992e-02f,-4.57404517e-02f,-1.10103436e-01f,-1.00762248e-01f,+2.92502671e-01f,
+2.32789651e-01f,+1.63795114e-01f,+3.13828796e-01f,-2.18988582e-02f,-7.74302557e-02f,
+1.96300611e-01f,+1.72231823e-01f,-5.08237742e-02f,+5.76494224e-02f,+7.69604836e-03f,
-2.20101085e-02f,-2.92736907e-02f,+6.89659417e-02f,+9.51914489e-02f,-3.97670548e-03f,
-1.46469131e-01f,+1.85458556e-01f,+2.78897673e-01f,-1.58780470e-01f,+1.85192287e-01f,
-6.91943392e-02f,+3.13962072e-01f,+1.65300250e-01f,+9.21870954e-03f,+1.13460697e-01f,
-1.12459026e-01f,+2.33912647e-01f,+1.33180052e-01f,+6.85487390e-02f,+4.17936221e-02f,
-3.22572999e-02f,+1.47766203e-01f,-1.50435388e-01f,+4.88544628e-02f,-7.79252723e-02f,
+8.46341699e-02f,-1.01679541e-01f,-2.14321055e-02f,+1.08498015e-01f,+2.73379236e-01f,
+2.55969632e-02f,+1.71625521e-02f,-1.66028783e-01f,+2.03241363e-01f,+1.51576713e-01f,
+1.95183381e-01f,+2.84320474e-01f,-8.41029268e-03f,-2.22269297e-02f,+1.94206759e-01f,
+9.48214978e-02f,+2.24556793e-02f,+8.95936862e-02f,-2.53635552e-02f,+3.24691110e-03f,
+2.79529090e-03f,+5.09377122e-02f,-3.03386059e-02f,-5.09116016e-02f,+1.85507555e-02f,
+1.41324729e-01f,+2.25386426e-01f,+2.47246668e-01f,-2.75338054e-01f,+1.17726602e-01f,
+8.45267922e-02f,-2.39087362e-02f,-1.39381392e-02f,-3.06197274e-02f,-1.34860739e-01f,
+1.43553481e-01f,-5.25043234e-02f,-1.90116197e-01f,+8.26393366e-02f,+3.01790684e-01f,
+1.13035165e-01f,-7.07821921e-02f,-8.71376619e-02f,-4.81751114e-02f,+8.29246268e-02f,
+1.09184265e-01f,-4.05974388e-02f,+1.60768613e-01f,-4.50907834e-03f,+2.96081990e-01f,
+3.25341463e-01f,+5.66460341e-02f,-4.28726599e-02f,-1.79398715e-01f,+2.57952083e-02f,
+2.56442606e-01f,-1.65377006e-01f,+8.89126211e-02f,-1.17032163e-01f,+1.90758035e-01f,
-4.54891138e-02f,+7.22632259e-02f,+9.34474468e-02f,+1.11152925e-01f,+3.00645847e-02f,
+9.36941132e-02f,-1.18336186e-01f,+9.55347419e-02f,+2.20900625e-02f,-5.56159355e-02f,
+6.25303313e-02f,+1.72710150e-01f,+2.24658594e-01f,-2.09324732e-01f,+2.49359205e-01f,
-1.35879979e-01f,+5.51357865e-02f,-3.42226103e-02f,+2.37521261e-01f,-4.15794812e-02f,
-4.14595939e-02f,+1.14058495e-01f,+1.03582358e-02f,+1.03484266e-01f,+2.03063115e-01f,
+2.61324137e-01f,+3.04073125e-01f,-2.29728729e-01f,+1.73748076e-01f,+5.32766879e-02f,
+8.21423903e-02f,+1.44642115e-01f,-7.81148076e-02f,-1.35814361e-02f,-2.58396324e-02f,
+9.00632702e-03f,+1.43661201e-01f,+3.42767984e-02f,-1.50578544e-01f,-3.52274477e-01f,
-4.53637503e-02f,+1.34190693e-01f,+8.52190331e-02f,-1.81611985e-01f,+3.45760025e-02f,
-3.66650820e-01f,+2.19824806e-01f,-1.76946893e-02f,+2.43612546e-02f,+3.10781389e-01f,
-6.23839982e-02f,+4.11193557e-02f,+3.37768532e-02f,-1.10355422e-01f,-5.64469062e-02f,
-1.07807279e-01f,+8.63841251e-02f,+8.81688204e-03f,+1.70904860e-01f,+8.52610022e-02f,
-8.61856118e-02f,+8.09287652e-02f,+2.59466976e-01f,+5.20655848e-02f,-1.14860721e-01f,
+1.95593551e-01f,+8.11093152e-02f,-1.84660219e-03f,+3.67936827e-02f,-4.31974139e-03f,
+2.18339816e-01f,+3.16314101e-01f,-2.01149568e-01f,+2.47343421e-01f,-4.31104787e-02f,
-4.02789488e-02f,-3.52560617e-02f,+3.57310265e-01f,-2.21643344e-01f,+2.51406804e-02f,
+1.67088434e-01f,+4.28903371e-01f,-1.61273450e-01f,-3.52814309e-02f,+8.89883041e-02f,
+2.73795724e-01f,+2.02378035e-01f,+1.33791879e-01f,+1.50229558e-01f,+2.14712754e-01f,
+2.40904674e-01f,+2.11468279e-01f,-1.15582570e-01f,-1.44413253e-02f,+1.49413031e-02f,
-1.40228972e-01f,+1.26863897e-01f,+2.39655271e-01f,-1.56435773e-01f,+2.42978811e-01f,
+9.44477096e-02f,+6.34791106e-02f,-2.00014889e-01f,+4.13003787e-02f,-1.16812445e-01f,
-1.00010671e-01f,-6.26036823e-02f,+2.76123583e-01f,+1.11837924e-01f,-9.45216119e-02f,
-6.57114983e-02f,+1.56141877e-01f,+2.06793517e-01f,-3.31989899e-02f,-1.67746142e-01f,
-5.00269141e-03f,-5.49691319e-02f,-3.15216519e-02f,+4.58942316e-02f,-1.78259071e-02f,
+1.79666162e-01f,-1.36458635e-01f,+5.01740463e-02f,+2.39124641e-01f,+4.01118165e-03f,
+1.66993812e-01f,+8.03643093e-02f,+6.23935424e-02f,-1.73501670e-01f,+4.99411672e-02f,
+8.56977049e-03f,-2.95965057e-02f,+1.56558946e-01f,-2.52568647e-02f,-1.39166191e-01f,
+7.01928064e-02f,+3.19955766e-01f,+3.67462575e-01f,+2.86434233e-01f,+1.43507063e-01f,
-7.12867975e-02f,+1.62000522e-01f,-7.35163391e-02f,+1.04997128e-01f,+9.51411203e-02f,
+7.74291828e-02f,+1.63747162e-01f,+6.64276481e-02f,+1.03376456e-01f,-7.69105852e-02f,
-3.23743165e-01f,+1.22946687e-01f,-1.30782917e-01f,-2.01317295e-01f,-3.78161490e-01f,
+1.42374197e-02f,+1.24926239e-01f,-2.53053695e-01f,-4.56937663e-02f,+2.36986075e-02f,
+2.56961346e-01f,+8.63250494e-02f,+4.31938991e-02f,+5.79509735e-02f,+2.28155687e-01f,
-9.85361338e-02f,+1.69927418e-01f,-1.09524645e-01f,+6.88509122e-02f,+2.75337428e-01f,
+1.87281281e-01f,+6.18374087e-02f,+5.77229708e-02f,+1.21994488e-01f,+1.14592083e-01f,
+2.16349736e-01f,-8.09608176e-02f,+2.68435836e-01f,+8.31664354e-02f,+2.78299958e-01f,
+2.18008742e-01f,+5.95527738e-02f,+1.64013103e-01f,+7.84092695e-02f,-1.63271520e-02f,
+4.70812665e-03f,+5.33789620e-02f,-4.48880792e-02f,+7.50488341e-02f,+1.15268797e-01f,
+6.13499135e-02f,+1.79868951e-01f,+8.69561657e-02f,-8.03857222e-02f,-1.36138961e-01f,
-7.92317614e-02f,+3.03904265e-01f,+1.65099725e-01f,+1.27414823e-01f,-1.07358284e-02f,
+2.47194633e-01f,+1.97045300e-02f,+1.06749255e-02f,+5.15641160e-02f,-9.46083590e-02f,
+1.87605470e-01f,+3.20673883e-01f,-9.43131298e-02f,+1.18023142e-01f,-1.57119453e-01f,
-1.57408565e-01f,-1.97144434e-01f,-1.12848684e-01f,-1.82867069e-02f,+1.06216498e-01f,
-1.20823205e-01f,+1.35436818e-01f,-2.13127941e-01f,+5.87788671e-02f,-9.48648080e-02f,
+1.07785322e-01f,+1.67724583e-02f,+1.48435101e-01f,+1.59898803e-01f,-5.09759150e-02f,
-2.05599576e-01f,+4.71789651e-02f,-1.95601359e-01f,-5.86148426e-02f,-1.73291210e-02f,
-2.56790608e-01f,-8.37180167e-02f,+1.09723032e-01f,+5.83990589e-02f,-3.88239712e-01f,
+1.67124808e-01f,+2.69008338e-01f,+1.63294449e-01f,+1.66348502e-01f,+8.57967436e-02f,
-2.41959766e-02f,+2.98702195e-02f,+6.57204259e-03f,+1.75834179e-01f,+1.17173083e-01f,
+6.16741739e-02f,-1.17863558e-01f,+1.04039209e-02f,-8.58375579e-02f,+2.11416334e-01f,
-9.70261320e-02f,+6.57861605e-02f,+8.39960426e-02f,-1.74008664e-02f,+1.87128469e-01f,
-1.53161854e-01f,+1.70523435e-01f,+1.87222630e-01f,-3.61756146e-01f,+1.04290672e-01f,
+1.28035307e-01f,-1.05848521e-01f,-6.84100240e-02f,-1.47536680e-01f,-3.75773907e-02f,
+1.62433922e-01f,+1.61601231e-01f,+1.21042922e-01f,-1.06497467e-01f,-2.39173565e-02f,
+2.48960912e-01f,+6.27448022e-01f,-2.04031661e-01f,+1.05453804e-01f,+4.26703645e-03f,
-2.52436608e-01f,+1.81058452e-01f,+1.06283994e-02f,+1.46352738e-01f,-1.29348472e-01f,
-2.13302784e-02f,-7.11159110e-02f,+1.09061249e-01f,-1.41716927e-01f,-1.55814737e-01f,
-2.34012716e-02f,-1.77994370e-02f,+7.45190084e-02f,+2.68098354e-01f,-3.99065809e-03f,
+1.25213668e-01f,-1.56295821e-01f,-1.78488836e-01f,+2.08724476e-02f,-1.89694196e-01f,
+4.58052717e-02f,+1.26653370e-02f,+3.08947600e-02f,+1.80258125e-01f,+1.73977897e-01f,
-1.17772622e-02f,+8.36242586e-02f,-2.66174197e-01f,-2.23190710e-01f,-4.02432047e-02f,
+2.73279935e-01f,-1.58263564e-01f,+1.69099167e-01f,+7.21214190e-02f,+2.18627065e-01f,
-3.02271335e-03f,-6.64109662e-02f,+3.71066630e-02f,-1.38503853e-02f,-5.63447513e-02f,
-1.35319948e-01f,+3.01614970e-01f,+2.10558340e-01f,+6.56370223e-02f,+8.10132846e-02f,
+6.78444132e-02f,+1.50613829e-01f,+2.84069572e-02f,-1.24075629e-01f,+3.80832106e-02f,
-1.47952735e-01f,-1.49392441e-01f,-2.00009704e-01f,+2.90804744e-01f,-7.83899575e-02f,
+6.94770291e-02f,-2.85920322e-01f,+9.86182466e-02f,+9.69249159e-02f,+2.14697346e-01f,
-3.36626992e-02f,-2.20115259e-01f,+2.60784030e-01f,+8.62960815e-02f,+2.52314359e-02f,
+7.81666264e-02f,+1.05428584e-01f,-4.67623211e-02f,+4.88449521e-02f,+5.32473028e-02f,
-1.35064185e-01f,-9.84801948e-02f,-7.65880337e-03f,-7.97264576e-02f,-1.78525269e-01f,
+1.97437946e-02f,+1.25837341e-01f,-7.50171766e-02f,-1.56316273e-02f,+5.00716045e-02f,
-5.35310097e-02f,+2.80987490e-02f,-8.88758674e-02f,+1.02013581e-01f,+5.92120849e-02f,
+2.22405553e-01f,+1.75335169e-01f,+1.95314601e-01f,+3.18781495e-01f,+1.35107234e-01f,
-1.26973331e-01f,-6.74674362e-02f,+9.50075015e-02f,+3.17654401e-01f,-1.20464182e-02f,
+1.65732801e-01f,+1.93486586e-01f,-8.31770152e-02f,+1.92396790e-02f,-3.97905201e-01f,
-8.94589499e-02f,-1.08900823e-01f,-6.91557080e-02f,+4.77764867e-02f,+7.92060494e-02f,
-1.19878821e-01f,+1.75511800e-02f,-7.85779431e-02f,+1.84841827e-01f,+1.62907820e-02f,
-4.86252904e-02f,+5.08322045e-02f,+8.65212604e-02f,-9.92483422e-02f,-5.09557985e-02f,
-4.95280549e-02f,+8.32960829e-02f,+1.76886350e-01f,-1.85513318e-01f,+1.33197894e-02f,
-2.68918741e-02f,-1.64000198e-01f,+3.53097558e-01f,+1.93866640e-01f,+1.36143342e-01f,
-1.91835202e-02f,+1.03190886e-02f,+3.66284996e-01f,+5.89583069e-02f,-5.00335684e-03f,
-9.73805785e-02f,+4.39250804e-02f,+4.58652414e-02f,+1.66071087e-01f,+4.49809618e-02f,
+4.84140158e-01f,-2.62765646e-01f,-7.59555995e-02f,-8.94862637e-02f,-4.28041890e-02f,
+1.34938657e-01f,-1.90349549e-01f,-1.52417375e-02f,+3.17373931e-01f,-2.51488894e-01f,
-1.03753686e-01f,+2.97680125e-02f,+1.66563869e-01f,-6.33079186e-02f,+4.13281582e-02f,
-7.25960210e-02f,+5.00377975e-02f,+7.01600760e-02f,+2.08419293e-01f,+9.57877040e-02f,
+2.74098903e-01f,+1.15453511e-01f,+1.97939351e-01f,+1.44675821e-01f,+1.09004714e-01f,
+2.87940949e-01f,+4.84645143e-02f,+3.99177708e-02f,+1.70944586e-01f,+4.85005043e-03f,
-3.26293111e-01f,-7.55211264e-02f,+4.52195615e-01f,-1.12289645e-01f,+1.12030525e-02f,
-3.42898071e-02f,-1.84062868e-01f,+4.65181857e-01f,-2.85572396e-03f,+1.56515568e-01f,
-3.63383181e-02f,+1.14368044e-01f,+7.02073127e-02f,-3.53527635e-01f,-1.26706108e-01f,
-5.12509167e-01f,-8.34138766e-02f,-1.47728184e-02f,+3.89371067e-01f,-6.20531030e-02f,
+8.68301392e-02f,+9.54856575e-02f,+1.66036338e-01f,+2.51242131e-01f,+1.61079556e-01f,
+1.59297273e-01f,-8.75537768e-02f,+1.36638284e-01f,+2.47599706e-01f,+2.69322172e-02f,
+2.77431644e-02f,-6.79111779e-02f,+1.33923143e-01f,+2.05667354e-02f,+2.20982864e-01f,
+2.77711123e-01f,+8.30485299e-02f,+5.60783558e-02f,+5.74328452e-02f,+1.19482182e-01f,
-1.73732191e-01f,+1.59657914e-02f,-2.16349512e-01f,+1.12817600e-01f,-1.35711595e-01f,
-2.36976668e-01f,-1.75431073e-02f,-1.53415129e-01f,+3.75816263e-02f,-2.04609185e-01f,
-1.66673481e-01f,+2.01859117e-01f,+1.40956119e-01f,+8.45067352e-02f,+1.05482116e-01f,
-2.89528817e-01f,+2.04900816e-01f,+3.45984966e-01f,-2.40481626e-02f,+9.45149064e-02f,
+3.59372020e-01f,-1.85530677e-01f,-2.83743531e-01f,+2.82358713e-02f,-8.83591548e-02f,
+7.20987394e-02f,-8.11752602e-02f,+4.98613939e-02f,-2.35751733e-01f,+9.64572877e-02f,
+5.71224466e-02f,+3.14693213e-01f,+1.37385070e-01f,+5.85434726e-03f,-1.37024879e-01f,
+8.40816721e-02f,+5.45784175e-01f,-2.60863185e-01f,-3.90454441e-01f,-6.72330186e-02f,
+7.56573528e-02f,-3.53990227e-01f,+3.13633502e-01f,-9.83064100e-02f,-1.63845986e-01f,
-1.51191980e-01f,+5.03791571e-01f,-6.41471101e-03f,-1.10473521e-01f,-2.52808988e-01f,
-2.63944596e-01f,-4.85677496e-02f,-1.51196018e-01f,+1.25563011e-01f,+1.07492074e-01f,
+5.19244522e-02f,+2.44930267e-01f,-1.34216212e-02f,-4.34853844e-02f,+1.07258953e-01f,
-3.51676643e-01f,-1.33667782e-01f,+1.72872037e-01f,+4.35042977e-02f,+1.85606048e-01f,
-3.69820148e-02f,+2.02471837e-01f,+1.00776650e-01f,+1.57466680e-01f,+1.91055924e-01f,
-2.00506791e-01f,+9.81393456e-03f,+1.85468435e-01f,-2.04656571e-01f,-1.77190542e-01f,
+5.63002303e-02f,+1.88079417e-01f,-2.01866403e-03f,+3.03802248e-02f,+2.43010223e-01f,
-5.35757616e-02f,-1.05954714e-01f,+6.70815185e-02f,+2.46832356e-01f,+6.50336221e-02f,
+1.05483674e-01f,-1.14860393e-01f,-9.67177749e-02f,+1.73361599e-01f,+5.76479137e-02f,
+5.93947023e-02f,+3.35868634e-02f,-1.82401210e-01f,+7.81233460e-02f,-1.69137955e-01f,
-1.87045977e-01f,+4.86365408e-02f,+1.89715058e-01f,-9.67449322e-02f,-1.99092075e-01f,
-2.32793726e-02f,+9.22582895e-02f,+4.28824946e-02f,+2.23043263e-01f,+1.86483946e-03f,
+1.01344422e-01f,+3.09265882e-01f,+2.54605800e-01f,+2.69680172e-01f,-9.24270004e-02f,
-2.23641559e-01f,+2.47940305e-03f,+1.29679993e-01f,-2.79310644e-01f,-1.54285297e-01f,
+1.62923872e-01f,-6.94555193e-02f,+2.57891059e-01f,+2.01622918e-01f,+2.01445725e-02f,
+1.20234944e-01f,+2.73156554e-01f,-1.09669521e-01f,-2.66736269e-01f,-1.60450295e-01f,
-1.28030300e-01f,+2.27860644e-01f,+3.42301548e-01f,-2.52070606e-01f,+9.80029777e-02f,
+6.41799048e-02f,-2.30004285e-02f,+1.26419052e-01f,+2.51392350e-02f,-1.84280023e-01f,
+1.20057933e-01f,-8.92843381e-02f,+3.26965600e-01f,+5.08038551e-02f,-1.24837235e-01f,
+3.41266721e-01f,+6.47688583e-02f,-1.34397924e-01f,+1.72479257e-01f,-1.62937306e-03f,
+1.52190626e-01f,+2.18017593e-01f,-2.11414352e-01f,-8.12307075e-02f,+2.34875634e-01f,
-1.79311819e-02f,+2.38370478e-01f,+5.43720722e-02f,-1.27591923e-01f,+1.90639988e-01f,
-7.60757551e-02f,-1.77051634e-01f,+3.98685992e-01f,+1.24057151e-01f,+1.62370075e-02f,
-1.65287659e-01f,-3.80560011e-01f,-1.09180160e-01f,-3.98765691e-02f,-1.08590007e-01f,
+4.19024304e-02f,+9.39033329e-02f,-2.99442500e-01f,-5.75549938e-02f,+9.22166854e-02f,
-3.44420895e-02f,-1.82227924e-01f,+2.41944239e-01f,-7.60636926e-02f,+2.93005735e-01f,
+1.54791489e-01f,+9.59048688e-04f,+2.22126514e-01f,+3.17427129e-01f,+2.62816191e-01f,
-5.30280992e-02f,-2.28587583e-01f,-2.48682946e-01f,-2.05654263e-01f,-6.41703722e-04f,
+8.64038616e-02f,+2.73880400e-02f,-2.03767106e-01f,+2.76895940e-01f,-7.02829286e-02f,
+5.61798811e-02f,+1.09588817e-01f,+7.20967799e-02f,-1.34117454e-01f,+1.55404508e-01f,
+9.60087925e-02f,-4.56370711e-02f,+9.26764980e-02f,+4.65980135e-02f,+1.13422789e-01f,
-1.22225046e-01f,+8.60692114e-02f,+7.45184496e-02f,+2.48917349e-04f,+1.99430242e-01f,
+2.03403354e-01f,+1.32103831e-01f,+4.33423184e-02f,-3.62277448e-01f,-9.18785259e-02f,
+2.19048828e-01f,+1.77600503e-01f,-1.17042415e-01f,-4.37364914e-02f,+9.44298133e-02f,
+1.58644095e-02f,+2.62307465e-01f,+1.44158639e-02f,+1.05499849e-02f,-1.06589459e-01f,
-1.68884575e-01f,+2.72945046e-01f,+8.95981491e-02f,+7.01468587e-02f,-8.53401199e-02f,
+1.74432565e-02f,+7.71117210e-02f,-2.75825679e-01f,+1.91175207e-01f,+3.04154366e-01f,
+1.04470709e-02f,+2.13956460e-01f,-1.23645276e-01f,-8.70363712e-02f,-1.31687686e-01f,
+2.37143889e-01f,+1.22563228e-01f,+8.08438938e-03f,+9.84555185e-02f,-2.72959054e-01f,
-1.50410429e-01f,-2.44254619e-01f,-3.34835015e-02f,-2.75025338e-01f,-1.09059751e-01f,
+3.61614138e-01f,-1.51200667e-01f,+1.05715573e-01f,-2.44727537e-01f,+1.09250098e-01f,
-3.97826701e-01f,+1.33227006e-01f,+1.85421824e-01f,-1.26655966e-01f,+2.53457665e-01f,
+7.01594129e-02f,+1.65623084e-01f,+5.14694750e-02f,+1.75345242e-01f,+1.94090959e-02f,
+2.94839796e-02f,-1.87247559e-01f,+9.95976776e-02f,+6.66051432e-02f,+1.95806354e-01f,
+9.70351466e-05f,-2.41997853e-01f,-6.39268830e-02f,+4.23420779e-02f,-5.08431681e-02f,
+9.07410979e-02f,+1.73838332e-01f,-6.60357177e-02f,-1.41738191e-01f,-5.92504516e-02f,
-8.98508281e-02f,-5.01969159e-02f,-4.44334224e-02f,-1.58388957e-01f,-6.99087698e-03f,
-2.22254813e-01f,+2.42877394e-01f,+9.21923444e-02f,+7.24701807e-02f,+1.52907604e-02f,
+2.58348435e-01f,-2.16645584e-01f,+1.81089148e-01f,+1.05597481e-01f,-6.44562207e-03f,
+1.61009759e-01f,+3.42108905e-01f,+5.10425791e-02f,-2.82997489e-01f,+1.15523122e-01f,
+1.28420973e-02f,-4.94525492e-01f,+1.15042217e-01f,-1.65188059e-01f,+2.41977870e-01f,
-1.11336157e-01f,-7.87285790e-02f,-4.96756956e-02f,-1.57983452e-01f,+1.62875935e-01f,
+2.93074679e-02f,-2.14369237e-01f,-2.49077496e-03f,-2.26761028e-01f,-8.95643514e-03f,
+7.26139620e-02f,-2.02913135e-01f,-2.47422561e-01f,+1.63906902e-01f,+1.76866934e-01f,
+8.08094889e-02f,-1.14754297e-01f,-5.06269187e-02f,+4.64792252e-01f,+6.93913996e-02f,
-2.43237671e-02f,-4.35676128e-02f,-2.49212161e-01f,-2.60144323e-01f,-2.48270839e-01f,
+1.73129961e-02f,-1.15243107e-01f,+1.25768371e-02f,+1.58186734e-01f,+3.49034965e-01f,
+2.11491689e-01f,+4.92924690e-01f,+6.81953728e-02f,+4.06501353e-01f,+5.36918007e-02f,
+3.15024495e-01f,+7.54532218e-02f,-5.88266365e-02f,+7.73895308e-02f,-1.23387771e-02f,
+3.95095460e-02f,-1.49083748e-01f,-1.41962454e-01f,-2.63011932e-01f,+2.88616985e-01f,
-2.47524813e-01f,-1.64376691e-01f,-1.62452176e-01f,-2.29350418e-01f,-1.07805729e-01f,
+1.17784567e-01f,-1.88188672e-01f,+1.75852582e-01f,+2.32532412e-01f,+3.06853771e-01f,
-4.01686393e-02f,+2.37088457e-01f,-3.04043800e-01f,-1.82941586e-01f,+8.51911902e-02f,
-1.35722859e-02f,+1.81617796e-01f,+1.16612196e-01f,-1.84001520e-01f,-1.94805309e-01f,
+1.30761877e-01f,-1.38357654e-01f,+1.26836915e-02f,+9.60748568e-02f,+2.68558323e-01f,
-1.32598892e-01f,+8.63398314e-02f,+6.55705571e-01f,+1.72136620e-01f,+1.85404584e-01f,
+1.19093180e-01f,+4.51534539e-02f,-4.65641543e-02f,+9.54521541e-03f,+4.91355024e-02f,
-2.66876876e-01f,-4.55603749e-02f,-5.62338857e-03f,+1.68651685e-01f,+8.20304453e-02f,
+6.71893433e-02f,-1.61982685e-01f,+1.40233114e-02f,+1.67902216e-01f,-8.26098304e-03f,
+2.07519662e-02f,+1.70510709e-01f,+1.06322810e-01f,-1.30813152e-01f,+1.45261377e-01f,
-3.53112146e-02f,+1.06339194e-02f,-8.89626816e-02f,+1.85622111e-01f,+1.00828558e-01f,
+6.26301914e-02f,-4.82037477e-02f,+2.89388418e-01f,-2.57674530e-02f,+7.54508376e-02f,
+8.02074000e-02f,+2.84092333e-02f,-4.47069481e-02f,+4.20139059e-02f,+3.45816612e-02f,
+2.80941308e-01f,-1.07449748e-01f,+1.20120049e-01f,+8.70803073e-02f,+2.92890251e-01f,
+1.49895042e-01f,+2.75372323e-02f,-4.71915714e-02f,+1.35349065e-01f,+1.56958938e-01f,
+1.85431302e-01f,-1.76199526e-01f,+1.36758730e-01f,-2.54370987e-01f,+7.56505951e-02f,
+2.51850449e-02f,+1.42806275e-02f,-2.58757383e-01f,+7.38822147e-02f,+8.94110501e-02f,
+1.69715464e-01f,-6.87211081e-02f,+6.28850833e-02f,-2.33742800e-02f,-3.14842649e-02f,
-4.62753735e-02f,+5.30833714e-02f,+1.89832538e-01f,+4.57117595e-02f,-1.41802400e-01f,
+7.90140778e-02f,-1.04208320e-01f,+7.98608884e-02f,-1.69888094e-01f,+6.53673038e-02f,
+1.08990133e-01f,+8.57688412e-02f,+4.53626096e-01f,-1.94167554e-01f,+1.65642709e-01f,
+1.51577950e-01f,-1.14391837e-02f,-6.35876581e-02f,-2.03872416e-02f,-1.23362944e-01f,
-2.14350820e-02f,-2.38058753e-02f,+7.94315264e-02f,-3.43617380e-01f,-3.50565016e-02f,
+2.43109122e-01f,+1.50411904e-01f,-4.13004979e-02f,+1.62854612e-01f,-4.66462001e-02f,
-6.09131111e-03f,+3.95525508e-02f,+2.13500500e-01f,+2.26186559e-01f,-1.05476230e-01f,
-8.32081512e-02f,-4.09448370e-02f,+6.70351088e-02f,-7.19730183e-02f,+1.87546670e-01f,
-1.03124723e-01f,+1.36561453e-01f,-3.21906172e-02f,+4.55490798e-01f,+7.36824051e-02f,
+1.31641760e-01f,+1.15820497e-01f,+4.42221351e-02f,+2.07870916e-01f,+2.48275384e-01f,
+2.46260598e-01f,-2.01995045e-01f,-4.70711403e-02f,-2.11510714e-02f,-3.30195367e-01f,
-4.31409031e-02f,+2.45075338e-02f,+5.49370460e-02f,+9.04686153e-02f,-1.40680462e-01f,
+1.05688060e-02f,+1.30267302e-02f,+4.54533882e-02f,-6.88356161e-02f,+8.30473006e-02f,
-2.16043264e-01f,-2.36766875e-01f,-1.38863564e-01f,+2.07415760e-01f,-2.24749036e-02f,
+1.48664847e-01f,+1.27559423e-01f,+1.30807003e-02f,+1.17928058e-01f,-9.52433236e-03f,
-1.46717504e-01f,+1.53641045e-01f,-8.47895294e-02f,-2.25162711e-02f,+6.81882277e-02f,
-1.48218423e-01f,+4.59507070e-02f,+1.11914337e-01f,+1.15671091e-01f,-6.83229417e-02f,
+3.55683789e-02f,+5.91229014e-02f,+1.09675862e-01f,-3.89639363e-02f,-2.10772425e-01f,
-3.21487933e-02f,+1.67498752e-01f,+2.87988752e-01f,-5.11643514e-02f,-6.14045262e-02f,
-1.07879322e-02f,+3.09385769e-02f,+1.41885608e-01f,+2.39743933e-01f,+4.79004234e-02f,
+1.09606065e-01f,-6.78649694e-02f,-1.26002043e-01f,+1.05254054e-01f,-2.49236878e-02f,
-7.31675848e-02f,+3.91981527e-02f,-1.13281034e-01f,-6.32250234e-02f,+2.20832571e-01f,
-3.10877115e-01f,-1.93460166e-01f,+8.71055648e-02f,-1.64371312e-01f,-2.36195922e-02f,
+6.17282186e-03f,+1.34797394e-01f,+2.32435361e-01f,+7.76911080e-02f,+2.75079291e-02f,
-1.07390605e-01f,-1.14879861e-01f,-1.96729019e-01f,+6.80887774e-02f,+2.53542155e-01f,
-1.05868429e-01f,-3.94194387e-03f,-1.14985511e-01f,-2.24832096e-03f,+2.36188658e-02f,
-5.15337586e-02f,+2.50480384e-01f,-2.40536816e-02f,+7.27327168e-02f,+8.40054154e-02f,
-2.76726663e-01f,+4.57770145e-03f,+2.12967992e-01f,-4.98273410e-02f,+2.34250709e-01f,
-6.38526445e-03f,+9.70174149e-02f,+1.71646848e-01f,+5.27257547e-02f,+1.35743782e-01f,
-1.68556962e-02f,-5.02842255e-02f,-7.47444406e-02f,-1.49466217e-01f,+2.70137161e-01f,
+1.89643949e-02f,-2.40077935e-02f,-1.35248452e-01f,+2.69615911e-02f,-4.70838211e-02f,
+3.05745900e-01f,+8.80696170e-04f,-4.89828992e-04f,+1.11359596e-01f,-2.43428070e-02f,
-7.42833093e-02f,+1.78656742e-01f,-6.73574358e-02f,+3.05293817e-02f,+2.79626459e-01f,
-6.78708926e-02f,-3.18806097e-02f,+1.63700491e-01f,+4.55200672e-02f,-1.49478123e-01f,
-1.42965376e-01f,+6.90634549e-02f,-2.30592653e-01f,-7.37912357e-02f,-7.70113021e-02f,
+1.49375767e-01f,+3.15644555e-02f,-1.00059889e-01f,-2.05551818e-01f,-9.96871069e-02f,
-1.51819233e-02f,-1.52025923e-01f,+1.60441339e-01f,+1.75054312e-01f,+2.35181376e-01f,
+1.58359349e-01f,+7.27112591e-02f,+2.99513996e-01f,+4.40542735e-02f,+2.34055668e-02f,
+5.74357547e-02f,+3.20545197e-01f,+1.49222329e-01f,-3.45153511e-02f,-1.18607253e-01f,
+4.83619161e-02f,+2.25628346e-01f,+7.14378357e-02f,+3.22833052e-03f,-1.32179260e-01f,
+1.40751734e-01f,-1.63807496e-02f,-1.59477163e-02f,-1.42678574e-01f,-2.11413503e-01f,
+1.73906401e-01f,+1.07368514e-01f,-3.27256322e-01f,+2.44742244e-01f,+6.89114779e-02f,
+1.51135713e-01f,+8.89115110e-02f,-2.89699752e-02f,+2.08925724e-01f,-6.46615997e-02f,
+6.78896904e-02f,-4.33143154e-02f,-9.84377787e-03f,+3.99842262e-02f,+2.47793142e-02f,
-9.81844217e-02f,+1.75545439e-01f,-5.97948246e-02f,-2.40877634e-04f,-8.54038969e-02f,
+3.94254131e-03f,-1.92983121e-01f,-1.37217894e-01f,+2.53042560e-02f,+3.87636200e-02f,
+7.15968013e-03f,+2.03517824e-03f,+4.07918036e-01f,-1.77643061e-01f,-1.90502331e-02f,
+2.70891368e-01f,+6.32012263e-02f,+2.00065225e-01f,+1.11574605e-01f,+7.25074634e-02f,
-5.27745672e-02f,+1.16658553e-01f,+7.67394453e-02f,-2.37543523e-01f,-7.60526136e-02f,
+1.13605380e-01f,+2.26640254e-01f,+2.72920672e-02f,+9.75132883e-02f,+2.67075691e-02f,
+6.17082044e-02f,+1.76114783e-01f,+1.61812350e-01f,+1.68417066e-01f,+5.37975430e-02f,
+2.37474591e-01f,+2.25488305e-01f,+2.06482988e-02f,-1.46786273e-01f,+1.72097176e-01f,
-1.02690086e-01f,-1.14731669e-01f,-1.32451087e-01f,-6.93458766e-02f,-3.47259641e-01f,
-5.13211973e-02f,-1.46320030e-01f,+6.34074211e-03f,-7.63730854e-02f,+6.67129084e-02f,
-2.03699589e-01f,+3.33072757e-03f,-7.73076341e-02f,+2.69093104e-02f,+6.51288256e-02f,
+7.11437911e-02f,-1.81599334e-01f,+9.19658318e-02f,-1.88589364e-01f,+3.59007710e-04f,
+9.28657725e-02f,-9.59622338e-02f,-4.36910570e-01f,+1.11453965e-01f,+3.68815929e-01f,
+1.42943993e-01f,+7.69898817e-02f,-1.64958686e-01f,+1.02780432e-01f,+8.27615112e-02f,
-2.06941995e-03f,+4.48346473e-02f,+1.79430127e-01f,+3.66906114e-02f,+5.51286303e-02f,
+4.46078591e-02f,+1.22343801e-01f,-2.20465541e-01f,+1.35190219e-01f,-2.01907665e-01f,
+1.59106553e-01f,-4.95953448e-02f,-7.37283826e-02f,-1.55850381e-01f,+8.37501362e-02f,
+3.47968526e-02f,-7.74889216e-02f,-1.86068654e-01f,-1.46005690e-01f,+1.79939434e-01f,
+5.94325662e-02f,+1.42133281e-01f,+5.48837893e-02f,+3.04070652e-01f,+1.97584823e-01f,
-2.27157846e-02f,+1.47358507e-01f,-3.14019732e-02f,-1.06328279e-01f,+5.71849048e-02f,
+1.21262096e-01f,-2.99307816e-02f,+2.54784495e-01f,+1.54006898e-01f,+1.07171737e-01f,
-1.89339504e-01f,-2.65116483e-01f,-2.90428828e-02f,+7.14135170e-02f,+6.47180155e-02f,
+2.73239091e-02f,-1.70241892e-02f,-3.12842205e-02f,-4.93011773e-02f,-3.34654570e-01f,
+1.61073986e-03f,-5.09763807e-02f,-1.91174284e-01f,+6.70152158e-02f,-7.28066191e-02f,
+6.25517219e-02f,+8.68078768e-02f,+1.17998153e-01f,-2.71419231e-02f,-5.90322316e-02f,
+9.90042016e-02f,+1.06483139e-01f,+1.13336585e-01f,-1.78929791e-01f,-2.32614532e-01f,
+1.48555711e-01f,+1.42103031e-01f,-1.61933064e-01f,-3.59298021e-04f,+1.05735190e-01f,
-1.78726286e-01f,-1.01528257e-01f,-1.38758436e-01f,+1.23586617e-01f,+1.30269542e-01f,
-5.93388490e-02f,-2.13086352e-01f,-2.92413384e-01f,+5.45984181e-03f,-1.44943863e-01f,
-3.93022485e-02f,+3.95551547e-02f,-7.71455318e-02f,-9.53315869e-02f,+1.32637963e-01f,
+3.38203341e-01f,-7.92073831e-03f,-2.77770638e-01f,-6.91552237e-02f,-2.33095825e-01f,
+1.29272342e-01f,+5.80564141e-02f,-3.35412705e-03f,+2.29710490e-01f,+6.83663562e-02f,
-2.09937781e-01f,-6.54725134e-02f,+1.21500134e-01f,+4.66022901e-02f,+8.14299881e-02f,
+1.16239466e-01f,+1.02489337e-03f,+1.59803852e-01f,+7.12347254e-02f,-2.26322599e-02f,
+1.40860319e-01f,+2.58240942e-02f,+7.43181482e-02f,+7.03448877e-02f,-3.00780267e-01f,
+2.07359746e-01f,+2.79606879e-01f,-2.02842876e-01f,+7.33375028e-02f,+1.50042549e-01f,
+1.50879622e-01f,+1.65660217e-01f,-4.76946682e-02f,+7.19393604e-03f,-6.02340996e-02f,
+2.19341055e-01f,+1.73886456e-02f,-2.51637050e-03f,+4.19315174e-02f,-9.46475640e-02f,
+2.03995660e-01f,-7.33895451e-02f,+5.28625846e-02f,+4.85024825e-02f,-5.89195127e-03f,
-3.14324759e-02f,+7.92340040e-02f,+2.92140871e-01f,-5.79962730e-02f,+9.07690153e-02f,
+1.55773640e-01f,+1.17571481e-01f,-5.20555153e-02f,-5.32227419e-02f,+2.07483858e-01f,
+1.36377260e-01f,-1.17198639e-01f,+1.62130013e-01f,+2.63181359e-01f,+3.61121520e-02f,
-1.54604509e-01f,+2.92594343e-01f,+4.38805893e-02f,+5.75716011e-02f,-8.88844356e-02f,
+7.33286962e-02f,+3.12833674e-02f,+3.31120938e-02f,+1.73834056e-01f,+1.64674565e-01f,
+1.33319851e-02f,+4.01084535e-02f,+3.14938217e-01f,+2.17612401e-01f,+8.96475762e-02f,
+1.80856228e-01f,-8.14360939e-03f,+2.33229753e-02f,-9.35069111e-04f,+1.45192072e-01f,
+1.33134713e-02f,-1.43389121e-01f,-3.04715633e-01f,-1.08077131e-01f,+6.93237185e-02f,
+7.47971833e-02f,-6.13633879e-02f,-1.39040519e-02f,-2.61785030e-01f,-3.08335293e-02f,
-1.68782786e-01f,+6.08426370e-02f,-3.18711274e-03f,-7.62808099e-02f,-1.03357909e-02f,
+1.18947938e-01f,-5.80259636e-02f,+8.28390345e-02f,-2.98504740e-01f,-1.90152764e-01f,
-1.01856161e-02f,+1.63250268e-01f,+1.14475474e-01f,-7.53386989e-02f,-1.75429910e-01f,
-1.35651857e-01f,+9.70951468e-02f,-1.73757598e-01f,-4.66655847e-03f,+3.40458900e-02f,
-2.91738603e-02f,-5.56044700e-03f,-4.45315521e-03f,-3.10167968e-02f,-1.38671219e-01f,
-1.15368880e-01f,+5.68744168e-02f,-5.44496290e-02f,-1.87259123e-01f,-6.32844865e-03f,
+1.21202260e-01f,+1.60607859e-01f,-1.02516867e-01f,+1.82563126e-01f,+5.16738929e-02f,
+1.61481142e-01f,+2.83231199e-01f,-4.72665168e-02f,-5.20872548e-02f,+1.30372226e-01f,
+2.82098621e-01f,+2.78425962e-01f,+3.68866295e-01f,+1.66671857e-01f,-9.53953480e-04f,
+2.81535059e-01f,-1.82220247e-02f,-1.61925644e-01f,-1.45663321e-01f,+8.40262473e-02f,
+1.37450591e-01f,-5.36686294e-02f,-1.25430018e-01f,-2.19241187e-01f,+1.72445193e-01f,
+7.55297765e-03f,+2.21990749e-01f,+2.85175920e-01f,-3.89380269e-02f,+1.64601684e-01f,
+1.41352877e-01f,+5.41581102e-02f,-1.27590328e-01f,+1.06765941e-01f,-1.69961467e-01f,
-4.75556515e-02f,-1.02271680e-02f,+2.42387522e-02f,-8.80090743e-02f,+1.72874779e-02f,
+1.88900411e-01f,-1.01962492e-01f,+9.49687436e-02f,+2.61608195e-02f,+9.92441624e-02f,
+1.50523961e-01f,+1.63158298e-01f,+6.32800087e-02f,+1.23057924e-01f,-2.62458086e-01f,
+8.66709277e-02f,-6.35416731e-02f,+8.45672712e-02f,+1.28038809e-01f,-1.42516702e-01f,
-7.10528567e-02f,-1.35401607e-01f,-6.69733575e-03f,+6.19965978e-02f,+3.15895192e-02f,
+6.69368804e-02f,+2.51045581e-02f,-2.46645302e-01f,+2.89713234e-01f,-1.28820613e-01f,
-1.22948356e-01f,-4.06921506e-02f,-1.64121568e-01f,+3.12366430e-02f,-6.76571727e-02f,
-1.54237390e-01f,+6.96815178e-02f,+1.83441192e-02f,-7.61670396e-02f,+6.50172755e-02f,
+4.11690213e-02f,-2.07813278e-01f,+5.69194183e-03f,+2.09313273e-01f,-9.93238180e-04f,
+1.08173147e-01f,-2.17747632e-02f,-9.66812447e-02f,+9.60432068e-02f,+1.24340281e-01f,
-4.84239273e-02f,-2.01488044e-02f,+1.78116471e-01f,-1.49662331e-01f,+1.70747992e-02f,
-2.27818087e-01f,+9.90942027e-03f,-3.16934437e-02f,+4.16526794e-02f,-1.01570889e-01f,
-7.48574361e-02f,-1.34917527e-01f,+2.86203802e-01f,+2.15382520e-02f,+3.33206765e-02f,
+7.24688843e-02f,+2.57756501e-01f,+6.51697293e-02f,-7.87106082e-02f,+1.91851601e-01f,
-5.64246625e-02f,+1.35067459e-02f,+5.79301491e-02f,+1.24818869e-01f,+2.19713852e-01f,
+6.53398782e-02f,-4.64498222e-01f,+7.01004937e-02f,-1.40391946e-01f,+5.23247197e-02f,
+2.35834852e-01f,+1.57042250e-01f,-6.26041591e-02f,+6.52822703e-02f,+7.43266344e-02f,
-5.60753606e-02f,-2.87424177e-01f,-2.44150236e-01f,+6.04452714e-02f,-3.20826471e-02f,
+6.74731731e-02f,+1.91726491e-01f,+4.62713577e-02f,+2.87232608e-01f,-7.49856513e-03f,
-1.94175318e-01f,-5.45660518e-02f,-1.52972624e-01f,-8.99111759e-03f,-5.17705455e-02f,
+6.40261546e-02f,-7.97475353e-02f,-6.69674808e-03f,-7.41094574e-02f,+6.69430047e-02f,
+8.60228390e-02f,-2.94464558e-01f,-9.32495594e-02f,-5.65647930e-02f,-5.84347881e-02f,
+6.28842264e-02f,-2.69017577e-01f,+5.10178544e-02f,-8.32147375e-02f,+1.44448653e-01f,
+1.43904760e-01f,-9.03518796e-02f,+1.86893299e-01f,+1.13651156e-01f,+2.46776998e-01f,
-4.73416448e-02f,-5.10856248e-02f,-1.16162844e-01f,-7.42290984e-04f,+1.02707513e-01f,
-2.30079740e-01f,+1.73027113e-01f,-1.89076915e-01f,-1.72193900e-01f,+1.34903863e-01f,
-5.65504236e-03f,-4.00192626e-02f,+1.11323945e-01f,-8.86398368e-03f,-1.84986785e-01f,
-1.50242254e-01f,+1.21094875e-01f,+8.21162239e-02f,-3.72217107e-03f,-9.63671412e-03f,
+7.42715318e-03f,-1.41119733e-01f,-1.42541736e-01f,+2.34995559e-02f,+6.29688129e-02f,
-1.58582136e-01f,-6.26903102e-02f,+3.21925282e-02f,-3.93562438e-03f,+5.81884980e-02f,
-1.15526013e-01f,+4.78435569e-02f,-9.13570374e-02f,+3.93042341e-02f,+2.44047672e-01f,
-5.12183234e-02f,+1.76636443e-01f,+1.65385932e-01f,-9.62656140e-02f,+3.22881602e-02f,
+1.58333167e-01f,+1.65506169e-01f,+4.50002123e-03f,+1.92900881e-01f,+1.41024366e-01f,
+1.42900303e-01f,-1.26172319e-01f,+1.88856311e-02f,+1.61943614e-01f,+6.75343573e-02f,
+5.99444173e-02f,+3.35206129e-02f,+1.36383459e-01f,+6.95968792e-02f,-2.53428966e-01f,
-1.67043209e-01f,-6.31348044e-03f,-2.33791262e-01f,+1.99103788e-01f,-7.85757974e-02f,
+1.51217040e-02f,-2.12651208e-01f,+1.39914215e-01f,-2.40346536e-01f,-1.45652620e-02f,
+2.61248231e-01f,+1.43976167e-01f,+5.18082120e-02f,-5.67965470e-02f,-4.82780412e-02f,
+1.60539687e-01f,+9.91808623e-02f,+9.80852917e-02f,+4.80031744e-02f,-1.65303692e-01f,
-3.04374821e-03f,-8.94592926e-02f,-1.05927058e-01f,-3.47080454e-02f,+2.30511483e-02f,
+1.88336879e-01f,-2.15412989e-01f,-2.43643280e-02f,+2.71232929e-02f,+9.92300510e-02f,
-1.68312818e-01f,-1.26114145e-01f,+2.81135570e-02f,-2.12627202e-01f,+7.75788948e-02f,
+2.59454479e-03f,+2.17112020e-01f,-1.77188888e-02f,+6.50385544e-02f,-1.86130196e-01f,
-5.67638986e-02f,+3.18871260e-01f,+5.88451661e-02f,-1.37468994e-01f,+1.14761055e-01f,
-1.75946742e-01f,+8.38713050e-02f,+3.07466891e-02f,+8.04821327e-02f,+1.48354098e-01f,
+3.17940354e-01f,-4.93642390e-02f,-2.60513872e-01f,+9.06437561e-02f,+1.52250201e-01f,
+1.73464775e-01f,-1.53811291e-01f,+3.68114918e-01f,+1.03933215e-01f,-1.85031563e-01f,
-1.82815850e-01f,+2.06078365e-01f,-1.62674814e-01f,-1.32063061e-01f,-4.08278257e-01f,
+1.11433305e-02f,-1.51137725e-01f,-1.36863992e-01f,+1.54084027e-01f,-5.33030033e-02f,
+1.21648209e-02f,-1.09711230e-01f,+5.21498956e-02f,+2.76346598e-03f,-6.33409470e-02f,
+7.76128694e-02f,-1.47216424e-01f,+1.10243395e-01f,-1.42562062e-01f,-7.13951364e-02f,
+1.52071221e-02f,-1.07193172e-01f,-2.12437822e-03f,+3.64802629e-01f,+2.31596872e-01f,
-4.08602180e-03f,-1.17112003e-01f,+1.55592889e-01f,-1.01351745e-01f,-2.02720478e-01f,
+1.62734032e-01f,+2.11134534e-02f,+8.38865489e-02f,-1.05528124e-01f,+8.13954622e-02f,
+1.03072390e-01f,-2.66240358e-01f,+3.29862326e-01f,-3.61823179e-02f,-2.55321681e-01f,
+1.54916719e-01f,-2.10840434e-01f,+3.46969366e-02f,+1.42289579e-01f,+7.13423565e-02f,
+2.44187251e-01f,-1.83745772e-01f,+1.95018902e-01f,+4.87727076e-02f,+1.23353206e-01f,
-1.40527815e-01f,+6.81582460e-05f,+1.95801809e-01f,-1.87738433e-01f,+1.43421441e-01f,
-8.43716115e-02f,-8.36573020e-02f,-2.18362063e-01f,-9.73582268e-02f,+3.48714352e-01f,
-1.25377953e-01f,-6.77458942e-02f,-1.49381548e-01f,+6.44683838e-02f,-7.48691931e-02f,
-9.97361243e-02f,-1.60268709e-01f,+4.21956331e-02f,-1.65671289e-01f,+6.52441084e-02f,
-1.05218180e-01f,-2.48090371e-01f,-4.98988368e-02f,+5.55770956e-02f,-3.92197259e-02f,
-1.77993774e-02f,-4.54957671e-02f,+1.94610246e-02f,+9.53652337e-02f,+1.41170502e-01f,
-1.52828544e-01f,-3.20832849e-01f,+2.15834513e-01f,+1.76708296e-01f,-1.73580974e-01f,
+3.74916755e-02f,+9.20529366e-02f,+1.51232973e-01f,-4.09966186e-02f,+1.79332301e-01f,
+1.03814468e-01f,-2.33422726e-01f,-1.01854347e-01f,+1.04523025e-01f,-8.45312849e-02f,
-8.56158733e-02f,+1.78550363e-01f,+6.77779689e-03f,+3.00682962e-01f,+1.43174663e-01f,
+7.31971413e-02f,-1.87787294e-01f,+4.30743307e-01f,-3.94465076e-03f,-4.95583974e-02f,
+1.56256370e-02f,+2.36668158e-02f,-2.02422053e-01f,+2.25707382e-01f,-6.25641122e-02f,
+2.59000659e-01f,+5.71981780e-02f,-6.86291680e-02f,+1.46939335e-02f,-5.69818206e-02f,
+4.86940667e-02f,-5.79511821e-02f,-1.54309899e-01f,-8.17021951e-02f,+2.16697931e-01f,
-2.98623234e-01f,-7.29703009e-02f,+5.53322490e-03f,-6.93392530e-02f,+7.91539997e-02f,
+8.11005682e-02f,-1.28618826e-03f,+3.37994754e-01f,+1.44290596e-01f,+2.48236768e-02f,
+6.98450059e-02f,+1.21350773e-01f,-2.97217653e-03f,-6.21254705e-02f,-3.35153900e-02f,
-3.13469917e-02f,+1.35633260e-01f,+8.07198286e-02f,-2.40676366e-02f,+3.03998441e-01f,
+7.24754855e-02f,-9.53397155e-03f,+5.29507324e-02f,-2.95146555e-01f,+3.70645821e-01f,
+7.73583427e-02f,-7.39296079e-02f,+1.89080298e-01f,+1.86919779e-01f,+1.26588061e-01f,
-2.62952089e-01f,+2.72650629e-01f,-2.27502659e-02f,+1.71235457e-01f,-9.88844186e-02f,
+7.74858817e-02f,+1.74689263e-01f,-5.20634502e-02f,+1.04942262e-01f,+1.88913241e-01f,
+9.26139473e-04f,+1.76606506e-01f,-2.66405165e-01f,-7.29320245e-03f,-1.83816165e-01f,
+1.54235139e-01f,+1.74551517e-01f,+1.79766327e-01f,+3.55998725e-01f,+6.32116422e-02f,
+7.55121931e-02f,+4.17432368e-01f,+1.56467214e-01f,+6.76935092e-02f,+3.61706354e-02f,
+3.75008672e-01f,-1.41389802e-01f,+1.42201424e-01f,+3.83013263e-02f,+4.04424220e-02f,
-2.77341139e-02f,+7.89275691e-02f,-3.70177366e-02f,-2.67515946e-02f,+6.93145767e-02f,
+3.45290214e-01f,-3.14027607e-01f,+3.01015109e-01f,+6.15181550e-02f,-1.37565359e-01f,
+1.55338243e-01f,-3.59890193e-01f,+1.02472708e-01f,+9.01685357e-02f,-3.35945934e-01f,
+1.51024863e-01f,+1.00310467e-01f,-2.28094980e-01f,-4.17232625e-02f,-7.45112672e-02f,
-9.45060328e-03f,+4.08357605e-02f,-6.43683374e-02f,+4.10846293e-01f,+1.17538340e-01f,
+2.70576388e-01f,-1.08365566e-01f,-3.17870826e-01f,+2.37300038e-01f,+3.74007933e-02f,
-1.11618102e-01f,+1.69011593e-01f,+1.54376775e-01f,+1.23354606e-01f,+1.26283914e-01f,
+8.93615931e-03f,+9.78332162e-02f,+1.72623649e-01f,-6.09172434e-02f,+1.73196029e-02f,
-2.71880716e-01f,+1.08354658e-01f,-1.46996722e-01f,+5.92411272e-02f,+1.99244335e-01f,
+1.04001448e-01f,+3.04772377e-01f,-8.97061229e-02f,-1.14000060e-01f,-3.26734930e-02f,
-1.81229800e-01f,+1.50535032e-01f,-4.51709703e-02f,+3.50736305e-02f,+4.02853221e-01f,
+7.41330832e-02f,+5.67717552e-02f,+4.63218659e-01f,-8.69175419e-03f,+3.66008759e-01f,
+1.01725608e-01f,+8.43277574e-03f,+1.97162349e-02f,-1.44551605e-01f,+4.17646989e-02f,
-2.47258365e-01f,+5.07788420e-01f,-2.21656226e-02f,-2.10099027e-01f,+1.39687806e-02f,
+4.24417406e-02f,+9.40263793e-02f,-2.19613500e-02f,+6.84951758e-03f,-1.00892372e-02f,
+1.88440025e-01f,+3.92756104e-01f,+1.43163100e-01f,+3.10787827e-01f,-2.15913504e-02f,
+3.12669039e-01f,-1.78430259e-01f,+1.61859170e-01f,+3.55747372e-01f,-1.15707606e-01f,
+5.26661240e-02f,-1.89187348e-01f,-1.01002231e-01f,-6.64638430e-02f,-9.46014374e-02f,
+4.73433197e-01f,-1.92381993e-01f,+2.05346242e-01f,-1.34230867e-01f,-7.54942372e-02f,
+6.62087277e-02f,+1.23088345e-01f,+1.96635365e-01f,-6.97855428e-02f,+9.01348069e-02f,
+1.01184770e-01f,-1.59481857e-02f,-2.35031635e-01f,+1.92458078e-01f,+8.74727443e-02f,
+1.13051586e-01f,-5.41552668e-03f,-8.56988430e-02f,+2.00570732e-01f,+2.50322163e-01f,
+3.01775753e-01f,+2.17431948e-01f,+1.02680750e-01f,+3.18515077e-02f,+2.42061824e-01f,
+2.90326297e-01f,+1.99241906e-01f,+1.04645923e-01f,+1.07455917e-01f,+1.19254768e-01f,
+2.65263140e-01f,-1.56477854e-01f,-8.70766863e-03f,+2.13038832e-01f,-4.99235988e-02f,
-7.49787912e-02f,+7.95847997e-02f,+1.10623956e-01f,+1.31617472e-01f,-1.41490430e-01f,
+2.55323462e-02f,-3.04598436e-02f,+2.03504905e-01f,-2.60653287e-01f,+1.41078353e-01f,
-5.75577803e-02f,-7.05319941e-02f,-2.36913413e-01f,+6.49796873e-02f,+2.41987109e-02f,
+3.59370597e-02f,-2.69482378e-03f,+1.17969006e-01f,+3.82233202e-01f,+1.34318039e-01f,
-3.05141330e-01f,-1.05076954e-01f,+8.25950503e-02f,-1.06678838e-02f,+1.57118723e-01f,
+2.91071057e-01f,+1.65751413e-01f,-2.31996819e-01f,+4.77832258e-01f,+2.09962606e-01f,
-2.36869529e-01f,+2.32873410e-02f,+3.69573385e-02f,+1.31290048e-01f,-8.20077956e-03f,
-9.36055779e-02f,-3.93480398e-02f,+1.74651131e-01f,+3.30151021e-01f,+1.65824801e-01f,
-3.45010608e-02f,-2.33150255e-02f,+1.55376270e-01f,+4.26009834e-01f,-9.11067277e-02f,
+3.18986744e-01f,+1.49387330e-01f,-2.15059752e-03f,+7.92746618e-02f,+1.07482567e-01f,
-2.23211467e-01f,+2.45791882e-01f,-3.91635112e-03f,-2.53168494e-02f,+1.32966384e-01f,
+2.96645463e-01f,+1.28369555e-01f,-2.84783185e-01f,-3.05072784e-01f,-3.17907035e-01f,
+3.50204967e-02f,-1.73533618e-01f,-9.54015478e-02f,+2.41692252e-02f,+1.08065289e-02f,
-1.22072045e-02f,+1.64754763e-02f,+2.88590640e-01f,+1.71756819e-01f,+2.35515591e-02f,
-4.64937501e-02f,+1.34985000e-02f,+5.11056259e-02f,-6.93753064e-02f,-3.42113525e-01f,
+1.80642918e-01f,+1.42971814e-01f,+5.54678999e-02f,-1.92238037e-02f,+3.68109494e-02f,
+3.13656837e-01f,-1.43434018e-01f,+1.21440843e-01f,+1.17437914e-02f,-3.46918553e-01f,
-3.18828933e-02f,+2.85446465e-01f,-7.57821975e-03f,-1.12032376e-01f,-7.77679635e-03f,
+6.59292564e-02f,+1.21490397e-02f,+1.98363885e-01f,-3.47795375e-02f,+1.73037708e-01f,
+5.41892387e-02f,+4.50124219e-02f,-4.84256521e-02f,+3.94181907e-02f,+2.18281269e-01f,
+4.37454104e-01f,+5.51867336e-02f,+7.58378431e-02f,-1.73225597e-01f,+2.38504142e-01f,
+5.34838326e-02f,+1.24465443e-01f,-2.13091388e-01f,-1.54430941e-01f,+2.32353896e-01f,
+6.52745888e-02f,+5.82470447e-02f,-9.75809470e-02f,+3.36110026e-01f,+2.31762171e-01f,
-2.39755541e-01f,+1.74091849e-02f,+1.33220181e-01f,-1.78416118e-01f,-8.20381916e-04f,
-1.40390210e-02f,+2.40264431e-01f,+2.33524710e-01f,-6.81832805e-02f,-1.13370582e-01f,
-1.21644616e-01f,+1.01209013e-02f,-2.58417547e-01f,+3.65361199e-02f,-2.88291126e-02f,
-7.50330910e-02f,+9.77733582e-02f,+1.34461373e-01f,-1.30420849e-01f,-9.83807072e-02f,
-9.12754163e-02f,-5.20938598e-02f,-3.76390703e-02f,-1.76372945e-01f,+1.66379660e-01f,
-1.40124261e-01f,-2.87343413e-01f,+7.89673775e-02f,+1.43638775e-01f,+9.08244103e-02f,
+1.41493755e-03f,-9.33847353e-02f,+5.96885122e-02f,+2.59620100e-01f,+1.17376968e-01f,
-1.75972376e-02f,+1.31626055e-01f,+6.37207739e-03f,+6.76795542e-02f,+1.93528712e-01f,
-1.43221468e-01f,-1.88028023e-01f,+1.37924850e-01f,-3.43144536e-01f,+1.67330533e-01f,
+9.68314260e-02f,+3.86497855e-01f,+5.94681054e-02f,-8.39411616e-02f,-4.18507904e-02f,
-2.57836968e-01f,-9.89624858e-02f,-9.73017514e-02f,-3.86643171e-01f,+2.29662850e-01f,
-9.78410617e-02f,-1.16198190e-01f,+1.70122907e-01f,-4.38490510e-02f,-1.43015785e-02f,
+2.39006802e-01f,+2.29470477e-01f,+4.44400579e-01f,+3.02014146e-02f,-1.63007796e-01f,
+1.45155147e-01f,+8.83510113e-02f,-8.80294368e-02f,-2.18351260e-02f,-4.57231812e-02f,
-2.35896781e-01f,-1.89830735e-01f,-9.83124524e-02f,-1.07003696e-01f,+1.22994736e-01f,
+4.46692929e-02f,-7.05265556e-05f,+1.59775555e-01f,-1.04949854e-01f,+1.39306441e-01f,
-7.47440755e-02f,-1.53696999e-01f,+2.49432862e-01f,+2.99460366e-02f,-7.90915340e-02f,
+1.03717752e-01f,-6.25726730e-02f,+1.07292742e-01f,+3.44240904e-01f,+1.17421761e-01f,
-2.49897111e-02f,+1.79844052e-01f,-1.31341135e-02f,+3.67974117e-02f,-1.49225533e-01f,
-1.24151781e-01f,-1.99206412e-01f,+1.73669845e-01f,+2.56819874e-01f,-5.08159846e-02f,
+2.25841701e-01f,-8.06612223e-02f,+3.70024368e-02f,+1.60562336e-01f,+1.36903420e-01f,
+6.06770813e-02f,-1.60098061e-01f,-3.03558186e-02f,+4.21796441e-02f,+1.13897972e-01f,
+1.06052250e-01f,-3.11958008e-02f,-1.07395396e-01f,+7.93724135e-02f,-2.60722172e-02f,
+8.85923207e-02f,-4.47864980e-01f,+2.64056921e-01f,-2.52435714e-01f,+2.47572437e-01f,
+2.11055726e-01f,-1.27844766e-01f,+3.96655388e-02f,+6.42602295e-02f,+7.61815757e-02f,
+1.81275368e-01f,+1.17447659e-01f,-3.08770806e-01f,+4.14941221e-01f,+1.76451355e-01f,
-1.85346782e-01f,-2.79676288e-01f,-1.58471704e-01f,+8.47821161e-02f,-1.66492686e-01f,
-1.82561129e-01f,+1.49748055e-03f,-3.37528773e-02f,-9.25225243e-02f,+1.89681351e-01f,
-1.06389798e-01f,-1.12658337e-01f,-5.01229502e-02f,+1.16376691e-01f,+1.31286189e-01f,
+2.92979687e-01f,+2.14731619e-01f,+6.08240485e-01f,-2.72006784e-02f,+2.24747941e-01f,
+7.84926191e-02f,+2.26491727e-02f,-2.26675436e-01f,+1.62639335e-01f,-2.86497414e-01f,
+3.11928317e-02f,-4.09123786e-02f,+1.89826563e-01f,+2.44555905e-01f,+7.49305338e-02f,
-1.00825436e-01f,-4.39239964e-02f,-1.66135225e-02f,+7.11994618e-02f,-1.10918067e-01f,
+2.77595017e-02f,-4.36757579e-02f,+1.32039353e-01f,-4.86009717e-02f,+6.86992630e-02f,
-2.39869744e-01f,+1.54786512e-01f,-1.39052823e-01f,+3.84938836e-01f,+5.52873462e-02f,
-1.03843749e-01f,+2.00889483e-01f,+1.64125428e-01f,-1.33771226e-01f,-2.56128669e-01f,
-6.16990775e-02f,+2.92198174e-02f,-3.46586376e-01f,+8.51656124e-02f,-3.15218717e-02f,
-2.33268104e-02f,+3.47416371e-01f,+1.03414796e-01f,-2.34186605e-01f,-1.46832719e-01f,
+2.95281559e-02f,+3.99659462e-02f,-8.44236687e-02f,-1.98670208e-01f,+1.51416540e-01f,
+4.25771698e-02f,-1.43144667e-01f,+1.32850990e-01f,+3.38129729e-01f,-1.68115482e-01f,
+2.23657444e-01f,+2.21584409e-01f,-8.43944848e-02f,+1.42836273e-01f,-5.57678565e-02f,
+2.57725805e-01f,-1.21489957e-01f,-1.31643549e-01f,+6.50010929e-02f,+1.05630256e-01f,
+2.44903173e-02f,-2.63734192e-01f,+3.39800745e-01f,+1.32512152e-01f,+9.53639597e-02f,
+1.30050465e-01f,-2.72236526e-01f,+5.11525460e-02f,-2.27533683e-01f,+5.96155180e-03f,
-5.81078678e-02f,-6.89040720e-02f,-5.00736199e-02f,+8.41562171e-03f,+7.40753934e-02f,
+1.57351851e-01f,+1.90931961e-01f,+4.80698086e-02f,-4.22753483e-01f,+1.58176169e-01f,
+5.38595542e-02f,+3.98782283e-01f,-7.82428831e-02f,-2.97987550e-01f,-2.23262489e-01f,
+4.27006520e-02f,+3.25987786e-01f,-1.42858475e-01f,-9.45350006e-02f,+2.63204724e-01f,
-5.20955734e-02f,+5.19217141e-02f,+1.93239897e-02f,+1.41951129e-01f,-5.37711307e-02f,
+1.61082596e-01f,-9.33048427e-02f,-3.76377292e-02f,-1.81783438e-02f,-1.21701658e-01f,
-4.35207933e-01f,+4.47490484e-01f,-2.55774528e-01f,+2.68998183e-02f,-1.37820780e-01f,
-1.10406898e-01f,+1.61100954e-01f,+1.32181020e-02f,-2.80527323e-02f,+1.27369344e-01f,
+3.39714182e-03f,+8.23785830e-03f,+1.32015258e-01f,+1.60522014e-01f,-7.42339268e-02f,
+1.50872782e-01f,-1.60216793e-01f,-6.04695491e-02f,+2.43726194e-01f,+9.79031920e-02f,
+2.88515806e-01f,+1.02764547e-01f,-4.29224558e-02f,-5.81900850e-02f,+1.05222434e-01f,
-5.66153042e-02f,-5.70953749e-02f,-7.59279057e-02f,+2.90938467e-01f,-1.35769650e-01f,
+1.99418291e-01f,+2.35396162e-01f,-1.31607233e-02f,+9.33008716e-02f,+1.32313212e-02f,
+2.36121267e-01f,-1.06119804e-01f,+1.36575475e-01f,+2.33558610e-01f,-2.34198764e-01f,
+2.61974731e-03f,+2.10740089e-01f,-2.23027006e-01f,+3.02320659e-01f,-1.36884764e-01f,
-2.70167083e-01f,-6.92099854e-02f,-9.00528505e-02f,+1.47541225e-01f,+1.03269748e-01f,
-5.09273000e-02f,-1.22832634e-01f,+2.76551582e-03f,-5.09451190e-03f,+1.89372748e-01f,
+4.92337570e-02f,+3.75269055e-01f,-1.26061097e-01f,-7.09727630e-02f,+2.79925853e-01f,
+3.04501355e-02f,+1.51961729e-01f,-2.07306519e-01f,-1.76100627e-01f,-3.27986211e-01f,
+2.43280336e-01f,+8.88558477e-02f,+1.97493732e-01f,-2.67060935e-01f,-1.96023341e-02f,
-2.35194992e-02f,-1.96366251e-01f,-2.07348093e-02f,-1.23799063e-01f,+1.21824242e-01f,
+4.39148769e-03f,+6.77376315e-02f,-1.57524884e-01f,+7.61435777e-02f,-9.85911489e-02f,
+3.93645726e-02f,-2.26294599e-03f,-8.98064300e-02f,+3.40681672e-01f,+1.53443307e-01f,
-6.06510378e-02f,+1.46245509e-01f,-5.67519851e-02f,-9.33756232e-02f,+1.99018475e-02f,
-1.42983124e-01f,+2.01300547e-01f,-4.93536703e-02f,+3.59662473e-02f,+1.51636183e-01f,
+7.82459602e-03f,-2.41683312e-02f,+3.12957764e-01f,-9.22572017e-02f,+7.29214679e-03f,
+3.93427432e-01f,-8.70190095e-03f,+3.90980095e-01f,+1.07227482e-01f,+1.85125470e-01f,
-9.19390246e-02f,+9.37611386e-02f,-2.96535701e-01f,+1.76688045e-01f,-1.00019142e-01f,
+1.53564125e-01f,-3.68630216e-02f,-2.42578089e-01f,+1.80840120e-01f,-9.89901125e-02f,
+4.76769209e-02f,-2.14863285e-01f,+9.55164731e-02f,-7.91387409e-02f,-1.66246593e-01f,
-2.74678171e-01f,-7.91828111e-02f,+3.26522328e-02f,+2.20679343e-01f,-2.28548348e-02f,
-3.30422163e-01f,+2.96802312e-01f,+1.02931090e-01f,+1.42004326e-01f,-2.23951533e-01f,
+2.91508108e-01f,-5.44751994e-02f,+7.72838816e-02f,+3.46315354e-01f,+1.93055153e-01f,
+2.63333451e-02f,+1.93427697e-01f,-5.79294786e-02f,-2.81228453e-01f,+1.49720922e-01f,
-1.85290575e-02f,+1.89881995e-01f,+2.37634825e-03f,+8.70521143e-02f,+3.48094344e-01f,
-1.08913243e-01f,+2.25117311e-01f,+1.12901442e-01f,+4.53072637e-01f,-6.79529980e-02f,
-4.51370664e-02f,-1.71128720e-01f,-8.75641778e-02f,-1.59803079e-03f,+1.74780458e-01f,
+1.78032219e-01f,+2.18814269e-01f,-1.81344390e-01f,+2.66177058e-01f,-1.66007996e-01f,
-9.26167592e-02f,+1.40960872e-01f,+1.83858216e-01f,+3.74837518e-02f,-1.75497651e-01f,
+6.32391796e-02f,+1.05401598e-01f,-1.36664093e-01f,-1.09572090e-01f,-7.75258467e-02f,
-2.50072747e-01f,+9.80140939e-02f,-6.91246241e-02f,-3.58236700e-01f,-3.17808509e-01f,
-3.21350604e-01f,+2.02423885e-01f,-1.69164851e-01f,+1.41857686e-02f,+1.92124754e-01f,
-2.19516248e-01f,-3.64107750e-02f,+1.09336227e-01f,+1.87791035e-01f,+1.44321695e-01f,
-4.20155004e-03f,-7.40045607e-02f,-8.41297135e-02f,+1.97804332e-01f,+8.49630386e-02f,
+2.09477410e-01f,+2.56587327e-01f,+1.53562818e-02f,-3.98815423e-02f,+1.19683355e-01f,
+1.20480977e-01f,-1.10728487e-01f,-2.07207575e-01f,+2.20625252e-01f,-6.61331639e-02f,
+8.24629962e-02f,+8.65119100e-02f,+1.03930896e-02f,+5.30885154e-05f,-1.79453999e-01f,
+4.43635911e-01f,-3.51273641e-02f,+1.87426627e-01f,-2.22076058e-01f,+1.80500001e-01f,
-2.07461014e-01f,+3.57988849e-02f,-8.73443857e-02f,+1.96310923e-01f,+1.69772282e-02f,
-8.39774311e-02f,+1.81432873e-01f,+9.90457740e-03f,+8.99939314e-02f,+1.82284303e-02f,
+7.97697753e-02f,+6.03585280e-02f,+1.16410628e-01f,-1.25922546e-01f,+5.33178039e-02f,
+1.25461742e-01f,+8.61390382e-02f,+1.13720402e-01f,+1.12487905e-01f,-1.72399729e-01f,
+2.84969896e-01f,+5.46948016e-02f,-1.17324412e-01f,-1.09394021e-01f,-3.23490463e-02f,
-2.90790200e-01f,+5.02003506e-02f,-4.22588810e-02f,+3.42825092e-02f,+7.98910782e-02f,
+2.71692216e-01f,-7.09236935e-02f,-2.31604263e-01f,+3.98833584e-03f,-1.39825776e-01f,
+7.35221282e-02f,+5.21642976e-02f,+3.62796597e-02f,+5.21958888e-01f,+2.34556526e-01f,
-3.52234840e-01f,-6.02465570e-02f,-1.17408171e-01f,+2.41023630e-01f,+5.94653673e-02f,
-1.39260918e-01f,+3.78153354e-01f,+1.69496670e-01f,-2.01285705e-01f,-9.38926935e-02f,
-1.01452313e-01f,+9.39905643e-02f,+9.46217626e-02f,+3.97572577e-01f,+1.63649954e-02f,
-1.07526712e-01f,-1.21087410e-01f,-9.50604007e-02f,-2.74652839e-01f,+1.23637855e-01f,
+2.15432256e-01f,+1.76953443e-03f,+1.00126274e-01f,-8.90458524e-02f,-1.06727540e-01f,
-2.75549710e-01f,+4.57816795e-02f,+8.67216941e-03f,+2.94052541e-01f,-2.56280661e-01f,
+9.17307734e-02f,-1.01127438e-01f,+1.01309501e-01f,-2.05631599e-01f,+7.93232918e-02f,
-1.70302242e-01f,-2.20482185e-01f,-8.99820104e-02f,+4.14541923e-02f,-2.46754605e-02f,
+1.75488323e-01f,-3.89276594e-02f,+4.34345216e-01f,-1.09759897e-01f,-1.22318454e-01f,
+9.13023651e-02f,+1.07020967e-01f,-1.25267636e-02f,+7.52975047e-02f,-3.40867549e-01f,
+2.62114048e-01f,+1.02244258e-01f,+5.44371456e-02f,+2.57564485e-01f,-4.58903722e-02f,
+1.53004467e-01f,+7.61387348e-02f,+6.95504174e-02f,-1.36749327e-01f,+4.68813032e-02f,
-1.11950725e-01f,+1.72298715e-01f,+4.42056298e-01f,+2.74292193e-02f,-2.14765161e-01f,
+3.36875588e-01f,+1.26512483e-01f,+4.87099029e-03f,-2.37104431e-01f,+1.54708102e-01f,
+2.24643081e-01f,-7.20705837e-02f,+1.90347984e-01f,+6.52099540e-03f,+2.99607158e-01f,
-2.31258184e-01f,+2.58152604e-01f,-1.51536465e-01f,+2.80373454e-01f,-8.02125186e-02f,
-1.31240815e-01f,-1.59403294e-01f,+1.72449321e-01f,-1.96586013e-01f,-1.95907310e-01f,
+2.03746065e-01f,-8.62152874e-02f,+3.22759189e-02f,+5.00433939e-03f,-3.36645812e-01f,
+8.14654082e-02f,-1.13681965e-01f,-1.70600526e-02f,+5.19925505e-02f,-6.02437649e-03f,
-5.08041419e-02f,-2.34436557e-01f,+1.60757884e-01f,+2.85523217e-02f,-1.28367305e-01f,
+2.65351206e-01f,-8.06727782e-02f,-4.13600326e-01f,-8.02579161e-04f,+1.44305512e-01f,
-1.29689932e-01f,+1.08242266e-01f,+7.51897097e-02f,+2.44424686e-01f,+6.57346100e-03f,
-1.14121132e-01f,-2.49317121e-02f,+3.25933658e-02f,+1.15069710e-02f,+2.16899849e-02f,
-1.33244142e-01f,-5.70526496e-02f,+1.94139257e-01f,+1.37186676e-01f,+2.25103050e-01f,
+1.53633937e-01f,+1.37645543e-01f,-1.34972095e-01f,-1.44552842e-01f,+1.46377176e-01f,
+5.79552315e-02f,+2.21116766e-02f,+4.46294295e-03f,+2.40868540e-03f,+7.34163299e-02f,
-3.72056775e-02f,-3.67883742e-02f,+3.16872209e-01f,+8.15246105e-02f,+1.55934989e-01f,
+7.93861896e-02f,-1.74573734e-01f,+1.00412063e-01f,+2.39682153e-01f,-1.31290322e-02f,
-2.54413098e-01f,+7.14447796e-02f,+3.61341357e-01f,-6.01500534e-02f,+1.29400998e-01f,
+8.20783004e-02f,+1.20862216e-01f,+2.42010534e-01f,-2.89787054e-01f,+1.51630849e-01f,
-5.19848652e-02f,+1.71549812e-01f,+5.57776354e-02f,+1.53940395e-01f,+1.48877174e-01f,
+9.02950317e-02f,+1.20896108e-01f,-1.03025764e-01f,-6.35592863e-02f,+1.73620984e-01f,
-2.74242043e-01f,-2.05386654e-01f,+2.70300098e-02f,-1.97681636e-01f,+3.03912964e-02f,
-5.47540113e-02f,+1.49297193e-02f,-5.50997630e-03f,+2.70541161e-01f,-7.86900297e-02f,
+1.68548211e-01f,+2.98811253e-02f,-3.07143360e-01f,+1.63138419e-01f,-8.42204541e-02f,
-1.48960963e-01f,-1.76709205e-01f,-5.91581315e-02f,-1.94652781e-01f,-6.84692636e-02f,
+1.59070447e-01f,-1.09911717e-01f,+4.78584096e-02f,+1.93724558e-01f,+1.27037168e-01f,
-1.26563147e-01f,-1.29312679e-01f,+1.70386076e-01f,-1.95584521e-02f,+6.09949455e-02f,
-2.12356844e-03f,+6.04093298e-02f,-4.18725722e-02f,-1.06790312e-01f,+9.54017267e-02f,
-3.44391586e-03f,-9.13229883e-02f,+4.99641858e-02f,-4.70500439e-02f,+2.36456677e-01f,
+7.82754198e-02f,+3.27941612e-04f,+5.85284866e-02f,-3.03174760e-02f,+2.16186613e-01f,
+1.79417968e-01f,-7.68428892e-02f,+9.37905088e-02f,-1.23037091e-02f,+2.24258944e-01f,
-6.51405901e-02f,+1.00071274e-03f,+7.54245594e-02f,+1.28287569e-01f,-4.45567518e-02f,
-5.41962013e-02f,+2.29959562e-01f,+5.87946037e-03f,+1.61159337e-02f,+5.13805263e-02f,
-8.93914315e-04f,+5.33911064e-02f,+2.06031874e-01f,+9.68467891e-02f,-1.49905244e-02f,
-1.75275922e-01f,+3.15803140e-02f,+1.00642137e-01f,-8.78067911e-02f,-2.57684775e-02f,
+3.02000232e-02f,-9.98820993e-04f,-7.92667940e-02f,-1.32211298e-01f,+6.92509562e-02f,
-1.04143538e-01f,+1.25017598e-01f,+2.49079138e-01f,-7.04833791e-02f,+1.87924862e-01f,
-1.93236783e-01f,+1.86707675e-01f,+1.57713413e-01f,+8.06063488e-02f,+1.55681178e-01f,
-6.73542768e-02f,+7.84967095e-02f,+1.79494973e-02f,+2.47014716e-01f,+1.64366439e-02f,
-1.64911687e-01f,-2.91506708e-01f,-2.05645069e-01f,-1.49935856e-02f,-3.09696317e-01f,
-5.23828641e-02f,+2.31560662e-01f,+7.56750554e-02f,-2.22886316e-02f,-3.65359515e-01f,
-2.20186219e-01f,+1.71263203e-01f,-1.01335794e-01f,-3.29368599e-02f,-2.03299657e-01f,
+1.72021091e-01f,+1.10862665e-01f,-3.53153399e-03f,-2.16225073e-01f,-1.55197024e-01f,
+1.30482778e-01f,-5.51319607e-02f,-1.76137626e-01f,-9.57719237e-03f,+2.55772062e-02f,
-1.31497294e-01f,+1.64350137e-01f,+6.29140362e-02f,-1.80659182e-02f,-2.11768463e-01f,
+3.83800268e-02f,-1.43131748e-01f,+2.08676383e-01f,+5.45141660e-02f,+6.28353283e-02f,
-1.91168621e-01f,+1.45843908e-01f,+5.87451719e-02f,+1.29434792e-02f,+2.11330280e-01f,
-4.90393974e-02f,-1.51825091e-02f,+2.41401568e-01f,+1.32093728e-01f,+9.38532278e-02f,
+1.82879269e-02f,+5.82929999e-02f,+3.73185337e-01f,-5.66404425e-02f,-1.36169955e-01f,
-1.02983296e-01f,+1.32019743e-01f,-5.36038689e-02f,-1.17425382e-01f,+1.61679164e-01f,
+1.11003667e-01f,+8.10569972e-02f,-8.13562423e-02f,+7.01730847e-02f,+6.95883185e-02f,
-2.54884094e-01f,+1.28653884e-01f,-1.25839919e-01f,+2.12230116e-01f,+1.38571877e-02f,
+1.88628715e-02f,+3.45464975e-01f,-9.67265293e-03f,+6.40555546e-02f,+1.01086698e-01f,
+9.95117947e-02f,+4.28522229e-01f,-3.55538279e-01f,-5.20217000e-03f,+8.18848461e-02f,
-5.91579489e-02f,-4.13054787e-02f,-2.27804065e-01f,+1.07242621e-01f,+2.24479482e-01f,
-2.89186925e-01f,-2.10485682e-01f,-1.29915789e-01f,+9.17201117e-02f,-9.96506065e-02f,
+5.13561554e-02f,-2.22083867e-01f,+6.00201488e-02f,-6.64394945e-02f,-2.02600703e-01f,
+5.86698689e-02f,+1.35789871e-01f,+1.68918699e-01f,-6.62658140e-02f,-3.70540507e-02f,
+2.07528844e-01f,+7.42521510e-02f,-1.81607567e-02f,-8.20072740e-02f,+9.15535688e-02f,
-5.21906316e-02f,-1.69024162e-03f,+1.12243302e-01f,+7.88678005e-02f,+6.48514032e-02f,
-1.30429879e-01f,+8.77778232e-02f,+7.73036554e-02f,+2.61453688e-02f,-1.47787139e-01f,
+1.00820512e-01f,+1.27634898e-01f,+6.59222752e-02f,+1.30407944e-01f,-1.30614102e-01f,
+1.13638863e-01f,+8.00241008e-02f,+1.09227061e-01f,-2.83317324e-02f,+1.61535013e-02f,
-1.72260955e-01f,-2.22276106e-01f,+1.49880752e-01f,+1.20615130e-02f,-3.68855484e-02f,
-5.40223122e-02f,+1.58807859e-01f,+1.24706421e-02f,-9.29022729e-02f,-1.15348659e-01f,
-3.58369142e-01f,+2.23542184e-01f,-1.42997980e-01f,-1.04387403e-01f,+1.69842362e-01f,
-1.76279932e-01f,+1.03638180e-01f,+1.20067492e-01f,+2.50480562e-01f,+8.60859156e-02f,
+8.52986239e-03f,+2.66620088e-02f,+3.52469794e-02f,-1.23044394e-03f,-3.50045443e-01f,
-5.90959564e-02f,-1.10078380e-01f,+4.32813428e-02f,+9.63660553e-02f,-1.10738382e-01f,
+5.03567696e-01f,-9.20618623e-02f,+2.67448694e-01f,+2.86102772e-01f,+3.21105629e-01f,
+2.48534679e-02f,+5.47185093e-02f,+2.33849794e-01f,-4.06114995e-01f,-8.53064582e-02f,
+8.20529312e-02f,-1.47405602e-02f,-1.69472154e-02f,+7.44171292e-02f,-4.51197363e-02f,
+1.68833077e-01f,-2.19886061e-02f,+1.34167999e-01f,-1.67218864e-01f,-4.38625291e-02f,
-1.26616225e-01f,+7.47891935e-03f,-1.80486068e-01f,+3.17213349e-02f,-1.72679853e-02f,
+1.04369767e-01f,+2.98253477e-01f,-7.75373802e-02f,+7.95794427e-02f,+1.80044696e-02f,
+1.76331863e-01f,-2.65909672e-01f,+2.26121277e-01f,+1.02997571e-01f,+4.10165899e-02f,
-8.01871642e-02f,-7.19183236e-02f,-1.52137667e-01f,-2.49458238e-01f,+9.72917601e-02f,
-2.82840282e-01f,+1.69177130e-01f,+2.95118298e-02f,+2.37632394e-01f,+2.14561865e-01f,
+4.07112867e-01f,-6.91443533e-02f,-2.82148980e-02f,+7.98962340e-02f,-1.67641953e-01f,
+7.67518133e-02f,-1.00800470e-01f,+2.19302535e-01f,+2.86629256e-02f,+3.28986496e-01f,
-5.69860563e-02f,+6.19450174e-02f,-4.69082482e-02f,+5.27603552e-02f,+8.31426904e-02f,
-2.77299702e-01f,+3.13151255e-02f,+2.02566385e-02f,-3.28252256e-01f,+5.71025312e-02f,
-1.20314695e-02f,-6.67183027e-02f,-1.42842561e-01f,-9.10119489e-02f,+2.42907107e-02f,
-1.21574448e-02f,-1.74980285e-03f,+2.20414065e-02f,+8.80250409e-02f,-1.45083994e-01f,
+2.04830952e-02f,-1.20961018e-01f,+1.38719574e-01f,-4.04546648e-01f,+1.10434033e-01f,
-2.90408731e-01f,-6.76547363e-02f,+6.15019314e-02f,-2.50985056e-01f,-1.85529947e-01f,
+1.45421147e-01f,-2.43301734e-01f,-7.16253445e-02f,-9.50491354e-02f,+1.55142546e-01f,
-6.53672740e-02f,-2.29642943e-01f,-5.22101484e-02f,-1.22798219e-01f,-2.09731564e-01f,
+1.01639770e-01f,+3.86871509e-02f,+1.80427969e-01f,-1.70797274e-01f,-5.37443301e-03f,
-2.40475442e-02f,+1.94974557e-01f,-2.71541066e-03f,-2.95810085e-02f,+1.29165975e-02f,
+1.02320351e-01f,-1.90864861e-01f,-2.54147440e-01f,-5.08348607e-02f,-2.17532068e-01f,
-1.17845081e-01f,-3.48760970e-02f,-1.16867550e-01f,+8.52617696e-02f,-2.54448026e-01f,
+9.53585580e-02f,+8.13959911e-02f,+7.37924576e-02f,-7.84357414e-02f,+6.06508590e-02f,
+1.38673767e-01f,+2.82538950e-01f,-7.89071843e-02f,+5.45845069e-02f,+3.12034535e-04f,
-1.67584449e-01f,-1.22689791e-01f,+2.87538528e-01f,+1.78232297e-01f,-1.07354484e-01f,
+2.68330369e-02f,-8.70573055e-03f,-9.01147649e-02f,+1.08331330e-02f,-1.47396997e-01f,
-2.63401084e-02f,+1.80948719e-01f,-8.86943117e-02f,-3.65916826e-02f,-1.14909351e-01f,
-2.12179393e-01f,-4.25746478e-02f,-1.09039672e-01f,+1.52934536e-01f,+8.14719945e-02f,
+1.18263982e-01f,+8.96338597e-02f,-8.08966458e-02f,-7.39164948e-02f,+1.62029430e-01f,
+1.71590939e-01f,+2.09227428e-01f,+1.99525788e-01f,+1.83058903e-01f,-7.53340870e-03f,
-1.58962384e-01f,-1.85896363e-02f,-1.42836705e-01f,-1.21159494e-01f,+1.24142237e-01f,
+2.44379312e-01f,+2.40547821e-01f,+1.03812218e-01f,-7.95137957e-02f,+1.72500849e-01f,
+8.88146460e-02f,+3.10981479e-02f,+1.86772227e-01f,+4.01921794e-02f,+1.13147557e-01f,
-1.04613230e-01f,+3.03166080e-02f,+1.56977698e-01f,-1.14718772e-01f,+1.81432784e-01f,
-1.35207742e-01f,+5.56869525e-03f,+1.46383643e-01f,-4.78491280e-03f,-1.35348246e-01f,
-2.76151717e-01f,+2.24981084e-01f,+3.88207883e-01f,-9.35087651e-02f,-1.23078734e-01f,
+2.95071572e-01f,-1.07005220e-02f,+2.52402484e-01f,+1.76543668e-01f,-3.52055132e-02f,
+1.05961725e-01f,-1.09313585e-01f,-3.18374753e-01f,-4.03004438e-01f,+1.94098011e-01f,
+1.64170843e-02f,-1.23216391e-01f,+2.31350988e-01f,-6.02446916e-03f,-6.72031492e-02f,
+9.85795050e-04f,-2.00513288e-01f,-1.02991425e-01f,-1.68942675e-01f,+2.51299202e-01f,
+2.05711693e-01f,-6.91147521e-02f,-4.21605483e-02f,+3.42152156e-02f,+1.23066053e-01f,
-2.58580688e-02f,-1.01413652e-01f,+2.18234792e-01f,-5.49065974e-03f,-1.00242361e-01f,
+5.28392717e-02f,-3.10826916e-02f,-8.97801071e-02f,-4.45859805e-02f,+1.22128077e-01f,
-8.60663503e-02f,+6.74031079e-02f,-1.35974094e-01f,-1.23702124e-01f,+2.56401777e-01f,
-2.27288902e-01f,-4.42703888e-02f,+7.81491864e-03f,-1.18280621e-03f,+5.10878162e-04f,
-3.30959111e-02f,-8.54873285e-02f,+1.61963957e-03f,+7.05130547e-02f,+4.93464209e-02f,
+2.57565565e-02f,-5.49450405e-02f,+5.06887212e-02f,-7.59683363e-03f,-3.00308615e-02f,
-8.72652307e-02f,+8.77978727e-02f,+1.39367893e-01f,+5.53376302e-02f,-2.13351734e-02f,
+4.29671556e-02f,-6.56749308e-02f,-5.11251800e-02f,+1.35963827e-01f,+5.56867346e-02f,
-1.44346669e-01f,+6.20521000e-03f,-1.37072532e-02f,+3.27170253e-01f,-6.36955574e-02f,
-1.08999550e-01f,+2.30650991e-01f,-7.76880980e-02f,-2.79507756e-01f,+2.14454174e-01f,
+5.31273708e-03f,+9.25309435e-02f,-2.24743690e-02f,-2.91562676e-01f,-1.77121870e-02f,
+4.50557284e-02f,-8.10038969e-02f,-2.64445454e-01f,+1.13020845e-01f,-2.33611569e-01f,
+1.37946635e-01f,+9.28092673e-02f,+9.88634601e-02f,-7.60563016e-02f,+7.42829740e-02f,
-7.83685818e-02f,-2.08354414e-01f,+1.40225589e-01f,+3.10816744e-04f,+2.10591760e-02f,
+1.03544919e-02f,+2.27266967e-01f,+1.39364645e-01f,+1.54414177e-01f,+1.62448540e-01f,
-1.18026368e-01f,-8.08887035e-02f,+2.18666464e-01f,+1.70606315e-01f,-1.37163982e-01f,
+1.14216097e-01f,+2.98392266e-01f,+1.58810660e-01f,-1.47391811e-01f,+2.25093096e-01f,
-2.40098238e-01f,-5.08779101e-02f,-8.04476663e-02f,+1.80736214e-01f,+2.40330353e-01f,
+2.80294985e-01f,-1.65676281e-01f,+3.12196344e-01f,-1.16318159e-01f,+1.45878330e-01f,
-2.18478128e-01f,+1.24243319e-01f,+1.06532112e-01f,-1.01126298e-01f,+2.70629711e-02f,
+2.81709135e-01f,+2.41525453e-02f,-3.34789902e-01f,-2.98490703e-01f,-5.53360246e-02f,
-6.63259923e-02f,+2.25510821e-01f,+2.97733188e-01f,+1.26121849e-01f,+4.14189845e-02f,
+3.42086554e-01f,-2.44030394e-02f,+2.12714270e-01f,+3.82795669e-02f,-1.61824197e-01f,
+1.28634200e-01f,-1.40143663e-01f,+1.46998111e-02f,-2.43175104e-01f,+1.22977003e-01f,
+1.67624444e-01f,-1.12302914e-01f,+1.85522184e-01f,+1.74776450e-01f,+5.52163683e-02f,
+2.74038464e-02f,-8.65966007e-02f,-2.34399512e-01f,+2.08053499e-01f,+1.83036447e-01f,
+2.07024887e-01f,+1.59456551e-01f,-3.37692983e-02f,-2.07471415e-01f,+1.03600817e-02f,
+2.17235625e-01f,-2.11113587e-01f,-6.99096546e-02f,-1.53785318e-01f,+3.15309256e-01f,
-3.70906852e-02f,-5.62175922e-02f,+2.49817088e-01f,+2.59624034e-01f,+1.48916498e-01f,
-3.06564838e-01f,-2.81283230e-01f,-9.69441514e-03f,+1.11119419e-01f,+3.27809989e-01f,
-9.65826660e-02f,-1.32538021e-01f,+5.32286875e-02f,-1.49625083e-02f,-2.43954151e-03f,
-6.46262765e-02f,-4.62311022e-02f,-1.85536698e-01f,-9.93345901e-02f,-1.90926105e-01f,
+5.63830994e-02f,+2.07250014e-01f,-3.54676768e-02f,+1.73106976e-02f,+1.62781432e-01f,
+2.79516410e-02f,-5.53264953e-02f,+6.21353090e-02f,-1.42406732e-01f,+3.13657016e-01f,
-1.02870002e-01f,+1.74469724e-01f,-1.09758899e-01f,+1.19848564e-01f,-2.04736799e-01f,
-5.55378124e-02f,+6.54425472e-02f,-1.59064189e-01f,-6.74682334e-02f,+5.55852242e-02f,
+1.80064127e-01f,-3.10078133e-02f,+2.03174397e-01f,+7.06181079e-02f,+4.46663871e-02f,
+6.94755791e-03f,+1.15692660e-01f,-3.45594101e-02f,+1.59807891e-01f,+6.54668286e-02f,
-4.55100797e-02f,+3.29942405e-02f,+6.90020844e-02f,-1.00470454e-01f,-1.42179877e-01f,
-1.52263746e-01f,+5.55580780e-02f,+1.74711585e-01f,-2.41604131e-02f,+5.89922406e-02f,
-2.35660039e-02f,+3.01702619e-01f,+2.71448553e-01f,+1.33592203e-01f,+2.71399617e-01f,
+4.42808479e-01f,+2.50830680e-01f,+2.60711983e-02f,+1.27640083e-01f,+3.59767489e-02f,
+1.88355625e-01f,-3.90552491e-01f,-1.21865366e-02f,+1.56110004e-01f,-2.18460992e-01f,
+9.96421799e-02f,+1.18179932e-01f,-9.64045152e-03f,-3.05542406e-02f,+2.55556721e-02f,
+2.03753233e-01f,+1.77990496e-01f,-8.39725975e-03f,-1.20996661e-01f,-4.60408218e-02f,
-7.43449405e-02f,+2.24844903e-01f,+3.61804403e-02f,+2.43430004e-01f,+5.53611815e-02f,
+8.05625692e-02f,+6.20698631e-02f,+3.67337942e-01f,-4.10692729e-02f,-1.82167478e-02f,
-2.57407818e-02f,+1.41441211e-01f,-6.61160126e-02f,-2.38230944e-01f,+1.96149558e-01f,
+1.46463037e-01f,+7.26216519e-03f,-1.77879557e-01f,-7.99499303e-02f,+1.48035467e-01f,
-6.45050555e-02f,+1.35496214e-01f,+1.71344236e-01f,+8.31302823e-05f,+1.54275090e-01f,
+2.63351798e-01f,-5.74438572e-02f,+3.45281810e-01f,-7.50894323e-02f,+2.32660379e-02f,
+1.14675593e-02f,+7.97654614e-02f,+3.15045589e-03f,-9.69033539e-02f,-2.57117957e-01f,
+2.97892570e-01f,+2.63436049e-01f,-4.46983762e-02f,-6.63265167e-03f,+5.81416227e-02f,
+7.17363432e-02f,-2.10926473e-01f,-1.52924046e-01f,+9.06807706e-02f,+1.31546497e-01f,
+3.28945756e-01f,-3.32629494e-02f,-2.29713753e-01f,+1.90635860e-01f,-9.36933830e-02f,
-2.25862920e-01f,+5.62179945e-02f,+1.62858322e-01f,-1.18666895e-01f,+1.52235940e-01f,
+2.86480874e-01f,-1.57767504e-01f,-2.92510748e-01f,+1.95548639e-01f,+7.21464232e-02f,
+1.13618508e-01f,+2.95360237e-02f,-1.88982844e-01f,+1.68046430e-01f,-1.50470734e-01f,
+8.30708966e-02f,-1.58955425e-01f,+2.31130913e-01f,-1.37404874e-01f,+7.19698668e-02f,
-5.11479042e-02f,-3.62770140e-01f,+3.05530250e-01f,-9.68300775e-02f,-9.22660157e-02f,
-1.63656175e-01f,-1.85031965e-01f,-3.29863396e-04f,+3.87442745e-02f,+7.43274167e-02f,
-2.92657137e-01f,+1.89542577e-01f,+9.07543898e-02f,+1.31590903e-01f,-8.16068240e-03f,
+1.31606191e-01f,+1.02571994e-01f,+3.02084804e-01f,+1.68258622e-02f,+1.37547761e-01f,
-1.18418550e-02f,+9.51589197e-02f,+1.36138707e-01f,+2.06910267e-01f,-2.28092089e-01f,
+1.97254553e-01f,+8.92763287e-02f,-1.00766502e-01f,-2.44965665e-02f,+2.17688262e-01f,
+2.71574825e-01f,-2.83168852e-01f,-3.43274064e-02f,+2.31735587e-01f,+1.88492119e-01f,
+5.56572974e-01f,+2.71233320e-01f,-2.20638320e-01f,+1.51395500e-01f,+2.91168511e-01f,
+3.21345896e-01f,-8.18729475e-02f,+2.65959263e-01f,-3.82698417e-01f,-7.57957436e-03f,
+2.06814975e-01f,-1.65616676e-01f,+1.48458362e-01f,-8.08147341e-02f,+3.70363235e-01f,
+4.98837769e-01f,-5.73556591e-03f,-2.03069851e-01f,+1.16349027e-01f,+1.36448294e-01f,
+1.92491002e-02f,-1.77493766e-02f,+3.27968180e-01f,+2.88823366e-01f,+8.65335315e-02f,
-6.94000795e-02f,-5.41105047e-02f,+4.35715076e-03f,+1.13751851e-01f,+6.39510006e-02f,
+2.13224292e-01f,+1.43193990e-01f,+2.29457870e-01f,+1.71313509e-01f,+2.77432889e-01f,
-2.61214897e-02f,+2.12219790e-01f,-4.14230786e-02f,-5.54096475e-02f,+4.03886944e-01f,
+1.61060274e-01f,-1.38632834e-01f,-6.50802776e-02f,-1.18898973e-01f,+4.51405831e-02f,
-2.27488399e-01f,-1.09272949e-01f,+5.18078171e-02f,+3.29500943e-01f,-9.27326903e-02f,
-2.81464029e-03f,-6.78679720e-03f,-2.95075085e-02f,+2.82752723e-01f,+1.74685389e-01f,
+2.10831985e-01f,+1.75385803e-01f,-2.91710496e-02f,+5.10743149e-02f,+1.36339217e-01f,
+1.52381539e-01f,+1.41711920e-01f,+1.30037174e-01f,-8.24165493e-02f,+8.60042591e-03f,
+1.09167986e-01f,-1.04777925e-01f,-9.35340449e-02f,+2.10008755e-01f,+8.89893994e-02f,
+5.58659658e-02f,+6.96254745e-02f,+1.63512051e-01f,-1.41424581e-01f,-1.14886649e-01f,
-2.30700791e-01f,-4.65789214e-02f,+1.85807064e-01f,-1.32382810e-01f,-4.09792453e-01f,
+7.37456977e-02f,-1.93848331e-02f,-2.06152737e-01f,+2.21073050e-02f,+2.15431838e-03f,
+1.70054123e-01f,+1.68155551e-01f,+4.51482177e-01f,+3.90896872e-02f,+1.64319888e-01f,
+3.78538924e-03f,+2.35358879e-01f,+1.48171842e-01f,-1.10408187e-01f,+8.31903517e-02f,
+3.16114336e-01f,+1.75859071e-02f,+7.67651349e-02f,+2.47985885e-01f,-7.67984539e-02f,
-1.76245809e-01f,+1.02767788e-01f,+3.39094773e-02f,-1.01488002e-01f,-6.54975623e-02f,
+1.04411468e-02f,-6.38088658e-02f,+2.14645833e-01f,+1.47460809e-03f,+1.17082305e-01f,
-1.64292846e-02f,-8.97692069e-02f,+2.79913228e-02f,+1.08247377e-01f,+1.19881779e-02f,
-1.87462360e-01f,-2.58404762e-01f,+3.39928120e-02f,+3.45499627e-02f,+1.53894005e-02f,
-1.40394017e-01f,-2.40113717e-02f,+6.82425573e-02f,-9.31224376e-02f,-1.21340662e-01f,
+1.33143425e-01f,+4.19021755e-01f,+1.39340600e-02f,+3.71906370e-01f,+2.17459366e-01f,
-9.92440507e-02f,+1.22728139e-01f,-6.64150044e-02f,-8.32358003e-02f,-1.54170632e-01f,
+1.63988739e-01f,+5.23151420e-02f,+1.41912878e-01f,+1.35237455e-01f,+2.06043739e-02f,
+4.21306991e-04f,-8.83146003e-03f,-1.69545308e-01f,-3.62350911e-01f,+2.13911161e-01f,
-2.43012920e-01f,+2.69714724e-02f,+3.16134989e-02f,-7.21509978e-02f,+2.72544563e-01f,
-1.40350729e-01f,+2.02311754e-01f,+7.16206953e-02f,-6.71112090e-02f,+5.28568365e-02f,
-3.32120880e-02f,+5.37953712e-02f,-1.40484437e-01f,+1.37330428e-01f,+8.23854804e-02f,
+7.90943280e-02f,+5.39203770e-02f,-3.37814003e-01f,-4.60665934e-02f,+1.12182751e-01f,
+2.68173426e-01f,+2.13199824e-01f,-3.93965244e-02f,-3.33595537e-02f,+7.19442740e-02f,
-1.04372665e-01f,-2.44693439e-02f,+1.66747048e-01f,+3.62310737e-01f,-2.04268381e-01f,
-7.79620409e-02f,+1.90150544e-01f,-1.56814471e-01f,-6.44939914e-02f,+5.47608286e-02f,
+1.69521734e-01f,+2.02583432e-01f,-6.76226914e-02f,+5.57646081e-02f,-1.42893288e-02f,
-1.48542803e-02f,-1.68585673e-01f,-7.59308487e-02f,+1.45726025e-01f,+1.35080740e-01f,
+1.31689474e-01f,-1.59720525e-01f,-1.24661047e-02f,-2.15496302e-01f,+2.12878566e-02f,
-7.01664612e-02f,+2.32873216e-01f,-1.62954241e-01f,+7.97052532e-02f,+3.94477695e-02f,
-3.07699502e-01f,-9.78490412e-02f,-3.62399444e-02f,-2.29928359e-01f,-1.77241005e-02f,
+9.77810379e-03f,-1.45335123e-01f,-1.80414319e-03f,-1.71710793e-02f,+5.67036830e-02f,
+8.73995274e-02f,+7.55807851e-03f,-1.82420269e-01f,-7.41800740e-02f,+1.02435291e-01f,
-8.35748464e-02f,-7.49329999e-02f,-1.35470077e-01f,+1.84824824e-01f,-4.59722541e-02f,
+2.81205148e-01f,-6.84985369e-02f,-8.87846351e-02f,-1.28349632e-01f,+1.64656833e-01f,
-1.41625345e-01f,+1.37956575e-01f,-1.38091043e-01f,-4.06834841e-01f,-1.12922594e-01f,
+7.20106391e-03f,+4.89289872e-02f,-1.60294682e-01f,-1.83621407e-01f,+1.15238510e-01f,
+3.58421892e-01f,+3.57389629e-01f,+1.92551408e-02f,+1.01279281e-01f,+1.02199443e-01f,
+3.01578902e-02f,-1.23325676e-01f,+1.68648109e-01f,-8.27026665e-02f,-1.67788714e-02f,
+1.74108297e-01f,-4.33731854e-01f,-1.48013070e-01f,+1.67305902e-01f,+4.43131663e-02f,
-1.90231368e-01f,-1.44642979e-01f,+1.10173419e-01f,+1.62244141e-01f,-9.71174464e-02f,
+1.88455582e-02f,-2.36498117e-01f,+8.00324753e-02f,+3.49179775e-01f,-5.65986596e-02f,
+1.07832722e-01f,-3.49826097e-01f,-1.83722287e-01f,-8.93302485e-02f,+9.81118903e-02f,
+4.57234904e-02f,+2.59015281e-02f,-1.99385464e-01f,+2.10544005e-01f,+1.05268165e-01f,
+1.92936838e-01f,-2.64602751e-01f,+4.54271227e-01f,-9.52348188e-02f,-2.53343642e-01f,
-8.68751183e-02f,+1.32264510e-01f,+1.10810071e-01f,+3.20216268e-01f,-8.89277160e-02f,
-1.84736568e-02f,+5.50333932e-02f,-3.58787775e-01f,+5.00094779e-02f,+1.85591787e-01f,
+3.92225720e-02f,+6.28212392e-02f,-2.44192600e-01f,+1.33058084e-02f,-4.43933867e-02f,
-3.92818719e-01f,+3.07038397e-01f,-1.32926732e-01f,-1.35242864e-01f,-1.38479710e-01f,
-9.37926769e-03f,+7.29740337e-02f,+9.73677933e-02f,-1.83897495e-01f,-1.95214957e-01f,
-3.85782085e-02f,-2.13284463e-01f,+2.30281964e-01f,+2.36672625e-01f,+5.53558946e-01f,
+3.26934844e-01f,+6.26508296e-02f,+7.92875364e-02f,+7.85362571e-02f,-7.90797621e-02f,
-1.27397656e-01f,+3.24279144e-02f,+2.48286113e-01f,-2.06166193e-01f,-1.43838197e-01f,
-1.89342797e-01f,-1.60124183e-01f,+1.39036521e-01f,+4.53214161e-02f,-3.14345174e-02f,
+5.34847863e-02f,+1.30288333e-01f,-2.40549743e-01f,-5.34889288e-03f,-8.58758204e-03f,
+4.79482813e-03f,-8.80540460e-02f,-4.70238067e-02f,+5.92875481e-02f,+1.25862196e-01f,
+2.38985732e-01f,+1.18333280e-01f,+4.11949717e-02f,+1.55191496e-01f,+2.32919976e-01f,
-4.44979295e-02f,+1.17884189e-01f,+2.14222685e-01f,+6.25699237e-02f,+1.52715191e-01f,
+9.82410507e-04f,+9.82778966e-02f,+2.22236827e-01f,-2.56095797e-01f,-7.18729496e-02f,
+1.34192526e-01f,+1.61767807e-02f,-2.09941804e-01f,-1.72382548e-01f,+2.25464553e-02f,
+7.08104894e-02f,+2.11071342e-01f,-1.63277194e-01f,-1.04803681e-01f,+3.21698070e-01f,
-4.53257598e-02f,-7.27085620e-02f,+2.14365020e-01f,-8.67438782e-03f,+5.74889071e-02f,
+2.07261413e-01f,+2.64930874e-02f,+2.65400317e-02f,-1.40555337e-01f,-1.20906800e-01f,
+3.60078275e-01f,+8.46471265e-03f,+1.91124618e-01f,-3.85928564e-02f,+2.40789190e-01f,
+7.67600015e-02f,-3.41237746e-02f,-9.88044143e-02f,+6.11913763e-02f,+5.62351346e-02f,
-1.63199797e-01f,+1.26885802e-01f,-8.96130279e-02f,-7.52639249e-02f,-2.88331896e-01f,
-1.15465805e-01f,+2.73013473e-01f,+1.38608038e-01f,+2.01167181e-01f,-1.23015128e-01f,
-3.41344923e-02f,+3.54521014e-02f,+1.00363411e-01f,+4.95466441e-01f,-1.22677490e-01f,
-5.52166626e-03f,+3.15599322e-01f,+2.78007507e-01f,+7.69544691e-02f,+2.50825554e-01f,
+2.69869387e-01f,+1.83766901e-01f,+8.18131268e-02f,+1.03568539e-01f,+9.30177644e-02f,
+2.72965908e-01f,+1.21532634e-01f,-3.04038860e-02f,+6.82676136e-02f,-1.09549358e-01f,
-1.97100595e-01f,+8.44707787e-02f,-1.44686237e-01f,+1.14619747e-01f,-5.70206903e-03f,
-1.23476386e-01f,-5.56303561e-02f,+1.48051098e-01f,-1.30837351e-01f,+1.02888726e-01f,
-8.06400254e-02f,-9.12061334e-02f,+1.94902942e-01f,-1.35019809e-01f,-5.35864711e-01f,
-1.15248375e-01f,-3.96052539e-01f,+5.17139910e-03f,-2.73514390e-02f,-1.27767384e-01f,
+4.22196180e-01f,-2.35574335e-01f,-2.50996202e-01f,+6.70150714e-03f,+3.26432139e-01f,
+5.83041571e-02f,+3.78498286e-02f,+5.16282283e-02f,+7.94622302e-02f,-3.07623725e-02f,
-1.46342501e-01f,+2.08523776e-03f,-3.50958616e-01f,+1.26741856e-01f,+1.73886597e-01f,
-6.86762214e-04f,-9.70899239e-02f,-2.18752138e-02f,-5.42207301e-01f,+6.94360910e-03f,
-1.00795798e-01f,+4.00603265e-01f,+4.12847012e-01f,-4.94003557e-02f,-5.53383550e-04f,
-1.01660499e-02f,-7.04644574e-03f,-2.17360631e-02f,-1.88191175e-01f,+1.16513632e-01f,
-8.21607113e-02f,-5.00600301e-02f,+7.21884146e-02f,+1.33325934e-01f,+1.19578920e-01f,
-1.73117951e-01f,-2.52729774e-01f,-1.11242965e-01f,+2.11820483e-01f,+4.54169691e-01f,
+1.98546156e-01f,+6.52567446e-02f,-7.00462982e-02f,+2.72345096e-01f,-1.93800434e-01f,
+3.85582209e-01f,+1.03159264e-01f,+3.32150578e-01f,+6.58832788e-02f,-2.66510174e-02f,
-2.25901797e-01f,-1.46378309e-01f,+2.18526553e-02f,+2.33823016e-01f,+2.63462931e-01f,
-1.66906804e-01f,-1.78850293e-01f,-2.05615401e-01f,-2.59518577e-03f,-1.14376023e-01f,
+3.99636514e-02f,+2.01588109e-01f,+1.66353688e-01f,-1.37157604e-01f,+4.52650368e-01f,
-1.16530590e-01f,+8.33943486e-02f,-7.67979398e-02f,+2.29859278e-02f,-2.52961695e-01f,
-1.92421913e-01f,+7.66709745e-02f,-3.51915330e-01f,+2.90956676e-01f,+2.39414960e-01f,
-1.61391035e-01f,+1.96064427e-01f,-7.17722550e-02f,-5.60480468e-02f,-1.82516560e-01f,
+1.92252025e-01f,+4.27612096e-01f,+2.59711295e-01f,+6.57100556e-03f,-5.50559461e-02f,
-2.51870424e-01f,-1.34211406e-01f,-1.50294587e-01f,-8.04781467e-02f,-2.68583149e-01f,
+4.53000553e-02f,+4.61666994e-02f,+3.77582788e-01f,+2.93986380e-01f,+5.61535172e-02f,
-1.06148228e-01f,+2.11543411e-01f,+1.68707401e-01f,-1.34282067e-01f,+5.72889969e-02f,
-4.02144454e-02f,-3.18622828e-01f,+1.09266892e-01f,+3.47960025e-01f,+2.46229336e-01f,
+1.71734050e-01f,+3.46024573e-01f,+7.40588903e-02f,+9.19646472e-02f,+4.02695239e-02f,
+1.00967504e-01f,-1.99205801e-01f,-6.23117797e-02f,+4.58162315e-02f,+1.07557014e-01f,
-1.55012444e-01f,+3.08103472e-01f,-8.82465392e-02f,+2.25005671e-01f,+8.19485933e-02f,
+8.84405524e-02f,-9.87438112e-02f,+2.23903358e-01f,-1.21888414e-01f,+1.71910718e-01f,
+3.19975287e-01f,+1.85023725e-01f,+8.52434263e-02f,-5.62555082e-02f,+1.61240086e-01f,
+3.86252217e-02f,+5.55423014e-02f,+1.26661941e-01f,-1.39527947e-01f,-1.64190978e-01f,
-9.18908119e-02f,+7.01851770e-02f,-2.69958377e-01f,+5.93726039e-02f,-1.03213131e-01f,
-2.58148074e-01f,+3.99377983e-04f,-1.08814739e-01f,+3.75940084e-01f,-1.38639584e-01f,
-3.35704200e-02f,+2.33493134e-01f,-1.26870170e-01f,+4.74152677e-02f,+1.84100181e-01f,
-6.19322062e-02f,-2.11934838e-02f,-9.03883129e-02f,-9.45053250e-02f,+5.84219731e-02f,
+2.99202022e-03f,-1.52508989e-01f,+5.34754582e-02f,-2.99608171e-01f,+4.41612870e-01f,
-2.20524177e-01f,+1.04879998e-01f,+1.26356646e-01f,+7.18236268e-02f,+1.20144956e-01f,
+1.96011543e-01f,-2.51373239e-02f,-1.18094087e-01f,+1.85032025e-01f,+8.95245280e-03f,
+4.80247894e-03f,+1.25063688e-01f,+1.31290376e-01f,+1.39878737e-02f,-5.17176557e-03f,
-6.96084574e-02f,-2.65521914e-01f,-7.89606106e-03f,+2.50291198e-01f,-7.16251135e-02f,
+7.06083030e-02f,+1.21818416e-01f,-1.33865625e-01f,+2.57023513e-01f,-1.73992112e-01f,
+1.68081760e-01f,-2.34631076e-01f,-7.85541758e-02f,+2.79482007e-01f,-1.48897663e-01f,
-1.12436581e-02f,+2.59556472e-01f,+1.17510684e-01f,-2.52642244e-01f,+2.64157429e-02f,
+2.30273053e-01f,+1.09082954e-02f,-1.06954470e-03f,+6.36222064e-02f,+7.72869866e-03f,
+3.16774324e-02f,+2.34250963e-01f,+3.70626658e-01f,-3.24133337e-02f,+2.04694808e-01f,
-7.40381405e-02f,+1.51013676e-02f,+3.17938463e-03f,-1.86490834e-01f,-6.82735518e-02f,
+1.74217001e-02f,+6.92613795e-02f,+2.39787236e-01f,+9.35272127e-02f,+6.17098138e-02f,
-1.75546959e-01f,-9.48626846e-02f,-6.44111484e-02f,-2.23733648e-03f,-1.68094097e-03f,
-2.80912995e-01f,+2.92228997e-01f,+3.53043489e-02f,-4.27757874e-02f,+9.96924937e-02f,
-2.94405550e-01f,-7.65271485e-02f,+9.18875709e-02f,+4.07962948e-02f,-1.52063137e-02f,
-3.59000087e-01f,-7.35988691e-02f,-3.06590974e-01f,+3.12582888e-02f,-1.14738218e-01f,
+1.79087862e-01f,+1.35006532e-01f,-1.25842094e-01f,-2.18055755e-01f,+1.51866853e-01f,
+1.31063253e-01f,-1.03247538e-01f,+1.00820288e-02f,+3.81856233e-01f,+7.99246356e-02f,
+9.29974690e-02f,+7.23028556e-02f,-1.98314339e-02f,-2.04446632e-02f,+1.44904777e-01f,
-2.10954756e-01f,+1.71192706e-01f,+2.08086446e-01f,-3.61886084e-01f,-3.68061543e-01f,
-1.33420199e-01f,+1.00288466e-01f,+1.23993292e-01f,-2.82117054e-02f,-1.45727411e-01f,
+6.19697832e-02f,-2.68855561e-02f,-2.21666843e-01f,-2.17973217e-02f,+2.17313737e-01f,
-7.67585263e-02f,-1.27139971e-01f,+4.54471493e-03f,-1.31199524e-01f,+8.84409249e-02f,
-2.95815229e-01f,-7.56430998e-02f,+2.11034700e-01f,-9.52530429e-02f,-4.97726016e-02f,
-6.48222268e-02f,+1.09626159e-01f,+1.36814555e-02f,+4.12237555e-01f,-5.29332832e-02f,
+2.36287042e-01f,+6.59207031e-02f,-2.40693375e-01f,-2.60299295e-01f,+1.88833311e-01f,
+1.59285530e-01f,+1.51162714e-01f,-4.27004471e-02f,+2.30408713e-01f,-2.82886058e-01f,
+7.14974403e-02f,-6.16763383e-02f,+9.70270261e-02f,-2.63080031e-01f,-1.94054037e-01f,
-1.49856403e-01f,+7.78571740e-02f,+1.37578202e-02f,-2.72600144e-01f,+9.75027233e-02f,
-1.43408746e-01f,+5.54092109e-01f,+9.55239311e-02f,-4.20479298e-01f,+1.30801290e-01f,
+2.79548883e-01f,-2.76605815e-01f,+2.29086697e-01f,-6.08806200e-02f,+2.38796070e-01f,
-3.80470216e-01f,+4.12093662e-02f,+1.54625386e-01f,+1.56510621e-01f,+7.30094165e-02f,
+1.77209571e-01f,+2.26603538e-01f,+1.01343609e-01f,-1.68518752e-01f,+9.34141278e-02f,
+5.29165156e-02f,+1.96478978e-01f,+3.50074232e-01f,+8.17451775e-02f,+9.48854536e-02f,
+1.12139121e-01f,+7.18349889e-02f,+6.55534714e-02f,-3.37018408e-02f,+9.78450030e-02f,
+1.98507886e-02f,-1.36307999e-02f,-2.04538316e-01f,-1.60495788e-01f,+6.35880828e-02f,
-1.25604272e-02f,+3.30127358e-01f,-1.94875881e-01f,+1.51867032e-01f,+1.56806871e-01f,
+1.13829434e-01f,+1.84900269e-01f,+3.12363118e-01f,+1.57407671e-02f,+1.55891791e-01f,
+1.15711585e-01f,+2.72104293e-01f,+2.66220141e-02f,-4.44394685e-02f,+1.19623011e-02f,
+1.60264567e-01f,+1.25590429e-01f,+1.66788399e-01f,-6.63119853e-02f,-2.10451797e-01f,
+4.35355268e-02f,+2.84885615e-01f,-2.81083971e-01f,-1.60839576e-02f,-2.79119492e-01f,
+4.70355116e-02f,+3.81948091e-02f,+3.01024411e-02f,-8.46198127e-02f,-4.10740115e-02f,
+3.78315032e-01f,-1.28720358e-01f,-3.35961819e-01f,-1.66831200e-03f,+1.58934314e-02f,
-1.34941027e-01f,+7.61433467e-02f,-6.27510399e-02f,-1.80946309e-02f,+2.10983247e-01f,
+3.08800817e-01f,-3.76765877e-02f,-3.65478471e-02f,+7.31050074e-02f,-1.45237654e-01f,
+1.68348953e-01f,+1.87140405e-01f,+5.23862951e-02f,-8.58895946e-03f,-4.02701907e-02f,
+1.82833523e-01f,+4.01200578e-02f,+1.30940095e-01f,-6.74066320e-02f,-1.05363145e-01f,
-5.45978062e-02f,+7.87737146e-02f,-2.27577046e-01f,+1.62402362e-01f,-6.53007478e-02f,
-2.13932499e-01f,+3.33249986e-01f,+3.91143590e-01f,-8.69543552e-02f,+1.36373285e-02f,
-1.06955536e-01f,-1.40320405e-01f,-1.91280544e-01f,+4.14672256e-01f,-1.88524425e-01f,
-2.94757038e-02f,+1.04480997e-01f,+1.71449631e-01f,+2.48229340e-01f,+2.33830795e-01f,
+2.65592933e-01f,+3.69055390e-01f,-5.52957319e-02f,+1.63096517e-01f,+4.64388222e-01f,
+1.99232250e-01f,+6.07841015e-02f,+3.41202021e-02f,+4.13885899e-02f,+1.03665069e-01f,
+9.82340202e-02f,+8.60254467e-02f,-3.73637602e-02f,+4.16412614e-02f,+9.00256485e-02f,
-3.54184806e-01f,-1.43232539e-01f,-1.91470221e-01f,-1.54502124e-01f,-6.66264147e-02f,
-5.10026477e-02f,+8.31774473e-02f,-6.14747889e-02f,-1.39162615e-01f,-2.26956159e-02f,
-1.09337248e-01f,+1.45416513e-01f,-2.71305025e-01f,+1.77036747e-01f,+1.93029076e-01f,
+2.50500534e-02f,+1.87307715e-01f,+6.85591027e-02f,-6.85512051e-02f,+7.28109032e-02f,
+1.65214002e-01f,+9.15121660e-02f,+1.96944084e-02f,-1.44053966e-01f,-1.52448729e-01f,
-2.98948269e-02f,+2.30139792e-01f,+1.97449401e-01f,+1.07735030e-01f,+7.21002743e-02f,
+1.73631191e-01f,-9.13335681e-02f,-1.59217417e-02f,-1.37978178e-02f,+9.78479162e-02f,
-3.16786885e-01f,+2.15932041e-01f,-1.41696215e-01f,+1.00723229e-01f,-2.00627983e-01f,
-1.03480645e-01f,+4.31869319e-03f,-6.08452670e-02f,-2.10383847e-01f,+7.64644295e-02f,
-2.35175192e-01f,-1.91065982e-01f,-2.83184320e-01f,-5.52961119e-02f,+6.84084222e-02f,
+1.73597768e-01f,+8.33924413e-02f,-9.08318311e-02f,-1.82014167e-01f,+8.47726986e-02f,
+2.42439955e-01f,-2.92628616e-01f,-2.21100911e-01f,-3.06129664e-01f,+7.03424364e-02f,
-1.01093903e-01f,+2.98001021e-01f,-2.92366415e-01f,+2.52726853e-01f,+9.83008072e-02f,
-1.38203382e-01f,+5.66446856e-02f,-1.00574590e-01f,+9.66258794e-02f,-1.10306092e-01f,
-8.65372270e-02f,-3.71951349e-02f,-3.18613611e-02f,-1.47548588e-02f,-1.96218312e-01f,
+2.90548474e-01f,-3.17677975e-01f,+2.18961537e-01f,-5.59307076e-03f,-1.45495888e-02f,
+1.31427735e-01f,+3.59600894e-02f,-2.27138072e-01f,-3.21538225e-02f,-5.70251495e-02f,
+5.91856912e-02f,-1.13335475e-01f,+1.50332168e-01f,-1.79878488e-01f,+2.86656916e-01f,
-7.55764097e-02f,+2.67391894e-02f,-3.64432931e-02f,+1.47072375e-01f,-7.96371251e-02f,
+1.70360401e-01f,+2.93575406e-01f,-2.07552060e-01f,+1.94298416e-01f,+1.57423005e-01f,
+1.33053824e-01f,-1.66633293e-01f,-2.27411270e-01f,-2.14089304e-02f,+2.00427994e-01f,
-2.60663424e-02f,-2.57054180e-01f,+1.71354443e-01f,+3.19056898e-01f,-2.59159863e-01f,
-2.26936918e-02f,+8.27190503e-02f,+2.84225810e-02f,+5.60645899e-03f,+1.67347211e-02f,
+1.59397751e-01f,-1.86818957e-01f,+9.49984714e-02f,-7.56069794e-02f,-8.32425132e-02f,
-5.75726219e-02f,+5.25780655e-02f,-6.31032139e-02f,+1.44684501e-02f,+4.40428406e-03f,
+3.24521237e-03f,+2.43320957e-01f,-1.10003546e-01f,+4.85635698e-02f,+2.94967860e-01f,
+2.23904237e-01f,+2.86857467e-02f,+2.12854072e-01f,+2.81005263e-01f,-2.18989298e-01f,
-9.19562802e-02f,-1.31782219e-01f,-6.29606545e-02f,+1.80063814e-01f,+3.47257406e-01f,
+1.45813584e-01f,-6.84732199e-02f,+2.94012159e-01f,-1.80439204e-01f,-1.57670364e-01f,
+1.03700962e-02f,-1.42498925e-01f,-1.80530399e-02f,-2.42297634e-01f,+1.47577316e-01f,
-2.26121232e-01f,-3.04224372e-01f,-4.71849181e-02f,+3.32938358e-02f,-2.43914455e-01f,
+1.96504146e-01f,+3.23845707e-02f,-2.14560330e-02f,+2.20668375e-01f,+2.06762940e-01f,
-3.31765056e-01f,+1.05459750e-01f,+1.51465356e-01f,-2.78171990e-03f,+1.83125809e-01f,
+1.24675483e-01f,-3.33783589e-02f,+1.81558341e-01f,-1.98181883e-01f,+3.13026667e-01f,
+6.94738403e-02f,-2.25113481e-02f,+7.49517828e-02f,-1.43511975e-02f,+1.42770529e-01f,
+9.76873934e-03f,+1.94212943e-01f,+1.39591739e-01f,+3.05437237e-01f,-9.67299268e-02f,
-3.56948227e-01f,+1.05044153e-02f,+1.90946329e-02f,+1.45617470e-01f,+6.25889152e-02f,
+1.96788963e-02f,+5.28757572e-01f,+1.36677697e-01f,+8.86662770e-03f,+4.50818747e-01f,
+8.20966810e-03f,+8.45419019e-02f,-1.51751963e-02f,-1.06583022e-01f,-7.76266009e-02f,
+1.83149979e-01f,+6.62068203e-02f,+1.16000719e-01f,-9.31411758e-02f,+8.04201439e-02f,
-2.50572026e-01f,-1.64885595e-01f,+1.23246819e-01f,+1.31977051e-01f,-2.78582782e-01f,
+6.90585300e-02f,+9.07001421e-02f,+2.71113515e-01f,+8.01011268e-03f,+6.66760057e-02f,
+1.20809123e-01f,+7.69805908e-02f,-3.42787318e-02f,-1.01999231e-01f,+1.46898001e-01f,
+6.22661859e-02f,-2.37759901e-03f,+2.23003030e-01f,+3.02976489e-01f,-1.48934662e-01f,
-4.09127921e-01f,+3.69368047e-02f,+1.89581499e-01f,-7.11819753e-02f,+3.74863967e-02f,
-7.34157953e-03f,-2.54645914e-01f,+3.68751824e-01f,-1.43517271e-01f,+3.18836659e-01f,
+2.42468506e-01f,+3.93233657e-01f,-4.55499329e-02f,+4.76047285e-02f,+6.79439679e-02f,
-1.58051506e-01f,+7.72756711e-02f,+3.35259765e-01f,+1.55872598e-01f,-3.99324624e-03f,
-6.38135225e-02f,-9.28904787e-02f,-3.45848501e-02f,+2.55831331e-01f,-1.01686165e-01f,
+1.04321174e-01f,+7.44557157e-02f,-1.09295793e-01f,+5.96249662e-02f,+3.88562754e-02f,
+2.48155504e-01f,+6.23457320e-02f,-1.03439070e-01f,-1.33109584e-01f,-2.23183587e-01f,
+3.00854087e-01f,+8.07139203e-02f,+2.64544897e-02f,+1.33264109e-01f,+2.03962937e-01f,
-8.77839774e-02f,+1.14719784e-02f,+2.36179650e-01f,-3.03479493e-01f,-2.38129064e-01f,
-3.95519771e-02f,+6.17124774e-02f,+2.47694373e-01f,+7.02157170e-02f,+6.17437018e-03f,
-7.94102699e-02f,-9.95293353e-03f,-8.89489427e-02f,-3.77870724e-03f,-2.53126144e-01f,
+3.51610817e-02f,+9.09727812e-03f,-1.72977269e-01f,-1.18496150e-01f,-1.22859918e-01f,
-1.97775796e-01f,-3.96286845e-02f,+1.42760724e-01f,-2.49247160e-02f,+4.64846194e-03f,
+2.29396194e-01f,+1.31064415e-01f,+5.08428365e-03f,+1.62812278e-01f,-1.81860492e-01f,
-3.07243288e-01f,+7.17437342e-02f,-9.38341841e-02f,+1.21624053e-01f,+6.83227554e-02f,
+1.12382911e-01f,-2.56131351e-01f,+9.99498665e-02f,+6.13956302e-02f,+4.94740829e-02f,
+2.32525691e-01f,-7.91503266e-02f,+1.90400239e-02f,+1.63915619e-01f,+2.08013609e-01f,
-1.25490054e-01f,-2.06757754e-01f,-1.37317002e-01f,+7.51149505e-02f,+6.41055852e-02f,
+2.56780572e-02f,-2.69274935e-02f,+1.59479976e-01f,-1.46269023e-01f,-2.33827025e-01f,
-1.81511156e-02f,+1.61370456e-01f,+2.44335681e-01f,+1.59386843e-01f,-9.85161811e-02f,
+4.04962599e-02f,+3.10286991e-02f,-1.72472939e-01f,+4.20206301e-02f,+1.33686855e-01f,
-3.98104079e-02f,+2.10503697e-01f,-1.80862453e-02f,-1.61393300e-01f,+1.46598354e-01f,
-3.16586703e-01f,-1.04430273e-01f,+2.13389285e-02f,+1.59465507e-01f,-7.03693852e-02f,
+2.04261802e-02f,-2.30619982e-02f,-8.18650126e-02f,+4.74299133e-01f,-7.90231600e-02f,
+1.80730745e-01f,-1.78157195e-01f,+9.92991105e-02f,+1.08722001e-01f,-1.33308485e-01f,
+1.19645849e-01f,-1.20264031e-01f,+1.99155137e-01f,+1.14451230e-01f,-8.00687373e-02f,
-7.45809674e-02f,+8.33644473e-04f,+2.31259555e-01f,-4.35278565e-02f,+1.43140465e-01f,
+1.14345603e-01f,-2.47157872e-01f,+1.02543592e-01f,-2.66516991e-02f,+6.81186542e-02f,
-2.07423717e-02f,+2.08693333e-02f,+1.61315545e-01f,+2.36613378e-02f,+1.08370230e-01f,
+2.40421027e-01f,+1.57902882e-01f,-2.83618681e-02f,+8.16399977e-03f,-4.13737632e-02f,
-7.22041950e-02f,+3.61642540e-02f,-2.91317999e-01f,-1.61589999e-02f,+2.23890115e-02f,
-2.13922247e-01f,-1.38321012e-01f,+2.54081726e-01f,+3.54705572e-01f,-8.62421989e-02f,
+3.35576504e-01f,+2.67739445e-01f,+3.51469778e-02f,-3.85177881e-02f,+6.90931678e-02f,
-1.12927621e-02f,+2.73877680e-01f,+1.88665643e-01f,-1.10923924e-01f,+1.80308044e-01f,
+1.92683414e-01f,+4.57030870e-02f,+6.69468045e-02f,-3.44258994e-01f,+2.76215613e-01f,
-2.34906554e-01f,-1.22188471e-01f,-1.30340904e-01f,+9.45174024e-02f,-9.97695792e-03f,
-1.60695538e-01f,+9.73200947e-02f,-1.01652760e-02f,-1.85593322e-01f,-2.51847003e-02f,
+1.18707843e-01f,+1.04730330e-01f,+9.97282043e-02f,+2.35272422e-02f,-3.29667300e-01f,
-1.55144840e-01f,+8.03921930e-03f,+1.54165402e-01f,-8.87153894e-02f,+8.13323855e-02f,
+1.83342434e-02f,-3.09139229e-02f,+3.96190137e-02f,+4.39143240e-01f,-2.12138101e-01f,
+1.33845031e-01f,+8.64170566e-02f,+2.38000587e-01f,+5.57765216e-02f,+8.57101232e-02f,
+1.94096655e-01f,+7.98574463e-03f,+2.00393945e-01f,-1.19058073e-01f,+5.07611148e-02f,
-6.57483423e-03f,-9.73693579e-02f,-1.26143634e-01f,+3.09511721e-01f,+2.03589648e-02f,
+2.91204602e-01f,+4.06982042e-02f,+1.78951979e-01f,+3.00676208e-02f,-2.09905598e-02f,
-3.25842611e-02f,-1.12548143e-01f,+6.49639696e-04f,-2.12000206e-01f,+6.83023781e-02f,
+2.14312971e-02f,-2.56393969e-01f,+4.84396257e-02f,-2.65554607e-01f,-7.91966394e-02f,
+1.26031175e-01f,-8.39148685e-02f,+3.28452438e-01f,-9.83870775e-02f,+1.27639860e-01f,
+8.50810483e-03f,+4.77956869e-02f,+2.08832428e-01f,-1.11545973e-01f,+2.43121181e-02f,
+2.96604782e-01f,+2.48340994e-01f,+2.23495793e-02f,+4.35992740e-02f,+2.92759597e-01f,
+2.18691245e-01f,+8.94720703e-02f,+6.44541383e-02f,+1.18510485e-01f,+5.82844429e-02f,
-9.75102335e-02f,+1.27206430e-01f,+5.12124822e-02f,-5.36358990e-02f,+1.80464283e-01f,
-2.09653497e-01f,+1.18644282e-01f,-3.66459899e-02f,+6.83933347e-02f,+1.22179300e-01f,
-1.01282321e-01f,-2.32123300e-01f,-8.16852227e-02f,+2.21019059e-01f,+8.20235088e-02f,
+1.98632017e-01f,+2.94680446e-01f,+2.75656223e-01f,+1.51278168e-01f,-2.41540715e-01f,
+2.31163681e-01f,-1.67953804e-01f,-3.28799710e-02f,+1.91872805e-01f,+9.45939720e-02f,
+3.40520591e-02f,-3.00777733e-01f,-5.42270541e-02f,-1.34642452e-01f,-2.17403635e-01f,
+1.78131908e-01f,-1.29356027e-01f,+1.35816438e-02f,+1.07593007e-01f,-1.14759943e-02f,
+4.90234494e-02f,-8.88912752e-02f,-2.15295166e-01f,-6.49417639e-02f,+3.59487861e-01f,
-1.06771648e-01f,+4.88880500e-02f,+7.96862245e-02f,+1.76611051e-01f,+1.80508599e-01f,
-9.19313878e-02f,-7.90847242e-02f,+1.19112656e-01f,+5.07176891e-02f,-3.43810767e-02f,
-7.60294050e-02f,-5.28999139e-03f,+1.61562696e-01f,-5.78911742e-04f,+9.42334458e-02f,
-4.65477146e-02f,-3.06322724e-01f,-3.56829822e-01f,+7.07682967e-02f,-1.39217466e-01f,
+4.95703444e-02f,+4.56781611e-02f,-1.82219312e-01f,-2.95980543e-01f,-7.19084032e-03f,
-1.78349957e-01f,-9.02517736e-02f,-1.66528270e-01f,-9.86475125e-03f,+5.02580404e-02f,
-2.56400883e-01f,+5.32827564e-02f,+7.28799477e-02f,+2.52503455e-01f,-5.71212769e-02f,
+3.46375890e-02f,-2.33529106e-01f,+9.05809850e-02f,-1.71161555e-02f,+1.56957563e-02f,
+5.70753336e-01f,+6.50249571e-02f,-9.03426707e-02f,-3.88531461e-02f,-1.36316255e-01f,
-1.35886654e-01f,-8.67695436e-02f,-1.69821993e-01f,-1.35547742e-01f,+1.73255742e-01f,
+2.02520043e-01f,+2.74833739e-01f,+4.04610066e-04f,+2.26216719e-01f,+6.12094020e-03f,
+2.58269548e-01f,-4.49050264e-03f,-1.39901027e-01f,+5.80342337e-02f,-1.31836683e-01f,
+4.34607118e-02f,-8.00399408e-02f,-2.32223883e-01f,-3.64164039e-02f,+6.88719079e-02f,
+1.18311033e-01f,+2.04571765e-02f,+1.54482260e-01f,-1.31837185e-02f,+2.35339969e-01f,
+5.99377938e-02f,+1.38740942e-01f,-2.52006143e-01f,+5.74548244e-02f,+2.10602451e-02f,
+2.02716812e-02f,+3.02024353e-02f,+1.18482700e-02f,-3.64791825e-02f,-6.13859892e-02f,
-8.64840224e-02f,-1.28583521e-01f,-1.42359929e-02f,+1.55737773e-01f,-1.32364571e-01f,
-2.40070140e-03f,+9.68336388e-02f,-1.25049710e-01f,-9.64473113e-02f,+1.05301969e-01f,
+4.80261482e-02f,-2.55885452e-01f,+1.52186632e-01f,-2.88128033e-02f,-2.83021703e-02f,
+3.44438180e-02f,-7.04752132e-02f,+3.79887596e-02f,-1.77068263e-01f,+2.74162348e-02f,
+1.78755105e-01f,-6.72300067e-03f,+1.00143567e-01f,-3.26946408e-01f,+3.36285651e-01f,
-4.94563356e-02f,+3.40721421e-02f,+9.54516381e-02f,-3.36495936e-02f,+2.03673974e-01f,
-4.73299734e-02f,-1.94815591e-01f,-2.29810819e-01f,-1.21925436e-01f,+2.80504256e-01f,
+6.85914680e-02f,+2.13198103e-02f,+1.26964539e-01f,-7.62872994e-02f,-5.66860959e-02f,
+3.59377079e-02f,+1.76267937e-01f,+1.25864848e-01f,-2.20555272e-02f,+1.44416779e-01f,
+3.47078621e-01f,+9.78193879e-02f,+1.58508010e-02f,-8.90122354e-02f,+1.40173465e-01f,
-1.10161975e-01f,+1.78947717e-01f,-1.48088813e-01f,-4.16121958e-03f,-1.35602251e-01f,
-4.70446795e-02f,+3.27272601e-02f,+6.69114813e-02f,-3.64859879e-01f,-2.37732038e-01f,
+3.37301672e-01f,-1.25917904e-02f,-6.15460798e-02f,-2.85312738e-02f,+1.76294386e-01f,
-2.03829437e-01f,+3.13820783e-04f,+1.90401256e-01f,-2.75358912e-02f,+1.46998703e-01f,
+2.47886647e-02f,-7.52334893e-02f,-8.90167281e-02f,+1.53859809e-01f,+2.75679510e-02f,
-1.96584985e-01f,+2.47949317e-01f,-1.67598069e-01f,-1.30979106e-01f,-1.46214738e-01f,
-8.59631225e-03f,-9.87080578e-03f,+3.13947380e-01f,+6.71133325e-02f,-1.02886386e-01f,
+3.95470262e-02f,+1.03255458e-01f,-2.98415214e-01f,-1.83819324e-01f,-6.58698604e-02f,
+1.65541425e-01f,+1.27108604e-01f,+3.63949798e-02f,-1.44587219e-01f,+5.82188480e-02f,
+1.07933983e-01f,-1.80602655e-01f,-2.65634924e-01f,+3.38965803e-01f,+3.63040000e-01f,
-1.67891791e-04f,-2.98919201e-01f,-8.92106909e-03f,+2.79510438e-01f,+1.15772318e-02f,
+1.66798368e-01f,+9.38675925e-02f,-2.64770716e-01f,-1.50709629e-01f,+1.37066126e-01f,
-3.37461799e-01f,+1.75960854e-01f,-1.84337929e-01f,+2.69418061e-01f,+6.57144636e-02f,
-3.11682671e-01f,-4.04687017e-01f,+1.49728209e-01f,+1.68498382e-02f,-8.58383439e-03f,
-7.36433566e-02f,-9.65299159e-02f,+1.30882906e-02f,-9.92359072e-02f,+2.38252103e-01f,
+1.49922699e-01f,+8.91970620e-02f,+2.48324841e-01f,-2.22638715e-02f,-1.01680912e-01f,
-5.74839078e-02f,-1.64959077e-02f,-7.71842971e-02f,+1.43943176e-01f,-1.28446957e-02f,
+1.86984278e-02f,-1.16434827e-01f,+2.44029507e-01f,-7.51631036e-02f,-3.46701816e-02f,
+2.29796348e-03f,+9.82867479e-02f,+2.13343412e-01f,-1.50082290e-01f,+7.92147368e-02f,
+1.27176391e-02f,+1.71443865e-01f,+1.06910482e-01f,+1.71591297e-01f,-7.43513256e-02f,
-1.68197855e-01f,-3.39870751e-02f,-5.30174151e-02f,-2.22576424e-01f,-3.28207433e-01f,
+2.85443604e-01f,+2.85750180e-01f,+2.84912176e-02f,-8.05415586e-03f,-1.45825982e-01f,
-1.46859735e-01f,-1.98358104e-01f,-2.06574500e-01f,+1.09047145e-01f,+5.05950004e-02f,
+2.04573929e-01f,-8.77723619e-02f,+1.13386430e-01f,-2.20286250e-01f,+1.61715642e-01f,
-4.42026168e-01f,+1.27867192e-01f,-1.84301957e-01f,-1.75406914e-02f,-2.08888143e-01f,
+1.90918118e-01f,-1.06381550e-01f,-4.82004918e-02f,+1.90475062e-01f,+1.63848415e-01f,
+2.01294348e-02f,+2.87492007e-01f,+7.69249946e-02f,+2.91492343e-02f,+5.76057471e-02f,
+6.12556003e-02f,+1.11439608e-01f,+1.83223491e-03f,-2.77611047e-01f,+2.38679081e-01f,
+6.15779199e-02f,+1.94836427e-02f,-1.47909090e-01f,+2.61557817e-01f,-1.35615230e-01f,
-5.29205485e-04f,+1.25994295e-01f,+6.78103790e-02f,-2.40527205e-02f,+1.42706975e-01f,
+4.12821472e-02f,-1.37202114e-01f,-9.35365111e-02f,+1.49844602e-01f,-1.55334650e-02f,
-1.03666864e-01f,+1.27261147e-01f,-7.98522010e-02f,-1.04436964e-01f,-2.74567932e-01f,
+1.54954687e-01f,+5.29532880e-02f,-1.85063109e-01f,-1.43576026e-01f,-8.70395526e-02f,
+1.92323700e-02f,+2.22196788e-01f,-1.09039605e-01f,+1.59479707e-01f,-3.54540721e-02f,
-2.92810202e-01f,-2.67889053e-01f,-5.00792870e-04f,-3.58118527e-02f,+2.84955674e-03f,
-3.95097174e-02f,-2.12150320e-01f,+2.30957568e-01f,+8.80536810e-03f,-1.86378099e-02f,
+1.69107929e-01f,-1.68596640e-01f,-4.56359908e-02f,+9.68032479e-02f,-5.09113409e-02f,
-1.37634248e-01f,-3.72960538e-01f,+1.36652812e-01f,-6.88576251e-02f,+1.44899681e-01f,
+2.03580745e-02f,+2.20753774e-02f,+1.62097871e-01f,+2.00997561e-01f,-2.59786844e-01f,
+3.10034096e-01f,+2.59492844e-01f,+1.96866065e-01f,-2.02364802e-01f,-1.54755577e-01f,
-1.13801293e-01f,-5.83845042e-02f,-7.92260766e-02f,+1.11306608e-01f,-1.61199838e-01f,
+1.50700063e-01f,-3.85679416e-02f,+5.49453571e-02f,-1.25480160e-01f,-2.00911552e-01f,
+1.77272290e-01f,+2.26926193e-01f,-2.16706395e-01f,+3.07296403e-02f,-2.48428318e-03f,
-1.05058096e-01f,-5.40279001e-02f,-1.25483468e-01f,-3.91807184e-02f,-8.02706480e-02f,
+9.96947847e-03f,-3.29244994e-02f,+6.58790581e-04f,-1.37713715e-01f,-9.33210477e-02f,
-9.73112658e-02f,-1.84250131e-01f,-1.05183631e-01f,-1.58807769e-01f,+5.25097884e-02f,
+4.17713612e-01f,+9.72368270e-02f,-9.62548479e-02f,+8.61319974e-02f,-3.14504355e-01f,
-1.35743450e-02f,+1.55138515e-03f,+1.39041105e-02f,-2.00311631e-01f,+1.14172548e-01f,
+1.19992718e-01f,+9.33659971e-02f,+3.41730798e-03f,-4.68687899e-02f,+3.08058202e-01f,
+1.03837766e-01f,-4.32877801e-02f,-2.83732355e-01f,+1.33341774e-01f,+4.47200537e-02f,
-8.94064307e-02f,+1.28856212e-01f,-9.30872187e-02f,-5.58668487e-02f,-2.21703157e-01f,
-3.16884577e-01f,-1.98560208e-02f,-7.64547214e-02f,-8.98811559e-04f,-4.10954773e-01f,
+1.07008532e-01f,-7.22028688e-03f,+1.16796635e-01f,-3.89920890e-01f,-2.18596887e-02f,
-3.96253437e-01f,-2.58722395e-01f,-9.63804126e-02f,-8.13461393e-02f,+3.03211182e-01f,
+2.85198586e-03f,+1.50901839e-01f,-4.41185445e-01f,+4.42706227e-01f,+8.63585398e-02f,
-1.80606302e-02f,+1.85971603e-01f,-1.23307720e-01f,+1.72767594e-01f,-1.53910398e-01f,
-6.88977018e-02f,+1.77798003e-01f,+1.70559600e-01f,-1.55120954e-01f,-2.12483838e-01f,
-6.79785460e-02f,-7.70936860e-03f,+8.73704851e-02f,-6.92886254e-03f,-8.39584768e-02f,
-1.20315768e-01f,+7.30773956e-02f,+2.65364468e-01f,+1.25734672e-01f,-8.92574713e-02f,
+1.75556690e-02f,-3.86708714e-02f,+1.50775924e-01f,-1.23367466e-01f,-1.00558549e-02f,
-1.55766914e-02f,-6.52749315e-02f,+3.43733579e-01f,-8.44942033e-03f,-3.66478831e-01f,
+3.20550084e-01f,+1.18670296e-02f,-2.90321589e-01f,-1.42432675e-01f,-1.98196262e-01f,
+2.38652397e-02f,+1.01753466e-01f,+5.15344329e-02f,+8.98018777e-02f,-1.47347167e-01f,
-1.27006263e-01f,+4.25807238e-02f,+7.10929558e-02f,+1.06101699e-01f,-3.03217411e-01f,
-1.02238357e-01f,+2.37521127e-01f,+1.10773213e-01f,-1.63095482e-02f,-3.38320732e-02f,
+1.46427136e-02f,-8.35784748e-02f,+2.39141315e-01f,-2.48599295e-02f,+2.98883244e-02f,
+2.22511694e-01f,-4.14754152e-02f,-1.64501593e-01f,+7.19150603e-02f,-5.89423887e-02f,
+4.67146158e-01f,+2.29579419e-01f,+9.43760052e-02f,-1.09938554e-01f,-2.41615757e-01f,
-7.50849172e-02f,-4.45364043e-02f,-3.85512978e-01f,-3.24827656e-02f,-5.88532835e-02f,
-1.63772509e-01f,+7.24053904e-02f,-4.39135693e-02f,+6.77528307e-02f,+2.76728511e-01f,
+1.15246393e-01f,+7.06385374e-02f,+2.16867149e-01f,+2.10688531e-01f,-7.92856142e-03f,
+2.66787298e-02f,-6.05700910e-01f,-1.18423097e-01f,+2.33390793e-01f,-1.67268679e-01f,
-6.19004294e-02f,+3.14715415e-01f,+2.23915741e-01f,+4.18222249e-02f,-1.01820171e-01f,
+7.42334947e-02f,-3.05365115e-01f,-7.15526566e-02f,+4.75831479e-02f,+9.30864140e-02f,
-2.43421182e-01f,+8.74965936e-02f,+2.49904394e-02f,-1.65274888e-01f,-3.71070832e-01f,
+3.13039243e-01f,-6.27207458e-02f,+2.38022208e-02f,-1.19994849e-01f,+8.40486512e-02f,
-5.57472296e-02f,-1.34819448e-01f,+2.08944023e-01f,+4.35942672e-02f,+1.63178965e-01f,
-3.79848570e-01f,-4.65035215e-02f,-6.01140372e-02f,+4.35410179e-02f,+5.26810624e-02f,
+1.00392789e-01f,+1.19483761e-01f,+5.47377951e-02f,+4.74005528e-02f,-4.90637198e-02f,
-2.82984674e-01f,-6.38878122e-02f,-1.39021769e-01f,-2.19505459e-01f,+2.95394540e-01f,
-1.92572102e-01f,-2.24875897e-01f,-2.85929162e-02f,-1.26140669e-01f,+6.46709800e-02f,
-2.68013835e-01f,+5.75474277e-02f,+4.33011074e-03f,+2.10277438e-02f,+2.85005700e-02f,
+7.63171986e-02f,-2.05476657e-01f,-5.51169924e-02f,+4.94978338e-01f,+1.25109956e-01f,
+6.84133098e-02f,-4.83562686e-02f,+2.39959374e-01f,-6.45724172e-03f,+1.20446578e-01f,
+8.81604478e-03f,-1.46015957e-01f,-5.66044636e-02f,+1.88943163e-01f,+1.04288086e-01f,
+2.93675900e-01f,+7.28527158e-02f,+1.08252177e-02f,+3.98722887e-02f,-2.26822346e-02f,
+2.03553304e-01f,+4.76175621e-02f,-1.40898198e-01f,+2.54946172e-01f,+1.22118697e-01f,
+1.20358080e-01f,+1.33775756e-01f,-8.99972245e-02f,-3.18128206e-02f,+2.39252746e-01f,
-8.36395994e-02f,-2.70215064e-01f,+1.13706030e-01f,+2.29374141e-01f,+3.32731068e-01f,
-6.88326545e-03f,+2.80454814e-01f,-9.65336561e-02f,-3.05963784e-01f,-3.56885999e-01f,
-2.32947871e-01f,+5.49329221e-02f,-3.99903096e-02f,+7.51026198e-02f,+9.73156244e-02f,
-1.49366796e-01f,-5.81882000e-02f,-1.17619567e-01f,+2.18610048e-01f,-1.97261214e-01f,
+1.94414362e-01f,-1.98357344e-01f,+7.75969494e-03f,+1.36296883e-01f,-2.13043645e-01f,
+9.06115845e-02f,+3.14394802e-01f,-1.87912166e-01f,+5.29757738e-02f,-2.76203901e-01f,
-1.84242874e-01f,-3.16982642e-02f,+1.44327208e-01f,+2.49917090e-01f,-8.73182565e-02f,
-3.76858227e-02f,+6.14035688e-02f,-1.11767508e-01f,-2.22538710e-01f,-1.30401313e-01f,
-3.38145345e-02f,+1.65219396e-01f,-1.09659195e-01f,+3.89538929e-02f,-2.81594604e-01f,
-1.78630978e-01f,-6.61916733e-02f,-2.83304602e-01f,-2.41889611e-01f,+1.30271360e-01f,
+8.80946890e-02f,+1.22801594e-01f,-2.42183357e-02f,-4.92906570e-01f,+2.75362493e-03f,
+1.18575357e-01f,-3.19892392e-02f,-1.92829013e-01f,-9.57514569e-02f,+1.27574816e-01f,
+7.36027509e-02f,-2.45829951e-02f,+2.26309486e-02f,+4.82771814e-01f,-1.74208328e-01f,
+3.88308913e-02f,-2.30578169e-01f,-1.77219823e-01f,-7.62683600e-02f,+3.88320498e-02f,
+2.07100287e-01f,-1.84588000e-01f,+2.95254648e-01f,+1.34082139e-01f,-1.37893558e-01f,
-2.75670022e-01f,+3.85654084e-02f,+2.68311143e-01f,+1.81910947e-01f,-2.73388088e-01f,
-6.60815090e-03f,+1.49646878e-01f,+3.23197246e-02f,+1.21477284e-02f,+1.63799271e-01f,
+5.24058379e-03f,+1.44836409e-02f,-2.05021292e-01f,+2.85505116e-01f,+1.38402402e-01f,
-7.83930868e-02f,-3.36308442e-02f,-2.39857263e-03f,+3.12282801e-01f,+2.77500510e-01f,
-1.32746324e-01f,+2.26953536e-01f,+1.78401977e-01f,+9.15965512e-02f,+7.65088294e-03f,
-1.75598353e-01f,-1.01265423e-01f,+3.55242640e-02f,-1.73929110e-01f,+1.43737093e-01f,
+2.16455996e-01f,+2.27999955e-01f,-3.55942756e-01f,-9.44381282e-02f,-3.51639956e-01f,
+1.25510111e-01f,-4.64544632e-02f,-1.25015095e-01f,+8.80118906e-02f,-1.66882023e-01f,
+9.45513844e-02f,-9.54122096e-02f,+4.95175309e-02f,+2.33228385e-01f,+2.56922722e-01f,
-2.06131041e-01f,-1.67711094e-01f,+2.40940884e-01f,-6.76323250e-02f,-1.60552099e-01f,
+2.57260472e-01f,-4.17826056e-01f,+3.68245482e-01f,+2.26196293e-02f,+9.66371745e-02f,
+1.90462902e-01f,+8.42749551e-02f,-2.41893142e-01f,+1.08115852e-01f,+2.68589646e-01f,
-8.15996826e-02f,-1.83906615e-01f,+2.02379152e-01f,-3.51999179e-02f,+1.81808081e-02f,
+2.53827304e-01f,+2.37059757e-01f,+5.92511031e-04f,+5.14417551e-02f,+4.53555621e-02f,
+9.14327279e-02f,+1.21785831e-02f,-1.87425673e-01f,+2.00830609e-01f,-8.19418728e-02f,
+2.58732349e-01f,+6.99251071e-02f,+1.00915715e-01f,-8.84738490e-02f,+2.19499126e-01f,
-9.11182899e-04f,-1.07663341e-01f,-3.46747041e-02f,+1.89769551e-01f,+2.73164272e-01f,
-5.21468341e-01f,+4.08391729e-02f,-2.35161223e-02f,+1.51135385e-01f,-1.38584688e-01f,
+1.64804223e-03f,-1.60387889e-01f,+1.73699528e-01f,-4.93454151e-02f,+5.32138884e-01f,
-1.70040041e-01f,-3.46572064e-02f,-1.37875617e-01f,-1.89790800e-01f,+1.10901937e-01f,
+3.82929184e-02f,+1.30942747e-01f,+9.82006080e-03f,+6.88570142e-02f,+4.33906466e-01f,
-1.54918849e-01f,+3.78019065e-01f,-1.40980333e-01f,+2.34262317e-01f,+1.85615774e-02f,
+6.96299747e-02f,+1.49751157e-01f,-1.59751162e-01f,+1.56066284e-01f,-7.13827386e-02f,
-2.06953183e-01f,+8.40285048e-03f,+1.50768787e-01f,+2.53736734e-01f,+1.12610526e-01f,
+4.42481756e-01f,-1.86557136e-02f,-9.48802531e-02f,+2.20524874e-02f,+1.04299046e-01f,
+1.41102090e-01f,-1.72376245e-01f,-2.40700528e-01f,+2.02159643e-01f,+1.17831238e-01f,
-4.68970649e-02f,+4.79670875e-02f,+1.75903037e-01f,-1.27711162e-01f,+3.04376595e-02f,
-7.59307817e-02f,-5.78397065e-02f,+1.61573216e-02f,-7.69675002e-02f,+9.04312730e-03f,
+1.35347098e-01f,-2.67746374e-02f,+2.59371161e-01f,+6.10042326e-02f,-1.20085485e-01f,
+1.48323685e-01f,+2.00734381e-02f,-1.38337821e-01f,+1.87241599e-01f,+1.80819273e-01f,
-3.59194845e-01f,+1.68990672e-01f,+1.47324214e-02f,+2.90302753e-01f,-1.68587387e-01f,
-1.28880009e-01f,-5.36328219e-02f,+1.54536635e-01f,-7.74720013e-02f,+3.15394402e-02f,
-1.36469185e-01f,-7.17923790e-02f,+3.50278288e-01f,+7.99822211e-02f,+1.45212352e-01f,
+1.39689445e-01f,+1.34331226e-01f,+2.30070904e-01f,+1.29007474e-01f,-2.86123127e-01f,
-2.98833221e-01f,+3.08330953e-01f,-1.47406548e-01f,-9.61271152e-02f,+4.98740040e-02f,
-1.35917319e-02f,+2.21255049e-01f,+1.57318681e-01f,+1.49271429e-01f,+5.81581891e-02f,
+2.69928128e-01f,-1.80778548e-01f,-1.98419821e-02f,+1.46584854e-01f,-1.72322825e-01f,
-1.14121567e-02f,-9.95132551e-02f,-2.73919433e-01f,-8.09192583e-02f,+4.77779731e-02f,
+1.58308924e-03f,+3.11217867e-02f,+2.63303127e-02f,-2.17992201e-01f,-1.80218548e-01f,
+2.17233986e-01f,+4.64682505e-02f,+2.61081709e-03f,-1.70233414e-01f,+6.98880060e-03f,
+6.03601336e-02f,+1.04725212e-01f,+2.91260034e-01f,-9.21767727e-02f,-8.38267878e-02f,
-5.35385795e-02f,+1.89651951e-01f,-6.55190721e-02f,-1.27926975e-01f,+1.96728766e-01f,
+1.53417841e-01f,-7.61935040e-02f,-7.47501403e-02f,+3.08303654e-01f,+1.07041694e-01f,
-3.47707905e-02f,+2.18599275e-01f,-1.01904373e-03f,-5.17176092e-02f,-1.18025996e-01f,
+1.40938282e-01f,+1.19950943e-01f,+2.29464024e-02f,+7.45859295e-02f,+6.39768466e-02f,
-1.70491874e-01f,+1.03747979e-01f,-3.45231980e-01f,+1.69882640e-01f,+2.63603717e-01f,
-8.62236470e-02f,+1.90047175e-01f,-2.28705049e-01f,+1.34349853e-01f,+1.39661744e-01f,
+2.03595206e-01f,-2.31629789e-01f,+9.07370374e-02f,+4.34389204e-01f,+9.97595638e-02f,
+8.19551051e-02f,+1.76087514e-01f,-4.53695701e-03f,+6.85339421e-02f,-1.92856863e-01f,
+1.36448815e-01f,+1.80151269e-01f,+1.74615487e-01f,-2.21541878e-02f,-2.60689199e-01f,
-7.76467845e-02f,+1.17370775e-02f,-1.30015105e-01f,+2.92915329e-02f,+1.17501065e-01f,
+5.38799819e-03f,-4.61475831e-03f,-1.01605773e-01f,+1.50927618e-01f,+1.65267617e-01f,
-8.87664631e-02f,+3.18867445e-01f,+5.99411912e-02f,-1.44404313e-02f,+1.79531112e-01f,
+2.02925384e-01f,+5.12824394e-02f,+8.84422809e-02f,+1.77157611e-01f,-2.94442594e-01f,
+1.39927715e-01f,+3.72174755e-02f,+6.09757230e-02f,+1.93203628e-01f,+4.49622720e-01f,
-2.32043967e-01f,-1.29446357e-01f,-1.22236736e-01f,-1.05579928e-01f,+3.03545624e-01f,
+3.70275117e-02f,-4.41260561e-02f,-4.13345136e-02f,+1.00555934e-01f,+1.21039577e-01f,
+3.25696498e-01f,-6.62091840e-03f,+3.03486991e-03f,-1.48733705e-01f,+6.78369328e-02f,
-6.92704543e-02f,+1.13372922e-01f,+2.21968442e-02f,-1.09689921e-01f,+4.68124934e-02f,
+1.67693689e-01f,+5.02459705e-02f,+1.73259273e-01f,-2.69880593e-01f,+1.44325167e-01f,
-3.08028817e-01f,+4.47537154e-02f,-1.47807300e-02f,+6.56433403e-02f,-1.41787574e-01f,
+1.85778230e-01f,-8.72308835e-02f,+2.79315770e-01f,-2.59238988e-01f,+7.59736821e-02f,
+2.33478807e-02f,+8.04638565e-02f,-2.16308251e-01f,+4.10111472e-02f,-2.43741274e-01f,
+2.73424443e-02f,-8.41970295e-02f,+3.37118246e-02f,+2.01262400e-01f,+3.35903913e-01f,
-7.04975426e-02f,+1.47313461e-01f,+1.61735222e-01f,-5.03637977e-02f,+1.23158209e-01f,
-1.33467570e-01f,+6.00755855e-04f,-1.12612464e-01f,+8.37575197e-02f,+7.86729008e-02f,
+3.72490942e-01f,+4.41598333e-02f,+1.22097351e-01f,-1.13399804e-01f,-8.81476775e-02f,
-2.30964258e-01f,-1.29297033e-01f,-8.98851156e-02f,+2.00780869e-01f,-1.02310978e-01f,
+2.02489197e-02f,+6.14856109e-02f,+1.19450040e-01f,+5.72302192e-03f,+1.76157713e-01f,
-1.98345512e-01f,+8.87368433e-03f,+5.84086291e-02f,+2.60292411e-01f,-1.21965215e-01f,
+1.96277738e-01f,-2.39045888e-01f,+2.26519406e-01f,+2.64755934e-01f,-3.52125764e-01f,
+2.51718521e-01f,+1.00319922e-01f,-8.10265094e-02f,+1.21470608e-01f,-1.95149668e-02f,
-7.09134787e-02f,-1.14274494e-01f,+6.36708587e-02f,-3.62368733e-01f,-4.84797657e-01f,
+3.67670387e-01f,+8.92575085e-02f,+2.18362555e-01f,-1.25317359e-02f,+1.06877930e-01f,
-1.78378746e-01f,+5.59754789e-01f,+5.22743762e-02f,-6.47921413e-02f,-1.86596960e-01f,
+5.37504479e-02f,-2.61103362e-03f,+1.46629825e-01f,+1.50776312e-01f,+1.60761833e-01f,
+2.44719833e-01f,-2.56100520e-02f,+6.09187074e-02f,-2.12053925e-01f,+1.46720976e-01f,
+1.10375963e-01f,-4.54982258e-02f,-9.83930305e-02f,-3.03307995e-02f,-1.55988246e-01f,
-8.23884364e-03f,-7.55824149e-03f,-2.84046140e-02f,-1.12504028e-01f,+2.30565861e-01f,
+3.24185342e-01f,+3.18650872e-01f,+2.46520378e-02f,-2.04661697e-01f,+6.62637651e-02f,
+1.78922206e-01f,+2.85557330e-01f,-2.08896045e-02f,+7.32546300e-02f,-1.33236334e-01f,
-1.09975234e-01f,+2.21421063e-01f,-2.36889496e-01f,+8.98329094e-02f,+1.46705702e-01f,
-1.82949547e-02f,-3.58635902e-01f,-7.43954480e-02f,+2.41322026e-01f,+1.51412487e-01f,
+9.44970027e-02f,+2.70947754e-01f,+1.11416960e-02f,-3.78678530e-01f,+8.29331949e-02f,
-3.02729964e-01f,+9.95015502e-02f,+4.18559909e-02f,+2.11871803e-01f,+2.46498566e-02f,
+3.15490998e-02f,+6.60574809e-02f,-4.70315404e-02f,-4.85070236e-02f,+4.88991067e-02f,
-3.18334669e-01f,+1.25676051e-01f,+1.31676152e-01f,+8.79475698e-02f,+3.09995025e-01f,
+7.23408386e-02f,+4.57985014e-01f,-1.84369922e-01f,-4.77070697e-02f,+5.91595434e-02f,
-1.53085217e-01f,-9.18413103e-02f,-3.71961325e-01f,+3.24832171e-01f,+1.01431683e-01f,
+7.05732778e-02f,+1.75489616e-02f,+4.45827655e-02f,-3.58101845e-01f,+3.83209065e-02f,
+1.63876399e-01f,+1.41345173e-01f,-4.44132648e-02f,+1.29366621e-01f,-2.23672786e-03f,
-2.14541256e-02f,-1.48657933e-01f,-1.44518360e-01f,+2.36782536e-01f,+2.59291530e-01f,
-2.13410184e-02f,+1.14426136e-01f,-1.14698904e-02f,+4.86041717e-02f,+3.10593635e-01f,
-1.82633489e-01f,-1.07554600e-01f,-2.37427309e-01f,+2.27199063e-01f,+1.34436592e-01f,
+1.78927884e-01f,+1.99483648e-01f,+1.49111254e-02f,-1.21914096e-01f,+6.90859333e-02f,
+1.43269792e-01f,-2.48489499e-01f,-2.51026362e-01f,+5.42919300e-02f,+4.64816749e-01f,
+3.45193110e-02f,+1.93175256e-01f,+1.02039799e-01f,+1.27232805e-01f,+7.50909597e-02f,
+4.89970475e-01f,-2.91325618e-02f,+9.12242010e-02f,+1.15558669e-01f,-2.08066106e-01f,
+1.67941943e-01f,-4.89512570e-02f,-7.97394067e-02f,+3.21957469e-01f,-6.41947787e-04f,
+9.23315510e-02f,-1.41412809e-01f,+4.06251065e-02f,-6.61612973e-02f,-9.58027914e-02f,
+3.07459161e-02f,-2.61463910e-01f,+1.52811706e-01f,+2.59574175e-01f,+1.96166113e-01f,
+8.91583189e-02f,+1.69782434e-02f,-1.80942312e-01f,+1.28697857e-01f,+1.93713561e-01f,
-3.00236225e-01f,-1.66220322e-01f,-1.40761659e-01f,+5.80334738e-02f,+1.72413707e-01f,
-2.70616919e-01f,-2.59684592e-01f,+1.54403094e-02f,-7.16058835e-02f,+3.36712115e-02f,
-3.46112438e-02f,-6.11068830e-02f,+1.69669390e-01f,-1.81571797e-01f,+7.39168078e-02f,
-4.69139628e-02f,+1.04058698e-01f,+1.96621791e-01f,-3.41908410e-02f,+2.98558157e-02f,
-1.56675026e-01f,+2.10492313e-02f,+1.06121540e-01f,-2.34859940e-02f,+5.39786257e-02f,
-2.25331500e-01f,+2.69600004e-01f,-9.25613791e-02f,+2.77039617e-01f,+5.96092194e-02f,
-5.57901971e-02f,-3.08125885e-03f,+3.84059921e-02f,-4.83231358e-02f,+5.59194721e-02f,
+3.41199905e-01f,-1.01094775e-01f,+3.16041172e-01f,+5.51401936e-02f,+1.39910355e-01f,
+1.58029556e-01f,+2.11838081e-01f,-1.48930281e-01f,+1.84588537e-01f,-2.38758940e-02f,
-1.62842184e-01f,-2.39976924e-02f,+2.50162393e-01f,+3.53191257e-01f,+2.67931670e-01f,
-7.37142563e-02f,+4.57427837e-03f,-3.42678986e-02f,+1.37080252e-01f,+7.14033768e-02f,
-3.90204154e-02f,-9.26612541e-02f,-1.51691779e-01f,-1.34805709e-01f,-4.59092736e-01f,
-2.47800872e-01f,+4.61151712e-02f,+3.81679088e-02f,+7.43784606e-02f,+1.07137905e-02f,
-1.75801739e-01f,+4.20493856e-02f,-3.67951870e-01f,+1.40397400e-01f,+1.14080057e-01f,
-6.74815625e-02f,+1.91014260e-01f,+2.98848003e-01f,-1.22374333e-01f,+1.19349711e-01f,
+2.17943579e-01f,-1.36785775e-01f,+2.04550281e-01f,-5.25068901e-02f,-9.24944282e-02f,
-6.72036782e-02f,+2.89638996e-01f,-1.60586655e-01f,+3.35068196e-01f,-7.19265565e-02f,
+2.59483397e-01f,+3.71461213e-01f,-2.24491358e-01f,-1.61013350e-01f,+2.54077762e-01f,
+3.19562890e-02f,-9.75688323e-02f,-1.23638585e-01f,-2.10587844e-01f,-5.76916989e-03f,
+3.13462108e-01f,+1.26447827e-01f,+1.46568432e-01f,+1.83882654e-01f,-2.67861962e-01f,
+1.29884988e-01f,-1.28308401e-01f,-2.27768525e-01f,-1.83013231e-01f,-1.00319713e-01f,
+1.86229154e-01f,-1.88585758e-01f,+2.27943316e-01f,-3.96689363e-02f,-2.72251405e-02f,
-2.56526917e-01f,-3.02587658e-01f,+6.98398100e-03f,-1.19239047e-01f,+3.05716366e-01f,
+3.17093045e-01f,+6.20116625e-05f,-9.57154706e-02f,+2.14014694e-01f,-2.21624106e-01f,
-2.38625892e-02f,-5.18670529e-02f,+7.59978443e-02f,+5.21549135e-02f,+2.27946058e-01f,
+2.09014878e-01f,+4.59089816e-01f,-4.75855201e-01f,+5.24485223e-02f,+1.67660594e-01f,
+2.02572927e-01f,-2.26159349e-01f,-4.29359615e-01f,-9.77444798e-02f,+7.11093023e-02f,
-1.23256102e-01f,-6.73193261e-02f,+3.49781871e-01f,-1.42962992e-01f,+1.44349486e-01f,
+1.67112038e-01f,-2.52942324e-01f,-5.97193614e-02f,+1.39731348e-01f,+8.42774138e-02f,
-9.02539343e-02f,+1.15277935e-02f,-2.63765603e-02f,+1.83011785e-01f,+4.56511796e-01f,
+3.12658548e-02f,+7.76850507e-02f,+5.47347248e-01f,-9.10744444e-02f,+4.03941348e-02f,
+1.11944877e-01f,+1.55238152e-01f,-2.71782018e-02f,-1.05562426e-01f,+1.54207885e-01f,
+6.11622632e-03f,-5.59836812e-02f,-1.58301517e-01f,+8.08845907e-02f,+2.53710765e-02f,
+8.77646133e-02f,+2.06114084e-01f,-3.94473642e-01f,+7.43599594e-01f,-1.84685990e-01f,
+4.19332981e-02f,-1.78992394e-02f,+3.55721474e-01f,-1.15163550e-01f,+2.35893726e-01f,
+2.29404885e-02f,-3.69866133e-01f,-8.53988528e-02f,-4.55016583e-01f,+4.32866402e-02f,
+6.13816790e-02f,-2.89401591e-01f,-5.10743558e-02f,+1.31048709e-01f,+2.96813931e-04f,
-3.61069262e-01f,+2.28058528e-02f,+3.62619579e-01f,+3.47943120e-02f,-2.52267689e-01f,
+1.92139030e-01f,+1.46690562e-01f,+1.81192048e-02f,-3.41434985e-01f,-3.21380705e-01f,
-1.17343180e-01f,+1.06513560e-01f,-2.22169191e-01f,-1.84836462e-01f,+1.93819962e-02f,
-8.29813853e-02f,+2.86309689e-01f,-1.16842426e-01f,-2.54052252e-01f,+8.88882875e-02f,
-1.51627138e-01f,+1.11025453e-01f,-1.42781913e-01f,-3.70351881e-01f,-1.10616140e-01f,
+1.56185940e-01f,+3.39826494e-01f,+2.69534409e-01f,+7.51967281e-02f,+2.60585845e-01f,
-1.30431443e-01f,-7.09492862e-02f,-1.05419375e-01f,+1.75621778e-01f,-2.37152204e-01f,
+7.82499090e-02f,+1.48943290e-01f,+1.05851971e-01f,-2.31364831e-01f,+1.64972037e-01f,
+3.81167859e-01f,+2.37472892e-01f,-1.77885816e-01f,+2.56300103e-02f,+1.82321563e-01f,
+1.58340391e-02f,+1.75797969e-01f,+4.18529101e-02f,+1.80008218e-01f,-1.90886796e-01f,
+2.21776500e-01f,-4.96326499e-02f,-1.19939879e-01f,-7.32060298e-02f,+2.52137542e-01f,
+1.58758033e-02f,-2.68199574e-02f,-1.54381886e-01f,-1.64651535e-02f,+1.48662746e-01f,
-6.95946068e-02f,-4.83879894e-02f,+4.77894954e-03f,-8.52642655e-02f,+4.22946969e-03f,
-2.01374386e-02f,-2.48621032e-02f,-2.68973351e-01f,-1.68462336e-01f,-2.25010470e-01f,
+7.10037956e-03f,-1.10143542e-01f,+2.89526492e-01f,-1.35958970e-01f,+3.34363759e-01f,
+5.92928082e-02f,-3.57975394e-01f,+1.30961508e-01f,+4.68626320e-02f,+1.54285775e-02f,
-6.01755194e-02f,+3.83021116e-01f,-1.01381972e-01f,+1.31915674e-01f,+1.05758563e-01f,
+1.24651574e-01f,-1.06923804e-01f,+1.89605784e-02f,+9.55871642e-02f,+5.72190098e-02f,
+1.60481021e-01f,+2.57379740e-01f,-7.03016445e-02f,+3.29992771e-01f,+2.70608336e-01f,
+3.41909170e-01f,-1.01343773e-01f,+2.67540872e-01f,-1.83403283e-01f,-2.58961856e-01f,
-1.98103953e-02f,+1.17679663e-01f,+3.50504547e-01f,-1.82806686e-01f,-4.68360633e-01f,
+4.10059631e-01f,+8.96010548e-02f,+1.60815775e-01f,-2.74441004e-01f,-1.31760180e-01f,
-3.76826078e-01f,+2.22214952e-01f,+8.78199656e-03f,-1.22647457e-01f,+5.86938625e-03f,
+2.22178876e-01f,-6.06689155e-02f,+1.88004434e-01f,+2.42821887e-01f,-2.38838360e-01f,
+3.50177407e-01f,-6.58330768e-02f,-2.61094868e-01f,+1.89641714e-01f,-4.75607626e-03f,
+1.08019216e-02f,+1.69742316e-01f,-2.20379699e-03f,+3.53281915e-01f,+9.71220210e-02f,
+1.21796116e-01f,+2.85225928e-01f,-1.08140886e-01f,+1.56927541e-01f,-5.56170270e-02f,
+2.60336131e-01f,-6.19753674e-02f,+1.84271023e-01f,-1.87818587e-01f,+1.56240270e-01f,
+8.73662680e-02f,+1.83426723e-01f,-7.27167726e-02f,-7.56911263e-02f,+4.02326807e-02f,
-2.49088839e-01f,+1.32588670e-01f,-2.64536738e-02f,-1.77091122e-01f,-3.86505604e-01f,
-2.02405065e-01f,-1.01906925e-01f,-7.68453628e-02f,+1.99875057e-01f,+7.35442936e-02f,
-2.28827879e-01f,+1.04169734e-01f,-6.52454421e-02f,-4.27644134e-01f,-1.97790504e-01f,
+4.11729179e-02f,-6.69751614e-02f,-1.64227858e-01f,+2.49813825e-01f,+6.72434792e-02f,
+2.43309781e-01f,+1.40857473e-01f,-2.87596107e-01f,+1.25595257e-01f,-6.80532381e-02f,
+4.56645489e-02f,+6.56256974e-02f,+2.97903031e-01f,+4.09573987e-02f,-2.31094018e-01f,
+2.36587495e-01f,-2.69899994e-01f,-6.24144711e-02f,-8.82114843e-02f,+2.60144472e-01f,
-1.24498634e-02f,+1.64021924e-02f,+4.53230962e-02f,-1.97153643e-01f,-2.25359455e-01f,
+3.58158946e-02f,-1.55356750e-01f,-3.86662446e-02f,-1.86685640e-02f,+1.10091560e-01f,
+1.60496712e-01f,+3.08550969e-02f,-8.54773372e-02f,-1.33634076e-01f,-1.50180683e-01f,
+1.25498503e-01f,+6.45064786e-02f,+2.21365085e-03f,+2.80211985e-01f,+5.25171980e-02f,
+8.64752159e-02f,-2.20973730e-01f,+1.53780386e-01f,+2.46234640e-01f,+2.31010139e-01f,
-1.30622432e-01f,+2.69370735e-01f,+4.98292297e-02f,+4.30844069e-01f,-1.02236398e-01f,
+3.27633530e-01f,+3.15932959e-01f,-1.08745016e-01f,+2.08855331e-01f,-1.63503915e-01f,
-2.06337020e-01f,-2.79557973e-01f,+5.79822734e-02f,+3.03627193e-01f,+3.14183831e-01f,
-3.29277992e-01f,+3.05013895e-01f,-1.56410798e-01f,-2.07450750e-04f,-3.05051267e-01f,
-2.91725323e-02f,+1.62763819e-01f,-3.78300659e-02f,-2.84761935e-01f,+3.84039551e-01f,
+8.59842002e-02f,+8.88847932e-02f,-1.61023885e-01f,-8.07223767e-02f,+1.40946969e-01f,
+3.33469771e-02f,-1.70447662e-01f,+1.13725506e-01f,+3.58627886e-01f,-1.99593566e-02f,
+2.64364392e-01f,-2.34744772e-01f,+5.04750729e-01f,-3.98498327e-02f,-1.28533766e-01f,
+1.62284404e-01f,+1.02450132e-01f,+2.60951221e-01f,+3.38277757e-01f,-2.13227436e-01f,
-4.98732328e-02f,+3.41638714e-01f,+1.35441735e-01f,-2.66362038e-02f,-1.38557628e-01f,
+1.26760632e-01f,-1.03814743e-01f,+1.86942834e-02f,+8.50416273e-02f,+8.02349299e-02f,
+6.67047873e-02f,+1.35547191e-01f,+1.90473989e-01f,-2.64404982e-01f,+2.78781876e-02f,
-6.12212680e-02f,+4.69307750e-02f,+1.94360241e-01f,+1.18833035e-01f,+1.54167637e-01f,
+4.07490760e-01f,+1.57761887e-01f,+2.21864711e-02f,-3.33625019e-01f,+2.41411731e-01f,
-1.19749174e-01f,-2.23517522e-01f,-1.75131217e-01f,+9.00320485e-02f,+3.01475078e-01f,
-1.11568198e-01f,-6.20180331e-02f,-1.66780978e-01f,-2.40028650e-01f,+1.97128832e-01f,
+5.73324747e-02f,+1.98014528e-01f,+4.12016869e-01f,-2.19668578e-02f,+7.23569021e-02f,
-9.91239026e-02f,+9.62207932e-03f,+1.46417007e-01f,+8.80089477e-02f,+7.45221004e-02f,
+1.39549479e-01f,+5.48054911e-02f,+1.11370049e-01f,-1.23899288e-01f,-6.38084859e-02f,
-1.41703412e-01f,+9.93470941e-03f,+1.66563801e-02f,+2.03859985e-01f,-1.55896202e-01f,
-7.23875389e-02f,-5.23367384e-03f,-5.55664003e-02f,+1.69890806e-01f,-2.48315334e-02f,
-8.70907232e-02f,-1.11592360e-01f,+1.89399749e-01f,-5.49815176e-03f,+3.06151986e-01f,
+7.23900124e-02f,-1.78696841e-01f,+1.39284328e-01f,-9.95912030e-03f,+9.86144319e-02f,
+1.99710473e-01f,-3.25193226e-01f,+2.64037792e-02f,+1.77371219e-01f,+6.05721623e-02f,
-5.86676896e-02f,-5.59457801e-02f,-7.00345859e-02f,+1.03062749e-01f,+2.16298923e-02f,
-7.86719024e-02f,-2.64525339e-02f,-1.41950294e-01f,+1.01876430e-01f,-3.77741791e-02f,
-4.82146591e-02f,-2.03639269e-01f,-1.81831717e-01f,-4.07647379e-02f,-2.36976370e-01f,
-1.16668828e-01f,+8.94164890e-02f,-8.96612108e-02f,-2.56392956e-01f,-2.59596091e-02f,
-1.24930173e-01f,+2.41441905e-01f,+3.66938949e-01f,+2.47428217e-03f,-2.32917309e-01f,
+6.22630008e-02f,-8.51305351e-02f,+1.68391362e-01f,-1.46135986e-01f,+1.66357215e-03f,
+2.05672637e-01f,+6.60211965e-02f,+7.75366381e-04f,-4.96837869e-02f,+1.88736394e-01f,
+9.99749377e-02f,-2.19838321e-02f,+1.50178432e-01f,+8.14101100e-02f,-2.05261204e-02f,
+2.13630751e-01f,+2.49318168e-01f,-1.12369470e-01f,+3.01806986e-01f,+5.06069772e-02f,
-1.53724432e-01f,+2.36372557e-02f,+9.53761190e-02f,+1.55417159e-01f,-3.14914808e-02f,
-3.64294797e-02f,-1.16565205e-01f,-3.99743905e-03f,-1.05627023e-01f,-1.03352144e-01f,
-3.20062965e-01f,+3.01019758e-01f,+1.67626351e-01f,-1.59333006e-01f,-2.55213585e-02f,
+3.48833040e-03f,+1.45048797e-01f,-2.83945929e-02f,+6.31064549e-02f,+5.45193069e-02f,
+1.68324202e-01f,-3.36866714e-02f,+3.80604446e-01f,+2.34764472e-01f,+4.14340869e-02f,
-1.02032952e-01f,+1.31465197e-01f,+3.84515896e-02f,-1.28723413e-01f,+9.66721326e-02f,
+2.55019397e-01f,+3.27416919e-02f,+1.26189277e-01f,-2.99706697e-01f,+1.31725132e-01f,
+2.95424163e-01f,+1.22217000e-01f,+2.65417516e-01f,+1.03324853e-01f,-3.54407281e-01f,
+1.86436191e-01f,-2.96489328e-01f,-9.24783275e-02f,+3.33775997e-01f,-2.24077031e-01f,
-2.00153381e-01f,+1.91691905e-01f,-1.63027883e-01f,-1.63412884e-01f,-4.82282834e-03f,
+2.20881365e-02f,+1.38520896e-01f,+1.16071254e-01f,+1.32163897e-01f,+1.49075419e-01f,
+2.12732162e-02f,-5.04767569e-03f,+1.13116190e-01f,-1.11942209e-01f,+1.00287639e-01f,
+3.53460729e-01f,-2.31277347e-02f,-1.08032778e-01f,+2.46942833e-01f,+5.84516525e-02f,
-1.14560470e-01f,+5.92815280e-02f,+8.57684910e-02f,+2.15667576e-01f,-1.14132434e-01f,
-3.74257639e-02f,-1.86512172e-01f,-1.26826748e-01f,+1.83770865e-01f,-1.63297355e-02f,
+1.12158924e-01f,-4.09259461e-02f,+6.53607165e-03f,-2.36953437e-01f,+5.56996763e-02f,
+1.52008519e-01f,-4.32019345e-02f,-8.63577724e-02f,-1.49208447e-02f,-1.49955332e-01f,
-8.97966996e-02f,-6.88788369e-02f,+3.29521000e-02f,-1.77758053e-01f,-1.85635194e-01f,
-3.06846686e-02f,+1.35703728e-01f,+8.35315697e-03f,-6.09325804e-02f,-4.70375270e-01f,
+9.52458307e-02f,+2.07919758e-02f,-7.17153773e-02f,-8.17078166e-03f,+1.35247573e-01f,
+1.79021984e-01f,+1.91223174e-02f,-3.36222112e-01f,+8.63303170e-02f,-2.89472729e-01f,
-1.17711514e-01f,-3.46443132e-02f,-4.23475169e-02f,-1.13915885e-02f,+1.99758306e-01f,
-3.39886919e-02f,+8.75077471e-02f,+1.94136292e-01f,-1.77700762e-02f,-1.61359772e-01f,
+1.22094490e-01f,+1.27849266e-01f,-2.66816653e-02f,-2.61589289e-02f,+4.60513942e-02f,
+7.18981996e-02f,+1.19165212e-01f,-6.92623556e-02f,+2.96928845e-02f,+1.47492006e-01f,
-6.92561790e-02f,+1.06994241e-01f,+7.26662278e-02f,-3.16796675e-02f,+9.18882862e-02f,
+3.42546880e-01f,+2.19060834e-02f,+4.53592628e-01f,+2.84102615e-02f,+4.18824136e-01f,
-9.56752002e-02f,-4.82897982e-02f,+1.19601347e-01f,+2.88058996e-01f,+9.01797786e-02f,
-7.27519719e-03f,-7.05253426e-03f,+2.21941457e-03f,+2.27562152e-02f,-1.58412516e-01f,
+6.69626892e-02f,+2.79549628e-01f,+4.68238555e-02f,-1.02881230e-01f,+3.17041948e-02f,
+1.78469881e-01f,+1.16085885e-02f,+1.24724694e-01f,-1.03614817e-03f,-4.87086810e-02f,
+2.76328862e-01f,-8.35415870e-02f,-9.63075832e-02f,-8.06490853e-02f,-6.07687160e-02f,
+4.80579436e-02f,-1.02991186e-01f,-8.51189867e-02f,+4.71030660e-02f,-3.80703434e-02f,
-2.60397732e-01f,+1.18722416e-01f,+8.08030292e-02f,+3.28728668e-02f,+1.84284762e-01f,
+1.16953880e-01f,-1.11821592e-01f,+9.63000301e-03f,-9.48388577e-02f,+7.89041892e-02f,
-1.64254785e-01f,+1.60400063e-01f,-3.10002804e-01f,-3.71559076e-02f,+3.52540575e-02f,
+1.12933060e-02f,-1.85481906e-01f,+5.11727691e-01f,-1.39629738e-02f,-2.29318410e-01f,
-1.83625028e-01f,+5.70665561e-02f,-6.24186313e-03f,-1.01545297e-01f,-5.00381105e-02f,
-9.19354483e-02f,-1.27183318e-01f,-8.65189731e-02f,-4.26129736e-02f,-1.16499707e-01f,
+1.24781959e-01f,-3.71338464e-02f,+1.30053446e-01f,-6.64057285e-02f,+5.36769107e-02f,
-1.20132416e-01f,-1.04382500e-01f,-2.60316849e-01f,-1.00307085e-01f,-2.49959286e-02f,
-3.45548689e-02f,-2.49685775e-02f,-1.59678340e-01f,+4.30022895e-01f,-1.53720900e-01f,
-1.98505595e-01f,-2.70459503e-01f,+1.21657915e-01f,-5.84360398e-02f,+1.09536141e-01f,
+1.77749489e-02f,+8.71771649e-02f,-1.20047212e-01f,+9.85616352e-03f,-1.22354403e-01f,
-2.62037236e-02f,+1.07303455e-01f,+9.12418216e-02f,+9.52385962e-02f,-1.12356827e-01f,
+9.65134948e-02f,+1.59876328e-02f,-1.19484700e-01f,-6.36219606e-02f,+5.42584434e-02f,
+5.18823490e-02f,-9.89730470e-03f,-5.89041449e-02f,-2.34242901e-01f,-6.58655679e-03f,
-2.64787357e-02f,+2.00866446e-01f,-1.28573373e-01f,-2.41137788e-01f,-5.45379892e-02f,
+1.96836274e-02f,-3.39072682e-02f,+2.68379807e-01f,-1.10398524e-01f,+1.01324305e-01f,
+5.96152134e-02f,-3.31138633e-02f,+9.09881517e-02f,-9.92962345e-02f,-1.66079506e-01f,
-8.37966949e-02f,+2.13950843e-01f,+5.80074862e-02f,+8.10489133e-02f,+1.60285830e-01f,
-3.38684209e-02f,-8.84182379e-02f,-8.77199247e-02f,-1.08737729e-01f,+2.00597823e-01f,
-1.01176361e-02f,+1.43502310e-01f,+1.65213682e-02f,-1.18119575e-01f,+8.07893835e-03f,
+4.59695697e-01f,+1.05786882e-02f,+3.08965623e-01f,+1.51261687e-01f,+2.32271459e-02f,
+8.76325462e-03f,-2.69485801e-01f,-8.33690539e-02f,-1.02824800e-01f,-8.53645876e-02f,
-3.07814293e-02f,+2.97822028e-01f,+3.53549868e-01f,+8.57951418e-02f,-3.24573629e-02f,
+6.45974055e-02f,-3.26822884e-02f,+6.09182157e-02f,-9.46940556e-02f,+8.38348120e-02f,
-1.72766939e-01f,+7.04530850e-02f,-2.23552689e-01f,+2.54159212e-01f,+1.61538213e-01f,
-3.85167301e-02f,+3.62131566e-01f,+2.06583589e-01f,-2.23789081e-01f,+3.68965156e-02f,
-7.49415532e-02f,+3.46924625e-02f,+2.18276069e-01f,-7.37618608e-03f,+9.09992773e-03f,
-3.37802231e-01f,-1.91938028e-01f,-8.08941647e-02f,+1.01799063e-01f,+1.38541013e-01f,
-1.96534276e-01f,+2.75254175e-02f,-1.44158930e-01f,+1.05099022e-01f,-7.27733821e-02f,
-1.88683830e-02f,-5.25776893e-02f,-4.04913761e-02f,-1.79416388e-01f,+1.31702006e-01f,
-1.25641897e-01f,+3.96368317e-02f,-8.46605096e-03f,-4.49894443e-02f,-3.59525383e-02f,
+2.81064183e-01f,+5.31025743e-03f,+2.54621096e-02f,+2.85508126e-01f,+1.09330028e-01f,
-8.85264426e-02f,-9.99779999e-02f,+2.26907153e-03f,+8.18611607e-02f,-1.49754211e-01f,
+1.26877114e-01f,-1.59199089e-01f,+2.20352158e-01f,-1.53256163e-01f,+1.07252054e-01f,
+2.31744517e-02f,-3.85514833e-02f,+4.30576764e-02f,+8.97516236e-02f,+1.59153089e-01f,
+2.34481364e-01f,-6.83511421e-02f,-3.60197157e-01f,+7.71392733e-02f,+2.58000106e-01f,
-1.66810805e-03f,+1.71870708e-01f,+2.56355524e-01f,+2.67330669e-02f,-1.72761958e-02f,
+3.95945609e-02f,+4.16397452e-02f,-3.61414142e-02f,-9.69016477e-02f,-1.06432147e-01f,
+8.49616379e-02f,-1.65652856e-01f,+1.59711361e-01f,+3.39470357e-02f,+1.15255661e-01f,
-1.85187217e-02f,+3.45735662e-02f,-6.25320897e-02f,+5.30847386e-02f,-9.72977802e-02f,
+8.43347609e-02f,+3.04963022e-01f,+8.78145844e-02f,+1.15583338e-01f,-7.94041753e-02f,
-1.21399602e-02f,+4.45304997e-02f,+1.75016642e-01f,-1.18992716e-01f,-1.65819585e-01f,
-7.99511652e-03f,-8.57599080e-02f,-1.53925288e-02f,-1.38885677e-01f,+2.48256326e-01f,
+8.77144337e-02f,-6.79436773e-02f,-2.74722967e-02f,-4.10192944e-02f,-1.68474503e-02f,
+1.43940464e-01f,+5.94900968e-03f,+1.53066576e-01f,+9.70894992e-02f,+2.54187416e-02f,
+1.03880623e-02f,+1.05261862e-01f,-1.12934433e-01f,-6.09317869e-02f,+4.07455079e-02f,
+8.84237662e-02f,-4.46716696e-02f,-7.60692284e-02f,-8.31413046e-02f,-7.31442720e-02f,
+7.06780776e-02f,+3.33468169e-02f,-2.82071084e-01f,+1.65395066e-01f,+3.34304124e-01f,
-2.51717735e-02f,+1.77071333e-01f,+1.57154813e-01f,-1.20418631e-01f,+9.16806832e-02f,
-1.61544383e-01f,+1.81039590e-02f,-1.86731860e-01f,-7.72082210e-02f,-2.04266071e-01f,
+7.03063011e-02f,-1.95236996e-01f,+1.52393132e-02f,+6.76786378e-02f,+1.86425110e-03f,
+5.98529503e-02f,-1.19226456e-01f,+3.82574126e-02f,-2.53799856e-01f,+2.81084657e-01f,
+9.64569151e-02f,-3.67311239e-02f,+2.86655009e-01f,+5.45608625e-02f,+1.72064126e-01f,
+5.27749881e-02f,-6.84299320e-02f,-1.88480049e-01f,+1.81009099e-01f,+2.32711192e-02f,
+1.37990177e-01f,+3.40721682e-02f,-3.31488177e-02f,+6.65420964e-02f,+2.99086664e-02f,
+4.84363511e-02f,+8.93040299e-02f,+7.11524561e-02f,-5.47037423e-02f,-3.51871140e-02f,
-1.66025553e-02f,-8.41513649e-02f,-1.04787976e-01f,+1.04134329e-01f,-1.97069466e-01f,
+1.56626925e-01f,+1.11397885e-01f,+1.19788818e-01f,+7.55946189e-02f,+3.70708257e-01f,
-1.77210718e-01f,-1.15485400e-01f,-1.64753675e-01f,+6.46124706e-02f,+1.81103379e-01f,
-1.01677045e-01f,+1.27198324e-01f,-3.31394821e-01f,-1.86473615e-02f,+7.80770406e-02f,
+8.24216288e-03f,+2.31332593e-02f,-6.19223826e-02f,+6.80300370e-02f,-1.50375798e-01f,
-1.06903628e-01f,+5.75001985e-02f,-5.47050461e-02f,+1.58825547e-01f,-6.82679191e-02f,
+1.13035403e-01f,-9.02449116e-02f,+2.43222341e-01f,+2.26276573e-02f,-7.17206299e-02f,
-4.86563630e-02f,+5.64987063e-02f,-1.09451361e-01f,+1.18765317e-01f,+8.86210427e-02f,
+1.47211887e-02f,+1.69635877e-01f,+2.29439229e-01f,+1.06592335e-01f,-8.47486481e-02f,
+7.93609023e-02f,-1.26215801e-01f,-7.69187063e-02f,+7.13371858e-02f,+8.87800381e-03f,
-7.55047351e-02f,-3.40023562e-02f,-1.68725371e-01f,+4.04196238e-04f,+6.51891455e-02f,
+3.38373072e-02f,-2.32488304e-01f,+1.14010349e-01f,+3.31175178e-02f,-6.22366415e-03f,
+2.43590668e-01f,-9.34261549e-03f,-2.90287018e-01f,+7.75964409e-02f,+1.03266854e-02f,
+3.16969246e-01f,-1.92552939e-01f,+1.59389973e-01f,-1.96044907e-01f,-4.56110053e-02f,
+1.73011765e-01f,+1.76779402e-03f,-8.70637745e-02f,+1.76731907e-02f,-1.54358432e-01f,
+5.90782547e-05f,-3.78237292e-02f,-2.96160519e-01f,-1.89034626e-01f,-5.47566898e-02f,
+5.21675572e-02f,+2.65743405e-01f,+4.63201962e-02f,-1.46250740e-01f,+1.03200421e-01f,
-2.92541116e-01f,+1.49200454e-01f,+2.98500091e-01f,+1.40423387e-01f,+1.71424560e-02f,
+9.82687250e-02f,-2.22871631e-01f,+3.06962524e-02f,-4.96824197e-02f,-3.58989611e-02f,
-1.32956296e-01f,-2.44990401e-02f,-2.32391983e-01f,+7.67183974e-02f,-6.19857907e-02f,
+3.56710963e-02f,-1.71683326e-01f,-3.12439110e-02f,+1.27528429e-01f,+1.00892574e-01f,
+3.63170505e-01f,-4.71489429e-02f,+5.58080152e-02f,+2.23618671e-02f,+2.02609256e-01f,
-9.89531055e-02f,-1.09381430e-01f,-1.98549807e-01f,+1.90892606e-03f,+7.28029311e-02f,
-1.43433869e-01f,+5.82938418e-02f,+7.20737083e-03f,+1.30806550e-01f,+2.28832603e-01f,
+2.32199386e-01f,-4.98393513e-02f,-1.24615878e-01f,-4.41268720e-02f,-6.26320615e-02f,
-2.76280157e-02f,-1.63993761e-01f,+3.23327631e-02f,+1.84980333e-01f,-1.13123271e-03f,
-7.93695450e-02f,-2.06577286e-01f,-1.22380048e-01f,-2.53242791e-01f,+5.67925051e-02f,
+1.23952240e-01f,+2.63903812e-02f,-2.83514522e-02f,-1.64069131e-01f,+1.73767121e-03f,
+7.81597197e-02f,+2.52602935e-01f,-7.90133998e-02f,+4.86168750e-02f,-1.08786464e-01f,
-1.48697406e-01f,-3.22717428e-01f,+6.39333874e-02f,-1.70029178e-01f,-2.07191646e-01f,
+2.15957910e-01f,+4.52884167e-01f,+6.18856400e-02f,-1.25941470e-01f,+2.46713847e-01f,
+7.49887601e-02f,+2.41182491e-01f,+7.80520812e-02f,+1.14227958e-01f,+2.26333097e-01f,
+2.68570781e-01f,+1.53184399e-01f,-3.42455623e-03f,+2.17137516e-01f,+3.85725677e-01f,
-1.78200379e-01f,-1.34928346e-01f,-4.20748144e-02f,-8.76602530e-02f,+1.30126923e-01f,
-2.85394937e-01f,-1.35909468e-01f,+2.14138061e-01f,+3.37524414e-02f,+5.01675420e-02f,
+2.22062290e-01f,+2.84757584e-01f,-9.63273495e-02f,-7.02769086e-02f,+2.91619837e-01f,
-5.83608784e-02f,-5.93710765e-02f,+3.13906342e-01f,+2.09448382e-01f,+5.91337025e-01f,
-2.56303102e-01f,+3.60977352e-02f,-3.46567817e-02f,+2.87305206e-01f,-2.93465164e-02f,
-1.44825373e-02f,-1.36956561e-03f,-6.51285239e-03f,+3.94149274e-01f,+1.79824993e-01f,
+3.38466883e-01f,-3.08243949e-02f,+6.35841563e-02f,+1.22578606e-01f,-6.57191351e-02f,
-3.86209018e-03f,-1.16570093e-01f,-2.31036186e-01f,+2.97192335e-02f,-4.37103733e-02f,
-1.64889604e-01f,+1.60090458e-02f,-2.99265563e-01f,+7.14393631e-02f,+9.87039208e-02f,
+1.19219020e-01f,+2.30046678e-02f,-9.67166200e-02f,-3.66772145e-01f,+3.15261215e-01f,
+7.72706643e-02f,-2.09530015e-02f,-6.91512376e-02f,+5.63369170e-02f,+2.54833788e-01f,
+1.50836378e-01f,-1.11741349e-02f,+7.84707442e-02f,-3.89622487e-02f,-7.52019063e-02f,
-2.24073440e-01f,-3.65629703e-01f,+8.66221637e-03f,+4.43383753e-01f,+6.38822392e-02f,
+8.47563799e-03f,+5.78333326e-02f,+8.98589864e-02f,+1.31040528e-01f,-2.56419063e-01f,
+1.58829659e-01f,-1.32433966e-01f,-9.02595744e-02f,-3.63624841e-01f,+2.78218806e-01f,
+1.95658654e-01f,-8.94208401e-02f,-8.99706036e-02f,+1.03386842e-01f,-8.62455294e-02f,
-9.37972590e-02f,-2.27325875e-02f,+7.50389919e-02f,+2.14683563e-01f,+1.92358509e-01f,
+5.84173091e-02f,+2.72149503e-01f,+2.05634255e-02f,+1.15440547e-01f,-1.40332459e-02f,
-1.47718966e-01f,+7.82403573e-02f,+5.26750199e-02f,-9.97645110e-02f,-1.42898977e-01f,
-7.15133697e-02f,-2.31398031e-01f,-8.59067887e-02f,+7.19554424e-02f,+2.01368213e-01f,
+6.02428317e-01f,+4.28276435e-02f,+1.40077800e-01f,+4.64611053e-02f,-5.99059202e-02f,
+4.73840892e-01f,+2.96385586e-01f,+4.40484405e-01f,+3.07715327e-01f,+4.00063336e-01f,
-8.35252553e-02f,-3.14928070e-02f,+2.80829132e-01f,+4.17279899e-02f,-4.91406359e-02f,
+1.97937310e-01f,+9.59144011e-02f,+3.34475413e-02f,-4.68253270e-02f,+1.39087707e-01f,
-8.31181929e-02f,+2.87932932e-01f,-4.06347364e-02f,-6.60028309e-02f,+3.03518921e-01f,
+5.47442622e-02f,+2.31067136e-01f,-5.65320887e-02f,+2.28862166e-01f,+2.67555892e-01f,
+2.87573606e-01f,-2.86281873e-02f,+1.55156136e-01f,-2.12341428e-01f,-1.34707153e-01f,
+2.71569073e-01f,-2.19778642e-01f,+1.39828652e-01f,+1.59771685e-02f,-4.01844203e-01f,
+1.08793519e-01f,-3.27200621e-01f,-1.21999033e-01f,+7.57901222e-02f,-1.78625190e-03f,
+1.16343267e-01f,-6.18001968e-02f,+8.79428908e-02f,+6.93084858e-03f,-4.50233668e-02f,
-2.56758779e-01f,-6.74211383e-02f,+1.98480263e-01f,+1.08418077e-01f,-8.81069452e-02f,
-1.45891055e-01f,-9.55615565e-02f,+4.12350781e-02f,-4.89209918e-03f,+8.37822109e-02f,
+1.72498852e-01f,+1.18577052e-02f,+2.64185131e-01f,-2.38366798e-01f,+8.46703053e-02f,
+1.23365149e-01f,-1.69958264e-01f,+4.58253436e-02f,-2.47468650e-01f,+4.22561169e-02f,
+2.22952679e-01f,+1.69796258e-01f,-1.00944445e-01f,-1.20993309e-01f,-4.22751047e-02f,
-7.89217800e-02f,+6.72238367e-03f,-5.93961105e-02f,+2.02140227e-01f,+1.42250329e-01f,
+1.57897934e-01f,-5.00936247e-02f,+1.62121922e-01f,-3.06020789e-02f,+2.86466360e-01f,
-1.28949853e-02f,+1.78496465e-01f,+1.16181500e-01f,+4.13822532e-01f,-2.80963928e-01f,
+5.00050001e-02f,-9.83532146e-02f,-1.85927153e-01f,+3.90283912e-02f,-2.53434092e-01f,
+1.31478995e-01f,+8.65275562e-02f,-7.37595558e-02f,+2.56991256e-02f,-3.74531653e-03f,
-8.20581317e-02f,-7.14808926e-02f,+2.06354991e-01f,-9.36774015e-02f,+7.04119131e-02f,
+3.16770315e-01f,+8.99565872e-03f,-7.57466927e-02f,-5.67731299e-02f,+1.73858434e-01f,
+7.75334146e-03f,+7.81545117e-02f,+4.00446147e-01f,-1.12806208e-01f,-9.66873467e-02f,
+4.14565988e-02f,-3.55615630e-03f,-2.05612872e-02f,-4.46803682e-02f,-1.72518477e-01f,
+5.02596274e-02f,+2.97934443e-01f,-5.88634722e-02f,+3.49508375e-02f,-2.52775162e-01f,
-1.65423125e-01f,+1.51989847e-01f,+6.73980415e-02f,-3.46785448e-02f,-1.27762437e-01f,
-9.69359279e-02f,+6.07028380e-02f,+1.61615610e-01f,+2.12206632e-01f,-8.49783197e-02f,
-3.35284621e-02f,+1.67593941e-01f,+1.13493524e-01f,+2.16092363e-01f,+5.61300963e-02f,
-2.89512843e-01f,+2.46843666e-01f,+1.42294735e-01f,-1.41330704e-01f,+1.55323863e-01f,
-2.16447175e-01f,-1.78884372e-01f,+6.47426844e-02f,-9.66592059e-02f,-3.95945534e-02f,
+5.28846085e-01f,-2.24316224e-01f,+1.05656341e-01f,+7.99479410e-02f,+3.79400164e-01f,
+9.39031318e-02f,+1.71703428e-01f,+7.97946379e-02f,+6.80036470e-02f,+1.45576760e-01f,
+2.84169883e-01f,-2.55272705e-02f,+1.65523037e-01f,+1.28936440e-01f,-1.76509067e-01f,
-1.63769603e-01f,+1.41140893e-01f,-2.08385795e-01f,+3.69083285e-02f,+2.14525715e-01f,
+8.63353014e-02f,+1.23269409e-01f,-2.10778251e-01f,-7.56649598e-02f,+4.44186591e-02f,
-2.66743809e-01f,+6.14387682e-03f,-9.39204395e-02f,-1.87548101e-01f,-1.43768042e-01f,
+6.57833591e-02f,+4.85389382e-01f,+2.15669617e-01f,+1.07298784e-01f,+8.04771930e-02f,
-2.01217994e-01f,+3.44180763e-01f,+2.54083037e-01f,+3.43936354e-01f,+1.82525188e-01f,
+5.21726720e-02f,+2.08387002e-02f,+6.13966346e-01f,+1.71836354e-02f,-1.69138145e-02f,
+4.20472622e-01f,+1.13849282e-01f,+1.86452970e-01f,-5.17241508e-02f,-1.37895942e-01f,
+1.51369020e-01f,+3.70698363e-01f,+1.57064974e-01f,+4.44538087e-01f,-1.18031567e-02f,
+2.53223270e-01f,+7.94580728e-02f,-1.53669752e-02f,-1.07173018e-01f,+2.61577908e-02f,
+1.07921630e-01f,+2.89614886e-01f,-6.89587668e-02f,+6.30736053e-02f,+1.04405463e-01f,
-1.25503808e-01f,+3.06773275e-01f,-2.65425276e-02f,-1.26245292e-02f,-2.06703186e-01f,
-3.32562961e-02f,+1.43886060e-01f,-1.43252583e-02f,+3.07705794e-02f,+2.50309974e-01f,
+5.03337383e-01f,+3.25865775e-01f,-5.99563774e-03f,-1.70445666e-01f,+1.43926010e-01f,
+1.11366808e-01f,+3.81777994e-02f,+6.17605925e-01f,+1.21652514e-01f,+4.48584408e-02f,
+1.18111059e-01f,+2.54784107e-01f,+6.24939501e-02f,-2.43127584e-01f,+7.47662708e-02f,
+6.13411255e-02f,-4.96527478e-02f,+5.82655333e-02f,-6.40094979e-03f,+5.58825552e-01f,
-5.11659198e-02f,+1.30034328e-01f,-1.18977167e-01f,+5.32329418e-02f,-5.16585680e-03f,
-2.20635116e-01f,-2.40816802e-01f,+1.75947517e-01f,+1.13046095e-01f,-8.34651738e-02f,
+1.35135455e-02f,+1.97197422e-01f,+3.22679818e-01f,+5.50900757e-01f,-2.93481708e-01f,
+1.05329551e-01f,+4.37084995e-02f,+1.36485890e-01f,+7.07154572e-02f,+7.49833360e-02f,
-8.42446834e-03f,+4.37210411e-01f,+4.57380295e-01f,+1.10499509e-01f,+2.77760834e-01f,
+2.39328906e-01f,-2.78336316e-01f,+7.37245753e-02f,-1.38749719e-01f,+2.99213171e-01f,
-2.68437147e-01f,+1.58246562e-01f,+1.91385701e-01f,+5.76589257e-02f,+3.35019156e-02f,
+6.40647709e-02f,+4.09445554e-01f,+1.13111794e-01f,+2.13765100e-01f,+4.72060740e-02f,
+1.77396029e-01f,-5.96293584e-02f,-1.75732881e-01f,-1.52753353e-01f,+1.82216823e-01f,
-1.34481832e-01f,-2.39913780e-02f,-3.75490189e-01f,+1.85133368e-01f,+3.27118367e-01f,
+2.35931039e-01f,-8.55159163e-02f,+3.26611280e-01f,-2.49101352e-02f,-3.91395390e-01f,
+1.05805017e-01f,+3.72357845e-01f,+1.79640427e-01f,+1.97858661e-01f,+1.91897318e-01f,
-4.79472578e-02f,+5.73556237e-02f,+2.20552340e-01f,-3.50356512e-02f,+2.20368102e-01f,
-2.33633518e-01f,+1.18524522e-01f,+4.63290513e-02f,+4.00716849e-02f,+2.36236304e-02f,
+5.51554523e-02f,+1.31707355e-01f,+3.52953166e-01f,+1.69884786e-01f,+1.49372458e-01f,
-2.77985502e-02f,+1.23475991e-01f,-1.23955213e-01f,+2.62066573e-01f,+9.39262584e-02f,
+6.39020745e-03f,+2.91937776e-02f,-4.99397442e-02f,-7.69789971e-04f,+4.74034101e-02f,
+8.76172557e-02f,-3.17352146e-01f,+6.62721694e-02f,+7.03624412e-02f,+2.65005887e-01f,
+7.64988735e-02f,-1.48364231e-01f,+1.47969976e-01f,-1.58693150e-01f,-1.73582152e-01f,
-5.56962937e-02f,-9.46090594e-02f,-6.75672069e-02f,+1.79906145e-01f,+2.92057395e-01f,
+5.19822016e-02f,+1.04224801e-01f,-1.34432957e-01f,-9.93293747e-02f,-9.71929729e-02f,
-1.87450811e-01f,+6.98388517e-02f,-3.09604257e-02f,+9.26559046e-02f,-3.51606011e-01f,
+2.05974624e-01f,+1.14946522e-01f,+3.94443758e-02f,+3.87346335e-02f,-1.95492014e-01f,
+8.21924955e-02f,-2.65393835e-02f,+7.92813748e-02f,+2.47917268e-02f,+2.14370266e-01f,
+3.13104063e-01f,+2.73004416e-02f,-1.63159594e-01f,+2.53301710e-01f,-1.80724218e-01f,
-2.06197575e-01f,+2.30453432e-01f,+1.37034312e-01f,+1.12794071e-01f,+1.49632439e-01f,
-3.63329463e-02f,-3.17949116e-01f,+1.41490519e-01f,-2.16142666e-02f,+1.90382972e-02f,
+1.63944349e-01f,-2.15036854e-01f,+4.83619832e-02f,-5.34470156e-02f,-7.70665845e-03f,
-1.06310792e-01f,-1.27780065e-01f,+2.42078915e-01f,+9.14055482e-02f,+1.20378695e-01f,
+2.49821126e-01f,-3.25510472e-01f,+1.42723963e-01f,-3.78793944e-03f,+2.78717160e-01f,
-2.91442424e-01f,+2.34430701e-01f,+8.98524001e-02f,-5.31258844e-02f,-2.71136552e-01f,
+6.30777553e-02f,+1.79322213e-01f,-7.94433355e-02f,-5.76647595e-02f,-2.64790088e-01f,
+4.99559827e-02f,+8.87258574e-02f,+3.24216694e-01f,+1.71702757e-01f,-1.30109534e-01f,
-1.00963846e-01f,+8.24077055e-02f,-3.11679900e-01f,+4.55337614e-02f,+3.80876362e-02f,
+1.31876588e-01f,+1.17573082e-01f,-1.04168408e-01f,-8.99937153e-02f,+2.32323229e-01f,
-5.11294790e-02f,+2.58886963e-01f,+2.34536305e-01f,+2.12440491e-02f,-5.21452501e-02f,
+1.26921371e-01f,+3.94304127e-01f,+1.18362479e-01f,+2.26477206e-01f,-7.81878363e-03f,
+2.02242404e-01f,-3.72763211e-03f,-3.15444320e-01f,+2.04336643e-01f,-4.31543812e-02f,
+5.66819087e-02f,-1.52870016e-02f,+3.05055141e-01f,-5.87075166e-02f,+2.20984802e-01f,
+1.84453845e-01f,+2.51461230e-02f,+1.95933804e-01f,+1.41436920e-01f,+4.20771956e-01f,
-3.50055754e-01f,+1.60395741e-01f,-1.34185836e-01f,-1.08292873e-03f,+1.62945330e-01f,
-1.71640828e-01f,-9.42875966e-02f,-1.31936580e-01f,+1.67556792e-01f,-3.96144651e-02f,
+2.30031088e-01f,+1.61773756e-01f,-1.58639699e-01f,-2.04075381e-01f,+1.57586172e-01f,
-3.38509172e-01f,+8.80933851e-02f,-4.16125059e-02f,+1.30985230e-01f,-1.88694522e-01f,
+9.11544859e-02f,-7.74814487e-02f,+2.93031987e-02f,-2.04721466e-01f,+4.20953989e-01f,
+2.07018927e-01f,+2.83624709e-01f,-2.46706419e-02f,+2.12851405e-01f,-3.76644015e-01f,
-1.89030513e-01f,-5.67327999e-02f,-1.20064944e-01f,-5.30630827e-01f,+1.80917412e-01f,
+8.30662921e-02f,-9.32170600e-02f,+2.11689204e-01f,+1.80314392e-01f,+1.54544294e-01f,
+2.13332564e-01f,+5.19439094e-02f,-2.76289880e-01f,+2.38911122e-01f,+1.92260325e-01f,
-6.64141998e-02f,+8.86121318e-02f,+4.98157702e-02f,+1.57766286e-02f,+3.87760140e-02f,
-1.12656251e-01f,-4.26546186e-02f,+4.49168086e-01f,-2.48913169e-02f,+1.78962424e-01f,
-5.36796972e-02f,+1.97454646e-01f,-1.00007251e-01f,+2.82576323e-01f,-4.50259671e-02f,
+6.71246350e-02f,+6.32819235e-02f,-5.04251644e-02f,+1.37306884e-01f,+1.20531604e-01f,
+1.69311225e-01f,-6.04526177e-02f,-1.90643385e-01f,+4.30592485e-02f,-8.84556919e-02f,
-1.38467580e-01f,-1.05567023e-01f,+8.49668980e-02f,+1.10944659e-01f,-3.91140096e-02f,
+1.50002509e-01f,-4.80612144e-02f,+1.94176286e-01f,-1.65334214e-02f,+8.54893103e-02f,
-1.68556690e-01f,+9.64913145e-02f,+2.87531346e-01f,+1.29863396e-02f,-2.98693657e-01f,
-7.84111992e-02f,+7.14078918e-02f,+3.45096081e-01f,+1.11706980e-01f,+6.89175054e-02f,
-2.85589665e-01f,+1.37232721e-01f,-8.56612530e-03f,-9.65586975e-02f,+1.55910671e-01f,
-2.23968714e-01f,-4.04320240e-01f,+2.07649078e-02f,+1.56542629e-01f,-1.14606492e-01f,
-7.55557716e-02f,+1.04633793e-02f,+3.73035707e-02f,-7.72623643e-02f,-6.57472312e-02f,
+6.42139092e-02f,-1.81225300e-01f,+3.52249295e-02f,-2.47877669e-02f,+1.31853610e-01f,
+1.23518063e-02f,+2.52423167e-01f,-9.61235166e-02f,-6.28322959e-02f,-5.98379821e-02f,
+7.33114546e-04f,-4.65448946e-02f,+2.51666665e-01f,+4.46893871e-01f,+1.96565703e-01f,
+1.94773927e-01f,-5.89294024e-02f,-9.40601900e-02f,-2.19373465e-01f,+3.03785130e-03f,
-2.93332487e-01f,+2.06456378e-01f,-1.92713857e-01f,-7.86456987e-02f,+3.11122239e-02f,
+2.05817536e-01f,+3.08819860e-01f,-1.84206031e-02f,+8.61168504e-02f,+1.23005934e-01f,
-1.23207927e-01f,+2.32642815e-01f,-1.00506835e-01f,-1.05060406e-01f,+2.13579267e-01f,
-9.58644077e-02f,-3.33738662e-02f,+1.80902928e-02f,-2.24272639e-01f,+6.41061887e-02f,
+8.45617726e-02f,-3.19159478e-01f,-6.41320944e-02f,+1.21331356e-01f,-2.87768561e-02f,
+2.28441916e-02f,+7.81654045e-02f,-1.81218371e-01f,+3.66872773e-02f,-9.51775759e-02f,
+6.37803227e-02f,-1.12050474e-01f,+1.17746435e-01f,+2.75957644e-01f,+5.23535628e-03f,
+1.02335587e-01f,+1.56860813e-01f,-9.08027515e-02f,+1.05675377e-01f,+7.16111436e-02f,
+2.09637433e-01f,-1.44091800e-01f,+6.81422278e-02f,-6.77115098e-02f,-2.61063874e-02f,
+2.69201510e-02f,-6.53564036e-02f,-1.73338532e-01f,+4.98419739e-02f,+2.51171291e-01f,
+1.75907508e-01f,+2.81900167e-01f,+4.47848856e-01f,-2.59612679e-01f,-8.81548449e-02f,
-9.71361101e-02f,-5.50861061e-02f,+1.78082269e-02f,-8.52221102e-02f,-2.92037189e-01f,
+1.18201949e-01f,-2.36872975e-02f,-7.06698373e-02f,+1.62500851e-02f,+2.44657949e-01f,
-1.72677144e-01f,-1.23374509e-02f,+1.17038287e-01f,+7.46582299e-02f,+6.36876300e-02f,
-4.52201180e-02f,+1.21460008e-02f,-8.31625015e-02f,+2.04089686e-01f,+1.79447904e-01f,
+3.35113779e-02f,-2.34088957e-01f,-1.14896009e-02f,-2.11134568e-01f,-2.66262472e-01f,
+1.60534501e-01f,-1.26394778e-01f,-1.55403703e-01f,+1.42667666e-01f,-1.87686279e-01f,
-3.69702578e-02f,-9.92204770e-02f,+1.18122082e-02f,+6.91149533e-02f,-1.05627161e-02f,
+1.18684255e-01f,-3.28160644e-01f,-2.27165688e-02f,+1.68166459e-01f,-5.85163683e-02f,
+4.91381362e-02f,+9.95272696e-02f,+2.22046971e-01f,+1.30837560e-01f,+1.81419015e-01f,
-2.94766814e-01f,-1.09329103e-02f,-2.87763417e-01f,-1.97419778e-01f,+4.89386991e-02f,
+3.78317535e-02f,+1.77005768e-01f,-3.37188728e-02f,-9.29476693e-03f,+1.27001256e-01f,
+4.46273685e-01f,+1.66159987e-01f,-2.15529829e-01f,+9.57180262e-02f,+2.90829599e-01f,
-2.28942230e-01f,-1.84767455e-01f,+1.81456372e-01f,-8.68452191e-02f,-3.76399994e-01f,
-3.85633677e-01f,-3.75791490e-02f,+2.10576922e-01f,+1.07113935e-01f,-1.15802765e-01f,
-2.50380874e-01f,+2.13617593e-01f,+8.96568820e-02f,+4.94002663e-02f,+1.50829807e-01f,
+3.19487631e-01f,-9.15032029e-02f,-1.19370215e-01f,-1.85476691e-01f,+3.61554213e-02f,
-4.03601341e-02f,+6.48166835e-02f,-1.53677747e-01f,-1.76181309e-02f,-3.24743651e-02f,
+1.06070772e-01f,+1.80410981e-01f,+9.97162536e-02f,-9.87116992e-02f,-1.32720575e-01f,
-1.04792856e-01f,+3.53679568e-01f,+1.23519339e-01f,+3.31742942e-01f,-2.12819383e-01f,
+1.52268901e-01f,+2.91743362e-03f,-1.40404746e-01f,+1.80537179e-01f,-1.65559024e-01f,
+4.06072140e-02f,-5.78868464e-02f,-2.05330238e-01f,-1.83764175e-02f,+1.56581048e-02f,
-1.47842407e-01f,-2.70991057e-01f,+2.41635069e-01f,-1.13694645e-01f,-2.21938401e-01f,
+6.13355376e-02f,+1.82646066e-01f,+1.91982344e-01f,-3.57715264e-02f,-1.60777315e-01f,
+7.07433298e-02f,-6.39792532e-02f,+2.21877232e-01f,+2.30625775e-02f,+3.55852753e-01f,
+4.58983444e-02f,+1.30994737e-01f,+7.40161315e-02f,+3.59578710e-03f,-3.16760957e-01f,
+2.11733669e-01f,+1.35109335e-01f,+1.05829813e-01f,+3.67306639e-03f,-1.75317571e-01f,
-2.46705323e-01f,+4.26165089e-02f,-1.02035470e-01f,+5.64456105e-01f,+1.07457168e-01f,
-1.85351431e-01f,-1.47545472e-01f,-5.91235608e-02f,+1.78371727e-01f,-2.19641924e-01f,
+1.25920959e-02f,+5.04384696e-01f,-1.99895889e-01f,+1.44428372e-01f,+2.08867341e-01f,
+9.21312347e-02f,-5.75787127e-02f,-8.72783065e-02f,+7.30566606e-02f,-2.95890391e-01f,
-8.01753104e-02f,+1.65037543e-01f,-3.07855438e-02f,+9.95461494e-02f,+9.48030874e-02f,
+3.52477759e-01f,+1.02983817e-01f,+5.17785884e-02f,+2.70446986e-01f,+1.36293247e-02f,
+5.90429120e-02f,-6.40000552e-02f,+4.65801684e-03f,+2.58869547e-02f,-1.74021125e-01f,
-7.94745460e-02f,-1.10444210e-01f,-1.11807339e-01f,-1.24510095e-01f,-5.43803908e-02f,
-1.20475911e-01f,+2.01966330e-01f,-2.05459058e-01f,+1.68975413e-01f,+6.20234385e-02f,
-1.94617942e-01f,+2.30294526e-01f,-3.57023835e-01f,-2.86865056e-01f,-1.25683509e-02f,
+1.84433550e-01f,-2.75831670e-01f,-2.28947541e-03f,+1.61925480e-02f,-7.46703893e-02f,
+1.97946802e-01f,+1.11141026e-01f,-1.03696600e-01f,+1.62185997e-01f,-1.03645436e-01f,
-7.17143938e-02f,+2.49062032e-01f,-3.57350409e-01f,+1.02008045e-01f,-1.35967731e-01f,
-2.70024650e-02f,+2.87684519e-02f,-1.57765791e-01f,+5.36331646e-02f,+1.65675685e-01f,
-1.07984254e-02f,+2.06517160e-01f,-1.71086863e-01f,-1.33996040e-01f,-1.09505495e-02f,
+5.29416986e-02f,-3.68241966e-01f,+4.60221678e-01f,-2.44894907e-01f,+2.49143571e-01f,
+1.98487684e-01f,+4.78467755e-02f,+2.23798960e-01f,-7.26903081e-02f,-1.00158870e-01f,
-1.98527858e-01f,-2.32718498e-01f,+2.45280981e-01f,+7.86547288e-02f,+1.71415702e-01f,
+1.65839233e-02f,+4.31909338e-02f,-4.96412396e-01f,+5.53878881e-02f,-3.74250725e-04f,
-1.05269752e-01f,+8.66398066e-02f,-3.08139948e-03f,+2.61169344e-01f,+2.16515660e-01f,
+1.20867677e-01f,+1.87591717e-01f,+1.21231265e-01f,-3.44910204e-01f,+2.09315017e-01f,
+2.59494700e-04f,-2.92482018e-01f,+1.40864745e-01f,+7.05753118e-02f,-2.27790251e-01f,
-2.15670496e-01f,+7.14389384e-02f,-5.78882694e-01f,+2.87924618e-01f,-3.71046700e-02f,
+8.30608010e-02f,-2.91110247e-01f,-6.61187321e-02f,+8.73941090e-03f,+4.15887713e-01f,
+3.10662866e-01f,+9.76404995e-02f,+3.84140201e-02f,-2.10162252e-01f,-9.36987344e-03f,
+1.43707886e-01f,+8.17611143e-02f,+1.49417177e-01f,-8.73506069e-02f,-3.61938583e-04f,
+7.81635009e-03f,+7.11935684e-02f,+5.25562167e-01f,+2.07409561e-01f,-1.15151264e-01f,
+3.42320353e-01f,+5.05300388e-02f,+4.15173739e-01f,-2.79297352e-01f,+3.45159620e-01f,
-4.84814048e-02f,+1.66474074e-01f,-1.13752946e-01f,+4.34215426e-01f,-1.37287036e-01f,
+2.57314357e-04f,-9.88176093e-02f,+2.68935412e-01f,+4.41191979e-02f,+6.49553537e-02f,
-2.21124947e-01f,+2.47875124e-01f,-8.83055925e-02f,+1.11965905e-03f,-2.70147473e-02f,
+2.99917132e-01f,-2.53400579e-02f,+1.30873770e-01f,+1.40616208e-01f,-2.85304010e-01f,
+1.80351302e-01f,+1.21990956e-01f,-5.04742526e-02f,+1.22442394e-02f,-2.47657180e-01f,
-2.00569496e-01f,+1.44197479e-01f,-1.44789457e-01f,+2.53516555e-01f,-1.86331168e-01f,
+3.03475782e-02f,-4.87148017e-03f,-2.96639721e-03f,+2.24786773e-02f,+3.89972597e-01f,
+5.78719787e-02f,+3.12144101e-01f,-2.27803402e-02f,+1.41178444e-01f,-3.72148957e-03f,
+9.89670455e-02f,+1.82969660e-01f,-4.73665670e-02f,+7.41132274e-02f,+5.77842332e-02f,
+2.40576491e-02f,+2.09822655e-01f,-1.74385488e-01f,+9.94400829e-02f,-9.40487832e-02f,
+1.31200060e-01f,-5.51736429e-02f,-8.50629956e-02f,-1.34054888e-02f,-1.28438413e-01f,
+5.92320450e-02f,-4.85266507e-01f,-2.59873450e-01f,+2.53270328e-01f,-1.12338707e-01f,
-1.41018689e-01f,+5.61883189e-02f,+1.28713742e-01f,+8.84007141e-02f,-2.13987932e-01f,
+1.44932747e-01f,-8.69571120e-02f,+1.46299630e-01f,+3.99085701e-01f,+3.69876653e-01f,
+1.74469516e-01f,+7.06319511e-03f,+4.53711152e-02f,+2.60238677e-01f,+1.67377904e-01f,
+1.23582393e-01f,+4.89432998e-02f,+8.42198730e-02f,+2.46049255e-01f,+8.93674940e-02f,
+2.79810846e-01f,+4.39611167e-01f,+2.49959111e-01f,-1.00252673e-01f,-2.66811233e-02f,
+1.25653625e-01f,+1.97599847e-02f,+1.01837888e-01f,+1.16017289e-01f,-2.84089327e-01f,
+1.56572208e-01f,-3.35429400e-01f,+2.63761789e-01f,-1.80304915e-01f,+3.55487823e-01f,
-1.80848241e-02f,+2.67109066e-01f,+9.91380960e-02f,+7.63477385e-02f,+2.46223465e-01f,
+3.77486981e-02f,+3.28677823e-03f,-7.43943229e-02f,+1.33098006e-01f,-6.39768541e-02f,
+1.90275520e-01f,-2.00423643e-01f,+1.68273956e-01f,+7.55271986e-02f,-1.46313086e-01f,
+4.77300435e-02f,+2.60724366e-01f,+2.03001755e-03f,+1.88995570e-01f,+1.11673594e-01f,
+5.03209531e-01f,+2.09038749e-01f,-4.91864868e-02f,-1.93067551e-01f,+1.63242862e-01f,
-1.83471870e-02f,-1.79189920e-01f,+8.90824348e-02f,+1.87187657e-01f,+1.51497290e-01f,
-2.71087587e-02f,+3.84433009e-03f,+3.49558033e-02f,-1.70102045e-01f,+2.32788369e-01f,
-2.12468877e-01f,-1.39903471e-01f,+1.12203397e-01f,+4.00971889e-01f,+3.23150009e-01f,
-4.85447012e-02f,-1.15098804e-01f,+1.83708325e-01f,-3.62768695e-02f,+3.66924517e-02f,
-1.08148523e-01f,-1.36938632e-01f,-1.14490569e-01f,-2.59014249e-01f,-2.39727825e-01f,
-1.02345929e-01f,+1.35963887e-01f,+2.20683813e-01f,-7.94226155e-02f,+1.66639969e-01f,
+1.60893619e-01f,+8.81562233e-02f,-5.73776402e-02f,-1.10657793e-02f,+4.46937680e-02f,
-1.74038544e-01f,+4.03247848e-02f,-2.78708130e-01f,+4.24794793e-01f,+1.05497912e-01f,
+1.85698085e-02f,-1.56961352e-01f,-9.74180475e-02f,+1.33583382e-01f,+3.98741037e-01f,
-5.87796532e-02f,+1.43264756e-01f,+4.13509786e-01f,+8.07399079e-02f,-2.03194678e-01f,
+1.82715833e-01f,+2.58700550e-01f,-1.04066096e-01f,-2.76811004e-01f,+2.26549715e-01f,
-1.21167898e-01f,+7.96630830e-02f,+2.14863300e-01f,+1.34696573e-01f,-2.11553544e-01f,
+1.75848767e-01f,+1.95922647e-02f,+3.20559405e-02f,-1.78683579e-01f,+4.87590693e-02f,
+1.08727822e-02f,-2.02295139e-01f,-1.77433908e-01f,+2.91153312e-01f,+6.22267462e-02f,
+5.98071627e-02f,+1.53703084e-02f,-8.10601488e-02f,-1.70032512e-02f,-2.64807552e-01f,
-2.00264990e-01f,+8.97507090e-03f,+1.11219220e-01f,+8.45833570e-02f,+1.07718818e-01f,
+3.21261957e-02f,-3.49131972e-02f,-2.02082485e-01f,-9.27066579e-02f,-1.51726440e-01f,
+7.87968189e-02f,+1.80030704e-01f,+6.84030205e-02f,-1.68023780e-01f,-1.93996161e-01f,
+3.61670077e-01f,-1.42368913e-01f,-5.23001440e-02f,-1.72125667e-01f,+1.86086223e-01f,
-1.08070321e-01f,+2.61043757e-01f,+9.12900642e-02f,-1.76986158e-01f,+1.37290657e-02f,
+1.50905997e-01f,+1.93277299e-01f,+6.97210878e-02f,+1.87750638e-01f,+1.71202585e-01f,
-1.99403957e-01f,+1.47292882e-01f,-1.58605099e-01f,-1.28115520e-01f,+8.87563750e-02f,
-5.97297587e-02f,+2.89285272e-01f,-1.72398210e-01f,+1.07687838e-01f,-3.35090458e-01f,
+3.36592048e-01f,-1.24919273e-01f,+7.74515001e-03f,-7.24751651e-02f,+3.38717133e-01f,
+9.57800224e-02f,-1.17880329e-01f,-1.69511616e-01f,+7.09437802e-02f,+8.38536024e-02f,
-4.42267537e-01f,+2.34843791e-01f,+2.31429279e-01f,+2.34115943e-01f,+3.24253052e-01f,
+5.41857295e-02f,-1.02777340e-01f,-5.40256798e-02f,-1.57918051e-01f,-2.08188772e-01f,
+1.19517714e-01f,-1.44912109e-01f,+2.70968601e-02f,+1.33581571e-02f,+1.07241094e-01f,
+3.39978158e-01f,-3.02511483e-01f,-8.38373974e-02f,+2.00874433e-01f,+9.01021529e-03f,
-4.29773070e-02f,-9.45107173e-03f,+3.67001481e-02f,-8.13945159e-02f,+1.51786044e-01f,
-3.12516391e-01f,+9.23446491e-02f,+2.30159998e-01f,-3.74398269e-02f,-7.28518590e-02f,
+3.17694575e-01f,-1.82850093e-01f,+1.71552286e-01f,+2.18322128e-01f,+9.42696780e-02f,
+1.58736199e-01f,-5.39071672e-02f,-1.43571049e-01f,-6.55133948e-02f,-8.21926370e-02f,
+1.09467335e-01f,-1.94662344e-02f,+1.39280185e-01f,-1.17290869e-01f,-9.03184488e-02f,
+9.38711986e-02f,-7.23892301e-02f,+3.86200309e-01f,-3.20558995e-02f,+2.02436402e-01f,
-2.35681623e-01f,+6.72510937e-02f,-7.82973096e-02f,+2.01053366e-01f,-1.17417946e-01f,
+7.41460398e-02f,-2.80772652e-02f,+5.10276817e-02f,+1.15908468e-02f,+1.82302967e-02f,
+1.36277780e-01f,-6.78700209e-02f,+1.97941691e-01f,+2.28243377e-02f,-1.98560338e-02f,
+2.07662955e-02f,+3.72265637e-01f,-6.12033457e-02f,-8.29018950e-02f,+2.98674911e-01f,
+3.12425405e-01f,+7.20867440e-02f,-1.12862676e-01f,-3.32926810e-02f,-3.95215452e-01f,
+6.32948801e-02f,-1.64005607e-01f,-1.98043868e-01f,+7.77706876e-02f,+1.38705969e-02f,
+5.97280860e-02f,-8.21071342e-02f,-1.11803897e-01f,-7.65511617e-02f,+2.69622326e-01f,
+1.36778831e-01f,+3.51096727e-02f,-2.28501186e-01f,-1.85060382e-01f,+1.12093873e-01f,
-5.78135662e-02f,+9.65644792e-02f,+6.67482568e-03f,+1.20612374e-02f,-7.57890120e-02f,
-1.30949125e-01f,-2.43119523e-01f,+1.43782660e-01f,+9.45621431e-02f,+2.79301882e-01f,
-1.15609318e-01f,-3.42412293e-01f,+1.76190957e-01f,+1.15861176e-02f,+1.19924128e-01f,
+2.56056488e-01f,-1.89898029e-01f,-6.88882545e-02f,+1.35052040e-01f,+2.12118343e-01f,
+9.33443010e-03f,+3.27506177e-02f,-1.68703437e-01f,-1.20249674e-01f,+9.25902054e-02f,
-1.11775286e-01f,+5.82384408e-01f,-1.74888030e-01f,+3.88063453e-02f,+3.78963172e-01f,
+2.09786650e-02f,-1.86035186e-01f,+3.84798348e-02f,+2.74179459e-01f,-3.66675034e-02f,
+1.61284450e-02f,+3.67250592e-01f,-1.28508033e-02f,-2.01147385e-02f,-1.58505842e-01f,
-1.76813319e-01f,+3.27550560e-01f,-1.51804641e-01f,-8.06071013e-02f,+2.09809646e-01f,
+3.35167274e-02f,+4.39246884e-03f,-9.97221246e-02f,+3.14090937e-01f,+2.03102499e-01f,
-1.30869774e-02f,-1.66787326e-01f,+3.14279199e-02f,+7.91278481e-02f,+9.33977291e-02f,
-8.07898268e-02f,+6.79138526e-02f,-7.76964426e-02f,-4.78643849e-02f,+2.66346112e-02f,
-6.06500246e-02f,-1.38406828e-01f,+1.60477325e-01f,-1.35461867e-01f,-4.11232971e-02f,
+1.69179603e-01f,+6.59370869e-02f,+6.95195720e-02f,-8.27587768e-02f,-3.17164958e-01f,
+7.18708634e-02f,+4.43011299e-02f,-7.26636052e-02f,-1.25043362e-01f,+3.84573638e-02f,
-3.02645981e-01f,-1.48457915e-01f,-1.96050420e-01f,+2.16318220e-01f,-8.72459728e-03f,
+1.81337982e-01f,+6.87907934e-02f,-2.05372632e-01f,+1.79478358e-02f,-8.73652101e-02f,
-1.18278399e-01f,+1.99820235e-01f,-1.26225511e-02f,-1.57813549e-01f,-4.22960818e-02f,
-1.69180501e-02f,+1.64039239e-01f,-1.09949380e-01f,+6.53281212e-02f,+3.01809788e-01f,
+1.47710387e-02f,+1.37234524e-01f,-6.52649626e-02f,-9.58927497e-02f,+1.68467462e-01f,
-7.22387359e-02f,-1.28372565e-01f,-1.07211344e-01f,+9.03673321e-02f,-1.35608256e-01f,
-3.01201027e-02f,+4.96657491e-02f,+3.57565016e-01f,+1.42710418e-01f,+8.03199876e-03f,
+2.10333064e-01f,-4.39984947e-02f,-1.50142014e-01f,+8.40701163e-02f,+2.00614050e-01f,
-3.74721475e-02f,-6.47242293e-02f,+1.95140287e-01f,-9.34737772e-02f,+9.60041210e-02f,
+5.81728220e-02f,-7.74788409e-02f,-2.58843660e-01f,+3.90839987e-02f,-4.90261503e-02f,
+4.20207940e-02f,-3.99417937e-01f,+1.29026473e-01f,+1.91034600e-02f,+1.98847741e-01f,
+7.70336092e-02f,-6.12305058e-03f,+1.56636655e-01f,-1.46981940e-01f,+1.11647934e-01f,
-1.06075488e-01f,-1.49929926e-01f,+1.79638177e-01f,+1.80111155e-02f,-4.43415642e-02f,
-2.33159348e-01f,-6.41192449e-03f,+1.03528775e-01f,+1.80409774e-01f,+8.86496454e-02f,
+2.54760943e-02f,-1.65892839e-01f,+3.43295075e-02f,+5.68714552e-03f,+2.80127525e-01f,
+2.37146288e-01f,+1.36011811e-02f,+1.63475916e-01f,+3.08480829e-01f,+3.03458303e-01f,
-2.54261140e-02f,+4.95172739e-01f,+2.40628600e-01f,-9.28765535e-02f,+1.31644219e-01f,
-7.02878386e-02f,-2.06780042e-02f,+1.16784267e-01f,-5.30466028e-02f,-1.50999844e-01f,
-3.45419301e-03f,-1.13753952e-01f,-4.98446412e-02f,-2.74567455e-01f,-2.26321425e-02f,
+1.59126744e-01f,-1.65355057e-01f,+1.14853874e-01f,-1.96245150e-03f,+5.81758954e-02f,
+1.50406867e-01f,-4.19302173e-02f,-2.51884609e-02f,+3.58701557e-01f,+1.62960604e-01f,
-7.95903802e-02f,+2.84879088e-01f,+2.60651976e-01f,-1.89027190e-02f,+2.24755749e-01f,
+1.65002972e-01f,+7.28254840e-02f,-5.31804573e-04f,-1.07856117e-01f,+3.20302397e-01f,
+3.24928135e-01f,-4.03190544e-03f,+3.26254308e-01f,+1.62842959e-01f,+6.34243190e-02f,
-1.94851920e-01f,-4.63382453e-02f,+1.02325246e-01f,-1.37295574e-01f,+2.87533909e-01f,
-1.73612952e-01f,-4.14752122e-03f,+3.42851505e-02f,-3.89385730e-01f,+9.88417887e-04f,
-1.55426681e-01f,-3.72827083e-01f,+4.69699562e-01f,-1.47295445e-01f,+5.01741506e-02f,
-7.14710429e-02f,+8.90208036e-02f,-2.21834973e-01f,-1.08115882e-01f,+2.69066632e-01f,
-2.72946864e-01f,+2.49361813e-01f,+9.87200737e-02f,+2.01286316e-01f,+2.30644882e-01f,
-7.04008788e-02f,+3.10355611e-02f,+2.24109456e-01f,+1.02948517e-01f,+5.08603454e-02f,
-2.01966558e-02f,+9.46763158e-02f,+3.27550881e-02f,-1.22238629e-01f,-3.16806659e-02f,
-2.87776683e-02f,+1.91076145e-01f,+1.09418714e-03f,-5.00034876e-02f,+3.08276415e-01f,
-9.25723650e-03f,-2.60001067e-02f,+2.77114302e-01f,-2.07149103e-01f,-6.00087717e-02f,
-5.47770597e-02f,+2.11150870e-02f,+2.18964778e-02f,+5.68072451e-03f,-2.98032090e-02f,
-2.85654981e-02f,-1.80969566e-01f,-1.43087730e-01f,+3.43874544e-01f,+2.52101392e-01f,
+8.94694850e-02f,+2.33423829e-01f,+1.41603658e-02f,+1.97297841e-01f,+1.22485779e-01f,
+5.37511148e-02f,-2.95075569e-02f,+5.31928428e-02f,+3.50721061e-01f,+9.14652422e-02f,
-6.92381710e-02f,-1.13943929e-03f,+1.70794025e-01f,+1.74943268e-01f,-3.29519287e-02f,
-3.72850858e-02f,+1.18816774e-02f,+4.71685566e-02f,+3.06619443e-02f,+8.59471038e-03f,
+1.07338652e-01f,-3.96571960e-03f,-1.05985902e-01f,-3.72202657e-02f,-9.32368264e-02f,
-6.43617734e-02f,+1.28189117e-01f,+1.60698861e-01f,+1.44455180e-01f,+2.61199147e-01f,
+1.72352493e-01f,-4.97840233e-02f,+1.60741463e-01f,+3.34037319e-02f,+1.19710453e-01f,
+1.04759596e-01f,+1.05121255e-01f,-1.71952322e-01f,+2.14830916e-02f,+8.58123600e-02f,
+1.15989029e-01f,+1.00869676e-02f,+7.09772632e-02f,-7.70973712e-02f,+1.00501619e-01f,
+9.37051252e-02f,+1.40075609e-01f,+3.14216793e-01f,-9.80288461e-02f,+2.28672460e-01f,
+1.74687907e-01f,+8.39981213e-02f,-6.94881901e-02f,+1.42759368e-01f,-1.92628577e-01f,
+1.78474169e-02f,+7.73575157e-02f,+2.93775678e-01f,-1.51013602e-02f,-2.44430583e-02f,
+1.26325831e-01f,+7.66562819e-02f,+6.63810298e-02f,-1.33049920e-01f,+1.36658251e-01f,
-2.06973776e-01f,+3.74001294e-01f,-1.03487805e-01f,-9.64625925e-02f,-3.39905173e-03f,
-7.38600791e-02f,-1.64751351e-01f,+1.44611850e-01f,-2.26592392e-01f,+6.97756484e-02f,
+4.37203050e-02f,-8.66640434e-02f,+1.88773438e-01f,-4.03834321e-02f,+4.67217639e-02f,
+8.26905221e-02f,-3.04568678e-01f,+9.21484455e-02f,-8.68677795e-02f,+1.13621786e-01f,
+2.25710973e-01f,-2.24654768e-02f,+1.70327187e-01f,+2.40509927e-01f,-1.67821661e-01f,
+1.50173500e-01f,+1.43751547e-01f,-1.35167822e-01f,-1.41637519e-01f,-5.26080765e-02f,
+7.87548497e-02f,+1.02390237e-01f,-2.07055226e-01f,+2.30403528e-01f,+2.46139631e-01f,
-8.60690624e-02f,-7.94183239e-02f,+4.74023186e-02f,+1.05314940e-01f,+4.94169071e-03f,
+1.71971336e-01f,+2.36788094e-01f,-2.08203703e-01f,+3.69100571e-02f,-1.92036465e-01f,
+1.89701747e-02f,+5.17011248e-02f,+3.39817405e-02f,-3.11964542e-01f,+1.42687932e-01f,
-1.47951782e-01f,-1.04169250e-02f,-4.23060432e-02f,-8.68835598e-02f,+9.41685438e-02f,
+1.33694410e-01f,-6.97009440e-04f,+3.40126634e-01f,-1.69688761e-02f,-1.34561062e-01f,
+4.01229143e-01f,-2.81472467e-02f,-1.20868430e-01f,+1.45385101e-01f,+4.04964499e-02f,
+2.06560820e-01f,+1.66945457e-01f,-1.77731127e-01f,-6.84493035e-02f,-1.89112648e-01f,
+8.91317800e-02f,+5.82107268e-02f,-1.22671304e-02f,-2.24965587e-01f,-7.08669797e-02f,
+3.16783451e-02f,-6.62256107e-02f,+8.79308358e-02f,+3.19855809e-01f,-4.36632968e-02f,
-2.39792443e-03f,+1.05815016e-01f,+2.54244477e-01f,+1.11428358e-01f,+8.62245038e-02f,
+1.00306086e-01f,+5.71516454e-02f,-3.19837838e-01f,-5.46727590e-02f,+2.42082387e-01f,
-4.55274954e-02f,+3.43311399e-01f,-4.64904420e-02f,-1.03249289e-01f,+1.47615910e-01f,
-5.13932146e-02f,+3.66806462e-02f,+9.30672735e-02f,+5.59915453e-02f,+1.06814921e-01f,
+1.27307758e-01f,+2.12299466e-01f,-3.31731439e-02f,+3.15693915e-02f,+3.06147449e-02f,
-1.92652225e-01f,+3.19998823e-02f,+2.43782088e-01f,-1.35457944e-02f,+1.73142612e-01f,
+4.91938479e-02f,+1.31906658e-01f,+3.14273871e-02f,-2.91538209e-01f,-9.83804315e-02f,
+1.83013737e-01f,-3.59688811e-02f,+2.96266023e-02f,-2.75096186e-02f,+1.21092722e-02f,
-1.03198603e-01f,+3.39645118e-01f,+1.71875618e-02f,-1.25674725e-01f,-4.82165255e-02f,
+1.29205566e-02f,-6.11129776e-02f,+1.92527890e-01f,-1.61405746e-02f,+2.49507606e-01f,
+1.03194013e-01f,+1.16748832e-01f,+1.04117775e-02f,+1.69389427e-01f,+1.37062728e-01f,
+2.05091372e-01f,-4.77002822e-02f,-1.25212697e-02f,-8.68175700e-02f,-3.48114260e-02f,
-2.33234316e-02f,-2.99499221e-02f,+1.05128810e-01f,-9.55243036e-02f,+1.35120526e-01f,
+5.45618460e-02f,+1.34915426e-01f,-9.93316919e-02f,+2.48744085e-01f,+1.81818143e-01f,
+6.19775541e-02f,-1.40308514e-01f,-1.42712325e-01f,-8.00909549e-02f,+1.61035717e-01f,
-1.98187288e-02f,-1.20146617e-01f,-7.75906518e-02f,-1.49585634e-01f,-5.13145387e-01f,
+7.66577944e-02f,+9.63299274e-02f,-1.03169039e-01f,+2.63076648e-02f,+3.81002575e-02f,
-2.33365044e-01f,-7.10724294e-02f,-7.77536407e-02f,+1.20492885e-02f,+6.64749742e-02f,
+7.90622681e-02f,-1.03575706e-01f,+1.33869931e-01f,+1.78005487e-01f,-6.74911514e-02f,
+1.30852219e-02f,+1.62053138e-01f,+2.34045848e-01f,-1.69810355e-01f,-1.85807765e-01f,
-1.60047263e-02f,+6.93490654e-02f,-8.54753405e-02f,+7.54795000e-02f,-6.49668425e-02f,
-1.94807768e-01f,-3.54076400e-02f,+4.40865718e-02f,+3.88239920e-02f,-1.08649194e-01f,
+1.82221323e-01f,-1.39992572e-02f,-1.19269520e-01f,+1.63953871e-01f,+1.46302432e-01f,
-1.39759809e-01f,-1.51020065e-01f,+3.09286147e-01f,-2.67003149e-01f,+1.35595754e-01f,
-4.13058773e-02f,-1.18610404e-01f,+2.79258162e-01f,+1.00471132e-01f,+9.28306505e-02f,
-5.77312969e-02f,+2.00008377e-01f,+1.07710287e-01f,-2.25314379e-01f,+1.12982169e-01f,
+1.91272587e-01f,+2.42415532e-01f,+3.01289529e-01f,+9.64153484e-02f,+1.16863005e-01f,
+3.78697038e-01f,-4.19332795e-02f,-1.36466518e-01f,+1.86979294e-01f,-6.80297315e-02f,
+1.55404851e-01f,-1.37385145e-01f,+1.84426248e-01f,+2.40818392e-02f,+3.13109666e-01f,
+4.19728346e-02f,-4.11835387e-02f,-2.14583457e-01f,-3.86913307e-02f,-1.84777007e-01f,
+1.13897875e-01f,+2.21557558e-01f,+2.00657800e-01f,-2.21013784e-01f,+3.79691049e-02f,
-1.12264678e-01f,-7.62975439e-02f,+3.28289211e-01f,+1.40386835e-01f,-3.63333034e-03f,
+2.27594990e-02f,+4.77657244e-02f,+1.18690297e-01f,-1.31209448e-01f,+7.12770671e-02f,
+1.10393658e-01f,+1.88403636e-01f,+1.04028672e-01f,+2.50218689e-01f,+4.49291393e-02f,
+1.52998969e-01f,-2.20987503e-03f,+2.36918986e-01f,+1.03758641e-01f,-2.01191694e-01f,
-7.89031759e-02f,+1.37949631e-01f,+3.42461556e-01f,-9.22069103e-02f,+1.73946068e-01f,
+3.60919654e-01f,+7.48611689e-02f,-2.27574363e-01f,+8.16334933e-02f,-1.80016030e-02f,
-2.65885890e-02f,+6.03760257e-02f,-7.17423558e-02f,+5.18788099e-02f,+3.44381593e-02f,
+1.81148157e-01f,+2.55824983e-01f,+2.83074021e-01f,+2.63887793e-01f,+1.05310805e-01f,
-8.75837728e-02f,+1.31566107e-01f,+5.58569469e-02f,-2.81024799e-02f,-4.86958176e-02f,
+2.19599828e-01f,+4.31087047e-01f,+8.08126926e-02f,+1.22906186e-01f,+2.59154022e-01f,
-4.24503721e-02f,-2.48843990e-02f,+3.31198186e-01f,-1.95700660e-01f,+2.50546664e-01f,
+2.74921935e-02f,-2.99892128e-01f,-3.80155928e-02f,-5.21794409e-02f,+4.61019427e-02f,
+5.31886071e-02f,-3.10848542e-02f,-8.48845616e-02f,-3.50822024e-02f,-1.36103138e-01f,
+3.88035066e-02f,-1.84828460e-01f,-8.25546086e-02f,-2.43283480e-01f,-1.70482248e-01f,
-3.58370021e-02f,-7.40781352e-02f,-2.27502510e-01f,-9.57100019e-02f,-2.54493445e-01f,
+1.57577693e-01f,+1.32474497e-01f,-9.55432579e-02f,+1.96525902e-01f,-1.24625392e-01f,
-2.63310503e-02f,+5.09086192e-01f,+2.72941560e-01f,+2.19051972e-01f,-1.46044165e-01f,
+1.31240055e-01f,+1.80490375e-01f,-7.02241212e-02f,+2.31977656e-01f,-1.14069760e-01f,
+1.88034043e-01f,-3.61007191e-02f,-7.69722238e-02f,+8.63992274e-02f,+4.17298861e-02f,
+2.49733366e-02f,-7.49930218e-02f,+1.75454140e-01f,+2.19802149e-02f,-1.13561951e-01f,
-4.59294394e-02f,+5.44260778e-02f,+1.33835807e-01f,+1.40139028e-01f,-2.29286253e-01f,
-3.18673581e-01f,+1.61056206e-01f,+3.04609891e-02f,+2.23867953e-01f,-3.01980413e-02f,
+5.13304323e-02f,+5.67186661e-02f,+1.58667624e-01f,+7.30899423e-02f,-5.79507696e-03f,
+3.19947511e-01f,+2.23850116e-01f,-1.34081125e-01f,-1.38220340e-01f,-1.40016392e-01f,
-9.01263207e-02f,+1.74854726e-01f,-1.07495338e-01f,-3.30872089e-02f,-7.07872286e-02f,
-4.06268716e-01f,-1.05193727e-01f,+1.83258876e-01f,+2.89931685e-01f,+3.28957997e-02f,
+1.09618582e-01f,+5.82961924e-03f,+9.77856442e-02f,+1.29120514e-01f,+3.41140181e-01f,
+1.67711586e-01f,+2.16917083e-01f,+1.79774866e-01f,-1.46716774e-01f,+1.08317800e-01f,
-9.55736041e-02f,-2.56129354e-01f,-4.52731512e-02f,-1.82253718e-01f,-1.86342433e-01f,
-6.78261518e-02f,+3.11567575e-01f,+9.57661718e-02f,+1.02562636e-01f,-9.75235850e-02f,
-1.08003773e-01f,+1.14682145e-01f,+9.38316621e-03f,+2.13506669e-02f,+1.72624573e-01f,
-6.63591325e-02f,-4.88355756e-02f,-4.42126468e-02f,+9.97541472e-02f,+1.00401327e-01f,
-1.21605061e-01f,+8.31020251e-02f,+1.35735169e-01f,+1.29398420e-01f,-2.66419023e-01f,
-1.56423762e-01f,+7.98367262e-02f,+1.75610967e-02f,+5.07324897e-02f,+9.88739133e-02f,
+2.59765148e-01f,-1.81314528e-01f,+1.55822765e-02f,-1.33087426e-01f,+5.56757785e-02f,
+1.34443149e-01f,+1.14002287e-01f,+1.63534537e-01f,+1.90905966e-02f,+2.25971356e-01f,
+1.82351813e-01f,-1.28787115e-01f,+1.06057711e-01f,+9.71304439e-03f,-1.12607405e-01f,
-8.67659822e-02f,-1.34817988e-01f,+1.31583646e-01f,-2.19070017e-01f,+8.28911737e-02f,
+9.28772241e-02f,+1.83659390e-01f,+2.96589822e-01f,-8.37791860e-02f,+2.35487223e-01f,
-8.70060250e-02f,-1.07508868e-01f,-7.76612237e-02f,+3.16831693e-02f,+2.85850745e-02f,
-1.71257317e-01f,+5.17824851e-02f,-6.75803516e-03f,+4.24433976e-01f,-1.89704627e-01f,
+4.44658041e-01f,+2.59928524e-01f,+2.50491709e-01f,-2.24220052e-01f,+9.95208882e-03f,
-1.39541239e-01f,+2.13667423e-01f,+1.80418324e-02f,-5.35647832e-02f,+8.16325247e-02f,
-5.78381158e-02f,+1.63523778e-01f,-6.37620836e-02f,+1.62118733e-01f,+5.41178323e-02f,
-7.98815489e-02f,+2.02817246e-01f,-4.28227559e-02f,+4.43210192e-02f,+3.77544202e-02f,
+4.05871831e-02f,+1.34887984e-02f,+4.94947657e-02f,-3.49075794e-02f,+8.62702578e-02f,
+1.00548631e-02f,-9.30879638e-02f,-8.46551359e-03f,+8.25117156e-02f,-1.14366964e-01f,
+2.31476352e-01f,+1.97985932e-01f,-3.97459604e-02f,+2.00614668e-02f,+3.30968387e-02f,
-3.44458878e-01f,-3.49781476e-02f,+1.09851293e-01f,+2.68507838e-01f,+1.96832746e-01f,
+2.82780249e-02f,-2.03435048e-01f,+1.21841736e-01f,-3.20351750e-01f,+7.53992051e-02f,
-4.40833382e-02f,+1.67643979e-01f,-3.03388774e-01f,+4.93709184e-03f,-9.37260166e-02f,
+9.27365869e-02f,+1.75599948e-01f,+4.09220643e-02f,-1.36591420e-01f,+8.10724276e-04f,
+4.54712398e-02f,-1.93302147e-02f,-8.70150104e-02f,+2.96068043e-01f,+1.97447717e-01f,
-1.80379748e-01f,-1.31807730e-01f,-3.22385460e-01f,+1.40851706e-01f,+1.20882280e-01f,
+2.22256035e-01f,-2.96339154e-01f,+1.10162407e-01f,+6.37829974e-02f,+6.58980682e-02f,
+7.10466281e-02f,-2.92170793e-01f,-7.22859204e-02f,+7.94027448e-02f,-1.44441828e-01f,
+8.12323242e-02f,+1.48482978e-01f,-7.88142383e-02f,+4.65154797e-02f,+2.97189116e-01f,
-2.36389875e-01f,+1.71764702e-01f,-4.28942479e-02f,+1.50480062e-01f,+1.17453955e-01f,
+4.79715735e-01f,-1.39528826e-01f,-3.21625266e-03f,-5.22015631e-01f,-1.09287612e-01f,
+3.31014916e-02f,-5.79126291e-02f,+1.10331319e-01f,+2.83136278e-01f,-1.41886681e-01f,
+3.64109129e-02f,-1.84502214e-01f,-8.58360231e-02f,-9.03537646e-02f,+2.44656682e-01f,
+2.65795767e-01f,+1.63790494e-01f,-7.61333574e-03f,+2.03717053e-01f,+9.81044993e-02f,
+7.56907240e-02f,-1.81988508e-01f,-9.46294740e-02f,+5.27150258e-02f,-3.99558246e-02f,
-1.50183290e-01f,+1.45358354e-01f,-6.37031719e-02f,+8.95791426e-02f,+1.38339356e-01f,
+2.49168053e-02f,+4.89879735e-02f,+3.87414366e-01f,-7.07206577e-02f,-3.15788329e-01f,
+2.71018088e-01f,+2.11326808e-01f,+1.61798999e-01f,+1.76986054e-01f,-6.79929554e-02f,
-1.85268581e-01f,-6.71014190e-02f,+2.29608178e-01f,-9.85015109e-02f,-3.74706328e-01f,
+1.33635640e-01f,+2.23121271e-01f,-1.77098155e-01f,-8.39019269e-02f,+1.89300969e-01f,
-1.56749144e-01f,-2.16470763e-01f,+2.65194476e-01f,-1.77870631e-01f,-1.30107865e-01f,
-1.45192862e-01f,+1.11834519e-01f,-2.32191160e-01f,-2.14683667e-01f,-1.42535388e-01f,
+9.71081555e-02f,-1.15370937e-02f,-2.96090633e-01f,+2.59700194e-02f,-7.38701969e-02f,
+3.59390583e-03f,-4.97471467e-02f,-5.37043549e-02f,-9.82277244e-02f,-5.36994636e-02f,
+1.88281238e-01f,+3.60573456e-02f,-4.40596491e-02f,+1.28959894e-01f,+2.20739648e-01f,
-1.18584216e-01f,-1.16076253e-01f,-1.05477549e-01f,-1.96855888e-02f,-2.42645398e-01f,
+9.14326459e-02f,-4.10331152e-02f,+2.01079682e-01f,+1.78793833e-01f,+1.35413706e-01f,
+1.91412866e-01f,-6.66096807e-02f,-1.48653463e-01f,+1.47998750e-01f,+1.76288620e-01f,
-9.83899981e-02f,+2.28139624e-01f,+2.51626879e-01f,+4.26825248e-02f,-1.25224069e-01f,
+1.54041111e-01f,-2.00452790e-01f,+1.70904815e-01f,-1.19078688e-01f,-1.69942871e-01f,
-1.48462176e-01f,+2.51408249e-01f,-2.25269094e-01f,-2.79122949e-01f,+1.48688719e-01f,
-5.26875854e-02f,-2.90933788e-01f,-4.20195647e-02f,+3.23568843e-02f,+5.38859889e-02f,
-1.62797377e-01f,+6.47898344e-03f,-4.02640194e-01f,-8.58253017e-02f,+1.25418723e-01f,
+4.68068905e-02f,-2.53507942e-01f,+4.09944728e-02f,-1.96277007e-01f,-1.26394376e-01f,
+1.53086379e-01f,+5.01532368e-02f,-4.19959910e-02f,+4.17748928e-01f,-1.30215719e-01f,
+1.78708330e-01f,-2.04907075e-01f,+1.38960287e-01f,-2.17293218e-01f,+7.80203864e-02f,
-3.22611965e-02f,-1.73162058e-01f,-7.18599884e-03f,+2.68782914e-01f,+1.29211769e-01f,
+4.26775426e-01f,-3.66415903e-02f,+3.77233215e-02f,+2.53124218e-02f,+2.88164020e-01f,
-1.50395911e-02f,+1.06596336e-01f,+2.32887641e-01f,-9.11391228e-02f,+3.40354703e-02f,
+2.26322025e-01f,+2.08745852e-01f,+2.64385104e-01f,-4.66643199e-02f,-3.67173165e-01f,
-1.78051084e-01f,+2.55744934e-01f,-1.41593575e-01f,+1.46406189e-01f,-4.56232041e-01f,
-1.42099440e-01f,-2.11790577e-02f,-2.99258620e-01f,+1.19761765e-01f,-4.58929598e-01f,
-3.47922370e-02f,-9.20355767e-02f,+2.19920248e-01f,-2.50437349e-01f,+5.39488792e-02f,
-1.33062586e-01f,+3.59351262e-02f,+5.66424280e-02f,+1.53309748e-01f,+1.63617209e-02f,
-6.23496115e-01f,+2.61070430e-01f,-7.25388080e-02f,+8.14582109e-02f,+1.09364554e-01f,
+1.94381952e-01f,+4.30799961e-01f,+3.92259471e-02f,+1.90515712e-01f,+6.18672609e-01f,
+8.09855163e-02f,-2.39257142e-01f,+6.77449554e-02f,+1.85920224e-01f,+6.60769828e-03f,
-9.08272341e-02f,-3.68531495e-02f,-2.56511401e-02f,-2.08098561e-01f,-3.00743319e-02f,
+1.04040191e-01f,+3.89479607e-01f,+1.63732469e-01f,-7.67975599e-02f,-1.61208436e-01f,
+3.19121510e-01f,+2.95275033e-01f,+1.27347156e-01f,+3.33070122e-02f,+9.05025899e-02f,
+7.34209269e-02f,+7.72543624e-02f,-3.88175473e-02f,-7.36234710e-02f,-1.77742857e-02f,
-6.62668124e-02f,-1.08871982e-01f,+1.83883891e-01f,-5.62790185e-02f,-8.90441015e-02f,
+1.29326850e-01f,+7.25889131e-02f,+1.15646198e-01f,-6.30044146e-03f,-2.66026497e-01f,
+2.63805002e-01f,+2.70203524e-03f,-1.26703799e-01f,+9.65598226e-02f,-1.84796259e-01f,
+1.32475078e-01f,+5.07894605e-02f,-3.36050317e-02f,-4.07836661e-02f,-1.06725588e-01f,
+9.54151824e-02f,+4.46858108e-02f,+4.76439903e-03f,+5.37640788e-02f,-8.86491239e-02f,
-1.13231704e-01f,+6.40989244e-02f,+3.82639654e-02f,-6.71383515e-02f,+2.21717685e-01f,
+3.80378887e-02f,+9.54779908e-02f,-3.01203698e-01f,-1.34251818e-01f,-5.00155874e-02f,
+6.93183765e-02f,-1.55258998e-01f,+1.95014216e-02f,+9.73353237e-02f,-1.62626907e-01f,
+7.76144937e-02f,-5.87836467e-02f,+1.07104391e-01f,-1.81117684e-01f,-1.27929136e-01f,
+2.05932647e-01f,+2.18596905e-01f,-1.25583306e-01f,+1.21843191e-02f,+9.33932140e-02f,
+1.17520846e-01f,+1.12677954e-01f,+1.14530422e-01f,+8.84521902e-02f,-1.70755871e-02f,
+1.80651709e-01f,-2.29720056e-01f,+3.04096974e-02f,+4.38663438e-02f,+1.01577170e-01f,
+1.61976203e-01f,-3.41538228e-02f,-4.19023447e-02f,+1.14280567e-01f,+7.88141564e-02f,
-1.71063721e-01f,+2.56082803e-01f,-9.01584178e-02f,+2.09088065e-02f,+1.30051062e-01f,
-3.37611943e-01f,-2.42434487e-01f,+1.74493760e-01f,+1.94292039e-01f,+5.80469929e-02f,
+2.16076657e-01f,+3.73550475e-01f,-7.07169920e-02f,-1.60960987e-01f,+1.19783312e-01f,
-1.88176125e-01f,+2.87526637e-01f,-1.39734335e-02f,-7.09881112e-02f,+7.89255574e-02f,
-3.85097265e-02f,+2.22914204e-01f,+8.83620679e-02f,-6.04623482e-02f,-6.66054897e-03f,
-9.98128951e-03f,-3.24215412e-01f,-2.78407842e-01f,-1.84448421e-01f,+3.45272928e-01f,
-2.54539460e-01f,+1.27744868e-01f,+9.04753357e-02f,+1.86886981e-01f,-1.59495518e-01f,
+2.50853688e-01f,+1.84194893e-01f,+2.59827316e-01f,+1.90721810e-01f,-3.21058184e-02f,
+2.84480304e-01f,+5.37565410e-01f,-4.93106805e-02f,+3.82795930e-02f,-2.87300825e-01f,
+3.05337936e-01f,+1.39883943e-02f,+3.77353504e-02f,-1.98698729e-01f,+1.86634570e-01f,
-1.56300589e-01f,-1.16695091e-02f,-6.68802438e-03f,+2.01127380e-01f,+4.20125186e-01f,
+2.41374642e-01f,+1.11617714e-01f,-4.62251976e-02f,-1.42698810e-01f,-3.04068029e-01f,
+1.63093284e-01f,-1.75942272e-01f,+1.39280334e-02f,+4.85722907e-02f,-1.00677766e-01f,
+9.43298861e-02f,+3.28650698e-02f,-8.88275057e-02f,-1.66697390e-02f,+4.71997485e-02f,
+1.40303120e-01f,+3.36879402e-01f,+1.74109668e-01f,+3.27438489e-02f,+2.82074183e-01f,
+2.24098369e-01f,+1.43953157e-03f,+6.83676898e-02f,+5.92683554e-02f,+1.22783661e-01f,
+2.48160344e-02f,+8.67656171e-02f,+1.05889641e-01f,-2.73997989e-02f,+2.92773575e-01f,
+1.04449265e-01f,-6.37037098e-01f,-8.82697552e-02f,-5.20243347e-02f,+3.08001717e-03f,
+9.24109071e-02f,+1.81058213e-01f,-1.35770917e-01f,-1.13989465e-01f,+3.40134114e-01f,
+1.69556499e-01f,-1.27545357e-01f,+9.89161357e-02f,+1.47879750e-01f,+3.95373046e-01f,
+1.44632667e-01f,-1.66436806e-01f,+1.06133215e-01f,-1.52053759e-01f,+1.95787713e-01f,
-5.22862375e-03f,-1.04465492e-01f,+8.33824351e-02f,+1.86885267e-01f,+1.55533170e-02f,
+6.74547926e-02f,+3.56628925e-01f,-2.05174163e-02f,+2.48296067e-01f,-1.89959221e-02f,
-1.64898932e-01f,+1.83678791e-01f,+1.18658133e-01f,+4.16119508e-02f,-2.71333270e-02f,
-1.63398832e-01f,+2.91940451e-01f,-6.38250187e-02f,+1.28829226e-01f,-1.34223059e-01f,
+1.12876415e-01f,+1.22454211e-01f,+2.50488460e-01f,-2.04012975e-01f,+2.87748203e-02f,
+2.46889256e-02f,+1.50552556e-01f,+4.99051154e-01f,+3.91574770e-01f,+3.52491513e-02f,
+8.72132555e-02f,-1.71933666e-01f,+1.07379705e-01f,-1.78663597e-01f,-2.35076278e-01f,
+1.04606286e-01f,+3.25599700e-01f,-1.62999958e-01f,+2.67823376e-02f,+4.03512269e-02f,
+7.56330565e-02f,+1.12037100e-01f,+1.72349676e-01f,-3.43395695e-02f,-2.21132398e-01f,
+1.12505153e-01f,+5.51610701e-02f,+4.28274237e-02f,+1.35717124e-01f,-2.14471981e-01f,
-3.55999172e-02f,-6.42818883e-02f,+1.88675686e-03f,+3.70911919e-02f,-2.17901066e-01f,
+1.31727636e-01f,+7.96739236e-02f,-1.67582989e-01f,+1.63615476e-02f,+1.27264455e-01f,
+1.79416001e-01f,+1.18020758e-01f,-5.54199040e-01f,-1.21458687e-01f,+1.31014138e-01f,
+2.12468565e-01f,-4.72996458e-02f,+4.33606328e-03f,+3.22451293e-02f,-1.30750015e-01f,
-1.64065287e-01f,-1.34289907e-02f,-2.86142170e-01f,-2.56815434e-01f,+5.36731221e-02f,
+7.00627789e-02f,-2.24638641e-01f,-7.97817782e-02f,-1.45430639e-01f,+1.71179295e-01f,
+2.24272087e-01f,-1.67155504e-01f,-2.41774529e-01f,+5.56365624e-02f,+1.34203374e-01f,
-2.32665226e-01f,-1.24113413e-03f,-1.43243417e-01f,-1.91977873e-01f,+1.78553730e-01f,
+2.28063479e-01f,-3.82168382e-01f,+1.92588285e-01f,+2.77837515e-01f,+7.75656998e-02f,
+1.25005674e-02f,+4.65409793e-02f,-9.73876566e-02f,-2.64756512e-02f,-7.05048963e-02f,
-1.06706858e-01f,+9.32948589e-02f,-3.31419349e-01f,-4.66396585e-02f,-8.94590914e-02f,
+1.61669366e-02f,+1.02180883e-01f,-1.20379776e-01f,+2.69866675e-01f,-3.40840183e-02f,
-1.96797937e-01f,-1.48436308e-01f,+3.41617048e-01f,-2.29742914e-01f,+1.63844362e-01f,
-2.19313018e-02f,-1.32547095e-01f,-7.26006553e-02f,-8.61683190e-02f,+1.52563304e-01f,
+3.13201278e-01f,-7.47614056e-02f,+8.14234391e-02f,-1.27124324e-01f,-5.06998785e-02f,
-1.77181125e-01f,+4.17097151e-01f,-2.29452755e-02f,-2.35295504e-01f,+1.16960384e-01f,
-1.74297512e-01f,+2.89584458e-01f,-3.38087790e-02f,-1.27936095e-01f,+1.94392145e-01f,
+2.66623199e-01f,+6.53996989e-02f,+7.49482661e-02f,-1.30872458e-01f,-1.75809458e-01f,
-1.23242408e-01f,-2.69687939e-02f,-1.66056961e-01f,-1.23656593e-01f,-6.46510869e-02f,
-1.39145479e-01f,+2.79835630e-02f,-2.36761346e-02f,-1.63199410e-01f,+2.28987068e-01f,
+2.77677387e-01f,-1.91225693e-01f,-1.13468736e-01f,+6.57489821e-02f,+5.92472591e-02f,
-1.04563625e-03f,+5.44862859e-02f,+1.99242935e-01f,-1.08615458e-01f,-2.39669919e-01f,
+1.10804625e-01f,+3.98349278e-02f,-3.76722574e-01f,+3.03853095e-01f,-3.89439970e-01f,
-1.69500843e-01f,+1.83589354e-01f,-1.10982522e-01f,+1.17548984e-02f,+1.04933619e-01f,
+1.63954213e-01f,+1.65319920e-01f,-1.69033691e-01f,-1.54237002e-01f,+1.34158283e-01f,
-2.64408588e-01f,+1.47040457e-01f,-4.43286896e-02f,+2.14762971e-01f,+5.50947189e-02f,
+8.21824595e-02f,-4.67257798e-02f,-4.94383462e-02f,-6.08641244e-02f,+8.10070336e-02f,
+8.24821964e-02f,+1.20908491e-01f,+2.55965628e-02f,+9.27641690e-02f,+2.05056537e-02f,
-1.66156039e-01f,+2.44180113e-01f,-2.27047950e-01f,+1.33384243e-02f,-1.28577426e-01f,
-2.30935812e-02f,+1.41806543e-01f,+1.13317057e-01f,+1.70086905e-01f,+6.51279688e-02f,
-2.21106820e-02f,+2.50722408e-01f,+3.28790694e-02f,-8.00454244e-02f,-1.72618523e-01f,
-1.49473548e-01f,-1.69856474e-02f,+6.64290041e-02f,+7.85116479e-03f,-2.30905160e-01f,
-2.28678823e-01f,-1.24620190e-02f,-2.87509244e-02f,-6.11953475e-02f,+1.47353470e-01f,
-9.77761671e-03f,-1.16028935e-01f,-4.53179255e-02f,-2.24691816e-02f,+8.25614333e-02f,
-5.81666827e-02f,+4.98682857e-02f,+4.01022106e-01f,+2.82238442e-02f,+1.37780800e-01f,
+2.93767042e-02f,-1.51980268e-02f,+1.38567586e-03f,+1.12180777e-01f,-1.18349239e-01f,
-6.79170899e-03f,+1.00035727e-01f,+2.00622752e-01f,+3.85084487e-02f,+1.78430215e-01f,
-2.71485925e-01f,+1.46909639e-01f,-2.21760258e-01f,+3.01208347e-01f,+1.52039334e-01f,
-9.15785506e-02f,-9.48066935e-02f,+2.41226777e-01f,-3.58151607e-02f,+3.69882137e-01f,
+7.07730278e-02f,+8.94517079e-02f,-1.25612333e-01f,-2.48750359e-01f,+1.43838273e-02f,
-1.56473622e-01f,-2.02676326e-01f,-3.81771587e-02f,+4.19946074e-01f,-7.90090188e-02f,
+2.32892465e-02f,+4.12111282e-02f,-8.89426693e-02f,-1.64102942e-01f,-5.52722774e-02f,
-3.20489109e-01f,-4.68917787e-02f,-1.88401848e-01f,-4.34123874e-02f,-1.54490873e-01f,
+1.12396544e-02f,-1.73761532e-01f,+1.82433724e-01f,-7.05985427e-02f,+1.73194781e-01f,
-2.53432970e-02f,+2.08199630e-03f,+2.25774676e-01f,-1.31595373e-01f,+2.46661186e-01f,
+3.42151001e-02f,+1.00473933e-01f,+1.53003233e-02f,+9.86156017e-02f,+2.10503832e-01f,
-1.27811402e-01f,+1.39671415e-01f,+4.64325100e-02f,+1.59487203e-01f,-4.12931025e-01f,
+1.77572057e-01f,+6.14660084e-02f,+2.73652762e-01f,+1.88032955e-01f,+4.62197252e-02f,
-2.15149694e-03f,+7.09665269e-02f,-4.24004383e-02f,+7.76500106e-02f,+9.98650491e-02f,
+7.65498281e-02f,-6.30879104e-02f,-2.78023258e-03f,+2.22458735e-01f,+2.16980755e-01f,
-7.28491470e-02f,-1.14563631e-03f,-1.57506317e-01f,-2.17306331e-01f,-2.70823482e-02f,
+1.02165520e-01f,-1.11943848e-01f,-1.13052145e-01f,+6.51705191e-02f,-1.19157799e-01f,
-1.89583212e-01f,+9.65623781e-02f,-1.03605956e-01f,+4.04208601e-02f,-1.42941415e-01f,
-1.74719244e-02f,+5.78529499e-02f,-2.21646205e-01f,-4.18822505e-02f,-7.42364973e-02f,
+3.83026004e-01f,+2.22595304e-01f,+1.47623941e-01f,-9.19333026e-02f,+1.14083461e-01f,
+1.32275417e-01f,+9.17842314e-02f,-5.52738085e-03f,+1.42434701e-01f,+6.24422058e-02f,
+9.43927765e-02f,-4.47572432e-02f,-2.96195839e-02f,-4.01910581e-02f,+2.57150203e-01f,
+1.27873868e-01f,-3.28084715e-02f,+6.12959787e-02f,-1.30385488e-01f,-4.58014123e-02f,
+8.75860080e-02f,+1.47951961e-01f,+5.24818972e-02f,-1.30051613e-01f,-2.93399990e-01f,
-2.56221294e-02f,+1.02366924e-01f,+2.37036478e-02f,+5.66378385e-02f,+2.87314653e-01f,
+1.76319420e-01f,+1.09936707e-01f,+1.07074589e-01f,-5.27678095e-02f,+1.16177611e-01f,
+4.45901826e-02f,-1.30484834e-01f,+2.56536186e-01f,+1.05125174e-01f,+2.78713554e-01f,
-4.65697907e-02f,+1.48414290e-02f,+1.39747918e-01f,+3.95577759e-01f,-5.11241099e-03f,
+1.01479843e-01f,+1.47937849e-01f,+1.36538655e-01f,+1.86731800e-01f,+2.03014061e-01f,
+5.27037755e-02f,+3.28343250e-02f,-2.81978790e-02f,+3.16677034e-01f,+2.10709244e-01f,
+1.06367454e-01f,+7.85159171e-02f,-4.80469838e-02f,+4.10960354e-02f,+2.00769320e-01f,
+1.33339539e-01f,-6.29984289e-02f,+1.61923692e-01f,-7.41403550e-02f,+2.51345426e-01f,
+1.83801666e-01f,-3.98636470e-03f,+1.81245834e-01f,-2.18764022e-01f,-2.58821934e-01f,
-8.15113559e-02f,+3.59546095e-01f,+5.76441735e-02f,+6.29469827e-02f,-4.25959378e-02f,
-1.04375772e-01f,-2.34786987e-01f,-7.29481578e-02f,+7.84546286e-02f,-3.29578691e-03f,
+7.14481771e-02f,+8.16671029e-02f,-4.01315019e-02f,+7.93556347e-02f,-2.17688069e-01f,
+1.14579111e-01f,-4.98003513e-02f,+1.24871962e-01f,-1.94004819e-01f,+1.48191806e-02f,
+1.15757406e-01f,+1.23426311e-01f,-1.82373390e-01f,+4.07938706e-03f,-6.98699653e-02f,
-8.18290859e-02f,-7.31803477e-02f,+1.91700026e-01f,+8.14858675e-02f,-7.60742649e-02f,
+4.73017134e-02f,-9.68644097e-02f,-9.15620252e-02f,-5.58593310e-02f,+5.80075011e-02f,
+2.48984516e-01f,+5.54400943e-02f,+1.95853814e-01f,-2.51624167e-01f,-1.63308620e-01f,
+9.70932618e-02f,+8.06238800e-02f,+2.93921053e-01f,+1.52697012e-01f,-7.52940699e-02f,
+1.03491358e-01f,+1.97495788e-01f,+3.41707736e-01f,-3.43646593e-02f,-5.35056740e-03f,
+1.13834813e-01f,-2.90704995e-01f,+7.78777227e-02f,+5.40765822e-02f,+1.31105573e-03f,
+1.20211609e-01f,-1.24242149e-01f,+2.05646068e-01f,+2.14308798e-02f,-5.88238537e-02f,
+2.48009250e-01f,+1.46703914e-01f,+1.35348132e-02f,-2.99317595e-02f,-1.39646158e-01f,
-7.72274882e-02f,+1.44538030e-01f,+1.38460994e-01f,-1.25693351e-01f,+1.00656196e-01f,
+1.00980416e-01f,+3.26932631e-02f,+1.51982680e-01f,+1.92090198e-01f,+5.59237553e-03f,
+2.64119923e-01f,-3.98320034e-02f,-1.13876328e-01f,+1.46037683e-01f,-4.92981188e-02f,
-3.19752768e-02f,+1.03734888e-01f,+1.09523542e-01f,+1.54552206e-01f,+1.13347255e-01f,
-1.33742735e-01f,-1.31318662e-02f,-1.77634388e-01f,+1.86908871e-01f,-2.34392602e-02f,
-8.32947046e-02f,-1.17293283e-01f,+9.91112739e-02f,+1.79141641e-01f,-1.24063037e-01f,
+5.10692634e-02f,-7.42509291e-02f,-6.29417524e-02f,+4.26794216e-02f,+6.82518929e-02f,
+9.37081426e-02f,+1.06882587e-01f,+1.43748552e-01f,-1.02969840e-01f,+4.16694134e-02f,
-2.12333158e-01f,-3.46259102e-02f,+1.56292655e-02f,-1.50896445e-01f,-6.66322485e-02f,
-2.30113678e-02f,-3.47184032e-01f,+1.80462688e-01f,-5.32333776e-02f,+7.12523684e-02f,
-2.09813312e-01f,-4.16436903e-02f,+7.65706226e-02f,+4.55325842e-02f,+2.98077557e-02f,
+5.38534634e-02f,+1.30096018e-01f,-1.76117033e-01f,-1.18977547e-01f,-6.04105629e-02f,
-1.47400111e-01f,-7.88437785e-04f,+2.74618287e-02f,+1.04294561e-01f,+3.21782738e-01f,
-9.42198094e-03f,+4.87258993e-02f,+1.06983475e-01f,-1.89042509e-01f,+6.91498294e-02f,
+8.53814632e-02f,-1.71941742e-01f,+1.96164578e-01f,-1.43915877e-01f,+6.90557109e-03f,
+1.65955096e-01f,-1.89452708e-01f,-5.39244749e-02f,-2.21576393e-01f,-9.54643190e-02f,
+2.50947732e-03f,-1.37653247e-01f,+1.56262264e-01f,+1.75058708e-01f,+2.13624075e-01f,
+1.89619988e-01f,-1.55586764e-01f,+3.01480200e-03f,-7.60343894e-02f,-4.98941951e-02f,
+2.09329218e-01f,-2.99175065e-02f,+1.95914686e-01f,+1.30653828e-01f,-5.29037379e-02f,
-1.24663621e-01f,-1.85319141e-01f,+1.15879849e-01f,-2.28161924e-02f,-2.13003382e-02f,
-1.59086287e-03f,+1.50145710e-01f,+6.88132271e-02f,+1.17703833e-01f,+1.90987080e-01f,
+8.52569714e-02f,+6.01872653e-02f,+1.47090092e-01f,-5.72967865e-02f,-9.48048197e-03f,
+9.28330794e-02f,+8.59665200e-02f,+9.87549648e-02f,+1.32790610e-01f,+8.62974972e-02f,
-7.77341425e-02f,-1.52471751e-01f,-9.37738344e-02f,+1.00943036e-02f,+1.54954553e-01f,
-2.00403050e-01f,+1.58117920e-01f,+1.21528864e-01f,-2.16443390e-02f,+7.23777264e-02f,
+1.65289283e-01f,-1.76717803e-01f,-5.10477871e-02f,+2.25935996e-01f,+1.08990625e-01f,
+6.95414543e-02f,+2.86221728e-02f,-6.15466200e-02f,-3.66333537e-02f,+4.59479280e-02f,
+7.82143921e-02f,+1.23775624e-01f,+6.72385171e-02f,+1.18705615e-01f,-8.44854489e-02f,
-1.22493044e-01f,-2.48955609e-03f,-1.46976672e-02f,+1.04980461e-01f,+1.20094843e-01f,
+1.11014303e-02f,+1.41449660e-01f,+1.46044781e-02f,+6.55070022e-02f,-1.52329743e-01f,
-8.22829269e-03f,+2.37399727e-01f,-4.75041494e-02f,+4.19685915e-02f,-9.63611752e-02f,
+1.18030915e-02f,+1.03265032e-01f,-1.61943629e-01f,+5.18200248e-02f,+1.52772069e-02f,
-2.46998817e-02f,+4.95603532e-02f,+3.20074633e-02f,-9.48223919e-02f,-2.74543986e-02f,
-3.04711014e-02f,-2.77401283e-02f,+2.58125812e-01f,-1.22116908e-01f,+3.67913283e-02f,
+1.27302259e-01f,-3.10036144e-03f,-1.88439563e-01f,-5.87252229e-02f,-2.41572946e-01f,
-1.03124976e-01f,+1.28958344e-01f,-3.40893529e-02f,-1.58516183e-01f,+9.79949627e-03f,
-1.20307207e-01f,-3.14056687e-02f,+2.44467705e-02f,+1.16347007e-01f,-1.17330506e-01f,
+1.09298237e-01f,-4.29272205e-02f,-2.76339799e-02f,-3.44711304e-01f,+1.01685941e-01f,
+1.14500728e-02f,+8.65629390e-02f,+1.39053240e-01f,+1.66401803e-01f,-4.03806567e-02f,
+2.22511850e-02f,+2.44941026e-01f,+7.39828125e-02f,-2.10657507e-01f,+3.20455760e-01f,
+8.34455416e-02f,-3.81860211e-02f,-3.38511728e-02f,-4.40478288e-02f,-1.22777306e-01f,
+1.26388997e-01f,-3.40603627e-02f,+4.57382388e-02f,+1.03863291e-02f,-8.23771283e-02f,
+1.40072837e-01f,+1.16820544e-01f,+4.50066850e-02f,+5.02867810e-02f,+8.37800950e-02f,
-1.73699167e-02f,+1.59797713e-01f,+1.31540388e-01f,-6.11016825e-02f,-1.00355916e-01f,
+1.63362212e-02f,-1.82054520e-01f,-2.06047878e-01f,-1.48009241e-01f,-6.74907789e-02f,
-9.00250301e-02f,-8.67587626e-02f,+3.42997238e-02f,+7.62980878e-02f,+1.96317792e-01f,
-5.87267689e-02f,+6.90324306e-02f,+1.62086576e-01f,-1.71140507e-02f,-1.26988292e-01f,
+5.86003289e-02f,+5.68985306e-02f,+1.91315949e-01f,+2.66240031e-01f,+1.83591638e-02f,
-2.58178357e-02f,+6.67262524e-02f,+2.41304021e-02f,-2.38258049e-01f,+1.72641575e-01f,
+2.38148406e-01f,-1.09040039e-02f,-6.61223456e-02f,+5.94165362e-02f,+1.24532826e-01f,
+2.87987828e-01f,-2.19033659e-02f,-5.43646738e-02f,-1.33462893e-02f,+2.48338580e-02f,
+1.54045343e-01f,-2.32732266e-01f,+6.16974421e-02f,-2.77955849e-02f,+3.23651433e-02f,
+1.62629649e-01f,+1.41798556e-01f,-1.59988925e-01f,-5.55937039e-03f,+1.36704490e-01f,
-1.18680492e-01f,+1.95647091e-01f,-1.86341569e-01f,+2.50513375e-01f,+4.37575839e-02f,
+1.56612322e-01f,-8.98207575e-02f,-8.44122842e-02f,+1.63063839e-01f,+5.85014597e-02f,
+1.16689160e-01f,-1.11808002e-01f,+7.56840408e-02f,+6.28502015e-03f,-3.72084603e-02f,
+1.15006641e-01f,+2.05030397e-01f,+4.42802198e-02f,-7.82226026e-02f,-7.64273331e-02f,
+3.08302883e-02f,-1.63610667e-01f,-5.40154539e-02f,-1.94515526e-01f,-1.09218834e-02f,
+1.37090653e-01f,+2.18206689e-01f,+1.65504038e-01f,-2.98204254e-02f,+9.84321348e-03f,
+1.78481981e-01f,+1.07530937e-01f,+1.21554866e-01f,+1.78795636e-01f,+5.53846769e-02f,
-1.19060151e-01f,+1.36085019e-01f,-3.89024243e-02f,+2.44334489e-01f,-2.90898293e-01f,
+5.20533770e-02f,-9.64152887e-02f,-8.96067321e-02f,-6.87480420e-02f,+5.71381375e-02f,
+1.22361362e-01f,-1.54827237e-01f,+9.43100527e-02f,-3.65377605e-01f,-1.81832001e-01f,
+3.61993760e-02f,+7.11469799e-02f,+5.84776029e-02f,+4.77747358e-02f,-8.69150534e-02f,
-8.07115659e-02f,-1.20625488e-01f,-1.96784697e-02f,+1.66579813e-01f,-2.60107107e-02f,
-1.24411859e-01f,+2.96530258e-02f,+2.10509285e-01f,-1.91947632e-02f,-5.15843891e-02f,
+1.33654281e-01f,+1.27537876e-01f,-1.04189895e-01f,-1.97949365e-01f,-1.47251248e-01f,
+1.44277140e-01f,+2.94004500e-01f,-2.03119740e-02f,-1.71075687e-01f,-7.41990134e-02f,
+1.67246580e-01f,+1.67960357e-02f,-6.56276643e-02f,+4.33740951e-03f,+1.77555874e-01f,
+1.91664889e-01f,+5.69052510e-02f,-5.17329313e-02f,+1.51442036e-01f,-2.32318804e-01f,
+1.10695601e-01f,-6.28979597e-03f,-1.15156703e-01f,+1.59577429e-01f,-1.06603153e-01f,
+6.29176125e-02f,+1.68771669e-01f,-1.18080892e-01f,+1.12969145e-01f,+1.39170721e-01f,
-1.33913355e-02f,+1.23899169e-01f,-1.37111440e-01f,-1.41441971e-02f,+4.71447408e-03f,
+1.98032543e-01f,+1.39609128e-01f,-1.36217354e-02f,-2.23578840e-01f,+1.17858194e-01f,
-3.21858414e-02f,-8.94264281e-02f,+1.56843245e-01f,+1.30994841e-01f,+6.00048639e-02f,
-5.24169467e-02f,-1.23581126e-01f,+2.32018568e-02f,-2.51258798e-02f,+2.10015234e-02f,
+1.27370775e-01f,+8.47033188e-02f,-8.07070881e-02f,+2.05699265e-01f,+1.49527537e-02f,
+9.42310877e-03f,+2.60258377e-01f,+2.17385024e-01f,-7.29340017e-02f,-3.01243931e-01f,
+2.37392094e-02f,+1.26830637e-01f,+1.62142828e-01f,-1.82523467e-02f,-7.84282163e-02f,
-1.99543610e-02f,-2.63957888e-01f,+2.37226605e-01f,-4.61852290e-02f,-2.88740367e-01f,
+8.80917013e-02f,+1.74798686e-02f,+1.90904111e-01f,+1.96919650e-01f,-2.69020140e-01f,
+5.32531105e-02f,-1.61631349e-02f,-2.24541396e-01f,+1.02723196e-01f,+2.79249281e-01f,
-1.56294219e-02f,+2.37558410e-02f,+1.84262395e-02f,+1.79091513e-01f,+1.64740980e-01f,
-6.09438904e-02f,-2.80436128e-01f,-4.64513712e-02f,+1.59892999e-02f,+4.03695032e-02f,
+5.69770718e-03f,-7.04391277e-04f,-7.09262416e-02f,-2.03166142e-01f,+4.71647270e-02f,
+6.37386590e-02f,+8.06064904e-02f,-7.75217712e-02f,+2.29355574e-01f,-3.21288913e-01f,
+2.58587688e-01f,-7.93029740e-02f,-1.96427461e-02f,-3.46564323e-01f,+5.53765409e-02f,
-1.68185622e-01f,-9.06048715e-02f,+3.35589312e-02f,+7.46907070e-02f,-1.02835231e-01f,
+1.48814484e-01f,+2.35753492e-01f,-3.21871880e-03f,+1.00717954e-01f,+2.60592494e-02f,
-2.33326972e-01f,+8.34004208e-02f,+2.35110447e-01f,-2.07258970e-01f,+5.65582141e-02f,
-2.94394437e-02f,-2.41007641e-01f,-1.84776142e-01f,+1.13934129e-02f,+1.25269935e-01f,
-7.92994723e-02f,+3.45375180e-01f,-3.38760540e-02f,+2.22004056e-01f,+7.66865909e-02f,
+4.32542004e-02f,-2.99427528e-02f,-3.14848199e-02f,+8.37645605e-02f,+1.12889290e-01f,
+2.66860500e-02f,-5.58603108e-02f,+3.13129015e-02f,-2.48721257e-01f,+1.72507629e-01f,
+3.91517803e-02f,+6.74643517e-02f,-2.16340311e-02f,+4.42842990e-01f,-2.39135567e-02f,
-6.90771453e-03f,+2.71451265e-01f,+4.96371053e-02f,+1.84175253e-01f,-9.23745055e-03f,
-2.02050954e-01f,+6.22892007e-03f,-1.61178455e-01f,-1.29634678e-01f,-2.80930221e-01f,
+7.07657710e-02f,-1.12643555e-01f,+3.05912308e-02f,+5.94254062e-02f,+1.92844152e-01f,
-1.28729735e-03f,-1.49494022e-01f,+5.52939959e-02f,+6.43740147e-02f,+2.67976858e-02f,
-7.65089095e-02f,+7.88980871e-02f,+3.40763964e-02f,+3.77623826e-01f,+1.16275460e-01f,
-1.14852749e-01f,+1.39214531e-01f,+9.72109064e-02f,-3.51095274e-02f,-1.88238230e-02f,
+9.33683291e-02f,+2.28385385e-02f,+1.12819433e-01f,+1.43731892e-01f,-1.35314669e-02f,
-6.97199181e-02f,-4.96994220e-02f,-9.09050927e-02f,-1.63197845e-01f,-1.39339894e-01f,
-1.61516204e-01f,-7.15419054e-02f,-1.58849284e-02f,+2.06181124e-01f,+4.81446087e-02f,
-1.84858918e-01f,-6.11291453e-02f,-3.78676578e-02f,+8.69028121e-02f,+9.20731351e-02f,
+2.07393572e-01f,-2.98958067e-02f,-1.58512741e-01f,-4.79547903e-02f,-1.10805564e-01f,
+7.20974132e-02f,-4.00904752e-02f,+1.58594474e-02f,-7.52741396e-02f,-2.43030023e-02f,
+7.98846856e-02f,+3.42748389e-02f,+4.35689799e-02f,+1.09612390e-01f,-1.04008377e-01f,
-1.66119053e-03f,-6.13508783e-02f,+5.17582856e-02f,+1.58808216e-01f,+3.50579396e-02f,
+8.83908719e-02f,+9.58918557e-02f,-1.01294152e-01f,+8.47112015e-02f,-1.69817135e-01f,
-4.90013212e-02f,+9.61207226e-03f,+5.29178828e-02f,+1.51360512e-01f,-1.18993364e-01f,
+2.35179573e-01f,+3.23799729e-01f,+1.32717893e-01f,+2.17586681e-02f,+3.95432934e-02f,
-1.56052381e-01f,+2.51808409e-02f,-5.62541597e-02f,+2.26207487e-02f,-1.90820394e-03f,
+1.53562710e-01f,+6.41033873e-02f,-1.11567415e-01f,-1.19523324e-01f,+5.98933399e-02f,
+1.10339604e-01f,+8.24728161e-02f,+1.97995320e-01f,+8.55900794e-02f,-2.32368223e-02f,
+2.18090430e-01f,+1.17136255e-01f,-1.33864939e-01f,-7.01542646e-02f,-1.49768233e-01f,
-6.34293817e-03f,+1.05559856e-01f,-3.57300378e-02f,-1.31552011e-01f,+2.41990760e-01f,
-1.12635188e-01f,+7.90937468e-02f,+4.35205176e-02f,+2.67964229e-02f,+9.81766433e-02f,
+1.48399755e-01f,-4.43267152e-02f,-1.90293327e-01f,+2.27447808e-01f,-1.95986643e-01f,
-5.45287468e-02f,+4.38204333e-02f,+3.87339324e-01f,-9.06560123e-02f,-1.13258250e-02f,
+8.41793045e-02f,+4.85224873e-02f,-4.76926658e-03f,+4.88320626e-02f,+1.39704362e-01f,
-6.62757680e-02f,-6.69903830e-02f,+1.05272107e-01f,+1.09827071e-01f,+8.01823735e-02f,
+5.26763778e-03f,+4.94253710e-02f,+1.90292493e-01f,+7.21638501e-02f,+1.37302345e-02f,
+2.75452994e-02f,-3.87777686e-02f,+2.02326942e-02f,-1.01166211e-01f,+6.08018935e-02f,
-1.99500456e-01f,+3.08940746e-02f,-8.10757279e-02f,-4.11896259e-02f,+1.75682381e-01f,
-6.37085661e-02f,-4.96983454e-02f,-2.01378703e-01f,-7.75940940e-02f,+1.76560715e-01f,
+6.39782250e-02f,+3.19944210e-02f,-1.53635576e-01f,+7.77017996e-02f,-1.60672262e-01f,
+1.40911698e-01f,+1.90106109e-01f,-2.21584573e-01f,-9.68732536e-02f,-2.86059398e-02f,
+6.00057021e-02f,-2.65699252e-02f,+4.08295169e-02f,-5.52926585e-02f,+6.53548613e-02f,
+1.34148926e-01f,-9.22485348e-03f,+1.45074055e-01f,-1.03684053e-01f,-9.15232152e-02f,
-2.60268953e-02f,+3.74714239e-03f,-9.66805220e-02f,+2.79460579e-01f,+9.45229903e-02f,
+3.19042392e-02f,+1.84301719e-01f,+2.57251356e-02f,-2.38665715e-01f,+1.87355280e-01f,
+2.36682687e-02f,-1.88181233e-02f,+4.59666997e-02f,-3.30669768e-02f,+2.75279492e-01f,
+1.81189492e-01f,+6.45881817e-02f,+1.36921573e-02f,-2.52289064e-02f,+7.82299861e-02f,
-7.75347650e-02f,+8.06722417e-02f,-6.22883067e-02f,-7.03274310e-02f,+3.47239012e-03f,
-5.20808622e-03f,+3.33327018e-02f,-1.96036786e-01f,-1.69971302e-01f,-2.82302015e-02f,
-1.31325245e-01f,-4.68970314e-02f,-1.37197599e-02f,+2.07542017e-01f,+2.86285281e-02f,
+7.73903206e-02f,+7.10631814e-03f,+2.01347806e-02f,-4.13048342e-02f,+6.43377611e-03f,
-1.60613749e-02f,+1.64785936e-01f,+2.83819959e-02f,+4.04196903e-02f,-1.28523082e-01f,
-1.42226228e-02f,-1.43311650e-01f,-3.67270820e-02f,-8.46799612e-02f,+1.51187498e-02f,
+7.85319805e-02f,-9.47821215e-02f,+7.88169503e-02f,-2.11484022e-02f,+4.52898303e-03f,
+1.24047920e-01f,+9.90006886e-03f,+1.47904918e-01f,-1.71195224e-01f,+5.96860657e-03f,
-2.45017670e-02f,-3.45166549e-02f,-2.40906149e-01f,-2.51844108e-01f,+6.66169077e-02f,
-1.26361281e-01f,+8.02200064e-02f,+1.22042254e-01f,-1.01365186e-01f,+5.60943596e-02f,
-3.88287343e-02f,-2.28988975e-01f,-5.21731451e-02f,-1.79967597e-01f,+5.69389984e-02f,
-2.85832435e-02f,-6.36886135e-02f,+2.35103473e-01f,+6.66126087e-02f,-4.42959070e-02f,
+6.24707155e-02f,+6.88388422e-02f,+1.71913281e-01f,-3.10716610e-02f,+1.78402662e-01f,
-8.23047236e-02f,-9.80229080e-02f,+6.71713650e-02f,-1.89100012e-01f,+1.94465488e-01f,
+1.02928951e-01f,+3.25838849e-02f,+1.68587208e-01f,-1.39680013e-01f,+4.64490466e-02f,
+7.50804832e-03f,-9.30581614e-02f,-3.92124057e-02f,+9.65208337e-02f,+1.67769473e-02f,
+2.01172903e-01f,+1.40978456e-01f,+8.65362212e-02f,+7.84502104e-02f,-1.36728525e-01f,
+1.87277403e-02f,-4.94226329e-02f,-5.31546175e-02f,+1.03838421e-01f,-1.06438220e-01f,
-2.66845506e-02f,-3.29972893e-01f,+2.13498533e-01f,-1.61611915e-01f,-8.27958062e-02f,
+9.14322361e-02f,+2.14948356e-01f,-1.47920594e-01f,-6.84785843e-02f,-6.06973022e-02f,
-8.51387829e-02f,+2.93127238e-03f,+4.51751575e-02f,+1.96111426e-01f,+6.85074925e-02f,
-9.30512175e-02f,-5.76850809e-02f,+2.59097755e-01f,+2.67042071e-01f,+7.45214447e-02f,
+7.62475356e-02f,+8.10265467e-02f,-3.83480154e-02f,-2.13460878e-01f,+1.55368686e-01f,
+3.16106886e-01f,+4.62206118e-02f,-9.81637686e-02f,-4.82700095e-02f,+3.52738619e-01f,
-2.54335031e-02f,+1.69471011e-01f,+7.30692446e-02f,-2.76273955e-02f,+1.04707725e-01f,
+5.87960146e-02f,+1.44846458e-02f,+2.11962134e-01f,+1.62422821e-01f,-1.11076154e-01f,
-1.22481436e-01f,-3.28668803e-02f,+6.19991049e-02f,+5.58806807e-02f,-6.85113147e-02f,
-7.69735649e-02f,-3.40674967e-02f,+1.06978752e-01f,+5.61092561e-03f,+1.92151144e-02f,
+1.77538559e-01f,+1.13529019e-01f,+1.97507724e-01f,+3.95381600e-02f,+3.40340883e-02f,
-1.68240324e-01f,+3.91893461e-02f,+3.88758443e-02f,-1.06774583e-01f,+1.09315552e-01f,
+4.49727364e-02f,+3.27657610e-02f,-1.14315972e-01f,-1.55236363e-01f,-1.52993783e-01f,
+6.44176602e-02f,-1.17905654e-01f,-9.08115357e-02f,+1.38429433e-01f,-1.09548531e-01f,
-8.83234944e-03f,+1.93185378e-02f,-6.54986650e-02f,-5.79126962e-02f,+5.70961684e-02f,
+7.83645734e-02f,+2.25935057e-01f,+9.00767744e-02f,+3.32590844e-03f,-1.24421693e-01f,
-4.89891544e-02f,-3.94692197e-02f,+5.23117185e-02f,+1.35306492e-01f,+5.59907705e-02f,
-1.95938116e-03f,-2.25838255e-02f,-2.59589583e-01f,-1.11710820e-02f,-1.65118963e-01f,
+1.76799431e-01f,-1.36583209e-01f,+7.06512555e-02f,-6.15939200e-02f,-2.15093885e-02f,
-2.87449043e-02f,+1.43668298e-02f,+1.52440757e-01f,+7.50312358e-02f,-7.23942518e-02f,
+8.94597098e-02f,-9.47650298e-02f,-1.55433133e-01f,+1.30331829e-01f,-4.66934554e-02f,
-2.96997726e-02f,+6.87630847e-02f,-3.65095632e-03f,+2.13888958e-01f,+1.77527472e-01f,
-1.16811991e-01f,+1.14037469e-01f,+9.83272418e-02f,-7.52042383e-02f,+3.79218385e-02f,
-4.42308094e-03f,+1.72130898e-01f,-4.59857838e-04f,-1.00464122e-02f,+1.11926153e-01f,
-1.29515186e-01f,+6.03746697e-02f,+1.34714961e-01f,+6.59335330e-02f,+6.24567680e-02f,
+4.75245379e-02f,+1.64495572e-01f,-1.14483587e-01f,-7.25017348e-03f,+2.03352068e-02f,
+1.80748135e-01f,+2.02788055e-01f,+6.39713332e-02f,+1.48239613e-01f,-1.80580437e-01f,
+9.37196612e-02f,-3.87276337e-02f,+8.91463459e-02f,+1.04559623e-01f,-1.01973556e-01f,
-7.61905359e-03f,+1.78756282e-01f,+2.65705828e-02f,+1.50782257e-01f,-1.62233487e-01f,
-1.29331246e-01f,-1.62774280e-01f,+1.55153111e-01f,-1.04646087e-01f,-8.06124061e-02f,
-2.28165593e-02f,+1.01290002e-01f,+8.84060189e-02f,+6.68147504e-02f,-1.21033497e-01f,
-4.53919768e-02f,+1.51574567e-01f,-7.49600157e-02f,+7.29836598e-02f,-1.61767360e-02f,
-1.29148617e-01f,+4.98938449e-02f,+5.95224798e-02f,+8.93359929e-02f,+1.48162216e-01f,
-7.93594718e-02f,+1.25203967e-01f,-5.47549576e-02f,-2.21214473e-01f,+1.29447311e-01f,
+1.94441959e-01f,-3.36727388e-02f,-8.73497725e-02f,-1.06689684e-01f,-3.96686606e-03f,
+4.05125096e-02f,-2.06964344e-01f,-1.14032775e-01f,+6.92824423e-02f,-5.24635464e-02f,
+2.19617531e-01f,+5.79333231e-02f,+1.69430282e-02f,+3.85107584e-02f,+1.15580186e-01f,
+1.25594050e-01f,+2.47010946e-01f,+8.42153057e-02f,-1.72385260e-01f,+6.93123136e-03f,
-2.39244159e-02f,-1.46726370e-01f,+2.46965811e-02f,-2.39450894e-02f,+9.08785984e-02f,
-1.69972721e-02f,+3.58887538e-02f,-2.26336241e-01f,+2.06271991e-01f,-1.18511193e-01f,
+4.58978787e-02f,+1.59926116e-01f,+7.56804198e-02f,+2.53789514e-01f,+3.61589752e-02f,
-4.53181155e-02f,+1.46330237e-01f,+2.46874407e-01f,+1.34486988e-01f,+8.98566842e-02f,
-1.66261643e-01f,-4.57445011e-02f,-1.63861096e-01f,+1.20698266e-01f,+8.35392624e-02f,
+1.03295825e-01f,+9.53542292e-02f,-1.14481121e-01f,+2.37225760e-02f,-1.21197239e-01f,
+3.90659459e-02f,+9.91204455e-02f,+9.75353178e-03f,+1.58343147e-02f,-1.08989619e-01f,
-1.10169180e-01f,-4.84360047e-02f,-2.65873838e-02f,-3.41395847e-02f,-1.13445884e-02f,
+1.22622363e-01f,-1.72739141e-02f,-1.18908502e-01f,+6.99859336e-02f,-3.56989279e-02f,
+6.93782419e-02f,-1.24523052e-04f,-2.52700690e-02f,+8.44704732e-02f,+2.67146174e-02f,
+4.86572422e-02f,+8.54495447e-03f,+1.83559224e-01f,+6.60473555e-02f,+1.30526349e-01f,
+1.95835769e-01f,+1.91635042e-02f,-2.10760772e-01f,+2.01887917e-03f,-9.34646279e-02f,
-7.63706416e-02f,-2.62103081e-01f,-1.60901040e-01f,+1.08928837e-01f,-2.74796300e-02f,
-1.17058992e-01f,+1.98407397e-02f,+5.83787151e-02f,+9.75937620e-02f,+7.21763223e-02f,
+6.14260063e-02f,-7.76384100e-02f,+8.43377784e-02f,+7.73099577e-03f,-1.60995230e-01f,
+1.77014053e-01f,-1.29966781e-01f,-7.91925341e-02f,-2.34174266e-01f,+1.82683527e-01f,
+1.96557224e-01f,-7.41913170e-02f,+1.46970287e-01f,+9.36127640e-03f,+7.11030290e-02f,
-6.91062585e-03f,+2.68984914e-01f,+2.32073531e-01f,-1.85206775e-02f,+4.32532765e-02f,
+1.49433509e-01f,+8.86444971e-02f,+3.22616026e-02f,+3.44502012e-04f,+8.27170983e-02f,
+1.13675170e-01f,+3.29601839e-02f,+1.23512208e-01f,-4.03957926e-02f,-8.40691477e-03f,
-6.65641129e-02f,-1.62868544e-01f,-2.08514810e-01f,-2.72256359e-02f,+3.30674499e-02f,
+1.17864467e-01f,+7.42829591e-02f,+1.67195246e-01f,-6.12113811e-02f,+4.86924499e-02f,
+4.69771251e-02f,-1.06524430e-01f,+5.84054627e-02f,-2.17661619e-01f,+3.93378101e-02f,
+6.48522004e-02f,+1.28526138e-02f,-1.31002963e-02f,+1.94349334e-01f,+2.66523310e-03f,
-1.26474679e-01f,-2.62774974e-02f,-3.74672972e-02f,-2.71006189e-02f,-1.11056291e-01f,
+1.06682003e-01f,-1.27818644e-01f,-5.71277216e-02f,+2.49050856e-02f,-9.23509523e-03f,
+3.53412889e-02f,-5.86016402e-02f,+2.55994778e-02f,-3.22522372e-02f,-5.01477011e-02f,
+2.84884810e-01f,+3.37115638e-02f,-1.20340601e-01f,+1.54467732e-01f,-6.79737404e-02f,
-9.42043439e-02f,+1.39184877e-01f,+8.63636360e-02f,-8.28658268e-02f,+9.19623002e-02f,
+4.93633337e-02f,+6.27183393e-02f,-1.14873216e-01f,-2.08177194e-02f,+6.23247959e-02f,
+1.00459553e-01f,-9.95457396e-02f,-7.84426108e-02f,-2.66639322e-01f,-8.47570449e-02f,
+2.09027559e-01f,+3.00325342e-02f,-3.48422001e-03f,+7.27165192e-02f,-2.85039276e-01f,
-3.00926864e-02f,+5.10546640e-02f,+9.65800136e-02f,-1.83562085e-01f,+2.53677517e-01f,
+4.75392491e-03f,+1.00752175e-01f,+2.19575450e-01f,+7.25163519e-02f,+1.29400775e-01f,
+9.28388461e-02f,-3.09777439e-01f,-7.50803053e-02f,+3.64270210e-02f,+9.10556912e-02f,
+1.05553009e-01f,-8.97814780e-02f,+4.51042242e-02f,+1.68887034e-01f,+1.40377238e-01f,
+9.42963660e-02f,-8.51525143e-02f,-5.02471738e-02f,+1.08766777e-03f,-3.89007106e-02f,
-1.89568564e-01f,+5.35693876e-02f,+7.03418776e-02f,-2.33567879e-02f,+7.06247166e-02f,
-2.48354953e-02f,-5.66742048e-02f,+3.07998732e-02f,-9.76677239e-02f,-1.23758018e-01f,
-1.30105643e-02f,+2.17743099e-01f,-4.33083698e-02f,+7.96380565e-02f,+2.66892184e-02f,
+1.48374036e-01f,-1.99132711e-01f,-7.62904063e-02f,+3.62163875e-03f,+2.49474049e-01f,
+2.39534862e-02f,+1.71535194e-01f,+4.83073033e-02f,-3.02648712e-02f,+7.03627616e-02f,
-5.02240807e-02f,-9.31177661e-02f,-1.05202608e-02f,+3.71573307e-02f,+3.00898254e-02f,
-8.42368081e-02f,-3.54183726e-02f,-1.16403319e-03f,-1.80882856e-01f,+3.08661982e-02f,
+1.78896457e-01f,+2.66522616e-01f,+3.86064798e-02f,-1.57701388e-01f,-1.64883018e-01f,
-8.66229236e-02f,+1.74778476e-01f,+8.84905830e-03f,-1.73149556e-02f,+8.73911306e-02f,
-2.26637293e-02f,+1.99343860e-02f,-1.90460980e-02f,+1.24740951e-01f,-1.10055402e-01f,
-1.88018620e-01f,+3.42600644e-01f,+3.02498817e-01f,+1.39362276e-01f,+6.05919883e-02f,
+2.67443091e-01f,+2.81755310e-02f,-8.88418704e-02f,-2.19455987e-01f,-1.58556353e-03f,
+3.76861752e-03f,-4.21328068e-01f,+1.65672094e-01f,+5.80238327e-02f,+4.23535794e-01f,
-3.38038653e-01f,+2.15348989e-01f,+8.90292525e-02f,+1.70602202e-01f,-2.55273700e-01f,
-3.12131420e-02f,-1.65463760e-01f,+3.13087553e-02f,+3.89752574e-02f,-1.26993865e-01f,
+1.55753702e-01f,+4.03487533e-02f,-4.35887910e-02f,+1.06277689e-02f,-1.26615942e-01f,
-2.31256932e-02f,+1.10928528e-01f,-6.00654110e-02f,+2.97804177e-01f,+8.47237930e-03f,
-3.40763107e-02f,-4.02732864e-02f,-2.11596847e-01f,+2.01607108e-01f,+3.28701913e-01f,
+2.62220055e-01f,+2.96619385e-01f,-1.81797164e-04f,-1.67260036e-01f,+2.71310434e-02f,
-4.89544645e-02f,+4.56939116e-02f,+3.50559838e-02f,+3.79388034e-01f,+2.33189553e-01f,
+1.94681987e-01f,-2.25895539e-01f,-2.09712535e-01f,-3.81850377e-02f,+1.19798124e-01f,
+1.31587490e-01f,-2.00496837e-01f,-1.95997924e-01f,-9.85924229e-02f,-2.90501088e-01f,
+2.90500578e-02f,+1.81312039e-02f,-1.20817073e-01f,-5.60501143e-02f,+1.75550327e-01f,
-1.66052222e-01f,+5.24192341e-02f,+9.17507708e-02f,-8.73606056e-02f,+1.14665106e-01f,
-3.38970870e-02f,+2.02630058e-01f,-3.39498445e-02f,+1.72466263e-01f,-5.33835404e-02f,
-5.21381199e-02f,+2.26888478e-01f,-2.17583314e-01f,+5.54059073e-02f,-4.84126121e-01f,
+7.51668140e-02f,+1.49493650e-01f,+1.31472245e-01f,-1.10556558e-02f,-3.17524254e-01f,
-2.53773425e-02f,+2.62260735e-01f,-5.44818975e-02f,+9.69654322e-02f,+1.44518226e-01f,
+3.44825536e-01f,+3.09152659e-02f,-5.52013367e-02f,-2.67294645e-01f,+2.66922444e-01f,
-3.53691876e-02f,+2.93200195e-04f,+5.52436888e-01f,-6.19756937e-01f,-3.25612910e-02f,
+2.68969148e-01f,+1.19863540e-01f,+9.99381915e-02f,-5.94241195e-04f,-1.46123230e-01f,
-3.90849635e-02f,-8.57230648e-02f,+7.12970272e-02f,-1.27317622e-01f,+1.47245631e-01f,
-1.61198333e-01f,+1.80644661e-01f,+1.23692462e-02f,-5.50921820e-02f,-1.14608079e-01f,
-2.72004344e-02f,+4.36430089e-02f,-9.01330188e-02f,+2.27493614e-01f,-2.80220479e-01f,
-5.17237261e-02f,+2.16000795e-01f,-2.90848225e-01f,+8.54533613e-02f,+4.44017835e-02f,
-7.36433044e-02f,+9.91083100e-04f,-7.95844868e-02f,+9.08609256e-02f,-2.82939762e-01f,
-6.41077235e-02f,+9.70603898e-02f,+7.81509131e-02f,+7.39602074e-02f,-2.42929548e-01f,
+2.75286119e-02f,+1.19832782e-02f,-1.21384390e-01f,-1.43060371e-01f,+1.19022481e-01f,
+6.67425767e-02f,-1.88336074e-01f,+1.59774870e-01f,+2.81381875e-01f,+1.08496644e-01f,
+5.55622242e-02f,+8.70253965e-02f,-6.13398338e-03f,-4.36712168e-02f,-1.00130521e-01f,
+1.84111848e-01f,+6.53736666e-02f,+1.28679559e-01f,-2.86404639e-01f,-6.82858229e-02f,
-1.72253370e-01f,+1.06475353e-01f,-2.41133615e-01f,-1.69229228e-02f,+2.45891452e-01f,
+3.22794765e-01f,-2.13716432e-01f,+9.38339680e-02f,-5.92476986e-02f,+8.27304497e-02f,
-4.20277901e-02f,+3.63087386e-01f,+2.61911780e-01f,-3.71150196e-01f,-3.85331661e-02f,
-2.31250748e-01f,-1.14149004e-02f,+3.72382725e-04f,+6.05067126e-02f,+5.66749461e-02f,
+4.99331951e-01f,+1.03324890e-01f,-1.27993345e-01f,-4.03503925e-02f,-3.27267759e-02f,
-8.22660774e-02f,-1.91628903e-01f,-1.80294633e-01f,-1.54871538e-01f,+2.92337358e-01f,
+1.44102916e-01f,-1.20114058e-01f,+3.96773703e-02f,+1.09302968e-01f,-2.48834819e-01f,
-7.00013265e-02f,+1.90654635e-01f,+1.55136827e-02f,+1.27074271e-01f,-1.50888219e-01f,
-9.39027667e-02f,-7.62787834e-02f,-5.08474484e-02f,+1.26592308e-01f,+1.61339656e-01f,
-1.46739915e-01f,+2.53568083e-01f,-5.10584041e-02f,+7.01993555e-02f,+7.65060633e-02f,
+3.23567130e-02f,+1.51194304e-01f,+2.06198096e-01f,-3.12814340e-02f,+3.52065861e-02f,
+2.55299449e-01f,-4.73565534e-02f,-9.64957774e-02f,+1.32255122e-01f,-2.54555702e-01f,
-8.73117521e-02f,+6.45083040e-02f,+2.06958652e-01f,-8.80761668e-02f,+5.32885827e-02f,
+4.48628664e-02f,+1.30315274e-01f,+7.66639486e-02f,+4.63851839e-01f,+6.55282289e-03f,
-6.04032800e-02f,+3.40865441e-02f,+1.38560891e-01f,+1.73057064e-01f,-1.44639760e-02f,
+4.30358388e-02f,+1.15882494e-01f,+9.95323583e-02f,+2.92547137e-01f,+4.22474407e-02f,
-4.14919220e-02f,+7.58727342e-02f,-5.11436053e-02f,-8.57313070e-03f,-5.52646369e-02f,
-5.23216613e-02f,-5.92968874e-02f,-7.16150850e-02f,-1.10785797e-01f,-1.23890854e-01f,
+2.93271303e-01f,+2.87789434e-01f,-2.67780542e-01f,-1.52057931e-01f,+1.29587531e-01f,
+8.17142427e-02f,-1.89478491e-02f,-2.04768241e-03f,-1.26282841e-01f,-4.02214438e-01f,
-3.15619111e-01f,+1.98266208e-01f,+2.52599865e-01f,-1.63526163e-01f,-2.30243072e-01f,
+2.34893724e-01f,-2.13832229e-01f,+2.66456485e-01f,-1.04384549e-01f,-7.90447579e-04f,
+7.78627992e-02f,+1.45862997e-01f,+3.99703011e-02f,-1.28755853e-01f,-2.82963458e-02f,
-9.18365419e-02f,-2.36057900e-02f,+2.32699967e-04f,-5.73480837e-02f,-7.88522586e-02f,
-2.80529000e-02f,-7.79318064e-02f,+9.45311561e-02f,+1.02936827e-01f,-3.13687593e-01f,
-8.97890925e-02f,+8.31009597e-02f,-1.29818872e-01f,+1.32577553e-01f,+3.46937269e-01f,
+6.54932037e-02f,+1.42645270e-01f,+6.91432804e-02f,+2.80959718e-02f,+2.42972188e-02f,
+7.25267008e-02f,-3.52780451e-03f,+1.82182103e-01f,+1.07377745e-01f,+1.27737477e-01f,
+3.97637635e-02f,+1.11281522e-01f,+7.79379830e-02f,+2.23634169e-01f,-3.89438542e-03f,
-3.22111323e-02f,+2.15987146e-01f,+1.00970000e-01f,+1.02918901e-01f,-1.13323644e-01f,
+2.09142536e-01f,-2.02298965e-02f,+2.22599387e-01f,-6.68752864e-02f,-4.52073850e-03f,
+2.10745156e-01f,-9.65748727e-02f,-1.63712248e-01f,+2.69660782e-02f,+1.81869313e-01f,
-7.19918981e-02f,+2.14215770e-01f,+9.49255899e-02f,-1.07187524e-01f,+1.09264683e-02f,
+2.71995291e-02f,+6.74019381e-02f,+9.44677144e-02f,-1.52340889e-01f,+1.48176521e-01f,
-3.60225956e-03f,+5.92536889e-02f,+4.18103009e-01f,+3.57997835e-01f,+1.58478647e-01f,
+1.21358782e-01f,-1.15142995e-02f,-1.40899122e-01f,+1.57086447e-01f,+1.18267536e-02f,
+3.45010906e-02f,+2.54865766e-01f,+1.22878626e-01f,-5.32136858e-02f,+6.33891970e-02f,
-1.36725217e-01f,+1.99858397e-01f,-1.42604917e-01f,-2.39407849e-02f,+5.12541831e-02f,
-6.66804090e-02f,+1.10824816e-01f,+2.30972450e-02f,-2.02373222e-01f,-1.59280002e-01f,
+3.93402964e-01f,+1.58729061e-01f,-1.08852573e-01f,-6.74113408e-02f,+3.37674655e-02f,
-4.04973999e-02f,-9.24164727e-02f,+2.00094551e-01f,+3.38573419e-02f,+7.07085282e-02f,
-1.14287309e-01f,+6.37119263e-02f,+2.01864894e-02f,-1.59512416e-01f,+8.24320838e-02f,
+2.13812143e-02f,-8.04522187e-02f,+3.26826304e-01f,+1.81529284e-01f,+1.17011942e-01f,
-2.45304003e-01f,+1.15595624e-01f,-5.93310483e-02f,+1.51217636e-02f,-1.85192317e-01f,
+9.29095000e-02f,+4.80922349e-02f,+9.16418135e-02f,+1.19165748e-01f,+1.35058284e-01f,
+5.55487489e-03f,+2.49833539e-02f,+1.29406182e-02f,+1.50340706e-01f,+6.14156760e-02f,
-2.62799822e-02f,-9.66319889e-02f,+4.31801416e-02f,+4.94584329e-02f,+1.49715235e-02f,
-3.29864949e-01f,-2.81483531e-02f,+4.73789964e-03f,-1.93884045e-01f,+1.25069037e-01f,
+3.21865171e-01f,+2.09669650e-01f,+9.04099569e-02f,+9.97569785e-02f,+8.42035413e-02f,
+2.64016151e-01f,+1.23488516e-01f,+1.37420565e-01f,-5.48026226e-02f,+1.35804579e-01f,
+7.82266259e-02f,-1.43037215e-01f,-8.09453279e-02f,+1.27043920e-02f,+2.95063071e-02f,
+7.31387511e-02f,-2.29309332e-02f,+1.05887242e-02f,+5.64569607e-02f,+1.29684880e-01f,
+1.05245717e-01f,+1.32575231e-02f,+3.50029975e-01f,+1.38286605e-01f,+3.96176398e-01f,
+2.61980534e-01f,-5.49779050e-02f,+1.30982801e-01f,-1.34340525e-01f,-1.13838175e-02f,
+3.38376500e-04f,-2.42412493e-01f,+6.60126507e-02f,+2.34312370e-01f,+6.85680062e-02f,
+3.55593977e-03f,-2.86153376e-01f,+1.80207551e-01f,+3.98775116e-02f,+6.58084676e-02f,
+3.48870814e-01f,+1.66280530e-02f,-2.60129059e-03f,+8.91851261e-02f,+1.52624678e-02f,
+1.51069731e-01f,+1.35204002e-01f,+1.63746685e-01f,+1.09904081e-01f,+2.63714790e-03f,
-6.33426160e-02f,-8.17449838e-02f,+2.71504223e-01f,+1.55281536e-02f,-4.82467609e-03f,
-2.31727213e-01f,+2.31946155e-01f,+8.57129768e-02f,+3.07987332e-02f,+1.80771679e-01f,
+2.23895833e-01f,+1.12284027e-01f,+8.29577744e-02f,-3.89161780e-02f,+1.26964748e-01f,
+1.28228039e-01f,+1.41066641e-01f,+1.66942388e-01f,-9.29086655e-02f,+1.61113679e-01f,
-1.49268433e-01f,-9.48014781e-02f,-2.38029078e-01f,-5.50752059e-02f,-2.36356501e-02f,
+1.43355936e-01f,+1.69560626e-01f,+1.39682770e-01f,+1.61586925e-01f,+3.01748723e-01f,
+2.06101835e-01f,+2.28340209e-01f,+3.07140827e-01f,+9.92355272e-02f,+3.17437612e-02f,
-1.23534143e-01f,+4.24813479e-02f,-1.08676806e-01f,+1.11022145e-01f,+6.41219243e-02f,
+9.65421572e-02f,-6.82521388e-02f,-1.05171792e-01f,+7.63956159e-02f,+1.13538824e-01f,
+3.75536941e-02f,+2.30704725e-01f,-9.25958157e-02f,-1.26275852e-01f,-1.74572933e-02f,
+1.43236339e-01f,+8.00339431e-02f,-1.87165700e-02f,+3.28268930e-02f,-1.31903306e-01f,
+2.59497780e-02f,-9.41073000e-02f,-7.30568171e-02f,-3.98436077e-02f,-6.83651073e-04f,
-1.32077262e-01f,+1.54365495e-01f,+1.34715941e-02f,-1.84709772e-01f,+1.02133658e-02f,
-1.34595528e-01f,-1.14982864e-02f,+2.48231087e-02f,+6.71996474e-02f,+2.79480785e-01f,
-7.58277401e-02f,+9.42128450e-02f,-1.24447092e-01f,+2.70400047e-02f,+1.11563690e-01f,
+8.38068202e-02f,+3.32851142e-01f,-5.21937199e-02f,-1.48003906e-01f,+2.97286183e-01f,
+2.05259025e-01f,+4.84911442e-01f,-2.79635619e-02f,-3.35230500e-01f,-2.33230695e-01f,
-1.63666844e-01f,-1.40264347e-01f,-1.61986649e-01f,+1.94166705e-01f,+1.49848491e-01f,
-2.39505675e-02f,+8.30947086e-02f,+2.51497835e-01f,-9.44904983e-02f,+1.33073358e-02f,
+5.64018190e-02f,+2.20518913e-02f,-4.62327478e-03f,-3.27657200e-02f,+4.13534306e-02f,
+5.55604063e-02f,+5.54585345e-02f,-3.77938598e-02f,+3.69012298e-04f,-5.63571900e-02f,
+1.77294284e-01f,+2.16154680e-01f,+1.43017145e-02f,+4.36070263e-02f,+1.23368919e-01f,
-4.87215184e-02f,+2.19021231e-01f,-7.75679573e-02f,-2.45601474e-03f,-2.66841166e-02f,
+3.33059460e-01f,+1.48286164e-01f,+7.12027326e-02f,+1.15651198e-01f,+4.57829773e-01f,
+2.75272489e-01f,+2.87588924e-01f,+9.33032185e-02f,+4.44147065e-02f,-5.57784252e-02f,
+2.28242189e-01f,+1.76210612e-01f,+2.97572017e-01f,-7.20465183e-03f,-2.43397262e-02f,
-1.55214565e-02f,+3.90458778e-02f,-8.70867670e-02f,+4.44231555e-02f,-6.96248412e-02f,
-1.01345137e-01f,-7.19082132e-02f,+6.75823465e-02f,-3.63784693e-02f,+1.99747570e-02f,
+5.34197725e-02f,-4.31526862e-02f,-1.03761047e-01f,-2.10358039e-01f,+1.36963874e-01f,
+2.35380884e-02f,+8.76955763e-02f,-9.02988911e-02f,+1.31814271e-01f,+2.55385906e-01f,
+1.40995746e-02f,+3.08918476e-01f,+4.64353040e-02f,+2.09409967e-01f,+1.28893092e-01f,
-1.10517099e-01f,-1.62957370e-01f,-2.68710917e-03f,+1.89174324e-01f,+1.92951590e-01f,
-9.09994245e-02f,+2.58068085e-01f,+2.70540677e-02f,-4.88560088e-02f,-6.50623739e-02f,
+1.50822297e-01f,-1.75226092e-01f,+1.24144979e-01f,+1.92999188e-02f,+1.02940068e-01f,
+3.45040187e-02f,-1.35747017e-02f,+7.25515932e-02f,+1.19750321e-01f,+1.28601134e-01f,
-1.61158204e-01f,+7.91974515e-02f,-2.46382266e-01f,-1.64600253e-01f,+1.51563406e-01f,
+1.06999211e-01f,+1.29660547e-01f,-4.82756197e-02f,+1.43462539e-01f,-6.30521253e-02f,
-3.18096802e-02f,+5.74851930e-02f,-7.66517371e-02f,+1.98903829e-01f,+6.03974275e-02f,
-2.01175764e-01f,-4.39205468e-02f,+8.93555582e-02f,+1.31650507e-01f,-2.45482311e-01f,
-7.14583769e-02f,+1.63560614e-01f,-1.75259575e-01f,+6.88460320e-02f,-8.76735523e-02f,
+7.90469199e-02f,-1.63374677e-01f,+1.98624562e-02f,+1.50222614e-01f,+2.32044030e-02f,
-7.93122947e-02f,+1.72900587e-01f,+3.23018789e-01f,+1.11546189e-01f,-5.24787456e-02f,
+1.82377800e-01f,-7.00827613e-02f,+2.40772411e-01f,+9.45878625e-02f,+1.82028249e-01f,
+7.74826854e-02f,-2.71561313e-02f,+4.53480892e-02f,-6.79832371e-03f,+1.02644220e-01f,
+1.58934712e-01f,-2.25387961e-02f,-9.79548693e-03f,-4.37409468e-02f,+1.05487585e-01f,
+1.30065188e-01f,+5.83015569e-02f,+1.14293978e-01f,+1.65090427e-01f,+3.06125313e-01f,
+5.03791384e-02f,+3.53954077e-01f,+9.02683809e-02f,-1.43786177e-01f,-5.80348559e-02f,
-6.79178238e-02f,+7.22743571e-02f,-1.80133134e-01f,+8.10530782e-02f,-6.44371957e-02f,
+2.12265477e-01f,+2.28361756e-01f,+6.03267588e-02f,+1.62607357e-01f,+2.21079700e-02f,
+1.93525180e-02f,+2.85719723e-01f,+2.75809228e-01f,-1.12357140e-01f,-1.70099080e-01f,
+3.82426381e-02f,-1.09015636e-01f,-2.43266970e-02f,-2.34425470e-01f,+2.97093004e-01f,
-1.83413148e-01f,+1.82965010e-01f,-2.00186335e-02f,-4.72532511e-02f,-9.72781703e-02f,
-2.77908333e-02f,+2.85752416e-01f,-1.58502981e-02f,+1.16495222e-01f,-1.44242458e-02f,
-7.26699978e-02f,+2.81643957e-01f,-4.32913229e-02f,-2.95689609e-02f,+1.58864990e-01f,
+1.96935743e-01f,-1.59207076e-01f,-1.01942867e-01f,-3.93818393e-02f,+1.53160505e-02f,
+3.38010378e-02f,+1.31500840e-01f,+9.28470194e-02f,+1.63893417e-01f,-8.53141770e-03f,
+2.11863995e-01f,+7.71640614e-02f,+5.61089776e-02f,+2.25105152e-01f,+1.28967449e-01f,
+9.89423916e-02f,+1.04665138e-01f,-8.30948949e-02f,+4.42815945e-02f,-6.06350899e-02f,
+2.05570944e-02f,-1.12563528e-01f,+1.74181610e-01f,-1.35297567e-01f,+1.43558428e-01f,
+2.38269955e-01f,-7.00495811e-03f,-1.53596967e-01f,-3.29941511e-02f,+3.54722664e-02f,
-2.99687475e-01f,-3.53549719e-02f,-4.98223118e-02f,-1.22897990e-01f,+3.51018846e-01f,
-3.56722847e-02f,-2.14676070e-03f,+2.67761666e-02f,+9.83949527e-02f,+2.31402576e-01f,
+1.13383681e-01f,+8.71212333e-02f,+1.80012017e-01f,+4.36784402e-02f,-1.68136209e-01f,
+4.16978560e-02f,+1.43467812e-02f,+1.10376716e-01f,-1.07032470e-01f,+1.14493735e-01f,
-1.03774220e-01f,+1.56979755e-01f,-8.30698386e-02f,+3.74462865e-02f,+1.21027092e-02f,
+4.70367596e-02f,-4.44678683e-03f,-3.42655517e-02f,+8.51632878e-02f,+1.34554699e-01f,
+1.69177502e-01f,+3.24424624e-01f,-5.07771969e-02f,+9.01621953e-02f,-2.56658308e-02f,
+2.21369579e-01f,+1.55078411e-01f,+8.68649855e-02f,+1.07921459e-01f,-1.18312418e-01f,
-2.66645383e-02f,+4.42934707e-02f,-1.23942591e-01f,+1.07990116e-01f,-1.31554350e-01f,
+1.89721696e-02f,+4.42053005e-02f,-6.45682067e-02f,+2.31224015e-01f,+1.69172794e-01f,
-5.40466867e-02f,-5.17521985e-02f,-8.05250630e-02f,-1.61047250e-01f,-6.11727238e-02f,
+1.03358857e-01f,+9.85014886e-02f,-7.49889910e-02f,+3.29261333e-01f,-4.63962369e-03f,
+1.43880948e-01f,-1.57192707e-01f,+3.86572331e-02f,+9.52421874e-02f,+1.04013912e-01f,
-1.35831296e-01f,-1.13337785e-02f,-6.25150949e-02f,+2.00504791e-02f,-2.78486870e-02f,
-3.84100467e-01f,+1.34140149e-01f,+3.10868714e-02f,-7.79574290e-02f,+3.66050377e-02f,
+1.36443317e-01f,+1.87822565e-01f,+4.68584448e-02f,+2.67060161e-01f,-2.22544633e-02f,
+1.63518935e-01f,+1.29536614e-01f,+3.85823026e-02f,+1.62192136e-01f,+1.69872031e-01f,
-2.05597132e-01f,+6.69890419e-02f,-3.83084804e-01f,-1.58715084e-01f,+8.15179497e-02f,
+1.04836293e-01f,+8.78795013e-02f,+3.86106014e-01f,+1.11611471e-01f,-1.26167253e-01f,
+1.29494935e-01f,+2.53950730e-02f,-4.23558168e-02f,+9.46564302e-02f,-7.48204291e-02f,
+3.15911584e-02f,-3.71703833e-01f,+1.07299477e-01f,-1.01768933e-01f,-1.86727002e-01f,
-1.14400638e-02f,-7.27721900e-02f,-2.52024122e-02f,-1.18881643e-01f,-4.45618331e-02f,
+1.60418734e-01f,-9.11124349e-02f,+1.16605133e-01f,-4.18357216e-02f,-1.34398907e-01f,
+2.21180499e-01f,-1.89227775e-01f,+8.59131962e-02f,-2.17215475e-02f,+7.46678412e-02f,
+6.02445453e-02f,-3.71310264e-02f,+1.69235200e-01f,-1.33878618e-01f,+3.06410044e-02f,
-9.95751694e-02f,-1.37668088e-01f,+4.06145304e-03f,-1.06794521e-01f,-2.04303786e-01f,
-1.49983630e-01f,-3.36668760e-01f,-1.17707662e-01f,+1.89936742e-01f,+1.12601049e-01f,
+6.65166751e-02f,+1.55781955e-01f,-4.37648594e-02f,-7.56872073e-02f,+1.92356646e-01f,
+4.77359481e-02f,+5.44034084e-03f,+8.14482919e-04f,-1.13853313e-01f,+3.33037227e-02f,
-1.87144563e-01f,-7.05062822e-02f,-4.61002924e-02f,+3.03819209e-01f,+1.95318729e-01f,
-7.09017217e-02f,+3.41776967e-01f,+3.23601663e-02f,+8.08413997e-02f,-1.48142129e-01f,
-1.05722211e-01f,-4.52694260e-02f,-1.48408309e-01f,+2.27676090e-02f,-2.39745956e-02f,
+2.06670329e-01f,-7.59252533e-02f,+1.82318941e-01f,+2.22240519e-02f,-9.51426849e-02f,
-2.81837016e-01f,-1.68512240e-02f,+2.21950233e-01f,+1.88813880e-01f,-6.14647530e-02f,
-1.08945541e-01f,+1.46751449e-01f,+7.37055298e-03f,-2.36181989e-01f,-2.33735323e-01f,
+6.17896020e-02f,-2.86136955e-01f,+8.33314508e-02f,+1.96002603e-01f,+2.60989338e-01f,
+5.91631308e-02f,-1.45550504e-01f,-8.31926391e-02f,-2.24166423e-01f,+4.31434326e-02f,
-1.69754356e-01f,+2.57373098e-02f,+4.12217155e-02f,+1.85786873e-01f,+2.51075625e-01f,
-5.96950762e-03f,-7.48744830e-02f,-2.86973156e-02f,+7.81791136e-02f,-1.28478900e-01f,
-9.00045261e-02f,+2.03294437e-02f,+2.00629905e-01f,-1.92501228e-02f,+1.46129161e-01f,
+6.45283163e-02f,-8.80775675e-02f,-1.54090580e-02f,+5.28796054e-02f,-1.41037926e-01f,
+1.97422709e-02f,-2.17256807e-02f,+1.14380658e-01f,+9.50166732e-02f,+6.56745136e-02f,
+7.43333623e-03f,+1.76300913e-01f,-1.76057577e-01f,+2.28337705e-01f,-6.93229167e-03f,
-1.80928081e-01f,+3.21314096e-01f,-2.65850037e-01f,+1.13444582e-01f,+9.68356617e-03f,
+4.37774062e-02f,-5.67788333e-02f,+2.33859476e-02f,+9.02816430e-02f,-3.19894761e-01f,
+8.40068737e-04f,+1.78549200e-01f,-6.88952999e-03f,-2.23032627e-02f,+9.15179774e-02f,
-1.01398140e-01f,-2.25336760e-01f,-3.13352793e-02f,+2.96850413e-01f,+2.87512630e-01f,
+3.69113274e-02f,-1.34879842e-01f,+6.21133894e-02f,+9.12983567e-02f,-8.41888711e-02f,
-2.53988445e-01f,-4.29747790e-01f,+9.37336534e-02f,-1.33428918e-02f,-1.14826716e-01f,
-6.34773970e-02f,+1.51936263e-01f,-1.29885897e-01f,-4.96176258e-02f,+1.30757689e-01f,
-2.30942577e-01f,+1.60449415e-01f,-1.61042437e-01f,-5.11994474e-02f,+7.33025968e-02f,
-9.93996859e-02f,+4.81627770e-02f,+2.95496345e-01f,+2.22860307e-01f,-1.77554451e-02f,
-3.30898911e-02f,-3.89223173e-03f,-1.34388119e-01f,+5.13609983e-02f,-9.53219533e-02f,
-5.21087870e-02f,+7.12021589e-02f,+1.28796130e-01f,-3.22926119e-02f,-1.31515831e-01f,
+3.23776193e-02f,+1.21989042e-01f,-2.10609898e-01f,+1.40892133e-01f,-2.27782518e-01f,
-4.38426509e-02f,+7.45298266e-02f,+2.27554925e-02f,-4.54900190e-02f,+1.95972741e-01f,
+9.83650461e-02f,-7.89693221e-02f,+6.50580153e-02f,+1.67085096e-01f,+2.61073951e-02f,
+9.86074209e-02f,+1.12119876e-03f,-9.57886353e-02f,+2.96402127e-01f,-6.41443655e-02f,
-1.50771677e-01f,+1.23817436e-01f,+9.48419720e-02f,-5.71633019e-02f,+6.62596300e-02f,
+5.57766370e-02f,+1.85799852e-01f,+1.27843833e-02f,-2.47397497e-01f,+4.88286726e-02f,
-6.07486553e-02f,-5.52866496e-02f,-5.87928668e-02f,+3.77004594e-02f,+1.69452384e-01f,
-1.42696025e-02f,+3.96987945e-01f,-1.36211812e-01f,+5.12677729e-02f,-1.88041866e-01f,
+2.91127358e-02f,+2.16826677e-01f,+7.08337035e-03f,-2.44410783e-01f,+6.06447421e-02f,
-1.55992687e-01f,-2.64931768e-01f,+4.13084626e-02f,+1.89867646e-01f,+3.21842358e-02f,
+1.45276889e-01f,-3.04566741e-01f,-2.26946726e-01f,-1.33096784e-01f,+1.67768717e-01f,
+1.82177648e-01f,+1.65413931e-01f,-7.48781255e-03f,-3.42355728e-01f,+1.56861797e-01f,
-1.58875659e-01f,+2.13619247e-01f,+7.38379499e-03f,-1.75668731e-01f,-1.98869675e-01f,
+1.94301009e-01f,+6.76922500e-04f,-8.28886628e-02f,+3.69894117e-01f,-2.10191026e-01f,
-1.53209478e-01f,-1.60153463e-01f,+2.53009111e-01f,-1.00590378e-01f,+5.81312403e-02f,
+1.98923960e-01f,+3.41177471e-02f,+1.84044003e-01f,-3.58133018e-02f,-1.56945303e-01f,
-8.87136981e-02f,-4.99775231e-01f,-1.11394726e-01f,+4.90890630e-02f,+1.94737334e-02f,
-9.16954279e-02f,+2.49344967e-02f,+1.45175099e-01f,+1.07599124e-01f,+1.01233125e-01f,
+2.06720293e-01f,+1.03819795e-01f,-1.95466548e-01f,-7.46513009e-02f,+5.30387787e-03f,
+2.72576153e-01f,-1.14480235e-01f,-7.70880133e-02f,-7.92696849e-02f,-1.38394937e-01f,
-1.33353889e-01f,-3.01143397e-02f,-1.17461085e-01f,+1.81275383e-01f,+1.69109434e-01f,
+8.49522427e-02f,-3.41785550e-02f,+2.27592379e-01f,+7.22343251e-02f,-1.31927442e-03f,
-5.73619977e-02f,+2.46604607e-01f,+1.93331186e-02f,+1.50471330e-01f,-9.23934579e-02f,
+2.36514047e-01f,+8.18598717e-02f,-3.42876017e-01f,+5.57055362e-02f,-2.02142075e-02f,
+1.33462086e-01f,+1.53695783e-02f,-1.06179222e-01f,-2.96492446e-02f,+4.05686617e-01f,
+1.19120456e-01f,+5.44389784e-02f,+1.15390405e-01f,-1.20951623e-01f,-4.55136783e-02f,
+6.79966509e-02f,+1.84924901e-02f,-1.38551071e-01f,+2.93573588e-01f,-2.72584140e-01f,
-1.13154110e-02f,-3.86917032e-02f,-6.56023547e-02f,-1.11161344e-01f,+8.52439702e-02f,
+5.75683638e-02f,+1.71059772e-01f,+2.16921136e-01f,+2.89121181e-01f,+1.91705137e-01f,
-7.38527626e-02f,-2.03058198e-01f,+1.67435393e-01f,+1.20486774e-01f,+7.24247620e-02f,
+7.55805299e-02f,+2.04983547e-01f,-3.66747379e-02f,+5.13202883e-02f,+1.28915191e-01f,
+2.74666280e-01f,+8.33777487e-02f,+1.12567984e-01f,-3.23473546e-03f,+2.72788286e-01f,
+8.30152482e-02f,+7.91200623e-03f,+1.41834706e-01f,+3.97042669e-02f,-4.32004519e-02f,
+3.01112443e-01f,-1.29264072e-01f,-2.21254915e-01f,-1.49051100e-01f,-2.81710774e-02f,
-1.45836845e-02f,-1.58678815e-01f,-2.59515792e-02f,+6.29058704e-02f,+6.18748888e-02f,
+1.33572116e-01f,+3.74831796e-01f,+1.95301741e-01f,-7.14669179e-04f,+1.39773861e-01f,
+2.37170964e-01f,+3.10243405e-02f,-1.21758364e-01f,-2.54054397e-01f,+6.21855259e-02f,
+3.06434482e-01f,+8.27779621e-02f,+6.09232597e-02f,+6.41607791e-02f,-1.85416024e-02f,
+2.19228879e-01f,+4.87663457e-03f,+1.83175933e-02f,-2.21355110e-01f,-2.28541315e-01f,
+8.17483291e-02f,+5.29687013e-03f,+3.53417188e-01f,-1.15249380e-01f,+7.67110288e-02f,
+8.53542536e-02f,+4.24272008e-02f,-2.78415293e-01f,-7.59049505e-02f,+3.15075964e-01f,
-1.60379291e-01f,+1.37525186e-01f,-9.00236983e-03f,+3.32448721e-01f,+2.84624189e-01f,
-5.06616794e-02f,+2.02803463e-01f,+7.34552741e-02f,-4.73453589e-02f,-1.62807137e-01f,
+3.14193934e-01f,+1.45135492e-01f,+1.12757944e-01f,+1.18852034e-01f,+1.31870806e-01f,
-6.40726313e-02f,-1.34004671e-02f,-1.98691383e-01f,+2.80939359e-02f,-1.37641296e-01f,
-5.07234856e-02f,+1.37797236e-01f,+3.02006930e-01f,+2.71086723e-01f,+1.18754938e-01f,
+2.03334078e-01f,+1.52177170e-01f,+1.23483196e-01f,-8.78829286e-02f,+1.12622455e-02f,
+2.80290514e-01f,-2.79406041e-01f,+2.21864074e-01f,-2.61901878e-02f,+9.21027213e-02f,
+9.48651060e-02f,-7.54259080e-02f,-1.73611149e-01f,-2.70173848e-01f,+3.30858976e-01f,
+7.97225311e-02f,+1.00374892e-01f,-1.25216156e-01f,+1.00521386e-01f,+1.43375501e-01f,
+1.54621437e-01f,-1.78896561e-01f,+1.77547649e-01f,-2.38746002e-01f,-2.52333023e-02f,
+1.73329845e-01f,+2.44665965e-01f,-6.85883909e-02f,-2.08288115e-02f,+7.14807436e-02f,
-3.10708016e-01f,+2.42554657e-02f,+1.22162653e-03f,-1.04039110e-01f,+2.61700064e-01f,
-3.33904415e-01f,+3.83658409e-02f,-2.88402494e-02f,+1.00867465e-01f,+1.09683990e-01f,
-9.42423269e-02f,+5.34297079e-02f,+7.15835094e-02f,-1.26713291e-01f,-3.76682281e-02f,
+8.62533823e-02f,-2.63441801e-01f,-6.77990122e-03f,+3.61085117e-01f,+2.63523519e-01f,
+5.74577274e-03f,+9.43061560e-02f,-5.88698462e-02f,+9.25234035e-02f,-1.43446729e-01f,
-4.93622087e-02f,-2.63825823e-02f,-2.11836055e-01f,+1.77969579e-02f,+1.83076069e-01f,
-1.35272816e-02f,+8.75454694e-02f,-1.13942130e-02f,-1.45098254e-01f,+1.97556973e-01f,
+1.13728680e-01f,+2.14951336e-02f,+1.55033529e-01f,-3.60315055e-01f,+4.69587594e-01f,
+1.22343585e-01f,-3.34796682e-02f,+4.06106681e-01f,-2.29200963e-02f,-1.63195271e-03f,
+1.20412707e-01f,+7.12140054e-02f,-1.80280492e-01f,-4.27466393e-01f,-2.19538454e-02f,
+2.30310395e-01f,-2.19682187e-01f,-3.71108383e-01f,+2.17414111e-01f,-1.83375124e-02f,
+9.34987590e-02f,-4.63945121e-02f,+3.91428083e-01f,+8.21091309e-02f,+1.21216336e-02f,
-6.31325170e-02f,+1.60458997e-01f,+7.77328908e-02f,+1.89025268e-01f,-1.39146060e-01f,
-1.59294784e-01f,+1.55156001e-01f,-1.81656465e-01f,+4.08326626e-01f,+1.15766883e-01f,
-1.26989946e-01f,-2.27119848e-01f,-1.71309412e-01f,-1.64273024e-01f,+4.21840996e-02f,
-1.78372767e-02f,-2.56393820e-01f,+3.07359397e-01f,-3.27310003e-02f,-1.63635150e-01f,
-7.70362914e-02f,+1.46335676e-01f,+3.07343118e-02f,+3.51584196e-01f,+1.96745679e-01f,
-1.01825640e-01f,+9.92600024e-02f,+7.79315531e-02f,+1.42411232e-01f,+6.11283025e-03f,
+2.41212621e-01f,+1.44463787e-02f,-3.55278581e-01f,+1.43822327e-01f,-8.26761797e-02f,
+9.52597987e-03f,+1.96038485e-02f,-2.56583840e-01f,+1.52608799e-02f,-1.39138222e-01f,
-3.77396010e-02f,-4.99648117e-02f,+1.50993830e-02f,-2.57605352e-02f,+1.57570615e-01f,
+1.99183151e-01f,+1.92098171e-01f,-1.06822349e-01f,+3.11048534e-02f,+1.54668048e-01f,
-7.69413561e-02f,-1.17733240e-01f,+1.97449084e-02f,-7.48489201e-02f,-2.53941923e-01f,
-6.33671600e-03f,-2.60759860e-01f,-1.14979103e-01f,-2.37954836e-02f,-1.65345743e-01f,
+2.26858482e-01f,+1.26760200e-01f,-2.49102890e-01f,+4.70218360e-02f,-1.18832238e-01f,
-2.30639309e-01f,+1.54965520e-01f,+1.48901027e-02f,+2.88132399e-01f,-4.75693196e-02f,
+1.80595964e-02f,-4.82504927e-02f,-2.71557033e-01f,+2.96269834e-01f,-2.95844436e-01f,
+7.55197853e-02f,+6.01467155e-02f,+1.35564879e-01f,+1.46230999e-02f,-8.20267275e-02f,
-1.90602913e-02f,-1.31460682e-01f,-1.20137230e-01f,-6.34183139e-02f,-3.62569876e-02f,
+4.56856310e-01f,+1.96341723e-01f,+1.79199636e-01f,+2.88867950e-02f,+6.31277487e-02f,
+2.23070070e-01f,-2.14520752e-01f,-2.99481869e-01f,-9.68184322e-02f,-1.04769051e-01f,
+1.12545490e-02f,-1.26401288e-03f,+1.56663120e-01f,-9.85250920e-02f,-9.76582319e-02f,
+9.30751413e-02f,-1.11106738e-01f,-1.02646142e-01f,+8.24853927e-02f,+2.37390086e-01f,
-3.11743945e-01f,+1.06322072e-01f,+1.77591622e-01f,-2.06132174e-01f,+1.22847870e-01f,
-2.06083536e-01f,-1.78927466e-01f,+1.05112016e-01f,+1.26381084e-01f,-1.67007774e-01f,
-3.37103844e-01f,-1.13533758e-01f,+1.35543749e-01f,-5.85258231e-02f,+2.42372483e-01f,
-1.49060905e-01f,-6.80618957e-02f,+1.52222708e-01f,+8.72271955e-02f,+9.67544690e-02f,
+1.81162313e-01f,-1.64065406e-01f,+2.79719412e-01f,-3.39572012e-01f,-2.20411867e-02f,
-5.46734594e-02f,-5.32296253e-03f,-3.15886497e-01f,-1.34767562e-01f,-5.21032847e-02f,
+9.71256569e-02f,+1.79368615e-01f,-5.39660573e-01f,+1.72990382e-01f,+3.29690985e-02f,
+1.53586388e-01f,-1.40195936e-01f,+9.60814953e-02f,+4.60412912e-02f,+1.03441074e-01f,
-3.27562183e-01f,-2.04206437e-01f,+1.90468729e-01f,-8.49745348e-02f,+6.22120202e-02f,
+1.91573501e-01f,+3.51329334e-02f,+2.75860336e-02f,-1.58764228e-01f,+3.73842940e-02f,
+1.23760231e-01f,+1.74956694e-01f,-1.02536298e-01f,-1.51385784e-01f,+2.20995490e-02f,
-2.08901063e-01f,-3.27899307e-01f,+3.28758299e-01f,-3.07599336e-01f,+3.46511491e-02f,
-8.43443274e-02f,+2.02255398e-01f,+3.08742106e-01f,+1.22556344e-01f,+6.14913106e-02f,
-3.60437259e-02f,+2.62464583e-01f,+2.02598542e-01f,+3.57880332e-02f,+9.67711210e-02f,
+3.60806137e-01f,+5.20240776e-02f,-9.10292417e-02f,+2.14416921e-01f,-3.42650041e-02f,
+9.11446661e-02f,-8.38177875e-02f,+3.01476300e-01f,+5.94641119e-02f,-1.62299741e-02f,
-1.23025060e-01f,+1.09564722e-01f,-4.27674085e-01f,-1.12215728e-01f,-1.09075926e-01f,
+3.51470821e-02f,-4.31671366e-02f,-1.66169450e-01f,-1.21969230e-01f,-1.11383796e-01f,
+3.38180400e-02f,+9.03211311e-02f,-1.03819937e-01f,-1.12856187e-01f,-1.20040640e-01f,
-1.47827730e-01f,-2.58366704e-01f,-1.25708850e-02f,-2.03972951e-01f,-1.46307975e-01f,
-3.08408797e-01f,-7.07627311e-02f,+4.20081355e-02f,-3.74265283e-01f,-3.42304818e-02f,
+2.63976425e-01f,+9.03492495e-02f,+3.68660510e-01f,-6.15673549e-02f,-2.01621383e-01f,
+5.45478463e-02f,+1.88519835e-01f,-1.01218361e-03f,+2.68403124e-02f,-4.68600579e-02f,
+1.92840770e-01f,-1.41897976e-01f,-8.45585167e-02f,-3.40401560e-01f,+8.41748435e-03f,
+9.95595530e-02f,-2.84715258e-02f,+1.29447728e-01f,-4.39019985e-02f,-7.10916370e-02f,
-1.17232256e-01f,-2.06383809e-01f,-1.31058239e-03f,-9.64402629e-04f,+8.41999650e-02f,
+8.89712796e-02f,+1.98297873e-01f,+2.81888515e-01f,+4.71924990e-02f,-2.72350851e-02f,
+1.58401906e-01f,-3.58952880e-02f,-7.99941942e-02f,-1.98703811e-01f,+6.35936409e-02f,
+1.13301419e-01f,+4.07085456e-02f,-1.47967249e-01f,+1.25148803e-01f,-2.89312303e-01f,
-1.31667554e-01f,+7.72980899e-02f,+4.73776534e-02f,-2.59021968e-01f,+1.09199723e-02f,
-1.27376810e-01f,-2.10233703e-02f,+3.84695619e-01f,-1.13884538e-01f,+2.06259221e-01f,
+7.86601678e-02f,+1.81499515e-02f,+1.31924152e-01f,-5.90404309e-02f,+1.72329456e-01f,
-1.51549131e-01f,-1.22079581e-01f,-2.05896199e-02f,-5.66795133e-02f,+3.58565867e-01f,
-8.37325603e-02f,+2.49473378e-01f,-9.43297371e-02f,+4.14771080e-01f,-1.01408646e-01f,
+1.73069432e-01f,+3.64308655e-01f,-1.68363437e-01f,-1.43471316e-01f,+4.85987961e-02f,
-4.48617712e-02f,+1.37332582e-03f,+1.54432207e-01f,+2.72159755e-01f,-1.84521228e-01f,
-1.59732047e-02f,-7.63348886e-04f,-2.25894433e-02f,+2.14487448e-01f,+4.42980081e-02f,
+9.63503197e-02f,-1.60820931e-02f,-2.11876646e-01f,-1.26753598e-01f,-1.25178874e-01f,
+1.74349070e-01f,-2.35521011e-02f,-1.53772458e-01f,+1.40480036e-02f,+2.57281572e-01f,
-2.71145254e-01f,-7.91731253e-02f,+4.09916304e-02f,-6.05177060e-02f,+1.02479592e-01f,
-1.76242545e-01f,-1.31986827e-01f,-1.83578178e-01f,-3.43210176e-02f,-1.34173974e-01f,
+2.32412759e-02f,+1.74257621e-01f,+6.00660853e-02f,-2.71781594e-01f,+2.36482352e-01f,
-1.04067944e-01f,+2.74326298e-02f,+1.51704475e-02f,-4.76250827e-01f,-2.90987920e-02f,
+1.55734792e-01f,+3.87123823e-01f,+2.39087626e-01f,+2.14452535e-01f,-2.83387750e-01f,
-7.11143538e-02f,+7.31600001e-02f,-3.84092294e-02f,-1.20668910e-01f,-4.82222326e-02f,
+9.39336494e-02f,+3.47822726e-01f,-3.05878744e-02f,-2.58268975e-02f,-1.34190947e-01f,
+3.68965678e-02f,-2.36018792e-01f,+2.93853995e-03f,-1.87722221e-01f,+6.38425872e-02f,
+5.46185039e-02f,-1.52844444e-01f,-9.62343961e-02f,-3.78152691e-02f,-2.17470527e-01f,
-3.95567566e-02f,+1.01532869e-01f,-7.98047930e-02f,+4.09600735e-02f,+8.15357715e-02f,
+1.19549200e-01f,+7.97425583e-02f,-1.40081242e-01f,-2.50690579e-01f,+1.43313020e-01f,
-1.60894215e-01f,-4.08885026e-05f,-4.32709754e-02f,+6.88677356e-02f,-2.77948648e-01f,
-1.19902313e-01f,-1.66630223e-01f,-2.04498753e-01f,+2.84786317e-02f,-2.39415035e-01f,
-3.23348492e-02f,+1.07019469e-01f,-3.74348983e-02f,-1.44066900e-01f,+1.89684033e-02f,
-3.13519835e-02f,+2.18867976e-03f,+6.48169518e-02f,+8.15842003e-02f,+2.35637680e-01f,
+2.09113538e-01f,-9.12283659e-02f,-4.87738475e-02f,+1.40786786e-02f,+1.66625977e-01f,
-8.53715241e-02f,-8.67787376e-02f,-1.16516769e-01f,+2.13247985e-01f,-2.76303757e-02f,
-1.41082667e-02f,-2.32547000e-01f,-6.29755557e-02f,-1.72086194e-01f,-2.41137251e-01f,
+2.35015210e-02f,+2.70129442e-01f,+1.80523485e-01f,-8.97649080e-02f,-2.24139526e-01f,
+2.45823324e-01f,+1.92364585e-02f,+1.81209996e-01f,+1.43299554e-03f,+3.89951803e-02f,
-1.03982128e-01f,+1.08425289e-01f,+9.67401564e-02f,-5.77934422e-02f,+7.63690770e-02f,
-2.61899643e-02f,-1.66920081e-01f,-2.52490401e-01f,-7.75024444e-02f,-1.19849313e-02f,
-1.03237174e-01f,-2.69593209e-01f,-2.32212260e-01f,-1.98435381e-01f,+2.56049216e-01f,
+1.17925681e-01f,-1.65462732e-01f,-6.19581640e-02f,+1.36012184e-02f,-6.93050027e-02f,
+1.27490222e-01f,-9.92465243e-02f,-2.99793296e-02f,+3.03362869e-02f,-1.06539033e-01f,
-1.19340912e-01f,-1.21796176e-01f,+7.95966163e-02f,-8.98676962e-02f,+2.14664489e-01f,
-8.39635730e-02f,-1.16502851e-01f,+1.98886227e-02f,+9.26859602e-02f,-2.30221018e-01f,
-1.33222863e-01f,+4.36022952e-02f,+1.75101444e-01f,-1.79901093e-01f,-5.31794876e-02f,
+4.46556322e-02f,-1.60956904e-02f,-1.92436382e-01f,+1.82762116e-01f,+1.92220926e-01f,
+9.97390300e-02f,-1.78697154e-01f,+1.28155693e-01f,+1.22771740e-01f,+5.39357848e-02f,
-1.14151843e-01f,-8.81267115e-02f,-1.05859198e-01f,+2.38746762e-01f,+4.37377989e-02f,
-1.65600896e-01f,-2.92537004e-01f,+7.36936834e-03f,+5.55421459e-03f,+2.40687430e-02f,
-3.49658430e-02f,+1.81641623e-01f,-2.67846107e-01f,+4.42181453e-02f,-1.77281901e-01f,
-4.81911562e-02f,-7.76162967e-02f,-5.86869717e-02f,+2.13845018e-02f,+1.85302913e-01f,
+2.96765566e-01f,-6.62456304e-02f,-3.67650464e-02f,+1.27748728e-01f,-4.98787202e-02f,
-4.17203568e-02f,+3.61590609e-02f,-6.43757731e-02f,-2.69392550e-01f,+7.82346427e-02f,
+9.57387388e-02f,+2.69046992e-01f,-1.86943978e-01f,-2.96519369e-01f,+2.09658667e-01f,
+3.12714130e-01f,+5.55912331e-02f,-7.00939596e-02f,-1.73223525e-01f,+5.97867509e-03f,
-1.67795107e-01f,+1.25955656e-01f,-2.79668476e-02f,+2.68515348e-01f,+2.46217281e-01f,
+1.00493893e-01f,+3.15074354e-01f,-2.74028424e-02f,+1.57057315e-01f,-1.49878949e-01f,
+1.16467685e-01f,-5.39515279e-02f,-5.50114550e-02f,-1.33437529e-01f,+4.05554026e-02f,
-6.82648178e-03f,+1.04449265e-01f,-2.93243140e-01f,+7.60145187e-02f,-1.73247799e-01f,
-1.54963106e-01f,+1.10446326e-01f,+1.04111895e-01f,+2.78997153e-01f,+2.04730883e-01f,
-3.63284558e-01f,-3.21821302e-01f,+3.55048627e-02f,+1.83126509e-01f,-7.48660415e-02f,
+4.03309874e-02f,+2.07756609e-01f,-3.34549658e-02f,-3.68000604e-02f,+7.99034387e-02f,
+6.41003773e-02f,+3.02211568e-02f,+3.07119708e-03f,-6.94073066e-02f,+1.02666833e-01f,
-2.53014565e-01f,-4.74071428e-02f,+1.09688751e-01f,+6.57897592e-02f,+3.04948419e-01f,
+7.78539805e-04f,+9.24993679e-02f,+8.05203617e-02f,-1.39353231e-01f,-3.73130381e-01f,
-3.20164338e-02f,-2.42009625e-01f,+2.41876826e-01f,-1.97405368e-02f,-3.93796042e-02f,
-2.47140408e-01f,-1.77182049e-01f,+5.45212105e-02f,-1.52285425e-02f,+4.36965302e-02f,
-1.08851999e-01f,-3.06237359e-02f,+2.50001729e-01f,+8.48328620e-02f,-1.80795863e-02f,
-7.24173337e-02f,+7.00172558e-02f,+8.68419826e-04f,-7.51912519e-02f,+1.19086675e-01f,
-1.72672510e-01f,+1.55728653e-01f,+1.78870276e-01f,-5.57563454e-02f,+2.58971211e-02f,
+1.36147171e-01f,-2.83341438e-01f,+3.40770930e-02f,+4.32473570e-02f,+1.22071810e-01f,
-1.82090878e-01f,-5.11507019e-02f,-1.82823181e-01f,+1.76299900e-01f,+7.20040277e-02f,
+1.98932290e-01f,+8.00853148e-02f,-2.25909217e-03f,+1.11147225e-01f,-5.02563007e-02f,
-1.21642962e-01f,-1.70918375e-01f,-1.45822391e-01f,+1.90141022e-01f,-2.32035056e-01f,
+3.50185841e-01f,+1.33734271e-01f,-1.46658123e-01f,+1.17100611e-01f,-1.88305050e-01f,
-1.39114782e-01f,-9.21825767e-02f,-5.86771332e-02f,-4.62761186e-02f,+2.91466832e-01f,
-9.29060429e-02f,-8.18990022e-02f,-3.08311045e-01f,-7.72033930e-02f,-1.05163388e-01f,
-1.76436126e-01f,+2.37178147e-01f,-8.98317695e-02f,+1.29836589e-01f,-9.02295783e-02f,
-2.42308915e-01f,+2.50129074e-01f,+1.79642633e-01f,+5.43647707e-02f,-1.79527685e-01f,
+1.42892286e-01f,+1.11666612e-01f,-1.89938247e-02f,+6.52678832e-02f,+1.51982224e-02f,
-9.89159122e-02f,+1.21479541e-01f,-1.43522337e-01f,-2.92309552e-01f,-1.82385802e-01f,
-7.69206672e-04f,+4.92205620e-02f,+1.92205623e-01f,-8.10799673e-02f,+4.66232300e-01f,
+2.50253528e-01f,-1.36269495e-01f,+1.43126771e-01f,+5.67801110e-02f,-2.29599550e-02f,
+1.46693900e-01f,+2.45140851e-01f,+6.17115088e-02f,+1.29128173e-01f,-6.96443766e-02f,
-7.79602006e-02f,-3.23389918e-02f,-2.12162271e-01f,+3.22311595e-02f,+1.35599807e-01f,
-2.15550035e-01f,-9.75284204e-02f,+1.40926957e-01f,+5.92248887e-02f,-1.07819863e-01f,
-3.54684591e-01f,+2.17197966e-02f,+8.72265995e-02f,+4.31175940e-02f,-6.88573346e-02f,
+3.25303823e-02f,+1.50997013e-01f,-1.53377444e-01f,-1.68505475e-01f,+8.68752673e-02f,
-1.13618419e-01f,-1.15250520e-01f,-1.00598842e-01f,+3.17225784e-01f,+1.18077956e-01f,
+1.30337253e-01f,-2.78849602e-02f,+2.04741787e-02f,-6.81728777e-03f,+1.16279885e-01f,
-2.73854971e-01f,-2.86640786e-03f,+8.13166499e-02f,+3.29298712e-02f,+1.13863610e-01f,
-2.16190889e-01f,+6.53685480e-02f,-3.93001959e-02f,+3.25006813e-01f,-1.29820868e-01f,
-4.15463477e-01f,-3.43686007e-02f,+8.12616348e-02f,-4.62417416e-02f,-1.34485662e-01f,
-2.92478483e-02f,-2.47653350e-01f,+2.00304892e-02f,-1.32289052e-01f,+6.21036142e-02f,
+4.27828208e-02f,+1.31518424e-01f,-2.25796565e-01f,+6.48003593e-02f,+7.42945820e-02f,
+2.92939115e-02f,+2.03117341e-01f,+1.00077465e-01f,+2.35463202e-01f,-7.64446110e-02f,
+6.02227747e-02f,-1.29714817e-01f,-6.79006726e-02f,+8.57253745e-02f,-1.99712711e-04f,
-1.37412511e-02f,-1.44287318e-01f,+4.49323654e-02f,-8.94158706e-02f,-1.50735989e-01f,
+4.41972986e-02f,+9.97183248e-02f,+6.68167919e-02f,-1.05404109e-01f,-1.23414055e-01f,
+6.33942932e-02f,+2.55100522e-02f,+2.20661387e-01f,+2.10125791e-03f,-1.00633904e-01f,
+5.16341925e-02f,-1.24822848e-01f,-2.75851071e-01f,-1.36216894e-01f,-1.89506784e-02f,
-2.08203286e-01f,-1.66507512e-01f,-1.07986405e-01f,+2.89199017e-02f,-1.36760637e-01f,
+5.04349172e-02f,+1.97263267e-02f,+1.38644859e-01f,-1.15417093e-01f,+2.51905143e-01f,
-3.78501415e-02f,+1.08824857e-01f,+1.27619654e-01f,+2.76005745e-01f,-3.06267478e-02f,
-2.41340384e-01f,-2.90826336e-03f,-9.23878923e-02f,+2.05614775e-01f,+5.03697507e-02f,
-3.69992293e-02f,-3.94917699e-03f,+4.79383841e-02f,+5.94965257e-02f,+2.50277191e-01f,
-1.20705344e-01f,+1.30687267e-01f,-9.55156311e-02f,-3.30240875e-01f,-4.81861457e-02f,
-2.62116571e-03f,+1.22765787e-01f,-6.78825658e-03f,-7.11672157e-02f,+4.15126048e-02f,
-1.94519371e-01f,+3.63990813e-02f,-9.48030055e-02f,-2.82839358e-01f,-2.12764949e-01f,
-2.24598750e-01f,+6.54344931e-02f,+1.34681851e-01f,+5.66072464e-02f,-2.66174406e-01f,
-1.98485464e-01f,-1.80468503e-02f,-1.59319326e-01f,-2.12625101e-01f,+4.42001432e-01f,
+2.02906691e-02f,-9.80656520e-02f,-1.50146082e-01f,-9.29908082e-02f,+2.98642535e-02f,
-4.18429449e-02f,+1.05129993e-02f,-9.32084471e-02f,+1.23439677e-01f,+2.16004089e-01f,
+9.81079321e-03f,-4.97645885e-01f,+4.18028533e-02f,+1.29947886e-01f,+2.69047976e-01f,
-1.52636737e-01f,+2.83182800e-01f,-9.86950621e-02f,+1.40259072e-01f,-3.11328433e-02f,
+1.83740944e-01f,-1.07074976e-02f,+9.18709710e-02f,+1.42678648e-01f,-2.46008128e-01f,
-1.23752005e-01f,-1.85988054e-01f,+7.26585509e-03f,-5.08303419e-02f,-1.11428112e-01f,
-6.14804961e-02f,-1.12865731e-01f,+3.39853019e-01f,-1.66265015e-02f,+1.34180725e-01f,
-1.30397692e-01f,-1.32282734e-01f,+7.91129321e-02f,+2.85797358e-01f,+3.59548032e-02f,
+3.65640074e-02f,+1.00844977e-02f,-1.01102330e-01f,-5.65801300e-02f,-2.96280324e-01f,
+1.71314329e-01f,+6.61825240e-02f,-1.23073392e-01f,-3.15046102e-01f,+2.42053047e-01f,
+4.04108828e-03f,-6.92675635e-02f,+7.02522919e-02f,+2.08443940e-01f,-6.82221800e-02f,
+1.42650440e-01f,+9.20485407e-02f,+1.18918464e-01f,-2.93548405e-01f,+1.64938215e-02f,
-6.98251724e-02f,+5.24193309e-02f,+2.12426081e-01f,-1.38490856e-01f,+1.67988136e-01f,
-3.04334015e-01f,+2.01089337e-01f,+3.54932547e-02f,-3.28992754e-01f,+2.07110122e-01f,
+2.63446748e-01f,-2.06950590e-01f,-3.40441436e-01f,+1.38827994e-01f,+3.25520307e-01f,
-1.57740727e-01f,-1.39377251e-01f,-3.58970523e-01f,-6.01142198e-02f,-4.35802817e-01f,
-8.54720026e-02f,+2.23931000e-02f,+6.92251623e-02f,+1.45395607e-01f,+6.42981678e-02f,
-3.71318758e-01f,-1.67345330e-02f,-3.38417431e-03f,-1.47586167e-01f,-4.30196300e-02f,
-7.62961954e-02f,-1.43430278e-01f,+2.81712532e-01f,+9.34840664e-02f,-1.86397299e-01f,
-2.34340414e-01f,+8.82689133e-02f,+8.22770298e-02f,-1.09460093e-01f,-1.10140294e-01f,
-1.67460777e-02f,+9.33536068e-02f,-2.41051670e-02f,+1.58453479e-01f,+1.59977883e-01f,
+1.24044739e-01f,+2.55502649e-02f,+2.28991151e-01f,-1.50997177e-01f,-1.26827965e-02f,
+1.65740848e-01f,-3.76939267e-01f,-8.72898772e-02f,-2.42418081e-01f,+1.80440471e-01f,
+1.36119395e-01f,+3.72568846e-01f,-9.21058133e-02f,-2.46070817e-01f,-1.12962425e-01f,
+2.78776884e-01f,-5.54941669e-02f,-2.24683791e-01f,-4.57872078e-02f,+4.55553457e-02f,
+8.04084614e-02f,-2.51959503e-01f,+1.67055789e-03f,-7.46415555e-02f,-1.08137012e-01f,
-1.12928040e-01f,+6.54569129e-03f,+2.78605931e-02f,+1.38471425e-01f,+2.51648072e-02f,
+2.83031940e-01f,-7.23950118e-02f,+6.83828592e-02f,+1.76203430e-01f,+1.09696314e-01f,
-2.33755141e-01f,-1.46335959e-01f,+1.08487345e-01f,-4.80166823e-02f,-9.24683437e-02f,
-1.83075201e-02f,+3.18646997e-01f,-2.43022755e-01f,-1.24539167e-01f,+3.18773568e-01f,
+3.34654599e-02f,+3.89926851e-01f,+1.54958114e-01f,+7.55411163e-02f,+5.97577095e-02f,
+8.09070915e-02f,-5.32916151e-02f,-3.39764088e-01f,-3.82932425e-01f,+2.52321996e-02f,
-3.38784665e-01f,-1.80924878e-01f,-1.80542424e-01f,+1.88067526e-01f,+2.11073652e-01f,
-4.16671038e-02f,-9.83881801e-02f,-2.63663352e-01f,+1.47790104e-01f,+2.32721642e-01f,
-1.48027927e-01f,+9.26075280e-02f,+1.98885992e-01f,+1.02638267e-01f,-2.59641379e-01f,
+7.89137706e-02f,-3.17449681e-02f,-2.42369428e-01f,-4.25231606e-01f,+2.30536923e-01f,
-5.01720719e-02f,-2.71181136e-01f,-1.49847329e-01f,-5.75791188e-02f,+2.21390113e-01f,
-6.70737922e-02f,-7.75914825e-03f,-1.10795267e-01f,+8.25786516e-02f,+2.60485142e-01f,
-1.14200160e-01f,+1.28366888e-01f,-2.70769652e-02f,-1.50501907e-01f,-1.92601398e-01f,
+6.83919862e-02f,-1.11981630e-01f,-6.87236488e-02f,+1.74591035e-01f,+2.08443806e-01f,
-8.70176870e-03f,-1.02019496e-02f,+2.60621160e-01f,-1.02030925e-01f,-5.38698211e-02f,
+1.30982235e-01f,+1.72472984e-01f,+1.74585715e-01f,-7.40947500e-02f,+2.57459581e-02f,
+4.42314520e-02f,+3.14269401e-02f,-1.06978983e-01f,+1.48910314e-01f,+2.56733060e-01f,
-3.02901506e-01f,-1.21158168e-01f,+4.30397987e-02f,+9.87275168e-02f,+8.49100575e-02f,
+3.41984141e-03f,+3.24876815e-01f,-9.10372809e-02f,+1.67725995e-01f,+8.13727006e-02f,
-4.56047431e-02f,-8.51835161e-02f,+6.91854060e-02f,-1.36585981e-01f,+5.17195277e-02f,
-2.39080414e-01f,+1.29901469e-01f,-2.21146569e-02f,+6.70820549e-02f,+1.71104044e-01f,
-1.66210979e-01f,+4.82744053e-02f,+1.34168670e-01f,+3.38429846e-02f,+2.29223445e-01f,
+2.25078359e-01f,+9.73904878e-03f,+3.57509166e-01f,+3.36089209e-02f,+3.70880008e-01f,
-9.85369086e-02f,+6.49740919e-03f,-3.86396497e-01f,+2.90741652e-01f,+2.98448175e-01f,
-7.70925209e-02f,-2.09634632e-01f,+1.92937404e-01f,+2.46007547e-01f,-1.85751513e-01f,
+1.69677898e-01f,-3.49133573e-02f,-1.79620162e-01f,+4.52244505e-02f,+1.80588439e-02f,
+5.26905209e-02f,-1.13839857e-01f,-1.80842102e-01f,-8.12849104e-02f,+2.67455786e-01f,
+1.61589101e-01f,+1.24222547e-01f,-1.38858065e-01f,+2.15802565e-01f,+5.43727390e-02f,
+2.51340091e-01f,+1.37515113e-01f,-2.05246732e-01f,-1.65293574e-01f,+2.33610824e-01f,
-2.02163517e-01f,+1.80898368e-01f,-1.26343057e-01f,-2.53414903e-02f,-2.69920290e-01f,
+1.00041285e-01f,-1.59273371e-01f,+8.64059553e-02f,-2.99229264e-01f,+2.10261047e-01f,
+9.78786871e-02f,+2.49730319e-01f,-2.58627802e-01f,+6.60817623e-02f,+2.25903932e-02f,
-1.82534382e-01f,-1.31719783e-01f,-4.54573743e-02f,+5.82003705e-02f,+1.78159684e-01f,
+1.83706447e-01f,-2.65856504e-01f,+3.97941656e-02f,+9.29901656e-03f,-5.81341470e-03f,
-7.27072731e-02f,+2.60172356e-02f,-1.54343934e-03f,-2.25795627e-01f,+2.35239521e-01f,
+7.27856830e-02f,+7.61616454e-02f,-1.74184263e-01f,-1.69448897e-01f,-2.50763565e-01f,
+4.22991328e-02f,-2.98870444e-01f,-2.16535595e-03f,-3.22850138e-01f,-2.05500200e-01f,
-1.57018781e-01f,-5.45519814e-02f,+4.38714586e-03f,+1.01325296e-01f,+1.67186454e-01f,
-2.70901054e-01f,-1.11627273e-01f,-2.70002652e-02f,+2.62134284e-01f,-1.84261188e-01f,
-1.07917227e-02f,+7.88245071e-03f,-3.56434721e-05f,-2.55383682e-02f,-2.12584481e-01f,
-4.79970612e-02f,+4.80996296e-02f,-3.44001263e-01f,+6.90232143e-02f,+2.11161479e-01f,
+4.73975152e-01f,+1.88980818e-01f,-1.15147255e-01f,+8.04723650e-02f,+1.72747731e-01f,
-4.57367580e-03f,+1.71202734e-01f,-1.58279672e-01f,+6.05025962e-02f,+9.17870253e-02f,
+5.51168695e-02f,-7.10209236e-02f,+2.95825273e-01f,+2.87632138e-01f,+4.81101498e-02f,
+3.27376962e-01f,+5.87979779e-02f,+1.56717509e-01f,+1.98755175e-01f,+3.48480493e-01f,
+1.65313736e-01f,+1.71847135e-01f,+8.26939475e-03f,-1.97928756e-01f,-6.00929670e-02f,
-1.07605442e-01f,+2.98761725e-01f,+3.44821550e-02f,-1.06618226e-01f,-8.47980231e-02f,
+3.77041586e-02f,+3.86910915e-01f,+2.08252724e-02f,+8.00026134e-02f,-1.80165768e-01f,
-8.28353167e-02f,+6.06350694e-03f,+1.38248950e-01f,-2.24325478e-01f,+2.04911595e-03f,
-1.85580656e-01f,-3.57660055e-02f,+6.03021756e-02f,+6.73354864e-02f,-2.12140545e-01f,
-8.10214281e-02f,-2.89064914e-01f,+1.81514949e-01f,-1.00439340e-01f,-2.32035309e-01f,
-3.03395442e-03f,+3.28276716e-02f,+1.27071470e-01f,-1.17308147e-01f,+1.43921077e-02f,
+1.99625358e-01f,+1.71792641e-01f,-1.17629789e-01f,-9.97362435e-02f,+9.17270631e-02f,
+1.34166390e-01f,+6.47331700e-02f,-2.13654153e-02f,-2.28980314e-02f,+3.50976914e-01f,
+4.18064855e-02f,-1.59758791e-01f,+1.64182439e-01f,+3.10886115e-01f,+1.56028836e-03f,
+2.53220528e-01f,-3.47397551e-02f,-1.99676991e-01f,+1.28374949e-01f,+4.46178913e-02f,
+2.94490606e-01f,+1.03982203e-01f,+1.67440310e-01f,-4.28343505e-01f,+1.24304712e-01f,
-1.04601808e-01f,+2.59621918e-01f,+1.40967727e-01f,-7.47748688e-02f,-1.00977615e-01f,
+1.27221093e-01f,+5.59439883e-03f,+1.14214413e-01f,+6.74907640e-02f,-8.86719525e-02f,
+1.97874039e-01f,+6.80156127e-02f,+2.50946563e-02f,-1.41246023e-03f,+6.25905246e-02f,
-2.64448598e-02f,+2.02405632e-01f,-4.74207103e-02f,-2.63491254e-02f,-2.54207164e-01f,
+1.30219311e-01f,-7.51903206e-02f,+1.43156135e-02f,-6.83023855e-02f,+1.23732142e-01f,
-5.49483337e-02f,-1.97115287e-01f,+7.94643983e-02f,-2.11820006e-01f,+5.42739928e-02f,
-8.64040107e-02f,-2.39574283e-01f,+6.08154126e-02f,+7.28754848e-02f,-6.33610040e-02f,
-1.92015823e-02f,+3.50809842e-01f,+3.30625940e-03f,+1.84412643e-01f,+1.94255531e-01f,
+3.11742365e-01f,+2.84508079e-01f,-2.88066000e-01f,+1.11809392e-02f,-3.87162566e-01f,
-1.88630164e-01f,-1.09870486e-01f,-6.49474189e-02f,-3.34796868e-02f,+1.43342577e-02f,
+1.87613562e-01f,+4.34748352e-01f,-1.01913974e-01f,+2.58181505e-02f,-3.97056565e-02f,
+7.10707456e-02f,+1.24260813e-01f,+1.68738291e-01f,+7.20762834e-02f,-2.59442031e-02f,
-1.66689694e-01f,+2.65275054e-02f,+7.49325193e-03f,-3.82106930e-01f,-1.16343305e-01f,
-6.89550564e-02f,+1.40897647e-01f,+8.71574506e-02f,+1.58901259e-01f,-1.64044201e-02f,
+1.82337593e-02f,-2.18431115e-01f,+2.22335011e-01f,+2.53983557e-01f,-6.04911670e-02f,
+1.19700350e-01f,+4.47979802e-03f,-2.40757078e-01f,+1.42873064e-01f,-3.50338197e-03f,
+9.61292610e-02f,-1.86367199e-01f,-2.48014852e-01f,+2.28564851e-02f,+2.48836890e-01f,
-2.69268990e-01f,+1.02412567e-01f,+4.33692634e-01f,-3.32272649e-01f,+4.00689632e-01f,
-2.11849779e-01f,+1.76410764e-01f,+1.07568644e-01f,-2.18681455e-01f,+1.06149867e-01f,
+2.94116046e-02f,-4.62673418e-02f,-2.46140525e-01f,-3.03308573e-03f,+7.33934566e-02f,
+1.09147474e-01f,-2.06483260e-01f,+3.37832719e-02f,+5.43631203e-02f,-5.91903813e-02f,
-3.01795363e-01f,+1.00081198e-01f,-1.87359706e-01f,-2.05535665e-01f,-1.21240914e-01f,
+3.43291491e-01f,-2.39084393e-01f,+6.81013763e-02f,+1.69774946e-02f,-1.24347076e-01f,
-1.57243446e-01f,-1.22080378e-01f,-9.53141972e-02f,-3.86774316e-02f,-6.57427683e-02f,
+2.00282261e-01f,+7.33376220e-02f,+5.72131835e-02f,+1.80179164e-01f,+3.30000520e-01f,
-9.88418758e-02f,+2.73747683e-01f,-1.51726268e-02f,-4.88407277e-02f,+1.43290935e-02f,
-1.00909278e-01f,+2.05298364e-01f,-7.70634487e-02f,-8.95799249e-02f,+1.20304033e-01f,
-2.25604121e-02f,-1.32420033e-01f,-1.08381197e-01f,+2.61780858e-01f,-1.01399571e-01f,
-4.03204560e-01f,-1.93372175e-01f,-1.91109988e-03f,+1.41002536e-01f,-7.84898028e-02f,
+1.81347299e-02f,+3.89116327e-03f,+8.02144632e-02f,+4.79520783e-02f,+1.10211909e-01f,
+1.28771663e-01f,-2.96290606e-01f,+5.25378127e-05f,-8.48808438e-02f,-1.80169359e-01f,
-1.84126467e-01f,+1.52293921e-01f,-4.01682258e-02f,+2.18345419e-01f,+8.67110416e-02f,
-2.98369855e-01f,+3.31675261e-02f,+1.80566462e-03f,+3.92692208e-01f,-1.05671160e-01f,
+5.37859537e-02f,+1.40108943e-01f,+8.03424120e-02f,-1.01361603e-01f,-3.25675994e-01f,
+2.12911695e-01f,-1.24094449e-01f,+9.29832533e-02f,+2.84136206e-01f,+5.05089723e-02f,
+1.81913957e-01f,+3.13520491e-01f,-4.69181947e-02f,-2.24105105e-01f,-1.10191815e-01f,
+2.02066407e-01f,+4.63184975e-02f,+9.90735739e-02f,-2.78524738e-02f,+2.02979356e-01f,
+3.07019442e-01f,-3.03495884e-01f,+1.42628565e-01f,+1.33473575e-01f,-4.52916548e-02f,
+2.02129677e-01f,+1.03373438e-01f,+4.99676494e-03f,+5.06819263e-02f,-9.10501853e-02f,
-2.08887761e-03f,+8.24222416e-02f,-1.45565625e-02f,-3.09260637e-01f,-8.09409916e-02f,
+1.11143559e-01f,-1.21133039e-02f,+6.67558759e-02f,+1.44121945e-01f,+1.11165427e-01f,
+3.53506744e-01f,-6.48243800e-02f,-2.22793162e-01f,-9.60068181e-02f,+1.68577939e-01f,
+1.02066416e-02f,+2.67487794e-01f,+3.77945378e-02f,-8.51312838e-03f,+1.18993089e-01f,
-1.23570964e-01f,+2.06786543e-01f,-5.25594950e-02f,-2.08461255e-01f,+1.32879034e-01f,
+2.32031941e-01f,-2.96226405e-02f,-3.16841416e-02f,-9.83847603e-02f,-2.11931273e-01f,
+2.50772119e-01f,+7.46867433e-02f,+1.59391463e-01f,-9.83582959e-02f,+2.91419357e-01f,
-5.93041107e-02f,+2.37545282e-01f,-6.40099272e-02f,-1.70062911e-02f,-8.71883780e-02f,
-1.26779601e-01f,+1.70111373e-01f,+1.92206576e-02f,-6.20151646e-02f,+3.47844422e-01f,
-1.19074672e-01f,+2.35440612e-01f,-1.61466412e-02f,-1.11567035e-01f,-4.55100983e-02f,
+2.09598452e-01f,-7.04060569e-02f,+9.16805938e-02f,+6.67573139e-02f,+3.91559824e-02f,
+1.75909415e-01f,-1.44655272e-01f,-1.17322020e-01f,-4.68595549e-02f,-2.09367201e-01f,
+5.34201078e-02f,-1.11105934e-01f,+5.02565913e-02f,-1.60968408e-01f,+5.84539548e-02f,
-2.51872111e-02f,+1.11086220e-01f,+1.54674679e-01f,-1.56754628e-01f,-3.11717372e-02f,
+1.73330963e-01f,+1.60982117e-01f,+2.99469121e-02f,+2.55979776e-01f,-1.28743246e-01f,
+3.44232889e-03f,-2.05031782e-02f,+2.16493294e-01f,+7.98924118e-02f,+2.62731165e-01f,
-7.36219957e-02f,-5.22789061e-02f,-2.13787705e-01f,+1.88323438e-01f,-1.17441639e-01f,
+7.09800348e-02f,+2.23184898e-02f,+4.73752357e-02f,-1.35417253e-01f,-2.48425528e-01f,
-1.62279114e-01f,-4.13897336e-02f,+3.01948816e-01f,+7.11000934e-02f,+9.94265079e-02f,
+3.98128897e-01f,+9.20437053e-02f,+1.05374105e-01f,+3.47321063e-01f,-1.32882044e-01f,
+1.14009544e-01f,-2.13470832e-01f,+1.66573405e-01f,+3.08362097e-01f,+1.57075364e-03f,
-1.36066750e-01f,+1.04383655e-01f,+1.96391925e-01f,-3.19260620e-02f,+2.71051284e-02f,
-2.53269207e-02f,+4.21327129e-02f,-8.58030021e-02f,-1.47120222e-01f,+3.09857786e-01f,
+9.18153077e-02f,+1.59624189e-01f,-3.20930183e-02f,+6.27986155e-03f,+8.99057388e-02f,
+1.65830687e-01f,+1.89595848e-01f,-3.09739280e-02f,+2.25568965e-01f,-1.74310338e-02f,
+2.29785383e-01f,-7.22620338e-02f,+3.08609337e-01f,-2.07512841e-01f,+3.28686327e-01f,
-5.94383292e-03f,-2.65165985e-01f,-7.79920891e-02f,+2.42450550e-01f,+1.34882424e-02f,
-1.93577439e-01f,-2.97433455e-02f,-1.04534373e-01f,+1.22903012e-01f,+1.04505330e-01f,
-1.16057880e-01f,+3.99964824e-02f,+3.86359543e-02f,+7.92209953e-02f,-5.58363274e-02f,
+1.06806658e-01f,+1.54712334e-01f,-6.46889284e-02f,-7.20088929e-02f,-5.97163923e-02f,
-2.78851718e-01f,-1.81040496e-01f,-3.44847217e-02f,-1.74109265e-01f,-1.33380011e-01f,
-1.54591408e-02f,-2.47127581e-02f,+2.08689973e-01f,+4.55328748e-02f,+2.51917481e-01f,
+3.20768766e-02f,-3.14668007e-02f,+9.68653932e-02f,-1.36018351e-01f,-3.17640185e-01f,
+1.80801317e-01f,-1.09761313e-01f,+7.79152010e-03f,-3.74197736e-02f,-1.31253332e-01f,
-1.06256157e-01f,+5.29268503e-01f,+8.38878006e-02f,-1.89614326e-01f,+2.37932593e-01f,
-1.12589076e-01f,-2.02413201e-01f,+2.23681405e-01f,-2.33734064e-02f,+1.14601620e-01f,
-1.24467373e-01f,+1.51050448e-01f,+8.27938020e-02f,+2.93537438e-01f,+1.64813846e-02f,
+1.25983715e-01f,+6.82094023e-02f,-1.01578750e-01f,+1.08217403e-01f,+2.45885506e-01f,
+2.21029818e-01f,+8.65435079e-02f,+8.57285634e-02f,-2.49585472e-02f,-5.76460399e-02f,
-1.02190278e-01f,+1.57299619e-02f,-8.73206370e-03f,+5.69565594e-02f,+1.13939811e-02f,
+1.49377703e-03f,+8.20898190e-02f,+6.16951063e-02f,+1.69995409e-02f,+1.09001599e-01f,
-1.11524455e-01f,+1.71609268e-01f,+1.93437219e-01f,-1.06114997e-02f,+5.84477112e-02f,
+7.53514692e-02f,+1.15006410e-01f,+1.30759284e-01f,-3.79893817e-02f,+1.63161486e-01f,
-1.17216490e-01f,-2.45690525e-01f,-3.45833367e-03f,-2.17933044e-01f,+2.65575722e-02f,
+3.25292349e-02f,+7.42760450e-02f,+1.93145841e-01f,+2.17738957e-03f,-1.72477216e-02f,
+9.94775891e-02f,+6.29160255e-02f,+2.19057538e-02f,-1.19758192e-02f,-1.93260107e-02f,
-9.86898970e-03f,+2.33163863e-01f,+2.79562008e-02f,+1.06638536e-01f,+1.40555399e-02f,
-8.84327814e-02f,+5.22459932e-02f,-7.71633014e-02f,+1.83853969e-01f,-2.78914005e-01f,
-1.44830033e-01f,+4.73337248e-02f,-7.93761462e-02f,+9.71433297e-02f,+1.49366766e-01f,
+7.00779706e-02f,+1.40286684e-02f,-4.98465169e-03f,+9.47925895e-02f,-3.18236768e-01f,
-8.98761228e-02f,+9.31575820e-02f,+1.38616264e-01f,-6.21255450e-02f,-4.95549366e-02f,
-1.33938879e-01f,+1.05245844e-01f,-1.19199872e-01f,+1.66357860e-01f,+8.55169147e-02f,
-2.17774644e-01f,+1.86840132e-01f,+4.72183786e-02f,+1.14132509e-01f,+4.01044898e-02f,
+2.59152532e-01f,-2.55291890e-02f,-1.17568588e-02f,+1.52438939e-01f,+1.62802905e-01f,
+4.22891155e-02f,-2.02340186e-02f,+3.93978991e-02f,+8.21990594e-02f,+5.41462488e-02f,
+1.32872134e-01f,+9.53831002e-02f,+1.45172372e-01f,-5.15175164e-02f,+1.08238608e-01f,
+1.69701248e-01f,-5.46119586e-02f,-1.10549420e-01f,+1.34522155e-01f,-4.64757495e-02f,
-2.96300482e-02f,+1.23276981e-02f,-9.16371197e-02f,+2.61597950e-02f,+8.69212151e-02f,
+1.91852584e-01f,-1.00350060e-01f,-1.94904655e-01f,+1.44827679e-01f,+1.02207072e-01f,
-1.80194855e-01f,-1.06627718e-01f,+1.34150870e-02f,+7.13847131e-02f,+3.92945134e-04f,
+1.64222956e-01f,-1.01810293e-02f,-1.93277285e-01f,-3.67990769e-02f,+9.69719589e-02f,
-2.01977849e-01f,+5.78136928e-02f,+1.36488795e-01f,+1.99155379e-02f,+8.04395974e-02f,
-1.16424486e-01f,-1.51706070e-01f,-2.19757427e-02f,+6.38140142e-02f,-3.68318073e-02f,
+1.92029521e-01f,-4.29738953e-04f,+4.91124857e-03f,+3.54384519e-02f,-2.55772322e-01f,
-1.25959456e-01f,+8.15938134e-03f,-7.84525573e-02f,+6.35866076e-02f,+2.12718442e-01f,
-9.06098112e-02f,+1.21410927e-02f,+8.06795526e-03f,-8.51751715e-02f,+4.96908911e-02f,
-6.13636076e-02f,-2.17919089e-02f,+2.27173232e-02f,+5.72582707e-02f,+5.09172166e-03f,
+1.34087533e-01f,+1.09830923e-01f,-6.38871044e-02f,-3.06411702e-02f,-1.49229830e-02f,
-7.95593411e-02f,-2.47471392e-01f,+1.68062598e-01f,-9.16091842e-04f,+1.49021223e-01f,
-1.03807054e-01f,+3.65690626e-02f,+1.24406129e-01f,-3.44248824e-02f,+1.35421291e-01f,
-1.45354718e-01f,-4.67457063e-03f,+7.68858846e-03f,+2.92978644e-01f,+1.55594735e-03f,
+1.08966596e-01f,-5.86285889e-02f,+2.12735847e-01f,-1.20441496e-01f,+4.63733748e-02f,
-8.89902413e-02f,+1.87977985e-01f,-4.71031340e-03f,-1.55067854e-02f,+1.36419311e-01f,
-7.24856779e-02f,-8.04966092e-02f,+3.73523459e-02f,-1.63535234e-02f,-1.60377510e-02f,
+3.66990641e-02f,-4.42714803e-02f,-2.22756658e-02f,+2.04882920e-01f,-2.82315183e-02f,
+2.10308209e-01f,+4.60092649e-02f,-3.14872637e-02f,+5.73422983e-02f,-2.61892769e-02f,
+1.31246388e-01f,+7.35767260e-02f,+8.34261402e-02f,+1.34948492e-01f,-9.61049944e-02f,
-1.07297041e-02f,-2.46010553e-02f,+2.32817844e-01f,+7.06228008e-03f,+6.97266161e-02f,
-1.11911565e-01f,+9.78389606e-02f,-4.11734870e-03f,+1.74130663e-01f,-5.13352491e-02f,
-7.05309212e-02f,-7.94964656e-02f,+3.42209614e-03f,+4.04553907e-03f,-2.31616702e-02f,
+6.98190257e-02f,+1.70744173e-02f,+6.43353239e-02f,+1.35146091e-02f,-1.32275280e-02f,
+1.36547595e-01f,+9.10636485e-02f,-2.44229510e-02f,+4.08055820e-02f,+9.65108536e-03f,
+4.98505728e-03f,+3.00118234e-04f,+3.21555361e-02f,-4.46417220e-02f,+1.04250915e-01f,
+5.35349501e-03f,-1.53209623e-02f,+4.54901569e-02f,-1.75475076e-01f,-3.27053783e-03f,
-5.65006509e-02f,-9.29683894e-02f,-4.18032035e-02f,-6.06478006e-02f,+2.01875508e-01f,
+1.44917369e-01f,+6.65529370e-02f,-3.82828712e-02f,+9.84614599e-04f,+4.99572530e-02f,
-4.64193784e-02f,-6.72951266e-02f,+1.17036842e-01f,-1.36890739e-01f,+4.47388999e-02f,
+1.81262076e-01f,+5.48707992e-02f,+7.60371797e-03f,-2.60940511e-02f,-9.44175720e-02f,
-2.17173528e-02f,+7.28682280e-02f,-1.87681526e-01f,+2.77257301e-02f,-7.14396238e-02f,
-2.77538478e-01f,+6.92505613e-02f,-5.00802882e-02f,+1.07940763e-01f,-1.20633066e-01f,
-9.14739221e-02f,-3.66782337e-01f,+3.89161333e-02f,-1.68956898e-03f,-9.29387100e-03f,
+1.24303430e-01f,-3.92158851e-02f,-2.73349375e-01f,+1.76883116e-02f,+3.38061661e-01f,
+8.66096765e-02f,+3.61788534e-02f,-1.56968995e-03f,+8.16443861e-02f,+1.37391329e-01f,
+2.62695336e-04f,+1.86274033e-02f,+2.15968490e-02f,-6.36239797e-02f,+6.32500052e-02f,
+2.67941840e-02f,-3.94298248e-02f,+2.12461144e-01f,+1.41491413e-01f,+9.06597823e-02f,
+4.45471853e-02f,+2.23835763e-02f,+1.60486117e-01f,-1.99796092e-02f,+7.73402676e-02f,
+1.14090569e-01f,-1.08475350e-02f,+9.16853696e-02f,-1.23856552e-01f,+1.06079079e-01f,
-1.99252181e-02f,+4.78876866e-02f,-5.78985214e-02f,+8.54136124e-02f,+2.96298023e-02f,
+1.46027878e-02f,+7.02351406e-02f,+6.73958361e-02f,-2.36509517e-02f,+3.93141925e-01f,
-1.24839462e-01f,+7.54969120e-02f,+6.43691868e-02f,+4.73994948e-02f,+7.32248798e-02f,
+1.62481427e-01f,+5.82434870e-02f,+1.21721411e-02f,+6.72431588e-02f,-5.52843809e-02f,
-1.13149159e-01f,+1.56095952e-01f,-1.23962238e-02f,+1.50452584e-01f,-1.33726373e-01f,
+6.38858452e-02f,-2.04737067e-01f,-8.82013664e-02f,+7.48977289e-02f,+1.71317905e-01f,
+5.23350351e-02f,+2.81582121e-04f,+1.38995051e-01f,-3.65129150e-02f,+5.14667109e-02f,
-1.18944407e-01f,-1.58974960e-01f,-2.97594041e-01f,-3.40162992e-01f,-2.64298916e-01f,
+2.40241796e-01f,-3.21918726e-01f,-2.97069222e-01f,+2.79233366e-01f,-2.76129097e-02f,
+3.59416660e-03f,+8.26562792e-02f,+1.36800081e-01f,+1.23827353e-01f,+9.63437632e-02f,
+1.73151970e-01f,+2.95351446e-01f,+2.09656179e-01f,-3.25438194e-02f,+3.07597648e-02f,
+2.44859144e-01f,+1.40478775e-01f,-1.13651548e-02f,-7.86957741e-02f,-2.20739126e-01f,
-5.42414598e-02f,-9.90592167e-02f,+2.43237149e-02f,-2.71711767e-01f,+2.20352784e-01f,
-1.84767425e-01f,+2.94895083e-01f,-2.35132933e-01f,+1.20733321e-01f,-1.58028975e-02f,
+1.48065507e-01f,-1.45581439e-02f,-7.55392984e-02f,+1.55321717e-01f,+8.34002495e-02f,
-6.20101504e-02f,+1.59910038e-01f,-1.13337226e-01f,+1.78963337e-02f,+2.23873004e-01f,
+2.55405664e-01f,-7.08792955e-02f,+2.77611136e-01f,+3.84134620e-01f,-2.36451924e-01f,
-6.38558194e-02f,-7.43718669e-02f,+3.23134542e-01f,+5.35633713e-02f,+2.02039462e-02f,
-1.33289397e-01f,+2.95806170e-01f,-1.79508463e-01f,-8.43274519e-02f,-1.62138790e-01f,
+6.94770813e-02f,-5.60870059e-02f,-1.26137286e-02f,-2.20003486e-01f,+2.60837048e-01f,
+2.01610804e-01f,+4.34215158e-01f,+3.17852765e-01f,-9.22750458e-02f,-9.08622667e-02f,
-7.76765421e-02f,+2.67557770e-01f,-1.21189855e-01f,+1.07535996e-01f,+5.30978858e-01f,
+2.22762972e-01f,-6.63963556e-02f,-3.54222715e-01f,-1.27737135e-01f,-3.35121229e-02f,
-7.15814084e-02f,+3.92500013e-01f,+2.39885926e-01f,+1.49208933e-01f,+1.70548692e-01f,
-2.82694906e-01f,+1.30852848e-01f,+5.22592850e-02f,+2.80335955e-02f,+8.13190490e-02f,
+2.65458524e-01f,+7.20843598e-02f,+1.55502167e-02f,-3.29164892e-01f,+1.75262600e-01f,
+3.68205756e-01f,-1.87483341e-01f,+3.68147008e-02f,-2.49005839e-01f,-8.65639467e-03f,
-2.07248218e-02f,+5.58857061e-02f,+1.34713963e-01f,-4.84447807e-01f,-1.81999177e-01f,
+1.09595731e-02f,+3.58888894e-01f,-1.38612568e-01f,+3.23134452e-01f,+7.64845684e-02f,
-7.15044327e-03f,+9.88219157e-02f,+3.90161425e-02f,+1.66476890e-01f,+1.63330391e-01f,
+1.91462427e-01f,+1.22405000e-01f,-2.63952136e-01f,-2.52892934e-02f,+1.30849585e-01f,
+1.39444798e-01f,-3.55601981e-02f,+4.24463078e-02f,+1.14623241e-01f,+6.60438091e-03f,
-1.09871805e-01f,-8.74481946e-02f,+2.44211212e-01f,-1.61247939e-01f,-1.47943020e-01f,
-1.12700768e-01f,-2.86637954e-02f,+2.69474417e-01f,+1.73722044e-01f,-2.96122488e-02f,
+2.51566358e-02f,+1.72097400e-01f,+2.39357904e-01f,+3.43108207e-01f,+2.20756948e-01f,
+3.55898827e-01f,+9.76531953e-02f,+2.45871991e-01f,+1.74394056e-01f,+2.93520510e-01f,
+2.07972199e-01f,+6.13168515e-02f,+1.42543718e-01f,-5.44753037e-02f,-4.23376225e-02f,
-2.43577495e-01f,+1.04835354e-01f,+2.54310202e-02f,-7.03257322e-02f,+1.89603105e-01f,
+2.39009604e-01f,+1.16078995e-01f,+3.97244003e-03f,+1.44303903e-01f,-8.24454725e-02f,
-2.14225426e-01f,+1.00015879e-01f,-8.72182474e-03f,+1.33497715e-01f,+1.28176082e-02f,
-5.89757971e-03f,+2.19456166e-01f,+2.59388685e-01f,-4.57243249e-02f,+1.84945270e-01f,
+2.41894245e-01f,-2.40160242e-01f,+2.18257353e-01f,+9.66254026e-02f,-9.47130471e-02f,
-2.13432382e-03f,+7.07116127e-02f,+2.08672971e-01f,+8.08955915e-03f,-2.37569764e-01f,
-3.24835598e-01f,+1.09113432e-01f,+6.89160153e-02f,+9.27097946e-02f,+6.01890646e-02f,
+1.08963944e-01f,-1.87097400e-01f,-1.44302890e-01f,+1.79500341e-01f,+3.55074406e-01f,
+3.80985662e-02f,-1.09829389e-01f,+2.52293423e-02f,+9.28520188e-02f,+3.42437974e-03f,
+3.38784494e-02f,+3.63809735e-01f,+8.67715403e-02f,+2.73709819e-02f,-4.75060567e-02f,
-1.80395842e-01f,+7.78535306e-02f,-1.33549586e-01f,+1.38850003e-01f,-2.05922619e-01f,
-1.41330108e-01f,+1.40176609e-01f,-8.95783678e-02f,+2.36130372e-01f,-2.42169444e-02f,
+1.86436623e-01f,+3.10625494e-01f,-4.29797433e-02f,-6.75919354e-02f,+1.17159232e-01f,
+1.47820890e-01f,-1.48052335e-01f,+4.85736504e-02f,+1.59275964e-01f,-1.99633434e-01f,
+8.31631105e-03f,+1.37197956e-01f,+8.27171132e-02f,-1.03494883e-01f,-2.19627041e-02f,
-1.34972349e-01f,-5.76590337e-02f,+1.45207867e-01f,-1.01846874e-01f,+1.48784786e-01f,
-1.47436053e-01f,-1.59070507e-01f,-1.88792825e-01f,-9.22682211e-02f,+1.86583072e-01f,
-3.10510218e-01f,-4.85039828e-03f,+1.25243247e-01f,+2.63024032e-01f,-2.49794587e-01f,
+4.22611497e-02f,-3.40791629e-03f,+9.87390205e-02f,-5.61901592e-02f,-3.46606784e-02f,
+2.95712709e-01f,-9.12794098e-02f,+2.88572125e-02f,-1.25215814e-01f,+2.81611681e-02f,
-9.68022831e-03f,+1.86197460e-02f,+1.84890658e-01f,-1.33708743e-02f,-9.79473218e-02f,
+1.12570450e-01f,+1.22607082e-01f,-1.37816221e-01f,+8.70376229e-02f,+7.24429488e-02f,
-1.22372299e-01f,-1.24967836e-01f,-1.74235567e-01f,-2.90515780e-01f,-1.31779723e-02f,
+2.59443849e-01f,+7.04474971e-02f,-3.44674885e-02f,+8.76910836e-02f,+3.95239852e-02f,
-1.43482573e-02f,+9.52301919e-02f,+2.48342350e-01f,+2.39057213e-01f,+5.91891594e-02f,
+8.52313116e-02f,-2.09534317e-01f,+3.06173593e-01f,+1.31983802e-01f,+1.13754466e-01f,
-1.03868164e-01f,-2.70614564e-01f,-8.36294591e-02f,+1.26154304e-01f,+8.11829418e-02f,
+2.90822070e-02f,+5.72836399e-02f,+7.20867440e-02f,-7.55663142e-02f,+6.21776171e-02f,
+1.31556496e-01f,-3.49380523e-01f,+1.87090307e-01f,+1.74718921e-03f,-1.27011716e-01f,
+1.01546347e-01f,+1.52217913e-02f,+3.62923518e-02f,-7.04757422e-02f,+2.98485141e-02f,
+1.73191354e-01f,-1.85836434e-01f,+1.49513647e-01f,+1.33823156e-01f,+3.12195085e-02f,
+1.28944263e-01f,+2.27717295e-01f,-1.25326216e-02f,+8.93471390e-02f,+1.33388788e-01f,
+1.21910818e-01f,+5.25572225e-02f,-1.17470101e-01f,+9.58136842e-02f,-1.51364639e-01f,
+3.50341573e-02f,+1.95151418e-02f,+2.42015466e-01f,+2.70496815e-01f,+1.12103313e-01f,
+1.02374680e-01f,-7.67349824e-02f,+6.80635795e-02f,+2.17894360e-01f,-2.62970775e-01f,
+5.54980524e-02f,+4.22139140e-03f,+1.26263708e-01f,-1.66365445e-01f,-2.58067369e-01f,
+9.15063471e-02f,+8.50364268e-02f,-2.30181634e-01f,+1.80357337e-01f,-2.33998805e-01f,
+2.70947427e-01f,-1.65409278e-02f,+1.53637812e-01f,+1.91313371e-01f,+2.62190133e-01f,
-1.94118723e-01f,+1.34908363e-01f,+1.18140401e-02f,-1.16422512e-01f,-2.66468767e-02f,
-1.50809258e-01f,-2.81875789e-01f,+2.15405449e-01f,+6.75168931e-02f,+8.32082853e-02f,
-2.26247564e-01f,+2.68047333e-01f,-8.64319038e-03f,+1.32591903e-01f,-1.33836642e-02f,
-2.22647548e-01f,+2.76135445e-01f,+1.02856636e-01f,-2.24116877e-01f,+9.34104994e-03f,
-9.17284340e-02f,+1.58311259e-02f,+5.67786046e-04f,-1.29715040e-01f,-1.41048700e-01f,
-2.63908297e-01f,+1.93400055e-01f,-7.17463298e-03f,-1.45048350e-01f,+1.55288428e-01f,
+1.33541450e-01f,-1.96147878e-02f,+1.83658719e-01f,+1.00040838e-01f,-1.49058551e-02f,
-1.84399724e-01f,+5.55022173e-02f,-2.19031513e-01f,-2.48986199e-01f,+2.54874527e-01f,
-7.56690372e-03f,+7.57101104e-02f,-1.12199947e-01f,-1.39962271e-01f,-1.70312747e-01f,
+1.60478815e-01f,-9.51394662e-02f,-1.96584836e-01f,-2.26708241e-02f,+1.07358962e-01f,
+1.07884839e-01f,-4.21642996e-02f,+1.32062612e-02f,+6.91418350e-02f,+2.93962747e-01f,
+1.72876760e-01f,+1.04823753e-01f,+7.47119263e-02f,+1.80301279e-01f,+1.42598882e-01f,
-1.27445906e-01f,-9.67411101e-02f,+2.24615056e-02f,+5.93997464e-02f,+1.63948879e-01f,
+5.79680418e-05f,-2.86557883e-01f,-2.23564327e-01f,+1.07756577e-01f,-1.80978701e-02f,
+1.59840778e-01f,-2.12069407e-01f,+1.14849433e-01f,+2.65899897e-02f,+7.00313076e-02f,
+4.24176268e-02f,+1.23387434e-01f,+1.81364343e-02f,-2.34912291e-01f,-1.61340654e-01f,
+2.34735802e-01f,-1.49081945e-01f,+2.07597852e-01f,+1.08689085e-01f,-1.06443152e-01f,
-1.42042145e-01f,-4.48474586e-02f,+1.22930750e-01f,+2.04363503e-02f,+2.21661106e-01f,
-2.58736908e-01f,+2.39127532e-01f,+6.96242675e-02f,-1.88177735e-01f,-1.28507897e-01f,
-1.14261499e-02f,+9.27946046e-02f,+1.03298694e-01f,-3.17010097e-02f,-9.46661010e-02f,
+2.86048859e-01f,+8.04618653e-03f,-1.63518712e-01f,-3.88359167e-02f,-1.68058217e-01f,
-1.12660617e-01f,+4.93549854e-02f,+1.81555435e-01f,+7.21489415e-02f,-1.35386646e-01f,
-4.53762226e-02f,-7.71731511e-02f,-2.33332723e-01f,+8.15380737e-02f,-1.46232426e-01f,
-7.45699331e-02f,+2.37707853e-01f,-1.63716115e-02f,-8.32762346e-02f,-1.07357942e-01f,
-5.31321838e-02f,+2.19519705e-01f,-1.37452528e-01f,-1.83829039e-01f,-1.98275551e-01f,
+8.83545130e-02f,-2.73278236e-01f,-1.84058517e-01f,+2.39214510e-01f,+7.34821558e-02f,
+1.88786179e-01f,+5.44909202e-02f,-3.44973832e-01f,+1.75569206e-01f,+1.23309202e-01f,
-2.00655356e-01f,-8.87690112e-02f,+4.33361763e-03f,-2.28612974e-01f,-5.00028022e-02f,
+8.75933617e-02f,+1.85974970e-01f,-1.18100308e-02f,-4.55643190e-03f,+3.46542090e-01f,
+2.30132118e-01f,+8.90552346e-03f,+4.05898802e-02f,-3.31558920e-02f,-6.50241151e-02f,
-1.09182186e-02f,+2.09284693e-01f,-2.34478004e-02f,-6.39595211e-01f,-1.89907365e-02f,
+4.13878448e-02f,+1.20776081e-02f,+1.87657073e-01f,-6.33504242e-02f,+2.03513578e-01f,
+1.45897985e-01f,-4.10904326e-02f,+7.20921382e-02f,+7.73452669e-02f,+2.14706757e-03f,
+5.36533743e-02f,+1.41190007e-01f,-1.26891300e-01f,+2.96438694e-01f,+7.18034357e-02f,
-1.83473721e-01f,-2.12382570e-01f,-9.46339443e-02f,+1.35647401e-01f,-1.20455571e-01f,
-9.31873510e-04f,+1.47189021e-01f,-1.39339104e-01f,+3.58128428e-01f,+9.21763778e-02f,
-2.25927591e-01f,-3.83952260e-02f,-5.30886417e-03f,-2.13674791e-02f,+3.99901383e-02f,
-1.45358637e-01f,+4.67943773e-02f,+1.11085668e-01f,+7.62781054e-02f,+1.99743554e-01f,
+1.49677485e-01f,+7.72918239e-02f,+9.71202329e-02f,-1.33992404e-01f,+2.44079247e-01f,
+1.49707505e-02f,-5.67824095e-02f,-1.88881844e-01f,+5.67982495e-02f,-2.23007590e-01f,
+1.62280723e-01f,+7.10190460e-02f,-3.10634792e-01f,+8.29284042e-02f,+8.68038833e-02f,
-1.05738834e-01f,+1.03575908e-01f,-1.02823600e-01f,+3.77086326e-02f,+1.77437253e-02f,
+2.05005184e-01f,-9.46747288e-02f,-1.00936338e-01f,-1.39468282e-01f,-1.33449316e-01f,
+1.86327085e-01f,+4.16073836e-02f,-1.04377277e-01f,+3.48588884e-01f,+2.72820801e-01f,
+8.22295472e-02f,+4.23973687e-02f,+6.52709510e-04f,+1.00936607e-01f,+1.25027299e-01f,
+1.66446209e-01f,+1.98865887e-02f,-7.57943019e-02f,+3.35997269e-02f,+3.38951349e-01f,
+5.68075925e-02f,+3.31576541e-02f,-3.08898240e-01f,+1.80145979e-01f,-2.98890442e-01f,
+2.59263098e-01f,+1.89302012e-01f,+4.03714686e-04f,+1.58803031e-01f,-3.89825292e-02f,
+1.95980892e-01f,-2.03426614e-01f,+2.46038765e-01f,-1.03056341e-01f,+1.88903823e-01f,
+2.47176021e-01f,+7.98344389e-02f,+1.85645387e-01f,+6.00220934e-02f,+4.19083685e-02f,
-5.58435172e-03f,+1.72569886e-01f,-7.12189823e-02f,+1.14384077e-01f,+1.49358556e-01f,
-2.93687992e-02f,-3.63304839e-03f,-1.39122739e-01f,+1.91341594e-01f,-1.04990162e-01f,
-3.08822930e-01f,+1.51199132e-01f,+1.22714825e-02f,-2.84534723e-01f,+4.32290912e-01f,
+1.48729935e-01f,-1.59054697e-01f,-2.46717975e-01f,-3.33608277e-02f,+7.01406375e-02f,
-1.33007258e-01f,-2.30307937e-01f,-1.06811821e-02f,-1.07511029e-01f,-5.81178181e-02f,
-5.50951548e-02f,+6.69451803e-02f,-1.51068240e-01f,+1.06944315e-01f,+3.95945366e-03f,
-7.00975582e-02f,+1.20870806e-02f,-2.78670579e-01f,-1.35573611e-01f,+5.05988337e-02f,
+3.25584888e-01f,-1.72229275e-01f,-1.49893031e-01f,+1.33814901e-01f,+1.82813689e-01f,
+1.53241292e-01f,-9.53208357e-02f,+1.62958391e-02f,+1.76474988e-01f,+1.11516833e-01f,
-8.32633581e-03f,-8.86739045e-02f,+5.89445373e-03f,+3.67704667e-02f,+9.26806852e-02f,
+1.38865173e-01f,+1.56590983e-01f,+1.51642069e-01f,+4.58237901e-03f,-2.38836184e-01f,
-2.91951090e-01f,-4.89511304e-02f,+8.20393190e-02f,-1.00172602e-01f,-4.68022041e-02f,
+3.40849936e-01f,+2.57186638e-03f,+2.96392083e-01f,+9.47088897e-02f,-1.33891419e-01f,
+1.54814243e-01f,+6.87669367e-02f,+1.87393595e-02f,+2.47416168e-01f,-7.75716826e-02f,
+1.30610913e-01f,+1.64485455e-01f,-5.53482510e-02f,+9.68213135e-04f,-2.79698521e-01f,
-2.22892612e-01f,-9.91189554e-02f,+1.43765002e-01f,+7.76658729e-02f,-1.97363719e-01f,
-2.09464148e-01f,+1.26861379e-01f,+1.21003032e-01f,+1.37876213e-01f,-4.10918593e-02f,
-1.68300167e-01f,+1.17874198e-01f,+7.36102313e-02f,+1.89709023e-01f,-1.17164418e-01f,
-8.73949975e-02f,-7.13127777e-02f,+1.89284667e-01f,+2.86743999e-01f,-2.32190758e-01f,
-5.44228293e-02f,-1.53984338e-01f,+1.79086834e-01f,-1.73486248e-01f,+5.34556173e-02f,
+3.46046537e-01f,-6.72540348e-03f,-1.01861499e-01f,+6.86098412e-02f,+2.37331629e-01f,
-1.54686095e-02f,+8.10965244e-03f,-2.97008790e-02f,+1.75164342e-01f,+1.55547038e-01f,
+1.65870320e-02f,-1.02708921e-01f,-1.31110862e-01f,+3.77936363e-02f,-3.33820283e-01f,
-9.89373326e-02f,+8.28055367e-02f,-1.32530302e-01f,-1.31933987e-01f,-2.61672586e-01f,
-1.53239325e-01f,+3.65864515e-01f,+1.25076160e-01f,-2.25279313e-02f,-5.42147979e-02f,
+2.04415679e-01f,-5.06767370e-02f,-1.94272518e-01f,-2.01425672e-01f,-1.24653280e-01f,
+1.50228273e-02f,+1.34439588e-01f,+4.13303494e-01f,-4.20953110e-02f,-2.66205985e-02f,
-3.55426491e-05f,-1.24440894e-01f,+8.79232585e-02f,+2.61578541e-02f,+9.56794620e-02f,
+5.66885583e-02f,+9.55716968e-02f,-1.47331357e-01f,+3.26690450e-02f,-7.13434536e-03f,
+1.45852000e-01f,-2.74338335e-01f,-1.62698343e-01f,-9.23829898e-02f,-3.39746326e-01f,
+2.27882549e-01f,+4.50069875e-01f,-3.29147950e-02f,-5.48365563e-02f,+3.18455428e-01f,
+5.93031980e-02f,+1.44137725e-01f,-1.10947974e-01f,+3.65326069e-02f,+1.28994882e-01f,
-1.69319753e-02f,-1.85702309e-01f,-7.44364560e-02f,-1.37882769e-01f,-1.59074396e-01f,
+1.88197404e-01f,-2.79535085e-01f,-2.11117864e-01f,-1.38296276e-01f,-2.78259944e-02f,
-2.35177517e-01f,-9.65462103e-02f,-4.38677184e-02f,+1.14970297e-01f,-1.81545347e-01f,
+1.77891374e-01f,-1.45039648e-01f,-2.67182980e-02f,+1.45744786e-01f,+4.03290987e-02f,
-7.34505011e-03f,+1.36929154e-01f,-2.34341044e-02f,-1.53770059e-01f,-1.20987877e-01f,
+5.46683550e-01f,+3.25193163e-03f,+8.65842178e-02f,-5.85665256e-02f,+7.68560618e-02f,
-1.37560472e-01f,-1.66093260e-01f,-1.10781185e-01f,+4.64467518e-02f,+1.60866231e-01f,
-1.06467396e-01f,+2.45010898e-01f,+2.50012636e-01f,-8.17477405e-02f,+3.12854163e-02f,
-2.21970566e-02f,+2.40842700e-01f,-2.98189789e-01f,-2.71518767e-01f,-2.48794872e-02f,
+6.07266184e-03f,-3.41499187e-02f,-2.34889865e-01f,-1.28229409e-01f,-7.66822472e-02f,
+7.51112029e-02f,+1.22210376e-01f,+3.45204324e-01f,+9.88085791e-02f,-2.33914182e-01f,
+4.35375646e-02f,-2.17852771e-01f,+1.01927139e-01f,-1.70017183e-01f,+1.74404308e-01f,
-5.58819212e-02f,+2.51024663e-01f,-1.97566915e-02f,+1.03305206e-01f,-2.78093964e-01f,
+1.05065338e-01f,+3.51398923e-02f,+4.09886204e-02f,+5.64366318e-02f,+1.88190907e-01f,
-5.36911339e-02f,-1.41170487e-01f,-2.42135124e-04f,-3.63538414e-02f,-1.76715255e-01f,
-1.39588490e-01f,+8.07674453e-02f,+1.66912571e-01f,-5.17132282e-02f,+1.22205205e-02f,
+3.76179405e-02f,-6.25265315e-02f,-2.25069113e-02f,-1.08525485e-01f,+7.75043741e-02f,
+7.70383701e-02f,+5.56792095e-02f,+1.16148428e-03f,-7.90788531e-02f,-1.13345996e-01f,
-2.21364662e-01f,+3.52668792e-01f,-1.84001371e-01f,-1.86584786e-01f,+3.68928850e-01f,
-1.03640050e-01f,+9.25278142e-02f,+9.65023935e-02f,+4.09482010e-02f,+1.18883729e-01f,
-8.28938484e-02f,-2.11500958e-01f,+7.43394271e-02f,+2.69096792e-01f,-2.40546584e-01f,
-2.44817808e-01f,-5.99156879e-02f,-1.88694298e-01f,+1.24316402e-01f,+7.81976953e-02f,
+1.25783727e-01f,-1.11851327e-01f,-3.34145516e-01f,+1.75731495e-01f,+9.64899827e-03f,
+1.12844445e-01f,-2.46536266e-02f,+6.60114810e-02f,+2.01041371e-01f,+9.81061161e-02f,
-1.79386556e-01f,-7.83135220e-02f,+1.30723655e-01f,+5.04667088e-02f,-1.65107340e-01f,
+7.73234814e-02f,-8.88746902e-02f,+1.79318413e-01f,-1.79168209e-02f,-5.32465838e-02f,
-2.88701773e-01f,+2.71995179e-02f,+2.53354400e-01f,+1.60785481e-01f,+7.44649321e-02f,
-1.70626655e-01f,+1.28970131e-01f,-2.57976472e-01f,+5.47072627e-02f,+1.86183810e-01f,
+1.63679227e-01f,+8.42702091e-02f,-3.39324981e-01f,+8.35013017e-02f,+1.14573605e-01f,
-1.03936471e-01f,-3.30355763e-01f,-8.72753710e-02f,-1.14893749e-01f,+3.74435335e-01f,
+4.46947336e-01f,+1.97924465e-01f,+9.57489386e-02f,+4.42894429e-01f,+2.79547215e-01f,
+1.02137290e-01f,-2.68968344e-01f,+3.42561454e-02f,-6.97633065e-03f,-1.41458914e-01f,
-6.77727908e-02f,+2.50052273e-01f,-4.91766781e-02f,-1.54956326e-01f,-2.29608744e-01f,
-3.94309452e-03f,+4.92753536e-02f,-3.52762826e-02f,+1.88137665e-02f,+1.35156602e-01f,
+1.29674390e-01f,-1.46276399e-01f,-5.54676838e-02f,+4.44393396e-01f,+4.61393185e-02f,
+2.88829561e-02f,-3.66077907e-02f,-2.24733390e-02f,+3.16785350e-02f,-9.88059565e-02f,
+1.45653794e-02f,+2.39800319e-01f,-1.13832466e-02f,-9.92047116e-02f,-5.68142571e-02f,
-2.65659958e-01f,+2.28844896e-01f,+1.54990312e-02f,+2.07081214e-02f,+1.20120034e-01f,
-5.33371754e-02f,+6.25544339e-02f,-7.15097487e-02f,+2.20371112e-02f,+1.21439487e-01f,
-3.33257020e-01f,-4.03102078e-02f,+5.99435046e-02f,-2.84518301e-01f,+1.86409310e-01f,
-1.22956587e-02f,+1.97315127e-01f,-1.12850137e-01f,+4.18747589e-02f,-1.97043523e-01f,
+8.91015828e-02f,+3.93806189e-01f,-1.56877279e-01f,-6.84361160e-02f,-1.17139965e-01f,
+1.63840532e-01f,-6.25244230e-02f,+1.90260917e-01f,-1.19859157e-02f,+1.38278231e-01f,
-1.54180989e-01f,-1.06067821e-01f,+3.14703397e-02f,+2.56161392e-01f,+2.71005958e-01f,
+3.58735919e-01f,+2.96710312e-01f,+1.47620574e-01f,-1.91387013e-01f,+4.37894575e-02f,
+8.09431523e-02f,+2.80757993e-02f,+5.28052785e-02f,+1.16290964e-01f,+1.46256998e-01f,
-3.89032252e-02f,+3.15760672e-01f,-2.12756738e-01f,+1.33122072e-01f,-1.12924367e-01f,
-1.85360610e-01f,-1.77931026e-01f,-4.35836390e-02f,+2.52630971e-02f,+5.95191009e-02f,
+1.21852033e-01f,-8.18803906e-02f,+7.09889084e-02f,+6.12951458e-01f,-1.28680512e-01f,
+1.74567118e-01f,-1.33197427e-01f,-2.14460373e-01f,+1.21365227e-02f,+6.10954575e-02f,
-1.95671275e-01f,+8.85045230e-02f,+2.94681311e-01f,-1.36814684e-01f,-1.85192943e-01f,
+1.94905609e-01f,+1.07166700e-01f,-5.80298975e-02f,+3.32300439e-02f,+3.04748416e-02f,
+2.02239081e-01f,-1.00038745e-01f,+3.24780077e-01f,+2.17353791e-01f,-2.63458043e-01f,
+8.45880657e-02f,+1.97665542e-01f,+5.44076525e-02f,-2.18615830e-02f,-2.08424658e-01f,
+6.00496046e-02f,-1.86677977e-01f,+8.45063478e-02f,+7.42953122e-02f,-1.02332555e-01f,
+2.69719005e-01f,-7.49834627e-02f,-2.26085320e-01f,+1.30357906e-01f,-1.73311234e-01f,
-1.27407033e-02f,+2.78543800e-01f,+8.09551701e-02f,+1.38845876e-01f,-5.39231524e-02f,
-1.29177526e-01f,-6.42323196e-02f,+1.69430524e-01f,+1.05971582e-01f,-2.37821862e-01f,
-2.94775004e-03f,-4.42917258e-01f,+3.16201597e-01f,-1.91646457e-01f,-1.03002265e-02f,
+6.44672513e-02f,+1.29053295e-01f,+1.95506588e-01f,+1.82491213e-01f,+2.12066278e-01f,
+3.13067809e-02f,+1.70656852e-02f,+6.12315815e-03f,-6.81199282e-02f,-1.41609564e-01f,
+3.36500295e-02f,-1.25596404e-01f,+2.00218502e-02f,+2.24429578e-01f,-1.98387176e-01f,
+3.76306325e-01f,+4.01298285e-01f,-7.28433877e-02f,-3.04502696e-01f,-2.99916148e-01f,
+1.69470802e-01f,-1.06321633e-01f,+3.11854213e-01f,+5.13369851e-02f,+3.09441119e-01f,
-4.53194715e-02f,+9.20612291e-02f,+1.65537998e-01f,-1.91903114e-01f,+2.71848112e-01f,
+1.74465328e-01f,+1.94707721e-01f,-1.37733042e-01f,+4.80214730e-02f,+6.12184033e-02f,
-1.04073472e-01f,+2.06139773e-01f,-2.15069875e-01f,+2.31926233e-01f,-4.54065911e-02f,
-1.39708176e-01f,+3.34835112e-01f,+2.61126366e-02f,+2.80030727e-01f,-6.33356795e-02f,
-1.18924849e-01f,+5.80810755e-02f,+2.16454670e-01f,+1.93216912e-02f,+1.48249626e-01f,
-3.65748480e-02f,+1.31837592e-01f,+3.33124459e-01f,+1.02290787e-01f,+4.33301441e-02f,
-1.21397346e-01f,+5.41728958e-02f,+1.40937686e-01f,+1.74896911e-01f,+1.53458387e-01f,
+5.57409711e-02f,+1.92783371e-01f,-1.89434081e-01f,-1.42976999e-01f,+3.44496630e-02f,
-1.55781403e-01f,+9.18559283e-02f,-8.92838314e-02f,+1.16122412e-02f,+1.89109191e-01f,
+9.87661816e-03f,+3.24822776e-02f,+3.06059778e-01f,-1.69319183e-01f,+2.05213919e-01f,
+2.85739154e-02f,+9.27382782e-02f,+1.92532405e-01f,+2.16172218e-01f,+1.85089111e-01f,
+1.46742463e-01f,-1.06698954e-02f,-4.22193855e-03f,+1.91850498e-01f,+4.04808670e-02f,
+3.87943089e-01f,-2.19047561e-01f,-1.61385238e-01f,-6.93332851e-02f,+5.28933555e-02f,
+1.68718137e-02f,+1.41082123e-01f,-1.57947108e-01f,+2.83620954e-01f,-4.46464084e-02f,
+4.64250632e-02f,-1.16913445e-01f,+2.89913267e-01f,-9.90702212e-02f,+1.13712810e-01f,
+1.36239111e-01f,-1.07528977e-01f,+3.56539898e-02f,+7.60632306e-02f,-1.63955614e-01f,
+3.42389531e-02f,-8.91097169e-03f,-2.76719593e-02f,+6.14455482e-03f,+1.95628256e-01f,
+6.31913021e-02f,+8.28132685e-03f,-1.89486012e-01f,-2.33263090e-01f,-4.78015766e-02f,
+5.45727730e-01f,+1.87087700e-01f,-6.97344393e-02f,-6.62711635e-02f,+9.55341849e-03f,
-1.13459960e-01f,+2.63825562e-02f,-1.18448071e-01f,+1.68714240e-01f,-9.99137089e-02f,
+2.09144447e-02f,-1.85151160e-01f,+2.82061268e-02f,-3.51356596e-01f,-3.87488939e-02f,
-4.65880111e-02f,-1.12860642e-01f,-2.79231220e-02f,+1.24257728e-01f,-9.94619876e-02f,
-1.44864038e-01f,+1.69601977e-01f,-2.87633035e-02f,-7.05495477e-02f,-1.27842739e-01f,
+2.73054808e-01f,+5.04228950e-01f,+1.23327799e-01f,-1.58617735e-01f,+7.37438574e-02f,
+1.77734002e-01f,+1.59236625e-01f,-3.95474672e-01f,-1.01909593e-01f,+1.17811143e-01f,
+9.37868282e-02f,-5.66927120e-02f,-6.33485541e-02f,-7.04677552e-02f,+2.52204724e-02f,
+2.15234667e-01f,-2.51930445e-01f,+7.20787421e-03f,-1.35131523e-01f,+1.95246115e-01f,
+1.15987852e-01f,-1.06599204e-01f,-1.94388977e-03f,-4.91638295e-02f,-1.06070332e-01f,
-2.94094887e-02f,+2.09605679e-01f,+1.69603169e-01f,+1.06595412e-01f,-3.87693644e-02f,
-4.85733300e-02f,+1.37980446e-01f,+2.88351983e-01f,+9.38677713e-02f,+1.60313100e-01f,
+1.34445438e-02f,+5.21937191e-01f,+2.78792024e-01f,+7.15409443e-02f,+8.98335725e-02f,
-1.62239075e-01f,+2.33510524e-01f,+2.38953963e-01f,-1.41661856e-02f,-1.50244832e-01f,
+1.78358167e-01f,-1.48956835e-01f,+1.28009215e-01f,+1.39497995e-01f,+1.99638426e-01f,
+7.66375959e-02f,+4.96454611e-02f,+7.48923346e-02f,-1.11039519e-01f,-3.22261363e-01f,
+1.29184010e-03f,-8.34129453e-02f,+5.01419790e-02f,-6.96917698e-02f,-4.62840237e-02f,
+1.13396626e-02f,-3.01151395e-01f,-9.48487148e-02f,+2.50984598e-02f,-9.63777155e-02f,
+3.01232666e-01f,+9.60897729e-02f,-5.80602586e-02f,+1.41048446e-01f,+2.79295951e-01f,
+1.23741180e-01f,-6.61901012e-02f,+2.39124328e-01f,-1.76564619e-01f,-2.38513686e-02f,
+1.38247237e-02f,+2.38015875e-02f,+6.07583076e-02f,-3.79060097e-02f,+2.72222549e-01f,
+8.15342292e-02f,+2.56799221e-01f,+1.84878502e-02f,-1.14016831e-01f,+3.85340117e-02f,
-1.18870825e-01f,+1.43659683e-02f,+2.57006556e-01f,-9.97073874e-02f,+1.22591540e-01f,
-1.52720660e-01f,-6.19813167e-02f,-2.36019507e-01f,+1.26149639e-01f,-8.26303139e-02f,
+9.49653760e-02f,+7.49882907e-02f,-3.66608053e-01f,+1.21847153e-01f,-1.23944715e-01f,
+3.86319496e-02f,+2.30234787e-01f,+4.04576629e-01f,+5.33606932e-02f,+3.04427892e-01f,
+7.65171573e-02f,-2.47733384e-01f,+7.15308413e-02f,+8.98838416e-02f,+2.79165983e-01f,
+1.12126403e-01f,+2.45640296e-02f,+1.72256231e-01f,+1.89960763e-01f,+1.52439564e-01f,
-8.10486451e-03f,+1.45618647e-01f,+2.37716734e-01f,+9.14831981e-02f,+2.80823350e-01f,
-1.15830496e-01f,+1.46480516e-01f,+7.35767409e-02f,+1.58758432e-01f,+3.05789355e-02f,
+3.06658167e-02f,-7.00878352e-02f,+1.04690623e-02f,-7.93099776e-03f,+5.56471869e-02f,
+1.75718203e-01f,+1.33090228e-01f,+2.33163863e-01f,-4.61350121e-02f,+6.63040727e-02f,
+2.04424068e-01f,+1.55731693e-01f,-1.72482710e-02f,+1.53120071e-01f,+1.43821254e-01f,
-9.45735052e-02f,+1.33393824e-01f,+1.32915720e-01f,+1.39816403e-01f,+1.76846664e-02f,
+2.70897131e-02f,-8.52813013e-03f,-6.89399242e-02f,+1.58318713e-01f,+5.20107104e-03f,
-1.08764395e-02f,+1.97436035e-01f,+7.71410093e-02f,-2.85263490e-02f,-5.90805635e-02f,
-8.31081718e-02f,-3.69867198e-02f,-1.68003943e-02f,+4.33591986e-03f,+9.71383974e-02f,
+2.18163967e-01f,-4.86462517e-03f,+6.93933740e-02f,+8.95914510e-02f,-3.17984521e-02f,
+2.19738007e-01f,+1.33281291e-01f,+2.11009428e-01f,-1.78653449e-02f,-7.71220773e-02f,
+2.62999028e-01f,+3.94750722e-02f,+2.14751288e-02f,+9.68325734e-02f,+1.08082443e-01f,
-8.72215442e-03f,+1.78607762e-01f,-6.06926978e-02f,+6.43286109e-02f,-6.91960305e-02f,
+3.47812586e-02f,+1.79095834e-01f,-2.99135856e-02f,-1.09565735e-01f,+2.54261829e-02f,
+9.09565464e-02f,+1.95454434e-01f,+3.49639729e-02f,-4.61947694e-02f,+1.39470190e-01f,
+1.11859187e-01f,+8.37742910e-02f,+1.28391415e-01f,-2.07600534e-01f,-5.63902557e-02f,
+1.52781874e-01f,+6.76795840e-02f,+1.43190369e-01f,+2.62714587e-02f,-4.84505333e-02f,
-4.93443497e-02f,+3.31653617e-02f,-1.25153184e-01f,-7.43730441e-02f,+1.06511362e-01f,
-3.34186666e-02f,-1.25706138e-03f,+6.76019415e-02f,+2.41194904e-01f,+8.85124728e-02f,
+2.33857974e-01f,+6.86261728e-02f,+5.95032386e-02f,-2.39305720e-01f,+1.22935042e-01f,
+8.63191038e-02f,-5.17379381e-02f,-5.10844663e-02f,+1.76944479e-01f,+6.82605803e-02f,
+3.18485382e-03f,+2.41302684e-01f,+8.33822414e-02f,-2.31068358e-01f,+1.20744504e-01f,
+2.10030466e-01f,+7.92118609e-02f,+2.27216974e-01f,+3.00295688e-02f,-3.93617675e-02f,
+1.10781617e-01f,+4.90968004e-02f,+1.78782061e-01f,+7.72003457e-03f,+1.09598316e-01f,
-4.56368998e-02f,+2.29543641e-01f,+1.51366249e-01f,+1.18800931e-01f,+8.34555775e-02f,
-8.11636541e-03f,+1.57148659e-01f,+1.72619998e-01f,-9.22543108e-02f,-1.12526022e-01f,
+1.32227782e-02f,-7.28493556e-02f,+8.54960382e-02f,+3.25508475e-01f,-3.92823488e-01f,
-5.31222299e-03f,-3.89764905e-02f,-1.20508656e-01f,+1.47908926e-01f,+4.67438400e-02f,
+1.81451738e-02f,+1.69223607e-01f,-7.14898705e-02f,+2.02929173e-02f,+6.48209080e-02f,
-1.39183491e-01f,-9.20877978e-02f,+1.41535744e-01f,+5.10530025e-02f,+1.66353077e-01f,
+8.21570009e-02f,+1.82278026e-02f,-2.81800162e-02f,-2.58053225e-02f,-6.35069469e-03f,
+5.43175265e-02f,+7.77147710e-02f,+3.62504750e-01f,-1.82809487e-01f,-5.35578355e-02f,
+1.13226861e-01f,-9.74574164e-02f,+6.47413582e-02f,-1.06131271e-01f,-9.77100953e-02f,
-1.59954894e-02f,-1.82653487e-01f,+2.21025243e-01f,+1.83395460e-01f,-2.22967956e-02f,
+1.90962955e-01f,+1.18969582e-01f,+2.99620181e-02f,+9.00435001e-02f,+1.12262234e-01f,
+8.13440681e-02f,+4.81685810e-02f,+7.26136565e-02f,-1.59020290e-01f,-1.24673702e-01f,
+9.01442245e-02f,-3.89455892e-02f,+1.80215776e-01f,-4.52369601e-02f,-3.97273675e-02f,
+1.32933512e-01f,+1.07150011e-01f,-1.15324453e-01f,+7.22320229e-02f,-6.96659908e-02f,
-1.16886877e-01f,+6.20376226e-03f,-1.78205948e-02f,+5.19122183e-02f,-7.42657855e-02f,
+2.87914649e-02f,+1.27581373e-01f,+9.82494280e-02f,+2.88459938e-02f,+5.84889464e-02f,
+1.50889069e-01f,+1.67902023e-01f,+3.68794613e-02f,+1.79808438e-01f,+1.00593373e-01f,
-7.32484907e-02f,-5.48754260e-03f,+3.69532555e-02f,+1.96986094e-01f,+7.16351345e-02f,
-1.10389642e-01f,-4.94091399e-02f,+2.82710996e-02f,-5.84669597e-02f,+1.41850427e-01f,
-9.43570808e-02f,+4.07023244e-02f,-6.84369728e-02f,+2.23143343e-02f,-4.50851619e-02f,
-4.73509617e-02f,-4.92853746e-02f,-8.91472250e-02f,-1.28991678e-01f,+8.82192776e-02f,
+1.93985552e-01f,+7.61209875e-02f,+2.50097606e-02f,+5.05127013e-02f,-1.62984356e-02f,
+4.94869128e-02f,+3.23465168e-02f,-2.24366132e-02f,-8.27642754e-02f,+9.30009410e-02f,
+9.03280601e-02f,+6.94509745e-02f,-9.52747837e-02f,-6.99143186e-02f,+5.45472391e-02f,
+2.46973544e-01f,+3.61573696e-02f,-1.36558488e-01f,+8.77748877e-02f,+1.41348660e-01f,
-1.54379476e-02f,+1.56229407e-01f,+3.13843563e-02f,+1.43854275e-01f,+9.63675454e-02f,
+5.69970384e-02f,+2.35346444e-02f,+1.39220431e-01f,+2.84498900e-01f,+1.43515795e-01f,
+2.88811207e-01f,+6.60182908e-02f,-1.18649274e-01f,+5.98595887e-02f,+2.85660885e-02f,
-1.23503663e-01f,+3.30952890e-02f,-1.78575888e-01f,+1.53817147e-01f,-3.61078754e-02f,
-1.35960549e-01f,+1.84166163e-01f,+6.71924576e-02f,+6.18488081e-02f,+7.97201470e-02f,
+1.11443633e-02f,+4.64512147e-02f,+1.20274566e-01f,+2.43794143e-01f,+1.23342849e-01f,
-5.42399101e-02f,+5.62853180e-02f,+3.45474072e-02f,+1.70769185e-01f,+1.08540133e-01f,
+9.19241607e-02f,-3.41762044e-02f,-4.68558855e-02f,-8.34706873e-02f,+3.98133397e-02f,
+2.69555181e-01f,+7.31048137e-02f,+4.01902199e-02f,+9.04672742e-02f,+2.11611032e-01f,
+9.83991846e-02f,+2.73313243e-02f,-2.94113383e-02f,+4.76853102e-02f,+1.93605535e-02f,
-1.19616762e-02f,-7.09703639e-02f,+2.18554065e-01f,+3.57714817e-02f,+1.73351824e-01f,
-1.47756562e-01f,-4.73065339e-02f,-1.34182870e-01f,+3.41336168e-02f,+1.48236118e-02f,
+1.49754109e-02f,+7.30577484e-02f,+1.36571765e-01f,-7.90191367e-02f,+2.44646538e-02f,
-9.02770907e-02f,+1.86819416e-02f,-1.53321698e-01f,-1.40614405e-01f,-3.68586898e-01f,
-1.89523865e-03f,-2.70966347e-02f,-5.62959462e-02f,+6.12910017e-02f,-4.28372324e-02f,
+4.07399237e-02f,-5.23045957e-02f,+1.59376740e-01f,+1.52497122e-03f,-1.27878979e-01f,
+1.32396057e-01f,+7.45381117e-02f,+1.08357280e-01f,-1.27416059e-01f,+2.11551905e-01f,
+9.69908610e-02f,-3.78747314e-01f,+8.89471769e-02f,-1.24956772e-01f,+1.13634631e-01f,
-1.28598243e-01f,+4.75221723e-02f,-1.35946289e-01f,+2.03249961e-01f,+1.19354650e-01f,
-1.53026864e-01f,+8.05067196e-02f,-5.67954741e-02f,+1.06586926e-01f,-2.70406872e-01f,
-2.63278168e-02f,+2.35706016e-01f,-2.00453907e-01f,+3.75938229e-02f,-2.60894537e-01f,
+1.30726531e-01f,-1.05312496e-01f,-1.33310914e-01f,-7.61479959e-02f,+1.37542665e-01f,
-4.41547744e-02f,+1.08401254e-01f,+4.17275056e-02f,-2.59232074e-01f,+1.98988751e-01f,
+2.65920937e-01f,+2.04659365e-02f,-1.16133727e-02f,+9.38719586e-02f,-3.46729636e-01f,
-3.74323502e-02f,+1.13668300e-01f,-2.40709230e-01f,-1.95251316e-01f,+4.03400898e-01f,
+2.29514107e-01f,+1.04810800e-02f,+2.51562688e-02f,-1.24528492e-02f,+1.73099756e-01f,
+1.20003767e-01f,+2.03953102e-01f,-2.27041438e-01f,+1.25582650e-01f,-2.56410152e-01f,
+1.43220857e-01f,-2.74284393e-01f,-1.49382323e-01f,+3.51173908e-01f,-3.28753293e-02f,
+1.42997801e-01f,+8.95239934e-02f,+2.63888407e-02f,+1.35116413e-01f,-2.28345972e-02f,
-8.77912715e-02f,+9.21268016e-02f,-1.40938967e-01f,+8.88929069e-02f,+2.85606831e-02f,
-1.27067894e-01f,+1.05754167e-01f,+3.81914526e-01f,-1.11301959e-01f,-1.44017845e-01f,
+4.33160327e-02f,+7.94455186e-02f,+1.18783571e-01f,+4.68596257e-02f,+3.50776315e-03f,
+7.04069287e-02f,-1.86049461e-01f,+2.07295030e-01f,-4.16644290e-02f,-1.36682589e-03f,
+1.51960298e-01f,-1.09876491e-01f,-2.16755643e-01f,-1.56646371e-01f,-5.35260178e-02f,
+1.28014266e-01f,+1.40085146e-01f,+1.78386465e-01f,+5.57658933e-02f,+6.11914955e-02f,
+8.93729087e-03f,+1.93127185e-01f,+7.99217355e-03f,+1.19552106e-01f,-1.72947332e-01f,
-1.07290141e-01f,-7.04442710e-02f,+7.99452141e-02f,+3.87655161e-02f,-3.72749120e-02f,
-2.73624342e-02f,+7.20418841e-02f,+1.88429698e-01f,+7.71846995e-02f,-7.13580847e-02f,
-5.52421324e-02f,+7.09326863e-02f,+1.10028058e-01f,-4.67036404e-02f,-1.78756174e-02f,
+2.52546500e-02f,-2.09090248e-01f,-5.41062765e-02f,-3.54438871e-02f,-2.24152684e-01f,
+8.58072191e-02f,-1.49097636e-01f,+1.80887461e-01f,-5.13285771e-02f,+1.09330244e-01f,
-4.63515893e-02f,+2.37042516e-01f,+2.33894438e-01f,-1.44958626e-02f,+5.73939420e-02f,
-1.77361406e-02f,+6.60646111e-02f,-9.12001431e-02f,-2.88782299e-01f,-5.84403239e-02f,
+2.50623524e-01f,-1.09341945e-02f,+1.55213177e-01f,+1.00192726e-01f,-1.11427791e-01f,
-5.03683351e-02f,+1.38746560e-01f,+1.61970347e-01f,-1.39112294e-01f,-8.31191614e-02f,
+1.95238531e-01f,+3.26899469e-01f,+2.85466671e-01f,-2.68763416e-02f,+2.15466041e-02f,
-8.47178996e-02f,-4.77511808e-03f,+1.19236588e-01f,+1.08289145e-01f,+1.18241474e-01f,
+6.49367496e-02f,-7.79625326e-02f,-1.38217747e-01f,+1.65503129e-01f,-2.24681184e-01f,
+1.59110814e-01f,+1.45165890e-01f,+6.59540966e-02f,-1.53940380e-01f,+3.35873723e-01f,
+1.56559646e-01f,-1.04580723e-01f,-5.57461530e-02f,-1.10684387e-01f,-3.46726216e-02f,
+3.18171345e-02f,-1.12749517e-01f,-1.62826017e-01f,+1.09254725e-01f,-6.12352937e-02f,
+8.24455246e-02f,-1.45295203e-01f,-4.73197922e-02f,+4.45840023e-02f,-5.65872854e-03f,
+1.93492338e-01f,-2.11642176e-01f,+2.99642491e-03f,-6.71611130e-02f,+1.35692060e-01f,
-1.52172491e-01f,+3.87995727e-02f,-2.78762817e-01f,+2.60031894e-02f,-2.70364225e-01f,
+1.57529578e-01f,-8.92221779e-02f,+3.41717541e-01f,+1.22302406e-01f,+2.49622643e-01f,
-2.12640166e-01f,+8.36601704e-02f,+8.55319425e-02f,-1.39715388e-01f,+1.10137518e-02f,
-5.39931580e-02f,+8.45178887e-02f,-3.22115719e-02f,-1.21583797e-01f,+3.46235633e-01f,
+7.68544897e-02f,-1.37368396e-01f,+2.37620007e-02f,-6.01324998e-02f,-1.74967617e-01f,
-1.01708800e-01f,-1.99585348e-01f,+1.09728530e-01f,-4.84274775e-02f,-9.90237072e-02f,
+5.10376096e-02f,-2.91698158e-01f,-1.00494638e-01f,+1.16627149e-01f,+3.40520926e-02f,
+2.10871071e-01f,+7.34379366e-02f,-2.49807060e-01f,+3.34149189e-02f,-2.47357078e-02f,
+1.60775840e-01f,+8.94676372e-02f,+1.94319814e-01f,+4.43917252e-02f,+6.69750422e-02f,
-3.22664343e-02f,+2.44486973e-01f,-1.54615238e-01f,+1.03440411e-01f,+2.39969954e-01f,
+7.53460377e-02f,+1.10963985e-01f,+8.95652622e-02f,+1.68615520e-01f,-2.72764135e-02f,
+1.55615985e-01f,+4.06040810e-02f,-7.16540869e-03f,-2.59378910e-01f,+1.21598281e-01f,
-3.23317833e-02f,-6.61891773e-02f,+2.48428077e-01f,+6.78889975e-02f,+3.59723084e-02f,
+1.22087076e-01f,-2.02043891e-01f,-1.41952902e-01f,-1.50821209e-01f,-6.86908886e-02f,
-4.29559126e-02f,-2.56359547e-01f,+1.69024795e-01f,-1.51681140e-01f,+3.42450254e-02f,
+1.78344455e-02f,+9.95778665e-02f,+1.61200047e-01f,-6.21763291e-03f,+1.31076842e-04f,
+1.36377662e-01f,+2.05736354e-01f,+4.18376587e-02f,+3.18047404e-01f,-9.17996168e-02f,
-4.15322408e-02f,+1.60099193e-01f,+4.54485677e-02f,+1.87299207e-01f,+8.10671374e-02f,
-8.64157677e-02f,+2.51883477e-01f,+1.27554044e-01f,-5.03587462e-02f,+1.85953230e-01f,
+1.74169466e-01f,+6.81065470e-02f,+2.40754965e-03f,+1.62333056e-01f,-1.53592914e-01f,
+9.56787914e-03f,+5.44770993e-02f,-8.31338093e-02f,-6.63729310e-02f,+1.07188739e-01f,
-2.04872891e-01f,-1.19590804e-01f,+2.36810669e-01f,+1.61930889e-01f,+3.21682766e-02f,
-5.48373908e-02f,-2.33144432e-01f,+2.27858722e-02f,+3.11294459e-02f,+5.75025082e-02f,
-1.50729820e-01f,+4.35702316e-02f,+9.21195894e-02f,-1.69260442e-01f,-5.26097640e-02f,
+1.49560556e-01f,+1.01091139e-01f,+3.77253629e-02f,+1.62059404e-02f,+1.60194457e-01f,
+2.23228395e-01f,-1.83004200e-01f,+8.16198438e-02f,+5.31132333e-02f,+2.33466923e-02f,
+3.32418680e-01f,-1.48947891e-02f,-3.28845941e-02f,+2.47600392e-01f,+1.14110559e-01f,
-2.79475916e-02f,+8.49107131e-02f,+2.37569481e-01f,-1.08293861e-01f,+2.90560246e-01f,
-5.40848449e-02f,-1.87049955e-01f,-5.31058423e-02f,+2.39447225e-02f,-2.83069778e-02f,
+1.72688738e-01f,+5.94703928e-02f,+2.74268668e-02f,-1.19921185e-01f,-1.97501779e-01f,
+4.53605354e-02f,+1.88968867e-01f,-2.06410825e-01f,-2.36271083e-01f,+5.14981395e-04f,
+5.04805669e-02f,+3.60884182e-02f,-5.35840578e-02f,+2.71657914e-01f,-1.72714740e-02f,
+1.59151465e-01f,+1.56699568e-01f,+1.59870297e-01f,+1.06080040e-01f,-1.30550921e-01f,
-5.95614873e-02f,+8.62429067e-02f,+1.72802150e-01f,-2.10297287e-01f,-1.72166601e-01f,
-1.81386527e-02f,-1.20326653e-01f,+2.63065457e-01f,+7.68535445e-03f,+8.61673132e-02f,
+6.25535920e-02f,-3.25992286e-01f,-1.15165152e-01f,+3.02904457e-01f,+1.34822875e-01f,
-1.89562708e-01f,+1.20425761e-01f,+1.04165353e-01f,+4.56640497e-02f,+1.48156047e-01f,
+7.80357569e-02f,-2.79768139e-01f,-6.45422668e-04f,+2.89785862e-01f,-1.46017626e-01f,
+9.56431106e-02f,+8.68234932e-02f,-3.58349346e-02f,+1.76414073e-01f,+8.63848403e-02f,
+9.19251591e-02f,+1.33536071e-01f,-3.47797871e-01f,+3.44497524e-02f,+9.04350057e-02f,
-7.48676211e-02f,-3.52205858e-02f,+3.19372453e-02f,+1.88982949e-01f,+2.23569304e-01f,
-4.04759079e-01f,-1.41301706e-01f,+7.53642321e-02f,-2.10831389e-01f,-1.08500548e-01f,
+2.32822433e-01f,-1.26170576e-01f,+8.14148039e-02f,-1.09998167e-01f,-2.29433522e-01f,
-6.72410354e-02f,-3.17240596e-01f,-1.07451022e-01f,+4.50097118e-03f,-1.91131949e-01f,
-8.63482580e-02f,+1.20883644e-01f,+1.00737944e-01f,+2.90618502e-02f,-4.82985936e-02f,
+2.09311917e-02f,+1.30622029e-01f,+1.36334542e-02f,+1.18619703e-01f,+1.25056610e-01f,
-2.14623716e-02f,-1.53935716e-01f,-5.65342195e-02f,+9.92184058e-02f,-8.57464224e-02f,
-8.35010037e-03f,+1.36232987e-01f,+1.52735129e-01f,+2.84054037e-02f,-9.27429348e-02f,
+4.14052486e-01f,+3.24612111e-01f,-2.62564749e-01f,+1.60970360e-01f,+1.13253489e-01f,
+5.26003027e-03f,-6.17604852e-02f,+6.89297169e-02f,+1.19012363e-01f,-3.30241799e-01f,
-5.12408391e-02f,-1.41953185e-01f,+1.80056319e-02f,-5.32712266e-02f,-1.70250610e-02f,
+1.99001223e-01f,-1.81953181e-02f,-1.15433604e-01f,+1.92400932e-01f,+1.01744242e-01f,
-1.68397129e-02f,-1.40727341e-01f,+5.66137992e-02f,+1.08116083e-01f,+1.81503087e-01f,
-1.72490761e-01f,-2.12364033e-01f,-1.79717824e-01f,-9.24315006e-02f,+6.35648742e-02f,
-1.41068190e-01f,-1.28502205e-01f,-9.22863409e-02f,+7.49261230e-02f,+1.15395688e-01f,
-4.06210631e-01f,+9.35216919e-02f,+8.55637714e-02f,+5.23850061e-02f,-1.46096140e-01f,
-1.59011148e-02f,-3.58012050e-01f,-4.29261923e-02f,+1.19739957e-01f,-6.03216924e-02f,
-6.14942275e-02f,-1.07951686e-01f,-1.96112469e-01f,+2.08329603e-01f,+6.32639155e-02f,
+1.67116206e-02f,-3.54003012e-01f,+7.58937299e-02f,+1.54150382e-01f,-3.04918766e-01f,
-9.80951935e-02f,+1.03678137e-01f,-1.42236516e-01f,+3.07107151e-01f,-1.52846752e-03f,
+1.52669977e-02f,+4.42691185e-02f,-1.74519092e-01f,+2.28198200e-01f,+5.73133975e-02f,
-1.23645319e-03f,+2.29010433e-01f,+3.27057801e-02f,-2.48193637e-01f,-2.71080017e-01f,
+8.88808817e-03f,+1.62501395e-01f,-5.40751293e-02f,-4.09887470e-02f,-2.72353496e-02f,
+1.92138851e-02f,-9.09063742e-02f,-6.06791303e-02f,+7.11012110e-02f,+1.99651390e-01f,
+7.23730102e-02f,-1.47596136e-01f,-1.17064230e-01f,+2.99075898e-02f,+2.79679596e-01f,
+2.21509472e-01f,-2.78767999e-02f,+6.65084794e-02f,+5.94225042e-02f,+4.59243171e-03f,
+1.65984750e-01f,-1.59275383e-01f,-9.11253616e-02f,-3.80739495e-02f,+2.71043599e-01f,
-9.75566879e-02f,-9.82985348e-02f,+1.83191095e-02f,-1.19761050e-01f,-8.74252319e-02f,
-1.28856987e-01f,+1.28662944e-01f,+7.92083293e-02f,-7.84805864e-02f,+1.34418560e-02f,
+3.97283405e-01f,-1.33612916e-01f,+3.35456766e-02f,+1.35842949e-01f,-4.31266464e-02f,
+1.05228595e-01f,-3.11643481e-01f,+1.03397682e-01f,+1.19035758e-01f,+2.13962451e-01f,
+5.35554290e-02f,-2.69495159e-01f,-5.28148422e-03f,+2.15143397e-01f,-1.67990401e-01f,
+1.40461966e-01f,-5.73664494e-02f,+3.62545460e-01f,+2.19983727e-01f,+1.25084266e-01f,
+7.59110376e-02f,-2.73058087e-01f,-5.24077304e-02f,-7.63820857e-02f,+1.37832597e-01f,
-1.36670634e-01f,+1.38073012e-01f,-1.73419446e-01f,-1.71451047e-01f,-1.92876145e-01f,
+1.09636433e-01f,+1.29131585e-01f,-1.11568771e-01f,+1.83171127e-02f,-1.50268987e-01f,
+9.37223956e-02f,-1.23947106e-01f,+1.71180849e-03f,-2.43194222e-01f,+1.08787969e-01f,
+1.03435799e-01f,-1.80802777e-01f,+3.70795369e-01f,-1.76099595e-02f,+8.97397175e-02f,
-2.80447677e-02f,+1.89683869e-01f,+2.96307623e-01f,+3.32786851e-02f,-4.28405888e-02f,
+3.64877552e-01f,+1.61769856e-02f,-1.95902213e-02f,+9.01603550e-02f,+2.13947124e-03f,
+1.67098269e-01f,+1.45452153e-02f,+7.20721781e-02f,-3.62691358e-02f,-3.39866579e-02f,
+1.62969217e-01f,+1.45765349e-01f,-5.44346094e-01f,+2.21640006e-01f,+5.84291853e-02f,
+1.99562907e-01f,+1.54318690e-01f,-1.13370991e-03f,+5.15203737e-02f,+1.37027547e-01f,
-3.98416042e-01f,-3.36140543e-02f,+1.63723052e-01f,-5.34167187e-03f,+1.29909158e-01f,
+1.04121808e-02f,+2.45571006e-02f,-2.71373779e-01f,+1.00458235e-01f,-2.33414814e-01f,
+2.19953954e-01f,+6.30465671e-02f,+7.62447193e-02f,+1.77639127e-01f,-5.23643307e-02f,
+1.28990188e-01f,-1.99172586e-01f,-1.12210713e-01f,-3.85918580e-02f,-8.42323005e-02f,
+1.93322212e-01f,-1.13266278e-02f,+1.54655129e-01f,-2.15826511e-01f,-8.84726271e-02f,
-3.84670123e-02f,-1.51380509e-01f,-2.72875093e-02f,-6.93333074e-02f,-9.56053808e-02f,
+1.03728786e-01f,+1.88168995e-02f,-6.09548995e-03f,-1.97653612e-03f,-1.64539605e-01f,
-1.70001388e-01f,-2.73243617e-03f,+1.91636324e-01f,+3.33603501e-01f,-5.97236045e-02f,
+3.92391175e-01f,+8.73690471e-02f,-2.15025306e-01f,+4.24642079e-02f,+5.10299988e-02f,
+8.99565145e-02f,-3.49167064e-02f,-1.44130170e-01f,-1.15753792e-01f,-1.11314505e-01f,
-7.16245323e-02f,+1.54255867e-01f,-3.71179804e-02f,+2.65324980e-01f,+1.31583408e-01f,
+2.99003392e-01f,-1.24826200e-01f,+1.44650280e-01f,+1.28925771e-01f,+7.15215132e-02f,
+3.09135281e-02f,-2.49557737e-02f,+8.02357122e-02f,-7.18999803e-02f,+7.36804679e-03f,
+5.60394526e-01f,+2.14185357e-01f,+5.56699140e-03f,-1.18408367e-01f,-2.79589504e-01f,
+1.34057388e-01f,-1.23313457e-01f,+8.95023718e-02f,-2.38173962e-01f,+5.78423543e-03f,
-3.57751310e-01f,-1.66870188e-02f,+1.23333022e-01f,-6.44226968e-02f,-1.14618540e-01f,
-5.17276861e-02f,-1.59704223e-01f,-2.16488261e-03f,+2.41316751e-01f,+1.97949886e-01f,
+1.45651594e-01f,+4.21533696e-02f,-2.49346178e-02f,-9.83292162e-02f,-1.68652058e-01f,
-1.25099197e-02f,-3.45594883e-01f,-2.11299136e-01f,+2.94455290e-01f,-1.38155639e-01f,
-3.39590050e-02f,+1.84291434e-02f,+2.74586268e-02f,+1.09081835e-01f,+2.00894371e-01f,
+6.86652809e-02f,+1.11638226e-01f,-1.04211174e-01f,-1.31554425e-01f,+2.93191761e-01f,
+1.37790307e-01f,-1.09012514e-01f,-1.00861944e-01f,+8.77292231e-02f,+2.21180618e-01f,
+2.17063904e-01f,+4.86938469e-02f,+1.19077086e-01f,+3.68847400e-02f,+2.23892853e-01f,
+1.12647951e-01f,+7.54041504e-03f,+6.97133020e-02f,+1.49907649e-01f,+1.88700408e-01f,
-2.47072175e-01f,+1.00787491e-01f,-1.40134037e-01f,-7.79211521e-02f,+5.67448558e-03f,
-1.91457525e-01f,+4.97271977e-02f,+4.24518511e-02f,-1.07021742e-01f,-2.09436789e-01f,
+3.43174813e-03f,+6.55269548e-02f,+4.78620082e-02f,+1.12442754e-01f,+2.07666103e-02f,
+1.21813983e-01f,-1.20538026e-01f,-7.33525380e-02f,-4.79389608e-01f,-4.79429632e-01f,
+6.54088240e-03f,-9.50994715e-02f,+1.34652242e-01f,+9.01109353e-02f,+1.00623086e-01f,
-3.53364080e-01f,-7.61870742e-02f,-3.98167782e-02f,+8.64515230e-02f,+8.08723569e-02f,
+3.37170333e-01f,+2.64187038e-01f,+9.36001167e-02f,+5.19373775e-01f,+4.32054065e-02f,
+4.40010130e-02f,-4.49111164e-01f,-4.79628816e-02f,-9.00384858e-02f,+4.26342636e-01f,
-2.42644791e-02f,-1.58755824e-01f,-1.02477288e-02f,+4.02954593e-02f,-1.86851054e-01f,
-1.07791200e-02f,+2.79657155e-01f,+3.82728219e-01f,-1.03544578e-01f,-9.79243591e-02f,
-7.39283487e-02f,-9.23765749e-02f,+6.73424155e-02f,-5.95739447e-02f,-2.44710788e-01f,
-2.08592534e-01f,-4.51717190e-02f,+1.31299242e-01f,+3.55167985e-01f,+1.14747711e-01f,
-6.60481688e-04f,+2.52629250e-01f,+1.01736553e-01f,+1.39823228e-01f,+2.42126122e-01f,
+1.81404501e-01f,+2.22949614e-03f,+1.94777012e-01f,+9.64484438e-02f,-1.30559027e-01f,
+2.14442804e-01f,-9.79962125e-02f,+8.70965645e-02f,+1.34754777e-01f,+7.08298460e-02f,
+1.12189852e-01f,-6.98509961e-02f,-1.26616567e-01f,+3.96939367e-02f,+1.12211280e-01f,
+9.20931324e-02f,-1.49328545e-01f,+1.93608299e-01f,+2.07756296e-01f,+2.23389462e-01f,
+9.40108821e-02f,-2.31308192e-01f,-6.60546124e-02f,-2.81667799e-01f,-3.21521312e-02f,
-2.30111912e-01f,-1.00117251e-01f,+3.24940262e-03f,-8.39147344e-02f,+8.70799273e-02f,
-1.38734490e-01f,-1.50060117e-01f,+2.97110558e-01f,-9.76660475e-02f,+6.28316775e-02f,
-2.95509964e-01f,-5.96366189e-02f,-9.03584510e-02f,-1.22127563e-01f,-1.13498494e-01f,
-3.31337973e-02f,-3.83818634e-02f,-2.32481807e-01f,-2.09717169e-01f,-5.25908358e-02f,
-3.09785485e-01f,+2.64996856e-01f,+5.20418808e-02f,+2.22513109e-01f,-1.28426373e-01f,
+1.78708993e-02f,+4.13057432e-02f,+1.54473782e-01f,+1.48542915e-02f,-1.15883234e-03f,
-1.49841323e-01f,-2.76297331e-01f,-1.90798461e-01f,+5.22407796e-03f,+9.16302502e-02f,
+1.77714944e-01f,+5.33945188e-02f,-5.06215263e-03f,+9.28794518e-02f,+5.69392219e-02f,
-8.53006542e-02f,-1.23303436e-01f,-1.74422383e-01f,+8.64139870e-02f,-4.99250144e-02f,
+3.56815636e-01f,-6.79663615e-03f,+1.57535896e-01f,+7.92002603e-02f,-1.13402709e-01f,
+1.05986819e-01f,+1.40960991e-01f,-4.60905721e-03f,+9.91658270e-02f,-2.86371768e-01f,
+9.28141624e-02f,+1.65939182e-02f,-1.55780897e-01f,-4.53517139e-02f,+1.68143183e-01f,
+3.88595909e-02f,+6.16231821e-02f,+2.78925389e-01f,+1.26946151e-01f,-3.43169756e-02f,
+1.50266454e-01f,+4.49778438e-02f,-2.30912641e-01f,-1.98184609e-01f,+1.73815470e-02f,
-1.90937296e-01f,-2.67857790e-01f,-5.55214882e-02f,+8.19932967e-02f,+3.68502319e-01f,
-3.26747596e-01f,-1.54448329e-02f,+1.29173756e-01f,+1.22598827e-01f,-1.55123025e-01f,
-3.26987773e-01f,+2.99906284e-01f,+2.92248517e-01f,+3.64390939e-01f,-3.39014560e-01f,
-3.98637176e-01f,-1.01987451e-01f,+1.09096594e-01f,-3.81331474e-01f,-8.75907987e-02f,
+1.56152084e-01f,+4.00671214e-01f,-4.97183017e-03f,+2.26596087e-01f,+1.27225183e-02f,
+3.33000273e-01f,+3.24935675e-01f,+3.74596417e-01f,+3.08141381e-01f,+3.61761481e-01f,
-2.76688877e-02f,+1.64156899e-01f,-1.85764194e-01f,-1.70124501e-01f,-4.32103388e-02f,
+2.96655118e-01f,+1.01420537e-01f,+1.31370872e-01f,-1.58233076e-01f,+9.35438648e-02f,
-1.10953813e-02f,+3.09520494e-02f,-1.11221701e-01f,-3.75532091e-01f,+1.00857407e-01f,
+1.55729845e-01f,-1.72070026e-01f,+1.71717316e-01f,-2.16482375e-02f,-7.52221495e-02f,
+2.19118506e-01f,+9.76439789e-02f,+2.31639575e-02f,+1.03446238e-01f,-4.55812037e-01f,
+1.65198147e-01f,+1.38245493e-01f,+5.20212725e-02f,+6.18544258e-02f,+3.29047590e-02f,
+2.42079362e-01f,+3.86345804e-01f,-6.00169525e-02f,+2.97364086e-01f,-2.57176280e-01f,
-8.12693760e-02f,+1.39048994e-01f,+1.70982614e-01f,+1.30696550e-01f,-5.42050526e-02f,
+2.59057015e-01f,-1.04268216e-01f,+7.55384415e-02f,-2.95817270e-03f,-6.30319342e-02f,
+4.17684734e-01f,+9.66434032e-02f,+5.18936694e-01f,-1.64599583e-01f,-7.33194873e-03f,
-7.28789270e-02f,-1.24539711e-01f,+2.18586028e-01f,-5.25279762e-03f,+6.75301105e-02f,
+4.05429378e-02f,+3.06354892e-02f,-1.19340740e-01f,+2.42148250e-01f,+1.19089391e-02f,
-1.04726717e-01f,-4.35279086e-02f,+5.13634598e-03f,-2.04325348e-01f,-2.17188522e-01f,
+2.50834107e-01f,-1.26608551e-01f,-1.19349442e-01f,+4.27169688e-02f,-3.73121291e-01f,
+2.17993289e-01f,+8.53745192e-02f,-3.43566202e-02f,+2.23221794e-01f,+2.04521880e-01f,
+6.08975142e-02f,+3.35904509e-01f,+3.50218087e-01f,-2.95602307e-02f,-5.54176807e-01f,
-1.69161618e-01f,-7.12047443e-02f,+2.72825450e-01f,-6.40368909e-02f,-5.70209362e-02f,
+6.16308413e-02f,-5.58791816e-01f,-1.25242108e-02f,+5.05310595e-02f,+5.32432795e-01f,
-5.92844561e-02f,+2.67031547e-02f,+5.09843603e-03f,-2.76336581e-01f,-1.92234725e-01f,
+1.99024126e-01f,+9.96228606e-02f,-1.69137076e-01f,+9.85311046e-02f,+3.39482397e-01f,
+9.68273357e-02f,+3.17740411e-01f,+1.12279087e-01f,+1.58119917e-01f,-2.36022338e-01f,
-8.67902413e-02f,+1.90473527e-01f,-1.12775125e-01f,+1.87085688e-01f,+7.19329044e-02f,
+2.75668234e-01f,-1.78712048e-02f,+3.87207568e-02f,+1.38965100e-01f,+1.57501116e-01f,
-1.34250209e-01f,+1.43225864e-02f,-4.22067046e-02f,+3.23973782e-02f,-4.25750464e-02f,
-9.05969366e-02f,-1.35362163e-01f,-4.81904857e-02f,+5.54732420e-02f,-1.21783331e-01f,
+3.69537622e-02f,+4.95276928e-01f,+1.78564548e-01f,+5.48682548e-02f,-4.39306140e-01f,
+1.11384876e-02f,+8.16011578e-02f,-1.24579161e-01f,-6.65111542e-02f,+7.67632201e-02f,
+3.24707836e-01f,-2.08683103e-01f,+3.31838667e-01f,+2.42075324e-01f,-7.04756230e-02f,
-1.92153856e-01f,-9.98421684e-02f,-2.70198017e-01f,-2.44020805e-01f,-2.18044057e-01f,
-1.55939668e-01f,+5.79330362e-02f,+1.97120309e-01f,+1.48590431e-01f,+1.82300314e-01f,
-3.17766130e-01f,-2.12390512e-01f,+1.66961342e-01f,-2.33692512e-01f,+1.28235132e-01f,
+3.51572454e-01f,+1.05345130e-01f,-4.39550355e-02f,-3.71137634e-02f,+2.01871127e-01f,
+1.14790134e-01f,+3.86145234e-01f,+1.20570503e-01f,+4.97173145e-02f,+5.68301938e-02f,
-1.27526715e-01f,+8.97703841e-02f,+4.09492292e-02f,+4.84948233e-03f,+4.23115015e-01f,
+4.78307217e-01f,+1.34982049e-01f,+1.89586133e-01f,+1.14334539e-01f,+1.18832238e-01f,
+7.67672658e-02f,+1.54166659e-02f,-7.25405142e-02f,-1.48953781e-01f,+1.51578188e-01f,
-1.38756391e-02f,-1.51029944e-01f,+1.64844915e-02f,-1.60758998e-02f,+4.54901438e-03f,
+2.92885959e-01f,+8.62206072e-02f,-3.50359946e-01f,-1.45973980e-01f,+1.52517101e-02f,
-3.00940961e-01f,+1.88458174e-01f,-6.61934987e-02f,-1.42102852e-01f,-4.56103943e-02f,
+2.28208229e-01f,-8.00490938e-03f,-9.89904404e-02f,+2.60942336e-02f,-1.65933371e-01f,
-3.09724718e-01f,+1.70232832e-01f,+1.98623359e-01f,+3.96101862e-01f,-1.68389544e-01f,
+2.49920547e-01f,-1.99371502e-01f,-2.30621457e-01f,-3.04996461e-01f,-1.61329612e-01f,
-2.88588583e-01f,+1.53410181e-01f,+1.27203852e-01f,-3.33095074e-01f,+2.01802328e-01f,
+1.98392347e-02f,+2.41270870e-01f,-7.39172176e-02f,-3.83956358e-02f,+5.79951517e-03f,
-3.03487312e-02f,-2.06286758e-01f,+2.09047161e-02f,-4.88021784e-02f,-1.22192144e-01f,
+5.03284782e-02f,-3.24535996e-01f,+3.92981097e-02f,+4.00981270e-02f,-3.92795503e-02f,
-8.66165385e-02f,+1.43383276e-02f,+9.18162391e-02f,+1.96579900e-02f,-1.08482060e-03f,
-7.09893852e-02f,-5.27344309e-02f,+7.08789304e-02f,+1.08199872e-01f,-3.70562412e-02f,
-4.77673411e-02f,+3.52539837e-01f,+1.78777725e-01f,-1.87162042e-01f,+1.20158814e-01f,
-2.51184821e-01f,-1.17725916e-01f,+1.12466864e-01f,+5.90944216e-02f,+7.23516941e-02f,
-1.90838007e-03f,-3.43920022e-01f,+9.07109901e-02f,-1.73346624e-01f,-4.65748534e-02f,
+1.23647384e-01f,+6.36037812e-02f,+4.22493219e-02f,+1.58635266e-02f,+2.25448459e-01f,
+4.01846692e-02f,+5.73391616e-02f,+2.33111698e-02f,+1.49918810e-01f,-2.56918371e-01f,
-1.12179793e-01f,-4.06394638e-02f,-6.09511994e-02f,+2.04235271e-01f,-1.45028923e-02f,
+1.41086876e-01f,+2.16204554e-01f,+1.72115657e-02f,+1.55258805e-01f,+1.47093683e-01f,
+1.85164437e-01f,-1.68179303e-01f,+1.71429306e-01f,+1.85286835e-01f,-1.39687777e-01f,
+9.80243683e-02f,-7.62155652e-02f,+1.84910119e-01f,-7.46886656e-02f,-2.33195558e-01f,
-2.70639341e-02f,-1.55174688e-01f,+5.69138909e-03f,+2.96437144e-01f,-1.26225278e-01f,
-9.30342823e-02f,-1.24042235e-01f,+1.87455654e-01f,-3.48049477e-02f,+5.21769583e-01f,
+8.62936229e-02f,+3.56687009e-01f,-1.30736873e-01f,-1.48923680e-01f,+2.35356867e-01f,
-4.91869859e-02f,+2.62286663e-01f,+1.78760923e-02f,+7.99187347e-02f,+1.26711696e-01f,
+4.93036136e-02f,-1.95819169e-01f,-2.23903418e-01f,+3.52930725e-01f,+1.65786371e-01f,
-9.74641442e-02f,-1.62700310e-01f,-2.10891008e-01f,-4.67795655e-02f,+5.36835976e-02f,
-2.36975759e-01f,-1.79386899e-01f,-4.18701828e-01f,-1.60721287e-01f,-7.25778332e-03f,
+3.28286082e-01f,-2.63189133e-02f,+1.39455050e-01f,+1.03621535e-01f,+2.38709122e-01f,
+5.01614213e-02f,-1.09826639e-01f,+1.33595131e-02f,-1.50966883e-01f,+5.95333055e-03f,
-4.25669879e-01f,+8.68871883e-02f,+7.73454756e-02f,-1.11756347e-01f,-1.84558779e-01f,
-1.75392941e-01f,+1.95279062e-01f,+2.69741297e-01f,+1.69651553e-01f,-4.03500110e-01f,
+2.34655827e-01f,-1.34012729e-01f,-9.30618942e-02f,+6.93091825e-02f,+1.62121803e-01f,
-1.94319800e-01f,+2.87552536e-01f,+8.66111070e-02f,-1.17048830e-01f,+1.15614049e-01f,
-2.50235666e-02f,+9.84229073e-02f,-2.53439099e-01f,+4.43737246e-02f,-1.95493311e-01f,
-2.65119046e-01f,-1.20994046e-01f,-2.46053845e-01f,+1.31720260e-01f,-1.26460239e-01f,
+1.19872302e-01f,-1.32860675e-01f,+3.00006121e-01f,-9.10059607e-04f,+3.04945447e-02f,
-1.37941316e-01f,+9.14391577e-02f,+1.60365239e-01f,+1.52574688e-01f,-2.87472427e-01f,
+9.10856500e-02f,-1.68976009e-01f,+1.08197488e-01f,+7.13763684e-02f,-5.91073073e-02f,
-6.77365735e-02f,+7.38697723e-02f,+1.70489639e-01f,+2.90136430e-02f,+1.93341479e-01f,
+9.07586738e-02f,-5.33941612e-02f,-2.31160596e-02f,+9.73885655e-02f,+1.30279183e-01f,
-1.09846957e-01f,-1.93331212e-01f,+3.19265528e-03f,-5.99911511e-02f,+1.74875975e-01f,
+1.01967096e-01f,-6.08579479e-02f,+9.13083702e-02f,+4.22404446e-02f,-2.03091368e-01f,
-6.20303936e-02f,-1.03782095e-01f,+9.46208611e-02f,+3.25077586e-02f,+1.64655834e-01f,
-1.15754567e-01f,+1.47583529e-01f,+2.77540889e-02f,-1.42345786e-01f,+5.33906221e-01f,
-5.17745595e-03f,+8.84013847e-02f,-4.26741838e-02f,-7.56536247e-05f,+1.60288706e-01f,
+2.14535728e-01f,+6.48587644e-02f,+5.73072433e-02f,+8.29250962e-02f,+8.88883844e-02f,
+2.35333070e-01f,-1.09280594e-01f,-5.53929210e-02f,-1.19942874e-01f,+2.68041883e-02f,
+1.43901482e-01f,+3.43202055e-01f,+8.45658407e-03f,+2.19197981e-02f,-3.74475792e-02f,
-1.17112726e-01f,+8.12599510e-02f,-2.40020640e-02f,+5.82506927e-03f,+6.92397775e-03f,
-1.89905670e-02f,+1.68558672e-01f,-2.67456979e-01f,-1.07216552e-01f,-1.10103667e-01f,
+3.57583575e-02f,-7.75115937e-02f,-5.57632707e-02f,+2.51634061e-01f,-9.95217264e-02f,
-2.37322688e-01f,+2.72012174e-01f,+1.92390233e-01f,+2.19233796e-01f,+2.35934302e-01f,
+8.02098066e-02f,+1.96286902e-01f,+6.46709353e-02f,+2.53949344e-01f,-2.23187786e-02f,
-3.16236950e-02f,-1.59506515e-01f,+6.80085719e-02f,-6.76621497e-02f,-2.14072634e-02f,
-3.74119990e-02f,-1.18446141e-01f,-6.22822996e-03f,-6.53377622e-02f,-9.92736444e-02f,
-6.71456754e-03f,-2.56133258e-01f,+1.81772292e-01f,+2.72284299e-01f,-5.30523211e-02f,
-3.33094667e-03f,+3.50835025e-01f,+4.30603474e-02f,+2.72737116e-01f,-6.76292852e-02f,
+2.14106470e-01f,+1.49008706e-01f,+9.98198986e-02f,+3.01502585e-01f,+8.65120888e-02f,
+4.26492095e-02f,-7.43934012e-04f,+1.17814183e-01f,-1.73609719e-01f,-1.61267579e-01f,
-5.26854943e-04f,-2.20331460e-01f,+9.68851522e-03f,+1.14291146e-01f,-6.38922025e-03f,
-2.57961601e-01f,+2.65045837e-02f,+8.21682159e-03f,-1.21369332e-01f,+7.38539025e-02f,
-3.40499692e-02f,-8.83695632e-02f,-6.99548423e-02f,+2.08539784e-01f,-3.55808809e-02f,
+4.02504683e-01f,-1.17814146e-01f,-7.20531419e-02f,+1.89853340e-01f,+1.15621248e-02f,
+2.98428923e-01f,-1.71382308e-01f,+1.80800959e-01f,-2.74092019e-01f,+8.08323622e-02f,
-7.69194737e-02f,-1.95321187e-01f,-1.90531403e-01f,+1.02566723e-02f,+2.60074772e-02f,
-2.97516808e-02f,-2.58274406e-01f,-9.74085107e-02f,-7.89518431e-02f,-1.80506617e-01f,
-8.82522464e-02f,+1.18531309e-01f,+4.27191369e-02f,-6.19286001e-02f,-1.20748751e-01f,
-8.53239894e-02f,-3.69229913e-02f,+4.38388847e-02f,+2.70454753e-02f,+1.77947339e-02f,
-6.33150414e-02f,-1.50620148e-01f,-6.35258108e-02f,-1.40622661e-01f,+1.21844791e-01f,
+1.29622236e-01f,+2.52453834e-01f,+2.41371751e-01f,+2.29052752e-01f,+1.98360205e-01f,
-2.63692766e-01f,-1.23059273e-01f,-7.35229030e-02f,+1.56916492e-02f,-9.61357206e-02f,
-2.08760843e-01f,+3.36910188e-02f,+2.41032079e-01f,+4.84157875e-02f,-2.05481853e-02f,
+1.33372217e-01f,+8.16618800e-02f,-2.60262579e-01f,-3.07932254e-02f,-1.73205063e-01f,
+2.70214140e-01f,+3.93950552e-01f,-2.29921252e-01f,-1.68292910e-01f,+7.22615495e-02f,
-3.50328982e-02f,-3.25143635e-02f,-2.98208501e-02f,-1.10877499e-01f,+1.01663754e-03f,
-3.45976278e-02f,+2.81243473e-01f,-1.01151764e-02f,-2.03985110e-01f,+1.33576207e-02f,
+1.12113338e-02f,+1.61628693e-01f,-1.32080272e-01f,+3.88105400e-03f,-7.33984560e-02f,
-5.22267818e-02f,+7.95448292e-03f,-1.54581204e-01f,-1.00495316e-01f,+9.19470116e-02f,
+5.78619391e-02f,+3.02342862e-01f,+4.08680320e-01f,-1.34806335e-01f,-1.01314865e-01f,
+1.44367158e-01f,+1.59010112e-01f,-1.44446522e-01f,-1.58871844e-01f,-2.80489363e-02f,
-5.54220639e-02f,+3.61950308e-01f,+2.12941673e-02f,+7.23896697e-02f,+2.12997291e-02f,
-1.60271838e-01f,-1.67731438e-02f,-9.72576216e-02f,+2.69380450e-01f,-8.23518634e-02f,
+1.39713615e-01f,+1.02276862e-01f,+5.53114042e-02f,-1.01870596e-01f,+3.27810533e-02f,
-3.29606608e-02f,+2.17561051e-01f,+9.17973891e-02f,+4.79705557e-02f,-1.43468529e-02f,
+1.31193966e-01f,+2.75244057e-01f,-1.67111959e-02f,+1.68563038e-01f,-2.13485286e-01f,
+2.65412331e-01f,-3.52612101e-02f,+7.70271719e-02f,+2.38987654e-01f,-1.15622155e-01f,
-2.25298554e-02f,-1.10047147e-01f,+3.13213557e-01f,-2.37167440e-02f,-1.83797851e-01f,
-8.64290148e-02f,+1.14325956e-01f,+3.18668336e-01f,+7.95928016e-02f,+5.82366250e-02f,
+6.37218580e-02f,+1.22243248e-01f,+3.04166060e-02f,-1.10658288e-01f,+3.77067886e-02f,
+1.88626479e-02f,+3.18438441e-01f,-1.28933966e-01f,-1.55204311e-01f,+3.33658963e-01f,
+1.65985510e-01f,-2.45185614e-01f,+3.71955901e-01f,-3.77304037e-03f,+1.47310691e-02f,
+9.97188613e-02f,+4.62352216e-01f,+6.01945519e-02f,+2.57025480e-01f,+2.72886567e-02f,
+9.48493853e-02f,+8.04492645e-03f,+3.62489410e-02f,+2.04007089e-01f,+1.45568863e-01f,
+1.57999039e-01f,-1.19338050e-01f,+3.30607921e-01f,+7.43239373e-02f,+1.59082413e-01f,
-1.11440115e-01f,-5.72877713e-02f,-4.34076451e-02f,+4.04071957e-01f,+9.89774317e-02f,
+2.59813201e-02f,-1.24493457e-01f,-1.44186676e-01f,+3.92340153e-01f,-2.15178490e-01f,
-9.58333835e-02f,+6.63288608e-02f,+5.84428348e-02f,-3.40940505e-02f,-1.92053765e-01f,
-1.76939324e-01f,-2.75449809e-02f,-5.62995188e-02f,+9.01145265e-02f,-1.80173114e-01f,
-7.52767697e-02f,+8.52608532e-02f,+1.54816389e-01f,+9.26427394e-02f,+4.65573333e-02f,
+4.55907360e-02f,+7.24716187e-02f,-1.68349165e-02f,-3.02598715e-01f,+1.70435816e-01f,
-1.20393336e-01f,-2.17506573e-01f,-1.42656136e-02f,+1.30798951e-01f,-5.13726100e-02f,
-5.43140694e-02f,-1.18621150e-02f,-1.21045098e-01f,-9.09034833e-02f,+1.36106927e-02f,
+1.45631850e-01f,+2.87181020e-01f,-1.20012805e-01f,+9.35507640e-02f,+2.19211757e-01f,
+2.19817981e-01f,+2.13634260e-02f,+1.74880415e-01f,+3.26309609e-03f,+6.30252361e-02f,
-1.18481793e-01f,+1.25260115e-01f,-8.01191851e-02f,+1.46465302e-01f,-9.36566591e-02f,
+1.16468772e-01f,+1.43349499e-01f,+1.77094564e-02f,+1.84069857e-01f,-5.35365380e-03f,
-1.15114518e-01f,-7.28102922e-02f,+2.93379612e-02f,+6.67395517e-02f,+8.64880830e-02f,
-5.33904694e-02f,+3.72586995e-02f,-3.14155221e-02f,+9.29991156e-02f,-1.35590313e-02f,
+1.62499659e-02f,+1.68441042e-01f,-1.67615712e-01f,+1.47817925e-01f,+1.54880807e-01f,
+2.18889013e-01f,+3.61603722e-02f,+2.25661650e-01f,+1.31180668e-02f,-5.11013009e-02f,
+1.34491563e-01f,+1.32048041e-01f,+3.41024131e-01f,-9.58473906e-02f,-1.63645372e-01f,
+6.62828833e-02f,-8.38483498e-02f,-8.16058442e-02f,+7.83965960e-02f,+2.63781119e-02f,
-2.80903757e-01f,+1.77219629e-01f,-3.50232311e-02f,+7.67810866e-02f,+2.68590331e-01f,
+9.30597261e-02f,-2.48373654e-02f,-7.92334415e-03f,-4.69618961e-02f,+2.03687921e-02f,
+1.56378429e-02f,-1.72230601e-01f,-1.83010809e-02f,+1.13002211e-02f,-4.08559367e-02f,
+1.53470919e-01f,-8.16679373e-02f,-1.23700999e-01f,-1.04141481e-01f,-2.27579754e-02f,
+9.59803015e-02f,-1.01518035e-01f,-2.24804040e-03f,-9.46136713e-02f,+1.10189267e-01f,
+6.35477155e-02f,-2.53893077e-01f,+1.41927570e-01f,-5.11985235e-02f,+1.46955058e-01f,
-1.92251235e-01f,-2.50605494e-02f,+6.38993606e-02f,+1.52475938e-01f,-9.13744867e-02f,
+2.55566258e-02f,-3.51319075e-01f,+7.40353987e-02f,+1.64426163e-01f,-7.25476369e-02f,
+1.28577456e-01f,+2.66636312e-01f,+3.24906223e-02f,+1.56726539e-02f,+1.19153522e-01f,
+5.01970090e-02f,-1.39253335e-02f,+1.50870606e-01f,+9.56492200e-02f,+4.98463847e-02f,
-8.34991876e-03f,+1.79172814e-01f,+3.46178710e-02f,+1.10612307e-02f,-4.21871506e-02f,
-9.68228746e-03f,-7.64435679e-02f,+2.23125726e-01f,+6.71528652e-02f,+1.60018861e-01f,
+1.04638562e-02f,-6.88720867e-02f,+7.16900527e-02f,+2.90421575e-01f,+1.24241732e-01f,
-5.63187152e-03f,+1.26623586e-01f,+3.37561786e-01f,+7.45390654e-02f,+1.11429453e-01f,
-9.53048095e-02f,-9.77479946e-03f,-4.00988646e-02f,+3.93336304e-02f,-9.34738740e-02f,
+1.79761618e-01f,-2.56016962e-02f,+3.02796140e-02f,-1.08236879e-01f,+1.52514055e-01f,
+2.05703229e-02f,+1.37787938e-01f,+9.82592907e-03f,-1.36017933e-01f,-7.84985647e-02f,
-1.20357335e-01f,+1.71802133e-01f,+7.47696906e-02f,-1.15473360e-01f,+1.06942058e-02f,
+1.62218474e-02f,+1.81449633e-02f,+2.49832332e-01f,+2.49154672e-01f,+2.83759367e-02f,
+2.37474740e-02f,+1.19882755e-01f,+6.25084713e-02f,-1.85535714e-01f,-4.16229526e-03f,
-2.18635555e-02f,-2.03704357e-01f,+9.30766016e-02f,+7.93070272e-02f,-2.07885325e-01f,
+6.25570491e-02f,-5.99880852e-02f,+9.66327488e-02f,+1.12113670e-01f,-2.92584840e-02f,
-1.02836668e-01f,-1.22191735e-01f,-8.84382576e-02f,-1.92676663e-01f,-5.38611505e-03f,
-1.13441117e-01f,+1.54569641e-01f,+1.30083442e-01f,-3.39309275e-02f,+1.55942246e-01f,
-2.51903515e-02f,+2.62063533e-01f,-1.38444096e-01f,+9.48876143e-02f,-7.32083619e-02f,
+2.57460326e-01f,+6.25476707e-03f,+1.07385672e-03f,+1.38241321e-01f,+9.02141333e-02f,
+6.33620620e-02f,-1.09178886e-01f,+7.76884407e-02f,-1.23978049e-01f,+2.04241648e-02f,
-1.22226954e-01f,+7.12378249e-02f,+8.84171128e-02f,+4.01425846e-02f,+1.63737144e-02f,
+1.67249352e-01f,+9.04236734e-03f,+9.02139544e-02f,-2.03308035e-02f,-2.01833233e-01f,
+1.51644915e-01f,+1.75628960e-02f,+1.87327921e-01f,-1.08673796e-02f,-4.01215255e-02f,
-9.01404023e-02f,-1.12194672e-01f,-9.99965742e-02f,-7.97318742e-02f,-7.31971264e-02f,
-9.16641727e-02f,+9.47615728e-02f,+2.61550676e-02f,-1.09654769e-01f,-1.33122772e-01f,
+2.50273079e-01f,+1.65899277e-01f,-1.67722672e-01f,-1.45338088e-01f,-2.59046890e-02f,
-7.80198583e-03f,+2.58399159e-01f,+5.98755404e-02f,+1.01950519e-01f,-1.56727806e-01f,
+1.36701195e-02f,+1.00545473e-01f,+9.51295495e-02f,+1.91418186e-01f,+1.78297788e-01f,
+9.00969356e-02f,-1.40583679e-01f,-5.94194643e-02f,-3.90667915e-02f,+1.43237293e-01f,
-2.36533433e-01f,-1.47833616e-01f,+4.66198549e-02f,-4.49001305e-02f,+1.69891287e-02f,
+1.55790001e-01f,-1.82293113e-02f,+7.85858259e-02f,-2.60121655e-02f,+7.12296218e-02f,
-1.28732309e-01f,+1.43966014e-02f,+4.40910906e-02f,+5.24262749e-02f,-2.38033608e-02f,
-5.66564389e-02f,-3.13298665e-02f,+1.43509835e-01f,+1.76022694e-01f,+1.02499641e-01f,
-4.32599522e-03f,+1.45722494e-01f,+1.21489301e-01f,-1.25734016e-01f,+1.54029354e-01f,
-7.35998079e-02f,+1.22774787e-01f,+2.16371585e-02f,+5.01242839e-02f,-3.01840883e-02f,
-1.36925019e-02f,+1.01354167e-01f,-7.47389421e-02f,+2.07459163e-02f,-4.73743938e-02f,
+4.28706110e-02f,-4.21228446e-02f,+1.44836515e-01f,+2.34126091e-01f,+6.40694946e-02f,
-9.72642377e-02f,+9.33040380e-02f,+1.74718294e-02f,-1.77507013e-01f,-3.31727415e-02f,
-1.61480114e-01f,+5.81192933e-02f,-2.25533247e-01f,-3.50878954e-01f,+8.18369538e-02f,
-1.08690090e-01f,+2.51504388e-02f,+1.57475874e-01f,+9.78550687e-02f,+3.12355235e-02f,
-7.73437545e-02f,-4.39092629e-02f,+8.07560608e-02f,+9.96054038e-02f,+1.06732994e-01f,
-2.99689490e-02f,+1.17782168e-01f,+6.93944469e-02f,+1.03406742e-01f,+9.33421254e-02f,
+4.52356748e-02f,-1.83348227e-02f,-4.34378050e-02f,+3.29334475e-02f,+5.61198443e-02f,
+1.61338568e-01f,+7.65265375e-02f,-3.46434452e-02f,+1.24561049e-01f,+1.57423481e-01f,
+9.18575656e-03f,+6.19239733e-02f,+2.10647047e-01f,-3.07657029e-02f,+2.77116001e-01f,
+5.04195951e-02f,+5.96559644e-02f,+3.97707298e-02f,+1.01478815e-01f,+4.39286754e-02f,
+8.25914294e-02f,+2.37150595e-01f,+1.79741576e-01f,+9.55160856e-02f,+1.56914130e-01f,
-1.15033984e-02f,+7.52761438e-02f,+8.44518766e-02f,-1.01188533e-01f,+1.11681752e-01f,
-3.07420284e-01f,+1.18462548e-01f,+1.50357559e-01f,-1.77196085e-01f,+2.13804379e-01f,
+6.49740472e-02f,+8.21399689e-02f,-5.06211398e-03f,-1.07193641e-01f,-5.58793433e-02f,
+3.24569084e-02f,-5.72712347e-02f,-5.50455377e-02f,+1.78017795e-01f,-7.65194651e-03f,
-1.30249307e-01f,+1.39906108e-01f,-2.02500690e-02f,+2.90087680e-03f,+7.27580860e-02f,
+2.67676324e-01f,-3.70808206e-02f,+6.55219108e-02f,+7.75490403e-02f,+1.66784182e-01f,
+1.69990808e-02f,+3.08571875e-01f,+2.25812301e-01f,+3.92914474e-01f,+9.93171334e-02f,
-5.29858470e-02f,-2.64923964e-02f,+1.92395329e-01f,-1.93101466e-01f,+1.73600540e-01f,
+5.35425209e-02f,+1.10444296e-02f,+1.54583886e-01f,+1.95718646e-01f,-2.33097579e-02f,
-1.56458646e-01f,+7.50575885e-02f,-1.16040662e-01f,-1.27318859e-01f,+1.06280521e-01f,
-2.63937954e-02f,-3.45465206e-02f,+7.52326250e-02f,+1.49271637e-01f,-1.10587627e-02f,
+2.88419016e-02f,+2.63973832e-01f,+2.13342771e-01f,-6.56968653e-02f,+2.08769754e-01f,
+1.16206676e-01f,-1.33105218e-01f,+2.73148090e-01f,-3.04551780e-01f,+2.08831161e-01f,
-7.49856010e-02f,+8.91689137e-02f,+1.47913113e-01f,-1.80891365e-01f,+6.57835081e-02f,
+1.35420531e-01f,-9.74490047e-02f,-2.95802136e-03f,+1.25368163e-01f,-9.76179913e-02f,
+7.73579478e-02f,+1.82979628e-01f,+6.94921538e-02f,+4.82338332e-02f,-7.77877495e-03f,
-6.01595687e-03f,-1.99659958e-01f,-5.74061498e-02f,-7.75667578e-02f,+1.29246354e-01f,
+2.40390435e-01f,+6.25690445e-02f,+1.22563504e-01f,+6.33654594e-02f,-3.57264243e-02f,
+1.68927908e-02f,-2.30750933e-01f,+7.76025504e-02f,+9.43360627e-02f,-1.58385560e-01f,
+2.53558338e-01f,+9.85271949e-03f,+7.83968270e-02f,-2.54393876e-01f,+1.64599910e-01f,
+2.46138006e-01f,+1.39749363e-01f,-1.41745597e-01f,-1.10867597e-01f,-5.81797063e-02f,
+1.43130571e-01f,-2.07129985e-01f,-4.66848426e-02f,+2.17222080e-01f,+9.47648734e-02f,
+7.11089745e-02f,-4.72437330e-02f,-1.61847457e-01f,-1.45788133e-01f,-6.70965463e-02f,
+2.83463225e-02f,+2.06837326e-01f,-1.14720955e-01f,-3.19764763e-01f,+4.07369584e-02f,
+2.19671503e-01f,-5.02770841e-02f,+3.08642499e-02f,+1.73246324e-01f,+5.79832420e-02f,
+8.79811123e-02f,+1.08414032e-01f,+2.07739457e-01f,+6.22815751e-02f,-8.15816671e-02f,
+2.42987528e-01f,+1.28301129e-01f,+2.05659747e-01f,-2.76099965e-02f,+1.15182407e-01f,
-6.53037876e-02f,-1.33645684e-01f,+2.13992726e-02f,+2.59820551e-01f,+5.45988828e-02f,
-1.42174825e-01f,-1.31585419e-01f,+1.97557658e-02f,+2.45850250e-01f,+5.40741235e-02f,
-1.74529731e-01f,+1.11943670e-01f,-1.75603684e-02f,+3.24163049e-01f,+1.36878397e-02f,
+9.47857648e-02f,+2.38270536e-01f,+1.41591225e-02f,-8.59146640e-02f,+2.58277982e-01f,
+7.96411186e-02f,+2.64640860e-02f,+2.71367095e-02f,+1.99873626e-01f,+3.80272679e-02f,
+1.89455926e-01f,-2.55949851e-02f,+1.97093546e-01f,-1.25265539e-01f,-1.30724430e-01f,
-3.46029289e-02f,+9.15237889e-02f,+1.85201779e-01f,+7.80489668e-02f,-2.67013977e-03f,
-3.58274840e-02f,+2.12147936e-01f,-1.08624071e-01f,-3.18587199e-02f,-8.03693831e-02f,
+1.32564278e-02f,-1.28122866e-01f,-8.17246884e-02f,-7.08935829e-03f,-3.83857042e-02f,
-4.58198190e-02f,-1.37672022e-01f,+7.24525377e-02f,+2.71954648e-02f,+2.80566245e-01f,
+1.35430157e-01f,-1.23285472e-01f,+2.19777420e-01f,+4.72785793e-02f,-4.91261622e-03f,
+9.84065980e-03f,+2.67158095e-02f,+1.42920971e-01f,+2.27274038e-02f,+1.49105906e-01f,
-6.04042131e-03f,+7.38788843e-02f,+1.92916811e-01f,-3.43481340e-02f,+1.83950160e-02f,
-1.20299816e-01f,-2.02227414e-01f,-2.51940787e-01f,+1.01300210e-01f,-2.66756117e-02f,
+2.12848932e-01f,+9.11962166e-02f,-1.87729821e-02f,-2.45619819e-01f,+2.13717863e-01f,
+1.33152142e-01f,-1.04675010e-01f,+1.61801264e-01f,-9.96042788e-02f,-2.69382626e-01f,
+1.03749307e-02f,-1.53248608e-01f,+2.10296288e-01f,+2.07174912e-01f,+9.57747921e-02f,
+5.12999333e-02f,-6.33289963e-02f,-6.42257929e-02f,-1.95902690e-01f,-1.13114297e-01f,
+9.45690498e-02f,-4.22935151e-02f,-6.41065910e-02f,+3.58961016e-01f,+1.40670538e-02f,
+6.66231848e-04f,+7.66664818e-02f,+2.03398645e-01f,+1.62834227e-01f,-1.32848874e-01f,
-1.40225776e-02f,+4.04145680e-02f,-1.21469833e-01f,+7.14381337e-02f,+8.37650001e-02f,
-7.36070648e-02f,+1.58814535e-01f,+1.75138801e-01f,+1.32538199e-01f,-1.55139059e-01f,
+6.74725175e-02f,+4.93956497e-03f,+1.29769063e-02f,-1.01310477e-01f,-1.48848578e-01f,
+8.17955434e-02f,+1.02105357e-01f,-1.49394691e-01f,+2.85936110e-02f,+3.14895250e-02f,
+1.18636921e-01f,-1.13976821e-01f,-8.71784091e-02f,+7.87703041e-03f,+1.61385849e-01f,
+1.01824142e-01f,-3.25299859e-01f,-2.75224715e-01f,+4.49569523e-02f,-4.55119349e-02f,
+2.25681961e-01f,+2.11129010e-01f,+1.08177356e-01f,+2.37963311e-02f,+7.24981651e-02f,
+7.35256150e-02f,-1.24711692e-01f,-1.57456681e-01f,-1.78404450e-01f,+1.48270369e-01f,
+2.15101376e-01f,+5.20247817e-02f,-3.41155641e-02f,+1.10718049e-01f,+3.25603455e-01f,
+3.10707651e-02f,+1.69600904e-01f,+5.61352894e-02f,+1.82090461e-01f,+4.40901071e-02f,
+5.75279854e-02f,-2.79063471e-02f,+6.71397448e-02f,+1.95483323e-02f,+1.49127126e-01f,
+6.29517213e-02f,-1.73974577e-02f,+2.77742296e-01f,-2.87944496e-01f,+1.19781047e-02f,
+9.43740830e-02f,+1.92705721e-01f,+1.02891428e-02f,+7.98320621e-02f,+4.96368743e-02f,
+1.19257808e-01f,-1.59952976e-02f,+1.37228772e-01f,+8.02174658e-02f,+6.00206554e-02f,
-2.64162481e-01f,-1.19628636e-02f,+3.82992446e-01f,-1.62033170e-01f,-1.01484135e-01f,
+3.80126648e-02f,-5.77199347e-02f,+1.10382415e-01f,+1.25136361e-01f,+1.12671144e-01f,
-1.76422969e-02f,+1.61305234e-01f,+1.58266857e-01f,+3.37063283e-01f,+8.03422257e-02f,
-9.10815671e-02f,-2.40678079e-02f,-1.64480379e-03f,-3.45769376e-02f,+1.61322758e-01f,
-6.87062368e-02f,+4.35756519e-02f,+1.03955030e-01f,-1.71209976e-01f,+2.29892299e-01f,
-2.92971311e-03f,+1.61067292e-01f,-2.15225145e-01f,-1.63736254e-01f,-2.53666908e-01f,
-3.30275118e-01f,+1.11894339e-01f,+2.06336692e-01f,+1.35849401e-01f,-6.39978722e-02f,
-4.90174405e-02f,-1.61263254e-02f,-5.78357317e-02f,-9.17481333e-02f,-1.33472174e-01f,
+9.20120925e-02f,-1.44188851e-01f,+2.20437169e-01f,-1.54617270e-02f,-6.21466972e-02f,
+3.43412459e-01f,+1.15980566e-01f,+1.62348911e-01f,+2.32982356e-02f,+6.71039298e-02f,
-4.23783883e-02f,+2.55930126e-01f,-5.46694994e-02f,+9.69032198e-02f,+7.12044537e-02f,
-9.13840532e-02f,-1.31943792e-01f,-1.45011976e-01f,+1.53359875e-01f,-9.87098664e-02f,
+9.26455669e-03f,-2.28436261e-01f,+1.47519991e-01f,+1.69658363e-01f,-1.84286647e-02f,
+5.79364300e-02f,+2.59490997e-01f,+1.53344363e-01f,+1.55832186e-01f,-1.08216852e-01f,
+1.19435467e-01f,-1.54563084e-01f,+2.00501665e-01f,+1.45555466e-01f,+1.01462007e-01f,
-8.26354772e-02f,+1.94045857e-01f,-8.41899961e-02f,-1.08362049e-01f,+1.19776176e-02f,
+1.99003562e-01f,-7.73486122e-02f,-2.33268082e-01f,-5.11236116e-02f,-2.78566748e-01f,
+4.90859747e-02f,-8.77030641e-02f,-8.52848664e-02f,+3.33605707e-02f,+1.25784993e-01f,
-3.70848179e-02f,+2.18818739e-01f,+7.89960995e-02f,-3.38058382e-01f,+1.02825472e-02f,
-3.62739146e-01f,+8.83999616e-02f,-1.01783410e-01f,+7.25164264e-02f,+3.39280784e-01f,
+1.15240075e-01f,-7.78649971e-02f,+1.67403705e-02f,+2.81664640e-01f,+5.96772358e-02f,
+2.55197380e-02f,+7.08620474e-02f,-1.17594805e-04f,+3.16212028e-01f,+1.41309395e-01f,
+8.81532505e-02f,-1.09173708e-01f,-4.34992164e-02f,-4.38823044e-01f,-8.40272084e-02f,
-1.14208221e-01f,+1.40893906e-01f,+1.34842843e-01f,-4.01610658e-02f,+2.27274746e-01f,
+2.64708903e-02f,+5.73916873e-03f,+4.63673584e-02f,-1.88485742e-01f,+2.53749818e-01f,
+9.21588689e-02f,+1.80476392e-03f,+9.55980495e-02f,+7.85959288e-02f,+3.97654921e-02f,
-1.18304476e-01f,-3.64415139e-01f,+4.69765589e-02f,-2.40496203e-01f,-2.35257745e-02f,
-5.86488545e-02f,-1.13898553e-01f,-1.49232745e-01f,+3.32400322e-01f,-2.82239050e-01f,
+1.34244502e-01f,+1.55300558e-01f,-1.86571270e-01f,-1.96952447e-01f,+2.45908415e-03f,
+1.85440674e-01f,+1.10823594e-01f,-7.05039650e-02f,+2.02796817e-01f,-3.74809563e-01f,
-1.96719646e-01f,+3.88321541e-02f,-7.03156516e-02f,+2.69813925e-01f,+2.66560197e-01f,
+1.74575895e-01f,+2.14592908e-02f,+1.75426662e-01f,-1.95177987e-01f,+1.38492018e-01f,
+1.93737045e-01f,-7.17782555e-03f,-8.07434320e-02f,-4.41777296e-02f,-1.96623310e-01f,
+6.24576993e-02f,-5.06689101e-02f,-2.14195639e-01f,+2.91875720e-01f,+2.16405764e-01f,
-1.56083675e-02f,+2.38273352e-01f,+2.11978778e-01f,-1.37024492e-01f,+1.87383130e-01f,
+3.88316393e-01f,+1.09197915e-01f,+1.71333164e-01f,-8.56766552e-02f,+3.19690332e-02f,
-3.44271660e-02f,+4.90928106e-02f,+2.30110154e-01f,+1.78587183e-01f,-2.78562635e-01f,
-2.36506704e-02f,-1.03765011e-01f,+5.93582261e-03f,+7.47461021e-02f,+2.86388278e-01f,
+3.59784365e-01f,-1.17622614e-01f,-2.19509050e-01f,+2.67273754e-01f,-3.52104574e-01f,
+7.90758878e-02f,+1.60727613e-02f,+2.78254431e-02f,-1.46287471e-01f,+1.19761787e-01f,
+1.67665631e-01f,-1.90548435e-01f,-1.03494324e-01f,-5.13073541e-02f,-1.79768518e-01f,
+1.47453472e-01f,+6.24995306e-03f,+1.50180832e-01f,+6.17735721e-02f,+1.87806040e-01f,
+1.33541897e-01f,-1.58772396e-03f,-4.28778455e-02f,-7.21590146e-02f,-4.20413502e-02f,
-1.09890617e-01f,+6.55531138e-02f,-1.37536556e-01f,-2.54207432e-01f,+2.12556899e-01f,
+6.06377721e-02f,-6.14209753e-03f,-2.26741675e-02f,-3.84826325e-02f,+7.44255930e-02f,
-1.28098115e-01f,+1.77076533e-02f,+1.08612880e-01f,-1.06566802e-01f,+4.29411143e-01f,
+1.34735286e-01f,+2.78759032e-01f,-4.57714014e-02f,+7.18381209e-03f,+1.58114940e-01f,
+1.07665233e-01f,-1.54899806e-01f,+2.33216211e-02f,+1.15829922e-01f,-1.08006010e-02f,
-1.20742545e-01f,-2.98695236e-01f,-7.61811202e-03f,+9.19401124e-02f,-2.52328277e-01f,
+1.50553763e-01f,+5.09751737e-02f,+6.02556244e-02f,+2.85596132e-01f,-3.63886990e-02f,
-7.71775693e-02f,-3.95293310e-02f,-5.94403073e-02f,-1.29003957e-01f,-1.46457836e-01f,
+1.79111600e-01f,-8.86692330e-02f,-2.60021359e-01f,+1.27789736e-01f,-2.09138229e-01f,
+3.44092101e-01f,-1.13643050e-01f,+2.04469468e-02f,+1.97319929e-02f,+4.34358455e-02f,
+1.09421551e-01f,+7.57673755e-02f,-1.08761400e-01f,+2.51503270e-02f,+2.03101128e-01f,
-2.38553599e-01f,+2.78173745e-01f,-1.09817222e-01f,+2.41166409e-02f,+2.57414997e-01f,
+1.26958773e-01f,-2.02799868e-02f,+1.42743066e-01f,+1.98046640e-01f,-4.57556248e-02f,
+3.35369319e-01f,+3.54992211e-01f,+7.75909424e-02f,-6.54909089e-02f,-1.67833902e-02f,
-1.99221581e-01f,+6.24361858e-02f,+1.78477287e-01f,-2.12619938e-02f,+1.37256265e-01f,
-2.71253049e-01f,-1.04764089e-01f,+1.42557189e-01f,+8.75900779e-03f,-1.12153925e-01f,
+1.89603735e-02f,+1.65925786e-01f,-1.18781187e-01f,+3.30101728e-01f,-3.06352824e-01f,
-9.52388048e-02f,+4.18527499e-02f,+6.65067136e-02f,-2.30141357e-01f,-3.73700336e-02f,
+2.32650474e-01f,-1.18892930e-01f,+2.13013679e-01f,-9.13973078e-02f,+5.82643077e-02f,
-3.23592961e-01f,-1.59947067e-01f,+1.08603183e-02f,-8.81742164e-02f,+2.29314446e-01f,
-5.65339699e-02f,-3.52837108e-02f,-2.91047662e-01f,+6.16767025e-03f,-2.27725469e-02f,
+8.35842732e-03f,+5.22690266e-02f,+1.36027768e-01f,+1.64875403e-01f,+8.83288905e-02f,
+4.29457016e-02f,-2.50186116e-01f,-1.07962951e-01f,-5.12486361e-02f,+3.73399183e-02f,
-2.51665294e-01f,+1.83022752e-01f,+7.81208426e-02f,-7.76773021e-02f,+4.01736468e-01f,
-1.25812814e-01f,+1.70426946e-02f,+1.20381325e-01f,+6.75713494e-02f,-1.43173203e-01f,
-4.86969948e-03f,-1.83828995e-01f,+6.20016456e-02f,-1.14152730e-01f,+9.43032727e-02f,
-9.79406610e-02f,-6.59942701e-02f,-7.70842806e-02f,+1.80840895e-01f,+3.23853761e-01f,
+5.94472922e-02f,+2.26584643e-01f,+5.52323237e-02f,-1.05960287e-01f,+1.65987164e-01f,
-7.07891062e-02f,-1.70769647e-01f,+1.85641050e-01f,+3.46178055e-01f,-1.26548812e-01f,
+1.64891392e-01f,+3.61919463e-01f,+1.08071439e-01f,+3.92205983e-01f,+2.15041384e-01f,
-4.35388945e-02f,-1.01305053e-01f,-2.84400940e-01f,+1.60980001e-01f,-2.26742923e-01f,
-1.64369240e-01f,-1.96326394e-02f,+2.59767137e-02f,+3.18720788e-01f,-1.41760126e-01f,
+2.25605369e-01f,+2.52722204e-02f,+2.44973212e-01f,-1.23508088e-01f,-7.29210302e-02f,
-1.48090914e-01f,+7.98039362e-02f,+1.60815403e-01f,+2.15548173e-01f,+1.25637531e-01f,
-6.79717660e-02f,-4.59658587e-03f,+1.32274687e-01f,-1.18108712e-01f,+7.69767240e-02f,
-8.97074118e-02f,+6.45290688e-02f,-1.37601018e-01f,+8.46612453e-02f,+3.60190012e-02f,
+1.01924002e-01f,-1.34039059e-01f,+4.67300341e-02f,+1.83628961e-01f,+1.87520579e-01f,
-7.07361028e-02f,-2.12296724e-01f,+3.37374695e-02f,+1.70956120e-01f,-1.03883497e-01f,
+1.31524742e-01f,+6.48016483e-02f,-2.49863043e-02f,+9.03583691e-02f,+1.79417640e-01f,
+4.59006317e-02f,+1.02371760e-01f,-1.53866351e-01f,-2.87685096e-01f,-4.15747702e-01f,
-4.39160056e-02f,+3.86194550e-02f,+1.21906728e-01f,-3.35550964e-01f,-8.05430189e-02f,
-2.36781817e-02f,-4.27400731e-02f,+1.62867725e-01f,-8.57055560e-02f,-2.52224118e-01f,
-2.28977092e-02f,-7.05308989e-02f,+7.44032636e-02f,-2.88830757e-01f,-2.58840229e-02f,
-6.45839497e-02f,-2.58970205e-02f,+7.72139814e-04f,-1.12040207e-01f,-1.51571527e-01f,
-1.40983611e-01f,-3.21445405e-01f,+4.82769400e-01f,-1.23595566e-01f,+3.04208010e-01f,
+3.01985759e-02f,+1.01721495e-01f,+1.84892043e-01f,+1.79420188e-01f,-7.20875487e-02f,
-2.01632872e-01f,+1.66190326e-01f,-2.81874180e-01f,-2.71024015e-02f,-2.29887486e-01f,
+1.16929233e-01f,-1.25946611e-01f,+9.05278325e-03f,+2.16392893e-02f,+9.72969737e-03f,
+1.10094942e-01f,-1.48093700e-01f,+1.64046630e-01f,+7.05330744e-02f,-4.71765101e-02f,
+3.36640894e-01f,+2.38507494e-01f,+8.89743641e-02f,+5.55206463e-02f,-7.22897425e-03f,
+1.35319680e-01f,-1.93007663e-01f,-2.54835542e-02f,+9.46213081e-02f,-2.82036483e-01f,
-1.70262193e-03f,-1.16193488e-01f,+6.21101297e-02f,+1.48358159e-02f,+9.29186866e-02f,
-1.77043095e-01f,+2.02891171e-01f,+1.07295893e-01f,+2.52215534e-01f,+1.09275065e-01f,
+2.70706285e-02f,-5.93860030e-01f,-2.23105356e-01f,-6.74282461e-02f,-2.90884554e-01f,
-3.70045565e-02f,-9.60087776e-02f,+1.79329850e-02f,+1.31391644e-01f,+1.10854253e-01f,
+2.01359972e-01f,+2.88813651e-01f,+4.25184034e-02f,+7.19264746e-02f,+5.02398536e-02f,
-4.71466258e-02f,-3.34981978e-01f,+2.21785940e-02f,+1.96890626e-02f,-3.55771750e-01f,
-6.61606342e-02f,-9.13382396e-02f,-1.29843444e-01f,+2.33253554e-01f,+1.72689587e-01f,
+5.88214472e-02f,-9.06643420e-02f,-1.50643274e-01f,+4.04293746e-01f,+8.36723950e-03f,
+3.30193460e-01f,+2.18849525e-01f,-1.42597049e-01f,-2.56482717e-02f,-1.54523894e-01f,
+3.04868612e-02f,-1.79745600e-01f,-6.24133386e-02f,+3.10869694e-01f,+2.03734294e-01f,
-9.98375379e-03f,-3.81925330e-02f,+4.58158739e-02f,-1.56325743e-01f,+1.68005303e-01f,
+5.14357276e-02f,+2.06705630e-01f,-3.94009762e-02f,-7.08060339e-02f,+1.12781366e-02f,
+2.75354028e-01f,-8.43854845e-02f,+1.04677603e-02f,-1.59914002e-01f,+3.91915180e-02f,
+5.35848252e-02f,+5.43524884e-02f,+2.39150122e-01f,-2.10094586e-01f,-4.29769891e-04f,
-1.63375646e-01f,-2.65295327e-01f,+4.03761752e-02f,+2.74764180e-01f,+1.87297866e-01f,
-4.40792590e-02f,+8.55676383e-02f,+1.30626233e-02f,+1.69718564e-02f,-9.26774442e-02f,
-3.08878645e-02f,-1.21592082e-01f,+3.04924548e-01f,-2.29645491e-01f,-1.84114382e-01f,
-1.40089113e-02f,+1.85320213e-01f,-6.50451556e-02f,-1.88820377e-01f,-2.26842493e-01f,
-7.68733546e-02f,+2.61436313e-01f,-9.54832956e-02f,+1.46491796e-01f,+6.90538809e-02f,
-9.84740071e-03f,+5.18617705e-02f,-1.46344230e-01f,-4.42535691e-02f,+1.38315737e-01f,
-6.01015128e-02f,+1.10523172e-01f,-4.82597947e-02f,-1.71212509e-01f,+3.35473344e-02f,
+6.66953996e-02f,-1.73768908e-01f,-9.38191488e-02f,+2.52088755e-02f,+2.36021057e-02f,
+3.93431336e-01f,-4.08305638e-02f,-1.38420239e-01f,+4.27115485e-02f,-4.69597578e-02f,
+5.61620370e-02f,-2.01889500e-01f,-5.18075339e-02f,-5.31171672e-02f,-4.25744541e-02f,
-4.75670956e-02f,+2.90633708e-01f,+1.04282476e-01f,-3.60729545e-01f,-1.07641369e-01f,
-1.16868302e-01f,+6.10264204e-02f,-4.50803936e-02f,-1.42876685e-01f,+5.88946342e-02f,
+6.79936633e-02f,-1.74499169e-01f,+1.21726789e-01f,-4.59189594e-01f,+1.50689214e-01f,
+1.44574270e-02f,-8.87996480e-02f,-1.30767703e-01f,-3.81402299e-02f,+1.05357729e-01f,
-4.86019701e-02f,+2.88406372e-01f,-3.10011134e-02f,-5.83869368e-02f,+5.89490235e-02f,
+9.45571959e-02f,-1.61842540e-01f,-9.81110707e-03f,-1.43923700e-01f,+8.39236379e-02f,
-9.95717011e-03f,+1.61716804e-01f,-2.31641263e-01f,-1.91399246e-01f,-1.31984517e-01f,
-6.90030530e-02f,-5.41345663e-02f,-2.30843186e-01f,+2.51462609e-01f,-3.32071126e-01f,
+2.18797594e-01f,-8.18557888e-02f,+5.84443733e-02f,+2.29539927e-02f,+3.30258952e-03f,
+3.41921598e-01f,-1.25630647e-01f,+2.12368667e-02f,+1.13773651e-01f,+1.94812082e-02f,
+1.01257816e-01f,+9.29419100e-02f,-1.20861605e-01f,+6.51648641e-01f,+9.71718207e-02f,
+7.14520738e-02f,+7.67133757e-02f,+5.91648705e-02f,-1.12505071e-01f,-2.95958817e-01f,
+8.33154023e-02f,-4.18980867e-01f,-2.11517997e-02f,-4.19696001e-03f,+6.58059046e-02f,
+8.48763883e-02f,+1.60148323e-01f,-1.47216087e-02f,-6.19152263e-02f,+1.05064072e-01f,
-1.48850828e-01f,-3.27467561e-01f,-1.36702314e-01f,+1.48105234e-01f,+4.34349515e-02f,
-9.85996798e-03f,+3.59331667e-01f,-1.76240206e-01f,-2.75493592e-01f,-3.07917595e-01f,
+1.54141322e-01f,-1.16499662e-01f,+1.60332397e-01f,-1.49807677e-01f,+3.16693664e-01f,
-3.17599438e-02f,-1.72712862e-01f,+2.01316103e-02f,+1.10937439e-01f,+4.20243144e-02f,
+3.65780443e-01f,-1.16640255e-01f,-3.49706352e-01f,-9.20941234e-02f,-4.85927053e-02f,
-1.56981021e-01f,+3.42350081e-03f,+5.91275953e-02f,+1.01172298e-01f,-8.29691291e-02f,
+1.22737274e-01f,-9.69898254e-02f,+6.42476603e-02f,+1.67973265e-01f,+8.04994181e-02f,
-1.52053908e-01f,-1.04956351e-01f,-2.57539868e-01f,-1.40594363e-01f,+5.63742034e-02f,
-2.70157188e-01f,+4.94532399e-02f,+2.00950503e-01f,+3.10006350e-01f,-4.16642576e-02f,
-2.09094435e-01f,-2.91220963e-01f,+8.23847055e-02f,+9.99687687e-02f,-5.81958532e-01f,
+2.74071395e-01f,+2.05132633e-01f,+9.43746231e-03f,+1.24378823e-01f,+9.54376534e-02f,
+3.00161773e-03f,+6.28118664e-02f,-2.66872626e-02f,-1.35907382e-01f,+1.47984862e-01f,
+8.69752690e-02f,-1.45756686e-03f,-3.40896428e-01f,-2.80465364e-01f,-9.21351314e-02f,
+1.85860991e-01f,+1.15088016e-01f,-8.26995596e-02f,+3.96143645e-01f,+2.23970935e-02f,
-4.17402349e-02f,-1.89006984e-01f,-3.00454885e-01f,+2.95809835e-01f,-2.98740804e-01f,
+3.84616673e-01f,+4.43716884e-01f,-2.33040810e-01f,+3.24446820e-02f,-4.18911316e-03f,
-1.98646620e-01f,+6.37805015e-02f,+8.28021765e-02f,-9.12871882e-02f,-6.34239912e-02f,
+1.80576980e-01f,-8.31558090e-03f,+1.72473356e-01f,-1.18690304e-01f,-7.28684217e-02f,
+1.16903566e-01f,+1.70748711e-01f,+1.21512257e-01f,+1.17588870e-01f,+3.91030520e-01f,
+2.69054562e-01f,-7.39851475e-06f,-6.03652149e-02f,+2.17549235e-01f,-1.63043931e-01f,
+1.70337275e-01f,-2.99903989e-01f,+8.86278674e-02f,-1.46465972e-01f,+1.73839062e-01f,
+8.18499774e-02f,+1.70189157e-01f,+9.60525349e-02f,-6.59510419e-02f,+3.18099022e-01f,
+7.61501864e-02f,+1.27151355e-01f,-2.81808168e-01f,+1.39632627e-01f,+2.06667736e-01f,
+4.45025899e-02f,-6.01096377e-02f,+5.38712561e-01f,+4.32279855e-02f,+1.14403263e-01f,
-9.51421112e-02f,-1.23339534e-01f,+2.26317525e-01f,-1.06938973e-01f,-2.99199596e-02f,
-8.62240940e-02f,-8.65038559e-02f,-1.93092838e-01f,-1.59666136e-01f,-2.07180262e-01f,
+1.16257489e-01f,-2.76166108e-02f,+1.52184859e-01f,-1.77135944e-01f,-5.02838716e-02f,
-1.57270908e-01f,-2.73426563e-01f,-1.55080676e-01f,-1.23935178e-01f,+2.80292541e-01f,
-1.59983397e-01f,+1.74413905e-01f,+3.15575808e-01f,+1.31101562e-02f,-8.42991844e-02f,
+4.22824591e-01f,+5.67305923e-01f,+3.42561334e-01f,-2.24551558e-02f,-1.37131199e-01f,
+3.84527266e-01f,+3.14723402e-01f,-1.88413635e-01f,+6.91661760e-02f,+6.78402558e-02f,
+8.03784728e-02f,+1.59577094e-02f,-2.46999875e-01f,-1.11681052e-01f,-9.66494828e-02f,
-5.12760282e-02f,+2.46817753e-01f,-1.33977547e-01f,+8.14823136e-02f,+1.27683252e-01f,
+4.80245845e-03f,-7.56844692e-03f,-1.66584939e-01f,+6.02916516e-02f,-1.58226285e-02f,
+1.28694251e-01f,+8.93914476e-02f,+3.43107551e-01f,-2.07955360e-01f,+1.19498663e-01f,
-8.29297304e-02f,+1.38550907e-01f,-2.25477412e-01f,+2.25254819e-02f,-2.47085206e-02f,
-8.12413618e-02f,-6.16617091e-02f,-9.88572836e-02f,+7.41782561e-02f,+1.42582506e-01f,
-3.30153443e-02f,+1.52786493e-01f,+4.87751924e-02f,+4.55689073e-01f,+1.44851524e-02f,
+2.68070884e-02f,-2.86886513e-01f,-8.08415934e-02f,-4.06398810e-02f,-2.60922641e-01f,
+1.94827884e-01f,-1.64324209e-01f,+2.04231665e-01f,-4.31365594e-02f,-4.00028564e-02f,
-2.96249446e-02f,+3.36890519e-01f,+2.99022496e-01f,-5.83629608e-02f,+8.21485370e-03f,
-3.24600846e-01f,-9.52217653e-02f,-1.09811269e-01f,-3.73413801e-01f,+5.09856716e-02f,
+2.36740828e-01f,+4.98969816e-02f,-8.52854177e-02f,+2.50451922e-01f,+9.95018259e-02f,
+4.04457599e-01f,-8.04024264e-02f,+1.68830246e-01f,+3.72130573e-02f,+1.81211874e-01f,
+1.64076686e-01f,+1.41773701e-01f,-2.70530611e-01f,+8.46419334e-02f,+2.31215149e-01f,
-1.25067085e-01f,-1.55969411e-01f,-2.22429950e-02f,+3.03860515e-01f,+2.29521126e-01f,
+1.16314098e-01f,-9.61692780e-02f,+2.72944123e-01f,-1.57218128e-01f,+3.40163475e-03f,
-1.02625797e-02f,-2.57234365e-01f,+1.40499204e-01f,+5.06662801e-02f,-1.37620689e-02f,
+2.67559528e-01f,+4.17653441e-01f,-2.89348066e-02f,-1.12331711e-01f,-1.29788723e-02f,
+1.83638617e-01f,+2.75267780e-01f,+1.29640371e-01f,-1.06524467e-01f,+1.98237926e-01f,
-1.60182193e-02f,+1.58093259e-01f,-2.20431983e-01f,+2.16579139e-01f,+4.32335734e-02f,
-1.33424886e-02f,-8.77114981e-02f,+1.50842607e-01f,-1.21871933e-01f,-5.92720741e-03f,
-3.87005985e-01f,+1.96745947e-01f,-4.55894060e-02f,-8.69258195e-02f,-2.94920236e-01f,
-3.80592197e-01f,+6.03499487e-02f,+3.36179852e-01f,-9.26567912e-02f,-5.42805605e-02f,
-3.04266792e-02f,-3.28410007e-02f,+2.42243007e-01f,+2.80873686e-01f,+1.23749534e-02f,
-1.09737618e-02f,+3.33674729e-01f,+1.31119609e-01f,-1.83056772e-01f,+2.01377109e-01f,
+2.18515038e-01f,+1.19840950e-02f,+8.04198608e-02f,-7.59618580e-02f,+8.71738568e-02f,
-2.80621517e-02f,-6.97517022e-02f,+1.83273181e-01f,-3.04911673e-01f,-1.39236182e-01f,
-1.00124322e-01f,-2.21987754e-01f,-9.11419094e-02f,+1.36372760e-01f,-1.33684710e-01f,
+1.26530513e-01f,+5.25488913e-01f,-1.62760600e-01f,+2.31540844e-01f,+3.62530947e-02f,
+3.39253873e-01f,-9.96757522e-02f,+1.70907795e-01f,+1.45446360e-01f,-2.48129547e-01f,
+1.50150374e-01f,+1.15001813e-01f,-4.48457420e-01f,+1.20073110e-01f,+1.47649869e-01f,
-1.12121709e-01f,+4.98882029e-03f,+2.19292864e-01f,+5.13314037e-04f,+2.39701539e-01f,
+1.35246843e-01f,+1.38329327e-01f,-9.66326818e-02f,-1.56572342e-01f,+1.80311397e-01f,
-7.96804652e-02f,-5.40407002e-01f,+1.51102856e-01f,-2.01118421e-02f,+1.14237912e-01f,
-1.85408607e-01f,+4.79727201e-02f,-1.56007797e-01f,+2.15931341e-01f,-9.27989185e-02f,
-3.45872372e-01f,+1.74077868e-01f,+1.85582474e-01f,+1.37161523e-01f,-1.86471567e-01f,
-4.80880439e-02f,+3.74014854e-01f,+3.64907861e-01f,+2.33908333e-02f,+8.26485753e-02f,
+2.78825939e-01f,-1.98044077e-01f,+5.54858707e-02f,-2.58215636e-01f,-1.06638543e-01f,
-1.16126366e-01f,-7.29620829e-02f,-2.40787212e-02f,+1.58063031e-03f,-2.96967924e-01f,
+7.54305348e-02f,+8.11328590e-02f,+3.11908960e-01f,+1.79847389e-01f,+1.76900968e-01f,
+1.44599900e-01f,-1.60272002e-01f,+7.29399770e-02f,-1.21854961e-01f,+1.61588013e-01f,
-7.22190086e-03f,+2.10045263e-01f,+6.03326336e-02f,-6.08074069e-02f,-4.95154560e-02f,
-1.37421161e-01f,-5.20941429e-02f,-1.23212747e-01f,-5.87336943e-02f,-3.89350206e-02f,
+3.20609622e-02f,-4.88043670e-03f,+5.90963140e-02f,+6.05104119e-02f,-3.53407930e-03f,
-1.48408636e-01f,+6.86736926e-02f,-2.50981808e-01f,-1.71028748e-01f,-1.09972849e-01f,
+4.93974164e-02f,-7.44751543e-02f,-8.10316652e-02f,+2.07570884e-02f,-1.32385239e-01f,
-2.33395770e-01f,+1.76836010e-02f,-1.19739734e-01f,+1.28829122e-01f,-7.26081431e-02f,
-3.44468020e-02f,+1.01031356e-01f,+1.31327763e-01f,-3.88491414e-02f,+2.07785696e-01f,
+1.41573891e-01f,+3.93683881e-01f,+4.39751297e-02f,-3.54187004e-02f,-1.27244532e-01f,
-1.63808033e-01f,+1.67927798e-02f,+7.18712360e-02f,+3.20224524e-01f,+2.11292222e-01f,
+1.08359702e-01f,-1.63242534e-01f,-2.11923495e-01f,-1.31836273e-02f,+6.98404387e-02f,
-2.06224486e-01f,-1.32560536e-01f,+3.08201704e-02f,+1.57749549e-01f,+1.30504936e-01f,
+1.50566397e-03f,-9.63833928e-03f,-1.42744929e-01f,-5.54310642e-02f,+2.61449337e-01f,
+1.07887536e-01f,+1.31135404e-01f,+1.33659029e-02f,+1.70039773e-01f,-4.37884890e-02f,
+9.77341607e-02f,-1.44718274e-01f,-1.99340418e-01f,-1.53317019e-01f,+3.70066315e-02f,
-9.24296901e-02f,+2.23857895e-01f,+1.04215518e-02f,+1.87502608e-01f,-9.29407999e-02f,
+8.29886198e-02f,+1.02102935e-01f,-1.69768080e-01f,-2.02797920e-01f,-2.20664162e-02f,
-1.18587881e-01f,+3.72302473e-01f,-1.27065077e-01f,+1.17930323e-02f,-1.93341635e-02f,
-2.32024919e-02f,-1.35915354e-01f,-3.67053375e-02f,+6.39339313e-02f,+1.96183205e-01f,
-2.28560165e-01f,-6.76155761e-02f,+6.05602339e-02f,+3.13857019e-01f,-1.86785087e-01f,
+1.75355792e-01f,+1.93882868e-01f,-3.19876224e-02f,+1.59892663e-01f,-2.17988864e-01f,
+2.70730495e-01f,-2.95795709e-01f,-1.11088626e-01f,-2.98108578e-01f,-2.53658861e-01f,
+2.21430972e-01f,+1.07027307e-01f,+1.08918861e-01f,+7.61050433e-02f,+1.91221178e-01f,
-6.58837706e-02f,+2.07802981e-01f,+1.10229226e-02f,-1.60802171e-01f,+1.78918839e-01f,
+1.25306174e-01f,+2.52916902e-01f,-1.44097349e-02f,+2.45282918e-01f,+1.33283868e-01f,
-1.99371517e-01f,+2.52691090e-01f,+3.36974263e-01f,+1.13341302e-01f,+1.94224305e-02f,
-1.74374387e-01f,+3.84325795e-02f,+1.76086560e-01f,-1.44557729e-01f,+8.12640190e-02f,
+1.05794445e-02f,+2.38541320e-01f,+1.58771619e-01f,-3.43987107e-01f,-4.88126159e-01f,
-2.43792966e-01f,+2.54232109e-01f,-5.46964817e-02f,+5.55931702e-02f,-1.14196107e-01f,
+1.75995578e-03f,+7.79325217e-02f,+4.47607599e-02f,-6.43282756e-02f,+2.19150797e-01f,
-1.18075475e-01f,+1.58942509e-02f,+5.01966253e-02f,-4.89516258e-02f,-1.29485140e-02f,
-1.11619346e-01f,+1.55406848e-01f,-1.80362329e-01f,-1.33336298e-02f,-7.72163197e-02f,
-1.12875275e-01f,-4.91746292e-02f,+1.52456105e-01f,+2.22014561e-01f,-2.08319753e-01f,
-3.80749977e-03f,-1.22755378e-01f,+7.76954517e-02f,+1.51928753e-01f,+2.59894431e-01f,
-2.24806190e-01f,+1.32155484e-02f,+3.24891135e-02f,+4.26049978e-02f,-1.06951110e-02f,
+3.61832902e-02f,-1.55283585e-01f,-6.24916190e-03f,+1.39365688e-01f,-2.17344671e-01f,
+9.61487070e-02f,+1.14901729e-01f,-3.50938320e-01f,+6.29972965e-02f,+8.16150161e-04f,
+3.02318096e-01f,-4.31379855e-01f,-1.08757012e-01f,+2.48069569e-01f,-3.15587074e-02f,
+2.76940465e-01f,+2.24819526e-01f,+2.29388788e-01f,-1.22177958e-01f,-9.70079601e-02f,
-1.21609598e-01f,+1.33869722e-01f,+8.43150839e-02f,+2.09227890e-01f,+5.90768792e-02f,
+9.72923562e-02f,+1.31335268e-02f,+1.57896310e-01f,+2.89177030e-01f,-4.95781004e-02f,
+2.82336235e-01f,+3.91286701e-01f,+2.13395283e-02f,-3.15046608e-02f,+5.78900203e-02f,
+1.69749856e-01f,+5.73358759e-02f,+2.01455727e-01f,+4.19170223e-02f,-2.93373376e-01f,
+6.35491982e-02f,+7.01580271e-02f,+1.61373869e-01f,+1.79022506e-01f,-5.69647923e-02f,
-6.54467344e-02f,-2.49156058e-01f,+5.28074354e-02f,+1.64358467e-01f,-7.22672939e-02f,
-2.99399614e-01f,+1.47846192e-01f,-1.33418113e-01f,+7.61806965e-02f,-1.71217322e-01f,
-1.50907278e-01f,-7.10955858e-02f,-1.52119353e-01f,+1.61302030e-01f,-2.53718905e-02f,
-2.27624383e-02f,+1.17134355e-01f,-8.46183971e-02f,+2.92982429e-01f,-1.70375139e-01f,
+2.36854613e-01f,-9.30465907e-02f,+1.95302039e-01f,-2.33889073e-01f,-8.36792141e-02f,
+3.70164812e-01f,-2.67092139e-01f,-1.96899213e-02f,+4.23758216e-02f,-1.26297409e-02f,
+1.64108574e-01f,-1.52098164e-01f,+4.82978858e-02f,-1.67888790e-01f,-2.29790151e-01f,
+2.84094512e-02f,-1.47333294e-01f,-2.90601701e-01f,+1.43941849e-01f,-1.38157383e-01f,
+1.98185086e-01f,-2.76799530e-01f,-4.32823859e-02f,-1.21084582e-02f,+4.32111993e-02f,
+2.41414487e-01f,-1.41086042e-01f,-1.38597369e-01f,+2.49212950e-01f,-5.33981025e-02f,
+1.30722836e-01f,+7.10739717e-02f,-1.22062124e-01f,+1.55438017e-02f,+8.82944688e-02f,
+1.40570160e-02f,+2.69737035e-01f,-3.78700383e-02f,+2.79792309e-01f,+8.08578208e-02f,
+1.94957480e-01f,+3.69067863e-02f,+4.78821695e-02f,-1.86609030e-02f,-1.84600264e-01f,
+8.15081745e-02f,-4.69162874e-02f,-4.16285470e-02f,-1.23785064e-01f,+1.58376724e-01f,
+4.21753228e-01f,-3.37489843e-02f,+2.02721491e-01f,+2.07133263e-01f,-1.58834025e-01f,
+2.07889333e-01f,+2.08222076e-01f,-8.01194161e-02f,-5.39030582e-02f,+1.92870144e-02f,
-1.36094689e-01f,-3.98508757e-02f,-4.30879556e-02f,-2.01139282e-02f,-6.47140220e-02f,
-1.47293732e-01f,-2.02005848e-01f,+2.98879981e-01f,+1.59772843e-01f,-2.70793408e-01f,
-3.56781520e-02f,+1.36222303e-01f,-1.73128024e-02f,-1.72255591e-01f,+6.53346553e-02f,
+2.16300949e-01f,+8.36707875e-02f,-3.40455882e-02f,+2.07816541e-01f,+3.19227427e-02f,
+1.59656312e-02f,+4.06114347e-02f,+2.31100366e-01f,-2.94230878e-02f,-6.26202375e-02f,
-5.23049571e-02f,-5.82940727e-02f,-6.08940534e-02f,+6.88105822e-03f,+2.07517430e-01f,
+1.38814822e-01f,+9.83746350e-02f,+3.04081917e-01f,+9.42390412e-02f,+2.01342091e-01f,
+9.69286915e-03f,+7.72784725e-02f,-3.30912732e-02f,+1.66851416e-01f,+8.20138454e-02f,
-7.65353143e-02f,-7.04098120e-02f,-1.22041523e-01f,-3.92340589e-03f,+5.96811958e-02f,
-7.26807863e-02f,-1.23199016e-01f,+1.54772341e-01f,-1.08159505e-01f,+1.38562679e-01f,
+1.16036069e-02f,-3.09890155e-02f,-2.04304352e-01f,-1.19898565e-01f,+1.12599559e-01f,
-1.05884254e-01f,+1.53256640e-01f,+5.70338368e-02f,+1.56768098e-01f,-1.17704585e-01f,
+7.89326131e-02f,+1.12887293e-01f,+3.91189516e-01f,-1.81574561e-03f,-3.06620032e-01f,
+1.54916033e-01f,-4.67915175e-04f,-9.24592912e-02f,-1.14823051e-01f,-4.57669832e-02f,
+3.78835827e-01f,+2.42407128e-01f,-1.31703883e-01f,+4.11342690e-03f,+7.44813830e-02f,
+2.17660084e-01f,+1.51453167e-03f,+1.05533779e-01f,+2.10614949e-01f,+2.32172146e-01f,
+6.66896477e-02f,-2.87084848e-01f,-7.82559663e-02f,-6.33392707e-02f,-9.64652747e-02f,
+7.38619044e-02f,-1.11863218e-01f,+1.36724889e-01f,+1.71619393e-02f,+5.27335703e-02f,
+2.93459237e-01f,+1.24753132e-01f,-1.61459625e-01f,+5.91180176e-02f,-8.19381922e-02f,
+1.54688209e-01f,+7.30606094e-02f,+1.26105696e-01f,+1.48907140e-01f,+3.78697693e-01f,
-1.53444512e-02f,+2.72933722e-01f,+1.38615459e-01f,-2.62911711e-02f,+1.53332159e-01f,
-1.10140190e-01f,+1.86430275e-01f,+1.56219468e-01f,+7.54161999e-02f,+1.46219432e-01f,
+1.26674026e-03f,-7.69307762e-02f,-2.21315458e-01f,-9.85439681e-03f,+2.69171566e-01f,
-1.77648976e-01f,+1.01442397e-01f,+6.00000396e-02f,+5.95137402e-02f,-1.74256694e-02f,
-6.02016039e-02f,+2.07175259e-02f,+3.30701858e-01f,+3.63347732e-04f,+2.53397852e-01f,
+4.83418116e-03f,+1.39109213e-02f,+2.41762325e-01f,+2.27331281e-01f,+2.42818296e-01f,
-3.31129164e-01f,+1.71444118e-01f,+3.20127934e-01f,-2.44737864e-01f,+1.80355057e-01f,
+7.19555020e-02f,-4.39500846e-02f,+1.42651826e-01f,+4.02823277e-02f,+1.34938940e-01f,
+2.06920341e-01f,-1.17685996e-01f,+3.22617412e-01f,+5.77819422e-02f,+1.18951052e-01f,
+1.94225907e-01f,+3.39472294e-01f,-2.10850611e-02f,-7.29149673e-03f,+7.76893720e-02f,
+3.01683635e-01f,+2.87709415e-01f,+4.36019786e-02f,+1.66833162e-01f,+4.80226874e-02f,
+3.46101783e-02f,+9.21683982e-02f,-7.34078065e-02f,+2.40396082e-01f,+5.24141677e-02f,
-1.55715086e-03f,+1.22401662e-01f,-5.99876046e-02f,+1.97721690e-01f,+1.60662189e-01f,
+2.48276502e-01f,+1.07924432e-01f,+5.90612650e-01f,-4.41583134e-02f,+2.11904198e-01f,
+8.11374635e-02f,+7.23039382e-04f,+1.21851675e-01f,-1.82121079e-02f,-7.13363513e-02f,
+2.98412621e-01f,-2.95161251e-02f,+3.56108248e-02f,+7.54822344e-02f,+2.31240004e-01f,
+8.92212465e-02f,-1.30107077e-02f,-1.92753851e-01f,-1.13617647e-02f,-9.06065479e-03f,
+2.12600097e-01f,+2.25777254e-01f,-2.30983160e-02f,-1.38134986e-01f,+2.08356045e-02f,
+6.56644329e-02f,+5.14502600e-02f,-5.33289742e-03f,+1.09150387e-01f,+2.10680634e-01f,
+2.90143222e-01f,-8.30232278e-02f,-5.35592549e-02f,-1.07625276e-01f,+2.55020466e-02f,
-2.49776021e-02f,-3.66182788e-03f,-5.23765050e-02f,-5.43862656e-02f,+1.92282036e-01f,
-1.55346960e-01f,+1.17222570e-01f,+7.66416788e-02f,+2.10609511e-01f,-1.52729647e-02f,
-2.25329958e-02f,+1.37270978e-02f,+1.19777620e-01f,+2.09543169e-01f,-1.64975494e-01f,
-7.57431388e-02f,+3.05480957e-01f,+1.45667896e-01f,+7.84606487e-02f,-1.43309116e-01f,
-1.39844120e-01f,+1.85256243e-01f,+5.46730997e-04f,-7.09232837e-02f,+1.30635247e-01f,
+1.16250910e-01f,+3.68626006e-02f,-1.86075568e-01f,+1.84271738e-01f,-8.16155283e-04f,
+1.37112718e-02f,+1.55134767e-01f,-1.50798231e-01f,+1.44444004e-01f,+1.70489624e-01f,
+1.53628156e-01f,-6.50099711e-03f,+1.11018624e-02f,+9.71715748e-02f,+1.94551811e-01f,
+9.98528898e-02f,+1.04783066e-01f,-1.62369441e-02f,-3.85073461e-02f,+1.30493656e-01f,
-7.25602210e-02f,-1.35601848e-01f,+1.49527786e-03f,+3.28836739e-01f,+2.06229165e-01f,
-2.90409271e-02f,-1.18828431e-01f,+8.93628225e-02f,-1.96616799e-02f,+1.92870900e-01f,
+8.83611143e-02f,+1.12188153e-01f,+1.50796130e-01f,+1.41353801e-01f,-4.12594005e-02f,
+8.39823112e-02f,+1.74443629e-02f,-4.86240499e-02f,+1.30481914e-01f,+7.24943653e-02f,
+1.89243749e-01f,+3.68915237e-02f,+4.14713658e-02f,+3.40233296e-01f,-5.35566583e-02f,
-5.32646067e-02f,-1.40353426e-01f,+8.83728415e-02f,-1.91092387e-01f,+1.05375975e-01f,
-2.18868852e-01f,+1.44682571e-01f,-1.04133949e-01f,-1.15387246e-01f,+1.03242993e-01f,
-1.78666785e-01f,+4.42473218e-02f,+3.03114235e-01f,-1.18181959e-01f,-8.64001438e-02f,
-2.06260130e-01f,-1.25043252e-02f,+1.90558676e-02f,+2.24003181e-01f,+1.12422793e-04f,
-5.65998293e-02f,-1.08495519e-01f,-1.13474995e-01f,+1.62376106e-01f,+8.24673548e-02f,
+5.43781929e-02f,+3.27481627e-01f,+6.90712258e-02f,+7.71169811e-02f,-1.49932150e-02f,
+4.70183976e-02f,-2.86482070e-02f,+3.01870316e-01f,+1.94634885e-01f,+5.41161448e-02f,
-1.43649746e-02f,-1.96346790e-02f,+3.29850707e-03f,-1.78347141e-01f,+3.08952481e-02f,
-1.42589463e-02f,+6.61659520e-03f,+2.69026846e-01f,+6.83212206e-02f,-1.59064651e-01f,
-1.07261010e-01f,-1.17750853e-01f,+3.94783765e-02f,-6.21666480e-03f,-7.83846527e-03f,
-1.75631791e-02f,-1.36640584e-02f,-3.19955461e-02f,-1.62511680e-03f,+2.36954674e-01f,
-2.58258805e-02f,+9.73351374e-02f,-3.81627982e-03f,-4.21798341e-02f,-3.37493531e-02f,
+7.28975758e-02f,-1.11816332e-01f,+2.39755996e-02f,-1.37650087e-01f,+5.11778109e-02f,
+1.66048944e-01f,+1.32991031e-01f,-9.62237641e-02f,-1.96239054e-01f,-2.64771152e-02f,
-2.43342638e-01f,-8.75149742e-02f,+1.09232496e-02f,-1.94912236e-02f,-1.18119307e-01f,
-2.66666174e-01f,+1.70284554e-01f,-7.09352717e-02f,+7.56165534e-02f,-2.95373052e-02f,
+4.81509566e-02f,+1.41325295e-01f,-1.27232850e-01f,-1.61351591e-01f,-9.87879746e-03f,
+7.15796053e-02f,+2.75339130e-02f,-3.13724458e-01f,-8.78477693e-02f,+5.31936251e-02f,
+1.74622908e-02f,+2.52292365e-01f,-1.95089057e-01f,+1.22792929e-01f,-9.92935449e-02f,
-8.83116871e-02f,-1.12547286e-01f,+7.39477575e-02f,-1.37730733e-01f,+3.65087479e-01f,
-1.36360630e-01f,-1.27158701e-01f,+1.85150221e-01f,+1.85740385e-02f,-1.35898206e-03f,
-4.93846126e-02f,+4.50455882e-02f,-2.09705681e-01f,+1.55327916e-01f,+1.62109196e-01f,
-3.09643634e-02f,-1.44436195e-01f,-6.07900247e-02f,+1.24612249e-01f,+7.27541968e-02f,
+4.02976014e-02f,-1.90555260e-01f,+1.66657772e-02f,+1.22281305e-01f,+5.94598427e-02f,
+8.97472631e-03f,-1.09873183e-01f,+1.30073801e-02f,+2.39831954e-02f,+8.37723389e-02f,
-1.04999065e-01f,-1.99936461e-02f,-2.40243539e-01f,+1.03281945e-01f,-1.97373167e-01f,
-2.05528736e-01f,+5.54244630e-02f,-1.62297249e-01f,-1.06313229e-02f,-1.14638560e-01f,
+9.37600136e-02f,+1.71261191e-01f,-3.11664641e-01f,+6.09618947e-02f,+1.00186802e-01f,
-1.53606266e-01f,-5.46917096e-02f,+4.25950028e-02f,+5.80420718e-03f,+3.43034625e-01f,
-3.41734290e-02f,+1.52359888e-01f,+2.27376558e-02f,+1.06733158e-01f,+2.94272322e-02f,
+2.23023109e-02f,-1.58644959e-01f,+9.25035626e-02f,+4.32619601e-02f,+1.93636622e-02f,
+1.47349790e-01f,+1.34462193e-01f,+1.16687035e-02f,+9.47777480e-02f,+8.26324895e-02f,
-2.58447498e-01f,-1.37993023e-01f,+3.83239090e-01f,-1.38036460e-02f,-2.77090937e-01f,
+8.00683275e-02f,+1.92955166e-01f,+2.76939590e-02f,-1.26325831e-01f,+1.43404633e-01f,
-2.43217070e-02f,-7.62811378e-02f,-5.15027158e-02f,+1.37393758e-01f,-3.11453164e-01f,
+1.61246628e-01f,-1.49766654e-01f,-2.51568276e-02f,+2.24201858e-01f,+1.35865256e-01f,
+3.02606169e-02f,-3.96613121e-01f,-1.87703684e-01f,+2.69148666e-02f,+2.06162527e-01f,
-4.47116435e-01f,+3.07505548e-01f,+2.17619285e-01f,-6.70713559e-02f,+7.56914541e-02f,
+3.98469597e-01f,+1.95915252e-01f,+4.85246986e-01f,+1.91904411e-01f,-3.94138129e-04f,
-2.97701266e-03f,-4.49477285e-02f,-2.61487886e-02f,-1.62229799e-02f,+8.55682418e-02f,
+2.55829040e-02f,+2.53930658e-01f,-7.01403841e-02f,+1.36996984e-01f,-5.11862971e-02f,
-4.32722531e-02f,-4.26915772e-02f,+3.84306572e-02f,+3.00814286e-02f,+3.66686806e-02f,
+1.20120190e-01f,+3.13119101e-03f,-1.47179350e-01f,-2.87968665e-02f,-1.05109647e-01f,
-6.64208457e-02f,+4.95926142e-02f,+4.72082123e-02f,+1.89905673e-01f,-1.28911287e-01f,
+1.01861320e-01f,-3.39107782e-01f,-2.60054678e-01f,+2.39122540e-01f,-4.17127848e-01f,
-2.52017707e-01f,+1.38469085e-01f,+4.04445492e-02f,+3.00099611e-01f,-6.96778074e-02f,
+1.45272836e-01f,+2.52851080e-02f,-3.59432697e-02f,+1.31951109e-01f,+6.05550557e-02f,
-7.35009834e-02f,-4.97148782e-02f,-5.35474494e-02f,-3.11270326e-01f,-1.55519322e-01f,
-1.44098084e-02f,+3.12069625e-01f,+9.84580219e-02f,-1.42488971e-01f,+6.58519119e-02f,
-1.00697139e-02f,-8.68052542e-02f,+4.63483222e-02f,+2.20474362e-01f,+9.86189544e-02f,
+2.07974762e-01f,-2.65972782e-02f,+2.36227542e-01f,+1.29711693e-02f,-2.90875256e-01f,
+1.05881020e-01f,+2.03850240e-01f,-3.58519465e-01f,-7.59260803e-02f,-5.88794537e-02f,
-3.70310550e-03f,-2.14443311e-01f,+1.30639464e-01f,+6.01307750e-02f,+1.83979183e-01f,
+1.14615336e-01f,-9.91677120e-02f,+3.04116905e-02f,+2.90095098e-02f,-3.13383304e-02f,
+1.23289488e-01f,-3.53796363e-01f,-5.15060462e-02f,-7.26837888e-02f,-2.06518009e-01f,
-1.87489569e-01f,+1.32993609e-01f,+7.67055750e-02f,+1.42828897e-01f,-3.79438959e-02f,
-2.89696418e-02f,+3.91682118e-01f,-2.77796060e-01f,+1.65353417e-01f,-1.57345772e-01f,
-2.21997395e-01f,+1.50166705e-01f,-2.52517492e-01f,+2.55930394e-01f,+6.83582127e-02f,
+1.21270176e-02f,+1.49843827e-01f,+1.02942064e-01f,-2.10693449e-01f,+1.45064771e-01f,
-1.84577048e-01f,+9.87289548e-02f,+1.63404629e-01f,+8.16132426e-02f,+5.53886108e-02f,
-2.46535968e-02f,+1.29038915e-01f,-1.33546546e-01f,-7.57858111e-03f,+1.40844971e-01f,
+8.62511843e-02f,+3.23749781e-02f,+5.63100278e-02f,+3.47491540e-02f,-1.54020013e-02f,
+2.81804264e-01f,+3.80948484e-02f,+1.43599048e-01f,-1.90686435e-01f,-5.48812188e-02f,
-1.07720360e-01f,+3.07711691e-01f,-3.86430740e-01f,-2.04718076e-02f,-2.87322432e-01f,
+1.88323721e-01f,+1.19089626e-01f,-2.27797374e-01f,-1.76519439e-01f,-9.21730548e-02f,
+1.50317207e-01f,-2.26899147e-01f,-1.36605039e-01f,+1.83965281e-01f,-1.40230402e-01f,
-1.92445796e-02f,+5.87443523e-02f,+2.11374536e-01f,-2.65294433e-01f,+2.51320899e-01f,
+2.78032869e-01f,+1.09323986e-01f,-2.43201684e-02f,+1.69249237e-01f,-1.60443336e-01f,
-6.59333840e-02f,+6.91697700e-03f,-5.20143151e-01f,+1.63348839e-01f,-5.61907031e-02f,
+2.99866349e-01f,+2.49976143e-01f,+1.33079171e-01f,-4.25736941e-02f,-1.41862845e-02f,
-2.44832888e-01f,+1.48077443e-01f,+1.17442198e-01f,+2.98168093e-01f,+1.28358796e-01f,
-1.15254693e-01f,-6.90129176e-02f,-2.54382074e-01f,+5.08596236e-03f,+4.03370149e-02f,
+1.28637537e-01f,-6.44943491e-02f,-2.05556437e-01f,+4.41851132e-02f,+1.40032515e-01f,
+7.85768777e-02f,-3.46436501e-02f,+7.57049918e-02f,-8.79107323e-03f,-8.18223953e-02f,
-1.36848418e-02f,-1.24790773e-01f,-1.26781330e-01f,+2.47027650e-02f,-5.53791746e-02f,
+2.19984859e-01f,+1.20053723e-01f,+2.31883809e-01f,-1.13332361e-01f,+4.42788042e-02f,
-8.40881392e-02f,+9.64291021e-02f,-9.24997255e-02f,-1.56502783e-01f,+7.97219798e-02f,
+1.60286292e-01f,-7.55262673e-02f,+1.58777803e-01f,+8.36882368e-02f,-1.91461518e-02f,
+1.77133873e-01f,-4.87127490e-02f,+5.42655587e-02f,-3.04391887e-02f,+2.56911635e-01f,
-8.72808546e-02f,+8.56793895e-02f,-2.24763140e-01f,+1.78618089e-03f,+1.85399018e-02f,
-1.27259523e-01f,+8.84142742e-02f,+8.67459085e-03f,+1.08261153e-01f,+4.96369712e-02f,
-1.65979460e-01f,-3.19454423e-03f,-5.73539287e-02f,-1.36180669e-01f,-2.04017684e-01f,
+2.07835808e-01f,+2.87968785e-01f,-2.35082164e-01f,+2.24853382e-02f,+7.68807977e-02f,
-2.72938877e-01f,-3.72425914e-02f,+1.50462650e-02f,+1.50621623e-01f,+5.42878211e-02f,
+6.42123044e-01f,+1.59161106e-01f,-2.62705032e-02f,-8.32168013e-02f,-8.57918113e-02f,
-2.25848969e-04f,-2.24473804e-01f,+1.17978118e-01f,-4.89922389e-02f,-3.75235885e-01f,
+1.62797511e-01f,-1.87509134e-02f,+1.03641994e-01f,-1.42061934e-01f,-1.45547558e-02f,
+1.23494916e-01f,-1.16265558e-01f,-1.58987269e-01f,+3.35585475e-02f,+1.51655123e-01f,
-3.27322960e-01f,+2.86182523e-01f,+1.57485783e-01f,+2.39986762e-01f,-1.01651631e-01f,
+1.31409988e-01f,-7.46855661e-02f,-3.86051387e-02f,-1.25684049e-02f,-1.08332910e-01f,
-1.23712786e-01f,+1.29758537e-01f,+1.34095043e-01f,+2.17101693e-01f,-4.40632738e-02f,
+3.69199291e-02f,+1.52928932e-02f,+9.78245959e-02f,+4.36569043e-02f,-7.80884176e-02f,
+1.24026023e-01f,+2.91347235e-01f,-1.59406126e-01f,-1.63107499e-01f,+2.34182924e-01f,
-3.48979980e-01f,-1.51629865e-01f,-2.04155728e-01f,-9.25218612e-02f,-1.78171322e-02f,
+1.19859353e-02f,-1.10453775e-03f,+1.03885867e-01f,-1.10180624e-01f,+1.17997341e-01f,
-3.11252177e-01f,+1.22216083e-02f,+1.58643171e-01f,-2.30759904e-02f,-4.53419089e-02f,
+1.14767358e-01f,-1.09671280e-01f,+2.99439430e-01f,+6.94897696e-02f,+1.94120184e-01f,
-1.34567013e-02f,-2.17087176e-02f,-6.24914430e-02f,+1.06340885e-01f,+1.92130394e-02f,
-2.88497694e-02f,-6.04007281e-02f,+2.06785232e-01f,+1.11638322e-01f,-2.10762899e-02f,
+3.85124475e-01f,-1.08527318e-01f,+1.01471305e-01f,+1.44886062e-01f,+1.50955543e-01f,
-6.46309182e-02f,-2.84437574e-02f,-2.26343144e-02f,-6.58157840e-02f,+9.84080881e-02f,
-3.95345986e-02f,+2.24989265e-01f,+1.30816489e-01f,-2.03469116e-02f,+7.65789673e-02f,
+3.44820693e-02f,-1.98063657e-01f,+2.31852278e-01f,+1.82378754e-01f,-7.66627714e-02f,
+4.52292114e-02f,+1.14972189e-01f,-8.94084573e-02f,+1.87460735e-01f,-2.06960261e-01f,
+1.16199739e-01f,+1.84146523e-01f,+2.49974966e-01f,-1.92327514e-01f,+1.61334947e-01f,
-6.34211302e-02f,-1.16797440e-01f,+2.04311050e-02f,+1.59731396e-02f,+1.66419193e-01f,
-1.27526596e-01f,+7.65342452e-03f,+7.89478496e-02f,+6.37626871e-02f,+8.43912438e-02f,
+1.19071178e-01f,-1.06133014e-01f,+1.75773755e-01f,-2.33004779e-01f,+1.39721602e-01f,
-1.33043587e-01f,-1.50033131e-01f,-1.57621562e-01f,+2.67006550e-02f,-1.47613034e-01f,
-1.92239378e-02f,+8.58453810e-02f,+2.05721017e-02f,-1.82951242e-02f,+1.75163612e-01f,
+7.54838586e-02f,-6.46343380e-02f,-2.21097738e-01f,-8.16634446e-02f,+1.56888247e-01f,
+2.90526628e-01f,-9.46889669e-02f,+2.05558091e-01f,+1.11056849e-01f,-1.77144483e-01f,
+1.13249734e-01f,+3.62893343e-01f,+2.90133003e-02f,+9.85333174e-02f,+9.61222649e-02f,
-1.42179593e-01f,+1.30478606e-01f,+1.82207048e-01f,+1.86934825e-02f,+1.90913454e-02f,
+8.55050460e-02f,-1.42007291e-01f,+2.79640290e-03f,-8.97433311e-02f,-3.76797607e-03f,
-8.63682553e-02f,-1.14680476e-01f,+3.45980003e-02f,-4.79044914e-02f,-4.60422486e-02f,
+2.44509071e-01f,+2.28549838e-01f,+2.67543405e-01f,+6.99304491e-02f,+4.10046875e-01f,
+1.82768390e-01f,+2.71615684e-02f,+4.59088944e-02f,+4.67551686e-03f,-1.96288347e-01f,
-1.76985651e-01f,-4.33728173e-02f,-2.17042819e-01f,-9.62468237e-02f,+1.35003582e-01f,
+2.62819409e-01f,-1.17947124e-02f,-4.20190915e-02f,+3.04915011e-01f,+4.35666693e-03f,
+1.82884634e-01f,-2.16164514e-01f,+8.62496272e-02f,+1.02155566e-01f,-1.36248067e-01f,
+1.31470487e-01f,+2.88962573e-01f,+1.11113265e-01f,-7.39885643e-02f,+7.65418485e-02f,
-4.34537768e-01f,+1.69127673e-01f,-1.80202201e-02f,+4.96378262e-03f,+2.65141390e-02f,
+2.06110656e-01f,+3.92910987e-01f,+6.14409521e-02f,+1.66046441e-01f,+5.21832779e-02f,
-1.53977707e-01f,+1.17648304e-01f,+3.52986678e-02f,+1.60814255e-01f,+8.78035873e-02f,
+2.21319586e-01f,+1.77516550e-01f,+1.77053064e-01f,-1.31154940e-01f,+1.01809092e-01f,
+9.01814774e-02f,+1.09710060e-01f,-1.98610514e-01f,-3.00718367e-01f,+7.10776001e-02f,
-6.19886257e-02f,-1.62269399e-01f,-3.70014548e-01f,-2.69491881e-01f,-1.34173185e-01f,
+4.36293781e-02f,+2.07767207e-02f,+8.91919341e-03f,+2.61003524e-01f,-3.90739977e-01f,
-7.90049732e-02f,-5.16959988e-02f,+2.22433861e-02f,+7.32963951e-03f,-1.19987488e-01f,
+1.49052411e-01f,+1.34711087e-01f,-6.03324994e-02f,-2.11537451e-01f,-1.48481261e-02f,
-2.13255927e-01f,+7.07728490e-02f,+7.00239539e-02f,+1.06776223e-01f,+1.52309731e-01f,
-1.61025926e-01f,+1.43767029e-01f,-1.66956186e-01f,+4.94501173e-01f,+2.91628867e-01f,
-2.95268506e-01f,+9.58553627e-02f,-1.19404532e-01f,+1.54967736e-02f,+1.47972122e-01f,
+1.81931973e-01f,-2.74013609e-01f,+1.45922869e-01f,+9.47712213e-02f,-7.36655621e-03f,
-4.18201201e-02f,-1.64229065e-01f,+1.31133661e-01f,-1.54813096e-01f,+1.91001073e-02f,
+1.98580995e-01f,+3.06793272e-01f,+4.87164885e-01f,-1.74823225e-01f,-8.51670932e-03f,
+1.89221025e-01f,+1.27116889e-01f,-3.34806144e-01f,-3.77105922e-02f,-7.65675083e-02f,
+4.58545052e-02f,-3.47213037e-02f,+1.38731599e-01f,-3.77480626e-01f,-3.94677892e-02f,
-1.52567908e-01f,-1.72656164e-01f,+1.82956308e-02f,+4.43690747e-01f,+2.97501057e-01f,
+1.58699408e-01f,-8.72350391e-03f,+4.61427122e-02f,-2.20481887e-01f,-1.95426494e-02f,
-1.56354725e-01f,+2.28389338e-01f,+2.44385988e-01f,-1.16182584e-02f,-5.27763031e-02f,
-2.97787637e-01f,+9.13078040e-02f,+7.48342946e-02f,+7.29922503e-02f,-5.65790012e-02f,
-1.08483315e-01f,-1.23108411e-02f,-3.61601426e-03f,+2.27133706e-01f,+1.60878465e-01f,
+3.63362730e-02f,+1.34539112e-01f,-5.10165319e-02f,-1.80140495e-01f,+2.25126356e-01f,
-4.01825160e-02f,+2.95764476e-01f,+1.58177897e-01f,+7.11085275e-02f,+3.15326005e-01f,
-4.27487433e-01f,+2.96412855e-01f,+2.71497339e-01f,+8.35192576e-02f,-2.95574397e-01f,
-2.09984221e-02f,+1.58235669e-01f,-1.53721124e-01f,+5.06755449e-02f,-6.46897405e-02f,
+1.38479605e-01f,+1.18018590e-01f,+1.72967359e-01f,+1.88721448e-01f,-4.97546494e-02f,
-2.03800276e-01f,-1.27560481e-01f,+1.28845140e-01f,-2.58519977e-01f,+1.81614548e-01f,
-2.29538038e-01f,+1.69757009e-02f,-1.39209300e-01f,+8.12241361e-02f,-3.96837980e-01f,
-1.42753258e-01f,+2.00306877e-01f,+1.18769646e-01f,+6.78565428e-02f,-1.12241261e-01f,
-1.13248311e-01f,+2.18263008e-02f,-3.14264372e-02f,-1.05306655e-01f,+1.80495903e-01f,
+9.20985192e-02f,+1.60685211e-01f,-2.07458138e-01f,+6.81272298e-02f,-5.78819104e-02f,
+1.30420700e-01f,+3.88439059e-01f,-4.67585865e-03f,+1.01852156e-01f,+8.17050710e-02f,
-1.89899907e-01f,+1.78586878e-02f,+7.79438913e-02f,-1.64316427e-02f,-5.45427166e-02f,
-1.47001967e-01f,+1.11673241e-02f,+1.98254436e-01f,-6.36575744e-02f,-6.28666207e-02f,
+1.03459872e-01f,+1.99783128e-02f,-4.04618792e-02f,+7.30916113e-02f,+4.97082144e-01f,
+2.47437861e-02f,+1.93145499e-01f,+5.62766433e-01f,-1.59075722e-01f,+7.05632344e-02f,
+1.85521990e-01f,+4.26048525e-02f,-1.22228257e-01f,-1.49325013e-01f,-1.22143060e-01f,
-1.08641684e-01f,-2.59963237e-02f,+4.96478006e-02f,-1.70653865e-01f,-2.67661214e-01f,
-2.70721436e-01f,+5.25356904e-02f,+1.18152961e-01f,+1.83343813e-01f,+3.22371423e-01f,
+3.03718507e-01f,+2.78240472e-01f,+3.72631758e-01f,-1.15295434e-02f,+1.12522822e-02f,
-1.06715389e-01f,+1.43115997e-01f,+6.08950853e-03f,-4.56871659e-01f,-2.17479728e-02f,
+1.47360414e-01f,-3.92895602e-02f,+1.24655128e-01f,-8.78487378e-02f,+6.46124333e-02f,
-1.03530800e-03f,+2.04883963e-01f,-6.38068765e-02f,-2.55548000e-01f,-6.04532138e-02f,
-1.46069661e-01f,-1.02549912e-02f,+1.99838713e-01f,-2.04065964e-01f,+2.42175773e-01f,
-2.42124707e-01f,-7.09529370e-02f,+2.29053455e-03f,+4.01675671e-01f,+1.85102284e-01f,
+3.85815427e-02f,-1.07470669e-01f,-2.76622802e-01f,-1.60033867e-01f,+2.28123128e-01f,
-1.67193383e-01f,-2.94029534e-01f,-4.96568605e-02f,+1.10778987e-01f,+6.81867003e-02f,
-2.23281071e-01f,-1.41833276e-01f,+1.85540378e-01f,+8.29523522e-03f,+2.28687391e-01f,
-1.49912238e-01f,-7.93282539e-02f,-1.92021787e-01f,-2.33691305e-01f,+1.11262570e-03f,
-5.11146411e-02f,+1.37326177e-02f,+2.08018631e-01f,+3.98459136e-02f,+7.21961446e-03f,
+1.08096130e-01f,-1.73341542e-01f,+7.58082643e-02f,+9.34126452e-02f,-6.18364625e-02f,
+1.63869001e-02f,-2.00085327e-01f,-1.66706908e-02f,+6.56598136e-02f,-2.91617870e-01f,
+4.76518482e-01f,+3.63447607e-01f,+2.36692369e-01f,+2.05421494e-03f,-5.11986669e-04f,
+2.61454105e-01f,+3.10867101e-01f,+1.11500457e-01f,+3.02112773e-02f,-6.59633800e-02f,
+1.04520507e-01f,+2.83420794e-02f,+1.08240910e-01f,-1.51272535e-01f,+3.02802436e-02f,
-2.75117666e-01f,-2.17495173e-01f,-2.65300900e-01f,+2.00347468e-01f,-1.58976078e-01f,
+1.31098613e-01f,+6.88261241e-02f,-2.48364406e-03f,-2.87509799e-01f,-3.63497622e-02f,
-1.21249586e-01f,-4.05856185e-02f,-3.50803554e-01f,-6.62821904e-02f,+1.30901113e-01f,
-2.18454212e-01f,+7.50125647e-02f,+9.52190682e-02f,-1.77265763e-01f,+1.32848527e-02f,
+1.97597384e-01f,-6.03956096e-02f,-2.17086211e-01f,-3.91294137e-02f,+1.82868212e-01f,
-5.01457639e-02f,+1.48085162e-01f,+2.21493945e-01f,-1.32782951e-01f,+5.89380227e-03f,
+8.35617408e-02f,+1.22729227e-01f,+7.89872110e-02f,-5.65757155e-01f,-7.25555867e-02f,
+2.58365542e-01f,+1.65529147e-01f,-1.24063261e-01f,-5.59495948e-02f,-2.93917395e-02f,
+1.54354900e-01f,-6.95810542e-02f,+1.30948886e-01f,+1.60793707e-01f,+7.34954253e-02f,
-2.20469981e-01f,-5.89793958e-02f,+1.90639079e-01f,+1.95964977e-01f,+1.30135685e-01f,
-5.39621525e-02f,-1.42074510e-01f,-1.52822331e-01f,+7.26567507e-02f,+8.86533316e-03f,
+3.79298404e-02f,+9.87554640e-02f,-1.47348791e-01f,-9.74964947e-02f,-1.23914396e-02f,
+1.42352268e-01f,-3.12245280e-01f,+1.30939931e-01f,+1.27349511e-01f,-1.89159572e-01f,
+3.76929389e-03f,+2.26229161e-01f,+2.79587090e-01f,+1.03180550e-01f,-2.22730041e-02f,
+1.89754203e-01f,-2.25867257e-02f,+2.77781487e-01f,+3.57289582e-01f,+1.06674924e-01f,
+1.50831074e-01f,+1.67301640e-01f,+8.53063446e-03f,+6.10477388e-01f,-8.93265381e-02f,
+8.28283504e-02f,-5.06418608e-02f,+1.20058604e-01f,+1.81275904e-01f,-1.67048782e-01f,
+4.33217585e-02f,+2.23933473e-01f,+3.45181495e-01f,+1.23276979e-01f,+1.70492232e-01f,
+2.17166588e-01f,+1.97772011e-01f,+2.58677065e-01f,-3.50018479e-02f,+2.75481403e-01f,
+5.26947677e-02f,+3.29364240e-01f,+1.41979247e-01f,+5.39364889e-02f,+8.04187432e-02f,
+4.50053327e-02f,+3.92296575e-02f,+2.43872777e-01f,+4.23925631e-02f,-4.45831642e-02f,
-1.81868374e-01f,-1.02651529e-01f,-1.93059489e-01f,-1.35852799e-01f,-1.47452459e-01f,
+1.81891710e-01f,-2.47161388e-01f,-1.38815731e-01f,+9.85112935e-02f,-2.18095165e-02f,
-1.22414231e-01f,-2.21919343e-01f,-7.29704322e-03f,+1.71737790e-01f,-1.83709085e-01f,
+2.38847077e-01f,+5.55344336e-02f,+1.79580897e-02f,+1.53460369e-01f,+4.79032755e-01f,
+2.33665764e-01f,+3.69970053e-02f,+1.87640768e-02f,-4.90210624e-03f,+1.65783748e-01f,
+4.51777279e-01f,+1.72158390e-01f,+7.27342889e-02f,-4.15923148e-01f,+1.33885950e-01f,
-2.80458089e-02f,+1.07517287e-01f,-8.87953714e-02f,+6.97211325e-02f,+2.30179369e-01f,
+5.26386015e-02f,+2.80723274e-01f,-1.34924620e-01f,-6.20509088e-02f,-4.56140824e-02f,
-1.41590014e-01f,+1.24290034e-01f,+1.67811051e-01f,+2.76386701e-02f,-1.99178711e-01f,
-1.48956060e-01f,+1.45725071e-01f,-7.42888590e-03f,+1.17513746e-01f,+3.08551580e-01f,
+3.38758022e-01f,-2.80112419e-02f,-2.71498054e-01f,-1.80865064e-01f,-2.12113202e-01f,
-2.00601518e-01f,+3.36769611e-01f,+8.92143622e-02f,+2.40146577e-01f,+4.36191887e-01f,
-3.83398652e-01f,-1.21329248e-01f,+1.28239602e-01f,-6.72011077e-02f,+4.25615698e-01f,
-2.23619774e-01f,+2.53117770e-01f,+7.75329408e-06f,+1.87649205e-01f,+7.00848922e-02f,
+3.12128186e-01f,-2.37745866e-01f,+6.21446893e-02f,+2.75569201e-01f,-9.16411057e-02f,
+1.03103004e-01f,+1.45193651e-01f,+9.18131098e-02f,-1.31131917e-01f,-8.06025043e-03f,
+1.46403030e-01f,-5.57952374e-02f,+1.67445928e-01f,+1.11378200e-01f,-1.07532017e-01f,
+7.71885291e-02f,+3.38713676e-02f,+3.76919717e-01f,-8.91640931e-02f,-1.02320202e-01f,
+2.38143802e-01f,+1.19465142e-01f,+1.41915798e-01f,-3.29558291e-02f,-4.04357463e-02f,
-1.25516102e-01f,+2.46574119e-01f,+6.31512180e-02f,-2.02454284e-01f,-1.25706106e-01f,
-3.05197418e-01f,+2.59919733e-01f,+2.79580299e-02f,-3.00069481e-01f,+3.23269218e-01f,
+3.91662419e-02f,+2.33547553e-01f,-9.51106250e-02f,-3.29553485e-02f,-3.80329788e-01f,
+3.52464110e-01f,+1.21568032e-01f,+1.39741510e-01f,-3.78535718e-01f,+1.85847297e-01f,
-1.82791427e-01f,-5.08449189e-02f,-8.71938765e-02f,-2.77559701e-02f,+1.62276328e-01f,
+4.64398056e-01f,-9.46134999e-02f,+1.46510363e-01f,+9.60321724e-02f,-5.99941611e-02f,
+6.93721639e-04f,+9.59855244e-02f,+1.67752549e-01f,+9.91487503e-02f,-2.95050517e-02f,
-6.96028695e-02f,-2.31576622e-01f,+9.60184038e-02f,+2.68764555e-01f,-2.09886968e-01f,
+1.22051006e-02f,+2.92228639e-01f,-9.51621905e-02f,-8.76482055e-02f,-1.10916480e-01f,
+8.89111161e-02f,-2.04036400e-01f,+1.51461601e-01f,-9.75984409e-02f,+3.81026566e-01f,
+3.84477247e-03f,+1.47170439e-01f,+4.21211958e-01f,-2.65239835e-01f,-3.70419249e-02f,
-3.15029174e-02f,-1.45282075e-01f,+2.68603891e-01f,-2.38041624e-01f,+5.88465743e-02f,
-1.65747181e-01f,-2.30287835e-01f,+1.37491748e-01f,-1.10995700e-03f,+4.97367799e-01f,
+9.63784233e-02f,+1.65803477e-01f,+2.94491291e-01f,+4.54019047e-02f,+1.39090806e-01f,
-8.38481262e-02f,-2.71354616e-01f,+1.07048623e-01f,+4.40384075e-02f,+1.25196725e-01f,
+4.22673784e-02f,-3.40413675e-03f,+4.36212838e-01f,-2.02200800e-01f,+8.86931047e-02f,
+8.51602629e-02f,-2.01106500e-02f,+8.60354528e-02f,-1.51290476e-01f,-6.34631142e-02f,
-7.54360780e-02f,+2.33175933e-01f,-6.58046901e-02f,+1.89186223e-02f,+1.67627126e-01f,
-1.35925375e-02f,-2.51746234e-02f,+2.51897518e-02f,+1.23327695e-01f,+2.02689879e-02f,
+1.09275572e-01f,-3.51919793e-02f,-1.88732564e-01f,-9.33788344e-02f,+5.17429292e-01f,
+2.98356395e-02f,-7.67315924e-02f,+3.40785715e-03f,+2.77457982e-01f,-2.38548010e-03f,
+3.08924969e-02f,-1.83504984e-01f,+4.57001150e-01f,-3.92121822e-02f,+1.03586353e-01f,
-3.03382166e-02f,-1.84877291e-01f,-2.42270246e-01f,-1.12316962e-02f,+2.96529025e-01f,
+3.25334854e-02f,-5.34743071e-02f,-2.26960883e-01f,-8.07073414e-02f,+6.81440830e-02f,
-1.32008955e-01f,-7.61813018e-03f,-5.37937097e-02f,+6.57521635e-02f,+3.16323549e-01f,
+2.29846060e-01f,+2.88831502e-01f,-1.69025302e-01f,-4.79298756e-02f,+5.62642366e-02f,
-4.93193343e-02f,-2.57320255e-01f,+5.25969788e-02f,+5.17078564e-02f,+1.95421368e-01f,
-1.15989506e-01f,-1.91074073e-01f,+2.31093958e-01f,-2.65648067e-01f,-9.17779580e-02f,
+2.52555728e-01f,-7.02236891e-02f,+3.37554276e-01f,-2.11273879e-01f,-5.85660972e-02f,
-5.88947795e-02f,+1.09929539e-01f,+1.18309975e-01f,-2.45042086e-01f,-4.17451337e-02f,
+1.65656164e-01f,+7.85878226e-02f,+9.25520733e-02f,-6.33779075e-03f,-1.53238386e-01f,
-1.22878939e-01f,-1.05326623e-01f,+8.44119042e-02f,+5.63119315e-02f,-1.93588406e-01f,
-1.80623885e-02f,-1.16266066e-03f,+2.92698145e-01f,-4.48149978e-04f,-2.88094848e-01f,
+1.73182249e-01f,-4.71548051e-01f,-2.24101067e-01f,-2.20091194e-01f,+1.50530547e-01f,
-9.26657841e-02f,+4.59808335e-02f,+7.49982893e-02f,-2.69283891e-01f,+2.27506205e-01f,
+2.43651122e-01f,+2.85730269e-02f,+2.56665885e-01f,+2.73579091e-01f,+4.38722968e-02f,
+1.46363482e-01f,-9.50198323e-02f,-5.43863624e-02f,+1.07867971e-01f,-5.09836562e-02f,
-1.15788886e-02f,+4.79364302e-03f,+3.29460204e-01f,+1.45673946e-01f,+3.28869611e-01f,
-2.33331844e-01f,-2.39092167e-02f,-1.59495920e-01f,+5.63982241e-02f,+2.08726615e-01f,
+2.95069456e-01f,-1.65948331e-01f,-1.42732700e-02f,-5.97635061e-02f,-2.30974019e-01f,
+1.05190426e-01f,-2.96853483e-01f,-7.02012330e-02f,+1.21802911e-01f,+2.52928823e-01f,
-1.64818391e-01f,+1.60836041e-01f,-2.30161455e-02f,-2.50045806e-02f,+1.29772499e-01f,
-6.12551197e-02f,-2.14880422e-01f,-8.97946954e-02f,+1.13184778e-02f,+5.09721264e-02f,
+6.15703017e-02f,-1.07464977e-01f,+3.76264125e-01f,-1.46218389e-01f,-3.55004370e-02f,
+1.74191847e-01f,+2.07291767e-01f,+1.79640517e-01f,+4.44776416e-02f,+7.94901848e-02f,
-3.05084568e-02f,-1.62465930e-01f,+1.15653440e-01f,+1.27736717e-01f,+1.35993630e-01f,
+2.79741157e-02f,-1.14790857e-01f,-1.59344114e-02f,+1.72243372e-01f,-3.43478620e-02f,
+1.24404572e-01f,-5.01994044e-02f,-1.43679166e-02f,-4.69401255e-02f,-1.48727253e-01f,
+2.92110950e-01f,-3.11720997e-01f,-5.07576391e-02f,-2.45838031e-01f,+6.74519390e-02f,
+6.62209019e-02f,-1.94203779e-01f,+2.54072726e-01f,+1.52236328e-01f,+6.18950613e-02f,
+4.51166451e-01f,+6.77585825e-02f,-4.40392038e-03f,+1.57682002e-01f,-6.35273457e-02f,
+3.20439816e-01f,+3.00841987e-01f,+1.06655478e-01f,-4.49959449e-02f,-1.13779050e-03f,
-3.65164243e-02f,+1.65111184e-01f,-7.75802955e-02f,-3.10049742e-01f,+1.70405775e-01f,
-5.93840592e-02f,-5.83434328e-02f,-2.12605193e-01f,+7.10293502e-02f,-1.91384163e-02f,
+5.05068973e-02f,-1.17820352e-01f,+2.10446611e-01f,-2.49173790e-02f,+2.93747604e-01f,
-1.07751921e-01f,+4.16118391e-02f,+2.62091868e-02f,+1.36078238e-01f,+3.76572609e-02f,
+3.19954269e-02f,-2.21853420e-01f,+4.10280935e-02f,-5.12181930e-02f,-3.25290561e-01f,
+2.87917126e-02f,-1.70746539e-02f,-9.10655111e-02f,-1.48307160e-01f,-1.01153970e-01f,
+2.19781592e-01f,-1.06036924e-01f,+1.87738627e-01f,+5.39107770e-02f,+2.43210584e-01f,
-1.43644527e-01f,+1.66311160e-01f,-2.10926726e-01f,-1.58746727e-02f,-1.29199505e-01f,
-1.20149054e-01f,-9.31060091e-02f,+2.16282621e-01f,+7.74363503e-02f,+2.91782022e-01f,
-1.51727796e-01f,+2.96082586e-01f,+1.27833905e-02f,+2.30860785e-01f,-5.80100082e-02f,
+1.92928359e-01f,+2.78295845e-01f,+9.99866873e-02f,+1.49818942e-01f,+3.42223376e-01f,
-1.58730432e-01f,+3.96318853e-01f,+1.71790794e-01f,-4.82567623e-02f,-7.40797371e-02f,
+2.07426734e-02f,+2.58979946e-02f,-2.23019142e-02f,-1.67465776e-01f,+1.09788410e-01f,
-1.64245248e-01f,-1.03128269e-01f,-1.41175851e-01f,+4.30466235e-03f,+2.20762342e-01f,
+8.72770026e-02f,-1.64607018e-01f,+2.14857161e-01f,+2.15026494e-02f,+6.97515905e-02f,
+1.08502068e-01f,+9.37499404e-02f,-8.63262862e-02f,+1.08786881e-01f,+2.22195253e-01f,
+1.54303879e-01f,+9.47433989e-03f,+1.22027315e-01f,-1.37144178e-01f,+1.20395780e-01f,
+2.97795534e-01f,+9.98696126e-03f,-1.28520295e-01f,+1.15663476e-01f,-1.97246715e-01f,
+6.32020994e-04f,-3.74166429e-01f,+8.90013427e-02f,+4.51636650e-02f,-1.59424037e-01f,
-3.53433304e-02f,-1.98549986e-01f,-8.48030224e-02f,+3.14957112e-01f,+2.05315068e-01f,
+1.31585315e-01f,+9.96499136e-02f,+3.41780037e-02f,-8.92361328e-02f,+5.89304045e-02f,
+1.29099622e-01f,+2.31262133e-01f,+9.25405696e-02f,-1.38555586e-01f,+1.59681752e-01f,
-1.58848107e-01f,+2.02968955e-01f,+3.34533453e-02f,-8.14288110e-02f,-2.04588622e-02f,
+4.31933142e-02f,-1.79616556e-01f,-5.12366593e-02f,-1.08393610e-01f,-5.61087914e-02f,
+5.84785528e-02f,+5.39679825e-02f,+2.45729804e-01f,+4.27932739e-01f,-2.02640370e-01f,
+2.39782467e-01f,+1.16271399e-01f,+1.65068284e-01f,+7.61598349e-02f,+1.85501240e-02f,
+2.03249753e-01f,+1.89333737e-01f,+9.83787403e-02f,+1.33261634e-02f,-3.19692880e-01f,
+2.63897497e-02f,+2.67014593e-01f,-1.35991648e-01f,+5.33223636e-02f,+1.28190786e-01f,
-2.07763702e-01f,-9.71345976e-02f,-1.12585872e-02f,-7.08558830e-03f,-3.07743251e-01f,
+9.15878713e-02f,-4.71607521e-02f,+1.87663641e-02f,-1.89596117e-02f,+1.73057571e-01f,
-8.27039033e-02f,+3.19525972e-02f,+2.03676134e-01f,-1.24345355e-01f,+4.82523561e-01f,
-6.46327734e-02f,+1.47692129e-01f,+2.35893056e-01f,-1.99473649e-01f,+8.93716663e-02f,
+4.16432656e-02f,-6.42637163e-02f,+1.80601403e-01f,+5.45233674e-02f,+1.82464182e-01f,
-5.92387505e-02f,+2.57055432e-01f,-5.34482580e-03f,+2.32208401e-01f,+1.25420652e-02f,
-1.30051911e-01f,-3.29125375e-02f,-5.22594317e-04f,-2.36590669e-01f,+2.10473284e-01f,
+1.24496579e-01f,+3.35257538e-02f,-3.24114785e-02f,+9.76781547e-03f,+4.43990901e-02f,
+2.27054521e-01f,+2.40615100e-01f,+1.08677678e-01f,-6.10519610e-02f,+1.91540390e-01f,
+9.37736630e-02f,-3.60591263e-02f,+2.67882124e-02f,-2.66125649e-01f,-1.23575106e-01f,
+1.79443955e-02f,-1.70488924e-01f,-2.05841765e-01f,+2.91439928e-02f,+2.93553799e-01f,
-4.87793356e-01f,+1.69524297e-01f,-2.39675224e-01f,-5.00513427e-02f,-7.08305016e-02f,
+2.20411256e-01f,+2.20282197e-01f,-1.04757585e-01f,+1.86537698e-01f,-4.95601669e-02f,
-5.84641397e-02f,-2.45351523e-01f,-5.40719461e-03f,+7.38518964e-03f,-7.09544867e-02f,
+3.68058622e-01f,+1.12427451e-01f,+1.00263670e-01f,+3.59503329e-02f,+4.43817489e-02f,
-3.16654220e-02f,+2.31035218e-01f,+2.23118722e-01f,+7.51599669e-02f,+1.99325159e-02f,
+1.53961584e-01f,+2.62991130e-01f,-2.71377295e-01f,+7.65557662e-02f,+2.47195661e-01f,
-1.78203166e-01f,-3.14352185e-01f,-1.07450753e-01f,+6.85215369e-02f,+2.36644059e-01f,
-1.04579158e-01f,+2.50521272e-01f,-4.95402887e-02f,+1.94120705e-01f,-1.09158747e-01f,
-1.12079650e-01f,+2.82524852e-03f,+1.01045080e-01f,+2.82562405e-01f,-1.12672456e-01f,
+1.21918052e-01f,-1.72946990e-01f,-2.55436778e-01f,-1.65837467e-01f,-1.91146195e-01f,
-7.80688599e-02f,+2.16255471e-01f,+1.82410762e-01f,+1.53818890e-01f,+3.47658969e-03f,
-2.24583577e-02f,+3.88333112e-01f,-6.27432484e-03f,-1.73230380e-01f,+3.06532919e-01f,
+3.53625149e-01f,+1.29248723e-01f,+1.73787788e-01f,+3.54621746e-02f,+2.88783580e-01f,
+8.59278366e-02f,+8.44811425e-02f,-2.35558599e-01f,+2.30570540e-01f,-7.06994459e-02f,
+1.04073673e-01f,-1.16631016e-01f,+1.25790134e-01f,-2.09821314e-01f,-2.95198053e-01f,
+3.01589787e-01f,+6.37738630e-02f,-1.54197007e-01f,-3.36696625e-01f,-2.28668138e-01f,
+3.06283534e-01f,-1.73846900e-01f,+1.71428993e-01f,+2.19995767e-01f,-1.84692312e-02f,
+2.22109288e-01f,+1.32717967e-01f,+1.68469846e-02f,+1.80393144e-01f,+1.64966539e-01f,
+9.80551988e-02f,-8.28872249e-03f,+3.98909956e-01f,-5.75601831e-02f,+3.05523366e-01f,
+2.48290673e-02f,-1.61019564e-01f,+2.78962642e-01f,-2.70208269e-01f,+2.43786722e-02f,
-5.68991415e-02f,+7.23622739e-02f,-9.83367786e-02f,-1.62914738e-01f,+8.79495814e-02f,
+4.18832898e-02f,-2.81259239e-01f,+1.17110766e-01f,+3.55509043e-01f,+1.21236958e-01f,
+2.65917093e-01f,+6.55755550e-02f,+3.05273741e-01f,-5.23745939e-02f,-6.53968612e-03f,
+1.73486415e-02f,-1.69515640e-01f,+3.08107734e-01f,-2.30013251e-01f,-1.93090618e-01f,
+1.47924736e-01f,-1.39532506e-01f,-2.90462971e-01f,-3.61734722e-03f,-2.25715697e-01f,
-1.92414746e-01f,+8.99180546e-02f,-6.21158071e-02f,+1.27194762e-01f,+2.61238247e-01f,
-1.82608292e-01f,-2.39474978e-02f,-2.13165417e-01f,-1.03636086e-01f,-1.19651489e-01f,
+1.77178364e-02f,+1.43939123e-01f,-2.89540496e-02f,+5.33004045e-01f,+1.65317118e-01f,
+1.34090275e-01f,-2.21810222e-01f,+3.39288972e-02f,-1.58934578e-01f,+2.01554894e-01f,
+2.57150196e-02f,+2.55275786e-01f,+9.20793861e-02f,-5.78823052e-02f,-1.89482458e-02f,
+2.43426785e-01f,-3.93419743e-01f,-1.15416147e-01f,+1.61728397e-01f,+3.97471666e-01f,
+2.59916633e-01f,+4.07370806e-01f,+1.45019427e-01f,+5.32045700e-02f,-7.01864734e-02f,
-1.68414339e-01f,+8.55744556e-02f,-1.27556458e-01f,-3.30771834e-01f,+2.07775906e-02f,
-1.48552209e-01f,+1.50880694e-01f,-8.25765058e-02f,+3.79983217e-01f,-1.18225487e-02f,
+1.18462302e-01f,+9.13433284e-02f,+6.61507174e-02f,-1.64274514e-01f,-3.89274210e-01f,
-9.67651606e-02f,-5.62590100e-02f,+1.46513477e-01f,+7.04314634e-02f,-6.44690124e-04f,
+3.20627153e-01f,+2.30269566e-01f,+1.68675110e-01f,-6.26846328e-02f,+2.09666397e-02f,
+2.08572000e-01f,-1.92275330e-01f,-8.64051580e-02f,+3.35720181e-02f,-1.77918255e-01f,
-3.62388305e-02f,+9.86969322e-02f,-2.39556357e-01f,+1.02434710e-01f,-1.73167035e-01f,
+5.22994697e-02f,+1.82579413e-01f,-5.78751974e-02f,+1.37875676e-01f,+4.32535596e-02f,
-6.47235140e-02f,+1.16033524e-01f,+1.23264715e-01f,+5.36942855e-02f,+1.51164696e-01f,
+2.99042631e-02f,+1.23739749e-01f,-1.81392834e-01f,-2.16114856e-02f,-9.22647789e-02f,
+3.12869549e-01f,-2.26090714e-01f,-7.59382267e-04f,-5.84737062e-02f,-4.10916433e-02f,
+2.22456947e-01f,-1.85367733e-01f,+5.83377957e-01f,+3.07030827e-01f,+1.09536303e-02f,
+1.44401670e-01f,-2.11492211e-01f,-1.24116719e-01f,+2.01378595e-02f,+1.89292729e-01f,
+1.76413536e-01f,+3.57155383e-01f,-1.66262671e-01f,+3.50823626e-02f,+2.73495130e-02f,
-4.75941226e-02f,-1.22682765e-01f,+8.05891752e-02f,+1.36615738e-01f,+1.94130391e-01f,
-1.67926177e-02f,+1.97211385e-01f,-8.79256055e-02f,-2.52159476e-01f,-6.32676333e-02f,
+1.17343113e-01f,+2.29122296e-01f,+6.61613941e-02f,+5.80968931e-02f,+4.05614125e-03f,
-6.41692728e-02f,-1.03365712e-01f,-2.42855564e-01f,+2.28450090e-01f,+2.85472542e-01f,
-1.36869207e-01f,-4.36387099e-02f,+2.02109739e-02f,-2.15445265e-01f,-1.30343646e-01f,
+2.31559187e-01f,-1.41832948e-01f,+5.45650981e-02f,+1.37714133e-01f,+2.79106915e-01f,
-4.10014838e-02f,+2.23436072e-01f,-1.11124791e-01f,+4.92904447e-02f,-2.26233140e-01f,
+1.01789705e-01f,-1.19946986e-01f,-3.18627506e-02f,-1.47357851e-01f,+5.31928986e-02f,
-2.89285302e-01f,-1.26095876e-01f,+1.82037294e-01f,+7.48223290e-02f,-3.54986116e-02f,
+7.01467916e-02f,-6.58593047e-03f,+5.35841100e-02f,+1.09880246e-01f,-2.06678584e-02f,
-1.76122025e-01f,-6.05385341e-02f,-1.43726408e-01f,-2.69763321e-01f,-1.28356025e-01f,
+3.77255864e-03f,+1.38427198e-01f,+1.94726884e-01f,-4.02242154e-01f,-3.48876417e-02f,
+1.44154010e-02f,+3.46702069e-01f,+3.98754537e-01f,-1.22419707e-01f,-2.25897148e-01f,
+8.84280577e-02f,-3.98234390e-02f,-3.83777320e-02f,-2.92938471e-01f,+3.70970577e-01f,
+1.93943575e-01f,-3.77057344e-01f,+4.91413437e-02f,+1.96349606e-01f,+6.24680147e-02f,
+7.57355690e-02f,-6.24574199e-02f,-8.01696181e-02f,-1.81037843e-01f,+3.24501336e-01f,
-1.85838223e-01f,+1.11742839e-01f,+4.83299717e-02f,+2.56195635e-01f,+3.67909968e-01f,
-1.04178861e-01f,-2.56632809e-02f,+1.13451369e-01f,-1.34087399e-01f,+3.31939384e-02f,
-1.72874808e-01f,+9.03338268e-02f,-4.14893538e-01f,-1.15954550e-02f,-3.32766324e-02f,
+2.99720783e-02f,+4.45218245e-03f,-2.22283140e-01f,+1.95255816e-01f,+2.93758865e-02f,
+2.36115173e-01f,+6.37709424e-02f,-1.93768665e-01f,+4.95745130e-02f,+2.00031266e-01f,
-6.25728145e-02f,+1.25736892e-02f,-1.67060480e-01f,-2.40445718e-01f,+3.55957896e-01f,
-1.95409998e-01f,-7.61778513e-03f,-8.91677216e-02f,-5.85951284e-02f,-8.62152607e-04f,
+4.85809147e-02f,+3.80310953e-01f,+3.37818405e-04f,+1.14487752e-01f,-5.36104850e-02f,
-1.54547259e-01f,+5.87990955e-02f,-1.14538461e-01f,-2.14929745e-01f,-1.03073288e-02f,
-1.88768983e-01f,+1.31731167e-01f,+1.52661413e-01f,+8.06401968e-02f,-1.31295100e-01f,
-1.49054043e-02f,+1.44191444e-01f,-1.15856733e-02f,+2.33094439e-01f,-8.31680000e-02f,
+1.87209323e-01f,+1.08123526e-01f,-1.56036004e-01f,-4.82860161e-03f,+1.72338903e-01f,
+2.32182220e-01f,+1.67597249e-01f,-2.16553405e-01f,-4.65164473e-03f,+9.97326672e-02f,
+2.62258857e-01f,+6.33160621e-02f,-1.27784446e-01f,-3.81446064e-01f,+1.58159465e-01f,
+2.17387646e-01f,-1.86070502e-01f,+1.40908388e-02f,-1.83129475e-01f,-1.16916589e-01f,
+6.96870610e-02f,+1.61651477e-01f,-1.40145048e-01f,+1.15114413e-01f,-1.10431433e-01f,
+9.71284658e-02f,+1.30262420e-01f,-2.19678599e-02f,-5.83993569e-02f,+3.02138031e-01f,
-1.54640496e-01f,+3.92535068e-02f,+2.98103452e-01f,+1.95341796e-01f,-1.80355906e-01f,
+2.80729264e-01f,+2.82857686e-01f,-1.08768158e-01f,+5.94464056e-02f,+5.20708680e-01f,
+4.22209203e-02f,+8.66189152e-02f,+4.68275212e-02f,+2.52329499e-01f,-1.36315688e-01f,
-1.27163857e-01f,+1.22688062e-01f,+3.36844623e-01f,-7.39743039e-02f,-1.26096725e-01f,
-5.19492701e-02f,-6.03186525e-03f,+3.21572199e-02f,-1.72243286e-02f,+1.70831725e-01f,
+1.41314015e-01f,+2.38803271e-02f,+1.54437035e-01f,+2.20729545e-01f,-9.52150151e-02f,
+1.37795836e-01f,-4.27973345e-02f,-3.82251620e-01f,+1.55530393e-01f,-1.05733074e-01f,
+2.69159079e-02f,+3.77023034e-02f,-1.37707954e-02f,+2.91375458e-01f,+5.36183082e-02f,
-4.12878036e-01f,+1.48941144e-01f,-5.35153300e-02f,+1.97747752e-01f,+2.04062551e-01f,
-1.12740070e-01f,+2.26491153e-01f,+2.22330019e-02f,+2.20656797e-01f,+1.66804701e-01f,
-9.92140099e-02f,+4.20975238e-02f,+2.37923995e-01f,-5.61621189e-02f,-3.84080380e-01f,
+1.19097292e-01f,+4.34937067e-02f,+8.94767568e-02f,+2.81832784e-01f,-8.39254335e-02f,
-4.79572527e-02f,-6.15030825e-02f,-4.55921181e-02f,+4.13460702e-01f,+2.41643414e-01f,
-8.49265680e-02f,+9.52313244e-02f,+1.59756348e-01f,-1.42771706e-01f,-7.23150149e-02f,
+6.06400222e-02f,+1.31360874e-01f,+8.09161291e-02f,+4.96319821e-03f,+4.10376459e-01f,
-1.81213826e-01f,-3.12628686e-01f,+2.16245741e-01f,-1.87942367e-02f,+3.85831855e-02f,
+3.20421785e-01f,+1.05283901e-01f,+1.65362686e-01f,+7.67524987e-02f,+2.25362241e-01f,
-2.05751494e-01f,+1.69542164e-01f,-7.94971287e-02f,-1.86925575e-01f,-3.20592523e-02f,
+1.30955011e-01f,+2.01554522e-01f,+1.72252268e-01f,-6.20064810e-02f,-2.55480051e-01f,
-4.58617397e-02f,+6.99111670e-02f,-9.48248655e-02f,+3.23481321e-01f,-1.75403636e-02f,
+2.62647361e-01f,-1.52964860e-01f,-4.88253683e-02f,-3.56116542e-03f,+1.64962679e-01f,
+7.15461075e-02f,+6.64949277e-03f,+2.75844783e-01f,+8.59748051e-02f,+4.72884029e-02f,
+2.00928003e-01f,-1.33474901e-01f,-2.28258654e-01f,+3.16269100e-01f,+6.09849803e-02f,
+4.89511453e-02f,-2.91641980e-01f,+1.40121996e-01f,+2.14691591e-02f,-1.96193889e-01f,
-3.82311732e-01f,+4.78759080e-01f,+1.16008148e-01f,-2.69703895e-01f,-9.09219012e-02f,
+9.80041102e-02f,+3.03039253e-01f,-1.42535552e-01f,-1.79348439e-01f,+2.73418218e-01f,
+1.23161234e-01f,+1.13696568e-01f,-2.87956268e-01f,-2.75809944e-01f,-2.37821266e-02f,
-1.32909372e-01f,-9.13000107e-02f,+8.67919251e-02f,-7.57773593e-02f,-2.65582114e-01f,
+3.41547966e-01f,+1.02634631e-01f,+2.60905951e-01f,+7.60361133e-03f,+1.13792032e-01f,
+2.28294991e-02f,-7.02715758e-03f,-1.09864727e-01f,-3.38341892e-02f,-2.48830959e-01f,
+2.03112047e-02f,+2.33542785e-01f,+1.98410064e-01f,-6.42960668e-02f,-1.61236152e-01f,
-1.64090276e-01f,+1.45725124e-02f,+3.12117934e-01f,+3.20130229e-01f,+6.06535859e-02f,
-2.31268764e-01f,-4.77125309e-02f,+1.92338675e-01f,-2.19280392e-01f,+4.69765551e-02f,
+4.36462276e-02f,-4.49340381e-02f,+2.29340777e-01f,+1.50463860e-02f,-1.73512205e-01f,
+1.55944169e-01f,-8.40629339e-02f,+1.35220930e-01f,-4.29240428e-02f,-1.17114559e-01f,
+9.63506773e-02f,+6.78527355e-02f,-2.64400057e-03f,+5.90252243e-02f,+1.12259157e-01f,
+1.37927130e-01f,-2.90722419e-02f,+1.67105496e-01f,-1.62206948e-01f,-5.12645841e-02f,
+1.01620890e-01f,-1.74823999e-01f,-5.82182370e-02f,-9.04198959e-02f,-2.31756195e-01f,
-9.13841128e-02f,+2.81121824e-02f,+6.20614029e-02f,+3.57745290e-02f,-6.62173554e-02f,
+2.93578096e-02f,+3.83829363e-02f,+1.27279386e-02f,-2.42255315e-01f,+2.11057767e-01f,
-6.21479712e-02f,-2.14383438e-01f,-1.90104395e-01f,-1.86259523e-01f,+6.88637346e-02f,
+1.27358347e-01f,-2.14172363e-01f,+1.64280921e-01f,+2.13333350e-02f,+1.03163131e-01f,
+7.41978660e-02f,+6.04494400e-02f,+3.11272860e-01f,-1.02186380e-02f,+1.91660315e-01f,
+1.70284063e-02f,+2.95389880e-04f,+2.22495109e-01f,+2.58125633e-01f,+2.07724586e-01f,
+5.21965744e-03f,-1.69215295e-02f,-8.15077052e-02f,+5.77583956e-03f,+1.37719825e-01f,
-1.30759450e-02f,+2.01492727e-01f,+3.78823318e-02f,+2.36905485e-01f,+9.76890549e-02f,
-2.72536486e-01f,+2.46821716e-01f,+1.19426243e-01f,+6.07736930e-02f,+7.51675367e-02f,
-1.12046488e-01f,+7.52390102e-02f,-4.57969040e-01f,+6.27007708e-03f,+9.96126309e-02f,
+4.58803102e-02f,+5.81351668e-02f,-1.87291250e-01f,-1.59186944e-02f,-1.81607343e-02f,
+7.18123652e-03f,-1.03705913e-01f,+2.19788224e-01f,+9.00322869e-02f,+1.71694860e-01f,
+3.34477901e-01f,+2.93114454e-01f,-1.51253343e-01f,+2.62960911e-01f,+2.24278733e-01f,
-8.31074044e-02f,+1.75610706e-01f,-1.66461602e-01f,+2.94953108e-01f,+3.38424981e-01f,
-1.20144337e-01f,+1.52778789e-01f,+2.20793322e-01f,+4.07865375e-01f,-5.22723645e-02f,
+1.15607664e-01f,-8.93660262e-02f,-6.61014393e-02f,+1.28314555e-01f,+3.71339619e-02f,
-1.01620026e-01f,-1.32595763e-01f,+1.09650128e-01f,-1.63179800e-01f,-2.43031740e-01f,
+2.42689215e-02f,+3.33104953e-02f,+3.47766280e-02f,+1.28711760e-01f,+1.03351884e-01f,
-3.87265496e-02f,+1.76134616e-01f,-1.55159887e-02f,-1.01998476e-02f,+2.33829916e-01f,
-1.72109738e-01f,+1.13367684e-01f,+6.60299435e-02f,+1.64643735e-01f,+1.69342637e-01f,
+1.89327911e-01f,+1.09273762e-01f,-2.06661656e-01f,-1.98537722e-01f,-5.31083830e-02f,
-2.02297932e-03f,+2.40632892e-02f,-1.68849185e-01f,+1.35510825e-02f,-3.49583179e-01f,
+5.39746769e-02f,-1.34093106e-01f,-1.58631563e-01f,-1.78724766e-01f,+1.84558816e-02f,
+2.39464954e-01f,-2.13111743e-01f,+3.50865945e-02f,+1.25810176e-01f,-2.14243159e-01f,
+3.70673507e-01f,+6.57623410e-02f,-1.80387676e-01f,+7.06410483e-02f,+4.83382195e-02f,
-1.52535304e-01f,-2.62751549e-01f,-7.67563656e-02f,+2.24086374e-01f,-4.68452871e-02f,
+1.81515709e-01f,-6.09865896e-02f,+6.10231124e-02f,-1.81647107e-01f,+3.53030205e-01f,
+1.26588285e-01f,+2.71054208e-01f,+2.78233904e-02f,+7.63132647e-02f,-2.36603051e-01f,
-1.63799852e-01f,+6.74967617e-02f,-1.79949589e-02f,+8.70825797e-02f,-7.79477507e-02f,
-6.33153766e-02f,+2.83479959e-01f,+2.31289670e-01f,-2.39517838e-02f,-2.04786062e-01f,
-1.29749015e-01f,+3.00130039e-01f,+1.39584765e-01f,+2.90713072e-01f,+4.51886028e-01f,
+3.71861830e-02f,+6.74374253e-02f,-3.07504624e-01f,+4.82685156e-02f,-1.69141874e-01f,
+1.37903079e-01f,-1.10605136e-02f,+1.65088102e-01f,+1.84519216e-01f,+3.47561166e-02f,
+2.19057411e-01f,-5.38929738e-02f,+8.39458182e-02f,+6.22949302e-02f,-1.07071675e-01f,
+1.03348367e-01f,-3.79383229e-02f,+2.47268677e-02f,-3.34968343e-02f,+3.46518189e-01f,
-9.56375897e-02f,+2.50839442e-01f,-1.80956319e-01f,-2.04901472e-01f,+1.58411115e-01f,
+1.48101047e-01f,+1.42536089e-01f,-1.56873286e-01f,+2.58082062e-01f,-2.23134354e-01f,
-2.78370440e-01f,+1.04014993e-01f,-5.26186824e-02f,+1.01201162e-01f,-4.36441302e-01f,
+6.95081353e-02f,+3.79359663e-01f,+8.48339126e-02f,+1.95559353e-01f,+7.76525214e-02f,
-2.41182018e-02f,+2.61986166e-01f,-1.53302968e-01f,+6.93194047e-02f,+1.43508747e-01f,
-1.12367317e-01f,-1.67240426e-01f,-1.07186556e-01f,-5.38922250e-02f,-2.55452782e-01f,
-1.21198386e-01f,-7.31662884e-02f,+1.08904704e-01f,-2.71485686e-01f,+2.25277066e-01f,
-3.63248326e-02f,+1.86151955e-02f,-1.42706921e-02f,-1.39636070e-01f,+1.14658125e-01f,
-8.59368742e-02f,+1.56955749e-01f,+2.41597414e-01f,+1.13250867e-01f,+2.66613901e-01f,
+3.39742869e-01f,+3.17543060e-01f,-1.01922285e-02f,-5.88204153e-02f,+2.27292031e-01f,
-8.05102512e-02f,+4.28967364e-02f,+1.16239183e-01f,+3.66858721e-01f,+2.07334056e-01f,
+1.15965687e-01f,-1.99520409e-01f,-1.22707985e-01f,+1.61781609e-01f,-3.40382785e-01f,
+1.49465024e-01f,+4.83521298e-02f,+3.59608561e-01f,-7.97519609e-02f,-3.69805247e-02f,
-3.78681198e-02f,+1.44516170e-01f,+1.21533372e-01f,+4.36370194e-01f,-4.26640697e-02f,
-1.32771537e-01f,+1.29359454e-01f,+1.50932565e-01f,-1.87994942e-01f,+1.75247952e-01f,
-4.02016789e-02f,+1.13613032e-01f,+1.41764149e-01f,-8.73712227e-02f,+3.34470332e-01f,
-6.77135587e-02f,-4.36234444e-01f,+2.64242496e-02f,-8.64564329e-02f,-2.42187738e-01f,
-5.59788831e-02f,+1.48575129e-02f,+2.42324337e-01f,+2.65037596e-01f,+1.66474089e-01f,
-2.67001063e-01f,+2.17105001e-01f,+2.92863715e-02f,+1.48053795e-01f,-1.89404842e-02f,
+1.89075053e-01f,-2.14269742e-01f,-1.02839097e-01f,+7.65936077e-02f,-2.11145952e-01f,
+1.66219994e-01f,+9.00107343e-03f,-7.81621262e-02f,-1.88544735e-01f,+2.25599706e-01f,
-2.09333107e-01f,+1.71545997e-01f,+6.03914857e-02f,+1.54020265e-01f,-1.57392547e-01f,
-3.31402689e-01f,+4.25385721e-02f,+2.35541105e-01f,+2.51152545e-01f,+2.69212544e-01f,
+4.17356044e-02f,+5.57860301e-04f,-1.12768337e-01f,+2.43664876e-01f,+1.81517878e-03f,
+2.61717945e-01f,-1.65477600e-02f,-9.66454744e-02f,+1.00930907e-01f,-2.68248785e-02f,
+3.06914025e-03f,+2.77403861e-01f,+2.98737168e-01f,+1.66021273e-01f,-1.24772035e-01f,
+1.54223785e-01f,-6.68104365e-02f,-1.52411550e-01f,+7.35533237e-03f,+1.91514656e-01f,
-1.04147121e-01f,+4.96287569e-02f,-5.81581332e-02f,+2.66446948e-01f,-2.40931377e-01f,
-1.30275011e-01f,+1.02884494e-01f,-1.14042059e-01f,-3.30743827e-02f,+1.69753388e-01f,
-2.37362713e-01f,+5.70513271e-02f,-2.65586942e-01f,-4.47245687e-03f,+1.48150371e-02f,
-8.73429328e-03f,-5.16036712e-02f,-6.35354295e-02f,-2.14922875e-01f,+1.07981831e-01f,
-2.17322423e-03f,+2.05612957e-01f,-1.28882989e-01f,+2.69213080e-01f,-2.45184109e-01f,
+4.84367669e-01f,-3.96142490e-02f,+2.88777083e-01f,+4.83699068e-02f,-8.42415690e-02f,
-1.35449260e-01f,+1.19777344e-01f,+8.00503865e-02f,-6.21142099e-03f,-2.61728615e-01f,
-2.09218208e-02f,-2.29636222e-01f,-1.39028743e-01f,+1.18062869e-02f,-2.81243958e-03f,
+1.76926389e-01f,-3.53455096e-01f,+3.50796044e-01f,-1.08177818e-01f,-2.04975888e-01f,
+3.75688672e-01f,+1.19591512e-01f,-1.65275440e-01f,+1.16721846e-01f,+2.50317063e-02f,
-8.83016214e-02f,-2.99283713e-02f,+1.04662150e-01f,+1.43996328e-01f,-1.58636168e-01f,
+1.29864644e-03f,+2.32819065e-01f,+1.92307420e-02f,+3.95442918e-03f,+4.86103326e-01f,
-8.16534236e-02f,+2.15572774e-01f,+1.38359502e-01f,+2.12397695e-01f,-2.80890435e-01f,
+4.79604341e-02f,+1.69310540e-01f,-3.31653021e-02f,+5.66610582e-02f,+1.99507326e-01f,
-5.52345142e-02f,+1.80473924e-01f,-3.59132558e-01f,+7.39342207e-03f,-8.36254731e-02f,
-8.62735882e-02f,-1.03579350e-01f,-1.16252244e-01f,-1.09748416e-01f,-3.55448537e-02f,
+9.92532223e-02f,+2.16587745e-02f,-3.41133364e-02f,-1.70814600e-02f,-2.35132337e-01f,
+1.45308655e-02f,-2.34345645e-01f,-2.89577127e-01f,-3.41277927e-01f,-6.77244291e-02f,
-2.30321735e-01f,+2.06787631e-01f,+1.26549765e-01f,-1.34831935e-01f,+1.34382144e-01f,
+3.30507517e-01f,-8.58999193e-02f,-4.41308245e-02f,-1.09769545e-01f,+4.20079865e-02f,
-1.79621026e-01f,+5.11618666e-02f,+1.37040000e-02f,+4.90240008e-02f,-2.05794513e-01f,
+1.48101717e-01f,-3.45259815e-01f,+9.37687159e-02f,+7.68238157e-02f,-1.32045206e-02f,
+4.30144705e-02f,+3.13221365e-01f,+1.95340663e-01f,-3.38363826e-01f,-5.07198088e-02f,
-6.97928816e-02f,+6.19260594e-02f,-3.11512083e-01f,+1.95662111e-01f,+1.73957750e-01f,
-1.63969055e-01f,+2.04993635e-01f,+1.39256820e-01f,+5.30764699e-01f,-4.41906512e-01f,
+2.53355861e-01f,+6.71005026e-02f,-1.31739914e-01f,-9.36432406e-02f,+3.02328199e-01f,
+4.66751680e-02f,+1.90470949e-01f,-2.23853856e-01f,+7.97156096e-02f,-6.07895758e-03f,
+7.45348707e-02f,+1.01093359e-01f,+3.79909843e-01f,-4.06197131e-01f,+2.25033350e-02f,
-1.18212044e-01f,+2.85956442e-01f,-2.47300327e-01f,-3.50414915e-03f,-5.63857965e-02f,
-1.16869844e-02f,-1.20825857e-01f,-1.57255143e-01f,+9.87260565e-02f,-2.61574566e-01f,
-1.53301716e-01f,-1.17128361e-02f,+3.12584370e-01f,+9.79976915e-03f,+2.54620939e-01f,
+1.80094033e-01f,+2.25551262e-01f,-2.67860353e-01f,-1.33618280e-01f,-2.05386188e-02f,
+8.73176847e-04f,+4.92585227e-02f,-2.82820314e-01f,-2.45105010e-03f,+3.69894296e-01f,
-5.61174899e-02f,+3.12541127e-01f,-1.18601598e-01f,-1.67540655e-01f,-1.86577439e-03f,
+1.93693608e-01f,+7.42111802e-01f,+2.26840153e-01f,+3.97543348e-02f,-8.74294415e-02f,
+5.47887862e-01f,-1.16836451e-01f,-1.74507856e-01f,+3.10992807e-01f,+2.07280472e-01f,
+2.84877438e-02f,+5.28752506e-01f,+3.53855819e-01f,+7.27252439e-02f,+1.58075660e-01f,
+1.28008455e-01f,-8.20405707e-02f,+2.37849914e-02f,-2.59255141e-01f,+6.32170737e-02f,
-8.77239034e-02f,+3.75190467e-01f,-3.38407396e-03f,-5.41639850e-02f,-1.15788184e-01f,
+2.09840760e-01f,-8.53317697e-03f,+3.86112072e-02f,+4.60337810e-02f,+7.11071566e-02f,
-4.04354148e-02f,+4.99203522e-03f,+6.92174435e-02f,+1.02376275e-01f,-1.14530511e-01f,
-4.41155046e-01f,-2.16825843e-01f,+1.35528788e-01f,-1.10608138e-01f,+1.86266616e-01f,
-6.71535954e-02f,-2.78101951e-01f,-8.99419840e-03f,-4.85208221e-02f,+4.19272482e-02f,
-3.83237824e-02f,-2.40612403e-01f,+3.52600932e-01f,+1.64390996e-01f,-1.21823080e-01f,
-9.28521231e-02f,+2.24533826e-01f,-6.96960762e-02f,-1.34877801e-01f,-2.69638568e-01f,
-2.83347070e-01f,+6.33201450e-02f,+2.33861908e-01f,-9.97416601e-02f,+3.76509786e-01f,
-1.35926694e-01f,+1.55872241e-01f,-4.58427742e-02f,-2.47628048e-01f,+1.44064054e-01f,
+9.27970335e-02f,+3.38708580e-01f,+4.61204201e-02f,+2.00157136e-01f,+1.14481032e-01f,
-1.05070524e-01f,+1.68385223e-01f,-1.21221244e-01f,+7.22889826e-02f,-5.45971915e-02f,
-1.29390448e-01f,-1.94002926e-01f,-1.98738262e-01f,-1.39518321e-01f,-3.60912174e-01f,
-1.01393797e-01f,+9.93263125e-02f,+1.22264273e-01f,-2.41070185e-02f,+5.87082915e-02f,
+1.10711224e-01f,+1.30982604e-02f,-1.21335775e-01f,-1.58289850e-01f,+8.00059065e-02f,
-4.01883796e-02f,-1.78833529e-01f,+8.34412407e-03f,-2.25111023e-01f,-8.42204783e-03f,
+1.66309565e-01f,-2.78305095e-02f,-2.40826398e-01f,-1.20534934e-01f,-2.19262302e-01f,
-1.31043708e-02f,+1.23213820e-01f,-3.76927061e-03f,-9.68312286e-03f,-2.21507266e-01f,
-1.01286441e-01f,+1.20773628e-01f,-1.14733912e-01f,+5.09564653e-02f,+1.68564335e-01f,
-3.45764458e-01f,-2.72793651e-01f,-1.47787094e-01f,-3.05553246e-03f,-4.08414640e-02f,
+5.42035475e-02f,+1.49813265e-01f,+3.14538740e-02f,+7.65809044e-02f,-2.32544690e-01f,
+3.36120963e-01f,+2.84684561e-02f,+1.89456791e-01f,-7.25757331e-03f,+2.16268674e-01f,
-2.41938919e-01f,-1.00033976e-01f,+1.21644318e-01f,-8.82171541e-02f,-7.41490051e-02f,
+2.24386588e-01f,+5.84071390e-02f,+1.68112561e-01f,+1.66312262e-01f,+2.80541897e-01f,
-1.67984769e-01f,+1.49949953e-01f,-7.84196425e-03f,-8.29340443e-02f,+1.59207717e-01f,
-6.61838651e-02f,+2.35780627e-02f,-2.03349084e-01f,-6.34902418e-02f,-1.16131395e-01f,
-1.76532626e-01f,-1.70036674e-01f,-6.17983518e-03f,+3.10459644e-01f,-3.02745819e-01f,
+9.77040157e-02f,-1.45367533e-02f,+4.04670030e-01f,+3.16455543e-01f,-9.39763337e-03f,
-1.16393737e-01f,+7.11811185e-02f,-5.56420535e-02f,+8.56323540e-02f,+1.36308700e-01f,
+6.11126497e-02f,+3.89255136e-01f,+2.67188638e-01f,-6.48413971e-02f,+3.10798865e-02f,
-1.99237406e-01f,+1.18988581e-01f,+1.64288342e-01f,+3.10301520e-02f,+2.36831885e-02f,
-2.66994666e-02f,+1.33332208e-01f,-2.58990794e-01f,-2.96494514e-01f,-2.10498005e-01f,
-3.61800730e-01f,-1.13725901e-01f,-1.65078446e-01f,+2.91504841e-02f,-1.29901215e-01f,
+2.93618999e-02f,+1.15882263e-01f,-2.48624504e-01f,+6.51592091e-02f,+9.01220962e-02f,
+1.83699101e-01f,-2.21265346e-01f,+9.77907553e-02f,+7.00320210e-03f,-1.77254826e-01f,
+2.23590946e-03f,+2.28001863e-01f,+1.66675746e-01f,-6.36086613e-02f,+1.94291860e-01f,
+2.92383730e-01f,+1.51163246e-02f,-7.02257305e-02f,+2.92736083e-01f,-1.42766863e-01f,
+1.21096812e-01f,+1.98758945e-01f,-2.14001969e-01f,-1.88876003e-01f,+7.32985511e-03f,
-2.45634317e-01f,-3.74625385e-01f,-5.91696706e-03f,-1.14906318e-02f,-4.84724976e-02f,
-1.53951660e-01f,+2.07908884e-01f,-5.78413904e-02f,+2.69710366e-02f,-9.84111652e-02f,
-3.31671447e-01f,-2.60788172e-01f,+9.78598073e-02f,+7.12065399e-02f,+2.11805016e-01f,
-6.48718402e-02f,+8.34419727e-02f,+1.47236332e-01f,-5.31365238e-02f,-2.38481149e-01f,
+2.18354519e-02f,+7.25269988e-02f,-1.11817814e-01f,+2.45499667e-02f,+6.13429844e-02f,
+2.23512337e-01f,+3.94829154e-01f,+1.94583103e-01f,+8.73673111e-02f,+1.97728068e-01f,
+2.64715463e-01f,+2.12412655e-01f,-4.72325645e-02f,-1.21915027e-01f,-2.86832731e-02f,
-2.42639259e-01f,+1.86146386e-02f,+6.98077306e-02f,+1.04402956e-02f,-3.60118076e-02f,
-2.91430894e-02f,+2.26156950e-01f,+2.42614657e-01f,+1.75303407e-03f,-1.08585410e-01f,
-1.20040409e-01f,+2.24663410e-02f,+8.15928280e-02f,-1.75772309e-01f,-4.18606959e-02f,
-1.20355777e-01f,+9.60783064e-02f,+1.36197686e-01f,+1.39558554e-01f,+6.14895560e-02f,
+1.75113715e-02f,+1.59007981e-01f,-1.06365792e-01f,+6.54205605e-02f,-1.39147654e-01f,
-3.11657973e-02f,+5.97321019e-02f,+4.70411003e-01f,-1.89433191e-02f,-1.23695791e-01f,
+7.97934923e-03f,-4.82628457e-02f,-2.52827555e-01f,+2.10903019e-01f,-3.15447867e-01f,
+1.35666028e-01f,-2.69645266e-02f,-5.99597022e-02f,-2.32190162e-01f,+5.83438650e-02f,
+3.30071300e-01f,-6.36363253e-02f,-1.46742240e-01f,+1.89437624e-02f,-6.46938682e-02f,
-2.41687134e-01f,+1.96956456e-01f,+1.45056561e-01f,-5.61276227e-02f,-1.66535646e-01f,
+1.06588461e-01f,-6.75540641e-02f,+1.49894699e-01f,-1.39203623e-01f,-4.59212363e-02f,
+1.33428007e-01f,+1.72141284e-01f,-6.37790188e-02f,-4.67463136e-01f,-1.73374921e-01f,
-1.38750672e-01f,-4.91825752e-02f,-2.03444704e-01f,+5.74119091e-01f,+2.89920330e-01f,
+5.90393990e-02f,-1.51310399e-01f,-6.11952208e-02f,-9.33355987e-02f,+2.32485607e-02f,
-1.65706024e-01f,-1.07017040e-01f,-8.67899582e-02f,+1.71391144e-01f,-1.22013092e-01f,
+1.88993067e-01f,+2.53025144e-02f,+2.47082800e-01f,-5.11135876e-01f,+2.68242598e-01f,
+5.09597994e-02f,-2.27556854e-01f,+2.75291890e-01f,+9.55316573e-02f,+2.50472575e-02f,
+1.15113147e-02f,-2.48682886e-01f,+1.89885229e-01f,-6.97007924e-02f,+1.02250718e-01f,
+1.81349307e-01f,+1.71810821e-01f,+1.28796443e-01f,+3.90339904e-02f,+6.11301363e-02f,
-3.74402791e-01f,-3.42682689e-01f,-9.04468372e-02f,+1.28270527e-02f,-2.76078343e-01f,
+1.94384545e-01f,+1.93006787e-02f,-3.14651340e-01f,+1.80963352e-01f,+1.03841152e-03f,
-3.58600803e-02f,+2.81134874e-01f,-3.12068731e-01f,-1.21808387e-01f,+1.26250908e-01f,
+1.25690147e-01f,+1.21672273e-01f,-1.78249553e-01f,+1.50972769e-01f,-1.84029490e-02f,
-3.30365007e-03f,+4.42881417e-03f,+2.10524648e-01f,+5.54505102e-02f,+1.67075545e-01f,
+6.77940696e-02f,-1.38470128e-01f,+1.75069392e-01f,+8.48867819e-02f,+2.61662602e-01f,
-1.46022141e-01f,+3.91237646e-01f,+3.21966201e-01f,-2.20770210e-01f,-1.19675696e-01f,
+3.50858569e-01f,-8.65236223e-02f,+9.42864865e-02f,+4.29067194e-01f,+3.59853581e-02f,
+1.18517466e-01f,-1.47760957e-01f,+1.91231534e-01f,+3.57096307e-02f,-1.34110242e-01f,
+2.26542592e-01f,+1.84772924e-01f,+2.46620923e-01f,-1.19715832e-01f,+9.23855416e-03f,
+2.47735143e-01f,+5.74417189e-02f,+1.25300243e-01f,+1.68887712e-02f,-1.29056916e-01f,
-4.22692262e-02f,+2.69479752e-01f,-1.31593063e-01f,+1.49676085e-01f,+8.29963759e-02f,
+9.98826325e-02f,+7.42161348e-02f,+6.59776106e-02f,+1.42718077e-01f,+1.47773758e-01f,
+1.40815759e-02f,+1.54672742e-01f,-4.07644287e-02f,+6.68760017e-02f,-1.15932971e-01f,
+2.71372870e-02f,+1.42296076e-01f,+7.72475228e-02f,-1.30573113e-03f,+5.15782041e-03f,
+6.29951879e-02f,-3.40038612e-02f,+7.60015473e-02f,+2.70162430e-02f,-1.41026318e-01f,
+3.06673855e-01f,+2.18768716e-01f,+3.40024322e-01f,+1.68554366e-01f,+6.97379336e-02f,
+3.33152533e-01f,+2.87159652e-01f,+7.64452443e-02f,+1.80573910e-01f,-2.40848616e-01f,
-8.01323727e-02f,+4.66079712e-01f,+1.94543093e-01f,+1.21787144e-02f,-6.62385160e-03f,
-6.04321286e-02f,+1.08330309e-01f,-1.24996237e-01f,+1.25870094e-01f,+3.15004766e-01f,
-1.19481012e-01f,+1.66965798e-02f,+3.76899615e-02f,-2.64963880e-02f,+1.68335781e-01f,
-1.46630675e-01f,-2.49072745e-01f,+8.19864422e-02f,+3.07066832e-02f,-6.38807788e-02f,
+1.10344142e-01f,-2.91421562e-01f,-8.50595161e-02f,+1.26282826e-01f,-6.59065740e-03f,
-3.72704938e-02f,+2.97641665e-01f,-1.66394666e-01f,+2.30604604e-01f,-2.27937147e-01f,
+3.48635167e-01f,-9.48082134e-02f,+4.96386476e-02f,+5.94699830e-02f,-6.51723146e-02f,
+9.40938666e-02f,-1.33149818e-01f,+1.13142587e-01f,-5.81356362e-02f,+3.85300308e-01f,
+2.05787167e-01f,+6.60666376e-02f,+2.43095934e-01f,+1.90944493e-01f,+3.30857694e-01f,
-3.41332927e-02f,-2.65372433e-02f,-4.96110320e-01f,+1.04227932e-02f,-2.82270730e-01f,
-1.28714144e-02f,-5.54664545e-02f,+3.90370190e-02f,-3.31192642e-01f,+1.38797820e-01f,
+2.01882780e-01f,+4.79862019e-02f,-3.86119336e-02f,-1.87053815e-01f,+2.81743854e-01f,
+2.85844445e-01f,-1.64413378e-01f,-2.13580206e-02f,+7.41947666e-02f,+1.30192831e-01f,
+1.04911802e-02f,-3.46667022e-01f,+1.30551890e-01f,-1.87427714e-01f,+2.39047974e-01f,
-5.07056825e-02f,-8.01752433e-02f,-3.37302536e-02f,+7.08169118e-02f,+1.74432829e-01f,
+4.95152958e-02f,+1.50135264e-01f,+4.25062835e-01f,+1.95032611e-01f,+3.45438898e-01f,
-2.83731937e-01f,+1.73035219e-01f,-7.59531111e-02f,+2.14448705e-01f,+4.80868518e-02f,
-1.89975545e-01f,+1.41685054e-01f,-1.49070486e-01f,-1.28438219e-01f,-1.36611015e-01f,
+4.29140925e-02f,+2.26119929e-03f,+4.58055660e-02f,-3.54766279e-01f,-1.71670676e-04f,
+1.97026804e-02f,-2.13563927e-02f,+2.44364485e-01f,-3.30544055e-01f,-4.00428362e-02f,
-5.19466065e-02f,-2.20334351e-01f,+1.20284848e-01f,+1.34041935e-01f,+3.52614969e-01f,
-3.52369905e-01f,-9.29203555e-02f,+1.01389075e-02f,-9.55454633e-02f,-1.65719837e-01f,
+5.12628369e-02f,+3.20932195e-02f,+2.55549073e-01f,+2.73068339e-01f,+7.29168653e-02f,
+1.23899892e-01f,+1.29508793e-01f,-8.62409696e-02f,+2.39617422e-01f,+2.22240537e-02f,
+3.65851015e-01f,+5.73845319e-02f,+1.88154325e-01f,+1.19718969e-01f,-6.19480684e-02f,
+5.60529297e-04f,+1.71326190e-01f,-1.02289189e-02f,-1.28868937e-01f,-1.54654071e-01f,
-1.31283268e-01f,+2.43469402e-01f,+1.20956026e-01f,+2.68010825e-01f,-1.84309125e-01f,
+2.65673161e-01f,-1.30710769e-02f,+1.40065774e-01f,+5.51424995e-02f,+1.94832563e-01f,
+1.06298625e-01f,-8.18288997e-02f,-4.63916622e-02f,+2.82328017e-02f,+1.06316477e-01f,
+1.90963864e-01f,-1.01483911e-01f,+2.81005561e-01f,+1.43423319e-01f,-2.57610455e-02f,
+2.46287152e-01f,+2.49933735e-01f,-1.76984519e-02f,+2.69320518e-01f,+2.27788955e-01f,
-3.26549739e-01f,+2.50412107e-01f,+3.09313536e-01f,-7.70346522e-02f,+1.85688838e-01f,
-1.52533367e-01f,+1.01108290e-01f,+2.26454601e-01f,+1.16537966e-01f,+3.36089619e-02f,
+3.35091949e-02f,-2.19593093e-01f,+2.47607172e-01f,-2.13978410e-01f,+1.51781440e-01f,
+1.11386716e-01f,+2.40377206e-02f,+7.96168402e-04f,+1.09265842e-01f,-2.14071229e-01f,
-2.57779509e-01f,+2.52759717e-02f,+2.96288460e-01f,-4.91922684e-02f,-5.52775189e-02f,
+3.24846320e-02f,+1.57398775e-01f,-1.67958498e-01f,-2.08667126e-02f,-5.02259612e-01f,
+1.07098773e-01f,-3.54195744e-01f,-2.31928788e-02f,-2.88011461e-01f,+2.36145586e-01f,
-4.89904620e-02f,+8.86960626e-02f,+2.56549884e-02f,-4.14925404e-02f,-1.45182505e-01f,
-1.04015350e-01f,+4.05986123e-02f,+6.30351454e-02f,+6.11318238e-02f,-9.85926539e-02f,
+2.71187723e-01f,+4.50085282e-01f,-3.34080994e-01f,-3.35902683e-02f,+1.58837572e-01f,
+3.50642234e-01f,-1.40280388e-02f,-4.22541127e-02f,-1.94018483e-01f,+3.35632339e-02f,
+8.36290643e-02f,+6.83741570e-02f,+7.60486424e-02f,+6.23775013e-02f,+2.24184215e-01f,
-2.24912986e-01f,-3.97591367e-02f,+3.79015595e-01f,-1.02808334e-01f,-1.20660134e-01f,
+1.25232503e-01f,-1.20883457e-01f,+2.90263649e-02f,-3.98527682e-02f,-1.86468497e-01f,
+1.30466819e-02f,-7.45636523e-02f,+4.51893002e-01f,-9.56957936e-02f,-6.93649501e-02f,
+9.01361108e-02f,+4.88775298e-02f,+2.33637556e-01f,-7.20895752e-02f,+2.21114010e-02f,
+1.06028922e-01f,-2.08297577e-02f,+2.93950349e-01f,+2.68418729e-01f,+1.88624322e-01f,
+1.69923797e-01f,+1.65959876e-02f,-3.74962650e-02f,-1.08918965e-01f,+4.79699261e-02f,
+9.11080539e-02f,+1.68613091e-01f,-7.48890191e-02f,-4.05839160e-02f,-5.32133169e-02f,
-3.15914899e-02f,-2.05458924e-01f,-7.10990056e-02f,-5.18624745e-02f,-2.03791335e-02f,
+1.88591555e-01f,-2.15919375e-01f,-8.24567750e-02f,+1.78511646e-02f,+5.39113544e-02f,
-1.43077075e-02f,-2.63707221e-01f,+9.08332095e-02f,-8.37200209e-02f,+3.87033373e-02f,
+1.22005278e-02f,-2.01828286e-01f,+1.26684353e-01f,-3.35551985e-02f,+1.14259310e-01f,
-9.11879838e-02f,-2.04309151e-01f,+4.85082306e-02f,-4.05575223e-02f,-1.74286157e-01f,
+3.96804325e-03f,+1.31649002e-01f,+1.43222600e-01f,-1.99209705e-01f,-8.06659535e-02f,
+1.13756686e-01f,+3.69985811e-02f,+1.29275501e-01f,+2.13215873e-01f,-1.38096333e-01f,
-1.65875420e-01f,+2.21934110e-01f,-1.21772677e-01f,+1.97309002e-01f,+1.16807587e-01f,
+2.27281079e-01f,-1.79078400e-01f,-1.84883177e-01f,+1.82128280e-01f,+1.24491602e-01f,
+6.19733855e-02f,+8.98373593e-03f,-1.56423926e-01f,-1.23020612e-01f,+1.62556902e-01f,
+1.34016380e-01f,+1.21510299e-02f,+1.71107370e-02f,+1.14841796e-01f,-1.21424720e-02f,
+6.73270673e-02f,+4.23878878e-02f,-1.96776286e-01f,+3.21409076e-01f,-7.53201991e-02f,
+2.31814161e-02f,-1.31205581e-02f,-1.14204280e-01f,+1.46357948e-02f,-1.49744963e-02f,
-7.00216368e-02f,+1.20801263e-01f,+6.03003278e-02f,+2.44141966e-01f,-1.05717689e-01f,
+1.47725523e-01f,+3.47419888e-01f,+4.36236747e-02f,-1.09982572e-01f,-7.78603777e-02f,
+1.04797333e-02f,+1.03918053e-01f,+2.74599135e-01f,-1.42765045e-01f,-2.43351921e-01f,
+4.68869716e-01f,-3.74978893e-02f,-1.74368382e-01f,+1.88392028e-02f,-1.31963402e-01f,
-5.23294657e-02f,+2.54477914e-02f,-7.37032993e-03f,-4.49796110e-01f,+1.46386787e-01f,
-9.43149179e-02f,-8.70046169e-02f,-1.94347113e-01f,+2.14755565e-01f,-1.76132962e-01f,
+1.54326975e-01f,-6.51869476e-02f,+8.28365237e-02f,+1.76914036e-02f,+2.37391472e-01f,
+9.73701179e-02f,+1.19975686e-01f,-2.82535732e-01f,+3.72916847e-01f,+1.11075692e-01f,
+6.64138061e-04f,-1.40575677e-01f,+2.10079867e-02f,+5.72614782e-02f,-1.33195847e-01f,
-6.11443371e-02f,-1.13734812e-01f,+2.34941542e-01f,+3.10043935e-02f,-3.55613321e-01f,
-2.58092046e-01f,-2.06964612e-01f,-1.58632725e-01f,+6.13244101e-02f,+1.82157412e-01f,
+1.27256513e-01f,+1.38770953e-01f,+1.72012135e-01f,+1.06617488e-01f,-4.71248627e-02f,
+2.50506550e-02f,+2.27328762e-01f,-4.06624787e-02f,-1.46484986e-01f,-1.08659022e-01f,
-3.77239108e-01f,+1.05627492e-01f,+2.89482772e-01f,+1.64626211e-01f,+7.67890066e-02f,
-9.35777798e-02f,-1.22201443e-01f,-4.34690118e-02f,-2.16005668e-02f,-1.57010958e-01f,
+1.47872806e-01f,-1.20308436e-01f,+2.09961131e-01f,+2.34056920e-01f,+9.53176022e-02f,
-1.35232657e-01f,+9.80297253e-02f,+6.49148151e-02f,-5.13794906e-02f,+8.57246201e-03f,
-1.41821027e-01f,+3.71263891e-01f,-1.67758793e-01f,-1.18921943e-01f,+2.07203194e-01f,
-1.29715040e-01f,+1.89881946e-03f,+2.75511872e-02f,-1.89182743e-01f,+6.77226111e-02f,
-1.31765559e-01f,-1.77293807e-01f,-1.29176363e-01f,-8.04907978e-02f,+2.35806078e-01f,
-1.35332912e-01f,-3.19888800e-01f,+3.60715896e-01f,-1.95575505e-01f,+5.09424390e-05f,
+1.24906369e-01f,-2.02016041e-01f,-1.22090571e-01f,-4.92797233e-02f,+1.68857336e-01f,
-2.98084706e-01f,+8.88786912e-02f,-1.85685739e-01f,-3.83552946e-02f,+3.13277930e-01f,
+1.16181083e-01f,+2.69698143e-01f,+1.59777999e-01f,+1.12466916e-01f,-2.01121550e-02f,
+1.84799418e-01f,+3.01306266e-02f,+2.48889893e-01f,+2.42993623e-01f,+5.94172888e-02f,
-1.90517791e-02f,+8.35578367e-02f,+2.65212178e-01f,-1.71705648e-01f,-3.68207365e-01f,
+4.68381941e-02f,+1.79788575e-01f,+2.50424445e-01f,-1.56396389e-01f,+1.34753302e-01f,
+7.39972591e-02f,+3.04850042e-01f,-9.77051705e-02f,+4.23188433e-02f,+2.39649564e-01f,
-2.87622154e-01f,+2.62214672e-02f,+2.13284880e-01f,+2.54140031e-02f,-9.36333276e-03f,
-1.06609846e-02f,-5.33882529e-02f,-6.47779834e-03f,-4.58654985e-02f,+2.35350087e-01f,
-1.43561155e-01f,+6.71130344e-02f,-1.82111040e-01f,+2.88194083e-02f,-1.30868673e-01f,
+2.19583750e-01f,-1.58934090e-02f,-2.38145903e-01f,-2.90537775e-02f,-6.00482039e-02f,
-3.71590555e-01f,+3.90491672e-02f,-1.19220547e-01f,+8.81001502e-02f,-1.57236829e-02f,
-1.40381753e-01f,-2.04008520e-01f,-8.55570938e-03f,-2.17049837e-01f,+2.84734875e-01f,
-1.19351074e-01f,+1.38248309e-01f,+6.60097152e-02f,-9.94551182e-03f,-1.05302252e-01f,
-1.48486763e-01f,+7.94541463e-02f,-5.79641350e-02f,-2.72445064e-02f,+9.03947800e-02f,
-6.85485527e-02f,+3.91174197e-01f,-1.16345912e-01f,-2.23687917e-01f,-1.88197166e-01f,
+2.56556690e-01f,+2.34697685e-01f,-1.76441327e-01f,-7.50654936e-02f,+8.73539448e-02f,
-2.15234086e-01f,-1.48734242e-01f,+6.38811365e-02f,+3.46157283e-01f,+3.36675681e-02f,
-9.97507721e-02f,+2.78699934e-01f,+7.93969706e-02f,+1.52275950e-01f,-1.43053057e-02f,
+8.60469043e-02f,+3.46000716e-02f,+7.04085901e-02f,-5.21527305e-02f,-1.35355294e-01f,
+1.10957235e-01f,-8.31905846e-03f,-1.61975488e-01f,-1.62004724e-01f,+2.32060719e-02f,
-1.03140518e-01f,+1.50367737e-01f,+1.15189031e-01f,+2.84752011e-01f,-2.70892471e-01f,
+5.45645244e-02f,-2.49862187e-02f,+1.62769496e-01f,+8.74808282e-02f,+2.26797536e-02f,
+1.92276955e-01f,+1.74747482e-01f,+6.96673915e-02f,-5.69997691e-02f,-2.29233667e-01f,
-1.09280027e-01f,-2.69600023e-02f,-8.10165629e-02f,-1.68434486e-01f,-1.00328997e-01f,
+1.10701665e-01f,-3.38259898e-02f,+1.70794591e-01f,+1.44355625e-01f,+2.68884659e-01f,
-1.27112553e-01f,-4.38062459e-01f,+1.47880003e-01f,-1.29162207e-01f,+1.64671600e-01f,
-1.62338316e-01f,+5.08614331e-02f,-2.16169599e-02f,+3.44410092e-01f,+4.90090400e-02f,
+1.85657024e-01f,-1.32008031e-01f,-3.94451618e-02f,+2.57359240e-02f,+1.17447570e-01f,
-1.42983109e-01f,+3.52455705e-01f,+6.85581267e-02f,+1.92999363e-01f,-3.57484035e-02f,
-5.09973317e-02f,+1.94185451e-01f,+3.19038741e-02f,+1.94716066e-01f,-1.58199519e-01f,
+2.07342252e-01f,+1.17937572e-01f,-7.73964003e-02f,+1.04063198e-01f,-2.62270033e-01f,
+9.34569836e-02f,-7.39275292e-02f,-4.82983328e-02f,-3.68778765e-01f,+3.78212966e-02f,
-5.16819432e-02f,+3.25473785e-01f,+1.86818838e-01f,+9.75964069e-02f,+1.02652989e-01f,
+5.59015535e-02f,+6.55146018e-02f,+3.96542326e-02f,+1.66803584e-01f,-2.11110428e-01f,
+6.50502518e-02f,+1.98755771e-01f,+2.33520731e-01f,-1.62595227e-01f,+2.91683406e-01f,
+1.98070034e-01f,+7.41372854e-02f,-2.12479040e-01f,+6.71982169e-02f,-1.12071201e-01f,
+2.36479118e-02f,+3.47781479e-01f,+2.84340465e-04f,+8.40051919e-02f,+7.37723783e-02f,
-1.48296401e-01f,-7.31554404e-02f,+3.14521901e-02f,+4.57505971e-01f,+4.16872531e-01f,
-2.23678164e-02f,+1.06387369e-01f,+7.78747350e-02f,-2.93226112e-02f,-4.40053552e-01f,
-2.99301241e-02f,+1.64742947e-01f,-1.26135528e-01f,-5.90200499e-02f,-1.00501478e-01f,
-1.27055243e-01f,-2.07354892e-02f,+1.05631784e-01f,+3.95759672e-01f,+3.18338946e-02f,
+1.81132779e-01f,-1.55898899e-01f,-2.26354659e-01f,+4.75834683e-03f,+3.68248820e-02f,
-2.09853381e-01f,+1.99190512e-01f,-1.43360183e-01f,+1.31843105e-01f,+1.35089964e-01f,
+3.77667206e-03f,+2.30366722e-01f,+6.73379451e-02f,+3.34920436e-01f,+1.34985790e-01f,
+5.74776046e-02f,+5.92663288e-02f,-2.32777059e-01f,-7.49662295e-02f,+3.58268231e-01f,
+9.13622156e-02f,+4.82400274e-03f,-8.64823232e-04f,-3.75457220e-02f,+1.55186564e-01f,
+7.35454261e-02f,-3.36784194e-03f,+7.94241801e-02f,-1.22754119e-01f,-1.09873652e-01f,
+2.64536552e-02f,+1.98296472e-01f,+2.87117571e-01f,-3.19167048e-01f,-1.09150708e-02f,
+9.69688520e-02f,+2.67749488e-01f,-1.78998426e-01f,+1.08488910e-01f,-8.97786990e-02f,
-2.70403177e-02f,-1.62797466e-01f,+1.52448282e-01f,-1.22589953e-01f,+5.29345870e-02f,
-2.91953399e-03f,+2.19411671e-01f,+2.47974813e-01f,-6.71642870e-02f,-1.30016878e-01f,
-1.28953174e-01f,-1.78100362e-01f,-8.61953348e-02f,+9.59717408e-02f,+6.88498914e-02f,
+4.09194946e-01f,+1.18899658e-01f,+1.48484468e-01f,-5.78342704e-03f,-1.28286704e-01f,
-5.34260422e-02f,-6.96683004e-02f,+9.62723494e-02f,-2.09762547e-02f,+1.93603188e-01f,
-9.13352594e-02f,+1.82694033e-01f,+3.28030854e-01f,+7.46976659e-02f,+3.62488478e-02f,
+1.19816154e-01f,+2.58396178e-01f,-8.35287124e-02f,+3.47120725e-02f,+4.97153848e-02f,
-1.37348861e-01f,+1.12928458e-01f,-9.13839638e-02f,-1.54224351e-01f,-9.17924717e-02f,
+3.00885122e-02f,-7.13758096e-02f,-2.32705250e-02f,-6.86807707e-02f,-4.35410589e-02f,
-2.12902233e-01f,+2.53312379e-01f,+8.11732784e-02f,+7.35680237e-02f,+1.17535099e-01f,
-1.07760325e-01f,-8.88131782e-02f,-2.83639997e-01f,+9.81795639e-02f,+3.37724775e-01f,
+2.33646601e-01f,+2.68910736e-01f,-3.40673588e-02f,-8.10520276e-02f,-3.12049448e-01f,
-2.07198292e-01f,-1.83931693e-01f,+1.29398346e-01f,+1.26892142e-02f,-1.53961862e-02f,
+1.17882386e-01f,-4.95363493e-03f,-7.74731115e-02f,+4.69192304e-02f,+7.58478716e-02f,
+1.66813776e-01f,-9.73922201e-03f,+9.81275365e-02f,+1.10645154e-02f,-2.08221003e-01f,
+2.06266865e-01f,-2.34195963e-01f,-2.46773720e-01f,+1.97530016e-01f,+2.09417209e-01f,
-4.37211804e-02f,+1.09204814e-01f,-5.89777455e-02f,-2.64397194e-03f,+2.42752686e-01f,
+1.71873599e-01f,-1.40051842e-01f,+1.09839410e-01f,+2.05125421e-01f,+1.55580863e-01f,
+2.94632204e-02f,-9.08841118e-02f,+1.05249666e-01f,+3.78053859e-02f,+1.63107321e-01f,
-5.72363548e-02f,+3.08113873e-01f,-3.45895201e-01f,-1.06481567e-01f,-8.92656744e-02f,
+6.83052540e-02f,+2.25930680e-02f,-2.71914870e-01f,+4.90477234e-02f,+1.60491630e-01f,
+1.50036737e-01f,+1.33569002e-01f,+1.79450601e-01f,-8.34443644e-02f,+1.18894100e-01f,
+5.80026172e-02f,-1.95172012e-01f,-2.19158798e-01f,-1.58744395e-01f,-1.85633570e-01f,
-6.68266416e-02f,+1.56054333e-01f,+1.38168067e-01f,-3.62612568e-02f,-3.82300466e-02f,
+1.62860565e-03f,-3.14876735e-01f,+3.43224198e-01f,-8.81557539e-02f,-1.75020322e-01f,
-2.45500743e-01f,-1.20594911e-01f,-1.34251282e-01f,+2.30745330e-01f,+1.07666524e-02f,
-1.18739061e-01f,-1.07193246e-01f,-3.83033864e-02f,+2.64374018e-01f,+1.10711858e-01f,
-6.82116970e-02f,-8.54791924e-02f,+1.12170847e-02f,+1.63864329e-01f,+3.44603993e-02f,
+1.80444688e-01f,-6.47820756e-02f,+2.37716466e-01f,+1.55453339e-01f,+6.90702647e-02f,
+7.56409392e-02f,+4.42768224e-02f,-1.18328549e-01f,+4.95451912e-02f,+2.89293587e-01f,
-1.88981324e-01f,+1.96387887e-01f,-1.28950521e-01f,+2.11932227e-01f,-8.90578628e-02f,
-4.52324003e-02f,+1.71082377e-01f,-7.68952146e-02f,+3.91349420e-02f,-1.40643507e-01f,
-1.22422069e-01f,-2.13890150e-01f,+4.24365662e-02f,+3.52296457e-02f,+1.31804839e-01f,
+1.62768468e-01f,+2.96115652e-02f,+8.98851231e-02f,+8.94855857e-02f,-3.68479919e-03f,
+1.72980025e-01f,+6.51987456e-03f,+1.45514324e-01f,+1.32627953e-02f,+2.86442041e-01f,
-9.73455310e-02f,+5.39248995e-02f,+2.20090270e-01f,-4.73473370e-01f,+1.73994750e-01f,
-2.08384581e-02f,+1.88744888e-01f,-2.80264765e-01f,-2.30889693e-01f,+5.56861237e-02f,
-1.42378449e-01f,+3.99563432e-01f,-9.04555321e-02f,+1.61039516e-01f,+7.97099620e-03f,
+3.08321178e-01f,+1.63975164e-01f,-7.41695845e-03f,+2.29885355e-01f,-1.65807500e-01f,
+8.66560861e-02f,-1.52891219e-01f,-1.20160855e-01f,-3.01250536e-02f,+3.35217081e-02f,
+1.39374316e-01f,+2.85645783e-01f,-1.43127084e-01f,+1.43621013e-01f,-5.74136749e-02f,
-3.55808586e-01f,-8.08142200e-02f,+1.19290419e-01f,+5.80635704e-02f,+1.17341513e-02f,
+7.38036111e-02f,+1.39760748e-01f,-7.91973099e-02f,+2.15956092e-01f,-5.65419300e-03f,
+1.85076773e-01f,-3.56026441e-02f,-1.01059839e-01f,+5.63769862e-02f,-2.63584778e-02f,
-1.45415634e-01f,-2.38980586e-03f,-2.69373767e-02f,-1.44122113e-02f,-1.57215923e-01f,
-2.02355489e-01f,-1.39972523e-01f,-7.32828453e-02f,-1.07356250e-01f,-8.52149427e-02f,
+4.21962291e-01f,+6.20948374e-02f,+5.04649207e-02f,+2.30783165e-01f,+1.58511132e-01f,
-2.01323442e-02f,+2.21283510e-02f,-2.16900393e-01f,+4.47557457e-02f,+1.14435188e-01f,
-7.09533840e-02f,+5.96142150e-02f,+4.40596700e-01f,+9.98049881e-03f,+1.17465360e-02f,
-1.07660733e-01f,+1.56304240e-01f,-3.64009328e-02f,-2.29866561e-02f,-1.91369772e-01f,
-1.96752455e-02f,-1.88092679e-01f,-1.92091644e-01f,-9.48752761e-02f,+2.43580848e-01f,
+1.66675616e-02f,+1.13360927e-01f,+4.25118387e-01f,+6.74280673e-02f,+1.74956559e-03f,
-1.00493483e-01f,+4.56655510e-02f,+1.31825671e-01f,+1.00120911e-02f,-4.40164562e-03f,
+2.26077884e-01f,-1.36038303e-01f,+5.06244749e-02f,-3.74717742e-01f,-2.02632010e-01f,
+2.52557725e-01f,-8.35504159e-02f,+9.51063260e-02f,+1.34988070e-01f,-2.61410683e-01f,
-4.71442103e-01f,-2.37895906e-01f,-3.49779487e-01f,+2.10998449e-02f,+1.33430094e-01f,
-2.46386290e-01f,-1.17213339e-01f,+1.18786991e-01f,+3.45979780e-01f,-1.41759783e-01f,
-1.29982620e-01f,-1.38034761e-01f,-6.78384379e-02f,-8.99939910e-02f,+2.44015306e-01f,
-1.97525904e-01f,+1.07457675e-01f,-1.99475542e-01f,-4.05996084e-01f,-4.63865362e-02f,
-1.90892532e-01f,+3.88154984e-01f,-7.70168006e-02f,-1.05939515e-01f,+2.15312555e-01f,
-9.74942371e-02f,-1.15717478e-01f,+1.67060524e-01f,+2.89584905e-01f,-7.25032687e-02f,
-8.80974904e-02f,-1.51065081e-01f,-6.05838709e-02f,+2.28646114e-01f,+1.53164506e-01f,
+1.01278692e-01f,-2.39532441e-02f,-2.26266719e-02f,-4.08668406e-02f,-1.71197757e-01f,
+2.04336718e-01f,-1.33980185e-01f,-3.31380039e-01f,-1.05215475e-01f,-5.85095249e-02f,
-1.67281941e-01f,-1.45460635e-01f,+7.88263008e-02f,-6.22838773e-02f,-1.08036838e-01f,
-1.70740485e-02f,+1.89057551e-02f,-1.16397470e-01f,+4.22032066e-02f,+9.28727016e-02f,
-6.11312799e-02f,+8.97883400e-02f,+2.93281049e-01f,-7.86520392e-02f,+2.04483494e-02f,
+1.79086208e-01f,+5.04559278e-02f,-1.08195342e-01f,-1.30428851e-01f,+2.07592055e-01f,
+7.77022466e-02f,+1.30297944e-01f,+9.76376310e-02f,+1.81770682e-01f,+2.19339263e-02f,
+1.94023222e-01f,-2.03707814e-01f,+4.09546912e-01f,-5.40394820e-02f,+2.19116405e-01f,
-1.56871110e-01f,-1.24146774e-01f,+2.86879390e-02f,+2.91376203e-01f,-2.51600981e-01f,
+2.53221951e-02f,+5.26780002e-02f,+3.16750973e-01f,+3.62157911e-01f,+2.76665181e-01f,
-1.49216861e-01f,+5.31492114e-01f,+2.26769760e-01f,+1.00958556e-01f,+1.05549835e-01f,
+2.02218026e-01f,-8.09554607e-02f,-1.81810990e-01f,+2.23178148e-01f,+4.26453631e-03f,
+1.32333979e-01f,-8.75487700e-02f,+2.62164883e-02f,+1.11848108e-01f,+2.64755003e-02f,
+2.31664032e-01f,+3.63598913e-01f,-3.88240993e-01f,-3.53780627e-01f,+1.75413847e-01f,
+3.35599743e-02f,+1.44314934e-02f,-3.16367485e-03f,+1.02739707e-01f,+1.83098927e-01f,
+1.36653394e-01f,+4.21409607e-02f,+4.07247469e-02f,-1.85251366e-02f,-4.21870081e-03f,
-1.99683726e-01f,+7.74039095e-03f,-9.71448198e-02f,+9.89073291e-02f,-1.32041425e-01f,
-3.18359673e-01f,+1.57068018e-02f,+5.38937785e-02f,+2.90689886e-01f,+1.47722021e-01f,
+1.94884405e-01f,+6.27069771e-02f,-1.48036689e-01f,+1.38856187e-01f,-5.81541695e-02f,
+9.85574499e-02f,-1.42256403e-02f,-1.92703664e-01f,-1.67098477e-01f,+1.55814990e-01f,
-8.74900371e-02f,+3.45698327e-01f,-3.56254905e-01f,-3.75390686e-02f,-1.34578794e-02f,
-9.26510990e-02f,+2.95021921e-01f,-1.37134090e-01f,-7.80695975e-02f,+7.98986927e-02f,
-1.90063015e-01f,-2.28980079e-01f,+3.25162888e-01f,+2.94325113e-01f,-2.83145308e-01f,
-1.75502840e-02f,+6.81292489e-02f,-3.64407897e-02f,-2.04524957e-02f,-8.56676996e-02f,
+8.18723217e-02f,-5.98040782e-02f,+8.02639648e-02f,+1.32092476e-01f,-6.31351471e-02f,
+1.12834208e-01f,-9.52616185e-02f,-1.96268335e-01f,-3.00584346e-01f,-1.18323986e-03f,
+1.24054320e-01f,-1.00378551e-01f,-2.27459460e-01f,-2.59542149e-02f,-1.65658861e-01f,
-1.67341039e-01f,+2.39994302e-01f,-2.71652967e-01f,-8.53666440e-02f,+1.86005339e-01f,
+3.26890200e-02f,+1.85577393e-01f,-1.12890668e-01f,+2.65419543e-01f,+8.75942595e-03f,
-5.62371165e-02f,+2.24045649e-01f,+1.55072033e-01f,+1.07538491e-01f,+1.92546993e-01f,
-8.90496075e-02f,-8.86704028e-02f,-4.34608787e-01f,+2.35574961e-01f,+1.76887050e-01f,
+1.71189278e-01f,+1.49239004e-01f,-2.85001844e-01f,+3.84514242e-01f,-3.54709737e-02f,
+1.71391383e-01f,+3.50105554e-01f,+1.32211328e-01f,-2.62567606e-02f,+1.82916924e-01f,
+1.34694874e-01f,+1.60805881e-01f,+2.60250390e-01f,-5.25774546e-02f,+1.47828057e-01f,
-1.02074184e-01f,+1.47374481e-01f,-1.91278353e-01f,+6.65990338e-02f,-1.96689561e-01f,
+2.33576968e-01f,+3.84229213e-01f,-9.42532048e-02f,-2.83579584e-02f,+1.27692893e-01f,
-3.57655212e-02f,+9.80305076e-02f,+6.20832406e-02f,+7.16377348e-02f,+1.67900160e-01f,
+3.69435623e-02f,-2.39790156e-01f,-6.16053119e-02f,-1.55848399e-01f,-1.49002653e-02f,
-3.18156511e-01f,-1.30548673e-02f,-1.70151368e-01f,-6.94976598e-02f,+3.81203443e-02f,
-1.47706941e-01f,-1.40790135e-01f,+2.21581370e-01f,+9.44075435e-02f,-8.57688710e-02f,
-3.51163954e-01f,-1.28762886e-01f,-1.71634436e-01f,+1.57234147e-01f,-3.40414703e-01f,
-2.16263920e-01f,+1.69164330e-01f,-2.28002295e-01f,+4.79218483e-01f,+2.24714220e-01f,
+1.40187234e-01f,-9.62309688e-02f,-3.16428356e-02f,-9.50432569e-02f,-1.18997887e-01f,
-8.70959461e-02f,+1.12257209e-02f,+1.86686650e-01f,+1.31067112e-02f,+1.46037683e-01f,
+7.48515055e-02f,+2.45074145e-02f,+4.90887433e-01f,-2.48257294e-01f,+1.12237595e-01f,
+1.01773031e-01f,-9.21033770e-02f,+1.93644851e-01f,-3.89615208e-01f,+1.46828275e-02f,
+2.58400533e-02f,-6.53780922e-02f,+5.96380839e-03f,+1.51720941e-01f,+5.79871237e-01f,
+8.80236924e-02f,+2.33779579e-01f,-1.94267303e-01f,+3.80562127e-01f,+3.82870495e-01f,
+1.91915303e-01f,-9.72784460e-02f,+3.21595222e-02f,+7.35092163e-02f,+1.36738434e-01f,
-5.76966405e-02f,+4.65737730e-02f,-2.50693470e-01f,-1.05234943e-01f,+7.33528361e-02f,
-9.70940292e-02f,-1.16517566e-01f,-3.41469944e-02f,+3.35627943e-01f,-1.87066104e-02f,
+1.58660904e-01f,-6.32874109e-03f,-3.39681476e-01f,+2.05632411e-02f,+5.59208095e-02f,
-8.92574489e-02f,-2.99754560e-01f,+2.19648197e-01f,+3.24722797e-01f,-1.06622197e-01f,
-2.83361524e-01f,+8.58878642e-02f,+6.08815290e-02f,+7.70073477e-03f,+4.28676903e-02f,
-5.26166009e-03f,-4.97720465e-02f,+2.49570802e-01f,+2.96249315e-02f,+2.40940168e-01f,
-3.99983115e-02f,-1.77490681e-01f,+7.64807239e-02f,+1.16886012e-01f,-1.97271585e-01f,
+3.09453875e-01f,+6.15722984e-02f,+9.00707841e-02f,-1.02607988e-01f,-4.22168285e-01f,
+5.33544682e-02f,+1.98254377e-01f,+1.18531566e-02f,+9.86107439e-02f,+4.60915387e-01f,
+2.58252740e-01f,-2.92914221e-03f,+2.46208221e-01f,+2.19939902e-01f,+1.49419587e-02f,
-2.29889661e-01f,+1.16902940e-01f,+6.91690966e-02f,-8.72720405e-02f,-2.33963639e-01f,
-5.93886413e-02f,-9.74201933e-02f,+4.11897004e-01f,-2.44274050e-01f,+1.13575637e-01f,
+2.57689029e-01f,-3.34545597e-02f,+1.83011647e-02f,+2.01047316e-01f,-2.47581482e-01f,
-4.70835902e-03f,+3.23284626e-01f,+3.02615315e-01f,-1.11939833e-01f,+6.61975518e-02f,
+2.05975950e-01f,+8.48247334e-02f,-1.22320347e-01f,-2.09654033e-01f,-6.07527830e-02f,
+7.58994371e-02f,+1.29047975e-01f,-1.76584437e-01f,+1.67909250e-01f,-1.61565900e-01f,
-4.80418019e-02f,+3.43681335e-01f,-1.35839015e-01f,+1.65905893e-01f,+7.94631615e-02f,
+2.03347914e-02f,+1.70469537e-01f,+3.61456424e-01f,-1.02057114e-01f,+6.03523366e-02f,
+3.82969789e-02f,-3.69209349e-02f,+1.28010482e-01f,+1.25009820e-01f,+9.88062322e-02f,
+6.43565059e-02f,+2.61179864e-01f,+7.01641198e-03f,-7.12736323e-02f,-2.03255191e-01f,
-1.72179669e-01f,-3.48538756e-02f,+2.55967267e-02f,+7.75074661e-02f,-5.69741949e-02f,
-1.73703864e-01f,+1.88831791e-01f,-1.30539298e-01f,-1.29372045e-01f,-1.07010186e-01f,
-1.66917101e-01f,-3.27903420e-01f,+3.05910241e-02f,-5.21148928e-03f,-2.60027528e-01f,
-3.65036950e-02f,+1.90068439e-01f,+4.41013910e-02f,-5.66794276e-02f,+1.37742773e-01f,
+4.20870036e-02f,-3.62586156e-02f,-1.53739497e-01f,-2.86729932e-01f,+8.48730952e-02f,
-9.89466235e-02f,-1.18073277e-01f,-1.13123536e-01f,-1.27014846e-01f,+9.43242982e-02f,
-1.46802485e-01f,-1.02902487e-01f,-1.51016600e-02f,-2.68308997e-01f,+1.35980725e-01f,
-2.78124809e-01f,-1.62426978e-01f,+3.18516970e-01f,+1.62435755e-01f,-1.33729234e-01f,
+2.35270783e-02f,+1.89471230e-01f,+1.85898785e-02f,-5.23326956e-02f,+1.65082514e-01f,
-3.15712690e-01f,+2.61748344e-01f,+9.38229039e-02f,+2.88035154e-01f,-9.48159397e-02f,
-1.83719859e-01f,-1.90295633e-02f,+3.46622132e-02f,+1.05895273e-01f,+4.75050248e-02f,
+1.44186854e-01f,+2.00142503e-01f,-2.31196154e-02f,-4.97407280e-02f,+9.78412256e-02f,
-1.45709202e-01f,+4.23235804e-01f,-1.28373474e-01f,+2.32216179e-01f,+7.27283061e-02f,
+2.36469030e-01f,-3.68315846e-01f,+2.38314271e-03f,-2.69167632e-01f,-7.85585344e-02f,
+1.54204905e-01f,-3.18944789e-02f,+5.75404707e-03f,+1.55010492e-01f,+9.91935059e-02f,
-7.62269422e-02f,-6.80280104e-03f,-2.03829519e-02f,-1.51708648e-01f,-8.14020038e-02f,
-3.71872693e-01f,+7.23844022e-02f,-2.73712337e-01f,+2.37039074e-01f,-1.45382866e-01f,
+2.83461567e-02f,-8.32858384e-02f,+1.79588228e-01f,-1.00234173e-01f,-1.68837160e-02f,
+1.29561216e-01f,-2.42537603e-01f,-1.87720895e-01f,-7.25671351e-02f,-1.57164350e-01f,
+3.13597858e-01f,+1.13531508e-01f,+5.37276119e-02f,+1.03409313e-01f,-3.00981432e-01f,
+1.99062496e-01f,-1.99060172e-01f,-4.33679260e-02f,+8.99515897e-02f,+3.09777141e-01f,
+3.71989086e-02f,-3.02243412e-01f,-2.09678158e-01f,-9.59342942e-02f,+2.45601833e-01f,
-2.90038943e-01f,+3.22708092e-03f,+4.95058559e-02f,+2.32721284e-01f,+4.98977840e-01f,
+2.58157194e-01f,-7.65663683e-02f,-1.67241767e-01f,+1.48148462e-01f,+3.88234407e-01f,
-1.62351131e-01f,+2.68396270e-02f,-4.15129140e-02f,-5.32700680e-02f,+1.49500832e-01f,
+1.53085202e-01f,+3.70015949e-02f,-2.99030566e-03f,-1.14758588e-01f,+9.93513241e-02f,
-1.01394700e-02f,-1.50288939e-01f,+1.53447434e-01f,-1.51766703e-01f,-2.68350933e-02f,
-3.35318953e-01f,-9.82288830e-03f,+1.24441475e-01f,-1.26706496e-01f,-5.57035133e-02f,
-1.00338206e-01f,+1.44959792e-01f,-7.62484819e-02f,-4.83309431e-03f,-6.01972118e-02f,
+2.75561124e-01f,-1.15697034e-01f,+1.47652060e-01f,-9.97456834e-02f,+3.17156501e-02f,
-3.16076815e-01f,+2.13311046e-01f,-1.98799431e-01f,+1.38031617e-01f,+2.93946024e-02f,
-1.63400307e-01f,-4.58445698e-01f,+3.24871461e-03f,-2.08349317e-01f,-8.98060203e-02f,
+3.01178128e-01f,-1.38378277e-01f,+9.35554039e-03f,-1.95647761e-01f,+1.82629079e-01f,
+2.36430660e-01f,+3.59016331e-03f,-3.34996372e-01f,+3.52646187e-02f,+9.51679498e-02f,
-9.66691505e-03f,+1.85361877e-01f,-2.37497330e-01f,+7.07960129e-02f,+4.95208874e-02f,
+4.03236330e-01f,+3.86611432e-01f,-1.11095995e-01f,+3.82471457e-02f,+1.22759812e-01f,
-6.99145719e-02f,+6.55598715e-02f,+6.80256858e-02f,+9.22573879e-02f,-1.85203508e-01f,
-1.84864998e-01f,+3.71956021e-01f,+9.33380052e-03f,+2.54275575e-02f,-1.95648864e-01f,
+5.93248345e-02f,-1.80301100e-01f,+1.51645973e-01f,+2.50870079e-01f,-1.44504890e-01f,
+2.69555092e-01f,+1.21506780e-01f,+3.21180224e-02f,-1.88218698e-01f,+1.79468319e-01f,
+3.00599545e-01f,-2.48953775e-01f,-3.63371372e-01f,+1.92804560e-02f,+4.38419953e-02f,
-1.62829682e-01f,+9.78497267e-02f,-6.19671196e-02f,+2.19829306e-02f,-3.94010544e-01f,
-7.91065171e-02f,-2.05793440e-01f,-5.43688312e-02f,-3.94366682e-01f,+4.96565178e-02f,
+2.43758410e-01f,+2.28529707e-01f,-3.09296995e-01f,-3.28033753e-02f,-3.20016071e-02f,
+1.98447660e-01f,+1.75657704e-01f,-1.24390945e-01f,-2.24005356e-01f,+3.47605273e-02f,
+1.64961472e-01f,+1.50698796e-01f,-9.95181128e-02f,+9.95964780e-02f,-6.84578791e-02f,
+2.89233029e-01f,+6.91654440e-03f,-3.30172107e-03f,+4.66896631e-02f,-4.24936377e-02f,
+4.20965075e-01f,-1.23663396e-01f,+4.33742628e-02f,-1.32338461e-02f,-8.33570063e-02f,
+2.51676112e-01f,-2.04661340e-01f,-3.20921093e-02f,+3.44253965e-02f,+7.34709650e-02f,
-8.54517817e-02f,-4.08629999e-02f,+2.38605365e-01f,+3.24437320e-02f,+8.57307389e-02f,
-1.18123107e-01f,-4.54096086e-02f,-5.22906892e-02f,+1.74131379e-01f,+1.15597956e-01f,
+1.85137555e-01f,+1.34954393e-01f,+2.63054371e-01f,+1.10778078e-01f,-2.01951101e-01f,
-1.70620844e-01f,-2.21940070e-01f,+2.61112720e-01f,+7.48634860e-02f,-2.31303960e-01f,
+1.51349097e-01f,+6.22729585e-02f,+1.71049342e-01f,+1.01118319e-01f,-5.88233098e-02f,
+1.47167921e-01f,-1.02241458e-02f,+2.94560075e-01f,+1.01666905e-01f,+2.10778713e-01f,
-4.13668454e-02f,+2.33434588e-01f,+7.27215409e-02f,+1.55815601e-01f,-1.36593333e-03f,
-1.14867091e-01f,+4.30254228e-02f,+6.08488470e-02f,+2.67667603e-02f,+2.43123956e-02f,
+1.27662197e-01f,+1.88493326e-01f,+9.65643674e-03f,+1.00025266e-01f,+1.08710937e-01f,
+1.96387619e-01f,+1.80566192e-01f,+8.74764174e-02f,+2.46894568e-01f,+3.61495048e-01f,
+2.09015578e-01f,+9.46071595e-02f,+2.97653198e-01f,+1.66874215e-01f,-3.54075395e-02f,
+7.76815265e-02f,-2.81042725e-01f,-1.01066977e-01f,-1.60533756e-01f,-7.52267838e-02f,
-9.03734565e-02f,+2.70760715e-01f,+1.80321932e-01f,-4.06311899e-02f,+6.98861405e-02f,
+4.47566696e-02f,-7.15990588e-02f,-2.74734765e-01f,+1.24077931e-01f,-9.91318896e-02f,
-6.47291467e-02f,+9.06866640e-02f,-2.46341482e-01f,+1.44154094e-02f,+2.61301070e-01f,
+2.31875274e-02f,-9.81209576e-02f,+2.32898951e-01f,-7.93294460e-02f,+3.83660793e-01f,
-7.15627968e-02f,+2.80227214e-01f,-1.51934013e-01f,-6.04970269e-02f,-1.70925990e-01f,
-8.90771374e-02f,+1.06189653e-01f,+1.50046080e-01f,-3.38313222e-01f,+1.37413424e-02f,
+8.80034566e-02f,+3.95672768e-02f,+6.31781742e-02f,+2.92520940e-01f,-2.61113383e-02f,
+8.04914981e-02f,+8.71337503e-02f,-1.97434738e-01f,-7.58826584e-02f,-3.04149743e-02f,
+7.32892677e-02f,+3.58355165e-01f,-3.00957978e-01f,-6.84781298e-02f,-4.04221416e-01f,
+7.98302442e-02f,+3.70995961e-02f,-1.36508308e-02f,+1.19897738e-01f,+3.28788161e-02f,
+1.51085481e-01f,+2.36053005e-01f,+4.74024974e-02f,-1.26868784e-01f,+2.34011039e-02f,
+4.38638628e-01f,-1.81825012e-02f,-7.90688545e-02f,+2.38748461e-01f,+1.20177455e-02f,
+2.33190432e-01f,+7.61767030e-02f,-2.15065628e-01f,+3.90501544e-02f,+3.55822146e-01f,
+1.35681883e-01f,-7.51581267e-02f,-5.60498871e-02f,+1.41262442e-01f,+1.79515537e-02f,
-1.48260906e-01f,+1.10974021e-01f,+7.58649781e-03f,-4.04310860e-02f,-4.51827534e-02f,
-1.24421224e-01f,+7.40078390e-02f,-1.01455562e-01f,-1.09964207e-01f,+1.43396094e-01f,
+9.71314684e-02f,+1.08767273e-02f,+1.76084563e-01f,+1.65652167e-02f,-7.72693679e-02f,
+3.19943547e-01f,+1.29286259e-01f,+4.42493111e-01f,+1.04148902e-01f,-2.32048202e-02f,
+7.17497021e-02f,+1.62402883e-01f,-1.31297395e-01f,-2.44224057e-01f,+2.49213204e-01f,
-2.09568456e-01f,+6.56593382e-01f,+1.69500247e-01f,+2.00517461e-01f,-3.90889235e-02f,
+2.03944463e-02f,+4.42628302e-02f,-2.85521656e-01f,+1.74664721e-01f,-1.39371872e-01f,
+6.59283921e-02f,+1.05329283e-01f,-1.09160729e-02f,+1.77763104e-01f,+1.69652864e-01f,
+1.98023945e-01f,+9.66433957e-02f,+1.68677181e-01f,-8.20676610e-03f,-1.69285029e-01f,
-8.58367905e-02f,-1.76020220e-01f,+1.42605737e-01f,+2.24898189e-01f,+8.97828583e-03f,
+2.74308354e-01f,-1.42090067e-01f,+1.62166372e-01f,+1.51505023e-01f,+1.15822986e-01f,
+1.98252678e-01f,+2.00117100e-02f,+1.18910380e-01f,-6.84944764e-02f,-3.16180363e-02f,
-2.73790061e-01f,-4.92778607e-02f,-7.04609379e-02f,+1.13108955e-01f,-2.66650856e-01f,
-8.98962691e-02f,-6.75304085e-02f,-1.86969027e-01f,-1.97433874e-01f,-1.66527629e-01f,
+1.32597014e-01f,+8.56596977e-02f,+1.89485162e-01f,+1.99910358e-01f,-1.08782358e-01f,
+5.01952171e-01f,+7.08176643e-02f,-8.76381174e-02f,+1.40107647e-02f,+1.03219688e-01f,
+3.11900806e-02f,-4.45401818e-02f,+2.77175397e-01f,+1.03520639e-01f,+2.34950364e-01f,
-9.86399874e-02f,+7.81858116e-02f,-3.65573503e-02f,+1.67164296e-01f,-2.24659115e-01f,
+2.87603557e-01f,-6.61011934e-02f,+1.65908203e-01f,+2.79020872e-02f,-2.31900394e-01f,
+3.82318087e-02f,+1.34325042e-01f,+5.07899821e-01f,-4.38924246e-02f,-1.01087103e-03f,
+9.84376445e-02f,+1.96386307e-01f,-2.54773013e-02f,+1.25217319e-01f,+3.26498061e-01f,
+1.94402114e-01f,-7.88221657e-02f,-1.93944886e-01f,-1.83597375e-02f,-1.44791186e-01f,
+3.40627469e-02f,+2.81185716e-01f,+1.90943740e-02f,+1.32603282e-02f,-3.59517992e-01f,
+1.15483895e-01f,+1.17913522e-01f,+1.74099207e-01f,+1.57340899e-01f,-1.96080953e-01f,
-2.18443815e-02f,+7.82589018e-02f,-1.08867265e-01f,-2.85113957e-02f,-6.07596934e-02f,
-1.28847227e-01f,+1.46364316e-01f,-8.36476497e-03f,+1.91367775e-01f,-1.03426203e-01f,
+1.05403356e-01f,+1.86647013e-01f,+4.34740633e-02f,-1.46982074e-01f,+1.28354862e-01f,
+2.21576706e-01f,-1.42837912e-01f,-2.88660705e-01f,-1.14345461e-01f,-4.99953330e-02f,
+1.35028362e-01f,-4.68376398e-01f,+4.32490259e-01f,-2.55542248e-01f,-7.92568102e-02f,
-1.81733817e-01f,+1.24457590e-01f,+2.72706121e-01f,-1.08127836e-02f,-1.46765739e-01f,
+2.18025178e-01f,+2.64745921e-01f,+1.87006071e-01f,+2.37258494e-01f,+1.03412390e-01f,
+6.51795790e-02f,-9.83436704e-02f,-6.93106949e-02f,+3.45925093e-01f,+2.10852683e-01f,
-2.11974263e-01f,+2.04593763e-02f,+1.21013768e-01f,+1.13076379e-03f,+2.80769877e-02f,
-1.66559100e-01f,+8.61995444e-02f,+1.42085180e-01f,-1.25926420e-01f,-3.78442637e-04f,
+4.41483706e-02f,+9.14255232e-02f,+1.94464669e-01f,+1.04443066e-01f,+1.43667445e-01f,
-8.69545341e-03f,-1.81155711e-01f,-9.69092101e-02f,+1.01807579e-01f,+1.46061301e-01f,
+1.81387112e-01f,+1.85394257e-01f,-3.17683890e-02f,+1.94575004e-02f,+7.27367625e-02f,
-1.00639142e-01f,+1.02304548e-01f,-2.37218678e-01f,+8.92088860e-02f,+8.93515199e-02f,
-2.35367063e-02f,-9.82539430e-02f,+6.46464154e-02f,+1.32556744e-02f,-1.44036766e-02f,
+2.51467437e-01f,+7.65706673e-02f,+1.37008250e-01f,+6.20859675e-02f,-1.58862565e-02f,
+2.91785032e-01f,+1.54193714e-01f,+2.05058511e-02f,+1.72351673e-01f,-4.15170342e-01f,
+2.28438586e-01f,-3.04766774e-01f,+2.60349274e-01f,+1.21627681e-01f,-2.99470633e-01f,
+1.45395780e-02f,-9.83846933e-02f,+1.89697921e-01f,+2.62230426e-01f,+6.24983050e-02f,
-6.69464469e-02f,-1.87931657e-01f,+2.26367395e-02f,+1.95834160e-01f,+6.56821504e-02f,
+1.74082026e-01f,+2.82020152e-01f,+3.56865004e-02f,+4.28653322e-02f,+1.37871101e-01f,
+3.90669666e-02f,+3.30261327e-02f,-7.64108971e-02f,-1.33739356e-02f,-6.78285286e-02f,
-8.88268054e-02f,-3.87950867e-01f,+4.88874177e-03f,+1.34908691e-01f,-1.66072369e-01f,
+2.17917562e-01f,+1.91569820e-01f,+1.70955434e-01f,+2.36148223e-01f,-1.02154255e-01f,
-3.26547861e-01f,-3.67082208e-01f,+3.19134593e-01f,-1.79309413e-01f,-1.12254918e-03f,
+4.10637259e-02f,-6.65429905e-02f,+2.20598862e-01f,+2.14719370e-01f,+3.88883948e-02f,
+1.76392734e-01f,+3.31179984e-02f,+1.98564166e-03f,+3.38041395e-01f,+2.47279048e-01f,
-1.94069251e-01f,+3.15840453e-01f,+2.68264145e-01f,+7.70903304e-02f,+2.99072921e-01f,
+1.94507211e-01f,+1.34432569e-01f,+1.16456307e-01f,+5.14803864e-02f,-7.25437538e-04f,
-5.10319229e-03f,+7.77527094e-02f,+8.32221061e-02f,+1.10225461e-01f,+5.27115166e-02f,
-2.38551840e-01f,+1.89026877e-01f,+1.67042464e-01f,-1.33463601e-02f,+1.49205476e-01f,
-2.03243405e-01f,+1.50609031e-01f,-1.55862346e-01f,+2.53969014e-01f,-2.28407513e-02f,
-2.01543495e-02f,-6.29339442e-02f,-6.12970814e-02f,+3.19389403e-01f,-1.62093669e-01f,
+2.37689748e-01f,+1.40862107e-01f,+8.09983164e-02f,+4.05305535e-01f,-1.14246391e-01f,
-1.90535620e-01f,-1.69310510e-01f,-7.46553242e-02f,-2.33462095e-01f,+7.13754669e-02f,
+4.63471981e-03f,-2.11282924e-01f,+2.59765685e-01f,-9.49586034e-02f,-2.68949032e-01f,
-9.86198187e-02f,-7.39285573e-02f,+2.91870594e-01f,+8.79772082e-02f,-2.18734011e-01f,
+1.85565084e-01f,-1.38978362e-01f,-6.42614067e-02f,+6.67733401e-02f,-1.19846068e-01f,
-5.28139472e-02f,-5.65794250e-03f,+2.87355274e-01f,-1.69150844e-01f,+1.02076538e-01f,
+6.02902658e-02f,+2.28252396e-01f,+7.48216882e-02f,+1.15029477e-01f,+1.31473124e-01f,
+1.32272214e-01f,+1.26456037e-01f,-4.97561656e-02f,-1.16861999e-01f,+7.36204237e-02f,
-1.60707056e-03f,+2.05205247e-01f,+1.16826007e-02f,+2.33800888e-01f,-8.35243464e-02f,
+3.23125958e-01f,+9.53765139e-02f,+1.10701948e-01f,-2.35537648e-01f,-4.00486067e-02f,
+1.27971962e-01f,-1.17465697e-01f,-3.21091376e-02f,+1.44200493e-02f,+1.59546956e-01f,
-2.03751221e-01f,-3.17787111e-01f,+4.52533877e-03f,-2.61907101e-01f,+7.32552707e-02f,
+1.39849052e-01f,+2.96995610e-01f,+1.23146847e-02f,-9.95421857e-02f,+2.91311890e-01f,
-2.59199947e-01f,-1.03052758e-01f,-1.46830201e-01f,-4.30189632e-02f,+4.13986994e-03f,
-3.12971463e-03f,-2.63977438e-01f,-4.59799320e-02f,+2.93979645e-02f,-1.79836564e-02f,
-3.84950489e-01f,+8.34895223e-02f,+1.37210950e-01f,-2.64924228e-01f,-1.27690554e-01f,
-1.83756888e-01f,+1.60984248e-01f,+7.68514127e-02f,-2.83400208e-01f,+4.09533503e-03f,
+1.10636866e-02f,+1.21316560e-01f,-1.03228286e-01f,+5.22176214e-02f,-9.81023833e-02f,
-6.18959777e-02f,+9.68296677e-02f,-1.12038195e-01f,+2.20436100e-02f,+2.80297212e-02f,
+1.96229160e-01f,-6.39869943e-02f,-3.77519429e-01f,-4.88522127e-02f,+4.12355363e-02f,
+1.33907899e-01f,+3.82514000e-01f,+5.66478819e-02f,+2.44061127e-01f,+1.45703405e-01f,
+2.87226643e-02f,-1.80614665e-01f,+1.71509072e-01f,+1.00650258e-01f,+1.16685122e-01f,
-7.32019618e-02f,-9.19166356e-02f,+9.94766131e-02f,-1.24784354e-02f,-1.29552662e-01f,
+1.23191260e-01f,-5.51154912e-02f,-9.10081714e-02f,+8.76998603e-02f,-5.30159697e-02f,
+5.87870292e-02f,-1.69370160e-01f,-7.69447982e-02f,-1.00625768e-01f,+1.10613257e-02f,
-1.60522476e-01f,+1.54600050e-02f,-2.28019670e-01f,+2.10343987e-01f,-8.28359574e-02f,
+4.34729829e-02f,-2.63568014e-01f,-1.72042605e-02f,-3.50192972e-02f,+3.94095778e-02f,
+1.37644157e-01f,-1.53414840e-02f,+4.26201299e-02f,+7.72470757e-02f,-3.00559103e-01f,
-7.71812350e-02f,-1.61669999e-01f,-4.18548249e-02f,-2.21219346e-01f,-6.74332771e-03f,
-8.02717730e-02f,+1.07141323e-01f,-6.38317084e-03f,+2.71141618e-01f,+1.95234671e-01f,
+2.59287924e-01f,+4.41844240e-02f,-1.46443054e-01f,+8.28934908e-02f,+1.04024835e-01f,
+7.78334439e-02f,+2.19035119e-01f,+7.18206167e-02f,+3.72892797e-01f,-1.84134275e-01f,
+9.44727063e-02f,-6.47034347e-02f,-1.55218476e-02f,-1.34354278e-01f,+2.01996207e-01f,
-6.49625063e-02f,+5.93090728e-02f,+1.73219219e-01f,-1.77277535e-01f,-2.70790905e-01f,
-4.69655804e-02f,+6.46974295e-02f,+6.25846386e-02f,-1.76624134e-01f,+1.00867517e-01f,
-4.45326537e-01f,+3.04423958e-01f,-1.21192448e-01f,-2.97450513e-01f,+6.89629540e-02f,
+8.65977556e-02f,-1.43750980e-02f,-1.88190714e-01f,-2.08477184e-01f,+2.33386716e-04f,
-6.21947050e-02f,-1.12869509e-01f,+1.51147202e-01f,-3.01989228e-01f,+2.29849089e-02f,
-3.38575274e-01f,-1.97401419e-01f,-1.20589554e-01f,+2.04699472e-01f,-2.09689796e-01f,
+1.56416073e-01f,+2.40780607e-01f,-3.47284198e-01f,-1.49261758e-01f,+2.54605442e-01f,
-1.03628583e-01f,+2.44035453e-01f,+6.02823682e-02f,+1.63547575e-01f,+9.87923220e-02f,
+1.19427584e-01f,-1.43007025e-01f,+1.56384468e-01f,+1.21752709e-01f,+1.25706997e-02f,
-2.22238660e-01f,-3.68009396e-02f,-1.91831529e-01f,-9.02032480e-02f,-2.09981307e-01f,
-8.57134312e-02f,-1.09376714e-01f,-1.40279353e-01f,-2.85821468e-01f,+3.77392143e-01f,
+2.54754663e-01f,+1.58243254e-02f,-2.03064784e-01f,-8.59504938e-02f,+3.52155715e-01f,
+3.12976129e-02f,+2.59592474e-01f,-1.82260782e-01f,-2.57455766e-01f,-1.05692960e-01f,
-5.17207123e-02f,+4.51484285e-02f,-5.48313148e-02f,-1.07726276e-01f,-3.36346216e-02f,
+3.69479731e-02f,+6.83713034e-02f,+1.40845403e-01f,-3.23720835e-02f,-6.34995326e-02f,
-3.27525511e-02f,+1.30440772e-01f,+4.57327180e-02f,-2.24716559e-01f,+8.61334503e-02f,
-7.12377876e-02f,-9.53216106e-02f,-1.47264808e-01f,+5.11871912e-02f,+1.45678714e-01f,
+1.21095262e-01f,-5.51029705e-02f,+3.35597359e-02f,+2.44452972e-02f,+1.53937355e-01f,
+1.48912326e-01f,+3.57389033e-01f,-3.23007070e-02f,-1.33197263e-01f,+4.17908579e-02f,
+2.52627015e-01f,-6.50652349e-02f,-8.28647688e-02f,+1.53467413e-02f,+4.37813625e-02f,
+2.13682741e-01f,+1.85130596e-01f,+2.02986300e-01f,-1.72687739e-01f,+7.53702363e-03f,
+2.19887599e-01f,-2.04542354e-02f,+1.27345830e-01f,-5.05273715e-02f,-3.82304490e-01f,
+1.50325000e-01f,+3.80957462e-02f,-2.38628104e-01f,-7.81937167e-02f,+3.92384142e-01f,
+2.14338183e-01f,-2.21081823e-01f,+8.54467824e-02f,-6.07842542e-02f,+4.26005796e-02f,
-2.86302622e-03f,-1.82414442e-01f,+1.76304832e-01f,+3.97798009e-02f,+2.38179326e-01f,
+1.43652260e-01f,+2.54516125e-01f,-2.28006408e-01f,-3.32092904e-02f,+2.38576114e-01f,
-6.68759495e-02f,-1.45973742e-01f,-2.84118229e-03f,-2.22228423e-01f,+4.92263027e-02f,
+3.05402856e-02f,+4.34493832e-02f,+1.46262065e-01f,+1.47829637e-01f,+3.07231575e-01f,
+6.78937361e-02f,+9.19739529e-02f,-2.37178907e-01f,+2.45781034e-01f,+9.52959135e-02f,
-3.37639689e-01f,-5.35956584e-02f,+2.96137750e-01f,-1.68354169e-01f,+3.46279621e-01f,
-2.66905785e-01f,-2.59496011e-02f,-1.18404202e-01f,+6.26177862e-02f,+2.88202018e-01f,
+1.83338732e-01f,+2.30255052e-01f,+4.92377067e-03f,-1.27611890e-01f,-4.27762061e-01f,
-1.28244922e-01f,-1.51602197e-02f,-2.21451417e-01f,-1.21804634e-02f,+3.17093223e-01f,
-7.36633455e-03f,+3.32743749e-02f,+3.62970889e-01f,-8.06269348e-02f,-1.59916505e-01f,
-3.41229290e-01f,+1.89079404e-01f,+7.52357915e-02f,+1.19022958e-01f,+2.19961330e-02f,
+1.63415790e-01f,+2.41306517e-03f,-4.83714081e-02f,-7.07500428e-02f,-6.85941577e-02f,
+2.13027582e-01f,-8.45569372e-02f,-9.15530995e-02f,+1.50244489e-01f,-1.33468106e-01f,
+8.56809691e-02f,-2.29593158e-01f,-8.51867720e-02f,-9.52548608e-02f,+5.36448509e-02f,
-1.32464245e-02f,+1.36387357e-02f,+7.81762525e-02f,+1.70651704e-01f,+1.75436035e-01f,
-5.41317463e-01f,+1.83355898e-01f,-4.29571904e-02f,-3.46959308e-02f,+1.80947036e-01f,
+1.40402511e-01f,-1.48770884e-01f,-3.88730824e-01f,+2.03796819e-01f,+3.34191509e-02f,
+3.92117240e-02f,+3.85359488e-02f,+1.84756413e-01f,+1.39815167e-01f,-4.09239493e-02f,
+1.94582567e-01f,+7.97171295e-02f,+6.49823695e-02f,-1.66477665e-01f,-9.83933508e-02f,
+1.53540010e-02f,+2.64664948e-01f,+1.46602064e-01f,+1.14097014e-01f,+2.07450628e-01f,
-1.43969610e-01f,-4.73704599e-02f,-1.18939234e-02f,+5.87254278e-02f,+1.70767203e-01f,
-1.62395850e-01f,-1.75179601e-01f,-1.19869798e-01f,+1.68164879e-01f,-8.02704506e-03f,
+1.13382503e-01f,+3.09309755e-02f,+6.22116327e-02f,-4.53901328e-02f,+2.36433163e-01f,
+9.52797532e-02f,+7.35124946e-02f,-1.35080338e-01f,-2.51909465e-01f,+2.38916948e-01f,
+8.47986937e-02f,-6.97073236e-04f,+3.02934974e-01f,-1.64406508e-01f,-6.92041442e-02f,
-2.77255416e-01f,+1.55616060e-01f,+3.29780459e-01f,-6.91636465e-03f,+6.20916672e-02f,
-2.65316188e-01f,-1.98747694e-01f,+7.02974852e-03f,-3.01068336e-01f,-2.53467381e-01f,
+3.75986129e-01f,-1.22549348e-01f,+1.36754960e-02f,+1.85714681e-02f,+1.10739082e-01f,
-6.17760830e-02f,-1.22591808e-01f,+1.06054701e-01f,-1.94622815e-01f,-5.88415600e-02f,
+4.53694947e-02f,+1.61703840e-01f,-9.28270668e-02f,+5.58390021e-02f,+3.26290071e-01f,
-1.71042487e-01f,-1.61184892e-01f,+4.21903357e-02f,+1.06855538e-02f,-2.26415128e-01f,
-7.93503821e-02f,-5.90143204e-02f,-5.56688756e-02f,+6.35947585e-02f,+1.79925770e-01f,
+9.45739374e-02f,+1.53416932e-01f,+2.93936849e-01f,+1.18324906e-01f,+4.48566079e-01f,
-3.56697887e-01f,+1.01024829e-01f,-1.16193391e-01f,+2.83717252e-02f,-6.20243549e-02f,
+1.27333075e-01f,+2.03003928e-01f,+3.51053360e-03f,-1.15427352e-01f,-4.86555733e-02f,
-2.80133560e-02f,-5.86047247e-02f,-1.57078162e-01f,+3.42561379e-02f,-3.51424553e-02f,
+1.61112294e-01f,-2.68870071e-02f,+1.53231636e-01f,+7.65696391e-02f,+4.47463483e-01f,
+1.54861391e-01f,+3.00306320e-01f,-2.71885008e-01f,+1.50007278e-01f,-1.22110829e-01f,
-1.35661811e-01f,-1.38946310e-01f,-8.89650509e-02f,+3.77533942e-01f,-1.53447345e-01f,
-3.60290357e-03f,+2.80728340e-01f,-1.12177536e-01f,+1.83249786e-01f,+1.61415815e-01f,
-4.73367237e-02f,-6.56013489e-02f,-1.61218703e-01f,-1.96027905e-01f,+2.21642673e-01f,
+8.05639476e-02f,-1.10537633e-01f,+6.24606870e-02f,+4.06801939e-01f,+3.13109040e-01f,
-1.20463006e-01f,+6.71692267e-02f,-2.52099425e-01f,+2.33446464e-01f,+3.22524309e-01f,
-1.89045772e-01f,+1.22198425e-01f,+9.92905274e-02f,-1.06376022e-01f,+4.23244834e-02f,
+1.96324699e-02f,+3.89522940e-01f,-3.00255958e-02f,+1.51119605e-01f,+6.21441379e-02f,
-1.21828273e-01f,+2.90679157e-01f,+2.64282465e-01f,+9.14480835e-02f,+1.42615497e-01f,
+1.05201073e-01f,-2.67168134e-01f,-2.06299871e-03f,-6.18638657e-02f,-1.88194752e-01f,
-3.44401658e-01f,+9.95536968e-02f,-8.36014524e-02f,-3.02249938e-01f,+3.37185770e-01f,
+1.42573684e-01f,-1.10442884e-01f,+8.47796649e-02f,+1.51423905e-02f,-7.64462575e-02f,
+1.03936881e-01f,+2.58623987e-01f,-1.26347259e-01f,-3.30524564e-01f,+2.73646981e-01f,
-5.65520942e-01f,+2.51890630e-01f,-3.86970751e-02f,+1.63274035e-01f,+1.06650725e-01f,
-5.22886142e-02f,-6.43394440e-02f,+2.49208018e-01f,-2.56621931e-02f,+3.00754696e-01f,
+1.81469083e-01f,-2.33993251e-02f,-2.38097936e-01f,-2.74782866e-01f,-1.89158574e-01f,
-1.23062529e-01f,-6.10466972e-02f,-3.84580106e-01f,+5.58554754e-02f,+1.39529690e-01f,
-1.17640365e-02f,-1.12160273e-01f,+1.30886301e-01f,+1.81144983e-01f,-2.47036219e-01f,
-2.28039041e-01f,+7.10893348e-02f,+2.00974166e-01f,+1.89698413e-02f,+1.83347255e-01f,
+1.62221283e-01f,-4.39494923e-02f,+7.39199743e-02f,-1.52946845e-01f,-6.24572225e-02f,
+1.41928971e-01f,+1.78511634e-01f,+2.97873259e-01f,+2.34096721e-01f,-8.02648626e-03f,
+1.35289691e-03f,-2.04930827e-01f,-4.36406136e-02f,-2.12353066e-01f,+4.67937738e-02f,
-2.24155396e-01f,+8.28675739e-03f,+6.98242784e-02f,-1.21648379e-01f,+8.68998468e-03f,
+1.98406130e-01f,+2.76938677e-01f,+1.22944430e-01f,-6.83978051e-02f,-2.41063572e-02f,
+8.33615754e-03f,-1.04636602e-01f,+1.06039174e-01f,+1.82080656e-01f,-2.14942187e-01f,
-1.74433649e-01f,+2.80320078e-01f,-1.60971269e-01f,+2.89924324e-01f,-4.74879928e-02f,
+1.33361220e-01f,-3.77937816e-02f,-4.06142026e-02f,-3.27564120e-01f,+7.03763869e-03f,
+1.73804134e-01f,+3.42401564e-02f,+2.23323032e-02f,+8.74765590e-02f,-8.27712044e-02f,
-2.91048437e-02f,-8.89284685e-02f,+6.58265352e-02f,-2.71734506e-01f,-1.90594122e-01f,
+1.45645559e-01f,-4.17147130e-02f,-5.92107624e-02f,-6.48116507e-03f,+5.67893758e-02f,
+4.63737920e-02f,+2.58561075e-01f,-1.37157261e-01f,+8.36562440e-02f,+1.86060499e-02f,
+6.66450933e-02f,-2.89931864e-01f,-3.86694372e-02f,-2.68850952e-01f,+2.66386718e-01f,
-8.51864964e-02f,+2.28480428e-01f,-2.41569057e-01f,+1.69305820e-02f,+1.31996438e-01f,
+1.47368878e-01f,-2.04034850e-01f,+2.53081053e-01f,+7.09511787e-02f,+9.50567797e-02f,
+2.50500172e-01f,+4.76734191e-02f,+5.97902946e-02f,+2.13683713e-02f,-1.12086907e-01f,
+3.46773535e-01f,-1.35663569e-01f,+7.76887536e-02f,-6.12284727e-02f,+1.03665121e-01f,
-5.80319427e-02f,+6.57118112e-02f,-1.06845103e-01f,-1.97023377e-02f,-3.51855755e-01f,
+4.17614169e-02f,-5.78114316e-02f,-4.18977439e-03f,+9.29698162e-03f,+2.90694386e-01f,
+9.55282710e-03f,+2.85720915e-01f,+2.64084309e-01f,-2.58664265e-02f,-7.61472806e-02f,
+9.61985216e-02f,-2.10027441e-01f,+1.39524639e-01f,-6.67433143e-02f,+1.72970928e-02f,
-6.99262396e-02f,+8.53381976e-02f,+6.74654618e-02f,+7.09825382e-02f,+6.86024353e-02f,
+1.55739918e-01f,-5.83068021e-02f,-1.14612661e-01f,-1.59757927e-01f,-1.89890862e-01f,
-1.87478238e-03f,+1.56219289e-01f,+2.68266872e-02f,+1.69646308e-01f,-2.42492959e-01f,
+2.87455410e-01f,-3.07723619e-02f,-2.63867438e-01f,+7.17733875e-02f,+3.48782763e-02f,
+1.65372744e-01f,+2.85160937e-03f,-1.60496294e-01f,+2.30466664e-01f,-3.40394396e-03f,
-5.92180826e-02f,-3.11335213e-02f,-6.25982285e-02f,+2.53148615e-01f,+3.10483831e-03f,
+1.58996824e-02f,+2.25509241e-01f,+1.29323095e-01f,+2.65926979e-02f,+7.41882995e-03f,
-3.85720395e-02f,+1.51804611e-01f,-8.29885826e-02f,+1.53627589e-01f,+8.87039080e-02f,
-6.48020133e-02f,-3.70737202e-02f,-6.70456737e-02f,-6.22195415e-02f,-1.23012453e-01f,
-9.15595156e-04f,-1.93594575e-01f,-1.23380832e-01f,-2.33567655e-02f,-6.67734966e-02f,
-9.66995433e-02f,-9.17920992e-02f,-1.70231476e-01f,+2.42887691e-01f,-3.40478458e-02f,
-8.40003639e-02f,+2.64964700e-01f,+2.19915643e-01f,+8.16496909e-02f,-2.99878746e-01f,
+6.20565675e-02f,+2.62901574e-01f,-1.25522941e-01f,+7.43660107e-02f,-3.63838643e-01f,
+4.43430766e-02f,+3.63733172e-02f,+5.83589375e-02f,+6.89326972e-02f,-7.93905929e-03f,
+1.95683062e-01f,+1.14666976e-01f,-3.52763295e-01f,+4.46345396e-02f,+4.22828877e-03f,
+1.06383316e-01f,-1.02745906e-01f,-2.77558148e-01f,+1.38114884e-01f,+4.06516828e-02f,
+4.56411988e-02f,+1.97001591e-01f,+6.10906184e-02f,+6.67803213e-02f,+4.06947769e-02f,
-1.98143050e-01f,+1.65322646e-02f,+1.43699482e-01f,-9.60275382e-02f,-3.11819822e-01f,
+6.73085684e-03f,-1.08071975e-01f,+1.11057431e-01f,+9.98061970e-02f,+1.47320144e-02f,
+3.17312866e-01f,+2.97618121e-01f,-3.87120508e-02f,+3.40484262e-01f,+1.13736607e-01f,
+1.05984114e-01f,-2.73158513e-02f,+2.79849291e-01f,-6.64404631e-02f,+8.65633935e-02f,
+6.97979406e-02f,-1.57502130e-01f,-1.80890188e-01f,-1.83605805e-01f,-2.15681747e-01f,
+1.78677647e-03f,+8.85112956e-02f,+2.59170353e-01f,+5.66392466e-02f,-1.86366383e-02f,
+9.52059403e-03f,-6.98268265e-02f,-2.60635465e-02f,+1.88333735e-01f,+1.53645694e-01f,
-1.22186281e-01f,+1.77956134e-01f,+1.12099089e-01f,-1.96813747e-01f,-1.77598432e-01f,
+6.15575798e-02f,-8.51937085e-02f,+7.40031525e-02f,-5.30614331e-02f,-6.05530702e-02f,
+2.06061736e-01f,+1.68042123e-01f,-1.31674698e-02f,-1.46792814e-01f,+8.32820013e-02f,
+1.94594935e-01f,-1.26560390e-01f,-2.11405784e-01f,+1.19002707e-01f,+5.70351258e-02f,
+4.14446816e-02f,-1.58905327e-01f,+3.04774284e-01f,+8.75041634e-02f,+2.26585746e-01f,
-3.26559633e-01f,-1.91078395e-01f,-3.06917187e-02f,-1.74713843e-02f,-8.69577155e-02f,
-2.35998348e-04f,+2.89629996e-01f,+2.72993799e-02f,-3.62437367e-01f,-1.51474759e-01f,
+3.76355276e-02f,+2.33462870e-01f,+3.56472880e-02f,-9.14362434e-04f,+6.37871772e-02f,
+8.32192376e-02f,-2.44837925e-01f,-1.73196837e-01f,+1.48692578e-01f,+2.34293684e-01f,
-1.74517278e-02f,+1.74867377e-01f,-1.36914223e-01f,-2.59522293e-02f,-1.26016259e-01f,
+1.79233447e-01f,-3.30561936e-01f,+6.26847753e-03f,-5.49151562e-02f,-1.57537550e-01f,
-1.15339339e-01f,+6.96528032e-02f,-1.94451690e-01f,-6.40557781e-02f,+6.10851236e-02f,
-1.34009257e-01f,-1.29056871e-01f,+1.23596609e-01f,-3.46301794e-02f,-3.59095447e-02f,
-1.20094247e-01f,+3.21533233e-01f,+3.07872981e-01f,-3.70753109e-01f,+1.89794660e-01f,
+2.12604135e-01f,+1.93418697e-01f,-4.75232415e-02f,-1.44857883e-01f,+1.73529685e-01f,
-1.40414611e-01f,+4.86539714e-02f,+3.48765135e-01f,+1.79437511e-02f,-1.23316638e-01f,
-5.61753400e-02f,+4.50820327e-02f,-2.04720180e-02f,+7.49715022e-04f,+2.40918010e-01f,
-1.23507276e-01f,+1.19091794e-01f,+4.44944203e-01f,-2.43968796e-03f,-2.47594360e-02f,
-1.53409556e-01f,+1.83262900e-01f,+6.39429688e-02f,-5.47215082e-02f,-6.19859025e-02f,
+5.88543862e-02f,+1.46490410e-01f,-4.26822621e-03f,+6.63886741e-02f,+1.28739446e-01f,
+3.55511419e-02f,-2.79437989e-01f,+9.39754397e-02f,-4.22322303e-01f,-3.93162400e-01f,
+1.64474979e-01f,+7.49549456e-03f,-4.16050516e-02f,+5.05086705e-02f,+3.79344337e-02f,
+2.52200276e-01f,+2.07370684e-01f,-2.89885867e-02f,+9.82593861e-04f,-4.89575304e-02f,
+1.37398243e-01f,+1.35380417e-01f,+2.72252291e-01f,-6.18916638e-02f,+1.41375065e-01f,
+2.44430900e-01f,-2.73825139e-01f,-2.97828496e-01f,-4.73008528e-02f,+5.92617206e-02f,
+3.32760841e-01f,+1.13501482e-01f,-2.60317355e-01f,-1.42616376e-01f,+3.94876957e-01f,
+2.45080546e-01f,+5.32739833e-02f,+2.16846973e-01f,+1.52579248e-01f,+1.25719786e-01f,
-1.37004867e-01f,+1.81787938e-01f,-6.46980479e-02f,+1.01711579e-01f,+1.63550138e-01f,
-3.12224150e-01f,-1.42601028e-01f,+5.02512977e-02f,+9.23090428e-02f,+1.47997364e-01f,
+8.28010887e-02f,+1.72060847e-01f,+1.78443015e-01f,-2.10544840e-01f,-1.99664295e-01f,
+6.84520463e-03f,+4.19148728e-02f,+1.12552062e-01f,+1.61889717e-02f,-9.53500792e-02f,
+5.91641478e-02f,+2.41041020e-01f,+2.64638215e-02f,-4.48996983e-02f,+1.06227890e-01f,
+7.75004625e-02f,-1.57250330e-01f,+1.40537806e-02f,+2.85993576e-01f,+2.13045329e-01f,
+3.64385135e-02f,+4.54181619e-02f,+3.65399872e-03f,-2.16314197e-01f,+2.12559685e-01f,
-4.22217790e-03f,+8.92956033e-02f,+1.70393482e-01f,+3.70079800e-02f,-4.84934561e-02f,
-1.09210730e-01f,-2.47736707e-01f,-4.36367579e-02f,+3.80571783e-02f,-2.11442828e-01f,
+1.92429975e-01f,+4.75193784e-02f,+3.27382945e-02f,+2.53706813e-01f,-1.70137003e-01f,
+4.05804962e-02f,-8.07980448e-02f,+1.72880217e-01f,+4.82647978e-02f,+8.57182518e-02f,
-1.18528537e-01f,-1.22098327e-02f,+3.40023041e-02f,-1.01244822e-01f,-1.60273984e-01f,
-4.55635004e-02f,-1.84659570e-01f,-7.21409023e-02f,-1.29877210e-01f,-7.52540752e-02f,
+9.92095098e-02f,+1.77751750e-01f,+2.16399193e-01f,+1.39425531e-01f,-5.60446717e-02f,
+2.27866471e-01f,-1.80083048e-02f,-8.81353468e-02f,-2.62294918e-01f,-1.44708574e-01f,
-5.54026663e-02f,+3.25839579e-01f,+1.05056409e-02f,+2.60074019e-01f,+4.36389036e-02f,
-7.58176818e-02f,+1.78821445e-01f,+2.99335450e-01f,-2.14037761e-01f,+1.50251269e-01f,
+1.21170737e-01f,+1.21557482e-01f,-1.19470984e-01f,-3.01222831e-01f,-4.61994037e-02f,
+8.96618813e-02f,-2.11508740e-02f,+8.27234611e-02f,+3.88242491e-02f,+1.92314610e-02f,
-1.55383125e-02f,-3.25970173e-01f,-1.10172890e-01f,+2.10625455e-02f,+2.48624027e-01f,
+7.35964701e-02f,+3.05545069e-02f,+1.23144321e-01f,+2.01665804e-01f,+1.07727878e-01f,
+1.00099877e-01f,+1.66246742e-02f,-1.14058204e-01f,+1.90138705e-02f,+6.06804639e-02f,
+3.83543283e-01f,-4.27218042e-02f,+3.16730052e-01f,+1.19546659e-01f,+1.89898983e-01f,
-3.38950783e-01f,+1.81040913e-01f,-7.16183335e-02f,-2.53086329e-01f,-5.80749810e-02f,
+1.67603139e-02f,+9.93705094e-02f,+2.41698716e-02f,+2.40901455e-01f,+1.20646872e-01f,
+1.62738219e-01f,-3.02754994e-02f,+2.58104980e-01f,+1.83131769e-01f,-1.21372208e-01f,
-1.91467628e-02f,+4.02627021e-01f,-2.61638701e-01f,+2.33152479e-01f,-4.27455530e-02f,
-4.78720926e-02f,+1.03774555e-01f,+8.74763448e-03f,-1.57325994e-03f,-8.89915898e-02f,
+2.44286180e-01f,+3.66966166e-02f,-5.49732475e-03f,-1.65578146e-02f,+2.53247526e-02f,
+2.16174841e-01f,-5.80568127e-02f,+1.04538165e-01f,+9.31479856e-02f,+4.68862414e-01f,
+1.39398957e-02f,-3.61500977e-04f,+1.70240492e-01f,-5.54420725e-02f,+7.57631585e-02f,
+3.15948464e-02f,+1.88740462e-01f,+1.35433003e-01f,+6.18445687e-02f,+6.31602257e-02f,
-1.45310536e-01f,+6.89288899e-02f,-1.19388411e-02f,+1.36551991e-01f,+1.26924053e-01f,
+2.71181427e-02f,+1.40647277e-01f,-1.23473190e-01f,-6.49282476e-03f,-1.54825211e-01f,
+1.63523242e-01f,-6.75990283e-02f,-3.93867105e-01f,-1.71223432e-02f,+1.51302934e-01f,
-5.36631420e-02f,+3.03419292e-01f,+2.56207157e-02f,-1.76090702e-01f,-4.92575206e-02f,
-4.27274369e-02f,+5.81795610e-02f,+2.16333479e-01f,+1.89479649e-01f,-1.42867953e-01f,
+7.64719397e-02f,-1.49945542e-01f,+1.43183470e-01f,+1.27129570e-01f,+1.33134946e-02f,
-2.03469232e-01f,+7.66008869e-02f,-3.30370367e-01f,-1.63733244e-01f,+3.22768003e-01f,
+1.58275273e-02f,+1.54146552e-01f,-6.42160699e-02f,-1.85931668e-01f,+7.24259615e-02f,
+2.39977792e-01f,+3.10361266e-01f,+2.42257461e-01f,-1.00279294e-01f,-5.57709560e-02f,
+7.46628968e-04f,+3.25913616e-02f,+1.17069028e-01f,-1.26072615e-01f,-2.69238979e-01f,
+2.19280735e-01f,+1.84773549e-01f,-5.34288511e-02f,-2.60911584e-02f,+5.01191057e-02f,
+1.74944445e-01f,+2.82362014e-01f,+6.85563609e-02f,+1.64557293e-01f,+2.83604324e-01f,
+1.01347931e-01f,-5.85476831e-02f,-1.96394324e-03f,-6.45771902e-03f,+7.19721988e-02f,
+2.98681334e-02f,+2.95255870e-01f,+1.41131565e-01f,-5.60304262e-02f,+5.39230183e-02f,
+9.05023441e-02f,-1.11465849e-01f,+5.68267889e-02f,+1.22023739e-01f,+3.00923130e-03f,
-3.08759511e-02f,-2.96047027e-03f,+2.14487523e-01f,-8.45645890e-02f,-2.09406152e-01f,
+1.87508725e-02f,-8.79878327e-02f,-9.00733843e-02f,+1.47172391e-01f,+2.34160703e-02f,
-1.61227677e-02f,-6.82088584e-02f,-1.10064566e-01f,-1.04769811e-01f,+1.00066908e-01f,
+7.94188455e-02f,+3.01033445e-02f,-7.11872354e-02f,-5.36275916e-02f,+3.15014124e-02f,
+1.52604297e-01f,+2.04605795e-02f,-8.43075514e-02f,+2.97154218e-01f,-2.45136261e-01f,
-1.17998719e-01f,+3.23726237e-01f,-2.41764173e-01f,+5.94745912e-02f,-1.14830956e-01f,
+2.96650141e-01f,-4.18289825e-02f,+1.40192091e-01f,+3.89578864e-02f,-2.77840663e-02f,
+4.60570715e-02f,+2.12124974e-01f,+2.02477023e-01f,-3.84283781e-01f,+1.96816530e-02f,
-1.29239127e-01f,-6.54084161e-02f,+1.85595915e-01f,+2.73838252e-01f,-6.35801628e-02f,
-9.34489518e-02f,+7.40768909e-02f,-2.67043918e-01f,-2.65726477e-01f,+4.21235971e-02f,
-1.83458269e-01f,-1.51471674e-01f,+1.52569011e-01f,+3.32891345e-02f,-4.12224904e-02f,
-3.74231227e-02f,+1.22397698e-01f,+1.01623207e-01f,+6.85328692e-02f,-3.24379295e-01f,
-3.36646020e-01f,-2.04542756e-01f,-6.09178795e-03f,+2.25113481e-01f,-1.17918439e-01f,
-3.83834578e-02f,-2.25667670e-01f,-5.10861464e-02f,+1.93891171e-02f,-1.35865003e-01f,
+6.96956664e-02f,-3.19533139e-01f,-1.78500339e-01f,-2.53844082e-01f,-4.22244780e-02f,
-2.17945259e-02f,+1.56955808e-01f,+1.30123168e-01f,+3.66341054e-01f,+1.23826921e-01f,
+1.40956253e-01f,+1.84411377e-01f,+1.90614820e-01f,-1.63552955e-01f,-1.73283145e-01f,
+1.62229374e-01f,+2.30646312e-01f,+1.87018380e-01f,-4.43966053e-02f,-7.01173916e-02f,
-2.28426442e-01f,-2.52767280e-02f,-4.56508473e-02f,-4.16984409e-01f,-3.57792556e-01f,
-5.63780852e-02f,+2.44895548e-01f,+8.58789831e-02f,-7.75755420e-02f,+1.58646218e-02f,
-3.54797463e-04f,-8.25621933e-02f,+1.87224850e-01f,-7.43342787e-02f,+1.34906992e-01f,
-2.60505348e-01f,-1.65649682e-01f,-4.38384563e-02f,+6.98446631e-02f,-1.33095793e-02f,
+7.65700713e-02f,-6.46875873e-02f,+4.82620634e-02f,+2.36954704e-01f,-1.31893542e-03f,
-1.35207504e-01f,+5.04687689e-02f,+2.67401733e-03f,-6.15811162e-02f,-4.19166028e-01f,
-2.00284615e-01f,-3.54981683e-02f,+3.16913128e-01f,+3.65887851e-01f,+5.61987795e-03f,
+2.71872580e-01f,-2.58169949e-01f,+7.87826478e-02f,-3.35233152e-01f,+2.62385219e-01f,
+4.82548237e-01f,+3.49736184e-01f,-3.41143936e-01f,+2.64471740e-01f,+7.41166621e-02f,
+2.78808564e-01f,-1.96306616e-01f,+2.49998942e-01f,+3.44494730e-01f,+1.02647476e-01f,
-1.55112508e-03f,+1.54606402e-01f,+2.44723529e-01f,+4.42814128e-03f,+3.07366759e-01f,
-3.49110290e-02f,+1.08237900e-01f,+2.26469357e-02f,+7.94667453e-02f,+2.25491539e-01f,
-6.03846461e-02f,+1.57994106e-01f,+1.85682461e-01f,-2.99673397e-02f,-2.97935039e-01f,
-2.13230208e-01f,-2.99519524e-02f,+1.56262629e-02f,+1.98494300e-01f,+1.48920119e-01f,
-3.42697740e-01f,-3.39665636e-02f,+1.51302572e-02f,-1.19875250e-02f,+1.60397992e-01f,
-1.12062916e-01f,+5.67407459e-02f,-9.53880176e-02f,-9.17658135e-02f,-1.03084564e-01f,
-3.79216105e-01f,-4.23231095e-01f,+3.68907191e-02f,+4.09365371e-02f,-2.57593960e-01f,
-5.59320986e-01f,+2.94991076e-01f,+2.02039689e-01f,+1.30613804e-01f,-1.16535030e-01f,
-8.60467032e-02f,-6.29022494e-02f,-3.05843592e-01f,+2.79373620e-02f,+2.23386893e-03f,
-1.45333469e-01f,+1.89374819e-01f,-2.43684143e-01f,-8.48616958e-02f,-1.84535608e-01f,
+5.35178632e-02f,-1.85105339e-01f,-1.86845493e-02f,-2.37389073e-01f,-5.26270531e-02f,
+2.13805780e-01f,+5.00681140e-02f,+1.39550015e-01f,+1.21406212e-01f,-1.10272229e-01f,
+7.31207952e-02f,+3.39933246e-01f,-2.05274858e-02f,-1.04944922e-01f,-2.88665518e-02f,
-2.89180093e-02f,+1.64070755e-01f,+2.32372150e-01f,-1.39863208e-01f,+1.96836844e-01f,
-2.31525698e-03f,+7.86169171e-02f,-2.37131462e-01f,-6.81366399e-02f,-1.53121380e-02f,
-2.72924025e-02f,-1.17153905e-01f,-2.54759956e-02f,-3.51846255e-02f,-5.64658582e-01f,
-2.19738603e-01f,+1.31408960e-01f,+5.99904321e-02f,+2.57328860e-02f,+2.76472121e-01f,
+9.96330101e-03f,+6.07776595e-03f,-1.51683716e-02f,-9.17461514e-03f,+1.32829964e-01f,
+1.96505293e-01f,+1.89149469e-01f,+1.89990863e-01f,-8.63546729e-02f,+3.92068103e-02f,
-9.87989828e-03f,+3.86863872e-02f,-8.02010596e-02f,-1.76471710e-01f,-1.89429641e-01f,
+4.80405241e-01f,-1.99467942e-01f,-4.36928093e-01f,-1.03643410e-01f,-9.96705443e-02f,
-1.74290631e-02f,-8.54900572e-03f,-1.27875730e-01f,-2.70244554e-02f,+1.19533911e-01f,
-2.57819444e-01f,+1.22402415e-01f,+1.76916227e-01f,+1.20001370e-02f,+1.18333489e-01f,
-5.39179370e-02f,-2.39769593e-01f,+1.08960241e-01f,+3.37453455e-01f,+6.63553774e-02f,
+4.88193221e-02f,+1.06178604e-01f,+2.33089596e-01f,-1.81555763e-01f,-5.88566251e-02f,
+1.14355803e-01f,+8.85919854e-02f,-2.95939237e-01f,+7.30475113e-02f,+5.22157224e-03f,
+2.75203496e-01f,-1.95172310e-01f,+4.18618880e-02f,+1.90361738e-01f,+2.60453369e-03f,
+2.37360150e-02f,-2.22094551e-01f,+2.44366616e-01f,+3.21262330e-02f,+1.46233112e-01f,
+1.01589397e-01f,-8.96348283e-02f,+2.71332506e-02f,+1.69691324e-01f,-1.04054853e-01f,
+1.76963657e-01f,+2.07778644e-02f,+5.42098954e-02f,+1.67334542e-01f,+1.53542325e-01f,
-2.20486328e-01f,+1.95015669e-01f,+1.15265280e-01f,+5.35818525e-02f,+3.64666522e-01f,
+7.48394430e-02f,+6.98532611e-02f,+1.50066361e-01f,+2.78031737e-01f,-2.14492261e-01f,
-2.41901070e-01f,+9.13129300e-02f,-2.57958263e-01f,+1.46031156e-01f,+1.62711263e-01f,
+3.14968169e-01f,+3.63861467e-03f,+6.27692267e-02f,-1.04377918e-01f,+2.25426510e-01f,
-8.60608816e-02f,-1.18706033e-01f,+6.40998175e-03f,+1.33307010e-01f,+3.61193754e-02f,
+1.62010014e-01f,-8.26175809e-02f,+2.51655336e-02f,-1.25970691e-01f,-9.45436507e-02f,
-1.66542605e-01f,+1.38477087e-01f,-8.26285481e-02f,-1.81268036e-01f,+1.06888875e-01f,
-2.81978212e-03f,+2.89714783e-01f,+1.23162992e-01f,-9.56265107e-02f,+1.03450127e-01f,
-9.71700251e-02f,+4.03716676e-02f,+1.15825340e-01f,+2.35247120e-01f,+6.15496226e-02f,
+1.44201681e-01f,-2.16228783e-01f,+5.26796579e-02f,-2.51850456e-01f,-1.55297190e-01f,
-6.75446168e-02f,-1.32570773e-01f,+8.91015008e-02f,+1.33258492e-01f,-3.24072659e-01f,
-2.13743240e-01f,+1.86394621e-02f,-1.05982862e-01f,-2.93711033e-02f,+4.63102106e-03f,
-8.44897982e-03f,+3.45920660e-02f,-3.12403262e-01f,-5.75701147e-02f,-7.21589997e-02f,
+2.48547301e-01f,-9.30072963e-02f,+9.37714577e-02f,-1.73020586e-01f,+1.95495505e-02f,
+1.01044327e-01f,-2.11849481e-01f,-1.13728503e-02f,-9.99035430e-04f,+7.83507526e-02f,
-8.49539712e-02f,+1.68816507e-01f,-3.18894595e-01f,-2.59853769e-02f,+1.54581545e-02f,
+5.06308116e-02f,-3.99404652e-02f,+1.47043273e-01f,-8.32209885e-02f,-4.06434089e-02f,
-2.94355322e-02f,-3.17488313e-02f,-2.92947590e-01f,+1.05303019e-01f,+1.76119000e-01f,
+1.98463529e-01f,+1.27040833e-01f,-2.88179517e-01f,-2.07079891e-02f,+1.98019579e-01f,
-1.44534886e-01f,+8.19520727e-02f,+5.26258834e-02f,+1.57890156e-01f,-9.65644047e-02f,
-2.71968782e-01f,+1.86216131e-01f,+2.90053725e-01f,-4.36840404e-04f,-1.35139048e-01f,
-2.42536128e-01f,+5.19011952e-02f,+3.28410834e-01f,+1.32700548e-01f,+4.55724522e-02f,
-3.14883620e-01f,+5.57058044e-02f,+1.68534607e-01f,+6.05801903e-02f,-9.50391069e-02f,
-9.08600092e-02f,+1.24047160e-01f,+2.51322120e-01f,+7.29258657e-02f,-3.71088028e-01f,
-2.15967909e-01f,-3.81742567e-02f,+1.10163845e-01f,+2.00828969e-01f,-7.25383461e-02f,
+1.12815022e-01f,+2.68580288e-01f,-3.69133949e-01f,-3.19128856e-02f,-3.41036886e-01f,
+1.88115939e-01f,-3.05286366e-02f,+1.09628499e-01f,+6.14743717e-02f,+8.88088271e-02f,
+3.08638066e-01f,-3.60241294e-01f,+2.45612398e-01f,+1.13019943e-01f,-7.40342140e-02f,
+1.84267640e-01f,-1.33486753e-02f,-3.26294936e-02f,-2.09297761e-01f,-1.60864994e-01f,
-7.22618401e-02f,+4.59312052e-02f,+8.52965098e-03f,-1.63060263e-01f,-9.35143530e-02f,
-7.90764987e-02f,-4.67277139e-01f,+1.16882004e-01f,-1.29955068e-01f,-1.43419832e-01f,
+3.99687625e-02f,+6.18207594e-03f,+3.15741152e-01f,-7.15171471e-02f,-6.73165470e-02f,
-1.60683915e-01f,+1.99808389e-01f,+1.64064035e-01f,+6.91953748e-02f,-1.56345107e-02f,
-3.17524284e-01f,+4.66721088e-01f,-3.54571156e-02f,+3.86127442e-01f,-5.61199943e-03f,
-5.93585670e-02f,+1.86048821e-01f,-3.45602483e-01f,-1.10924058e-02f,+2.95314908e-01f,
+2.16364022e-02f,+2.02039540e-01f,+1.06456503e-01f,-2.56019775e-02f,-8.22697654e-02f,
-4.44500327e-01f,+7.66186416e-02f,+3.53411973e-01f,+1.78848952e-02f,+9.08622891e-02f,
+1.55040443e-01f,-1.95994496e-01f,-3.72490764e-01f,-1.02863513e-01f,+1.26094669e-01f,
+2.81319357e-02f,+8.20558667e-02f,-1.72633156e-01f,-1.10234477e-01f,-1.34040534e-01f,
-7.32461587e-02f,+3.05974465e-02f,+2.32366491e-02f,-3.20804536e-01f,+1.43953666e-01f,
+8.48506540e-02f,+6.97273389e-02f,+1.26360193e-01f,+2.38545928e-02f,+2.80426405e-02f,
+1.88465893e-01f,-3.53849769e-01f,+9.76820663e-02f,-5.51647954e-02f,+1.43930048e-01f,
+1.17344797e-01f,+1.91729128e-01f,-4.10787612e-01f,+9.30526406e-02f,+1.12582155e-01f,
-1.70191023e-02f,-1.17487840e-01f,+4.13955092e-01f,+3.97904776e-04f,+1.77316725e-01f,
-1.00243106e-01f,+1.25456765e-01f,+2.80355304e-01f,+3.44606876e-01f,+1.40767664e-01f,
+2.36957595e-01f,+1.86764732e-01f,+2.76996940e-01f,+8.03243294e-02f,-2.35890955e-01f,
-9.13285539e-02f,-8.45502540e-02f,-1.92796618e-01f,-1.28685251e-01f,-2.89692674e-02f,
-1.22862823e-01f,-3.28986257e-01f,-1.22468129e-01f,+1.72655415e-02f,+5.97730279e-02f,
+1.08670548e-01f,-1.96982250e-01f,-2.43838262e-02f,+1.82582457e-02f,-1.79240838e-01f,
+2.01358125e-01f,-6.57873228e-02f,+1.64535403e-01f,-8.54755118e-02f,-1.21137626e-01f,
+7.89743289e-02f,-1.65849645e-02f,-1.33914324e-02f,+1.78203195e-01f,-6.96493238e-02f,
+2.00590447e-01f,+9.81035158e-02f,+4.03479114e-02f,+1.66749313e-01f,-3.09684604e-01f,
+2.52756476e-01f,-5.52505016e-01f,-2.88373172e-01f,-3.66730243e-01f,-1.74746692e-01f,
-1.87712133e-01f,+2.06940204e-01f,+9.62716714e-02f,-1.60866365e-01f,+1.49465188e-01f,
-2.44053513e-01f,+1.07909165e-01f,-1.77542418e-01f,+5.32905996e-01f,+3.88497561e-01f,
+2.95214325e-01f,+3.37777734e-01f,+2.54182577e-01f,-1.57445848e-01f,+1.30213425e-01f,
-2.87618432e-02f,+9.80089232e-03f,-2.41394952e-01f,-1.58723563e-01f,+1.94304928e-01f,
-1.66713178e-01f,+6.44698963e-02f,+8.11697915e-02f,+1.96330413e-01f,-2.87708975e-02f,
-2.57244736e-01f,-1.92786958e-02f,-2.71594554e-01f,+5.60065880e-02f,+4.56611067e-01f,
+5.70371151e-02f,-3.67991105e-02f,+1.32106110e-01f,+1.68086588e-01f,+1.16046175e-01f,
-8.52116570e-02f,+1.77348658e-01f,+4.03469466e-02f,+8.44153613e-02f,-1.39553189e-01f,
-1.39225230e-01f,-3.32654178e-01f,+1.31298915e-01f,+1.39680281e-02f,+3.00254411e-04f,
+3.00602257e-01f,-3.59794021e-01f,+2.17434093e-01f,-5.76853678e-02f,-7.38980621e-02f,
+3.79779972e-02f,+7.15385899e-02f,+6.86599612e-02f,-2.20369734e-02f,+1.97845235e-01f,
-3.50218743e-01f,+1.28481999e-01f,+1.63281038e-01f,-1.00777932e-01f,+2.18122780e-01f,
+1.22580491e-01f,+1.59164742e-01f,-8.94617587e-02f,-2.16956705e-01f,+5.76933613e-03f,
-1.32877603e-01f,+3.44367325e-02f,-1.42046928e-01f,+8.02947581e-02f,+6.71929270e-02f,
+1.61561593e-01f,-4.46226746e-02f,-2.86455959e-01f,+1.03181981e-01f,-1.54425591e-01f,
+2.08510794e-02f,+8.51849839e-02f,+5.33940457e-02f,-6.51724637e-03f,-1.15009785e-01f,
+2.40264401e-01f,-7.09543303e-02f,+3.19994479e-01f,+1.14916682e-01f,-2.01274529e-01f,
+1.43886536e-01f,-8.44367519e-02f,+2.13080168e-01f,+1.20880917e-01f,+1.16589576e-01f,
-8.77354220e-02f,-3.77577394e-01f,+3.15480500e-01f,+1.17289037e-01f,+2.52584457e-01f,
-1.26860619e-01f,+1.41032174e-01f,-1.37216493e-01f,+2.40592167e-01f,+1.91394170e-03f,
+2.34567851e-01f,+4.76655141e-02f,-2.03301474e-01f,+2.71604002e-01f,+1.43364504e-01f,
+5.38438678e-01f,-9.64754373e-02f,-6.76382855e-02f,-4.50002477e-02f,+3.63661855e-01f,
-3.29099357e-01f,+2.56563306e-01f,+8.05739164e-02f,+1.62119746e-01f,-1.76299810e-01f,
+1.27987385e-01f,+1.57013550e-01f,-4.06649262e-02f,-1.63643718e-01f,+4.09384638e-01f,
+1.17930152e-01f,-2.98192948e-02f,+1.95864469e-01f,-1.19723968e-01f,-3.85835350e-01f,
+5.76102510e-02f,-2.70440783e-02f,+6.46213666e-02f,+5.40602580e-02f,+4.30726930e-02f,
+4.44910005e-02f,-1.14230312e-01f,+4.70645130e-01f,+9.00033638e-02f,-5.08614555e-02f,
+1.96438849e-01f,+1.61823168e-01f,+1.88236609e-01f,+9.99437273e-02f,-1.35391608e-01f,
+1.87865242e-01f,+1.44848615e-01f,+6.21375255e-02f,+1.63394168e-01f,+7.46051967e-02f,
+1.73389643e-01f,+2.13289648e-01f,+1.80629436e-02f,+3.67883854e-02f,-2.50779361e-01f,
-1.74071476e-01f,-8.16770867e-02f,-1.27321392e-01f,-3.85506004e-02f,+1.63391054e-01f,
+3.18216197e-02f,+2.23103642e-01f,+7.33559206e-03f,-1.12236246e-01f,+2.86436826e-01f,
-7.36518204e-02f,-2.09805593e-01f,-2.18081679e-02f,+5.33758886e-02f,+3.48296434e-01f,
-1.64906055e-01f,-4.65419330e-02f,-1.58910435e-02f,+1.89700559e-01f,+1.05465256e-01f,
-2.42567658e-02f,+1.03526346e-01f,+2.05715243e-02f,-4.07891907e-02f,+2.06361651e-01f,
+8.01873133e-02f,+2.00520262e-01f,+6.08760342e-02f,+2.23015711e-01f,+2.27096036e-01f,
-1.33164898e-01f,-2.54976362e-01f,+4.32176478e-02f,-6.41593486e-02f,+1.49207925e-02f,
+3.43990289e-02f,+1.17160954e-01f,-1.53612271e-01f,+2.76195198e-01f,+1.15478747e-01f,
+1.27806962e-01f,-3.85799110e-02f,-2.46392667e-01f,-9.46897939e-02f,+3.17412093e-02f,
+1.39011005e-02f,-1.22085780e-01f,-2.26846278e-01f,-1.42899781e-01f,-6.76804855e-02f,
-3.37071836e-01f,-1.09592445e-01f,+9.58484858e-02f,+1.75471410e-01f,+2.46265203e-01f,
+4.62069064e-02f,-2.34271213e-01f,+5.46313003e-02f,+1.20823747e-02f,+1.03229105e-01f,
+8.68506357e-02f,+1.03268214e-01f,-1.04252405e-01f,+2.57620476e-02f,+1.17364950e-01f,
-1.66821629e-01f,-7.71034360e-02f,+4.34903502e-01f,+2.34335408e-01f,+2.65376419e-01f,
-7.22910166e-02f,+4.11920995e-01f,-1.09216133e-02f,+1.82686970e-01f,+2.60958105e-01f,
-9.12103727e-02f,+4.60454635e-02f,-7.22507462e-02f,+2.52217174e-01f,-1.44925006e-02f,
-2.08048597e-01f,-7.91421533e-02f,+9.56580713e-02f,+3.76768321e-01f,-4.04287279e-02f,
+4.29876894e-01f,-1.64086163e-01f,+1.76687147e-02f,+1.00435041e-01f,+3.41208428e-01f,
+8.03267732e-02f,-9.72695127e-02f,-3.59193683e-02f,+1.88235030e-01f,-1.57145821e-02f,
+2.32684702e-01f,-7.64512718e-02f,+1.66843906e-01f,+6.29573688e-02f,-1.35145620e-01f,
+2.13795062e-02f,+6.19282648e-02f,+2.56993264e-01f,-2.70876586e-01f,+9.07365009e-02f,
+2.54762590e-01f,+4.00845557e-02f,+2.30056141e-02f,+4.64451462e-02f,-1.44021183e-01f,
-1.02474213e-01f,+1.98499203e-01f,-1.87787831e-01f,-9.20538008e-02f,+2.74267137e-01f,
+1.23221472e-01f,-4.76031601e-02f,+1.41138285e-01f,-2.33665723e-02f,+1.16780668e-01f,
-9.45986211e-02f,+1.12355286e-02f,-2.01850876e-01f,+1.98538788e-02f,-6.22507781e-02f,
+2.84257472e-01f,-3.41545455e-02f,+1.71587437e-01f,-1.07503682e-01f,-8.61019865e-02f,
-2.17859700e-01f,+2.33842120e-01f,-1.03020161e-01f,+5.14204055e-02f,+1.25525251e-01f,
+3.01111750e-02f,+9.16094258e-02f,+2.93350458e-01f,-2.13195369e-01f,-2.83033431e-01f,
+2.87737221e-01f,-1.02882959e-01f,+8.85123536e-02f,-2.15638548e-01f,+6.22197241e-02f,
+3.77542973e-01f,-7.25564882e-02f,+1.12702779e-01f,+1.45003289e-01f,-2.61407405e-01f,
+1.06819235e-01f,-4.88079600e-02f,-1.58053786e-01f,-3.88354175e-02f,+6.04188405e-02f,
-1.50523797e-01f,-4.27072030e-03f,-1.46293879e-01f,+1.37309909e-01f,+1.33709013e-01f,
-2.02812664e-02f,-2.10223958e-01f,+7.28505477e-02f,-3.36279333e-01f,+3.28033626e-01f,
-8.30087718e-03f,+2.81860411e-01f,+2.81658620e-01f,-1.13438115e-01f,-4.47473563e-02f,
+1.20842099e-01f,+1.78240314e-01f,+4.51886088e-01f,+3.08011204e-01f,-8.28893483e-02f,
+6.82837665e-02f,+2.80359834e-01f,+2.02179715e-01f,+7.88463876e-02f,-9.53997821e-02f,
-3.19503807e-03f,+9.80133042e-02f,-1.14751998e-02f,+4.19636965e-01f,+5.08234166e-02f,
-2.46304329e-02f,+5.76999784e-02f,+2.62049764e-01f,-1.77038521e-01f,+2.27235332e-01f,
+7.34382942e-02f,-1.62578672e-01f,-4.86632250e-02f,-3.56301628e-02f,-7.44375810e-02f,
+6.66631237e-02f,+1.21784545e-01f,+6.94743469e-02f,-5.34344604e-03f,+2.77723700e-01f,
-1.97038710e-01f,+2.79975444e-01f,-8.40259045e-02f,-6.49289042e-02f,-8.22339430e-02f,
+9.04961973e-02f,-2.43385062e-01f,+1.52812466e-01f,+6.89741373e-02f,-2.01499462e-01f,
-2.29140595e-02f,+1.00685976e-01f,-1.61497727e-01f,-6.82202950e-02f,+1.06028430e-01f,
-7.59697407e-02f,-3.74927700e-01f,+1.05169162e-01f,+1.51373371e-01f,+5.85116521e-02f,
+3.96781504e-01f,+3.09829205e-01f,-1.49432078e-01f,+4.98632938e-02f,+1.19305722e-01f,
+4.10420354e-03f,+9.46238786e-02f,+2.38943268e-02f,-1.12256110e-01f,+1.24089412e-01f,
+2.05376372e-01f,+2.33925536e-01f,+5.79715014e-01f,-9.78627130e-02f,-1.39584795e-01f,
-6.40271008e-02f,-1.32640544e-02f,+5.12748808e-02f,-6.92786230e-03f,+3.77948657e-02f,
+8.12792256e-02f,+2.43586481e-01f,+2.12520197e-01f,+2.23581046e-02f,-3.08243111e-02f,
+1.38974369e-01f,-1.05254121e-01f,+1.67865068e-01f,+8.91465694e-02f,-1.32650480e-01f,
+1.58263922e-01f,-1.96078554e-01f,+1.62099391e-01f,-3.39692868e-02f,+4.80312742e-02f,
-3.84038500e-02f,+2.25478292e-01f,-2.80966729e-01f,+2.63253868e-01f,-7.86260609e-03f,
-1.57310337e-01f,+9.37485769e-02f,+8.03065747e-02f,-1.35003760e-01f,+2.01248839e-01f,
+3.92219752e-01f,-2.13486508e-01f,-1.15086930e-02f,-1.06460918e-02f,+2.47334987e-01f,
-2.38187052e-02f,+7.41764680e-02f,-2.33984649e-01f,-1.34559825e-01f,+2.13617563e-01f,
+2.03836471e-01f,+2.54754037e-01f,-2.81281322e-01f,+9.94210020e-02f,-1.26759470e-01f,
+1.59001231e-01f,+3.31154704e-01f,+3.97248834e-01f,-2.05233216e-01f,+2.00363010e-01f,
+3.36252595e-03f,+3.22734900e-02f,+1.61870211e-01f,+2.16035232e-01f,-1.81585386e-01f,
+7.03801811e-02f,-4.34437068e-03f,+3.45810115e-01f,-7.35046491e-02f,-1.87863126e-01f,
+8.25155452e-02f,-1.83736496e-02f,+3.22814682e-03f,+1.25054643e-01f,+1.23791322e-01f,
-2.82196105e-02f,-7.53755867e-02f,+2.63129294e-01f,-1.16063572e-01f,+3.03940270e-02f,
+1.23005554e-01f,-1.27612501e-02f,-8.31321403e-02f,-6.74480572e-02f,-1.88898176e-01f,
+1.62179284e-02f,+3.85283791e-02f,+1.24615487e-02f,-9.24261212e-02f,+2.33369783e-01f,
-1.25773311e-01f,+1.43490687e-01f,-7.20973909e-02f,+3.89576368e-02f,+9.19014812e-02f,
-1.41603351e-01f,+1.56323779e-02f,-4.45372202e-02f,+2.90795171e-04f,+1.07950017e-01f,
+1.09206676e-01f,-1.35539323e-01f,+5.69572411e-02f,+1.76465765e-01f,-2.61070818e-01f,
-8.27897191e-02f,-1.42563581e-01f,+4.37336683e-01f,+5.93631994e-03f,+1.92072570e-01f,
-2.16462970e-01f,+2.39453048e-01f,-1.32557482e-01f,-1.80922508e-01f,-1.67609930e-01f,
-1.92375749e-01f,-2.13529885e-01f,+2.65709937e-01f,+1.75892487e-01f,-1.81634761e-02f,
-4.96872663e-01f,-4.29031067e-02f,-1.00460701e-01f,-1.48784161e-01f,-6.07951693e-02f,
+1.66039050e-01f,-7.75073320e-02f,-2.23902717e-01f,+1.30778894e-01f,-1.64846331e-02f,
-6.55470509e-03f,+9.20571089e-02f,-4.67158994e-03f,-6.73526004e-02f,-1.80564880e-01f,
+2.63364285e-01f,+2.16530859e-01f,-1.95428595e-01f,-3.53492722e-02f,-2.38436386e-02f,
-3.22033644e-01f,+4.55259159e-02f,+3.45070325e-02f,-8.08085203e-02f,-4.55515087e-03f,
+1.48516120e-02f,-1.39106438e-01f,-1.81491241e-01f,-7.08804280e-03f,+8.34075436e-02f,
+5.88720515e-02f,+1.21986173e-01f,-2.34855860e-01f,+5.71870152e-03f,+5.32893576e-02f,
+2.27244981e-02f,+9.74501148e-02f,+5.59488535e-02f,-1.05167836e-01f,+1.73507616e-01f,
+6.93785846e-02f,+1.59918740e-01f,-6.12210631e-02f,+1.22501045e-01f,-9.19020399e-02f,
-3.46628785e-01f,+1.00137964e-01f,-1.59373507e-01f,+3.31990391e-01f,-9.25484896e-02f,
-3.36920582e-02f,-1.31293219e-02f,+9.32445750e-02f,-9.32121947e-02f,-3.01720016e-02f,
+1.71681523e-01f,+1.39060453e-01f,-1.76006556e-01f,+7.67373145e-02f,-3.64581406e-01f,
-7.69646978e-03f,-1.07447408e-01f,+2.32199579e-01f,-6.68300316e-02f,-2.74238735e-01f,
+1.29093409e-01f,-3.21280420e-01f,-1.74014539e-01f,+2.85670578e-01f,-8.86763036e-02f,
+3.44451182e-02f,-9.43446830e-02f,+1.70202389e-01f,-2.02133805e-02f,-1.05514117e-01f,
-1.24002118e-02f,+1.43385276e-01f,-7.85228703e-03f,-2.30298519e-01f,+1.14865489e-01f,
-3.17935765e-01f,-2.24912306e-03f,+1.21775493e-01f,+7.21157044e-02f,-1.44754633e-01f,
+8.82238150e-02f,-3.84076387e-02f,-1.11863330e-01f,-5.80141209e-02f,-2.33474180e-01f,
-9.86359492e-02f,+5.88617884e-02f,-1.93057775e-01f,+1.82878003e-01f,+3.30315769e-01f,
-1.93414390e-01f,+4.73177992e-02f,+2.73540467e-01f,+4.40935418e-02f,+2.36366857e-02f,
+1.66055392e-02f,-1.20596327e-01f,+1.21458925e-01f,+8.46595243e-02f,+3.17018449e-01f,
+8.46984386e-02f,+3.76529768e-02f,+2.17478439e-01f,+2.70437092e-01f,-1.08682983e-01f,
-1.11634895e-01f,+7.83949867e-02f,-7.95907602e-02f,-4.38944809e-02f,+7.04705790e-02f,
+4.46614698e-02f,-9.64036882e-02f,-1.33492813e-01f,-1.79650515e-01f,-2.00144257e-02f,
+1.85645614e-02f,-1.09011622e-03f,+5.70609840e-03f,-1.53671369e-01f,-2.16299966e-02f,
-2.63090990e-02f,+1.55034259e-01f,+2.07363859e-01f,+1.26992315e-01f,-4.03201699e-01f,
+2.52925366e-01f,-3.05049885e-02f,-2.61766259e-02f,+1.61302060e-01f,-9.66711342e-03f,
-4.38502096e-02f,+1.85084209e-01f,-1.30496234e-01f,-5.82425483e-02f,+1.31197309e-03f,
+1.91612169e-01f,-1.16628416e-01f,+6.35126829e-02f,+6.32778136e-03f,-1.92426875e-01f,
-2.48888761e-01f,+2.62473822e-02f,+1.71639651e-01f,-2.02546105e-01f,+3.10150012e-02f,
+3.10155243e-01f,+7.54868463e-02f,+1.46838604e-02f,+1.65350169e-01f,-2.58597285e-01f,
+4.99890838e-03f,-5.46927303e-02f,-8.47562624e-04f,-1.33850098e-01f,+3.32745224e-01f,
+1.19114645e-01f,+7.79993013e-02f,+5.65436408e-02f,+1.63382351e-01f,+2.62188837e-02f,
-4.42282222e-02f,-5.00859655e-02f,-3.20373058e-01f,+1.99666813e-01f,-9.54032969e-03f,
+6.74335659e-02f,+1.52294502e-01f,+1.71927422e-01f,+1.56927165e-02f,+6.45111725e-02f,
+1.09661989e-01f,-2.01648287e-02f,+7.44668469e-02f,+2.98519641e-01f,-1.24842264e-01f,
+2.76129454e-01f,+4.19632122e-02f,+1.99250415e-01f,+1.30321920e-01f,+2.01212689e-01f,
-3.15956362e-02f,-1.40596166e-01f,+1.51375800e-01f,-2.85338044e-01f,+6.23683855e-02f,
-1.44763216e-01f,-1.55480459e-01f,+7.73846805e-02f,+1.56991109e-01f,+1.83831751e-02f,
+2.06492767e-01f,+1.48377400e-02f,+4.55224440e-02f,+1.41451642e-01f,-1.41503736e-02f,
+1.55960187e-01f,-1.85453802e-01f,-8.73944722e-03f,+7.78325349e-02f,-1.20455928e-01f,
-5.27523421e-02f,+6.85906410e-02f,-3.70886832e-01f,+1.24563709e-01f,+1.04211815e-01f,
+1.01100542e-02f,-3.11060190e-01f,-3.88935804e-02f,-1.06571749e-01f,-1.80010796e-01f,
-8.29540268e-02f,-1.94425553e-01f,+7.34212846e-02f,-5.06607641e-04f,+2.19394162e-01f,
-1.53790310e-01f,+1.11617155e-01f,-1.06290072e-01f,+3.94926853e-02f,+4.88391146e-02f,
+6.40277043e-02f,+2.60648280e-02f,+2.03106493e-01f,+1.34038225e-01f,-9.56334993e-02f,
-1.42816544e-01f,-2.64915377e-01f,+2.03393847e-01f,-2.60765739e-02f,+5.01069985e-02f,
+6.86615407e-02f,+2.07416698e-01f,-3.15240473e-02f,+1.11164957e-01f,+1.53771088e-01f,
+1.90279149e-02f,+3.40431035e-02f,+1.89722672e-01f,-6.07333854e-02f,+1.84910759e-01f,
+1.70841232e-01f,+2.79128198e-02f,+6.16932027e-02f,-8.13915059e-02f,-1.94997743e-01f,
+2.70988345e-01f,+1.93644613e-02f,-5.80930971e-02f,-1.35888860e-01f,+5.31727262e-02f,
+6.23686984e-02f,-1.04704261e-01f,+6.88428879e-02f,+1.50793478e-01f,+1.58318430e-02f,
+1.75319895e-01f,+5.42276772e-03f,+1.51260449e-02f,+2.45347574e-01f,+7.41612986e-02f,
-1.68249235e-01f,+1.60340726e-01f,-1.22883938e-01f,+1.27073839e-01f,+1.69876274e-02f,
+3.45999599e-01f,+5.35546383e-03f,+7.68487230e-02f,-8.52723327e-03f,-2.31748372e-02f,
-5.99439442e-02f,-2.84765929e-01f,+1.62578374e-01f,-1.49529604e-02f,+1.19928783e-02f,
+3.26254666e-01f,-2.12869018e-01f,+1.61347494e-01f,-4.59185652e-02f,+8.57645720e-02f,
+1.16468959e-01f,+1.06392600e-01f,+2.07988232e-01f,+3.69281657e-02f,+4.23346758e-02f,
-5.96407661e-03f,+3.70739140e-02f,-1.49096809e-02f,-2.53972083e-01f,+1.56272590e-01f,
+1.56045899e-01f,+3.49462777e-01f,-2.57446300e-02f,-1.14098534e-01f,-1.96932331e-02f,
-1.43476743e-02f,+4.68792208e-02f,-1.39981911e-01f,+1.31590575e-01f,+1.24265544e-01f,
+2.20451310e-01f,+7.56252110e-02f,+1.34739473e-01f,+1.13410026e-01f,-4.39861678e-02f,
-6.12357259e-02f,+5.93478419e-02f,+9.22904387e-02f,-1.76053971e-01f,-1.65550560e-01f,
-8.35739523e-02f,+8.54490250e-02f,+6.42636940e-02f,+3.70588526e-02f,-2.23270655e-01f,
-1.30058557e-01f,-6.09281175e-02f,+2.60609269e-01f,+4.63749506e-02f,+9.90952998e-02f,
+9.08521712e-02f,+3.69756296e-02f,-1.21273659e-01f,-1.01153553e-01f,+2.80501217e-01f,
+8.51130411e-02f,-2.23363787e-02f,+1.12290688e-01f,+6.47992939e-02f,-5.57436086e-02f,
-1.91192493e-01f,+1.14514530e-01f,+1.99627906e-01f,+2.27744251e-01f,+2.68899024e-01f,
+5.33613749e-02f,+1.58317499e-02f,-6.82946965e-02f,-7.04154000e-02f,+3.78823169e-02f,
+8.39928985e-02f,+5.29918373e-02f,+9.49242041e-02f,-6.29744455e-02f,+7.61694536e-02f,
+1.72906756e-01f,+2.28375107e-01f,+8.83951858e-02f,-5.59366532e-02f,+1.86822921e-01f,
+3.46936673e-01f,+1.81694012e-02f,-1.35870585e-02f,-9.16775912e-02f,-4.92266305e-02f,
+2.09684834e-01f,-2.30021384e-02f,-3.22287589e-01f,+1.93471596e-01f,+8.81631393e-03f,
+2.35103488e-01f,+1.75409198e-01f,-7.99923763e-02f,-2.09481753e-02f,+4.63528559e-02f,
+1.09631069e-01f,+2.73173839e-01f,-1.49101317e-01f,+1.62219167e-01f,-1.23856112e-01f,
-1.17425852e-01f,-9.61690247e-02f,+6.04786351e-02f,+4.64019598e-03f,+2.34495848e-01f,
-6.02277145e-02f,-6.18299022e-02f,-6.60185292e-02f,+2.55724881e-02f,+1.15628026e-01f,
-1.63658559e-02f,+7.38375485e-02f,+8.39218795e-02f,+3.80403595e-03f,+2.00543687e-01f,
+1.23780079e-01f,+7.24461377e-02f,+2.66692974e-02f,+2.61525393e-01f,-1.13509245e-01f,
+2.46638581e-01f,+2.90773541e-01f,+3.14455219e-02f,-1.37419060e-01f,-9.50355977e-02f,
-1.67647470e-02f,+1.06452890e-02f,+1.32344395e-01f,+1.18567655e-02f,+1.84238672e-01f,
+1.51759982e-01f,+1.76430508e-01f,+1.07827470e-01f,-8.98947865e-02f,-8.94374847e-02f,
+1.12021886e-01f,+1.71507299e-01f,-1.81955606e-01f,+2.08445862e-01f,+7.79886078e-03f,
+1.78102255e-01f,+3.20759900e-02f,-5.19767478e-02f,-2.48987645e-01f,+2.04214305e-01f,
+1.52145103e-01f,-4.88598160e-02f,-4.14831415e-02f,-9.32214782e-02f,+2.34808862e-01f,
-6.71554066e-04f,-3.06519996e-02f,+5.77081107e-02f,-1.10269770e-01f,-1.85256958e-01f,
-1.78317316e-02f,+1.16291836e-01f,-1.16398022e-01f,-1.48229778e-01f,-1.18797254e-02f,
-1.61757231e-01f,-1.96567327e-02f,+8.62957910e-02f,-1.70566857e-01f,+4.55238856e-02f,
-1.30686760e-01f,+5.89791946e-02f,+4.66966152e-01f,-1.12970255e-01f,+4.08908725e-01f,
+8.42247531e-02f,+3.84176701e-01f,+1.40886217e-01f,-5.34695685e-02f,+5.38289808e-02f,
+6.63873553e-02f,-7.56245926e-02f,-1.46401882e-01f,+2.90789753e-01f,-1.07020222e-01f,
+3.63713726e-02f,+3.08042943e-01f,-2.19081212e-02f,+2.23738804e-01f,+1.42722845e-01f,
-4.37165163e-02f,+9.88686755e-02f,+6.53035045e-02f,-1.66995227e-02f,+9.53703595e-04f,
+2.99480110e-01f,+2.32892007e-01f,-2.01120842e-02f,-5.11047952e-02f,+4.86045554e-02f,
-3.01713627e-02f,+4.07352030e-01f,+7.84116462e-02f,+4.79649492e-02f,+5.73672820e-03f,
+4.81902510e-02f,-2.20918015e-01f,+1.52887270e-01f,+2.69827902e-01f,-2.16325700e-01f,
+2.63585657e-01f,-2.82820873e-02f,-1.70250963e-02f,-7.40837157e-02f,-1.21825919e-01f,
-2.51151919e-01f,-1.25104655e-02f,+4.48972620e-02f,+7.10945874e-02f,+8.32340419e-02f,
-1.03403226e-01f,-5.68123385e-02f,+8.70439038e-02f,+5.06153665e-05f,+1.07759982e-01f,
-5.49242534e-02f,-1.35939345e-01f,-1.70206800e-02f,-7.03131184e-02f,-5.12759611e-02f,
+6.73683584e-02f,+3.47456001e-02f,+2.31462985e-01f,+8.59051794e-02f,+1.46970749e-01f,
+2.07642242e-01f,+2.66911276e-02f,-6.74501732e-02f,-1.18583746e-01f,+1.28348500e-01f,
-1.55891493e-01f,-1.86208203e-01f,+1.65719330e-01f,+1.36910304e-01f,-3.94628458e-02f,
+5.40298402e-01f,-1.47083672e-02f,+1.60336465e-01f,+3.02984715e-01f,-3.84785861e-01f,
+9.17591527e-02f,+5.10872006e-02f,-5.75218573e-02f,+4.08010259e-02f,+4.93423603e-02f,
-1.36141106e-01f,-5.13481442e-03f,-1.14161059e-01f,+1.72597721e-01f,-7.00205192e-02f,
+1.76233366e-01f,-4.58483920e-02f,-8.67544785e-02f,+1.31507233e-01f,+1.06027596e-01f,
-8.48251358e-02f,+1.27955541e-01f,+1.38368502e-01f,-1.20609745e-01f,-4.33696397e-02f,
-1.61033452e-01f,-1.10286340e-01f,-2.87676584e-02f,+6.19962029e-02f,+8.93951878e-02f,
-1.51953593e-01f,+1.73610330e-01f,-2.34654933e-01f,+2.70346850e-01f,-1.09129265e-01f,
-9.77648124e-02f,-3.36013809e-02f,+1.04764216e-01f,+1.65666208e-01f,-2.84645427e-02f,
-1.36949867e-01f,-3.22006568e-02f,-1.31034851e-01f,-3.27975929e-01f,-1.36260927e-01f,
+7.74930464e-03f,+6.47778288e-02f,+9.01670605e-02f,+3.04181911e-02f,+6.58080056e-02f,
-3.12202219e-02f,+1.93089262e-01f,+2.29486272e-01f,+1.29797412e-02f,-1.56594604e-01f,
-2.21430466e-01f,-2.03108534e-01f,+7.76611492e-02f,-3.67380865e-02f,-6.57683983e-02f,
-9.64945555e-02f,-1.47189081e-01f,-1.87719882e-01f,-8.06069151e-02f,+1.84676647e-01f,
-4.86539900e-02f,-1.23522222e-01f,-5.27675040e-02f,-5.54681644e-02f,+1.35542840e-01f,
+2.13352758e-02f,+1.45912215e-01f,+2.54369974e-02f,-2.60898381e-01f,-2.78247744e-02f,
+1.61789302e-02f,-2.46883673e-03f,+4.94497642e-02f,+7.06859604e-02f,+1.60073817e-01f,
+2.55496740e-01f,-1.14207484e-01f,+3.53012830e-01f,-4.52732015e-03f,+8.51480663e-02f,
+1.79387763e-01f,+4.92945537e-02f,+2.40704659e-02f,+9.18389391e-03f,+2.89216578e-01f,
-2.16616720e-01f,+1.17923863e-01f,+1.96195990e-01f,+1.31103396e-01f,-4.99150939e-02f,
-2.29396913e-02f,+8.42949550e-04f,-1.09097220e-01f,+8.78488496e-02f,-9.86905023e-02f,
+8.05960447e-02f,+2.92800099e-01f,+1.00422964e-01f,+3.55954319e-01f,+1.06904976e-01f,
+1.03937890e-02f,-1.11274205e-01f,-7.94360489e-02f,+4.80470024e-02f,-1.93408206e-01f,
+2.55108118e-01f,-3.05267833e-02f,+1.51513040e-01f,+7.65946209e-02f,-7.20702112e-02f,
-9.27334651e-02f,-2.15496570e-02f,+4.37677838e-02f,+9.28832144e-02f,+2.67606378e-01f,
-3.19438845e-01f,+1.61944985e-01f,+6.17148653e-02f,+9.89912152e-02f,+1.00232195e-02f,
+1.35366127e-01f,-1.49454802e-01f,+2.11370975e-01f,+6.38242438e-03f,+8.35575759e-02f,
+3.60293360e-03f,-7.86691830e-02f,+1.07190885e-01f,+2.16642261e-01f,-1.45962490e-02f,
+7.81428665e-02f,-1.35976374e-02f,-6.19126968e-02f,+1.86879352e-01f,+5.39450534e-02f,
+1.57142133e-01f,+1.24617659e-01f,-3.83229762e-01f,-1.68077663e-01f,+1.20615311e-01f,
+3.56486678e-01f,+1.81337759e-01f,+2.45044887e-01f,+1.12826101e-01f,+8.45073685e-02f,
+2.54082531e-01f,-1.08146165e-02f,-2.55673110e-01f,-6.32445961e-02f,+3.36514488e-02f,
+3.19752574e-01f,+2.70877425e-02f,-1.23308554e-01f,-1.62471876e-01f,-2.37022489e-02f,
-7.13524967e-02f,+8.62613618e-02f,+1.71841159e-01f,+1.91721752e-01f,+1.10883124e-01f,
+1.11932099e-01f,-8.46387353e-03f,-8.89851078e-02f,+2.38928925e-02f,+1.58052519e-01f,
+1.69114217e-01f,-2.00092584e-01f,+1.87025052e-02f,+8.49707574e-02f,-6.11417480e-02f,
+1.50986714e-02f,-6.15457669e-02f,-2.13453267e-02f,-1.88358992e-01f,-1.22457698e-01f,
+1.48173258e-01f,+4.01685946e-02f,-9.62906480e-02f,+1.51308388e-01f,+1.93715781e-01f,
+7.43093044e-02f,-8.43288228e-02f,+2.27013275e-01f,+2.66472816e-01f,+4.57418889e-01f,
-2.84361374e-02f,+1.11902796e-01f,+3.70149761e-01f,+7.41195753e-02f,-2.59766459e-01f,
-6.19081222e-03f,-6.71869442e-02f,+4.62412357e-01f,-5.49289174e-02f,+7.39673823e-02f,
-1.77653939e-01f,+8.24925378e-02f,+1.06705047e-01f,+3.72278132e-02f,-2.67203301e-02f,
+9.13813263e-02f,+9.40690860e-02f,-1.64873004e-01f,-2.82333791e-02f,+2.84110963e-01f,
-9.10818875e-02f,+2.92113185e-01f,-2.33241357e-03f,-5.23740463e-02f,+1.44715562e-01f,
-1.41402677e-01f,+1.21016286e-01f,+1.22586079e-01f,+6.97635338e-02f,+2.50922710e-01f,
+5.62802181e-02f,+1.42444223e-01f,-1.94238588e-01f,+1.33020595e-01f,+1.25205696e-01f,
+8.04536231e-03f,+2.30258610e-02f,-1.24734528e-01f,+2.89562851e-01f,+8.89052288e-04f,
+4.81239334e-02f,+1.30334094e-01f,-2.29514807e-01f,+1.24623336e-01f,+1.70474306e-01f,
-1.09631352e-01f,+3.38624492e-02f,+2.05939665e-01f,-4.07318398e-02f,-1.07441626e-01f,
+2.23957300e-02f,+1.35706156e-01f,+7.59598389e-02f,-2.23634645e-01f,+9.19452533e-02f,
+1.28978804e-01f,+7.33882412e-02f,-7.19247460e-02f,+3.98770161e-02f,-1.40687197e-01f,
+8.92442167e-02f,-1.88657403e-01f,+2.90705204e-01f,+1.34826556e-01f,-1.46151200e-01f,
-4.87733036e-02f,-3.05746980e-02f,-1.55565903e-01f,-4.80202995e-02f,+2.71510363e-01f,
+1.22330181e-01f,-1.63273275e-01f,-6.55263439e-02f,-1.52984649e-01f,-3.24262142e-01f,
+1.20502062e-01f,-6.71431422e-02f,-4.51059639e-02f,+1.28983527e-01f,-1.04759686e-01f,
-1.22586906e-01f,-4.86349948e-02f,+1.56092510e-01f,-1.47016412e-02f,+7.95045421e-02f,
+4.41463679e-01f,+4.73642573e-02f,+2.60898918e-01f,+2.24022657e-01f,+1.02914684e-01f,
+9.42896679e-02f,-2.42594570e-01f,-1.75531238e-01f,+9.61923674e-02f,-5.33365719e-02f,
+2.98632741e-01f,+3.36717576e-01f,+6.79401904e-02f,-1.20831147e-01f,-2.07103014e-01f,
+1.43176645e-01f,+1.32419556e-01f,-1.55275874e-02f,+7.22815618e-02f,+6.61731809e-02f,
+1.64701983e-01f,-1.32988021e-01f,-1.32779285e-01f,+5.87995313e-02f,+2.22611159e-01f,
+9.93286371e-02f,-3.66002582e-02f,-8.14370960e-02f,+1.20730519e-01f,+3.77007835e-02f,
+5.86296096e-02f,-4.81687859e-02f,-2.29407638e-01f,-4.97751124e-02f,+8.09180513e-02f,
+8.11862499e-02f,+6.26162142e-02f,-1.04395077e-01f,-2.07366096e-03f,-1.53242899e-02f,
+2.55440742e-01f,-3.12837094e-01f,+1.27464458e-01f,+4.68645878e-02f,+2.90231891e-02f,
+3.81938927e-03f,+2.69054234e-01f,-1.24758799e-02f,-2.67370939e-02f,+2.41251603e-01f,
-9.39433873e-02f,-5.30842952e-02f,-8.63406807e-02f,+3.68060805e-02f,+6.54528067e-02f,
+4.49448638e-02f,+1.43863380e-01f,+4.09920923e-02f,-2.07372651e-01f,-4.43504751e-02f,
+1.64170235e-01f,+2.34483376e-01f,-4.29100618e-02f,+1.03082210e-01f,-3.82910669e-02f,
+1.10795893e-01f,-1.03296474e-01f,+2.69134045e-01f,+6.20254464e-02f,+9.83317718e-02f,
+3.03086162e-01f,+2.41546616e-01f,-1.97342355e-02f,+4.59876694e-02f,-2.22917885e-01f,
-2.13573664e-01f,+1.10097013e-01f,+1.43190101e-01f,+1.67136878e-01f,+3.14323157e-02f,
+2.60930598e-01f,-4.54486534e-02f,+1.37647375e-01f,+2.03500345e-01f,-1.35814413e-01f,
+1.89125743e-02f,+1.85958971e-03f,+1.55723676e-01f,+1.53438896e-01f,-1.49823993e-01f,
-6.94201589e-02f,+5.45702986e-02f,+2.16450930e-01f,+6.33905753e-02f,-1.62667453e-01f,
-2.16536596e-01f,+7.14831948e-02f,+9.61710215e-02f,+2.03951299e-01f,-6.75720945e-02f,
+1.32255346e-01f,+4.95433249e-02f,+1.29148871e-01f,-5.66067323e-02f,+7.89764524e-02f,
+1.57129347e-01f,-1.21946983e-01f,+1.40299415e-02f,+2.36766279e-01f,+1.27962291e-01f,
-4.60198671e-02f,-1.02328368e-01f,+5.32434974e-03f,+1.77740064e-02f,+1.99242294e-01f,
-1.62026554e-01f,+9.63545740e-02f,+1.88214675e-01f,+2.81110466e-01f,-2.04307050e-01f,
-2.04348788e-01f,-8.28073174e-02f,+1.71003133e-01f,-4.71193669e-03f,+3.33888680e-01f,
-2.54850760e-02f,-2.25348622e-02f,-3.84005159e-02f,+5.08918252e-04f,+1.48395732e-01f,
-5.18939681e-02f,+2.75104493e-01f,+1.81902081e-01f,-1.34748802e-01f,-1.30391687e-01f,
+1.25943527e-01f,-2.80786604e-01f,-7.46550560e-02f,-1.52392760e-01f,+1.33114815e-01f,
+1.38017684e-01f,+1.88433021e-01f,+1.86827198e-01f,+2.17539847e-01f,-1.54509723e-01f,
+1.77771896e-01f,+7.74513707e-02f,+1.62987933e-01f,+4.57639098e-02f,-1.60236001e-01f,
+5.03133610e-03f,+7.28939101e-02f,-2.47297585e-01f,+1.79889165e-02f,+9.38445628e-02f,
-2.33224183e-01f,+1.27418652e-01f,+1.04215359e-02f,-8.55689198e-02f,-9.87586975e-02f,
-1.23143360e-01f,+4.63831145e-03f,-1.29387215e-01f,+2.02637445e-02f,+3.34377527e-01f,
+3.99413675e-01f,-3.74060124e-02f,-2.30150089e-01f,+9.18152481e-02f,+4.03195769e-02f,
-8.78859013e-02f,+3.63569595e-02f,-9.23346207e-02f,-4.81265709e-02f,-9.55347996e-03f,
+2.39285082e-02f,+1.98289603e-01f,+2.80717313e-01f,+9.17183384e-02f,+1.26410723e-02f,
+1.04155958e-01f,-1.60744160e-01f,+3.03583164e-02f,+2.07272619e-01f,-1.45506397e-01f,
+9.31370184e-02f,-4.53063607e-01f,-6.18838854e-02f,-3.57549861e-02f,-3.03649247e-01f,
+2.54033834e-01f,+4.29341719e-02f,-1.83409244e-01f,-1.54282838e-01f,-8.26042891e-02f,
-3.66561487e-02f,-2.95587424e-02f,+1.53442979e-01f,+2.42266357e-01f,+4.63455133e-02f,
+8.25797170e-02f,-1.34067774e-01f,+5.07298019e-03f,-2.12836325e-01f,+1.76733971e-01f,
-7.38635883e-02f,+2.59958468e-02f,-4.73098569e-02f,+2.25704789e-01f,+9.40312222e-02f,
+1.42520383e-01f,+1.05416656e-01f,+1.37180358e-01f,-3.08725893e-01f,-4.21589687e-02f,
-4.38764989e-02f,+2.05948763e-02f,+2.48456411e-02f,-2.96616498e-02f,-8.97639468e-02f,
+1.21382261e-02f,-8.07514861e-02f,-1.34314895e-02f,+1.40438965e-02f,-2.67468363e-01f,
-1.19377017e-01f,+1.49233043e-02f,+2.11077809e-01f,+7.18757287e-02f,+1.71239793e-01f,
-1.66369647e-01f,+1.62385911e-01f,-2.98488345e-02f,-3.35752487e-01f,+1.09194145e-01f,
+1.50740892e-01f,+6.55006021e-02f,+1.48344915e-02f,-3.82627815e-01f,-2.08263025e-01f,
-1.38995886e-01f,-2.57765371e-02f,+2.35961735e-01f,+2.77881265e-01f,+2.48373047e-01f,
+3.01368922e-01f,-8.83992612e-02f,-3.58612798e-02f,-1.60987243e-01f,+1.82144456e-02f,
-1.74376965e-01f,+8.09990689e-02f,-3.47042829e-01f,+4.34208177e-02f,+1.56401873e-01f,
+4.04795408e-02f,+9.03750025e-03f,+5.24969399e-02f,-4.65074889e-02f,-7.06816465e-02f,
-3.01803574e-02f,-6.55616298e-02f,+1.24757305e-01f,-8.04127380e-02f,-1.33608341e-01f,
+1.04946241e-01f,+2.77651161e-01f,-1.58698410e-02f,-5.17049357e-02f,-3.42145503e-01f,
-2.82512791e-02f,+7.92134181e-02f,+5.38915880e-02f,+9.95373726e-03f,+8.65312591e-02f,
-1.99763179e-02f,-6.58256281e-03f,+2.25874513e-01f,+1.73183177e-02f,-5.27871363e-02f,
-2.74970859e-01f,+8.30770077e-05f,+1.80157661e-01f,-1.61429122e-01f,-1.00417316e-01f,
-2.12306321e-01f,+3.86351012e-02f,+8.91297162e-02f,-7.44568780e-02f,+1.61605135e-01f,
+1.54991522e-01f,-1.35020822e-01f,+5.96349463e-02f,+1.07365653e-01f,+3.00643057e-01f,
-1.07862771e-01f,+3.14092636e-01f,-1.33557124e-02f,+2.37985188e-03f,-1.62729528e-02f,
-9.20614079e-02f,-1.17138475e-01f,+5.90529405e-02f,+8.32564235e-02f,-2.31727779e-01f,
-6.86404631e-02f,+1.93293557e-01f,+1.76322922e-01f,-1.56243935e-01f,-1.56588167e-01f,
+6.77018464e-02f,-1.80351585e-01f,-2.24032313e-01f,+2.21351147e-01f,+2.59857595e-01f,
+9.61942598e-02f,+1.62273750e-01f,-4.34479192e-02f,+3.39125320e-02f,-5.22736348e-02f,
-9.42914709e-02f,+7.28135183e-02f,+1.21976227e-01f,+3.81527618e-02f,+1.79615617e-01f,
+2.00513795e-01f,-1.76595286e-01f,+1.94671601e-01f,-8.89767986e-03f,+8.13490897e-02f,
+2.31292769e-01f,+2.48742342e-01f,+6.19805492e-02f,-4.29072529e-02f,-1.26443148e-01f,
+1.81285530e-01f,+9.20147672e-02f,+3.27151120e-01f,-1.96515575e-01f,-2.45216005e-02f,
-1.75885767e-01f,+1.45210236e-01f,+1.33540586e-01f,+3.38596106e-02f,-1.18630886e-01f,
+4.58152182e-02f,-2.31444463e-02f,-1.90777987e-01f,+4.73754033e-02f,+1.39315501e-01f,
-8.85610357e-02f,-1.94740608e-01f,+1.48798540e-01f,-7.25494698e-03f,+1.65412247e-01f,
+1.16983570e-01f,-7.03607723e-02f,+2.86460459e-01f,-6.49223849e-02f,+2.64093220e-01f,
+8.44381899e-02f,+2.79126525e-01f,+7.26671293e-02f,+1.77375615e-01f,+1.04380429e-01f,
+2.87846625e-02f,-3.10119063e-01f,+2.28912741e-01f,+2.21976116e-01f,-9.81350839e-02f,
-1.48897052e-01f,-1.88773253e-03f,+3.79179753e-02f,-5.42460717e-02f,-1.32343993e-01f,
-5.93376905e-02f,-2.65948713e-01f,+8.28391090e-02f,-1.31934255e-01f,+2.44614184e-01f,
-2.04857334e-01f,-6.16265051e-02f,+4.09109183e-02f,+8.54651034e-02f,+1.31913975e-01f,
-1.78469315e-01f,+6.24976419e-02f,+2.45839227e-02f,+1.08151741e-01f,+7.35526830e-02f,
+2.16137946e-01f,-1.35545105e-01f,+1.38346866e-01f,-6.52560964e-02f,-2.19913512e-01f,
+1.11174164e-02f,+1.08488798e-01f,-1.23230442e-01f,+3.11289161e-01f,+1.24264590e-01f,
+1.60426855e-01f,+8.49130005e-02f,-5.38610741e-02f,-1.85576394e-01f,+1.25949070e-01f,
-1.59383178e-01f,+3.17647487e-01f,+5.50831063e-03f,+1.21939108e-01f,-3.07964981e-01f,
-3.51093858e-01f,-6.14169091e-02f,-8.96122903e-02f,-3.94225307e-02f,-5.75726200e-03f,
+1.12592123e-01f,+6.16893284e-02f,+2.58147605e-02f,+2.26458877e-01f,+1.19830020e-01f,
-2.97043100e-03f,+3.50733429e-01f,-2.62463212e-01f,-5.61162345e-02f,-1.50063932e-01f,
+5.49734049e-02f,+1.49596259e-02f,+2.58697588e-02f,-4.87935960e-01f,+1.57052591e-01f,
+1.61951616e-01f,+9.81153771e-02f,+1.53362349e-01f,+1.05069287e-01f,+1.25011191e-01f,
-2.59496141e-02f,+9.39749926e-02f,-1.98369488e-01f,-1.26568884e-01f,-7.32318684e-02f,
+2.47259125e-01f,+9.91879702e-02f,+1.77699789e-01f,+2.63430089e-01f,-8.04946646e-02f,
+2.20059365e-01f,-2.48120651e-01f,+3.19821276e-02f,-4.16886881e-02f,+1.47689581e-01f,
-6.06492646e-02f,+7.55603388e-02f,-1.42221555e-01f,-9.08561889e-03f,-6.31144270e-02f,
-1.11180864e-01f,+3.13126482e-02f,+2.93011457e-01f,+2.50036478e-01f,+1.10139109e-01f,
+1.05695978e-01f,+1.25325873e-01f,+7.84440711e-02f,-3.93240266e-02f,+2.35329345e-01f,
-1.33558646e-01f,+1.93234265e-01f,+2.95130670e-01f,+2.69328594e-01f,+1.24883950e-01f,
-4.89474088e-02f,+2.34601721e-01f,+1.34996027e-01f,-1.38632193e-01f,-2.53119376e-02f,
+2.19201714e-01f,-1.83798119e-01f,-3.07446927e-01f,+2.48388108e-02f,-7.68564567e-02f,
-7.23003894e-02f,-4.30938117e-02f,-2.09872387e-02f,-7.25356117e-02f,+7.38124549e-03f,
+1.30605474e-01f,-6.00347072e-02f,-9.17652436e-03f,+1.12639867e-01f,+2.38043033e-02f,
+1.08929738e-01f,+1.23600401e-01f,+5.81707694e-02f,-1.62610292e-01f,-1.14840046e-01f,
+1.53831348e-01f,+2.72337109e-01f,-7.07972199e-02f,+3.06414235e-02f,-7.85221979e-02f,
+3.96537334e-02f,-6.57339543e-02f,-5.19082546e-02f,-2.29075596e-01f,-9.49095935e-02f,
-7.27384761e-02f,-4.12303470e-02f,-8.83938745e-02f,+1.40802547e-01f,+2.74447441e-01f,
+1.45077035e-01f,-5.13856001e-02f,+5.48711680e-02f,-6.88992366e-02f,-1.00085281e-01f,
-1.60484239e-01f,-5.54105919e-03f,-5.13502769e-03f,+1.62081152e-01f,-1.57687724e-01f,
-8.41587037e-02f,+5.79690561e-02f,-7.37337545e-02f,-2.47655679e-02f,-2.09428091e-02f,
-8.24314803e-02f,+6.52357861e-02f,-4.50326912e-02f,+3.83395731e-01f,+1.85287774e-01f,
-3.04937754e-02f,+2.57471681e-01f,+1.04437217e-01f,+3.66031975e-01f,-8.61393586e-02f,
+8.80903676e-02f,-2.17479736e-01f,-2.11432129e-01f,+2.73438189e-02f,-3.70504670e-02f,
+1.32116646e-01f,+3.92937750e-01f,-7.84665197e-02f,+3.48470032e-01f,-1.22366529e-02f,
+2.40473092e-01f,+5.58143444e-02f,-9.70587060e-02f,+1.64120734e-01f,+8.63980204e-02f,
-1.33857250e-01f,+1.39584392e-01f,+6.91476017e-02f,-3.21039334e-02f,-4.41831835e-02f,
+1.10679895e-01f,-1.06114656e-01f,-1.13433279e-01f,-2.50157602e-02f,+1.04948118e-01f,
+1.95852970e-03f,+6.48548380e-02f,-2.51302067e-02f,-1.37146831e-01f,-8.81535932e-02f,
+2.53900766e-01f,-4.99112308e-02f,-2.96013504e-01f,+9.48521420e-02f,-2.83314168e-01f,
+1.64830416e-01f,+5.40172569e-02f,+5.36460280e-02f,-1.73577860e-01f,+8.68699402e-02f,
-3.73090692e-02f,+2.12289572e-01f,-1.79498494e-01f,+4.20298576e-02f,+1.85696021e-01f,
+2.06355333e-01f,+2.28012018e-02f,+1.52752265e-01f,-1.25556529e-01f,-1.30007947e-02f,
+1.05188705e-01f,+2.20589101e-01f,+2.50048470e-02f,-9.33185220e-02f,-8.39451775e-02f,
-1.99940175e-01f,-9.12687331e-02f,+1.39129221e-01f,+1.70755401e-01f,+5.36810942e-02f,
-9.51152947e-03f,-1.83477566e-01f,+7.00976253e-02f,+2.09526997e-02f,-2.30565563e-01f,
+2.31069371e-01f,+1.71641223e-02f,+2.59565860e-01f,-3.68348569e-01f,-6.44662976e-02f,
-1.95393696e-01f,-1.73201397e-01f,-6.62795678e-02f,-9.43515971e-02f,+9.04131904e-02f,
-1.43707365e-01f,+3.81794497e-02f,+6.88636396e-03f,-2.69170795e-02f,+1.25217780e-01f,
+9.72132757e-02f,-1.07571512e-01f,-1.12758540e-01f,-1.78534344e-01f,-2.50807524e-01f,
+6.67186454e-02f,+2.03306172e-02f,-3.28220427e-02f,+1.38086796e-01f,+5.92631027e-02f,
-2.01396734e-01f,-1.55346864e-03f,-1.10067904e-01f,+1.41713709e-01f,+4.93198037e-01f,
+1.63028970e-01f,-8.88438448e-02f,+4.64585833e-02f,-1.15023991e-02f,-4.17575911e-02f,
-1.21596575e-01f,+6.29485101e-02f,+1.76561087e-01f,+3.20004851e-01f,-2.94329617e-02f,
+1.20193198e-01f,+1.53552547e-01f,+7.64506757e-02f,-4.58854735e-02f,+3.99601012e-01f,
-2.38197699e-01f,-3.06010749e-02f,+1.82996839e-01f,-1.84172094e-02f,-4.48796339e-02f,
-2.39612348e-03f,+1.48059592e-01f,+2.10704148e-01f,-2.07370505e-01f,+1.42165348e-01f,
+1.22234769e-01f,+3.59084681e-02f,-1.75589293e-01f,+1.77544087e-01f,-1.76118955e-01f,
-6.98091835e-02f,-9.11334977e-02f,-1.64502427e-01f,+9.56313387e-02f,-7.05284327e-02f,
-1.74743205e-01f,-1.01303346e-01f,+7.45848268e-02f,+1.44522294e-01f,-1.71242580e-01f,
-1.43524721e-01f,+8.30759178e-04f,-1.00192890e-01f,+1.91881999e-01f,+1.28462911e-01f,
+1.51057065e-01f,+1.26053259e-01f,+2.23695174e-01f,-2.60472093e-02f,+3.10121566e-01f,
+1.66692540e-01f,+1.15557931e-01f,+1.10626541e-01f,+3.36695276e-02f,+6.08624443e-02f,
+3.47308628e-02f,-2.73633063e-01f,+1.99771598e-01f,+1.02012582e-01f,+3.22310366e-02f,
+5.61810993e-02f,+5.41125759e-02f,-1.00803487e-01f,+1.00546204e-01f,+2.44437959e-02f,
-1.81868095e-02f,-1.08386539e-01f,+2.66959250e-01f,-2.53600217e-02f,+2.80327141e-01f,
+3.69505845e-02f,+4.55668196e-02f,-4.29029241e-02f,+2.36336160e-02f,+9.89103690e-03f,
+2.77428776e-01f,+1.14737498e-02f,+1.45980101e-02f,+2.23008811e-01f,+4.33771536e-02f,
+7.64067993e-02f,+9.54315811e-02f,-1.56088337e-01f,+2.13341698e-01f,+1.48775037e-02f,
+1.34279400e-01f,-9.10515636e-02f,+7.63040408e-02f,+1.11948162e-01f,+2.72545352e-04f,
+1.03219613e-01f,-5.40182292e-02f,+2.35683471e-02f,-8.43642876e-02f,-1.19744547e-01f,
+1.39282584e-01f,+1.90555993e-02f,-8.30633566e-02f,+9.99136195e-02f,+2.07413703e-01f,
-6.90724552e-02f,+9.57191736e-02f,-2.39574924e-01f,-2.84719300e-02f,-1.44793093e-02f,
+2.53681719e-01f,-3.51546437e-01f,+7.37843886e-02f,+1.82077527e-01f,-2.03753393e-02f,
+1.04590476e-01f,-8.35595429e-02f,-4.58947346e-02f,+7.27799684e-02f,-7.22529516e-02f,
-1.77537650e-02f,+3.00590489e-02f,+4.20841724e-02f,-2.86907665e-02f,-1.04918458e-01f,
-2.75092516e-02f,-3.43235165e-01f,-1.41710654e-01f,-1.56202495e-01f,-8.56563747e-02f,
+2.70779401e-01f,-2.86400300e-02f,+1.36318654e-01f,+1.09613203e-01f,+7.49149173e-03f,
+1.10192239e-01f,-2.43059874e-01f,-8.30531567e-02f,+2.49645077e-02f,+3.54932427e-01f,
+3.06988209e-02f,+1.37223139e-01f,-2.60698140e-01f,+1.35824159e-01f,+4.49471846e-02f,
+6.93137795e-02f,-2.26651467e-02f,+1.34002790e-01f,-1.67071149e-01f,-2.02642079e-03f,
+2.93355677e-02f,+8.72283876e-02f,+4.38051932e-02f,+2.01352060e-01f,+2.47550204e-01f,
+3.12249381e-02f,+7.29543790e-02f,+1.09704278e-01f,+6.61454350e-02f,-3.13513428e-02f,
-2.55874932e-01f,-2.22695827e-01f,-1.09833255e-01f,-1.18750438e-01f,+2.39227638e-01f,
-3.63773078e-01f,-1.27259091e-01f,-2.41414338e-01f,+1.26633286e-01f,-4.91389856e-02f,
-4.37820166e-01f,+2.08911523e-01f,+1.63099915e-01f,-1.30174225e-02f,-9.15507674e-02f,
+3.00834477e-02f,+1.97263792e-01f,+1.73781291e-01f,+1.31908476e-01f,+1.70788050e-01f,
-9.29639116e-02f,+2.02512369e-01f,-2.82486856e-01f,-4.10634466e-02f,+7.03869089e-02f,
+2.94143315e-02f,+5.72407693e-02f,-5.36318123e-02f,+1.17639355e-01f,+1.14199705e-01f,
+3.66345048e-02f,-5.29576577e-02f,+2.21724302e-01f,-2.25265607e-01f,-1.53667539e-01f,
+1.65987670e-01f,+1.58936426e-01f,+6.92737103e-02f,+2.92483065e-02f,-1.14008524e-01f,
-9.58977416e-02f,-1.78333476e-01f,+1.08552307e-01f,+2.52678245e-01f,-3.52270186e-01f,
+1.86547130e-01f,+2.54838377e-01f,-2.03230307e-01f,+7.52167404e-02f,+3.69503722e-02f,
+5.29283360e-02f,-4.00685985e-03f,+9.78967920e-02f,+1.21404797e-01f,+3.30892414e-01f,
+1.21027287e-02f,-4.69499342e-02f,-4.84115213e-01f,+1.61995471e-01f,-1.05839245e-01f,
-4.34930682e-01f,-4.22842912e-02f,-2.16172300e-02f,+2.31091768e-01f,+2.09002018e-01f,
+2.13940322e-01f,+2.64585823e-01f,-5.45800254e-02f,+5.85520864e-02f,-4.37384509e-02f,
-2.20055059e-01f,+3.65316570e-02f,-1.04091600e-01f,+2.20089585e-01f,-2.78354764e-01f,
+8.87024775e-02f,-1.28307343e-01f,-1.53412491e-01f,+8.74541327e-02f,+6.38324360e-04f,
-3.19246441e-01f,+1.33231401e-01f,-4.13727850e-01f,-2.30754122e-01f,+2.22848043e-01f,
-6.17992394e-02f,+3.51590157e-01f,-2.20358923e-01f,-3.64845514e-01f,+6.28885031e-02f,
-2.49239746e-02f,+2.51512706e-01f,+7.05985576e-02f,+6.04705699e-02f,-1.64279461e-01f,
+2.04174951e-01f,-1.63653225e-01f,-3.13464887e-02f,+9.59676802e-02f,+1.85526721e-02f,
-4.07341011e-02f,+1.57732055e-01f,+1.22872621e-01f,-7.04285596e-03f,-1.86605841e-01f,
-4.15189601e-02f,+2.22414762e-01f,-8.69342533e-04f,-6.28025308e-02f,-1.43326521e-01f,
+1.85596466e-01f,+3.39396447e-01f,+7.33495504e-02f,+1.61122088e-03f,+2.43328232e-02f,
+4.61369902e-02f,+1.93585202e-01f,+2.83433702e-02f,-4.46460349e-03f,+1.40044019e-01f,
+6.88396841e-02f,-1.84034631e-01f,+1.74419597e-01f,-9.52037126e-02f,+4.21946608e-02f,
-2.30538338e-01f,-2.48409331e-01f,+1.45811021e-01f,-5.09088440e-03f,+5.90363033e-02f,
+1.25696972e-01f,+1.22286901e-01f,-1.92733720e-01f,+7.65213370e-02f,+4.92400043e-02f,
+5.16841412e-02f,-7.27125481e-02f,+4.33336608e-02f,+1.51920825e-01f,+7.01325107e-03f,
+2.64626384e-01f,-2.77368456e-01f,+1.03199080e-01f,-1.65333480e-01f,+2.99176633e-01f,
+2.41519719e-01f,-2.17207938e-01f,+4.52982970e-02f,-7.13410005e-02f,-2.38022804e-01f,
+1.18408330e-01f,+3.98406945e-03f,+1.16331339e-01f,-3.07847336e-02f,-2.34232679e-01f,
+3.02902460e-01f,-3.84998769e-02f,+1.86808065e-01f,-1.13793910e-01f,+2.60792673e-01f,
+1.59771636e-01f,-1.03780836e-01f,-1.57119855e-01f,+2.92364299e-01f,+6.60929978e-02f,
+1.27963230e-01f,+3.27536047e-01f,-3.30403656e-01f,-2.39017382e-01f,-8.18487182e-02f,
-2.25681394e-01f,-4.06921089e-01f,+3.40327807e-02f,-1.12936400e-01f,+1.63480699e-01f,
-1.21619046e-01f,+2.12231293e-01f,-1.67186737e-01f,-4.16249298e-02f,-2.29067191e-01f,
+9.03052017e-02f,+2.96302382e-02f,+5.06497361e-02f,+3.12977135e-01f,-1.46040484e-01f,
+7.19246566e-02f,-8.58788118e-02f,-3.62835795e-01f,-1.75364837e-01f,+1.72652472e-02f,
-1.72800869e-01f,-2.81935006e-01f,-8.50561559e-02f,+1.57791123e-01f,-1.71038970e-01f,
+1.97079599e-01f,+6.12256937e-02f,-4.28075701e-01f,+8.42447728e-02f,+3.96116942e-01f,
+2.10339323e-01f,+5.62193505e-02f,-2.72026062e-01f,-2.57892966e-01f,+1.25475585e-01f,
-1.52963191e-01f,-6.80581108e-02f,-2.42632776e-01f,+6.79402947e-02f,+1.79421186e-01f,
+7.02370107e-02f,+1.44754767e-01f,-4.63817604e-02f,-1.26177728e-01f,+1.03240438e-01f,
-3.85360241e-01f,-2.32283995e-01f,+3.08998674e-01f,-2.80314118e-01f,-1.17981389e-01f,
-1.07629135e-01f,-1.62105724e-01f,-6.85681701e-02f,+8.39570835e-02f,+7.98525214e-02f,
+3.01242501e-01f,+1.49956897e-01f,-1.74181208e-01f,+1.02725096e-01f,+1.23045556e-01f,
+7.05025643e-02f,+2.38247693e-01f,-8.33038166e-02f,-3.20975691e-01f,-8.19649249e-02f,
+4.64546643e-02f,-2.45551214e-01f,+9.67901349e-02f,+1.90319076e-01f,-1.44840658e-01f,
+2.75609881e-01f,+3.42876375e-01f,+9.45504084e-02f,+8.92781690e-02f,-2.60589838e-01f,
-6.90594688e-02f,-5.52351661e-02f,-1.81792974e-01f,-3.04495096e-01f,+1.02056086e-01f,
-1.23869464e-01f,+2.89408267e-01f,-2.56209612e-01f,+2.20727324e-01f,-1.75113454e-01f,
+7.76300579e-02f,+2.30071694e-01f,-3.35384645e-02f,+8.53961557e-02f,-1.75935388e-01f,
+1.10202350e-01f,+7.16847787e-03f,+3.20836246e-01f,-7.56957307e-02f,-2.43086740e-01f,
+9.74925458e-02f,+1.86581671e-01f,-1.28486946e-01f,+2.00185016e-01f,-8.33152682e-02f,
+1.84021786e-01f,+2.24616885e-01f,+1.44103803e-02f,+1.34711489e-01f,+8.26619193e-02f,
+8.40153694e-02f,+7.78104737e-02f,+3.99925411e-01f,+2.27809682e-01f,-3.98453437e-02f,
+8.75422284e-02f,-1.42963082e-01f,+1.09685950e-01f,+8.94929916e-02f,-5.04286997e-02f,
+6.23220354e-02f,+2.30205894e-01f,+1.93056036e-02f,+3.99368942e-01f,+2.19634026e-01f,
-1.04510553e-01f,+1.07760653e-01f,-1.33122310e-01f,-7.27122575e-02f,-2.19187617e-01f,
+2.93384939e-01f,+2.29031473e-01f,+1.45298233e-02f,+2.15103656e-01f,-1.05196862e-02f,
-5.43776937e-02f,-2.50028193e-01f,-5.92203066e-02f,-2.67802894e-01f,-3.04522812e-02f,
-2.95068026e-01f,+4.83354121e-01f,+9.96157676e-02f,-1.36355132e-01f,-1.88620985e-01f,
-2.52570622e-02f,+5.86628020e-02f,-2.72536367e-01f,-8.69223773e-02f,+1.60770088e-01f,
+8.89524072e-02f,-2.41838560e-01f,-9.50404909e-03f,-2.23824367e-01f,-9.44122598e-02f,
+5.86645268e-02f,-2.19493918e-02f,-1.73323080e-01f,+2.42923126e-01f,+2.94432014e-01f,
+1.07173383e-01f,+1.09298095e-01f,+2.43060160e-02f,-6.08491600e-02f,-6.54577091e-02f,
+1.29870206e-01f,+2.00785935e-01f,-1.16029255e-01f,-2.96260178e-01f,+2.36640483e-01f,
+1.85062066e-01f,+5.18830866e-02f,+2.14271709e-01f,+1.54894620e-01f,+4.49777767e-02f,
-1.93579122e-01f,+6.91259950e-02f,+1.95731781e-02f,+1.95336789e-01f,+8.90071038e-03f,
-1.54342547e-01f,+1.36051312e-01f,+1.88316926e-02f,+1.41970277e-01f,+2.31384747e-02f,
-9.70103890e-02f,+1.66131198e-01f,-2.94437319e-01f,+1.63724422e-01f,+4.22943473e-01f,
+2.12920383e-01f,+5.56722842e-02f,+3.63690019e-01f,+1.24160819e-01f,+9.23680980e-03f,
+1.08283468e-01f,-2.49795869e-01f,-1.39561564e-01f,-1.52802691e-01f,+3.64551321e-02f,
+5.58221452e-02f,+1.19292490e-01f,-1.04982242e-01f,+2.53034472e-01f,-1.08409658e-01f,
-1.92695186e-01f,+1.42954588e-01f,-1.16509385e-01f,+2.01244101e-01f,-5.69860600e-02f,
+1.94363087e-01f,-3.93279418e-02f,+8.81400257e-02f,-3.19839977e-02f,+1.54115975e-01f,
+2.28218995e-02f,+7.49485344e-02f,-1.28306195e-01f,-1.02715597e-01f,+8.18177909e-02f,
+8.34692717e-02f,+1.66807115e-01f,+1.45196497e-01f,+9.14322361e-02f,+2.86182791e-01f,
+2.04235956e-01f,+2.86153071e-02f,+1.68013602e-01f,+2.33970787e-02f,+2.78664500e-01f,
-1.63114041e-01f,+4.75412048e-02f,+9.62209478e-02f,-4.49307747e-02f,+3.25814076e-02f,
+4.85685647e-01f,+2.24197522e-01f,+3.19025591e-02f,-2.78897792e-01f,+8.26773569e-02f,
+2.22193733e-01f,+2.78197140e-01f,+1.79531619e-01f,-2.02623196e-03f,-6.90520927e-02f,
-3.99918184e-02f,+6.02959730e-02f,+1.92028284e-01f,+1.83429644e-01f,-9.85813588e-02f,
+1.27443120e-01f,+1.50241330e-02f,-6.66988343e-02f,-2.03428790e-01f,-1.73572004e-01f,
+1.69576362e-01f,-8.47656950e-02f,-2.98386235e-02f,-3.04029256e-01f,-1.21522639e-02f,
+2.29104817e-01f,-1.69975787e-01f,+8.66539329e-02f,-1.41568165e-02f,-6.11686297e-02f,
+4.98561002e-02f,-6.70824051e-02f,+5.74552231e-02f,+1.00330234e-01f,+2.10355185e-02f,
-2.56549805e-01f,-3.32456268e-02f,+1.00591242e-01f,+1.63084239e-01f,+1.76316261e-01f,
-5.21509326e-04f,-4.40432951e-02f,+1.43898919e-01f,+3.90601128e-01f,+2.29094233e-02f,
+1.04386255e-01f,+7.03285411e-02f,+5.10049462e-01f,+9.61464271e-02f,+9.39146727e-02f,
+2.96654552e-01f,+3.09278127e-02f,+2.12954730e-01f,-1.19468398e-01f,+4.56246780e-03f,
-1.99119002e-02f,+3.31128031e-01f,-2.65612155e-02f,-1.36172295e-01f,+1.18924737e-01f,
-6.79129437e-02f,+9.36324988e-03f,+3.03024441e-01f,-3.82563919e-01f,-4.12585549e-02f,
+6.02468699e-02f,-1.03016220e-01f,+2.27733552e-01f,-2.23813444e-01f,-3.11754979e-02f,
+2.12304324e-01f,-3.60486396e-02f,+3.63518953e-01f,+1.44042209e-01f,-2.65358742e-02f,
-6.01242110e-02f,-5.33045679e-02f,+8.90072212e-02f,-1.35260642e-01f,+1.26467049e-01f,
+8.67856964e-02f,+7.43028522e-02f,+3.19928564e-02f,-1.57656163e-01f,+2.32121021e-01f,
+8.41309410e-03f,-1.07828140e-01f,+7.77893960e-02f,+3.55380803e-01f,-2.47299567e-01f,
-4.20909747e-02f,+2.32162729e-01f,+2.15039566e-01f,+1.93469062e-01f,+5.90605997e-02f,
+3.90722334e-01f,+1.97476551e-01f,+6.87250718e-02f,+1.63141921e-01f,+1.76351830e-01f,
-8.48427042e-02f,-2.96953708e-01f,+6.99675316e-03f,-2.35220548e-02f,+2.30712608e-01f,
+3.81344736e-01f,-2.76197851e-01f,-6.17743246e-02f,+1.76494643e-01f,+1.84199691e-01f,
+5.89474030e-02f,-8.91509578e-02f,+1.22501679e-01f,+7.52115250e-02f,-1.62753209e-01f,
+1.73708320e-01f,+1.04891427e-01f,+1.85696214e-01f,+7.78791606e-02f,+1.85973525e-01f,
+2.55275909e-02f,+1.12211093e-01f,-2.36075282e-01f,+3.33649516e-02f,-1.90133974e-02f,
+3.97904992e-01f,+1.42816201e-01f,+1.34380348e-03f,+2.44746096e-02f,-1.37734666e-01f,
-1.57458752e-01f,+5.03490493e-02f,-1.75841451e-01f,+2.71576978e-02f,-2.11796224e-01f,
-1.72799453e-02f,-1.23232298e-01f,+2.04356626e-01f,-1.52949505e-02f,+1.37360230e-01f,
+2.69221902e-01f,-6.18121698e-02f,-1.56047970e-01f,-1.87869906e-01f,-3.37597355e-02f,
+1.08751558e-01f,+1.36369586e-01f,-1.29191458e-01f,-2.31653437e-01f,+1.41591415e-01f,
-1.01922877e-01f,-7.95901269e-02f,+1.14326075e-01f,+1.08543746e-01f,+1.33506402e-01f,
-1.43285856e-01f,+3.29383388e-02f,-3.91386300e-02f,+1.33439973e-01f,-2.45821759e-01f,
+1.05608799e-01f,-6.28044829e-02f,+6.11002333e-02f,+2.01750159e-01f,+6.65346207e-03f,
+2.63527989e-01f,+2.82730520e-01f,-2.01388866e-01f,+1.60309717e-01f,+5.02727292e-02f,
+1.09026045e-01f,-1.10265128e-01f,+1.34801790e-01f,-3.43589224e-02f,+1.65766403e-01f,
-2.04436257e-01f,+2.22806722e-01f,-1.05072476e-01f,+1.34792536e-01f,+1.87949136e-01f,
-2.94998717e-02f,+1.55478746e-01f,-5.55089861e-02f,-2.28940807e-02f,+3.31517696e-01f,
-9.32881683e-02f,+3.67876366e-02f,+2.53096670e-01f,+1.27673581e-01f,-1.44426152e-01f,
-3.00858319e-02f,+1.81188062e-01f,+1.76410638e-02f,+2.24234477e-01f,+2.74348259e-01f,
-5.57273030e-02f,+2.27785721e-01f,+7.61571303e-02f,+1.04211345e-01f,+2.82067880e-02f,
-5.22944033e-02f,-1.25639692e-01f,-3.01989734e-01f,+4.09556292e-02f,-3.51725109e-02f,
-8.55337977e-02f,+3.98548134e-02f,-1.57542676e-01f,-1.26414880e-01f,+8.58016610e-02f,
+3.05065095e-01f,+6.35425225e-02f,-1.16101474e-01f,+2.15523336e-02f,+2.32817661e-02f,
+1.52042331e-02f,-1.48588181e-01f,-1.65184781e-01f,-1.18952803e-01f,+8.44885185e-02f,
-6.86120316e-02f,+1.30128354e-01f,+7.69417956e-02f,-1.80365860e-01f,+5.66800721e-02f,
+2.54902422e-01f,-1.40808299e-01f,-7.34756934e-03f,+5.52731007e-02f,+2.37821445e-01f,
-1.98058859e-01f,+1.20645240e-01f,+4.61708605e-02f,+2.07208797e-01f,+1.07619129e-01f,
-8.52741301e-02f,-3.61243114e-02f,+2.10354924e-01f,+1.72736317e-01f,-2.03084886e-01f,
+1.57901764e-01f,+5.01047336e-02f,+2.31618166e-01f,+1.26469910e-01f,-1.74929485e-01f,
-1.60946622e-01f,-1.46065978e-02f,-3.78974020e-01f,+1.22149087e-01f,+1.22417755e-01f,
+3.20161402e-01f,-3.57411429e-02f,-9.84328836e-02f,+3.78938109e-01f,+1.80491507e-02f,
-7.09227324e-02f,-5.56748360e-02f,-5.26393019e-02f,+2.19102297e-02f,-2.58232355e-01f,
+9.84235704e-02f,+1.05184726e-01f,+5.35073057e-02f,+3.24970007e-01f,+1.26479343e-01f,
-7.61786997e-02f,+2.64052242e-01f,+8.99272412e-02f,-3.06657374e-01f,+2.85796911e-01f,
-7.42537854e-03f,+2.55360007e-01f,+1.57702714e-02f,-3.67977060e-02f,-2.92383671e-01f,
-5.57308421e-02f,-8.26541930e-02f,+4.80775461e-02f,-9.14436504e-02f,+3.40664499e-02f,
+7.83805922e-02f,+1.65773630e-01f,+4.76788692e-02f,-1.68090567e-01f,+3.72647084e-02f,
+1.87750220e-01f,+1.55096659e-02f,+6.48461133e-02f,+1.27397120e-01f,+2.13535607e-01f,
+1.18280493e-01f,-1.70967169e-02f,+1.31316379e-01f,-9.27398354e-02f,-4.76473710e-03f,
-1.03470400e-01f,+2.09382594e-01f,+7.91204944e-02f,+1.53218195e-01f,+2.37847790e-01f,
-2.24761799e-01f,-3.73780876e-01f,+6.59994930e-02f,+1.02766193e-01f,+1.40625983e-01f,
+1.65927619e-01f,+5.47479019e-02f,-1.81299776e-01f,+7.50559345e-02f,-1.00148275e-01f,
-3.17116082e-01f,-3.36911976e-02f,+1.70202851e-01f,+9.40523148e-02f,-1.02080286e-01f,
-1.67973831e-01f,-3.54188010e-02f,+3.47831279e-01f,+1.07910953e-01f,-7.84495473e-02f,
+7.39978701e-02f,-1.86116472e-01f,+1.73234835e-01f,-4.81556021e-02f,+1.24061396e-02f,
-1.59161940e-01f,-1.00398488e-01f,+5.53761199e-02f,-2.73544788e-01f,-2.37742618e-01f,
-5.63960820e-02f,+1.45942405e-01f,-8.89436826e-02f,-1.21338896e-01f,+1.22604445e-01f,
+3.05475056e-01f,+1.29819214e-01f,+2.06716627e-01f,+7.31257796e-02f,+1.15318097e-01f,
-1.38077796e-01f,-6.37724176e-02f,+8.17866251e-02f,-3.49504888e-01f,+1.00606084e-01f,
-2.36785680e-01f,+5.19587882e-02f,+1.71738908e-01f,-1.28961533e-01f,-1.30044311e-01f,
+1.12595811e-01f,+3.08935791e-01f,+3.07287145e-02f,+9.68662649e-03f,+9.97495800e-02f,
-3.95033024e-02f,+1.80037126e-01f,-9.59920138e-02f,+3.40844840e-01f,-1.31355330e-01f,
-5.84955374e-03f,+1.71902515e-02f,+1.47991210e-01f,-1.19822420e-01f,+1.57750055e-01f,
-1.75637066e-01f,+1.55715272e-01f,-9.79408547e-02f,+1.62192523e-01f,+1.35221049e-01f,
-4.15738553e-01f,-9.40659642e-02f,-2.27091406e-02f,+2.77092874e-01f,-2.10744277e-01f,
-4.71069962e-02f,+8.16987455e-02f,+2.11007819e-01f,+9.32034329e-02f,+1.05236471e-01f,
+5.37258163e-02f,-3.28233242e-02f,+1.90384135e-01f,-8.06687623e-02f,+2.76324391e-01f,
+2.71410882e-01f,+2.59237379e-01f,+1.30389193e-02f,-1.47058487e-01f,-4.70983237e-02f,
+3.36220860e-01f,+1.56923980e-02f,+1.57785844e-02f,-2.82285064e-01f,+1.02444917e-01f,
+3.31925564e-02f,+7.32677728e-02f,+2.31588334e-02f,-6.02248237e-02f,-9.39944834e-02f,
-6.97965324e-02f,-1.64790154e-01f,+4.24849316e-02f,+1.68629810e-02f,+3.28664422e-01f,
-2.40985379e-02f,-5.41807115e-02f,-1.97901055e-01f,-6.73440546e-02f,+2.13043377e-01f,
+2.70480186e-01f,-9.86869708e-02f,+1.40077978e-01f,+6.81792349e-02f,+2.85183191e-01f,
+6.13033660e-02f,-2.50463039e-01f,-1.85648054e-01f,+3.79003631e-03f,+3.17828842e-02f,
+1.05623573e-01f,+7.14342222e-02f,-8.23125318e-02f,+3.58063504e-02f,-2.00329926e-02f,
+5.10576367e-02f,+6.73102513e-02f,-2.18020789e-02f,-6.14031032e-02f,+5.69870099e-02f,
+1.03516839e-01f,+4.92829606e-02f,-8.94162729e-02f,-6.72052950e-02f,-1.74602941e-01f,
+5.40973693e-02f,-1.73869058e-01f,-1.19054183e-01f,+9.31411609e-02f,+9.17337835e-02f,
-2.81268135e-02f,-1.19988106e-01f,-2.06273109e-01f,-2.30532601e-01f,-1.87826680e-03f,
-1.47782033e-03f,+1.56904906e-01f,-2.54854530e-01f,+1.96719110e-01f,-3.61817516e-02f,
-2.83648908e-01f,+3.93076569e-01f,-1.52402103e-01f,-1.25130668e-01f,+1.51374210e-02f,
+3.94374505e-02f,+6.42985329e-02f,+3.23230550e-02f,+1.85980573e-02f,-1.10890299e-01f,
-1.02767445e-01f,-1.12365261e-02f,+2.43934747e-02f,-1.52849650e-03f,-6.45159231e-03f,
-4.35324609e-01f,-4.43857610e-02f,-9.17247161e-02f,+1.00117043e-01f,+3.12458932e-01f,
-2.62433048e-02f,+1.44219860e-01f,-1.97313637e-01f,-2.15942696e-01f,-1.92965791e-01f,
+2.04334855e-01f,-1.29414588e-01f,-3.37647721e-02f,+1.39322355e-01f,-1.77984715e-01f,
+2.55566090e-02f,+2.50319242e-01f,+1.56237826e-01f,+9.36158933e-03f,+2.85268947e-02f,
-2.66724546e-03f,-7.20404088e-02f,+4.88352552e-02f,+7.83390105e-02f,-3.60119164e-01f,
-5.77537976e-02f,+1.42781585e-01f,+3.04719388e-01f,+3.75384390e-01f,-4.94829146e-03f,
+9.86110345e-02f,-1.74183771e-01f,-1.56244189e-01f,+9.82737765e-02f,-1.17188409e-01f,
-1.86850980e-01f,+2.54199319e-02f,-4.26523127e-02f,+3.06773216e-01f,-9.35955867e-02f,
-1.15589209e-01f,+1.02447763e-01f,-5.84443845e-02f,-2.17276871e-01f,+2.85766512e-01f,
-1.18896917e-01f,+2.47499004e-01f,+4.55188118e-02f,-5.60602844e-02f,-6.16082586e-02f,
+1.47275999e-01f,+5.72712310e-02f,+5.82329109e-02f,+3.78896669e-02f,-6.04086295e-02f,
+3.37514699e-01f,-2.58699000e-01f,-8.18883777e-02f,+1.09020501e-01f,-6.63662106e-02f,
+2.62808114e-01f,+1.05213895e-01f,-1.99491158e-01f,+4.37832773e-02f,-9.20252502e-02f,
-5.52084558e-02f,+6.04688227e-02f,-9.15215015e-02f,-1.60979360e-01f,+2.23963290e-01f,
-2.49845803e-01f,-1.38282821e-01f,+1.96005106e-01f,+5.26041865e-01f,+1.68044761e-01f,
-2.28276193e-01f,-2.00171486e-01f,+2.82553732e-01f,+8.57784823e-02f,+1.51708703e-02f,
-4.29908335e-02f,-5.15080169e-02f,+2.11414367e-01f,+2.77646482e-01f,-6.14562118e-03f,
-1.12940269e-02f,-1.51433930e-01f,-6.78875893e-02f,-1.55642375e-01f,-8.85849148e-02f,
-1.42410472e-01f,-9.91845056e-02f,-5.77911735e-02f,-8.49697888e-02f,-9.62755829e-02f,
+2.36813262e-01f,-1.09831057e-01f,+6.29080683e-02f,-2.27451455e-02f,+4.27838415e-02f,
-1.68176115e-01f,+9.91798863e-02f,+2.47654095e-01f,-1.56532034e-01f,-1.32197767e-01f,
+1.59142744e-02f,-2.57369298e-02f,-7.30735883e-02f,+1.88386828e-01f,+2.03026623e-01f,
+1.16430610e-01f,-7.76833817e-02f,+3.67471665e-01f,+1.48026571e-01f,-9.31840166e-02f,
+1.57471791e-01f,+3.07785451e-01f,+8.05880949e-02f,+4.69752699e-01f,+1.49644300e-01f,
-2.98002273e-01f,-2.71665365e-01f,+1.68800309e-01f,+4.90723737e-03f,-7.74487481e-02f,
-1.59079298e-01f,-1.51186734e-01f,-7.76126608e-02f,+1.89770274e-02f,+2.23994836e-01f,
-6.80744350e-02f,+1.76045209e-01f,+4.70276624e-02f,-2.67751655e-03f,-1.88324109e-01f,
+3.15566570e-01f,-1.99966162e-01f,+8.00673142e-02f,+3.23645864e-03f,-1.54331222e-01f,
-2.51482010e-01f,+1.41334578e-01f,+2.36010551e-01f,+2.92899668e-01f,+1.14866592e-01f,
+1.02760516e-01f,+1.11621112e-01f,-1.42065093e-01f,-3.71656418e-01f,-1.02097526e-01f,
-4.50938083e-02f,+9.15435925e-02f,+2.98433393e-01f,-6.80571236e-03f,+1.94588333e-01f,
-2.11431980e-02f,-2.98145831e-01f,-2.03817099e-01f,+4.66244668e-02f,+2.83335567e-01f,
-1.10244729e-01f,+4.22441065e-02f,-1.14291310e-01f,+9.67914239e-02f,+1.32579148e-01f,
-9.36253220e-02f,+8.86767432e-02f,+1.61440551e-01f,+1.43211633e-01f,+4.25905824e-01f,
+5.11413440e-02f,-5.43045737e-02f,-2.11454824e-01f,-2.55783200e-01f,+1.19027250e-01f,
+2.64656954e-02f,-7.56567717e-02f,+2.71412656e-02f,+2.30892599e-02f,+3.33005413e-02f,
-1.31910384e-01f,-5.41974790e-02f,+7.95543715e-02f,-9.39650014e-02f,-1.90091625e-01f,
+9.61407200e-02f,+1.83768698e-03f,+5.00693209e-02f,-1.65816806e-02f,-6.48892373e-02f,
+3.92748378e-02f,+4.28299010e-02f,-1.05602734e-01f,+2.32833698e-01f,+4.23177063e-01f,
+2.76891887e-01f,+5.45148626e-02f,+1.50330007e-01f,+6.28206208e-02f,+2.01545388e-01f,
+2.81183794e-02f,+2.80040562e-01f,-2.34760955e-01f,-5.57361320e-02f,-2.24599745e-02f,
+1.99697837e-01f,-2.42522545e-02f,+1.81164116e-01f,-1.39640853e-01f,+1.80781245e-01f,
-1.52137116e-01f,+3.89016688e-01f,+7.01564481e-04f,+2.78937489e-01f,+2.22208306e-01f,
+1.04213163e-01f,+4.59124118e-01f,-1.23736918e-01f,+3.54504317e-01f,+2.49410514e-02f,
+4.88077886e-02f,-7.15758055e-02f,-1.48818195e-01f,+3.85790095e-02f,+2.23669961e-01f,
+1.65857941e-01f,+1.06662013e-01f,-1.53440550e-01f,+2.03021735e-01f,-9.37708318e-02f,
-7.11831450e-02f,-5.63734658e-02f,+6.34062588e-02f,-1.03491850e-01f,+7.26622120e-02f,
-2.37934049e-02f,+4.81789783e-02f,+4.49856035e-02f,+2.64135599e-01f,-1.31418794e-01f,
+1.05031297e-01f,-4.24194820e-02f,+2.91529000e-01f,-5.62464595e-02f,+1.86358094e-01f,
-6.69121072e-02f,+1.04846098e-01f,+2.03069970e-01f,+4.22046304e-01f,+2.09492743e-02f,
+2.28278250e-01f,+1.25136346e-01f,-3.14257778e-02f,-2.69485176e-01f,+5.34172058e-02f,
-1.22044131e-01f,-7.14938268e-02f,-2.96063907e-02f,+2.36044303e-01f,+1.77658826e-01f,
+3.77732784e-01f,+3.31900120e-01f,+1.62549391e-01f,-7.25483373e-02f,+1.33295907e-02f,
+2.54241556e-01f,+1.17263779e-01f,+4.47575673e-02f,-1.28070220e-01f,+9.96760428e-02f,
-2.36236192e-02f,-1.11979827e-01f,+3.01392585e-01f,+1.10171689e-02f,+1.89284235e-01f,
-1.54223843e-02f,+6.74723536e-02f,+7.09194615e-02f,-9.10788625e-02f,+1.17011309e-01f,
+2.00903073e-01f,+7.40970895e-02f,-1.22083500e-01f,+1.80666044e-01f,+3.81689258e-02f,
-6.59288540e-02f,+1.07244596e-01f,+1.30413651e-01f,-1.31718189e-01f,+3.12275648e-01f,
+2.64330089e-01f,-1.04676224e-02f,-1.71177626e-01f,+2.06696376e-01f,+2.46970013e-01f,
+3.78376752e-01f,+1.53581379e-02f,+2.31173784e-02f,+4.82337885e-02f,+2.37513989e-01f,
-1.00549310e-01f,+2.28911713e-01f,+1.87555432e-01f,-2.47232497e-01f,+3.91603522e-02f,
+1.35382921e-01f,-1.43415809e-01f,-2.45971113e-01f,-2.09301651e-01f,-1.37509346e-01f,
-7.46854916e-02f,+2.18079492e-01f,+7.48123825e-02f,-2.01283488e-03f,-3.75589691e-02f,
+4.10736054e-02f,-2.98001379e-01f,+1.03250287e-01f,+2.03534544e-01f,+6.35818069e-05f,
+2.45171130e-01f,+2.85343034e-03f,-7.29376525e-02f,-2.79063016e-01f,+3.98850963e-02f,
+1.49371281e-01f,+8.90188962e-02f,+2.14009762e-01f,+1.68613151e-01f,-1.67689905e-01f,
+1.06100880e-01f,+2.15372905e-01f,+2.68074572e-01f,+1.43951029e-01f,+7.81339109e-02f,
-3.29593532e-02f,+8.59251991e-02f,-1.57773599e-01f,+1.34036124e-01f,-8.73001590e-02f,
-1.80485800e-01f,-4.61266667e-04f,+3.31414998e-01f,+5.39811961e-02f,+1.66982785e-01f,
-8.80427435e-02f,-9.94020700e-02f,+4.84756753e-02f,-1.21687673e-01f,+2.86681894e-02f,
+1.01177961e-01f,-1.32548124e-01f,-4.95187379e-02f,-1.59696877e-01f,+7.66416416e-02f,
+5.15515506e-01f,+7.24816322e-02f,-1.14007398e-01f,+8.39179605e-02f,+7.25876987e-02f,
+1.21084340e-01f,+1.87205270e-01f,-2.05661133e-01f,+2.91427553e-01f,+1.01285622e-01f,
+8.93648639e-02f,+1.17536046e-01f,-2.27550268e-01f,+9.98326167e-02f,+4.17906016e-01f,
-2.69556850e-01f,+1.44777298e-01f,-1.71232611e-01f,+3.00192684e-01f,+8.16654239e-04f,
+8.81090611e-02f,+4.66946624e-02f,-6.16626330e-02f,+2.05742978e-02f,-3.28616705e-04f,
+1.44537330e-01f,+2.39669502e-01f,-1.24075599e-01f,+3.45875084e-01f,-2.13413939e-01f,
+2.48297434e-02f,-5.75763620e-02f,+2.19205730e-02f,+9.98558700e-02f,+1.43623576e-01f,
+2.74294317e-01f,-2.80309737e-01f,+1.82270035e-02f,-1.20283112e-01f,+1.72148645e-02f,
+1.71698257e-01f,-5.43994382e-02f,+1.18344389e-02f,-1.89658403e-01f,-3.61067206e-01f,
-1.20167799e-01f,+1.73891783e-01f,+1.22819029e-01f,+4.77708690e-02f,-1.38925970e-01f,
+5.69180362e-02f,+1.74138665e-01f,-1.19630903e-01f,-6.18412234e-02f,+2.52361864e-01f,
+3.39572951e-02f,+6.70609251e-02f,+3.68768629e-03f,-7.46933371e-02f,+2.92861879e-01f,
+5.47818728e-02f,-1.14584818e-01f,+1.43243045e-01f,+1.47006437e-01f,-4.26492766e-02f,
+1.70041442e-01f,-7.55947083e-02f,+1.02966301e-01f,-2.30752051e-01f,+3.48096877e-01f,
+1.86385140e-01f,-2.71190047e-01f,+1.08225189e-01f,+2.46625453e-01f,+2.15226412e-01f,
+8.36687461e-02f,+1.96839765e-01f,+7.01293424e-02f,-4.96263206e-02f,-2.38198545e-02f,
+7.96984043e-03f,-2.75215298e-01f,+1.97470486e-01f,+1.62644506e-01f,+6.90856501e-02f,
+1.21147953e-01f,+9.19751897e-02f,+2.52513122e-02f,-3.80154490e-03f,+1.08128309e-01f,
+1.59200989e-02f,-6.53646365e-02f,+5.31129213e-03f,-8.53706598e-02f,-2.49534100e-01f,
+2.50750422e-01f,+3.64556909e-01f,+2.14966804e-01f,+2.60628819e-01f,-5.10748243e-03f,
-8.72397497e-02f,+1.55789763e-01f,+3.15605640e-01f,-3.96487862e-02f,-9.42134783e-02f,
+2.08274767e-01f,+3.51624608e-01f,+2.48666346e-01f,+2.00217098e-01f,+3.43418956e-01f,
+3.90905254e-02f,+7.33001605e-02f,-7.60726910e-03f,+2.92737018e-02f,+4.02072147e-02f,
+2.10546367e-02f,+6.60027657e-03f,+2.26660222e-01f,+2.70450890e-01f,+2.28375986e-01f,
+1.54828832e-01f,-6.71037138e-02f,+2.52024960e-02f,+1.49634689e-01f,-4.41711806e-02f,
+1.79522038e-01f,+1.35476859e-02f,-4.48148437e-02f,+8.34306777e-02f,-2.78015703e-01f,
+1.97617803e-02f,-3.33643734e-01f,-2.95502078e-02f,+1.74039472e-02f,-1.55870318e-01f,
+4.78417754e-01f,+1.94865480e-01f,-1.27699316e-01f,-1.50008991e-01f,-4.01837640e-02f,
-1.36878327e-01f,-4.19472978e-02f,+1.51802076e-03f,-8.99673477e-02f,+1.57518774e-01f,
-5.02772396e-03f,-1.64821789e-01f,+3.30727160e-01f,+2.88470555e-02f,-4.31036912e-02f,
+3.64090689e-02f,-2.22372469e-02f,+9.26058441e-02f,-1.45637646e-01f,-4.13281053e-01f,
+1.50694311e-01f,+2.03999296e-01f,+6.16743006e-02f,-1.54182268e-02f,+1.07577294e-01f,
+9.27967802e-02f,+9.27449539e-02f,+2.05451727e-01f,-1.08156510e-01f,-3.58339138e-02f,
-1.17677404e-02f,+2.34100208e-01f,-1.45525131e-02f,+1.39143139e-01f,+3.34803388e-02f,
+1.55536113e-02f,+4.28876951e-02f,-1.84671450e-02f,+6.57808930e-02f,+4.15670693e-01f,
+5.01991622e-02f,-1.17792830e-01f,+1.45141333e-01f,-6.61524236e-02f,+3.55137765e-01f,
-5.07437475e-02f,+3.37456942e-01f,-3.34775075e-02f,-1.30207151e-01f,-3.49497832e-02f,
-1.09396346e-01f,+1.91899866e-01f,+1.20716393e-01f,+2.14112327e-01f,+1.53232947e-01f,
+2.37802900e-02f,+3.86336893e-02f,+4.01028655e-02f,+3.93793255e-01f,-6.86014667e-02f,
-8.32422599e-02f,+1.26737833e-01f,-4.17963229e-02f,+3.95493954e-02f,-4.49608080e-02f,
-6.76559433e-02f,+4.80516613e-01f,+1.68999825e-02f,+1.96894873e-02f,-1.73257869e-02f,
-5.75744212e-02f,+1.39213741e-01f,-2.33084604e-01f,+1.42753154e-01f,-6.59774244e-02f,
+5.25819436e-02f,+5.22621013e-02f,+3.47691089e-01f,-2.41543010e-01f,-2.39805967e-01f,
+2.81657968e-02f,+1.74319983e-01f,-2.28481159e-01f,+1.96957424e-01f,+1.39636979e-01f,
+1.93740293e-01f,+2.10391268e-01f,+9.85733047e-02f,+1.78402402e-02f,+6.43192008e-02f,
-8.69758502e-02f,+8.59782994e-02f,-1.06390931e-01f,-1.29486863e-02f,-1.74992979e-01f,
+1.14096552e-01f,-9.74095762e-02f,+4.05187994e-01f,+2.34472543e-01f,-1.90456770e-02f,
+5.24543375e-02f,+1.97992429e-01f,+1.23171248e-01f,+8.13107118e-02f,-7.42974952e-02f,
-1.57583535e-01f,-7.35898688e-02f,+2.63008296e-01f,+4.28029187e-02f,+1.64362252e-01f,
-1.56533644e-01f,-5.61131053e-02f,-1.23491883e-02f,+1.02595516e-01f,+3.38894129e-01f,
-1.67564541e-01f,-1.24694198e-01f,-1.97846308e-01f,+1.87558368e-01f,+3.62836480e-01f,
-8.89451429e-02f,-1.37496367e-01f,+3.46159749e-02f,-5.53075457e-03f,+1.12946630e-01f,
-9.42854807e-02f,+8.71408507e-02f,-1.63166612e-01f,+8.48569274e-02f,-7.39463568e-02f,
+7.10972920e-02f,+1.09064005e-01f,+6.29733279e-02f,-1.25290751e-01f,-3.14458311e-01f,
-2.83020437e-01f,+9.06126127e-02f,+4.47617680e-01f,+1.48094147e-01f,+3.00778989e-02f,
-4.62501496e-03f,+1.70449585e-01f,-3.05650502e-01f,-5.88933453e-02f,+1.16737671e-01f,
+1.22328542e-01f,-1.51517749e-01f,-1.50392294e-01f,+1.06289230e-01f,-1.01719297e-01f,
-1.81793317e-01f,-7.72285135e-03f,-1.77728105e-02f,+2.94612408e-01f,+1.75421327e-01f,
-3.70289147e-01f,-1.25525862e-01f,+3.86665374e-01f,+4.06637676e-02f,-8.17965902e-03f,
-1.07813366e-01f,-3.26583982e-01f,-1.71683170e-02f,+1.71769150e-02f,+1.54158264e-01f,
-1.24967526e-04f,-1.25818938e-01f,-4.85525355e-02f,+4.26140912e-02f,+1.06511794e-01f,
+3.36548567e-01f,-4.99287248e-02f,+1.35348842e-01f,+2.44552538e-01f,+3.58956084e-02f,
+5.97688630e-02f,-2.68231541e-01f,-1.00679778e-01f,-1.99558809e-01f,-1.69496592e-02f,
-5.36252977e-03f,+9.90768373e-02f,+8.32517371e-02f,-8.10753331e-02f,+4.19959649e-02f,
-1.11732557e-01f,-2.27648541e-01f,-8.08058754e-02f,+2.31260046e-01f,-7.29019716e-02f,
-3.29003134e-03f,-1.16285667e-01f,+2.08214447e-02f,+1.25380168e-02f,-2.65192799e-02f,
+9.28716063e-02f,+1.48231536e-01f,+6.46986812e-02f,-2.95104831e-02f,-1.03845954e-01f,
+2.10027531e-01f,-1.02346927e-01f,+1.68197751e-01f,-5.35770841e-02f,-7.93456659e-02f,
-2.33577356e-01f,+3.40444118e-01f,-6.90785125e-02f,-2.77842969e-01f,-1.93266303e-03f,
+2.78644115e-01f,+9.95296612e-02f,+1.45086199e-01f,-4.80233096e-02f,-2.31985543e-02f,
-1.93326220e-01f,-1.21554717e-01f,+1.27717629e-01f,+1.62721246e-01f,+1.76670447e-01f,
+2.24855989e-01f,-7.81716257e-02f,+7.09394962e-02f,-1.28399178e-01f,+2.60259986e-01f,
-2.73708515e-02f,+3.98607329e-02f,-1.74254144e-03f,-6.03444204e-02f,+4.53930646e-02f,
+1.00914769e-01f,+1.10806145e-01f,-1.64849922e-01f,+1.49617985e-01f,-2.68277168e-01f,
-9.17999297e-02f,+9.30923000e-02f,+1.52579963e-01f,+2.20382530e-02f,+7.39898980e-02f,
+1.75741494e-01f,-5.50882295e-02f,-4.89575043e-02f,+1.87576368e-01f,-1.89178512e-01f,
-9.74449366e-02f,+3.40725362e-01f,-8.12492892e-02f,-2.22113654e-01f,-1.73537701e-01f,
-2.09165248e-03f,-1.20141178e-01f,-3.46577130e-02f,-9.89518780e-03f,-1.51603997e-01f,
+1.02434784e-01f,+1.21141918e-01f,+2.23638684e-01f,+1.97369568e-02f,+4.02444005e-02f,
-1.28885329e-01f,+1.61085889e-01f,+7.07210526e-02f,+2.05623597e-01f,-3.53581123e-02f,
-1.56416893e-01f,-9.67542827e-02f,-1.05954438e-01f,+3.22615355e-01f,-5.08730151e-02f,
-4.43769395e-01f,-1.48763627e-01f,+1.17560141e-01f,+1.28109217e-01f,-5.12201823e-02f,
-1.08216606e-01f,+2.85967648e-01f,+5.78584410e-02f,-7.02264309e-02f,+1.69219956e-01f,
+1.56651706e-01f,+2.04301879e-01f,+1.87558174e-01f,+9.96118337e-02f,-4.77829427e-02f,
+1.64873153e-01f,-8.44312012e-02f,-5.48955686e-02f,-2.22641557e-01f,+1.08899772e-01f,
-7.75840580e-02f,-2.64760137e-01f,+2.98340708e-01f,-8.44358280e-02f,+3.54401708e-01f,
+2.84326613e-01f,+1.97386131e-01f,-1.79751858e-01f,+3.39584082e-01f,-2.49586359e-01f,
-1.26122877e-01f,-1.42731750e-02f,+7.09015429e-02f,+4.94299866e-02f,+7.75908008e-02f,
-1.27481326e-01f,+3.78738195e-01f,-4.56335805e-02f,-3.42766158e-02f,+7.22282976e-02f,
-2.66344279e-01f,-1.19648032e-01f,+7.08320737e-02f,-1.34443730e-01f,-6.32301420e-02f,
+2.00699702e-01f,-2.51193196e-01f,-5.44148535e-02f,-2.29211748e-01f,-2.03150343e-02f,
-2.19093025e-01f,-2.90033519e-01f,-6.30528480e-02f,-3.37908156e-02f,+7.18269497e-02f,
+5.99827051e-01f,-3.41556072e-01f,-2.08650045e-02f,-3.26895773e-01f,+4.53800678e-01f,
+2.74258014e-03f,+3.74663174e-01f,+2.23542750e-01f,+2.71526843e-01f,-1.46811560e-01f,
+1.75386548e-01f,+3.77560347e-01f,-7.78505430e-02f,+1.70859352e-01f,+5.61638512e-02f,
-1.66278169e-01f,+2.05238715e-01f,+2.01778829e-01f,+1.97227165e-01f,+2.65695546e-02f,
-1.35000825e-01f,-2.70310882e-02f,+1.05063252e-01f,-2.16886207e-01f,-9.69368592e-02f,
-4.36826587e-01f,+1.40131697e-01f,-3.45731139e-01f,-6.01408556e-02f,+9.48092639e-02f,
+1.76606327e-01f,+3.21860388e-02f,+1.34792998e-01f,+1.08808614e-01f,+2.88981974e-01f,
+1.82876840e-01f,-1.72713473e-01f,-9.56816152e-02f,-2.84706682e-01f,+6.39816150e-02f,
-3.12434472e-02f,-2.38908663e-01f,-2.41621584e-01f,+1.08932160e-01f,+1.01334840e-01f,
-1.95869043e-01f,+8.81284103e-02f,+4.09055278e-02f,-3.29513773e-02f,-8.12743679e-02f,
+2.11457029e-01f,-5.17570451e-02f,-1.66744694e-01f,+1.00173377e-01f,-1.80755794e-01f,
+3.88285443e-02f,+2.78180614e-02f,+2.40863100e-01f,+7.22927377e-02f,-3.53167117e-01f,
+1.69952493e-02f,-4.55883890e-02f,+3.55591893e-01f,+3.08817893e-01f,+1.80844903e-01f,
-8.99196714e-02f,+1.53442435e-02f,+2.37416327e-02f,+1.10707402e-01f,+1.57920375e-01f,
-1.26342893e-01f,-1.70499370e-01f,+2.86253601e-01f,+6.05418049e-02f,-3.82919490e-01f,
-2.20120728e-01f,+9.03800502e-02f,-2.78148763e-02f,+1.28847346e-01f,+3.46564241e-02f,
+2.08908573e-01f,+2.69422680e-01f,-4.34524827e-02f,-3.91853042e-02f,-7.42387492e-03f,
-6.90204725e-02f,+6.81316406e-02f,-2.82591045e-01f,-4.61262800e-02f,+8.27025697e-02f,
+2.13159382e-01f,-1.01887427e-01f,+6.10153228e-02f,+1.88284948e-01f,-2.21452955e-02f,
+3.31445098e-01f,-1.31775081e-01f,+1.44039944e-01f,+8.78932253e-02f,+9.29787457e-02f,
-1.24710854e-02f,+3.72096039e-02f,-8.43679383e-02f,+2.86363989e-01f,-3.12647223e-02f,
-8.84367004e-02f,-2.15935677e-01f,-3.92186493e-02f,+1.19393967e-01f,+2.70101726e-02f,
-1.60303071e-01f,-1.49359271e-01f,+7.01036155e-02f,+5.61942980e-02f,-8.37607682e-02f,
-1.49834618e-01f,-3.70742828e-02f,+2.28017598e-01f,-3.47759686e-02f,+6.26512319e-02f,
+2.16556996e-01f,+1.48946419e-01f,-1.73660651e-01f,+1.31237969e-01f,+3.39731187e-01f,
+4.66186628e-02f,-1.24018542e-01f,-1.40453139e-02f,+1.14078678e-01f,-1.60813808e-01f,
-2.60629684e-01f,-1.31580018e-04f,-2.20382914e-01f,-1.98715925e-02f,+3.91021103e-01f,
+2.70659536e-01f,+1.09520748e-01f,+1.49974808e-01f,+7.83929229e-02f,+2.16892123e-01f,
-2.69508123e-01f,+4.16651100e-01f,+1.68885857e-01f,-3.76905978e-01f,-1.33397430e-01f,
-1.61471397e-01f,-1.07852638e-01f,-1.52792186e-01f,-6.02296107e-02f,-4.45166342e-02f,
+9.58305150e-02f,+2.07820311e-01f,+1.72626138e-01f,+1.61607787e-01f,+1.53469160e-01f,
-9.16530713e-02f,+4.05031815e-02f,-7.83049166e-02f,+8.75310525e-02f,-2.22951248e-01f,
-3.25282849e-02f,-4.59972322e-02f,-6.09210618e-02f,+2.19188333e-01f,-5.96907958e-02f,
+1.24388143e-01f,-1.27794445e-01f,-2.89337784e-01f,-4.80946787e-02f,+1.83380350e-01f,
+9.31350142e-02f,+1.89470664e-01f,+1.87784806e-02f,-3.11905774e-03f,-8.79616290e-02f,
+1.63964003e-01f,-1.41353950e-01f,-4.50343490e-01f,+1.21015750e-01f,+6.94831237e-02f,
+4.67165187e-02f,+6.78793341e-02f,+2.46467173e-01f,-1.88413903e-01f,+7.46309757e-02f,
-2.63253123e-01f,+1.07865080e-01f,-1.40229598e-01f,-7.13309720e-02f,-3.22784707e-02f,
+2.29910672e-01f,-1.67633127e-02f,+2.49848083e-01f,-4.03214544e-02f,-1.55860623e-02f,
-1.31737217e-01f,-1.73776239e-01f,+3.01326931e-01f,+1.24904871e-01f,+1.86846226e-01f,
-1.21999845e-01f,+1.00723147e-01f,+3.47096533e-01f,-3.11569162e-02f,+1.11456193e-01f,
+5.79370111e-02f,-1.35693416e-01f,+7.11118653e-02f,-1.89910278e-01f,-2.11977676e-01f,
-2.46488117e-02f,-1.61511809e-01f,+1.27774686e-01f,+9.17437598e-02f,+4.43518162e-02f,
-6.01250529e-02f,-8.67315829e-02f,-1.20836921e-01f,-9.66842175e-02f,+7.86841512e-02f,
+5.46030216e-02f,+6.11398704e-02f,+6.53344318e-02f,-3.52561086e-01f,+1.35062426e-01f,
+2.89787889e-01f,+1.31717205e-01f,+7.25315139e-02f,+1.63373388e-02f,+3.27161163e-01f,
+2.46911645e-02f,+2.37357672e-02f,+1.54379115e-01f,-3.21257338e-02f,-1.33282229e-01f,
-8.27009976e-02f,+4.84466776e-02f,-1.12616401e-02f,+1.17393974e-02f,-4.82748896e-02f,
+6.57167211e-02f,+7.02955201e-02f,+1.59464687e-01f,+1.88982308e-01f,+5.74410073e-02f,
+2.15310425e-01f,-6.24784864e-02f,+6.65077642e-02f,-6.46689460e-02f,+6.11484535e-02f,
+7.79961348e-02f,+6.38180226e-02f,-1.76541150e-01f,+3.20172191e-01f,+2.35898986e-01f,
-1.87384471e-01f,+3.93612124e-02f,-2.87854433e-01f,+2.57344972e-02f,-4.49246168e-01f,
-1.22870356e-01f,+3.63745429e-02f,-1.26395419e-01f,-6.20100386e-02f,+3.46218675e-01f,
+2.26712286e-01f,-4.25259136e-02f,-1.25212193e-01f,-7.71681666e-02f,+1.32873178e-01f,
-1.17942519e-01f,-6.73224544e-03f,-2.77376305e-02f,-3.98933813e-02f,-1.13049038e-01f,
+6.55987486e-02f,+9.77882072e-02f,+1.09200604e-01f,+1.15040056e-01f,-1.51940752e-02f,
-5.58895357e-02f,+7.25546330e-02f,+1.65754184e-01f,+4.01170760e-01f,-2.54600365e-02f,
-1.25867471e-01f,-2.74376303e-01f,+5.47275646e-03f,-2.05992594e-01f,-1.01584919e-01f,
+5.38947545e-02f,+7.49158785e-02f,+1.80951446e-01f,-5.18423729e-02f,-1.71537369e-01f,
-1.26134589e-01f,-5.95353059e-02f,-1.65550038e-01f,+1.65893942e-01f,-5.40467277e-02f,
+1.06798336e-01f,-3.11615523e-02f,-4.11929429e-01f,+6.07594103e-02f,+1.99312326e-02f,
+1.18665978e-01f,+3.12856406e-01f,+1.49655519e-02f,-2.38010526e-01f,+3.11995029e-01f,
+1.75646529e-01f,+1.68750912e-01f,+2.53761947e-01f,+3.10485721e-01f,-1.46771610e-01f,
+1.36795670e-01f,-1.84150174e-01f,+4.23837423e-01f,+2.16350034e-01f,+1.92198232e-01f,
+1.80860505e-01f,+1.13634221e-01f,-5.62190562e-02f,-5.05257547e-01f,-5.61316609e-02f,
-6.55321311e-03f,+3.01613361e-01f,+1.19394697e-01f,-3.78306985e-01f,+2.70764589e-01f,
-2.89195892e-03f,-1.20495491e-01f,-8.92597809e-02f,+1.80612922e-01f,+1.89586123e-03f,
-3.24153483e-01f,+3.53820682e-01f,+1.95734836e-02f,-8.79824981e-02f,+2.98106577e-02f,
+3.61591093e-02f,-1.06822006e-01f,+7.33476803e-02f,-3.89820784e-02f,+1.98406428e-01f,
-9.28085148e-02f,+6.00965098e-02f,-5.10855243e-02f,-1.22284696e-01f,+2.79928386e-01f,
-6.17823079e-02f,+2.73479763e-02f,+1.08007498e-01f,+7.52835423e-02f,-2.39228114e-01f,
-9.25252214e-02f,-5.39824776e-02f,-2.99233556e-01f,-1.50290057e-01f,+1.50071718e-02f,
+1.14297852e-01f,-1.15716429e-02f,-7.54426643e-02f,+1.96259126e-01f,+1.54413834e-01f,
+7.05759004e-02f,-6.74556121e-02f,-3.27920578e-02f,-2.93042302e-01f,+2.32079774e-01f,
+1.45922869e-01f,-5.92640787e-02f,+1.19783469e-01f,+2.50666976e-01f,-3.11729312e-01f,
-1.97753042e-01f,+4.35816437e-01f,-1.33813128e-01f,+2.45761037e-01f,+3.69861759e-02f,
-2.18937136e-02f,-2.11921260e-01f,-4.66705859e-02f,+2.55960375e-01f,+6.91236779e-02f,
+8.21258128e-02f,-1.09860316e-01f,+5.43532372e-02f,+2.96390820e-02f,-9.04357135e-02f,
+2.29727939e-01f,-1.41838089e-01f,-4.08437923e-02f,-1.56282783e-01f,+3.20497513e-01f,
+1.39446467e-01f,-1.01736002e-01f,+3.54436762e-03f,+2.91672170e-01f,+6.48847548e-03f,
+3.28921735e-01f,-8.64557847e-02f,+4.15720828e-02f,+2.15681568e-02f,-2.83723939e-02f,
-2.95507878e-01f,+1.20326072e-01f,+2.47791409e-02f,+6.90870658e-02f,-2.15683684e-01f,
+5.64231053e-02f,-4.01809178e-02f,-2.06638694e-01f,+2.06221789e-01f,-4.45001870e-01f,
+1.15619171e-02f,-1.79531187e-01f,+7.65936896e-02f,-2.30268493e-01f,-1.59247681e-01f,
+2.96459645e-01f,-1.17802091e-01f,-6.39000297e-01f,-6.61422312e-02f,+2.19976483e-03f,
+9.13005918e-02f,+5.26699364e-01f,+6.32988289e-03f,+2.97754675e-01f,+1.12424390e-02f,
+2.24850819e-01f,-1.23792343e-01f,+1.24380648e-01f,+8.10294002e-02f,-2.56001055e-01f,
+1.77301526e-01f,-1.70152381e-01f,-8.03125426e-02f,+2.33541310e-01f,-1.48913547e-01f,
+1.55682653e-01f,-1.20369419e-01f,-5.93234822e-02f,-1.82816401e-01f,+1.12332597e-01f,
-4.05898876e-02f,-1.13784440e-01f,+5.66876493e-02f,-1.03599473e-03f,+1.50054410e-01f,
+1.40560810e-02f,-2.04502627e-01f,+1.01284929e-01f,-4.97972034e-02f,+2.24489227e-01f,
+3.30478847e-02f,+1.31062970e-01f,+1.85558386e-03f,+1.05987817e-01f,-1.32319834e-02f,
-2.09078327e-01f,-2.20302328e-01f,+2.57925931e-02f,+2.47792974e-02f,+2.27493569e-01f,
+8.29619393e-02f,+2.01040469e-02f,+5.51266819e-02f,-1.32490247e-01f,+6.83309464e-03f,
+4.18006897e-01f,-1.87374353e-02f,+2.53651798e-01f,+1.62587985e-01f,+3.95585038e-02f,
-5.68572134e-02f,-3.23757045e-02f,+2.70148776e-02f,-1.03093244e-01f,+3.33419502e-01f,
-1.19808123e-01f,+6.47028387e-02f,+4.19892110e-02f,-2.73717076e-01f,+5.80771446e-01f,
-1.42167464e-01f,+3.35985445e-03f,-4.89395484e-02f,+9.87993851e-02f,+1.26331761e-01f,
+1.80515811e-01f,-2.11511217e-02f,+2.06625506e-01f,+3.61250602e-02f,-4.61885259e-02f,
-9.93482545e-02f,-9.18001961e-03f,-2.15983987e-01f,+1.20332539e-01f,+1.65350527e-01f,
+2.87492633e-01f,-1.22534549e-02f,+2.35300004e-01f,+1.23461811e-02f,-2.10434422e-01f,
+2.12872580e-01f,-2.03475818e-01f,+2.01614618e-01f,+4.26984467e-02f,+2.62145042e-01f,
-1.84355631e-01f,-1.54518694e-01f,+1.68227870e-02f,+9.91196334e-02f,+1.61602557e-01f,
-5.52524775e-02f,-2.10851744e-01f,+1.11607939e-01f,-2.90631592e-01f,+5.56541234e-02f,
+2.29940221e-01f,-1.85049027e-02f,+2.97326203e-02f,-2.17012465e-01f,+5.58275692e-02f,
-3.99931408e-02f,-3.25776517e-01f,-1.10175787e-02f,+3.09251528e-02f,-2.25307405e-01f,
+6.95491908e-03f,+3.14155310e-01f,-7.40169659e-02f,-1.86916336e-01f,+1.58818200e-01f,
-9.63794440e-02f,+3.18043351e-01f,+9.82585549e-02f,+1.38553567e-02f,+1.58219233e-01f,
-1.77711342e-02f,+6.02897964e-02f,+7.48507455e-02f,-8.03411938e-03f,+9.64011103e-02f,
-1.37888417e-01f,-4.13228832e-02f,-1.86938688e-01f,+1.84551388e-01f,+1.36419550e-01f,
+9.18287132e-03f,+2.01151684e-01f,+3.31965327e-01f,+1.41034171e-01f,+1.23933867e-01f,
-1.02128677e-01f,+1.44041836e-01f,+1.35595143e-01f,+2.02340558e-01f,-6.59439191e-02f,
+1.68632984e-01f,+4.81104478e-03f,-2.73460615e-02f,+1.07201673e-01f,+3.75675529e-01f,
+1.09011136e-01f,-2.72319317e-01f,+2.35592410e-01f,-7.13033229e-02f,-2.11956635e-01f,
-2.32090056e-02f,-4.73874137e-02f,-8.24775174e-02f,+1.35130972e-01f,+8.49492755e-03f,
+2.38166258e-01f,+2.40679443e-01f,-3.21400575e-02f,-1.85434550e-01f,+2.33291686e-02f,
+6.32830663e-03f,+1.00946594e-02f,+1.48052081e-01f,-1.67306796e-01f,-2.42748588e-01f,
+1.48540825e-01f,+1.95693485e-02f,+1.85781538e-01f,+1.14082573e-02f,-1.30027011e-01f,
+1.15152158e-01f,-1.79594085e-01f,-3.73409502e-02f,+2.05186144e-01f,-4.76965383e-02f,
+1.53956681e-01f,-1.35665894e-01f,-3.11494082e-01f,-1.52055010e-01f,+1.46080256e-01f,
+4.04680669e-02f,-2.29464769e-01f,+1.60563990e-01f,+2.15073213e-01f,-1.04213297e-01f,
-2.74999090e-03f,+1.47084996e-01f,-1.58966348e-01f,+3.16656232e-02f,+1.21364385e-01f,
-9.54327807e-02f,+2.83384055e-01f,+3.55274498e-01f,+2.46633030e-02f,-9.47560295e-02f,
-1.20825790e-01f,-6.14615008e-02f,-1.45269319e-01f,+2.96727240e-01f,-2.06269342e-02f,
-1.58399269e-01f,+6.61069900e-02f,+9.65767950e-02f,+1.87971205e-01f,-1.76281601e-01f,
+6.98814020e-02f,+9.14381593e-02f,+1.15394339e-01f,+1.12535447e-01f,+6.53739050e-02f,
-1.27342761e-01f,-6.70835301e-02f,-1.34156555e-01f,-7.97564313e-02f,+4.09594513e-02f,
+8.84663488e-04f,-2.45728150e-01f,-4.02514376e-02f,+1.97153196e-01f,-1.00017928e-01f,
-2.19724793e-02f,-7.89925754e-02f,+7.47309625e-02f,+3.14278379e-02f,-1.21851057e-01f,
+1.08815715e-01f,+2.83113092e-01f,+1.36655539e-01f,+3.24728757e-01f,+5.28446119e-03f,
-1.25116199e-01f,+2.40047425e-01f,-6.69636717e-03f,+1.22940570e-01f,-1.89213187e-01f,
-1.85499400e-01f,-1.67945758e-01f,+1.29846066e-01f,+3.62565815e-02f,+1.14015751e-02f,
-2.08451167e-01f,+1.83854952e-01f,+3.87833174e-03f,-9.14567336e-02f,-1.46288142e-01f,
+1.99088886e-01f,-1.40129164e-01f,-1.71112150e-01f,+3.67260665e-01f,+9.42282081e-02f,
-1.53128192e-01f,+2.60958131e-02f,+3.36654127e-01f,-1.18964635e-01f,-8.63207653e-02f,
-1.77388832e-01f,+3.16908285e-02f,+9.91904736e-03f,-1.06475368e-01f,+1.90948009e-01f,
+5.28170280e-02f,+5.96657693e-02f,-7.31874257e-02f,-8.94986987e-02f,-3.22987512e-02f,
+5.74639849e-02f,+2.51318544e-01f,+3.18518400e-01f,-3.37087139e-02f,+1.23430371e-01f,
-9.51446444e-02f,-2.17435643e-01f,+4.08229455e-02f,-1.70237377e-01f,+7.63727203e-02f,
+2.24143848e-01f,-1.79295659e-01f,-2.01721832e-01f,+4.28513214e-02f,-8.55957493e-02f,
+1.68628823e-02f,+1.14043176e-01f,-4.17053290e-02f,-4.64435481e-02f,+3.20869952e-01f,
-9.90446731e-02f,+8.90534446e-02f,+1.66743532e-01f,-1.63071260e-01f,+2.26681441e-01f,
+2.04867736e-01f,-6.32673055e-02f,+8.42833146e-02f,-1.34605199e-01f,-4.21165787e-02f,
+1.91500679e-01f,-5.88957667e-02f,+1.62307937e-02f,+3.06477901e-02f,-1.78972870e-01f,
+2.21904188e-01f,-1.35440052e-01f,+3.04584265e-01f,-4.75863777e-02f,-7.09233582e-02f,
+9.98957008e-02f,-8.20552036e-02f,-3.84928346e-01f,+9.88672823e-02f,+2.15922102e-01f,
+5.95037229e-02f,+8.47994387e-02f,-4.65083793e-02f,-1.20764785e-01f,+3.93153280e-01f,
+1.72692895e-01f,+1.72759473e-01f,+3.68276909e-02f,-7.47811720e-02f,+1.11586712e-01f,
+3.30561702e-03f,+2.58274287e-01f,+2.41958231e-01f,+1.41153067e-01f,-5.72609752e-02f,
+9.47426781e-02f,-9.87000242e-02f,+1.21345133e-01f,-1.40515968e-01f,-1.17565043e-01f,
-2.28508264e-01f,-1.72670677e-01f,-8.88748094e-02f,+7.87672251e-02f,+4.86363322e-02f,
-6.19160086e-02f,-1.38097122e-01f,-2.45619833e-01f,-4.73000631e-02f,+1.07047431e-01f,
-3.63541171e-02f,-7.83889517e-02f,-2.05453798e-01f,+2.66876101e-01f,-8.84764865e-02f,
+2.04703584e-01f,+8.83291569e-03f,+4.10948172e-02f,+1.58284158e-01f,-1.85636401e-01f,
+2.49881536e-01f,-2.00679138e-01f,+3.57623100e-02f,+1.04272105e-01f,+1.06546611e-01f,
+2.92178899e-01f,+6.07339367e-02f,-1.62188590e-01f,-1.10309727e-01f,+2.02657133e-01f,
+1.63492747e-02f,-2.08984643e-01f,+3.06504574e-02f,+2.65536875e-01f,+1.12539038e-01f,
-2.29543801e-02f,-1.72306910e-01f,-2.64336079e-01f,-6.39145300e-02f,+1.97236180e-01f,
+2.03652382e-01f,-3.15040588e-01f,+1.91943794e-01f,+1.32803157e-01f,-1.48523152e-01f,
-3.97338986e-01f,+2.47449987e-02f,-6.07008450e-02f,+2.79238559e-02f,+1.07102543e-01f,
+3.52751136e-01f,+4.19557653e-03f,+1.12222217e-01f,-3.50377858e-01f,-2.02929378e-01f,
+1.95731670e-01f,+3.70701142e-02f,-7.84626305e-02f,-5.35579063e-02f,+1.44749641e-01f,
+1.25375912e-01f,-4.28315997e-02f,-2.27791861e-01f,-1.42303631e-01f,-3.79122198e-02f,
+1.11977700e-02f,+1.58811942e-01f,-5.57164028e-02f,+8.19232389e-02f,+1.49314389e-01f,
-1.21183291e-01f,+2.29298294e-01f,-2.22404674e-01f,-6.44127205e-02f,+2.75506191e-02f,
+2.32126918e-02f,+1.04656607e-01f,-5.70077188e-02f,+8.43396634e-02f,-2.21196860e-01f,
-1.18923619e-01f,+8.23870450e-02f,+1.64061226e-02f,-1.25859961e-01f,+2.18960247e-03f,
-2.47610748e-01f,+2.01750904e-01f,+4.64402623e-02f,-2.00799868e-01f,+7.40679428e-02f,
+1.95413783e-01f,-2.53730327e-01f,-6.14856780e-02f,+1.36619508e-01f,-1.86261654e-01f,
+2.65326589e-01f,-2.06031024e-01f,-8.87471884e-02f,+1.94980085e-01f,-6.34392500e-02f,
+1.66444659e-01f,+3.92563753e-02f,+2.02876329e-01f,-1.33899644e-01f,+9.11948681e-02f,
+9.32760313e-02f,-3.72242667e-02f,-1.16620809e-02f,-2.23996714e-02f,-2.00941842e-02f,
-1.82261765e-01f,+6.48380071e-02f,-3.76371555e-02f,-1.30999207e-01f,+1.93182826e-01f,
+3.77454497e-02f,-2.59932727e-01f,-2.38031507e-01f,+6.10663965e-02f,+5.60870916e-02f,
-2.14062899e-01f,+9.87419114e-02f,-1.98040038e-01f,+1.39791682e-01f,+1.53143048e-01f,
-9.55500230e-02f,+6.79377764e-02f,+3.81971709e-02f,-9.71731637e-03f,+1.10746108e-01f,
-2.08447844e-01f,-1.62117109e-01f,-1.81193963e-01f,-6.46518245e-02f,-1.59236684e-01f,
+5.26240133e-02f,-2.55000561e-01f,-2.48280406e-01f,+1.04552157e-01f,-6.06866479e-02f,
+1.59711659e-01f,-4.48398180e-02f,+1.41729146e-01f,+1.09078713e-01f,+1.03143819e-01f,
+5.87819070e-02f,+2.30629161e-01f,+9.49250534e-02f,+1.43086901e-02f,-8.78211483e-02f,
+1.18330806e-01f,+1.68834642e-01f,+4.47453916e-01f,+2.51753420e-01f,+5.79268970e-02f,
+6.94377348e-02f,-1.36487603e-01f,+5.77537715e-03f,-7.27267265e-02f,-2.15026978e-02f,
-1.21929809e-01f,-3.84194101e-03f,-7.39319250e-03f,+3.77531983e-02f,-1.03859507e-01f,
-2.49221642e-02f,-3.14148329e-03f,-5.01525290e-02f,+4.57667038e-02f,-4.40218765e-03f,
-1.22751243e-01f,-2.14884102e-01f,-2.99724080e-02f,+9.54831615e-02f,+7.18686581e-02f,
+2.21340805e-01f,+1.20442882e-01f,-1.09753750e-01f,-1.29943818e-01f,-1.45152062e-01f,
+1.85950056e-01f,-2.50635389e-02f,+8.98495987e-02f,-5.76927029e-02f,+1.76413596e-01f,
-1.34601220e-01f,+1.46066463e-02f,-1.66764818e-02f,+2.98317343e-01f,+1.36074275e-01f,
+4.51364778e-02f,+6.76116347e-02f,-2.26260778e-02f,+8.89609978e-02f,-2.28645191e-01f,
+2.36853614e-01f,+1.31276259e-02f,-5.97792342e-02f,-3.86301801e-02f,+1.46143928e-01f,
-1.08204961e-01f,+1.54878199e-01f,+1.07875094e-01f,+2.03666911e-01f,-7.07364306e-02f,
-1.51591465e-01f,+2.61362374e-01f,+3.29879783e-02f,+6.86080083e-02f,-8.99597779e-02f,
-2.50142235e-02f,+5.78173138e-02f,+4.77737673e-02f,-5.31559885e-02f,-1.16065308e-01f,
-5.46928458e-02f,-6.37185499e-02f,+9.89327952e-02f,+9.94206443e-02f,+1.04613490e-02f,
+7.13200569e-02f,+6.11041524e-02f,+8.38575736e-02f,-7.40056336e-02f,-6.12042360e-02f,
+4.74072434e-02f,+3.53209525e-02f,-1.50223076e-01f,-2.94274129e-02f,-2.29992107e-01f,
+2.32440680e-01f,-9.14948061e-02f,+2.69477040e-01f,+1.10164598e-01f,+5.75334486e-03f,
+6.93385229e-02f,-2.14357406e-01f,+4.05608714e-02f,-4.20046821e-02f,+9.91394520e-02f,
-9.71304700e-02f,+1.98803619e-01f,+2.30388150e-01f,+8.64136368e-02f,+2.01837510e-01f,
+9.79915112e-02f,-4.34865505e-02f,-1.43270761e-01f,-2.16627866e-01f,+2.61127770e-01f,
+1.17762841e-01f,+2.93703943e-01f,+9.21762511e-02f,-2.07569659e-01f,+1.87096335e-02f,
+7.57717490e-02f,+1.30538031e-01f,+1.83834881e-01f,+1.17130473e-01f,-6.31684884e-02f,
+4.51730564e-03f,+1.98295429e-01f,-7.75285065e-02f,-1.00417376e-01f,+2.23309740e-01f,
+5.42289875e-02f,+1.01178354e-02f,-6.60119653e-02f,-1.40712783e-01f,-1.42547503e-01f,
-1.95135459e-01f,+3.02710347e-02f,-5.52033931e-02f,+1.21101923e-01f,+1.51668847e-01f,
+4.06734087e-03f,-2.29798451e-01f,-1.16138913e-01f,+2.03454241e-01f,+7.23596141e-02f,
-1.78606927e-01f,-2.61842217e-02f,+8.30001477e-03f,-5.14374115e-02f,+9.81373936e-02f,
+1.45710036e-01f,+1.82771519e-01f,-7.94381350e-02f,+2.07096010e-01f,-1.00479931e-01f,
+1.56486347e-01f,+4.07995246e-02f,-7.56745925e-03f,-7.30591863e-02f,+5.67813125e-03f,
+1.35960743e-01f,+1.32281959e-01f,-1.94482014e-01f,-1.77178204e-01f,-2.88629662e-02f,
-4.40330058e-03f,+1.52687989e-02f,+3.91785473e-01f,-1.15558930e-01f,-7.65124559e-02f,
+2.40558878e-01f,-2.73361325e-01f,-1.50060980e-02f,-2.27695126e-02f,-1.06180497e-01f,
+1.16591960e-01f,+1.29477203e-01f,-9.26788971e-02f,+8.07744786e-02f,+1.87003538e-01f,
+1.74368516e-01f,-1.39199391e-01f,+1.08968448e-02f,+2.29966798e-04f,-7.99169689e-02f,
-1.90564375e-02f,+1.05624199e-01f,+9.41691548e-03f,+2.02654023e-02f,-1.04039662e-01f,
-2.11562082e-01f,-4.78242673e-02f,-1.30108401e-01f,+5.48381582e-02f,+7.96120241e-02f,
-4.54470515e-02f,-2.90303007e-02f,-2.36599341e-01f,+2.43162364e-02f,+6.98922127e-02f,
+9.23198983e-02f,+1.04430012e-01f,+3.13209742e-02f,-2.17040852e-01f,+1.37585595e-01f,
-3.01661603e-02f,+1.04258202e-01f,-1.02078602e-01f,-1.22245602e-01f,+1.20984443e-01f,
-1.88859683e-02f,+1.73613261e-02f,-3.70800272e-02f,-2.40439922e-01f,-4.84713838e-02f,
+1.05213135e-01f,-3.38328513e-03f,+4.96704765e-02f,+1.65056303e-01f,+1.33545667e-01f,
+1.50638863e-01f,+1.27663419e-01f,+7.26757422e-02f,-6.04901612e-02f,+1.06235608e-01f,
-2.31658176e-01f,+6.57628011e-03f,-2.07677428e-02f,-8.61790180e-02f,-1.06627606e-01f,
+1.19725086e-01f,+2.41345167e-01f,-1.33365482e-01f,+1.42933637e-01f,-1.40009925e-01f,
+3.95948142e-02f,-1.31266390e-03f,+2.65251696e-01f,-3.92327793e-02f,-1.12804901e-02f,
+4.42915149e-02f,-1.11773260e-01f,+1.03324808e-01f,+2.51385272e-01f,-1.56650499e-01f,
+2.38650423e-02f,-1.71453729e-01f,+1.52770519e-01f,+1.54821292e-01f,+1.59478441e-01f,
-7.12431297e-02f,+4.93552722e-02f,-9.57568139e-02f,-9.73381028e-02f,+1.58341423e-01f,
-2.43400350e-01f,-3.27102430e-02f,+1.05703682e-01f,+2.56067157e-01f,+2.77252913e-01f,
+2.62438208e-01f,+1.78480446e-01f,-1.13729931e-01f,+8.40602890e-02f,+9.23695639e-02f,
+2.32625738e-01f,+5.16989231e-02f,+2.17692941e-01f,+1.02486357e-01f,+7.09304586e-02f,
+5.73644303e-02f,+1.18400596e-01f,-6.05957657e-02f,+9.00001749e-02f,-8.26241598e-02f,
-9.54799503e-02f,+3.79464217e-02f,+4.06911261e-02f,+8.14126525e-03f,+1.06579494e-02f,
-6.48160418e-03f,+1.11900650e-01f,+1.12852396e-03f,+3.60158049e-02f,-1.19259223e-01f,
+1.01324134e-01f,+1.31945312e-01f,-1.33390054e-01f,+9.62780714e-02f,+5.91819324e-02f,
+2.28643358e-01f,+1.49066463e-01f,+2.15492472e-01f,+1.06325578e-02f,+2.01178074e-01f,
-3.31167579e-02f,+3.81697854e-03f,-1.58995986e-02f,+1.47047326e-01f,+8.37446526e-02f,
+1.36913374e-01f,-2.24478900e-01f,-5.70647940e-02f,+2.59352386e-01f,-4.11726944e-02f,
-1.10011108e-01f,+3.54067087e-02f,+1.26422390e-01f,-9.34667140e-02f,+6.79590330e-02f,
-1.05401039e-01f,-1.76397376e-02f,+1.38686299e-01f,+2.58371800e-01f,+4.37356997e-03f,
+2.78136544e-02f,+2.88602468e-02f,+3.07749361e-02f,+1.10583976e-01f,-9.54208300e-02f,
+1.88995391e-01f,+1.09930439e-02f,-1.00200519e-01f,+9.21102911e-02f,-1.07553015e-02f,
+5.94970137e-02f,-2.04776973e-01f,-2.20013112e-01f,-1.70783803e-01f,+1.23845562e-01f,
-6.74363226e-02f,+1.81076393e-01f,-1.41287046e-02f,-1.48192748e-01f,+1.27551526e-01f,
-1.69763267e-01f,+9.90714133e-02f,-2.46523926e-03f,-1.96489215e-01f,+6.14283904e-02f,
+6.46066219e-02f,-4.35531102e-02f,-1.15277413e-02f,+1.66857362e-01f,+1.01050504e-01f,
+3.77506018e-02f,+7.71660805e-02f,-1.03118397e-01f,+1.03148453e-01f,+2.30658144e-01f,
+1.23991035e-01f,-1.80355057e-01f,-2.98746526e-02f,+2.48437420e-01f,+1.30378008e-01f,
-2.37254649e-01f,-9.96803772e-03f,-2.00289115e-01f,-9.61109400e-02f,+3.17113042e-01f,
+2.58411709e-02f,+7.61397481e-02f,+1.74354583e-01f,-1.30354511e-02f,+2.45668456e-01f,
-1.48372859e-01f,+2.30317134e-02f,-9.80182290e-02f,-5.95782362e-02f,+8.75583617e-04f,
+2.53418744e-01f,+1.35622010e-01f,-8.84186998e-02f,+3.31171229e-02f,+1.07626773e-01f,
+1.15120262e-01f,+8.33406299e-02f,-4.23377678e-02f,-3.75623032e-02f,+6.33902033e-04f,
+6.94226474e-02f,-1.97368696e-01f,-1.81896195e-01f,-6.51101321e-02f,+4.46327776e-02f,
+2.01489449e-01f,-3.26776765e-02f,+5.47883473e-02f,+1.44235631e-02f,-7.14345723e-02f,
-3.91051080e-03f,+6.34924546e-02f,-5.16368337e-02f,+1.58688724e-01f,+1.59712449e-01f,
-2.97505129e-02f,+1.92291010e-02f,-1.60228293e-02f,-1.25111222e-01f,-1.37194917e-01f,
+1.16426066e-01f,+1.26485899e-01f,+2.35705134e-02f,+1.41480966e-02f,+3.12780708e-01f,
-8.44175518e-02f,-6.96789473e-02f,-1.09276675e-01f,-1.01978652e-01f,-1.85947325e-02f,
-8.41626972e-02f,-2.58906931e-01f,-2.29902849e-01f,+1.45330086e-01f,-1.85100958e-01f,
-8.94470885e-02f,-3.12760323e-02f,+1.46729395e-01f,+1.34124309e-01f,+1.79851741e-01f,
+8.68246406e-02f,+3.13720182e-02f,-1.51924297e-01f,+5.58841117e-02f,+8.68003722e-03f,
+4.19113368e-01f,+1.50752366e-01f,+7.55678564e-02f,+2.34053448e-01f,-1.11521445e-01f,
+8.47961456e-02f,+3.31762433e-01f,-6.95529133e-02f,-2.54675597e-01f,-1.50513306e-01f,
-6.75219595e-02f,+1.91045403e-01f,+1.00033164e-01f,-1.00254990e-01f,-1.01396754e-01f,
-3.01153660e-02f,-2.01026827e-01f,+1.49740621e-01f,+2.13044539e-01f,+2.94764817e-01f,
-1.95224266e-02f,+4.36482728e-02f,+7.66450539e-02f,+1.64609343e-01f,+1.80275157e-01f,
+6.64121583e-02f,-1.08745359e-01f,+1.49209008e-01f,+1.78749621e-01f,+1.41958311e-01f,
-2.87933677e-01f,+4.04010154e-03f,-2.38997173e-02f,+1.43076509e-01f,-9.99578685e-02f,
-9.13220868e-02f,-6.84908032e-02f,+1.75974332e-02f,-1.81525841e-01f,+6.57581091e-02f,
+9.45267919e-03f,+3.64084601e-01f,+4.95166071e-02f,-2.81192452e-01f,+2.91152969e-02f,
-7.05384016e-02f,+1.29765719e-01f,+3.50724459e-02f,-1.45388156e-01f,-8.90417323e-02f,
-2.48407364e-01f,+6.77408203e-02f,+1.47891929e-02f,+1.20864406e-01f,+1.43368989e-01f,
+2.54736990e-01f,+1.94801707e-02f,-2.97090001e-02f,+8.55350271e-02f,-1.49259940e-01f,
-2.50310805e-02f,-4.79974411e-03f,-1.59653559e-01f,-1.48329929e-01f,+6.81297630e-02f,
+1.21691367e-02f,-2.60521322e-01f,-7.13094920e-02f,+3.59066091e-02f,-6.43205177e-03f,
+2.28082567e-01f,+7.96193108e-02f,+1.45516381e-01f,-9.81781483e-02f,-1.15010574e-01f,
-3.54493745e-02f,-1.50637388e-01f,-9.12007391e-02f,+1.16656899e-01f,+3.29854339e-02f,
-5.19388728e-02f,-1.57819107e-01f,+6.33405745e-02f,+1.79061577e-01f,-1.88349150e-02f,
-4.92749400e-02f,+5.90686761e-02f,-8.22752528e-03f,-1.18971117e-01f,-2.33903274e-01f,
+3.16998720e-01f,-3.27706337e-01f,+2.13749826e-01f,-8.66645202e-02f,-7.10074827e-02f,
-7.22670555e-02f,-1.21019684e-01f,+1.55185267e-01f,+2.26547241e-01f,-1.64296195e-01f,
-2.01641306e-01f,+1.36878295e-02f,-8.13186243e-02f,-1.68056354e-01f,-9.04085562e-02f,
+1.80335119e-01f,-1.05854169e-01f,-1.05178043e-01f,+2.63625216e-02f,+1.01722077e-01f,
+2.20342409e-02f,-7.26735070e-02f,+1.58808485e-01f,+1.04336388e-01f,-1.70037210e-01f,
+1.43894204e-03f,-1.20959021e-01f,+6.16100766e-02f,+5.89424223e-02f,+7.35810818e-03f,
-1.34490237e-01f,-1.12925455e-01f,+5.76460501e-03f,-4.84699719e-02f,+1.70377582e-01f,
+1.04147792e-01f,-2.01068640e-01f,-3.77448536e-02f,-5.22595719e-02f,+2.07966715e-01f,
-3.03291559e-01f,+2.37149060e-01f,-5.00252135e-02f,-3.04873125e-03f,+1.68438777e-01f,
+1.80706903e-01f,-2.35122204e-01f,-1.98042735e-01f,+6.18388541e-02f,+1.18682124e-01f,
+4.66190279e-02f,-8.19503143e-02f,-1.38116349e-02f,+7.31100291e-02f,-2.91198671e-01f,
-4.64203581e-02f,+2.42419079e-01f,-1.30541980e-01f,+4.82696779e-02f,+1.31784365e-01f,
-2.19924375e-01f,+1.22637808e-01f,+1.32241711e-01f,+4.62177135e-02f,+1.91784613e-02f,
-9.52271894e-02f,+6.10685721e-02f,-3.70618254e-02f,+4.11910750e-02f,-7.45638758e-02f,
+3.80588882e-02f,+2.55769193e-01f,+1.31831601e-01f,+4.19481955e-02f,-7.61950091e-02f,
+1.16684712e-01f,-4.39023674e-02f,-1.22409582e-01f,+2.61055417e-02f,+3.29738557e-02f,
-2.09181216e-02f,-3.15081626e-02f,+1.00429490e-01f,-3.63210626e-02f,-5.18183559e-02f,
+7.48393089e-02f,-5.29312007e-02f,+3.21024388e-01f,+8.26586783e-02f,+1.29760295e-01f,
-1.72372431e-01f,+1.72902301e-01f,-2.46038027e-02f,+6.23863898e-02f,-6.94602355e-02f,
+1.93566665e-01f,-6.15026020e-02f,+1.99304730e-01f,-8.80528614e-02f,-1.51664140e-02f,
+1.27058700e-01f,+1.07208351e-02f,-2.31765673e-01f,-2.07385510e-01f,+3.49597111e-02f,
+1.55736357e-01f,-1.31778708e-02f,+5.27650304e-02f,-3.29860374e-02f,+1.23044141e-01f,
+4.44121957e-01f,+6.29118830e-02f,-2.21061826e-01f,+1.63481653e-01f,-9.19630378e-03f,
+4.91362773e-02f,+1.57666802e-01f,-1.87353879e-01f,-2.58287579e-01f,+6.37836605e-02f,
+1.52824223e-01f,+1.98016644e-01f,-3.44381213e-01f,-1.20471030e-01f,-1.52579881e-02f,
-6.69905320e-02f,-5.92795573e-02f,+1.07310796e-02f,-1.33279860e-01f,-9.65517014e-02f,
-1.14874639e-01f,-1.53705105e-01f,-1.62497997e-01f,+1.07406124e-01f,-1.32712498e-01f,
+2.34101534e-01f,+1.68956727e-01f,-3.88182476e-02f,+6.30787164e-02f,+3.14572901e-02f,
-1.02316430e-02f,-6.88325316e-02f,+1.78929362e-02f,+2.03066394e-02f,+1.95973724e-01f,
+1.62806928e-01f,-1.19630456e-01f,+6.95501268e-02f,-1.22405868e-02f,-7.54483566e-02f,
+1.68461174e-01f,-8.24884102e-02f,-4.94095385e-02f,-1.25763521e-01f,-1.14453413e-01f,
+1.44219100e-01f,+1.98348567e-01f,+4.86739129e-02f,+1.31382555e-01f,+1.89879671e-01f,
-5.54010943e-02f,-2.27742910e-01f,+2.04338163e-01f,+7.74037093e-02f,-9.59471613e-02f,
+1.98449701e-01f,+2.11785883e-01f,-1.70845613e-01f,+3.83607656e-01f,+6.30145147e-02f,
-1.47623599e-01f,-2.37240940e-01f,-8.75589624e-02f,+2.32897215e-02f,+7.74146318e-02f,
+1.93557128e-01f,-2.89252400e-02f,-1.18785441e-01f,+1.08603813e-01f,+1.00767769e-01f,
-1.97004646e-01f,+3.31039011e-01f,+3.13164711e-01f,+1.72737420e-01f,-1.73471540e-01f,
+7.05361813e-02f,+1.98401704e-01f,-1.65202171e-01f,-1.22175060e-01f,-9.04760212e-02f,
+1.13970406e-01f,+9.86212045e-02f,+6.86674640e-02f,-2.47026086e-02f,+5.15462225e-03f,
+3.79880726e-01f,+5.42347543e-02f,+1.85206950e-01f,-1.79806288e-04f,-1.56125007e-02f,
-4.34193686e-02f,+1.64383575e-01f,+9.66749564e-02f,+2.00180173e-01f,+1.26876757e-01f,
+2.23363116e-02f,+6.26473278e-02f,+1.76039293e-01f,+3.44614312e-03f,+6.86722621e-02f,
-1.77023873e-01f,-3.59861441e-02f,+8.97027999e-02f,+3.66800010e-01f,+2.00102493e-01f,
+1.12112612e-01f,+1.85101177e-03f,+1.01942778e-01f,+6.62354305e-02f,-1.53767735e-01f,
+1.80591587e-02f,+2.07956448e-01f,-5.61766624e-02f,+4.06449318e-01f,-2.02434316e-01f,
+7.55053014e-02f,+8.00441206e-02f,+4.01243232e-02f,-1.36439592e-01f,+2.53581218e-02f,
+1.38866886e-01f,+3.90273817e-02f,-2.63019830e-01f,-2.84543298e-02f,-1.63518906e-01f,
-3.99723053e-02f,+3.05615105e-02f,-1.81848183e-01f,-1.05494082e-01f,+1.89159945e-01f,
+2.40265653e-02f,-2.19962582e-01f,-2.59936564e-02f,+2.46217489e-01f,+7.19763860e-02f,
+2.24716231e-01f,-2.05161497e-02f,+1.03846043e-01f,+9.93336812e-02f,+6.09003380e-02f,
+2.71359026e-01f,+3.94324988e-01f,-8.99652764e-02f,+6.74493937e-03f,+1.08176053e-01f,
-1.62848040e-01f,-8.88773426e-02f,-3.81048657e-02f,-1.52619109e-01f,-1.77275583e-01f,
+1.35255367e-01f,-2.31266007e-01f,+8.88112709e-02f,+3.79550345e-02f,+1.02704234e-01f,
-4.88386340e-02f,+2.01224327e-01f,+7.56947789e-03f,+4.75499481e-02f,+1.13356911e-01f,
-6.47494122e-02f,+5.77471703e-02f,+4.66222428e-02f,+9.24539566e-02f,+1.54467732e-01f,
-1.95653349e-01f,-7.26712048e-02f,+1.16907857e-01f,-3.07137030e-03f,-1.39194801e-02f,
-2.29205519e-01f,+1.79078892e-01f,+2.46370230e-02f,-1.35416621e-02f,+4.38095599e-01f,
+1.17114708e-01f,-6.13528453e-02f,-6.46200217e-03f,-2.55575292e-02f,+3.06720994e-02f,
-2.32259318e-01f,+2.68276432e-03f,+4.25916426e-02f,-2.73091327e-02f,+4.71366681e-02f,
+8.18564743e-02f,-2.83721332e-02f,+9.13344026e-02f,-4.41059209e-02f,+1.13601133e-01f,
-2.25820132e-02f,+3.24358523e-01f,+2.77445614e-01f,+6.63938373e-02f,+1.86330736e-01f,
+2.80849874e-01f,-2.64681876e-02f,-1.73116736e-02f,+2.18045846e-01f,+3.62150893e-02f,
+2.10934862e-01f,-8.93710852e-02f,-1.12790182e-01f,-2.08079636e-01f,-1.76046833e-01f,
-3.64879295e-02f,+5.53363040e-02f,-3.52496170e-02f,-3.17892618e-02f,+2.23119184e-01f,
-2.92254006e-03f,+7.62158334e-02f,+1.14483669e-01f,+9.79469717e-02f,+1.89932287e-02f,
+1.15636379e-01f,+2.22937658e-01f,-3.95174503e-01f,+1.86388139e-02f,-1.55455666e-02f,
+2.50979990e-01f,+6.17841184e-02f,-5.91213703e-02f,+1.85758263e-01f,+1.76333919e-01f,
+1.18781991e-01f,+1.07370175e-01f,-1.10444315e-02f,+4.46146578e-01f,+2.93081760e-01f,
+1.63170889e-01f,+1.45797431e-01f,+3.57720139e-03f,-6.21265024e-02f,-2.10284695e-01f,
+3.30774903e-01f,+5.37887625e-02f,-7.20331296e-02f,-3.04533571e-01f,-2.21023466e-02f,
+2.26346657e-01f,+2.08034530e-01f,-2.86792163e-02f,-3.62694226e-02f,-8.58890936e-02f,
-1.78184703e-01f,-1.28573745e-01f,+3.26425850e-01f,-2.65484825e-02f,+7.26746023e-02f,
+1.99907362e-01f,+2.11147577e-01f,-5.84359393e-02f,+2.40257353e-01f,+3.35022897e-01f,
-6.04037419e-02f,+1.98008582e-01f,-1.25096040e-02f,-1.30660489e-01f,+3.00212532e-01f,
+1.19398229e-01f,-7.26434141e-02f,+4.41390462e-02f,-5.41475788e-02f,+1.45722888e-02f,
-9.67433453e-02f,+3.14112365e-01f,-1.02404825e-01f,+2.55345643e-01f,+1.38887480e-01f,
-6.30864408e-03f,+1.49996892e-01f,+4.01075510e-03f,+7.50923902e-02f,+4.75307524e-01f,
+3.68615687e-02f,-7.19578937e-02f,-1.42013535e-01f,-3.46475035e-01f,+1.11773200e-01f,
+2.88581494e-02f,-2.37119067e-02f,+1.26775820e-02f,+3.77505183e-01f,+1.66103140e-01f,
-1.87224165e-01f,+2.52215862e-01f,+1.65910408e-01f,-6.92784786e-02f,-1.20061301e-01f,
-1.86209977e-02f,+1.32285208e-01f,-4.63041924e-02f,+1.02119923e-01f,-4.31486443e-02f,
-3.64942546e-03f,+9.15091410e-02f,-1.49485365e-01f,+1.42498791e-01f,+3.31171453e-01f,
+7.65554830e-02f,-5.66928945e-02f,-1.72145590e-01f,-1.98787510e-01f,-1.25365019e-01f,
+9.31282714e-02f,+1.95577256e-02f,+1.47119612e-01f,+5.17487489e-02f,+2.50284553e-01f,
+1.95680335e-01f,+3.63822341e-01f,-5.05458824e-02f,+1.79408595e-01f,-2.21262485e-01f,
+2.51128197e-01f,+1.14330083e-01f,+3.59534249e-02f,+1.24075614e-01f,+9.68061611e-02f,
+2.25165665e-01f,-3.85064818e-02f,+1.09436892e-01f,-7.62183070e-02f,-3.79177421e-01f,
-5.66718467e-02f,-8.35636109e-02f,+7.21189305e-02f,+3.13637182e-02f,-1.68011382e-01f,
-8.91171768e-02f,+3.19257341e-02f,+6.15100674e-02f,-1.25805348e-01f,+2.24535361e-01f,
-3.83311749e-01f,+4.17856127e-02f,-2.15859979e-01f,+1.18434295e-01f,-7.72956833e-02f,
+1.87466741e-01f,-1.09475456e-01f,-8.78307894e-02f,-2.00872589e-02f,+7.12803081e-02f,
-2.37619340e-01f,-8.18140134e-02f,-1.97059169e-01f,+1.96698263e-01f,-5.42311221e-02f,
+2.52511054e-02f,+1.24840997e-01f,+1.35974467e-01f,-1.19786739e-01f,-1.18774623e-02f,
-2.56864429e-01f,+3.48661482e-01f,-5.01731411e-02f,+3.14716250e-01f,-4.12143409e-01f,
-9.67049748e-02f,-9.89536196e-02f,-7.95297772e-02f,+1.00146994e-01f,-2.76036173e-01f,
-1.08982176e-02f,-1.34566557e-02f,+4.39339951e-02f,-9.12859514e-02f,+1.23700924e-01f,
+2.55305525e-02f,+4.50739078e-02f,-3.60635966e-01f,-2.55472749e-01f,-3.05073373e-02f,
+5.84749989e-02f,+1.87473759e-01f,-1.17038488e-01f,+8.66005272e-02f,-2.18179002e-01f,
-1.02955937e-01f,+1.26539350e-01f,-1.87313825e-01f,+1.99050337e-01f,-3.19249272e-01f,
-2.45901778e-01f,-3.30219418e-01f,-1.13886759e-01f,+3.47093605e-02f,-1.05188720e-01f,
+9.59101096e-02f,+2.29234949e-01f,-3.48963402e-02f,-1.05907179e-01f,-7.50957057e-02f,
-8.13194215e-02f,+1.77058131e-01f,+8.48703831e-02f,-1.05970174e-01f,+1.96782619e-01f,
+6.81760609e-02f,+4.55312163e-01f,+3.05452831e-02f,-1.52607057e-02f,-3.61077607e-01f,
-2.38024250e-01f,+2.72346228e-01f,+3.71514827e-01f,-7.80322179e-02f,-4.80116457e-02f,
+1.34954736e-01f,+1.68075338e-02f,-8.02642554e-02f,+1.11739807e-01f,-1.94781516e-02f,
-9.95642841e-02f,+1.77562729e-01f,+1.16969630e-01f,-1.89006165e-01f,+1.30032480e-01f,
+1.30817890e-01f,-7.05194622e-02f,+1.58441782e-01f,-1.78992614e-01f,-5.31616136e-02f,
+4.44869041e-01f,+5.74761406e-02f,-1.26416579e-01f,-7.97474682e-02f,-4.62679714e-02f,
+1.72575071e-01f,-5.95820248e-02f,+2.39923224e-01f,+1.42651930e-01f,+6.32439479e-02f,
-8.80818814e-02f,-2.59318739e-01f,-7.69380033e-02f,+7.06151351e-02f,-8.12792480e-02f,
-6.30037934e-02f,+1.40390381e-01f,+2.19100356e-01f,-1.55903161e-01f,+1.39016911e-01f,
+3.65709215e-01f,-3.14441651e-01f,-1.26492754e-01f,+1.04438923e-01f,-1.90266240e-02f,
-1.19991980e-01f,-4.23460722e-01f,+2.79976636e-01f,-2.43448332e-01f,+9.83459130e-02f,
-4.04839307e-01f,+2.81309690e-02f,+9.35532525e-02f,-1.47696748e-01f,-3.04026216e-01f,
+3.30636591e-01f,+2.11790696e-01f,+1.09053582e-01f,-1.51264220e-01f,+4.42857668e-02f,
+1.26499876e-01f,+1.94307283e-01f,+3.51557463e-01f,-1.26145512e-01f,+1.47058636e-01f,
+3.74046683e-01f,+2.48423457e-01f,+1.03154100e-01f,+1.24150487e-02f,+2.94248372e-01f,
+2.41539091e-01f,+3.82826358e-01f,-8.48036483e-02f,-4.12180424e-01f,+2.85424143e-01f,
+2.09116131e-01f,+2.85782546e-01f,-6.46314621e-02f,-1.56191047e-02f,+1.80748120e-01f,
+1.13977738e-01f,-7.34481290e-02f,+9.33652744e-02f,+4.60102856e-01f,-1.92167923e-01f,
+2.88252532e-01f,+1.50404111e-01f,+6.70214817e-02f,+1.60655156e-01f,+4.40954387e-01f,
+1.22080252e-01f,-4.30647954e-02f,+1.44688025e-01f,+1.69579312e-02f,+6.49020029e-03f,
-3.57417092e-02f,-2.03621417e-01f,-2.20498607e-01f,+2.82088190e-01f,-1.31711870e-01f,
-8.30371454e-02f,-7.73467496e-02f,+2.91431129e-01f,-1.29246982e-02f,-2.56018378e-02f,
+8.47069323e-02f,+6.37487918e-02f,-6.61267620e-03f,-7.42685497e-02f,-7.38538280e-02f,
+1.81022212e-01f,+7.46872127e-02f,+2.46361539e-01f,-7.37248212e-02f,-4.58396859e-02f,
-1.58611119e-01f,+1.33931980e-01f,+1.47747129e-01f,+1.69058740e-01f,+8.81905332e-02f,
+1.91777319e-01f,+8.89322832e-02f,+2.47739647e-02f,-6.20942526e-02f,+1.72558948e-02f,
+6.24629222e-02f,-1.15313262e-01f,-5.03721349e-02f,+8.40124562e-02f,-1.72898471e-01f,
-2.28814021e-01f,-8.12215656e-02f,+1.04929313e-01f,+5.56022152e-02f,-1.40662611e-01f,
+4.87679057e-02f,+3.01727533e-01f,+2.83301264e-01f,+1.06054746e-01f,-1.53602630e-01f,
-3.45118880e-01f,-3.38748932e-01f,-4.54999834e-01f,+1.52516067e-02f,+2.73376573e-02f,
-1.69903949e-01f,-9.83326510e-03f,+2.96731472e-01f,+1.10954411e-01f,+2.15006322e-01f,
+8.12178664e-03f,+6.24882132e-02f,+8.46050084e-02f,+1.97092459e-01f,-1.32052869e-01f,
+2.61423108e-03f,-1.01530582e-01f,+1.44037493e-02f,+2.00073291e-02f,+1.43130258e-01f,
+4.25810307e-01f,+2.55478084e-01f,+2.03242376e-01f,-1.73530117e-01f,-1.43062696e-03f,
+1.72389954e-01f,-2.38770515e-01f,+4.57886979e-02f,-1.05823122e-01f,+3.57450433e-02f,
-3.54871780e-01f,+1.42386824e-01f,+5.67549281e-02f,-1.68401837e-01f,-7.96572417e-02f,
-1.94789112e-01f,-2.07283840e-01f,+2.30118766e-01f,+1.58408675e-02f,+9.97022241e-02f,
+3.97517890e-01f,-1.06287718e-01f,+1.54264107e-01f,+8.26465413e-02f,+4.86717336e-02f,
+1.57220364e-01f,+9.67013836e-02f,-1.62187889e-01f,+3.35037470e-01f,-1.50304705e-01f,
+1.87643200e-01f,-8.15140009e-02f,-3.30396481e-02f,-1.27609730e-01f,+1.56427875e-01f,
-1.49129778e-01f,-2.71684863e-02f,-1.67209476e-01f,+1.88753568e-02f,+1.30280480e-01f,
-2.14186728e-01f,+1.04754396e-01f,+1.32200226e-01f,-2.30013251e-01f,+2.01136127e-01f,
-1.95314903e-02f,+8.94210190e-02f,-6.50669187e-02f,+3.45755786e-01f,+2.10198853e-02f,
+5.06646559e-02f,+1.18460238e-01f,+4.67534550e-02f,+4.43424582e-01f,-1.89830419e-02f,
-3.24538827e-01f,+2.61973441e-01f,+1.88939214e-01f,+1.37119725e-01f,-6.34936988e-02f,
+3.45170125e-02f,-3.05762023e-01f,-4.83007655e-02f,+3.00627053e-01f,+2.20419198e-01f,
+9.02164057e-02f,+5.10805696e-02f,+1.83021665e-01f,+2.87089080e-01f,-1.99311122e-01f,
-2.33000424e-02f,+1.07375145e-01f,+1.17675766e-01f,-4.70335819e-02f,-2.64188826e-01f,
+2.83152699e-01f,-1.02313617e-02f,-2.24511996e-01f,-1.14584066e-01f,-7.69366398e-02f,
+6.22983575e-01f,-2.74979651e-01f,+1.01012662e-01f,-7.71855637e-02f,-2.93857694e-01f,
-1.12736151e-01f,+1.56717375e-01f,+2.87348568e-01f,+2.30888218e-01f,+1.05546035e-01f,
-4.43022512e-02f,+2.71753848e-01f,-9.26682130e-02f,+3.95159602e-01f,-6.83030039e-02f,
+6.13237992e-02f,-6.18970357e-02f,-6.96472898e-02f,-1.12631574e-01f,-9.06498879e-02f,
+1.64517420e-04f,-2.35615611e-01f,+1.89581677e-01f,-5.19310474e-01f,+1.88538462e-01f,
+1.75478518e-01f,+9.04673710e-02f,-2.99529374e-01f,+1.30906865e-01f,-3.12687010e-01f,
-2.77921766e-01f,-2.06207648e-01f,-2.16516539e-01f,+1.90044343e-01f,+2.65875489e-01f,
+3.60203922e-01f,+1.01020681e-02f,+1.46346420e-01f,+1.04918025e-01f,-9.56353024e-02f,
+8.25891867e-02f,-3.32097262e-01f,-1.92315667e-03f,-2.70388991e-01f,-7.11624697e-02f,
+9.02444646e-02f,+2.18356892e-01f,-8.25638846e-02f,+3.09788138e-01f,+4.09514084e-02f,
+4.87295017e-02f,+1.05233684e-01f,-1.60687804e-01f,-5.66446371e-02f,-5.55257313e-02f,
+1.49980485e-01f,+2.97866136e-01f,+3.46525535e-02f,+1.55742824e-01f,-2.67732125e-02f,
-2.54742771e-01f,+8.62105004e-03f,-8.69431719e-02f,-2.14193866e-01f,+9.33578238e-02f,
+2.90197015e-01f,+2.52117403e-02f,-1.22964896e-01f,+3.12214494e-01f,-2.46948883e-01f,
+1.51392132e-01f,-2.12316126e-01f,-2.92831182e-01f,+1.03227228e-01f,+1.65448606e-01f,
+1.19254544e-01f,+1.78510193e-02f,+1.23693377e-01f,-6.05007308e-03f,+9.05872807e-02f,
-6.62192237e-03f,-7.43021294e-02f,+1.64614674e-02f,+2.44605571e-01f,-2.26958934e-02f,
-6.56548589e-02f,+1.38858408e-01f,-2.35025540e-01f,-1.54585257e-01f,-2.39146687e-02f,
-1.18758097e-01f,+9.78089496e-02f,+2.74994940e-01f,+1.33011825e-02f,+8.69154707e-02f,
+2.06899300e-01f,-9.47707742e-02f,-2.78407596e-02f,-3.22460264e-01f,+5.85479774e-02f,
-1.40882120e-01f,+3.42575401e-01f,-1.06467068e-01f,-7.72922412e-02f,-5.00380583e-02f,
-1.58158779e-01f,-3.33470441e-02f,+4.59703170e-02f,-7.16598392e-01f,+1.17465600e-01f,
-1.08639196e-01f,+4.31820989e-01f,+2.47022316e-01f,+1.16891433e-02f,-3.65179300e-01f,
+1.42198531e-02f,+2.88194001e-01f,+1.19295597e-01f,-1.28232464e-01f,+3.53905708e-01f,
+4.08611476e-01f,+1.02308981e-01f,-1.25399396e-01f,+1.23410590e-01f,+4.19884287e-02f,
-3.94407995e-02f,-7.08780289e-02f,+1.77680072e-03f,+1.12283722e-01f,+3.84385847e-02f,
+3.86061110e-02f,-4.65964556e-01f,+1.00668566e-02f,+6.51135966e-02f,-2.18806937e-01f,
+5.92117049e-02f,+2.96192952e-02f,-3.30685079e-01f,-8.45782161e-02f,+2.15833202e-01f,
+2.19968945e-01f,-5.26065230e-02f,-4.36091004e-03f,+2.76342064e-01f,+1.85559858e-02f,
-8.83091465e-02f,-5.83755672e-02f,+1.97986603e-01f,-5.16405851e-02f,+8.65602866e-02f,
-1.42942891e-01f,-8.30608085e-02f,-4.38327819e-01f,-3.15506250e-01f,+2.52920151e-01f,
+3.25627029e-01f,+2.47778475e-01f,+6.30700439e-02f,-9.34887305e-02f,-1.70990787e-02f,
-2.24426702e-01f,+3.05537134e-02f,-1.28347632e-02f,-3.46890986e-01f,+1.35477185e-01f,
+1.61985934e-01f,+3.91791910e-02f,-3.33530486e-01f,-1.93228006e-01f,+2.43709935e-03f,
+6.43730089e-02f,+1.84709001e-02f,-2.29442701e-01f,-2.26716414e-01f,-5.11902981e-02f,
+4.50304821e-02f,-1.27312273e-01f,-1.95806429e-01f,-1.67932212e-01f,+1.25628918e-01f,
+9.77127999e-02f,+1.97422743e-01f,+3.24684419e-02f,-1.37972891e-01f,+2.28357613e-01f,
+1.00846939e-01f,+6.73938245e-02f,-1.57855824e-01f,+4.37494218e-02f,-5.86249642e-02f,
+3.31117623e-02f,-1.69251829e-01f,-4.75530922e-02f,-3.37806568e-02f,+1.46336406e-01f,
+2.39504635e-01f,+2.62815475e-01f,+1.83964625e-01f,-1.23231951e-02f,-2.16025308e-01f,
+1.11539671e-02f,+1.72697425e-01f,-1.71018258e-01f,+1.39695853e-01f,+7.48305395e-02f,
+1.49261370e-01f,+5.16645573e-02f,+6.29808083e-02f,+3.24987830e-03f,+2.23943040e-01f,
-1.13015190e-01f,+3.00927877e-01f,-4.27021325e-01f,-2.68396139e-02f,+1.94197863e-01f,
-1.85100929e-04f,+9.91234034e-02f,+2.18091041e-01f,+2.26532519e-02f,+7.40196705e-02f,
+7.21457899e-02f,+4.08688700e-03f,-1.96897730e-01f,+1.13482259e-01f,+4.34646457e-02f,
+1.14387520e-01f,-9.41439569e-02f,+8.89704973e-02f,-1.47445589e-01f,+1.21146433e-01f,
+2.70711724e-02f,+6.79068193e-02f,-3.80768143e-02f,+1.46930665e-01f,+1.11174546e-02f,
+1.65627167e-01f,+1.31208897e-01f,+8.18667635e-02f,-1.13918968e-02f,+1.05440468e-01f,
-1.41402170e-01f,+1.88544139e-01f,+2.00526699e-01f,+4.08223607e-02f,-6.82897791e-02f,
-1.79548904e-01f,-5.66651374e-02f,-5.67936748e-02f,+8.60512406e-02f,+3.38069111e-01f,
+2.19772652e-01f,+1.21983543e-01f,-1.83876127e-01f,+4.58716154e-02f,-1.51440620e-01f,
-4.90084067e-02f,+1.36338830e-01f,-1.92069724e-01f,+1.96614966e-01f,+8.58687609e-02f,
+1.95165083e-01f,+2.01881491e-02f,+5.64323440e-02f,-2.19180524e-01f,-1.57128766e-01f,
+1.49753749e-01f,+2.01035514e-01f,-7.93105662e-02f,+1.21221401e-01f,+1.65854871e-01f,
-3.38627338e-01f,+1.30567685e-01f,+1.29994735e-01f,+1.05366796e-01f,+3.57326418e-02f,
+3.40603627e-02f,-1.86342392e-02f,+1.37756171e-03f,-1.26826510e-01f,-3.08741797e-02f,
+2.08121479e-01f,-1.07363001e-01f,-7.37001821e-02f,+2.71794140e-01f,+1.38277533e-02f,
+1.70331895e-01f,+7.65734091e-02f,+7.48970062e-02f,-1.51830390e-01f,-2.55891562e-01f,
-1.37499440e-02f,-9.32908896e-03f,-8.31425786e-02f,+1.39964774e-01f,-4.87723621e-03f,
-5.50178476e-02f,-5.88231795e-02f,-1.00099251e-01f,+1.45738199e-01f,+3.84801388e-01f,
+5.56778116e-03f,-6.87818378e-02f,+6.75730035e-02f,+7.40441084e-02f,+8.05128738e-02f,
+3.89708042e-01f,-9.99269560e-02f,+7.94055238e-02f,-4.98828031e-02f,-1.50640085e-01f,
-2.29986366e-02f,-7.83974752e-02f,+2.07050353e-01f,-4.67163682e-01f,-2.31856164e-02f,
-2.31321350e-01f,-4.07852270e-02f,-2.85819434e-02f,+3.71475637e-01f,+1.23882458e-01f,
+1.54421508e-01f,-2.22253669e-02f,+1.88776791e-01f,-5.65105304e-02f,-1.25024706e-01f,
+8.82035792e-02f,-3.16825449e-01f,-1.20212302e-01f,-5.36959507e-02f,-3.75188857e-01f,
-2.01242626e-01f,+1.36939049e-01f,+3.93136665e-02f,-1.02305330e-01f,+7.23477453e-02f,
+1.29214749e-01f,-1.86164081e-01f,+1.47086516e-01f,+1.32540569e-01f,+2.83830255e-01f,
+2.05874160e-01f,+2.40073562e-01f,-9.22926888e-03f,-2.49259442e-01f,+3.81920151e-02f,
+1.03842942e-02f,-1.66453272e-01f,-2.25755312e-02f,-1.41261974e-02f,+1.67360201e-01f,
-7.35330731e-02f,+4.95375171e-02f,+2.22755298e-01f,-9.40212384e-02f,-2.13125572e-01f,
-2.36874446e-01f,-2.79526323e-01f,+1.60738289e-01f,+3.09984479e-02f,-1.26888037e-01f,
+2.39463449e-02f,-1.36282042e-01f,+1.39880506e-02f,+7.45732188e-02f,+1.20039023e-01f,
+4.17177528e-02f,-1.17461663e-02f,+1.22505918e-01f,-1.90659702e-01f,-1.82043761e-01f,
-5.49002318e-03f,-1.01383202e-01f,-1.67614639e-01f,+1.83591783e-01f,+1.89857036e-01f,
+1.20553531e-01f,+3.64264324e-02f,+1.36613287e-02f,-2.65885025e-01f,+1.67874768e-01f,
+2.57529765e-01f,+7.30017945e-02f,-6.27232715e-02f,+3.98678370e-02f,-1.28768057e-01f,
+5.73080452e-03f,-8.51145908e-02f,+4.05922160e-03f,+7.47306719e-02f,+3.33224609e-02f,
-2.31769606e-01f,+1.41931176e-01f,-1.72706768e-01f,+2.10054010e-01f,+1.07074790e-01f,
-2.18120575e-01f,+2.07219556e-01f,-1.05040640e-01f,+5.16767576e-02f,-1.69643480e-02f,
-6.93849325e-02f,+1.53312266e-01f,+7.69781768e-02f,+2.86855642e-02f,+6.94280341e-02f,
+8.72239247e-02f,-7.24332631e-02f,+1.52388588e-01f,-9.63493884e-02f,+1.14657275e-01f,
-4.25583661e-01f,-9.80283096e-02f,-2.15805639e-02f,+3.20937894e-02f,-6.77895248e-02f,
+8.12689140e-02f,-3.00907046e-01f,+9.95503813e-02f,+5.34686930e-02f,+3.39790523e-01f,
+9.28094089e-02f,-2.61403937e-02f,-6.57264814e-02f,+9.83186439e-02f,+4.70009595e-02f,
+2.27417022e-01f,-1.31670693e-02f,+6.60125986e-02f,+3.67734917e-02f,+6.53234497e-02f,
-1.56893075e-01f,+7.40128383e-03f,+1.33162573e-01f,+9.53471735e-02f,+1.97288692e-01f,
-1.14044175e-01f,+1.18207522e-01f,+3.16286832e-02f,+1.69893485e-02f,+1.40276596e-01f,
-4.07465175e-02f,+5.29475324e-02f,+1.09776191e-01f,-1.46328866e-01f,-1.59356967e-01f,
+1.94449753e-01f,+1.56479646e-02f,-2.68634766e-01f,+1.30326003e-01f,-7.31603131e-02f,
+1.46521792e-01f,-1.50903836e-01f,+5.62617145e-02f,+6.30549341e-02f,-7.91907236e-02f,
+2.25171253e-01f,+5.92393838e-02f,-1.41110823e-01f,-1.70402527e-02f,-1.72058135e-01f,
+2.04874486e-01f,-2.59466648e-01f,-8.09634030e-02f,+1.11873755e-02f,+9.73908696e-03f,
+1.04783429e-02f,-8.75523835e-02f,-3.51602845e-02f,-2.15246260e-01f,+1.87875628e-01f,
+2.45430190e-02f,+7.83252716e-03f,-6.72518983e-02f,-1.40456244e-01f,-9.42496881e-02f,
-1.96016610e-01f,+2.23543540e-01f,+1.34594113e-01f,+1.97809022e-02f,+9.22896788e-02f,
+2.84026265e-01f,-2.09352478e-01f,+2.19086915e-01f,-1.00024387e-01f,+8.32427144e-02f,
-1.36703197e-02f,-1.91503972e-01f,-4.54042166e-01f,-1.94502443e-01f,-1.31496295e-01f,
-1.45257339e-01f,+1.22032762e-02f,-3.42697557e-03f,+5.02138101e-02f,-5.50927669e-02f,
+3.24202776e-02f,-2.86579859e-02f,+7.48251798e-03f,-1.60187408e-01f,+2.54644543e-01f,
+3.19733247e-02f,+1.04272716e-01f,+2.73066968e-01f,-7.17649385e-02f,-1.90305322e-01f,
+3.05465698e-01f,-3.05215921e-02f,+4.72226441e-02f,-9.21489298e-02f,+1.19076461e-01f,
+1.03357457e-01f,+7.33916909e-02f,+2.72939086e-01f,+1.65384993e-01f,-7.03597069e-02f,
+1.46802053e-01f,-1.03962272e-01f,+1.02474615e-01f,-4.98249084e-02f,-1.86098460e-02f,
+4.58182916e-02f,-4.50514890e-02f,+9.68537033e-02f,+5.82963601e-02f,-9.50313658e-02f,
+1.28443226e-01f,+5.63070215e-02f,+1.49971202e-01f,+2.36516923e-01f,+1.58881694e-01f,
+1.22449301e-01f,-1.83680952e-01f,-4.97506820e-02f,-8.84020422e-03f,-2.14365751e-01f,
+7.70952478e-02f,-2.12800995e-01f,-4.38677613e-03f,+6.68105483e-02f,+1.98911771e-01f,
+2.37492565e-02f,+1.09947987e-01f,+7.37237409e-02f,+2.00242713e-01f,-1.33577704e-01f,
-1.26377910e-01f,+2.77470022e-01f,+1.82822376e-01f,+4.61051464e-02f,+1.52108492e-02f,
+1.45866975e-01f,+6.32634759e-02f,+3.68727446e-02f,+3.38687934e-02f,-1.45352721e-01f,
+1.71825618e-01f,+6.60032257e-02f,+1.51863709e-01f,+1.40647665e-01f,-6.93551749e-02f,
+4.68035787e-02f,+6.67699501e-02f,-7.81462416e-02f,+1.45210892e-01f,+1.92847289e-02f,
+1.29536152e-01f,-2.08448246e-02f,-1.05337486e-01f,+7.52183571e-02f,+2.52285860e-02f,
-6.15583658e-02f,+7.33135492e-02f,-3.33399232e-03f,+9.32755768e-02f,+1.53475985e-01f,
+5.58715314e-02f,+1.58620909e-01f,-5.72221875e-02f,+2.02124968e-01f,+5.17896712e-02f,
+2.64336318e-01f,-6.51848093e-02f,-2.85795778e-02f,-1.58810522e-02f,+1.99889585e-01f,
+1.75783597e-02f,-5.81660680e-02f,+8.78847837e-02f,+1.28619581e-01f,+6.78258911e-02f,
-6.60364032e-02f,+8.60893503e-02f,+1.81865860e-02f,+1.03162520e-01f,+2.68071908e-05f,
+3.17688435e-01f,+1.51854217e-01f,-8.55472125e-03f,-4.82552275e-02f,-7.79783279e-02f,
+1.72159165e-01f,+8.51897299e-02f,-1.12295508e-01f,+2.42907301e-01f,-1.68102622e-01f,
+1.46191895e-01f,+9.43430215e-02f,-3.89277935e-02f,-1.17001282e-02f,-8.94269645e-02f,
+1.28857270e-01f,+2.98103262e-02f,+1.60250217e-01f,-7.37435445e-02f,+4.15917262e-02f,
+6.30864576e-02f,+2.37185284e-02f,+9.65150669e-02f,-1.59277059e-02f,-3.92364431e-03f,
+3.53706330e-02f,-2.79207528e-02f,+8.89844075e-02f,-1.36919901e-01f,-1.09440945e-01f,
+2.07721330e-02f,-1.35779634e-01f,-1.99403793e-01f,+1.64799005e-01f,+1.88539058e-01f,
-1.76364090e-02f,-1.79354697e-02f,+1.51536420e-01f,+9.96713713e-02f,-2.37360541e-02f,
-3.28763187e-01f,-1.20135136e-01f,-2.75739748e-02f,+1.67833641e-02f,-5.45329191e-02f,
+1.18558526e-01f,-4.36931103e-02f,-7.81051740e-02f,-1.27962783e-01f,-7.57833421e-02f,
-3.42181288e-02f,+1.68833330e-01f,-6.88628703e-02f,-1.60528556e-01f,-1.57874897e-01f,
-6.37819096e-02f,+1.71139956e-01f,-9.02033821e-02f,+2.86411494e-03f,+2.61613005e-03f,
+2.38505170e-01f,+5.38671575e-02f,-8.10354017e-03f,-1.94504447e-02f,+3.31703201e-02f,
+2.97098346e-02f,+5.18461019e-02f,-4.05080169e-01f,+1.30343363e-01f,+6.98322132e-02f,
+1.87923953e-01f,-2.17737809e-01f,+3.13691348e-02f,-7.05750883e-02f,+6.78654015e-02f,
-1.04094006e-01f,-1.76703855e-01f,+2.44415123e-02f,+7.51799792e-02f,+6.10949248e-02f,
-7.86050558e-02f,+2.41048381e-01f,+2.37290889e-01f,+1.26009151e-01f,-2.17882544e-01f,
-1.81481820e-02f,-1.04523569e-01f,-5.00479303e-02f,+1.71881914e-01f,+1.33138433e-01f,
-5.77647202e-02f,-8.36008713e-02f,-2.16523111e-01f,-8.63217190e-03f,+4.14661095e-02f,
+2.15829879e-01f,-3.77911553e-02f,-7.32690021e-02f,-1.09426314e-02f,-6.25741705e-02f,
+1.34586617e-02f,+1.79031625e-01f,-1.76871568e-01f,-2.13440150e-01f,-9.08225775e-02f,
-2.12348297e-01f,+6.82152584e-02f,+1.27720878e-01f,-2.65274942e-01f,+1.69193689e-02f,
+5.29439412e-02f,+4.02203560e-01f,-4.32856202e-01f,+7.20290840e-02f,-1.42006963e-01f,
+1.59123704e-01f,+1.48267582e-01f,-2.00061530e-01f,+9.91147533e-02f,+1.99933648e-01f,
-8.84986669e-02f,-4.64417646e-03f,-6.14770874e-02f,+1.54386073e-01f,+1.81390107e-01f,
+3.14071238e-01f,+2.01468736e-01f,-2.53785495e-02f,+2.02860028e-01f,+1.16536707e-01f,
+9.61460620e-02f,+7.33917207e-02f,+6.79131150e-02f,-7.82031119e-02f,-1.75403312e-01f,
-8.23290423e-02f,-6.04937188e-02f,-8.07514042e-03f,+1.12151958e-01f,+1.76850379e-01f,
-2.57251412e-02f,+6.37139976e-02f,-1.51143461e-01f,-2.17293084e-01f,+1.38739407e-01f,
-4.59521338e-02f,-1.39432997e-01f,-1.03096336e-01f,+2.79241532e-01f,-3.60376567e-01f,
-9.13687423e-02f,-7.79327238e-03f,+8.40020180e-02f,-9.46531370e-02f,+6.08792752e-02f,
-1.31325219e-02f,-4.45629507e-01f,+4.56483550e-02f,+1.25484079e-01f,-2.81933062e-02f,
+3.77666876e-02f,+8.71348009e-02f,+1.02338232e-01f,-1.39914989e-01f,+3.98061192e-03f,
+1.32901922e-01f,-3.20598669e-02f,+1.25046432e-01f,+1.43473059e-01f,+2.92330593e-01f,
+1.64203912e-01f,+4.69130799e-02f,-5.66407740e-02f,-5.95788695e-02f,+1.28169075e-01f,
-3.89147848e-02f,-1.45765200e-01f,+6.19004257e-02f,+9.57553566e-04f,+3.37666482e-01f,
-1.32773668e-01f,+3.29079926e-02f,+1.73401803e-01f,-1.76207572e-01f,+8.87442380e-02f,
-1.20043337e-01f,-1.16507642e-01f,+1.62388876e-01f,-5.01917629e-03f,+5.86229339e-02f,
-2.12029129e-01f,+3.70237492e-02f,+2.43687704e-01f,-1.07084704e-03f,+7.79117644e-02f,
+1.09144770e-01f,-6.58558086e-02f,+2.30503604e-02f,+1.25481606e-01f,+1.65510774e-01f,
-7.04193711e-02f,+5.70104904e-02f,-1.34471118e-01f,-2.39422500e-01f,-1.29811987e-01f,
-5.06433658e-02f,+8.43223929e-02f,-3.60313356e-02f,-1.61281258e-01f,-2.17426106e-01f,
-5.82706109e-02f,+4.04827762e-03f,-1.60502642e-01f,-1.50537696e-02f,+2.01080620e-01f,
+1.08079918e-01f,-3.39989960e-02f,+7.14100525e-02f,+5.19334227e-02f,-6.61850646e-02f,
+8.04879609e-03f,-2.24127963e-01f,+2.21712366e-01f,+1.29870906e-01f,+9.10007581e-02f,
-1.93814158e-01f,+5.31342514e-02f,+4.77472171e-02f,+6.79837540e-02f,+9.72889438e-02f,
-2.55874395e-02f,+2.38007475e-02f,-8.66623670e-02f,+7.47393295e-02f,-1.22267418e-01f,
-3.94304723e-01f,+1.58353224e-02f,-1.36231184e-01f,+1.73973933e-01f,-6.84514418e-02f,
+1.75984744e-02f,+2.37640768e-01f,-1.44878611e-01f,-1.21533342e-01f,+7.66238272e-02f,
+5.85531443e-02f,+8.55481625e-02f,+9.99558158e-03f,-7.01741055e-02f,+1.39556259e-01f,
+4.14304361e-02f,-1.10815465e-01f,+2.21139044e-01f,+1.03563003e-01f,+5.91276363e-02f,
-7.83284530e-02f,+4.83020432e-02f,-5.44944145e-02f,-8.35254937e-02f,+9.42861512e-02f,
+1.93483710e-01f,-7.44803399e-02f,+1.14934139e-01f,+6.47532567e-02f,+4.41663191e-02f,
+1.72225997e-01f,+2.41980731e-01f,-2.46367291e-01f,+7.88967311e-02f,-2.98959553e-01f,
+1.55521363e-01f,+3.45005505e-02f,-2.65257567e-01f,-1.02518544e-01f,-3.43086161e-02f,
-8.96773338e-02f,-1.82424843e-01f,-9.56519321e-02f,+3.94792199e-01f,+1.01798229e-01f,
+3.05738151e-02f,+1.75898567e-01f,+6.41386360e-02f,+1.71493396e-01f,-7.93370046e-03f,
+1.05021648e-01f,-1.05080614e-02f,-1.98472291e-01f,-8.53849947e-02f,-1.51030153e-01f,
+1.61826193e-01f,+1.21387877e-01f,+5.98632172e-02f,+8.03264901e-02f,+4.99067083e-02f,
-4.38759997e-02f,+2.76705599e-03f,+1.19417913e-01f,+1.74853981e-01f,+4.39744145e-02f,
-6.52251989e-02f,+2.36513484e-02f,+8.31441358e-02f,+1.06255405e-01f,-2.76282355e-02f,
+1.28141463e-01f,-1.61290854e-01f,+2.64349669e-01f,+1.71923131e-01f,+1.82471946e-02f,
+7.50641301e-02f,+7.44365379e-02f,-1.20891489e-01f,-1.55647352e-01f,-1.74321666e-01f,
+1.66427847e-02f,-6.75929636e-02f,-2.89060920e-02f,-1.19838491e-01f,+1.74803793e-01f,
+1.77972227e-01f,+9.44976434e-02f,-1.22959830e-01f,-1.01063147e-01f,-3.43147386e-03f,
-2.72658855e-01f,+1.66841120e-01f,+3.64164978e-01f,+1.27320945e-01f,+1.67462736e-01f,
+1.39281318e-01f,+2.59891540e-01f,+1.21360697e-01f,+1.68076098e-01f,+8.70480388e-02f,
+2.14994416e-01f,-8.15971792e-02f,+1.26834109e-01f,+2.45147467e-01f,+3.99883986e-02f,
+5.28538637e-02f,+5.47003374e-02f,-3.82135481e-01f,+4.12461683e-02f,+1.62146226e-01f,
-1.58759475e-01f,-1.22679221e-02f,-1.71551481e-01f,-1.22945458e-01f,+6.49171621e-02f,
+5.65119972e-03f,+3.45146865e-01f,+8.92162994e-02f,-2.71626143e-03f,+1.51488245e-01f,
+1.22159727e-01f,-1.30660251e-01f,+1.84979409e-01f,-1.45790428e-01f,-8.14193562e-02f,
+2.14378372e-01f,-1.37332663e-01f,+3.66792567e-02f,-2.19054863e-01f,+8.78848508e-03f,
-1.36558518e-01f,+6.47724792e-02f,-3.61224003e-02f,+1.06475309e-01f,-5.33435680e-03f,
-1.63503632e-01f,+1.59909397e-01f,-1.47946179e-02f,+3.12579185e-01f,+2.23236233e-01f,
+1.07749507e-01f,-9.14164558e-02f,+1.09167285e-01f,+1.57314092e-01f,+2.82410383e-02f,
-5.06715709e-03f,-7.79723227e-02f,+1.68721285e-02f,-1.84892584e-02f,-1.28894642e-01f,
-6.72392324e-02f,-1.07455418e-01f,+1.54935867e-01f,+2.05848236e-02f,-1.26100734e-01f,
+7.56586492e-02f,-1.38409644e-01f,+2.66401887e-01f,+6.45690337e-02f,+7.98606202e-02f,
-2.31211893e-02f,-4.43014875e-02f,-8.68039802e-02f,+2.86560297e-01f,-9.07166079e-02f,
-4.01540995e-02f,-8.68279934e-02f,+8.43745098e-02f,-4.18444835e-02f,+1.26961485e-01f,
+1.62125498e-01f,-1.05840959e-01f,-1.24605216e-01f,-2.86974926e-02f,-1.00308709e-01f,
+8.35865662e-02f,-7.54866228e-02f,+3.07030790e-02f,-1.41197860e-01f,-1.19537905e-01f,
-2.06589073e-01f,-2.01048613e-01f,+1.82185575e-01f,-1.01658449e-01f,-3.07242453e-01f,
+2.86165953e-01f,-9.04757529e-02f,+3.56388032e-01f,+1.95593342e-01f,+1.47358969e-01f,
+1.75681040e-02f,-1.79469138e-02f,-6.44504577e-02f,+3.03372014e-02f,+8.89511406e-02f,
+1.46164984e-01f,-2.66806036e-02f,+1.27745075e-02f,+1.79874003e-01f,+1.34402215e-01f,
-5.85457571e-02f,+2.71712005e-01f,+1.01970211e-01f,+2.61238694e-01f,+8.76470804e-02f,
-2.03909799e-01f,+2.62270600e-01f,+3.60306283e-03f,+9.55201462e-02f,+4.42963466e-02f,
+6.28771773e-03f,+2.02716589e-01f,+1.16701104e-01f,+3.19596902e-02f,+4.00277168e-01f,
-2.33116955e-01f,-3.55303772e-02f,+1.41788736e-01f,-4.78133827e-01f,+3.07546675e-01f,
-2.01812521e-01f,+1.45351633e-01f,-6.49391636e-02f,-1.04742363e-01f,-1.07756563e-01f,
+4.90273945e-02f,+1.56644166e-01f,+7.51323625e-02f,+1.05782732e-01f,+2.34423161e-01f,
+2.56626010e-01f,-9.31313485e-02f,-8.27497430e-03f,+7.62329027e-02f,-1.15783222e-01f,
+4.20439914e-02f,+9.16724652e-02f,+1.94704100e-01f,+7.85838515e-02f,+7.23177940e-02f,
+2.60787189e-01f,+4.34351623e-01f,-1.32766843e-01f,-2.44663015e-01f,+3.63915950e-01f,
+1.41672656e-01f,+1.52503774e-02f,-4.32361402e-02f,+1.06366858e-01f,-4.86917980e-02f,
+1.58974767e-01f,-1.31119996e-01f,+8.48040730e-03f,-1.46087050e-01f,+1.77767262e-01f,
-1.76898226e-01f,-4.55595344e-01f,+2.10452914e-01f,-5.05271554e-02f,+1.98780432e-01f,
-1.88871063e-02f,+1.84204821e-02f,+7.21635595e-02f,+1.25588000e-01f,+3.60350008e-03f,
-3.33771482e-02f,+1.08102463e-01f,+9.21208039e-02f,+1.18617192e-01f,+1.83272064e-01f,
-6.69692410e-03f,+1.19052820e-01f,+2.35983101e-03f,-2.48919651e-01f,+3.59365255e-01f,
-9.90182906e-02f,+2.78183281e-01f,+1.99003831e-01f,+1.35572627e-01f,+2.61872374e-02f,
-5.05063310e-02f,-1.06945023e-01f,-1.59512144e-02f,+1.21259615e-02f,+1.97194126e-02f,
-2.53428854e-02f,+8.91872868e-02f,+9.63223651e-02f,-1.37329090e-03f,-9.25497487e-02f,
+9.08946693e-02f,+5.41493390e-03f,+1.60149530e-01f,+3.44739966e-02f,-7.63005018e-03f,
-4.81951796e-02f,+4.42736506e-01f,+4.20859680e-02f,+1.48451641e-01f,+1.75256263e-02f,
-7.95544591e-03f,+1.65873215e-01f,+4.87969769e-03f,+4.43794057e-02f,+1.13570645e-01f,
-1.68590993e-02f,-4.28568423e-02f,+4.59691957e-02f,+1.60955161e-01f,-1.41855389e-01f,
+7.66298082e-03f,-2.08192617e-01f,-2.06497908e-02f,-1.63533241e-01f,-1.30986823e-02f,
+2.65961383e-02f,+7.69457296e-02f,+1.40948221e-01f,-9.83325914e-02f,-2.09050611e-01f,
-5.88881737e-03f,+3.46263424e-02f,+1.46998927e-01f,+4.76498604e-02f,+5.37541732e-02f,
-2.83863414e-02f,+1.15911983e-01f,-2.22884323e-02f,+4.17487413e-01f,-8.58299136e-02f,
-9.02064815e-02f,+2.17350014e-02f,+2.21108168e-01f,+3.89519393e-01f,-1.16507225e-01f,
+2.38082603e-01f,+5.39739951e-02f,-3.04649901e-02f,-2.88708121e-01f,-1.98523849e-01f,
+1.47963330e-01f,-6.93710614e-03f,+1.21581815e-01f,-6.23847432e-02f,-3.81087065e-02f,
-2.37142012e-01f,-6.04563355e-02f,+1.06760979e-01f,-1.14827394e-01f,+3.37483376e-01f,
+2.26374999e-01f,-1.23846367e-01f,+1.77431300e-01f,+1.49126559e-01f,-5.12580574e-01f,
+1.26426488e-01f,+6.60321042e-02f,-9.12536979e-02f,+3.11186522e-01f,-5.86325116e-02f,
-2.11313590e-01f,+2.61326224e-01f,+3.61559056e-02f,-1.57223508e-01f,-2.20526204e-01f,
+1.81507662e-01f,-4.63090241e-02f,+3.95814568e-01f,+2.03163829e-02f,+2.14205191e-01f,
-3.24520975e-01f,+4.25824150e-02f,+4.37301071e-03f,-2.68903017e-01f,-1.85109153e-01f,
+9.99325588e-02f,+1.61837235e-01f,-9.81489196e-02f,-9.30227488e-02f,-1.05453625e-01f,
-1.08796895e-01f,+1.67816132e-01f,-2.27661908e-01f,+3.28211337e-01f,-8.91884267e-02f,
-7.32934847e-02f,-8.62355381e-02f,-2.20041722e-02f,+1.90576926e-01f,+4.28159498e-02f,
+6.89661622e-01f,+1.22782730e-01f,-1.32619962e-01f,+3.72739702e-01f,+1.68410599e-01f,
+2.59942234e-01f,-3.50762531e-02f,+1.09208554e-01f,-9.63282436e-02f,-1.26138106e-01f,
+1.96587846e-01f,-2.80473791e-02f,-2.95092743e-02f,+1.15042426e-01f,+7.35545382e-02f,
+1.29095629e-01f,+1.80718839e-01f,-1.38713438e-02f,-4.49744873e-02f,-1.50995687e-01f,
-2.38014638e-01f,+8.43037739e-02f,+8.34901705e-02f,+1.02046579e-01f,+1.86503142e-01f,
-3.82886469e-01f,-3.11475456e-01f,+1.45633087e-01f,-1.19606145e-01f,-7.10748062e-02f,
-5.59036853e-03f,+3.47051360e-02f,+3.16512734e-02f,+2.47828841e-01f,+3.85840796e-02f,
-2.08509527e-02f,+2.65954942e-01f,-7.89742246e-02f,+1.88399330e-02f,-1.92373410e-01f,
+1.53845236e-01f,-1.02817781e-01f,-2.74988443e-01f,+4.57628407e-02f,-4.31609005e-02f,
-2.17529014e-01f,-4.74462770e-02f,-5.33858538e-02f,+2.23608911e-01f,+1.47650018e-01f,
+1.26188725e-01f,-2.14739799e-01f,+1.18738562e-01f,+8.24262351e-02f,-2.76230164e-02f,
+5.66813238e-02f,+1.47794008e-01f,+3.06880802e-01f,+1.71056882e-01f,+6.39664475e-03f,
+3.76769677e-02f,+7.96180684e-03f,+1.26121342e-01f,+1.01985946e-01f,-2.05970764e-01f,
+3.68256606e-02f,-2.17753842e-01f,+2.19920371e-02f,+3.70173901e-01f,-1.63595736e-01f,
-7.73078576e-02f,+7.11770952e-02f,+5.91452513e-03f,+8.73127654e-02f,+1.14754513e-01f,
+3.63778658e-02f,+5.44064566e-02f,-5.12762666e-02f,+2.03432024e-01f,-3.88653055e-02f,
-8.63039643e-02f,+9.73790064e-02f,-1.09981485e-01f,+5.95050072e-03f,-3.59351858e-02f,
+1.62944600e-01f,+3.54409486e-01f,-1.13409664e-02f,+6.16825186e-02f,+2.74590426e-03f,
+6.42850474e-02f,+1.25166461e-01f,+4.16769274e-02f,+5.55068143e-02f,-1.41574955e-02f,
+3.02929699e-01f,+3.26991677e-01f,+2.69287210e-02f,+8.85467902e-02f,+6.58738464e-02f,
+2.00689167e-01f,+6.55411035e-02f,-5.18260300e-02f,-2.59768277e-01f,-1.26027197e-01f,
-5.43738678e-02f,+2.35201195e-01f,+1.45104118e-02f,+1.22532807e-01f,+2.63774216e-01f,
+4.71645147e-02f,+1.85768530e-01f,+1.13605402e-01f,-7.85785541e-02f,+4.88067344e-02f,
+2.30145194e-02f,+9.40097198e-02f,+2.04056531e-01f,+8.56756493e-02f,-2.77892292e-01f,
+1.15984805e-01f,+5.31774275e-02f,+1.36762425e-01f,+8.18296918e-04f,-1.32148460e-01f,
+8.65623541e-03f,+4.71537113e-01f,+8.42702687e-02f,-3.23539227e-02f,+6.65318221e-02f,
+3.87137942e-02f,-1.84892133e-01f,-1.77936375e-01f,+4.53070030e-02f,-1.30625451e-02f,
-3.19959432e-01f,+4.12529632e-02f,-4.75510508e-02f,-1.10028967e-01f,+9.74339694e-02f,
-4.68766131e-02f,+3.13682377e-01f,+2.69329380e-02f,-2.06011429e-01f,-2.19945535e-01f,
+4.16845292e-01f,-3.12944092e-02f,-2.95062929e-01f,+2.33521983e-01f,+1.34196565e-01f,
+5.61016314e-02f,-1.07565206e-02f,+2.84044668e-02f,+7.74613917e-02f,+1.50034413e-01f,
-1.99143767e-01f,-3.50675359e-02f,+6.16772808e-02f,+1.37511715e-01f,+2.47240156e-01f,
-2.07888726e-02f,+6.57761097e-02f,-3.36586982e-01f,-6.17620610e-02f,-1.16287351e-01f,
-3.42613924e-03f,+3.76630872e-02f,+1.92577392e-01f,+4.26806472e-02f,+6.85161799e-02f,
-1.08712368e-01f,-6.40756786e-02f,-1.21831842e-01f,+1.25886798e-01f,-9.59392786e-02f,
-1.19338401e-01f,+2.72741050e-01f,+4.05012071e-01f,-2.16939729e-02f,-1.10020958e-01f,
-1.28267899e-01f,+3.67125273e-02f,-3.27766508e-01f,+1.05728537e-01f,+3.74725461e-02f,
+2.11233035e-01f,-3.09556117e-03f,-3.79084311e-02f,-4.35311906e-02f,+9.44189131e-02f,
+2.88492650e-01f,+8.13486651e-02f,-2.02685505e-01f,-1.49986252e-01f,-1.11646764e-01f,
+7.99396709e-02f,+8.71085897e-02f,+1.72646582e-01f,-1.18719697e-01f,+7.38962665e-02f,
+1.68941945e-01f,+2.03309596e-01f,+1.27822176e-01f,+2.82449313e-02f,-1.74342860e-02f,
-1.08093269e-01f,+5.19209057e-02f,-2.00061008e-01f,-1.81145251e-01f,-3.42068046e-01f,
+1.44371063e-01f,-1.29504204e-01f,-2.21076131e-01f,+4.63126093e-01f,+1.17457196e-01f,
+8.99708420e-02f,-5.76797463e-02f,-9.60018579e-03f,+3.92159000e-02f,+3.68771306e-03f,
+9.75700468e-02f,+1.40465140e-01f,+3.20377439e-01f,+4.33962405e-01f,+5.18602729e-02f,
-1.92022488e-01f,-1.82097390e-01f,+1.07128322e-01f,-4.08107005e-02f,+1.29388466e-01f,
-1.73000515e-01f,-4.37548608e-01f,-2.79438376e-01f,+5.68060577e-02f,+2.12598160e-01f,
-3.85516256e-01f,+4.40595299e-01f,+9.02912840e-02f,+2.15973362e-01f,+7.65493959e-02f,
-2.90817231e-01f,-2.83709824e-01f,+1.46145299e-01f,-8.34953040e-02f,-4.08237875e-02f,
+9.31235626e-02f,-4.69952673e-01f,+1.40404820e-01f,-2.32631136e-02f,+2.45337576e-01f,
-1.09442055e-01f,+6.59692213e-02f,+3.74170870e-01f,+8.02740678e-02f,+2.37670571e-01f,
+4.39663306e-02f,+1.67552888e-01f,+5.29171288e-01f,-1.49670050e-01f,+2.66749591e-01f,
+5.35380691e-02f,+1.70895651e-01f,-3.65971476e-01f,+8.06654096e-02f,+2.06669465e-01f,
+2.48124376e-01f,+1.08975366e-01f,+1.43938482e-01f,+3.71261656e-01f,-5.76104224e-02f,
-2.21249446e-01f,+1.90814227e-01f,-2.45879516e-01f,+2.54300863e-01f,+2.28835508e-01f,
+1.21636197e-01f,-1.57959074e-01f,-3.57419848e-02f,-1.69747964e-01f,+1.42086521e-01f,
-1.55388579e-01f,+8.49363282e-02f,+1.93884730e-01f,-6.52978793e-02f,-1.67203974e-02f,
-1.57152244e-03f,-1.58910826e-01f,+1.95990324e-01f,+4.60584641e-01f,+9.02936310e-02f,
+2.30257720e-01f,-8.77334923e-02f,+3.99372578e-02f,+2.86718518e-01f,-3.27311367e-01f,
+3.31268251e-01f,-1.32300511e-01f,-2.59964973e-01f,-2.92686939e-01f,+2.67127603e-01f,
+2.27515221e-01f,+9.58881974e-02f,+2.70225376e-01f,+4.97799575e-01f,+1.17134504e-01f,
+1.75709978e-01f,+8.05443078e-02f,-4.17003006e-01f,+7.50337839e-02f,+1.84562057e-02f,
+1.89757660e-01f,+4.49894182e-02f,+1.25840425e-01f,-4.16365638e-03f,-1.30190983e-01f,
+1.59234777e-01f,+2.94258296e-01f,+4.06404257e-01f,+1.22860320e-01f,-9.94499400e-02f,
-4.67672609e-02f,-2.88738124e-02f,-1.54680282e-01f,+1.68665230e-01f,+2.83893615e-01f,
-8.23185965e-02f,-1.16553470e-01f,+1.19824365e-01f,+2.59636268e-02f,-6.41993284e-02f,
+1.32729307e-01f,+1.22554556e-01f,+6.63429126e-02f,+3.63180101e-01f,-2.43838541e-02f,
+5.16399741e-02f,+4.26909000e-01f,+2.73028731e-01f,-7.23411962e-02f,-3.95838656e-02f,
-1.67622700e-01f,+7.73303807e-02f,-5.73363267e-02f,-1.06556695e-02f,-2.22579435e-01f,
-2.73593664e-01f,-7.88651779e-02f,+5.55336736e-02f,-2.44726717e-01f,+4.50353444e-01f,
+1.04623392e-01f,+1.43817186e-01f,+2.40457714e-01f,+2.65458316e-01f,-1.01386428e-01f,
+8.75219330e-02f,-8.60593766e-02f,-3.63610759e-02f,+1.38352215e-01f,+8.78293291e-02f,
-1.38967767e-01f,+1.60146266e-01f,-3.23993355e-01f,-1.21453121e-01f,+1.58419266e-01f,
+1.52008414e-01f,+1.40085652e-01f,+3.08967829e-01f,-5.64222746e-02f,+5.79717420e-02f,
+1.05749004e-01f,-3.19034129e-01f,+1.43754050e-01f,-2.23539248e-01f,+2.68035382e-01f,
+7.39274472e-02f,+1.19659826e-01f,-1.42889060e-02f,+3.76380235e-02f,+1.04434103e-01f,
-5.07652611e-02f,+7.24352673e-02f,+1.50022104e-01f,-4.75263260e-02f,+3.32118906e-02f,
+2.52503544e-01f,+5.42141311e-02f,-1.15240142e-01f,+1.17050871e-01f,-7.59218959e-03f,
-9.19482261e-02f,+2.28803635e-01f,-2.43235931e-01f,+2.06154779e-01f,+1.21476173e-01f,
-9.02895480e-02f,+8.32845420e-02f,-1.16119251e-01f,-2.27172822e-01f,+7.45817721e-02f,
+1.44224092e-02f,+2.48398870e-01f,+1.26577601e-01f,+6.97612762e-02f,-7.23993778e-02f,
-2.35658407e-01f,+9.74429697e-02f,+1.70259818e-01f,+2.63944745e-01f,+1.01767480e-01f,
+2.61566013e-01f,+7.86552131e-02f,+8.39934796e-02f,-1.70612574e-01f,+2.13352844e-01f,
+7.11621121e-02f,+2.11343914e-01f,+1.41981900e-01f,-1.39957607e-01f,+3.72313678e-01f,
+1.81742460e-01f,+2.48614654e-01f,-1.46156073e-01f,+2.10299224e-01f,-5.64110018e-02f,
+2.59350747e-01f,+1.21259533e-01f,+2.15026245e-01f,+4.37346846e-02f,+2.35014826e-01f,
+2.46390730e-01f,+2.20181063e-01f,-4.21131738e-02f,-1.39754698e-01f,+8.48109776e-04f,
+3.70344035e-02f,-2.01156437e-01f,-3.36966850e-02f,-3.30239423e-02f,+4.89318132e-01f,
+1.54817790e-01f,-2.36156940e-01f,-5.10860421e-03f,+2.45405331e-01f,-9.71945450e-02f,
+1.00959241e-01f,-1.55392677e-01f,+3.82468030e-02f,+2.21583573e-03f,-1.79269180e-01f,
+1.87344447e-01f,+1.72303393e-01f,+3.35326307e-02f,-2.14971483e-01f,+2.06524372e-01f,
+4.40695211e-02f,-1.91339225e-01f,-1.72521874e-01f,+8.57427642e-02f,+3.72075409e-01f,
+9.01098363e-03f,+2.05323562e-01f,-4.83157337e-02f,-7.75888488e-02f,+5.36305420e-02f,
-1.93209067e-01f,+9.78867337e-02f,+3.78688365e-01f,+2.42131233e-01f,-2.02819146e-02f,
+1.96608603e-01f,+8.46139416e-02f,+3.32807839e-01f,-2.18411908e-03f,+1.68236077e-01f,
-1.95074230e-01f,-8.98925215e-02f,+5.30372746e-02f,+3.18004154e-02f,+1.85933150e-02f,
-3.62461567e-01f,+1.30524933e-01f,+7.47167394e-02f,+6.55157641e-02f,+5.02976365e-02f,
+6.13113455e-02f,+1.49561688e-02f,-2.32671708e-01f,+7.63706937e-02f,-9.72884074e-02f,
-4.94949967e-02f,+3.59611437e-02f,+2.48363912e-01f,+9.66565125e-03f,-3.08202893e-01f,
+2.69285142e-01f,-1.18960910e-01f,+1.71056330e-01f,+7.80262873e-02f,+7.38950353e-03f,
-2.40424171e-01f,-6.04439154e-02f,-5.19529022e-02f,+1.75173461e-01f,+2.07716867e-01f,
+6.44324571e-02f,+7.70696700e-02f,+1.60288543e-01f,+3.28006387e-01f,-2.54418999e-01f,
+5.10237180e-02f,-1.14301592e-01f,+3.08024228e-01f,+1.86548278e-01f,+1.04775600e-01f,
+4.27711271e-02f,-3.19752819e-03f,+3.39290174e-03f,+3.89150605e-02f,-2.32743517e-01f,
+2.92388886e-01f,-9.25649256e-02f,-9.10425931e-02f,+8.42117220e-02f,-1.31835183e-02f,
-3.49346161e-01f,+1.17574655e-01f,+4.68763523e-02f,-1.06958402e-02f,+1.57669902e-01f,
+2.16594841e-02f,+3.88752669e-01f,-1.32090122e-01f,-1.30626738e-01f,-2.15572610e-01f,
+1.41063184e-01f,+3.68547924e-02f,-2.26495907e-01f,-1.02645010e-01f,+6.96012452e-02f,
-7.87878260e-02f,-1.88730955e-01f,+2.97554284e-01f,+1.82892699e-02f,+1.44783944e-01f,
+1.05609417e-01f,+1.64150968e-02f,-2.17448369e-01f,+2.87368119e-01f,-1.13132946e-01f,
+2.46494681e-01f,+2.36397330e-03f,-7.23383650e-02f,-1.02886237e-01f,-3.80205661e-01f,
-1.72888160e-01f,+2.36975446e-01f,+2.09528580e-01f,+8.03352222e-02f,-1.48843363e-01f,
-4.33605127e-02f,+7.61824548e-02f,-8.13418031e-02f,-2.88412860e-03f,+1.91895142e-01f,
-2.60400712e-01f,-4.27031033e-02f,+2.67951861e-02f,-2.26883948e-01f,-7.23172352e-02f,
+8.85765627e-02f,+2.84284443e-01f,+7.80587792e-02f,-4.63006318e-01f,-2.52651870e-01f,
-9.28445440e-03f,-1.81088343e-01f,-4.94681112e-02f,+3.33396643e-02f,-1.31296366e-02f,
+2.22283285e-02f,+8.85581598e-02f,-7.02887923e-02f,-8.59475061e-02f,-2.77828693e-01f,
-9.16320235e-02f,+8.97518694e-02f,-1.70479119e-02f,-4.29745438e-03f,-3.78035098e-01f,
-4.27220054e-02f,+3.88074726e-01f,+2.01595932e-01f,+3.04109246e-01f,-2.35787645e-01f,
-6.40084743e-02f,-1.94434896e-01f,+2.63221078e-02f,-1.40909567e-01f,+1.34336114e-01f,
+2.74274468e-01f,+2.78447360e-01f,-1.73219323e-01f,+2.91428983e-01f,-1.53388128e-01f,
+1.83643401e-01f,-9.19601843e-02f,-3.09920143e-02f,+8.95664915e-02f,+1.45557925e-01f,
-1.27881337e-02f,-2.24147946e-01f,+3.11460011e-02f,-7.00773597e-02f,-1.73075750e-01f,
-1.58207476e-01f,+4.42949235e-02f,-1.93150491e-01f,-1.98746130e-01f,-4.46920931e-01f,
-1.23727378e-02f,+9.35303047e-02f,+1.10631205e-01f,-1.57772422e-01f,-1.46188974e-01f,
+1.36781737e-01f,-8.71758070e-03f,+2.32660323e-01f,-1.67996153e-01f,+2.77713299e-01f,
-5.93311861e-02f,+2.16070469e-02f,-2.85583764e-01f,+1.04521669e-01f,+2.07385063e-01f,
-2.36033365e-01f,+1.18004605e-01f,-4.08205576e-02f,+7.75892437e-02f,-1.05760463e-01f,
-1.54105589e-01f,+1.17784917e-01f,-3.51567209e-01f,-3.14110994e-01f,-2.08262086e-01f,
-4.10896866e-03f,+3.25617671e-01f,-1.30789652e-01f,-3.56415212e-02f,-2.13544041e-01f,
+9.07608569e-02f,-2.82866865e-01f,+3.50048751e-01f,-1.77614719e-01f,+6.10162579e-02f,
-1.57175586e-01f,-9.49829817e-02f,-1.21522292e-01f,-3.71862948e-01f,+7.27793574e-02f,
-7.62299374e-02f,-3.02212834e-02f,+1.99339956e-01f,+9.89136845e-03f,-3.05053443e-01f,
+1.06799468e-01f,-1.49671644e-01f,+2.35966891e-02f,-3.61337066e-02f,+7.57366344e-02f,
+4.32493597e-01f,+4.11501788e-02f,-3.12845886e-01f,-1.38439909e-01f,-7.23318309e-02f,
+1.77459627e-01f,-1.44703388e-01f,+1.02256708e-01f,-6.22500554e-02f,+1.58228919e-01f,
+2.81292796e-01f,-1.15931228e-01f,-5.76080568e-03f,+1.18707694e-01f,-2.01624721e-01f,
-5.26997447e-01f,+3.39004621e-02f,+2.09185719e-01f,+1.81023702e-01f,-8.88948590e-02f,
+1.74011096e-01f,+2.45865509e-01f,-8.10378045e-02f,+1.56309962e-01f,+9.36148614e-02f,
+2.51756638e-01f,-6.58273101e-02f,-5.88533841e-02f,-8.00175965e-03f,-2.28288677e-02f,
-1.65886328e-01f,-2.72126794e-02f,+7.53984693e-03f,-4.00314517e-02f,-9.37157273e-02f,
-2.01552119e-02f,-1.92299098e-01f,+5.41051626e-02f,-2.07501724e-01f,-2.23829031e-01f,
-1.57062188e-01f,+2.05500096e-01f,-3.39364380e-01f,+9.77198854e-02f,-5.93985384e-03f,
-7.21483529e-02f,-1.10321715e-01f,+2.19847962e-01f,-1.48931190e-01f,+1.56092957e-01f,
-9.56116393e-02f,+1.02842838e-01f,+1.97605386e-01f,+1.51842684e-01f,-4.28937227e-02f,
+2.12507144e-01f,-2.20260322e-01f,-1.48965582e-01f,+2.31733650e-01f,+2.27594525e-01f,
-1.92108937e-02f,-6.36829287e-02f,-5.03385291e-02f,+2.73528844e-01f,+5.50857842e-01f,
-7.66391382e-02f,+6.75977543e-02f,+4.84927148e-02f,-4.99000221e-01f,-2.12760374e-01f,
+6.74530715e-02f,-5.55225275e-02f,+9.25017968e-02f,-1.34698972e-01f,-7.03350604e-02f,
+1.21568814e-01f,+1.27147213e-01f,+1.81189775e-01f,+9.90835857e-03f,-1.09275125e-01f,
+1.15424454e-01f,-2.52416521e-01f,-1.05403922e-01f,+1.62212878e-01f,-1.33303449e-01f,
+1.92478672e-02f,+3.49732786e-01f,+1.89009141e-02f,+1.39519507e-02f,-7.44460076e-02f,
+1.95323359e-02f,-7.93697610e-02f,-1.54738799e-01f,+1.04716323e-01f,+4.18695947e-03f,
-1.68798156e-02f,+5.98813556e-02f,+6.06754124e-02f,+1.67784587e-01f,+3.27138975e-02f,
+3.03302296e-02f,-3.51146609e-02f,+2.70520449e-01f,-8.05117935e-02f,-1.17766060e-01f,
-9.57047939e-02f,-8.86145420e-03f,+1.19162910e-01f,+1.76066607e-01f,+1.15413465e-01f,
+4.99213487e-02f,+2.94831395e-01f,-1.79889351e-01f,-3.94061580e-02f,+2.48664901e-01f,
-3.27204325e-04f,+2.43404023e-02f,-1.06342018e-01f,+4.33975942e-02f,+1.26388818e-01f,
+2.50201702e-01f,+1.86933488e-01f,+4.66387898e-01f,+3.02958220e-01f,+1.40272021e-01f,
+1.54027566e-01f,+1.12548834e-02f,-6.41560704e-02f,-5.66765741e-02f,+2.59366602e-01f,
-3.58606637e-01f,-6.60884380e-02f,-8.32045078e-02f,+4.11670916e-02f,+3.88421752e-02f,
+1.53652936e-01f,-2.37810891e-02f,-1.56404555e-01f,-2.26389766e-01f,+7.32332002e-03f,
-1.56071201e-01f,+2.35729620e-01f,+2.26792932e-01f,-3.36802676e-02f,-7.67593309e-02f,
-1.60029009e-02f,-5.90257207e-03f,+1.50338292e-01f,-1.64078139e-02f,+5.36033548e-02f,
+7.75211602e-02f,-2.94851512e-03f,-7.45599798e-04f,+3.22036237e-01f,+5.06909639e-02f,
+6.29146621e-02f,+1.02654390e-01f,-1.24686226e-01f,-1.13753155e-01f,+2.41403505e-01f,
+2.93427646e-01f,+4.19495851e-02f,+1.51530236e-01f,+1.18062690e-01f,+1.58711359e-01f,
-3.23006660e-01f,-1.86079845e-01f,+1.35796234e-01f,-9.20586511e-02f,+2.58466639e-02f,
+2.81801015e-01f,+1.52072921e-01f,+1.86130002e-01f,+1.45056508e-02f,-1.29425362e-01f,
-1.07426025e-01f,+1.40645728e-01f,+6.12487607e-02f,-1.50977835e-01f,-5.82814077e-03f,
+1.86024636e-01f,-4.81291376e-02f,+2.99498681e-02f,+2.58290678e-01f,-1.19591959e-01f,
-7.23789795e-04f,+1.71066105e-01f,+1.08981200e-01f,+2.77451903e-01f,-1.17035322e-01f,
+1.19177625e-01f,+3.63097675e-02f,-2.06382304e-01f,-9.19349417e-02f,-3.93958837e-02f,
+1.83258250e-01f,-3.76041271e-02f,+1.20320126e-01f,-4.45987694e-02f,+1.88870385e-01f,
+2.13027835e-01f,+1.83945924e-01f,-1.31005645e-01f,-1.77928746e-01f,-2.07817197e-01f,
+2.27568299e-01f,-2.88497452e-02f,+1.60819277e-01f,-1.87840000e-01f,-2.40155533e-01f,
-2.31281489e-01f,+2.08562762e-01f,+2.58105785e-01f,+3.65933031e-01f,+1.73782244e-01f,
-7.27711767e-02f,+1.27498224e-01f,+9.37257484e-02f,+1.01471364e-01f,+3.52121413e-01f,
+1.50382683e-01f,-1.88512310e-01f,+1.97089329e-01f,+4.32331651e-01f,+1.75108105e-01f,
+1.63270578e-01f,+2.83368289e-01f,+3.82658869e-01f,+3.21349949e-01f,-1.35783449e-01f,
+2.66797423e-01f,-3.18925828e-02f,+1.28804699e-01f,-1.26480684e-01f,+6.95599765e-02f,
-1.45316720e-01f,+1.90008655e-01f,+2.71274775e-01f,+1.94462016e-01f,+6.85071126e-02f,
-1.41163290e-01f,+4.39538015e-03f,+3.99107002e-02f,+2.21218050e-01f,-1.36831239e-01f,
-4.67126928e-02f,+5.90072460e-02f,-2.84902845e-02f,+1.42048284e-01f,+1.34549756e-02f,
+2.27706432e-01f,+1.96908638e-01f,+2.39886194e-01f,+5.00192530e-02f,-1.31240368e-01f,
+3.24543230e-02f,+1.54381201e-01f,+6.62133247e-02f,+3.65039781e-02f,+7.12511837e-02f,
-5.98910898e-02f,+2.30824068e-01f,-1.02987653e-02f,-1.24240089e-02f,-2.28427090e-02f,
+8.13377574e-02f,+1.59433663e-01f,+5.60629249e-01f,+2.11111024e-01f,-1.12609535e-01f,
-1.44036174e-01f,-4.35487479e-02f,+4.27066535e-03f,+1.65402338e-01f,+3.59053969e-01f,
-1.17998742e-01f,+2.13604078e-01f,+1.62032209e-02f,+1.82276964e-01f,-7.63582587e-02f,
-6.59855828e-02f,-4.20918539e-02f,-9.82256234e-02f,+1.09818451e-01f,+4.56152484e-02f,
+2.05579326e-01f,+1.46174878e-01f,-4.17044647e-02f,+6.77038431e-02f,-1.00524701e-01f,
+1.37114987e-01f,+1.25074267e-01f,+8.34371746e-02f,-2.97474544e-02f,+1.51879475e-01f,
-5.24799377e-02f,+6.90944642e-02f,+1.54716313e-01f,-1.59055099e-01f,+4.01264727e-01f,
+1.79675639e-01f,+1.43788010e-01f,-4.78310995e-02f,-9.81056318e-02f,-5.05377799e-02f,
-1.05255671e-01f,+1.18611418e-01f,+2.50767231e-01f,-6.81789685e-03f,+1.98499203e-01f,
+3.14482599e-01f,+1.63632646e-01f,+6.59128949e-02f,-2.67700821e-01f,+7.37809166e-02f,
+2.51685202e-01f,-9.77399200e-02f,+5.95206879e-02f,+5.51195964e-02f,+3.05306166e-01f,
+1.68600440e-01f,+1.43968686e-01f,+6.40646666e-02f,-5.01729595e-03f,-7.23921880e-02f,
-1.44687176e-01f,-4.25697155e-02f,+3.17764938e-01f,-3.04929521e-02f,+1.24568857e-01f,
+3.94445919e-02f,-5.07996418e-02f,+3.14208031e-01f,-1.70202985e-01f,-4.88432676e-01f,
-1.87562983e-02f,+1.38277441e-01f,-1.96951136e-01f,-3.17251742e-01f,+2.01719120e-01f,
-1.87687650e-01f,-6.59816191e-02f,-9.40434486e-02f,-1.12013943e-01f,+1.99048407e-02f,
-2.59261113e-02f,+9.10042450e-02f,-1.69907808e-02f,+7.09059089e-02f,+1.74646467e-01f,
-1.97530419e-01f,+4.06615101e-02f,-9.91959348e-02f,+1.86707884e-01f,-2.93582547e-02f,
-1.31696835e-01f,+2.46544089e-03f,+1.88102946e-01f,+1.59430891e-01f,-1.75551161e-01f,
+1.40766829e-01f,+1.15906045e-01f,+1.53946564e-01f,+1.92995965e-02f,+1.24446876e-01f,
+6.58764914e-02f,-1.07570916e-01f,+7.43176043e-03f,-5.17377928e-02f,+3.24331909e-01f,
+1.37444705e-01f,-1.66545898e-01f,+1.50807619e-01f,+2.32766807e-01f,+2.23858431e-01f,
+1.53478324e-01f,-4.81153280e-02f,+4.91147973e-02f,-3.70062649e-01f,-3.05448454e-02f,
+1.06793210e-01f,+2.56626517e-01f,-3.92638966e-02f,+8.29990059e-02f,+1.16195023e-01f,
-1.27261236e-01f,-2.46926956e-02f,-2.02439502e-01f,-2.96232346e-02f,+1.65539179e-02f,
+2.79387802e-01f,+2.67902873e-02f,+3.33395183e-01f,-4.00094390e-01f,+7.58545101e-02f,
+1.40564190e-02f,-2.52749175e-01f,+3.16204965e-01f,-1.39540717e-01f,-9.66496486e-03f,
+1.29430711e-01f,+1.88773736e-01f,+2.65842229e-01f,+3.36685870e-03f,-7.72815347e-02f,
-3.42660807e-02f,+3.60819474e-02f,+5.91151230e-02f,-5.49823642e-02f,+7.88080841e-02f,
-1.66309014e-01f,+1.81673184e-01f,+3.48748296e-01f,+1.88191026e-01f,+2.34092221e-01f,
+1.73424393e-01f,+6.82032779e-02f,-9.91930664e-02f,-3.34872585e-03f,+2.42637340e-02f,
+1.98897690e-01f,-1.39236853e-01f,+3.04526925e-01f,+1.88833579e-01f,-1.32350191e-01f,
+2.15245381e-01f,+7.15899318e-02f,-2.27991305e-02f,-2.27809832e-01f,+1.26112431e-01f,
+1.01057507e-01f,-9.00150016e-02f,-2.50713769e-02f,+1.19187243e-01f,+2.43631691e-01f,
-8.76018405e-02f,-1.58090204e-01f,+1.10730819e-01f,-1.64636418e-01f,-1.68236658e-01f,
-8.43221024e-02f,+1.92997277e-01f,+2.38613635e-01f,-1.70001239e-01f,+3.09193999e-01f,
-2.26747483e-01f,-4.66435030e-02f,+1.97922066e-01f,-2.52692793e-02f,+1.42681479e-01f,
-2.40433797e-01f,+2.75560230e-01f,-1.04228668e-02f,+1.18048787e-01f,-4.43810932e-02f,
+6.36997297e-02f,-1.47454306e-01f,+4.69058268e-02f,-1.69721222e-03f,+1.40704690e-02f,
+7.35342950e-02f,-8.93277302e-02f,-2.12707147e-02f,+1.68797802e-02f,-7.35824257e-02f,
+1.55459836e-01f,-8.50111544e-02f,+1.51853606e-01f,-5.95466383e-02f,+8.51079542e-03f,
+1.07032992e-01f,-3.86131592e-02f,-2.41729598e-02f,+4.70445715e-02f,+2.66221203e-02f,
-2.38170498e-04f,+1.13298535e-01f,-1.37509048e-01f,+5.23193218e-02f,-1.07595809e-01f,
+4.48250547e-02f,+7.52818137e-02f,+3.62370722e-02f,-9.71093997e-02f,-7.04821423e-02f,
+8.76589343e-02f,-1.45222330e-02f,+4.76039350e-02f,+1.05802923e-01f,+4.81365249e-02f,
-1.87652111e-01f,-1.57741070e-01f,-4.93179895e-02f,-1.80710405e-01f,-2.99988151e-01f,
+6.90652579e-02f,+4.25185449e-02f,-2.88792001e-03f,-2.30399556e-02f,-1.54314429e-01f,
+6.48185983e-02f,+1.81910038e-01f,-2.90614879e-03f,-1.88605696e-01f,-2.27899387e-01f,
+1.29464537e-01f,+1.70931399e-01f,+4.13299799e-02f,+3.34126651e-01f,+1.57481313e-01f,
-1.48970857e-01f,+2.25934729e-01f,+2.69582719e-01f,-2.37288043e-01f,+1.32423854e-02f,
-3.42273489e-02f,-2.25797237e-04f,-4.45099436e-02f,-1.20439038e-01f,-4.17156778e-02f,
+5.47470003e-02f,+1.86688662e-01f,+2.22877741e-01f,-2.29444161e-01f,+6.17650077e-02f,
-1.35685563e-01f,+1.27297029e-01f,-1.26375899e-01f,-4.04220261e-02f,-9.72387642e-02f,
-2.61253148e-01f,+3.44096720e-01f,-4.53952812e-02f,-7.07368478e-02f,-4.94662039e-02f,
+2.14240804e-01f,-1.84109597e-03f,+1.40237585e-01f,+5.59606969e-01f,-7.38748312e-02f,
+1.47894421e-03f,-6.06863806e-03f,+1.03131816e-01f,+1.26693845e-01f,+1.67640597e-01f,
-2.22363353e-01f,+1.21923894e-01f,+1.51228949e-01f,+2.18482405e-01f,+6.67736903e-02f,
+1.52247414e-01f,-8.40622187e-02f,-1.22734174e-01f,-7.46121183e-02f,-2.21438959e-01f,
-1.09613076e-01f,-2.22963169e-01f,+1.72114763e-02f,+2.66430974e-01f,-1.34215891e-01f,
-2.65850782e-01f,+1.33750722e-01f,+3.63051817e-02f,-1.73028409e-01f,+1.20544910e-01f,
-7.19360914e-03f,-3.11299920e-01f,-1.98910058e-01f,-5.20716831e-02f,+2.39324033e-01f,
+1.20081075e-01f,-1.92672461e-02f,-1.10863999e-01f,-1.09977573e-01f,-1.63385496e-01f,
+2.18016163e-01f,+4.40733641e-01f,+1.07877545e-01f,-2.22017258e-01f,-2.39766881e-01f,
-1.53953478e-01f,-2.24094093e-02f,-2.42298156e-01f,+2.05830082e-01f,-6.49723411e-02f,
+1.67217091e-01f,-1.30205543e-03f,-1.59232598e-02f,+6.01366580e-01f,+1.01029187e-01f,
-1.68142498e-01f,+4.45354320e-02f,+5.12704924e-02f,-1.59487501e-02f,-5.91946915e-02f,
+2.62733959e-02f,+1.30863234e-01f,-1.49081379e-01f,+3.28096271e-01f,+1.35697529e-01f,
-1.54821694e-01f,-1.35367811e-01f,-1.68428011e-02f,-2.98839092e-01f,+1.00326173e-01f,
-2.08542570e-02f,-3.32801305e-02f,-2.33038157e-01f,+7.11928383e-02f,+7.06257224e-02f,
-1.61408022e-01f,+9.11358222e-02f,-1.42772526e-01f,+1.04138032e-01f,-7.50092492e-02f,
-9.81165841e-02f,+1.80625953e-02f,+2.07266018e-01f,-2.26200283e-01f,-3.86477634e-02f,
+2.97102109e-02f,+1.27215549e-01f,-3.33645754e-02f,-9.73822474e-02f,+2.23115996e-01f,
-2.12632027e-02f,+3.41692179e-01f,-3.41815650e-02f,-3.80853415e-02f,-2.17315346e-01f,
-7.97007512e-03f,+3.57079029e-01f,-8.49641263e-02f,-1.22776918e-01f,-5.74673414e-02f,
-1.06898032e-01f,-1.16151907e-01f,+1.11421265e-01f,-2.14341894e-01f,+3.00843209e-01f,
+3.47053111e-02f,-1.05483256e-01f,-1.79409981e-01f,+5.71952946e-02f,+2.19504640e-01f,
-1.05245903e-01f,+3.09186816e-01f,+1.49506718e-01f,-3.80850956e-02f,+5.13004921e-02f,
-7.97338635e-02f,+1.28722921e-01f,-2.00705245e-01f,-1.72050565e-01f,+4.91538867e-02f,
-3.43097627e-01f,-2.55159050e-01f,+1.23601317e-01f,+2.05862612e-01f,-5.09617478e-02f,
-4.30287868e-02f,+2.30370257e-02f,+1.30632803e-01f,+6.49691746e-02f,+1.47495508e-01f,
-3.91011499e-02f,+2.92040017e-02f,-4.20861095e-02f,-1.01480082e-01f,+1.46540580e-03f,
+2.59251475e-01f,+2.19557136e-01f,+1.93740025e-01f,+1.27567455e-01f,+1.49223888e-02f,
+3.44539821e-01f,+3.84473130e-02f,+1.23778507e-01f,+5.27667180e-02f,+2.15569157e-02f,
-3.17469165e-02f,+6.01344444e-02f,-1.64915487e-01f,-1.43411547e-01f,+1.04014605e-01f,
-1.01588547e-01f,-2.13348731e-01f,-1.25610426e-01f,+3.23880047e-01f,-2.17328370e-02f,
-3.43572523e-04f,+2.49835685e-01f,+3.24676335e-01f,-7.17811137e-02f,+2.13244990e-01f,
+1.57628864e-01f,+3.34580600e-01f,+2.97878832e-02f,+6.91033751e-02f,-2.75794342e-02f,
+1.76733941e-01f,+1.54515356e-01f,-2.47994900e-01f,-1.76692620e-01f,-2.22967919e-02f,
+4.17603878e-03f,+3.80213171e-01f,-4.58948463e-02f,+1.69229090e-01f,+1.38630241e-01f,
-8.59242678e-02f,+3.05719167e-01f,-1.37254581e-01f,+4.17776853e-01f,+2.17193097e-01f,
+8.78838003e-02f,-1.12326279e-01f,-8.00784677e-02f,+4.06033546e-02f,+2.61261553e-01f,
+2.72669017e-01f,+3.00810486e-01f,-4.26872224e-02f,-2.52407175e-02f,+9.01320651e-02f,
-2.38391995e-01f,+1.17916666e-01f,+7.45135099e-02f,+1.86509460e-01f,+1.34189621e-01f,
-3.74778271e-01f,-3.09826457e-03f,+4.54203561e-02f,+2.44279251e-01f,-1.24821693e-01f,
-2.13263646e-01f,-4.28239852e-02f,+3.73542219e-01f,+6.85375696e-03f,+1.69717930e-02f,
+3.33256531e-03f,+1.09151691e-01f,+1.84536561e-01f,-8.47542435e-02f,-1.87303558e-01f,
+3.78364213e-02f,-2.50359356e-01f,+5.83708026e-02f,-2.02671066e-01f,-1.24553896e-01f,
+4.59339295e-04f,-8.65053013e-03f,+1.29633754e-01f,-2.63644528e-04f,-9.40957293e-02f,
-4.74618524e-02f,+4.78401557e-02f,+1.94738612e-01f,+4.05687392e-02f,+5.25280274e-02f,
-1.49339288e-01f,+2.70503312e-01f,+2.28139125e-02f,-1.36929438e-01f,+1.20844236e-02f,
-1.62387192e-01f,+3.19404632e-01f,+2.91928411e-01f,-1.77441865e-01f,+1.86864674e-01f,
+2.25563627e-02f,-8.67174640e-02f,+3.13158661e-01f,+7.08382651e-02f,+1.10947438e-01f,
+1.39224201e-01f,+1.64783187e-02f,+2.53446512e-02f,+2.41839677e-01f,+1.74084911e-03f,
+2.58046031e-01f,+1.03235960e-01f,-2.51197904e-01f,+8.69077221e-02f,+4.57587466e-02f,
+2.87029654e-01f,+3.32186073e-01f,-5.83175104e-03f,+2.41346925e-01f,-4.07780826e-01f,
+8.24070126e-02f,-2.73333102e-01f,+4.83569652e-02f,+2.57014073e-02f,+7.84034058e-02f,
+5.06766997e-02f,+2.13100627e-01f,-8.73559937e-02f,-6.51804730e-02f,+3.87073457e-01f,
+4.04724777e-02f,+6.32323697e-02f,-3.20743881e-02f,+1.06644921e-01f,+2.33821183e-01f,
+1.31907851e-01f,-3.35068740e-02f,+3.91865075e-02f,+2.28076026e-01f,+4.20755446e-02f,
-1.80837959e-01f,+9.68461449e-04f,-4.66477543e-01f,-1.82919502e-02f,+4.09065094e-03f,
+1.24416016e-01f,+9.95170921e-02f,+2.32489835e-02f,+4.59338933e-01f,-1.11001588e-01f,
+2.27263644e-01f,+2.39414141e-01f,+1.79643273e-01f,+3.04819643e-01f,-1.33646699e-02f,
+1.34191051e-01f,-1.96333319e-01f,-5.92560731e-02f,+1.34073764e-01f,-7.97718242e-02f,
-6.76356209e-03f,+9.11727473e-02f,+5.10675944e-02f,-1.75359417e-02f,-9.28765759e-02f,
+1.84730396e-01f,+1.05649531e-01f,-4.69128862e-02f,-1.76030695e-01f,+4.07588519e-02f,
+2.94609845e-01f,+1.24821559e-01f,-1.81087106e-01f,+1.66965704e-02f,+9.97195095e-02f,
-7.08643943e-02f,-1.96031943e-01f,-1.82918087e-01f,+1.35364175e-01f,+8.55857413e-03f,
+5.29893534e-03f,-9.42204073e-02f,+2.69504815e-01f,-1.37186274e-01f,+2.90142205e-02f,
+5.73157854e-02f,-1.57279596e-01f,+9.04176757e-03f,+3.07883114e-01f,+6.15152670e-03f,
-2.66435057e-01f,-3.95303071e-02f,+7.66548067e-02f,-9.64261964e-02f,-2.05345944e-01f,
+2.72833519e-02f,+4.73667905e-02f,+1.21416729e-02f,+1.37984246e-01f,+1.62189350e-01f,
+5.36826029e-02f,-5.56406453e-02f,-7.01329336e-02f,+1.00221269e-01f,-3.65399756e-02f,
+1.05982959e-01f,-7.09619522e-02f,+6.85105920e-02f,+1.06142476e-01f,+2.14593634e-01f,
+1.99956074e-02f,+3.44290063e-02f,-1.14573553e-01f,+3.80517125e-01f,+1.72976673e-01f,
+1.27078786e-01f,+2.37391546e-01f,+2.75385790e-02f,-1.43498898e-01f,+9.40828994e-02f,
-3.10878307e-01f,-3.43677811e-02f,-1.70186243e-03f,-1.05089791e-01f,+1.09219760e-01f,
-2.13829949e-02f,-4.92388047e-02f,+1.55407712e-01f,+1.20760888e-01f,-9.12392698e-03f,
+9.52058062e-02f,+1.31535828e-01f,+1.71392068e-01f,-7.55335316e-02f,+1.13329925e-01f,
-1.73301876e-01f,+1.62959069e-01f,+1.88111812e-01f,-1.21709093e-01f,-1.10728197e-01f,
+4.55048913e-03f,+1.54056564e-01f,+2.18341872e-01f,+1.76408753e-01f,-1.74971148e-01f,
-1.11771517e-01f,-1.13526829e-01f,+1.74096957e-01f,+5.90890907e-02f,+1.65601075e-01f,
+1.37536570e-01f,-1.46198705e-01f,-1.37682751e-01f,-4.09469306e-02f,+5.81410415e-02f,
+8.78910795e-02f,-3.66908908e-02f,+1.56974316e-01f,-2.43915856e-01f,-3.54632139e-02f,
-1.38102964e-01f,-1.35196969e-01f,-3.21367919e-01f,-7.40961134e-02f,+1.32603988e-01f,
+1.96053475e-01f,+1.96252689e-01f,+1.27847344e-01f,+3.87911987e-03f,-5.33732697e-02f,
+1.16778098e-01f,-7.30133802e-02f,+1.14873452e-02f,-3.48014802e-01f,-1.18875928e-01f,
+8.68426263e-03f,-3.54391001e-02f,-1.59165962e-03f,-2.86478400e-01f,+6.30707294e-02f,
+1.73985399e-02f,+1.59658670e-01f,+1.40949100e-01f,+5.12333699e-02f,-2.20978543e-01f,
-1.29225536e-03f,-1.63315132e-01f,-2.32544273e-01f,+5.88923842e-02f,+3.30321431e-01f,
-1.55229466e-02f,+1.54598802e-01f,+2.56108850e-01f,-7.85899758e-02f,-1.38527945e-01f,
+2.37084866e-01f,-4.80337106e-02f,-1.45331293e-01f,+4.14115712e-02f,-1.37808219e-01f,
+1.80727527e-01f,+3.32345247e-01f,+2.04756051e-01f,-6.22707754e-02f,-1.23795040e-01f,
+3.76619726e-01f,-1.09957188e-01f,-1.38571948e-01f,+1.85841583e-02f,-4.02202690e-03f,
+2.26229187e-02f,+4.57831360e-02f,-1.31783456e-01f,-2.06893291e-02f,-1.16210274e-01f,
+1.50553331e-01f,-7.59601295e-02f,+2.77760983e-01f,+2.86548346e-01f,+6.48727268e-02f,
+1.68119110e-02f,+4.51656431e-01f,+1.54006422e-01f,+9.59575623e-02f,+3.84403691e-02f,
-5.10466583e-02f,-2.66990662e-01f,+1.87697336e-01f,-1.80750638e-01f,-1.10189080e-01f,
+3.06021929e-01f,+1.73523918e-01f,-1.07032157e-01f,+2.19657764e-01f,-1.27060235e-01f,
+5.65584190e-02f,-1.50290132e-01f,+1.25695780e-01f,-2.24000826e-01f,+2.19402656e-01f,
+1.69320062e-01f,+2.47874428e-02f,-5.31242937e-02f,+2.22299367e-01f,+1.80656046e-01f,
+2.36663610e-01f,-2.28510723e-02f,+1.13870241e-01f,-2.04922244e-01f,+6.56303838e-02f,
-9.13298503e-02f,+1.75608307e-01f,-2.75513567e-02f,-8.70270561e-03f,+6.85773268e-02f,
+1.95281535e-01f,-1.60840183e-01f,+1.17001154e-01f,-2.82893069e-02f,-5.32501042e-02f,
-6.37713298e-02f,-2.66489953e-01f,-8.53846595e-02f,+1.97509736e-01f,-8.37479383e-02f,
-2.95688987e-01f,-3.09914779e-02f,+9.73769948e-02f,-1.38768971e-01f,+9.02804509e-02f,
+2.60925591e-01f,-3.65392148e-01f,+8.82874355e-02f,+1.37035504e-01f,-5.79449125e-02f,
-2.02514619e-01f,+1.08455293e-01f,-7.92101249e-02f,+3.77631150e-02f,+2.18470946e-01f,
-2.41631880e-01f,-3.36766809e-01f,-2.08356574e-01f,+1.15211740e-01f,-1.31344020e-01f,
+1.44789875e-01f,-1.16315439e-01f,-3.94850895e-02f,+1.30334690e-01f,+3.09313033e-02f,
+1.81988820e-01f,-7.59624019e-02f,-4.43872176e-02f,-8.14449713e-02f,+4.60933357e-01f,
-2.84619387e-02f,-1.07782573e-01f,+9.12592486e-02f,+1.76473200e-01f,+1.09993175e-01f,
+3.61251794e-02f,-2.30935410e-01f,-1.49607621e-02f,+1.78378209e-01f,+2.00684831e-01f,
+3.16480458e-01f,+1.15619544e-02f,+1.34995863e-01f,-8.36243182e-02f,+3.74241173e-01f,
+9.59437564e-02f,+9.42138880e-02f,-1.07036926e-01f,-2.31997415e-01f,+1.82447284e-01f,
+1.43573031e-01f,-3.09865288e-02f,+1.93658233e-01f,+4.54828553e-02f,+8.85235965e-02f,
+5.14730848e-02f,+1.13609709e-01f,+7.45263547e-02f,-1.84584409e-01f,-1.16035707e-01f,
+2.27362756e-02f,+1.10963501e-01f,+5.78928404e-02f,-9.60632227e-03f,-2.59509891e-01f,
-3.54562514e-02f,-1.59620773e-02f,-2.62662083e-01f,+2.07918599e-01f,-1.09767810e-01f,
-2.54578829e-01f,+7.81047419e-02f,+2.97874063e-01f,+3.13631386e-01f,-4.19641703e-01f,
-1.40009671e-01f,+3.55653390e-02f,-7.71575421e-02f,+2.81338878e-02f,-6.72026500e-02f,
+1.27517894e-01f,+1.21421680e-01f,-5.90477744e-03f,-5.81140704e-02f,+2.18582660e-01f,
+2.55712681e-02f,+1.43513560e-01f,+4.46974300e-02f,-4.69250202e-01f,+5.22193499e-02f,
-2.05464169e-01f,+2.61745751e-01f,-7.35710040e-02f,-2.31274292e-02f,+4.09794264e-02f,
-2.10846066e-02f,-3.23776394e-01f,-2.91034192e-01f,+2.03883022e-01f,-5.87053560e-02f,
+7.62254670e-02f,-4.65536192e-02f,+1.55282021e-01f,+4.89812009e-02f,+1.21585116e-01f,
-1.93621516e-01f,-2.57322993e-02f,-1.36631772e-01f,+1.67930245e-01f,+2.12902918e-01f,
-3.07242602e-01f,+1.83802336e-01f,+1.56853095e-01f,-5.34692585e-01f,+1.17968395e-01f,
+4.41398509e-02f,-6.79973396e-04f,+1.40484035e-01f,-7.12546557e-02f,+1.60394832e-01f,
-3.59056145e-02f,-4.27966826e-02f,-6.16161269e-04f,+8.09187293e-02f,+1.37658268e-01f,
+6.84597790e-02f,+5.43541238e-02f,-4.21129823e-01f,+1.25927366e-02f,+2.07880616e-01f,
+2.09915340e-01f,+7.64713362e-02f,-3.84576678e-01f,+9.10888985e-02f,+6.84115514e-02f,
+2.60031760e-01f,+2.21038193e-01f,+9.93376523e-02f,-4.23357785e-02f,+6.21650554e-02f,
+4.88228612e-02f,-1.35594890e-01f,+1.89768255e-03f,+4.37858462e-01f,+2.07937792e-01f,
-3.08281239e-02f,+3.01852137e-01f,+4.37526666e-02f,+2.27206379e-01f,-4.52969037e-03f,
+3.22271407e-01f,+2.70156473e-01f,-3.27332020e-02f,+2.24381000e-01f,-7.26990700e-02f,
-2.63101161e-02f,-7.04551041e-02f,+2.69145787e-01f,-1.59793660e-01f,+6.42835945e-02f,
-1.56668723e-01f,+1.11938938e-01f,-3.15711498e-01f,-1.75882429e-01f,+1.51975110e-01f,
+7.12715238e-02f,-1.54522359e-01f,+1.24475081e-02f,-3.24858218e-01f,-1.71200842e-01f,
-2.79863894e-01f,-4.13149223e-03f,-2.35005915e-02f,-4.21982795e-01f,-1.88381433e-01f,
-2.04398170e-01f,-1.09679796e-01f,-3.94941062e-01f,-8.47103223e-02f,+2.12788865e-01f,
-1.70379624e-01f,-2.46425495e-02f,+1.12379298e-01f,-1.46897241e-01f,-1.11354806e-01f,
+4.23972532e-02f,+3.22122186e-01f,+1.41844213e-01f,+9.44225639e-02f,+2.79888790e-02f,
-9.57396552e-02f,+5.13456352e-02f,+5.34454212e-02f,+5.22652604e-02f,+1.40893072e-01f,
+1.39845967e-01f,+1.24672711e-01f,-2.29305491e-01f,-1.17922068e-01f,-1.59784742e-02f,
-1.76849440e-01f,-2.38748685e-01f,+5.02572991e-02f,-1.70864929e-02f,-5.63888485e-03f,
+3.14948142e-01f,-1.14385039e-02f,-9.06535983e-02f,+3.62601697e-01f,+2.77882427e-01f,
+3.81796569e-01f,+1.99188683e-02f,+2.59398311e-01f,+2.91577250e-01f,-1.14693210e-01f,
+6.91714603e-03f,-3.43828291e-01f,-6.24219589e-02f,-4.73163217e-01f,+1.54431835e-01f,
-5.15936576e-02f,-2.43881151e-01f,-4.77283336e-02f,+3.68907712e-02f,+5.84566481e-02f,
-8.06407258e-02f,+1.30119368e-01f,+2.94219740e-02f,-1.90686586e-03f,-1.47996724e-01f,
-1.50552958e-01f,+1.13845818e-01f,+6.05747104e-02f,-5.76702785e-03f,+1.48188114e-01f,
+1.22538626e-01f,+9.71997250e-03f,-7.92557299e-02f,-1.18279956e-01f,-4.08084303e-01f,
+1.79133505e-01f,-2.16144338e-01f,-2.04883277e-01f,+2.44016424e-01f,-1.62697703e-01f,
-2.12085526e-02f,+7.59438239e-03f,-3.23280931e-01f,-1.13078877e-01f,+2.42232904e-01f,
-6.40283450e-02f,-3.29058208e-02f,-2.54023194e-01f,+9.38858315e-02f,+5.08766435e-03f,
-7.59840086e-02f,-1.02076679e-01f,-6.07369132e-02f,+1.28843382e-01f,-1.70962244e-01f,
-9.22603719e-03f,+2.41827130e-01f,+2.38457024e-01f,+1.08885117e-01f,-9.30052847e-02f,
-2.59167969e-01f,+5.84451184e-02f,+7.08385557e-03f,+2.20560446e-01f,+5.02083711e-02f,
+2.00811774e-02f,+5.55071868e-02f,-1.18154712e-01f,+2.10224032e-01f,+5.02244793e-02f,
+1.75237998e-01f,-6.95861131e-02f,-1.94204181e-01f,+8.46139342e-02f,+2.61880253e-02f,
+1.74024910e-01f,-9.74681005e-02f,-2.17944548e-01f,+2.93799967e-01f,-4.00300846e-02f,
+9.48381498e-02f,+6.91439211e-02f,+2.61890572e-02f,+5.64019829e-02f,-4.19173598e-01f,
+2.73817569e-01f,-8.97978693e-02f,-1.47724360e-01f,+3.05536669e-02f,+5.36447763e-02f,
+1.49878904e-01f,-2.45665699e-01f,-1.13839321e-01f,+2.85649389e-01f,+8.47033933e-02f,
+6.77146986e-02f,+2.72088557e-01f,-3.45579605e-03f,-1.26239732e-01f,+2.24281251e-02f,
+2.39103392e-01f,+8.25137496e-02f,+1.86984047e-01f,+2.03713313e-01f,+2.10046805e-02f,
-1.73279554e-01f,+7.06135109e-02f,+8.94012675e-02f,+2.66797449e-02f,-2.03299999e-01f,
+1.54507443e-01f,+8.33784863e-02f,-7.14909111e-04f,-8.11345968e-03f,+4.50913645e-02f,
-5.98559864e-02f,+2.12922558e-01f,-1.85750443e-02f,+1.45472795e-01f,+5.29213324e-02f,
-2.04492033e-01f,-2.17419952e-01f,-1.59459725e-01f,+1.54673643e-02f,+5.78087047e-02f,
+8.87051225e-02f,-4.27496172e-02f,+2.77797313e-04f,+9.79934111e-02f,+2.54686326e-01f,
-3.05383913e-02f,-2.19305292e-01f,+1.65220872e-01f,-3.89034986e-01f,+1.32573768e-01f,
-1.84510201e-01f,-1.19380750e-01f,-9.59728584e-02f,-3.64131443e-02f,+2.48940159e-02f,
-3.57419312e-01f,+7.16890916e-02f,+6.87861294e-02f,-1.08840782e-02f,+2.42773861e-01f,
+8.37779820e-01f,+3.60261537e-02f,+2.32772678e-01f,-1.46950245e-01f,+1.59569189e-01f,
-1.81419831e-02f,+7.33425766e-02f,+2.02838019e-01f,+3.23316187e-01f,+2.44971871e-01f,
+6.66107610e-02f,-6.34858459e-02f,-1.69645101e-01f,+1.05611838e-01f,-7.62037858e-02f,
+4.45342250e-02f,-1.51358932e-01f,+2.15260595e-01f,-3.02500486e-01f,+2.52949208e-01f,
+4.27938163e-01f,+2.35468075e-01f,+2.94301271e-01f,+1.46006286e-01f,+3.32262129e-01f,
+1.58265978e-01f,-2.23587304e-01f,+1.86345592e-01f,-2.65874714e-02f,-6.28641024e-02f,
+8.19047019e-02f,+3.10144633e-01f,+2.88874954e-01f,+1.49209380e-01f,-1.76443793e-02f,
+5.88532649e-02f,+9.11419466e-02f,+2.21699804e-01f,+3.08464859e-02f,+1.58153810e-02f,
+3.07565294e-02f,+6.54335395e-02f,-1.22209884e-01f,-1.03512727e-01f,+2.65534878e-01f,
-1.01409733e-01f,+3.61704230e-02f,+3.16640019e-01f,+1.20588973e-01f,-1.59938842e-01f,
+1.53450919e-02f,+2.33835146e-01f,+2.79652566e-01f,-8.96095932e-02f,+5.92651628e-02f,
+1.83916762e-02f,-2.97572669e-02f,-1.06749125e-01f,-3.77781019e-02f,+8.89299065e-02f,
+2.48957649e-01f,+6.78749233e-02f,-7.91082233e-02f,-2.10077073e-02f,-2.02753365e-01f,
-1.39072463e-01f,-8.82598609e-02f,-2.76807040e-01f,+2.21796200e-01f,+3.45689714e-01f,
-2.11636405e-02f,+6.93362206e-02f,-1.08943492e-01f,+3.91342789e-02f,-4.15737405e-02f,
+3.64833511e-02f,+1.61624148e-01f,+1.47212297e-01f,-1.54126450e-01f,-2.52202153e-01f,
+1.49912164e-01f,+2.58000791e-01f,-5.46266604e-03f,+7.71872550e-02f,+8.79587010e-02f,
-6.42211437e-02f,+3.09926659e-01f,+9.55534130e-02f,-2.56443024e-01f,-5.44464029e-02f,
-8.37892517e-02f,+8.78473073e-02f,+8.59826896e-03f,+2.20582977e-01f,-2.44522497e-01f,
+7.57542346e-03f,-1.31188542e-01f,-3.35058272e-01f,+1.26558051e-01f,+3.11801046e-01f,
+1.30061299e-01f,+1.65808782e-01f,-1.44681960e-01f,+1.02913111e-01f,-2.97976077e-01f,
+1.12606354e-01f,+2.06080839e-01f,+3.72979552e-01f,+3.15371156e-01f,-1.52801037e-01f,
+1.87035638e-03f,-4.48629074e-02f,+1.75687030e-01f,-1.14137307e-01f,-1.21678621e-01f,
-2.24148005e-01f,-4.70792837e-02f,+1.53812930e-01f,+2.72896588e-01f,+1.62007771e-02f,
+1.18326701e-01f,-1.23399004e-01f,-7.05760792e-02f,-4.20416258e-02f,+1.25611439e-01f,
-6.37957528e-02f,-2.08158255e-01f,-3.02490771e-01f,+4.38230783e-02f,+1.04251355e-01f,
+5.01217097e-02f,+1.91366166e-01f,+8.48037302e-02f,+2.36044019e-01f,+1.55196980e-01f,
+2.22349092e-01f,+4.66669202e-01f,-3.35909277e-02f,-1.43769428e-01f,-4.67523467e-03f,
-9.18601528e-02f,+5.91653101e-02f,+2.03406706e-01f,+1.67619824e-01f,+1.33973360e-01f,
-7.29138777e-02f,+1.49957791e-01f,+1.06820010e-01f,-6.23716079e-02f,-2.43145227e-01f,
-7.42902160e-02f,+2.42921114e-02f,-1.35728955e-01f,-1.78085923e-01f,+2.06983343e-01f,
-1.32633865e-01f,+3.65921222e-02f,-7.25844726e-02f,-4.47145365e-02f,+5.57536073e-03f,
-1.31303698e-01f,+5.86530678e-02f,+7.56844040e-03f,-1.70860663e-02f,-3.98190878e-02f,
-1.99357301e-01f,+2.34834060e-01f,+3.22048336e-01f,+1.93234146e-01f,-2.11180925e-01f,
+1.97709575e-01f,+5.33820912e-02f,+5.82519509e-02f,+1.18184695e-02f,+1.39131427e-01f,
-3.65877211e-01f,+3.16296518e-01f,+3.23883668e-02f,-2.53093511e-01f,-7.80192995e-03f,
+1.37300089e-01f,-8.14094096e-02f,-8.22082534e-02f,+9.81048495e-02f,+2.84213156e-01f,
+2.73827702e-01f,+1.61335282e-02f,+3.97271097e-01f,-1.26549453e-01f,-8.31032693e-02f,
+7.12573677e-02f,-1.21813528e-01f,-4.13199365e-01f,+1.42007083e-01f,-1.40601128e-01f,
-1.39428779e-01f,+8.79758671e-02f,+5.19786440e-02f,-1.30852386e-01f,+9.10344943e-02f,
+1.96028247e-01f,-2.43411496e-01f,-2.17975765e-01f,+9.43159461e-02f,-9.14568678e-02f,
-1.69717938e-01f,-3.02280664e-01f,+1.88997418e-01f,+1.06643565e-01f,-1.21019371e-01f,
+2.46727280e-02f,-1.41895395e-02f,-8.23166594e-02f,+3.31597507e-01f,+9.03266221e-02f,
+1.65864825e-01f,+1.84454307e-01f,-2.33815953e-01f,-2.08753616e-01f,-4.67286743e-02f,
-1.20859236e-01f,-4.32775449e-03f,-7.05578253e-02f,-3.90447974e-01f,+2.56158728e-02f,
+8.89813229e-02f,-4.51223403e-02f,-2.47724921e-01f,-1.52412847e-01f,+1.28001496e-01f,
+2.42950767e-01f,+2.87417024e-02f,+4.82907146e-02f,+2.39369702e-02f,+1.54476434e-01f,
-4.34276372e-01f,+1.04791529e-01f,-4.37760577e-02f,+1.33994352e-02f,+8.62854421e-02f,
-4.89724427e-02f,-5.30421967e-03f,+2.88160294e-01f,+1.31806042e-02f,-1.75836943e-02f,
+6.85391501e-02f,+9.13642719e-02f,+7.29296133e-02f,+1.28077239e-01f,+2.62151241e-01f,
-7.52786873e-03f,+2.73790628e-01f,-3.50992203e-01f,-2.33257830e-01f,+1.94790095e-01f,
-3.20934355e-01f,+3.49644013e-02f,+1.10238001e-01f,-3.29958797e-02f,-3.08088750e-01f,
+4.17324960e-01f,-2.57506460e-01f,+4.04585712e-02f,-2.55087346e-01f,+5.69244996e-02f,
+8.41282681e-03f,+1.87486291e-01f,+1.13965452e-01f,-1.43917963e-01f,-1.09842092e-01f,
+1.84031203e-01f,-6.02850206e-02f,-2.15150099e-02f,+8.05960000e-02f,-3.64482068e-02f,
-6.94319233e-03f,-1.53125480e-01f,-2.93576177e-02f,-2.12357014e-01f,+2.87896454e-01f,
-1.93374008e-01f,-8.28760862e-02f,-5.97982779e-02f,+2.91306041e-02f,+4.30787265e-01f,
+2.20829085e-01f,+9.79315713e-02f,-2.96080746e-02f,-1.22169174e-01f,+1.94717988e-01f,
+9.75273401e-02f,+5.83369844e-03f,-2.96072867e-02f,-4.90271002e-02f,+3.36992578e-03f,
-1.46015693e-04f,-1.86461896e-01f,-3.09458345e-01f,+2.60035425e-01f,-2.57966876e-01f,
-1.96404546e-01f,+1.95687979e-01f,+3.01779926e-01f,-2.32225120e-01f,-3.93945463e-02f,
+2.08276659e-01f,+2.29721457e-01f,+1.88465670e-01f,-2.33067572e-03f,-8.66250023e-02f,
-2.20265970e-01f,-2.07180202e-01f,+1.35645911e-01f,-1.26142532e-01f,+2.06088513e-01f,
+3.00141245e-01f,+6.15980886e-02f,+8.84505659e-02f,+6.74600452e-02f,+1.31914079e-01f,
+8.84501114e-02f,+1.80531934e-01f,+1.26042068e-01f,-1.58808336e-01f,-5.44672944e-02f,
+7.21174702e-02f,-3.23424757e-01f,-1.59091428e-01f,-2.80048847e-01f,-7.75412545e-02f,
-1.33057952e-01f,+2.92912703e-02f,-9.95838493e-02f,-2.61887401e-01f,-2.34100699e-01f,
-2.93222010e-01f,-1.67812735e-01f,-2.49265671e-01f,-2.38630384e-01f,+1.72191873e-01f,
+1.51010409e-01f,+1.60122201e-01f,+2.92658031e-01f,+7.90872425e-02f,-7.37432018e-02f,
+1.33380890e-01f,-1.22253329e-01f,+1.12601914e-01f,-2.27598131e-01f,-1.16896302e-01f,
-2.29748756e-01f,+3.61308269e-02f,-6.04617633e-02f,-8.50940868e-02f,-2.54020423e-01f,
+7.81986192e-02f,-2.57704630e-02f,-6.39567226e-02f,-1.76145181e-01f,+6.37127832e-02f,
+2.84620881e-01f,-1.14241004e-01f,-9.17341262e-02f,+1.46127120e-01f,-2.33958870e-01f,
+1.28219932e-01f,+3.62694226e-02f,+8.80778432e-02f,+7.38742501e-02f,+2.32104614e-01f,
-1.18601844e-01f,-5.63027970e-02f,-2.82330811e-01f,+4.14624959e-02f,-9.64744240e-02f,
+2.69308630e-02f,+4.42178212e-02f,+2.71537602e-01f,-1.54141024e-01f,+7.69745708e-02f,
-2.63236880e-01f,+6.87047020e-02f,+1.87529683e-01f,-1.30026937e-02f,+1.32979587e-01f,
-6.75289631e-02f,+1.75766036e-01f,+2.01697454e-01f,+1.56742781e-01f,+2.73240775e-01f,
+1.28759563e-01f,-2.19935309e-02f,-1.46549702e-01f,-2.07400665e-01f,-1.15242474e-01f,
-4.71225441e-01f,+3.19271237e-01f,-1.37992173e-01f,+4.61338758e-02f,+4.75046970e-03f,
-3.88427004e-02f,-6.76732510e-02f,-1.88078120e-01f,+3.31206083e-01f,+1.30867571e-01f,
-7.37403035e-02f,+2.19205245e-01f,+7.23305866e-02f,+1.15591258e-01f,+5.72965562e-01f,
-7.24969059e-02f,-1.59766451e-01f,+8.36633295e-02f,-4.88956161e-02f,+2.04693943e-01f,
+1.08506396e-01f,-1.24521688e-01f,+4.03331578e-01f,-6.48469329e-02f,-3.00041139e-01f,
+5.05155139e-02f,+3.97423625e-01f,+2.39516720e-02f,-3.97436954e-02f,-1.04155228e-01f,
+2.02826396e-01f,+5.01650311e-02f,-4.17235970e-01f,-2.89375603e-01f,-7.46953441e-03f,
-2.53978252e-01f,-3.40781271e-01f,-3.59918088e-01f,+1.85521767e-01f,+1.58033937e-01f,
-1.74127042e-01f,-2.30930030e-01f,-2.01937675e-01f,+8.88592973e-02f,+1.38409600e-01f,
+2.05925435e-01f,-4.82710674e-02f,+1.81917977e-02f,+1.96162164e-01f,-9.07296985e-02f,
+1.13670327e-01f,+1.23846114e-01f,-6.25775522e-03f,-6.44463301e-02f,+3.85792851e-02f,
+3.13467741e-01f,-2.26730242e-01f,-1.05727568e-01f,-1.00692818e-02f,-2.27728069e-01f,
+1.06905483e-01f,+2.11767614e-01f,-1.19912267e-01f,+2.65293688e-01f,+2.63553619e-01f,
-9.42524523e-02f,+3.71399611e-01f,+5.54091893e-02f,+2.72358984e-01f,-8.74710903e-02f,
+1.72522411e-01f,+2.67760288e-02f,-1.63161382e-01f,+9.56391096e-02f,-2.42141150e-02f,
-3.09461560e-02f,+1.40155464e-01f,+5.06483614e-01f,+2.50366718e-01f,+9.72625427e-03f,
-2.63625026e-01f,+1.18621215e-01f,+6.37975987e-03f,+1.29535407e-01f,-1.94145277e-01f,
-1.80739641e-01f,-3.45989615e-01f,+4.23386246e-02f,+1.73174351e-01f,+2.01926768e-01f,
+1.31029367e-01f,-1.64869815e-01f,-1.30025536e-01f,+2.27935389e-01f,+2.52368778e-01f,
-2.31388628e-01f,+4.89028655e-02f,-1.34523585e-02f,+3.55300605e-02f,-2.05795273e-01f,
+3.00510257e-01f,+1.61848649e-01f,-7.53757805e-02f,+1.47922849e-03f,-8.48630220e-02f,
-3.93203497e-02f,-2.11465042e-02f,+2.47816116e-01f,-2.09384616e-02f,-1.16622947e-01f,
+3.40957373e-01f,+1.34448543e-01f,+1.97178125e-01f,-4.29707505e-02f,-1.87369764e-01f,
+1.02343643e-02f,+6.93037137e-02f,-1.71306312e-01f,+6.74709529e-02f,+1.55496467e-02f,
+2.51981765e-01f,+1.15008228e-01f,-2.12347940e-01f,+3.92421037e-02f,-1.39558792e-01f,
+6.81328401e-02f,+1.43441215e-01f,+3.85331102e-02f,-2.92611331e-01f,+4.36513983e-02f,
+9.43024457e-02f,+4.09768037e-02f,-2.78594438e-02f,+2.40684628e-01f,-1.31915109e-02f,
+2.86230203e-02f,-2.25060116e-02f,-1.47583634e-01f,+3.96678209e-01f,+4.15649787e-02f,
-2.05015033e-01f,+1.95720777e-01f,+9.69807431e-02f,+3.23992819e-01f,-5.69950566e-02f,
-6.74193725e-02f,-6.90401196e-02f,+2.01070249e-01f,-2.41516039e-01f,-2.59514228e-02f,
-1.45144999e-01f,+1.06197171e-01f,+4.42214787e-01f,-3.92769836e-02f,+1.59677103e-01f,
+3.41136754e-03f,-2.27708161e-01f,+1.26938552e-01f,+5.70758581e-02f,+1.25928983e-01f,
-3.94119555e-03f,-1.43489584e-01f,+1.91733778e-01f,+9.58853588e-02f,+2.21023574e-01f,
-4.16069478e-02f,+2.27318436e-01f,-1.35672137e-01f,-2.48877890e-02f,-1.42468423e-01f,
-6.49186224e-02f,+2.02962354e-01f,+3.43710423e-01f,+3.43623012e-02f,+1.75300002e-01f,
+1.24742817e-02f,-2.78450817e-01f,-3.49903032e-02f,+3.96250859e-02f,+1.89226583e-01f,
-3.64306092e-01f,+4.78362814e-02f,-1.71377629e-01f,-1.09302133e-01f,+2.62035578e-01f,
+1.66851953e-02f,-1.95217371e-01f,-9.46730375e-02f,-1.79125313e-02f,+3.66248578e-01f,
+6.80897012e-02f,+2.12998331e-01f,-2.65346728e-02f,+3.83217484e-01f,+3.05320472e-01f,
+1.33057445e-01f,+9.16619301e-02f,+5.19437902e-02f,+1.03656165e-01f,+4.64833565e-02f,
+2.09162608e-01f,-3.04896683e-01f,+1.51293382e-01f,-1.80252597e-01f,+2.76220441e-01f,
-2.37411872e-01f,+3.57723057e-01f,+3.32033098e-01f,+1.22968428e-01f,-1.77073568e-01f,
-5.30146481e-03f,-1.58885345e-01f,-9.28622559e-02f,-1.17208306e-02f,-2.11879015e-01f,
+1.47419766e-01f,+3.44939679e-01f,-1.94859914e-02f,+9.19145495e-02f,+7.82695785e-02f,
+3.58366758e-01f,-3.32204103e-02f,+3.30362469e-02f,-3.07933778e-01f,+1.20312765e-01f,
-7.71076381e-02f,+3.53542864e-01f,-8.53639394e-02f,-1.82509363e-01f,+4.70956936e-02f,
-1.03250079e-01f,-1.01550378e-01f,+4.36256193e-02f,+4.51092161e-02f,+5.13646416e-02f,
+3.27109732e-02f,-7.76488930e-02f,+8.10826123e-02f,+6.39546439e-02f,+3.11606437e-01f,
-2.16161143e-02f,+3.48723009e-02f,+5.08620478e-02f,-2.80913204e-01f,+1.24608696e-01f,
-1.36800140e-01f,+3.55515443e-02f,-4.36106510e-02f,-2.25198627e-01f,+1.17364474e-01f,
+4.29875776e-02f,+8.65842178e-02f,+1.38161004e-01f,-1.40916156e-02f,+1.95883587e-01f,
+1.71596453e-01f,-1.27811292e-02f,-8.25683996e-02f,+7.24748448e-02f,-2.99955476e-02f,
-4.18031216e-02f,+1.03389464e-01f,+1.01301454e-01f,+1.60641685e-01f,+4.27548349e-01f,
-6.11307770e-02f,+2.34357268e-02f,+4.31632608e-01f,+2.34721392e-01f,+1.55359998e-01f,
+2.21783179e-03f,-5.21164313e-02f,-2.11377889e-01f,-3.29891652e-01f,-2.64120430e-01f,
+4.53648791e-02f,+2.13735640e-01f,+1.13130607e-01f,-3.62391621e-01f,+4.39543128e-01f,
+1.27926245e-01f,-7.46497214e-02f,+1.13762446e-01f,+3.09049487e-01f,-2.55306929e-01f,
-1.74509704e-01f,-2.39977941e-01f,+2.20568106e-01f,-1.47796273e-01f,+5.99567685e-03f,
+4.63719964e-02f,+6.80219457e-02f,+1.33601472e-01f,-1.38834924e-01f,+3.70080113e-01f,
-6.25575110e-02f,+1.33097336e-01f,+8.77387673e-02f,+6.99604750e-02f,-1.04341239e-01f,
+9.54371020e-02f,+5.11697292e-01f,+1.58224180e-01f,+2.82308847e-01f,+9.06843618e-02f,
+4.24906582e-01f,+1.97532192e-01f,+5.14964402e-01f,+1.78865403e-01f,+1.91520452e-01f,
-1.87134132e-01f,-1.67408973e-01f,+5.12108169e-02f,-1.46938413e-01f,-6.28236011e-02f,
+1.79368123e-01f,-1.87210768e-01f,-1.97338089e-01f,-2.99313247e-01f,-1.05296262e-01f,
-1.86102450e-01f,+5.60117885e-02f,+2.07064182e-01f,-8.15490782e-02f,-3.30487378e-02f,
-6.15057833e-02f,-7.79377744e-02f,+1.77249163e-01f,-2.00346038e-01f,+3.65983881e-02f,
+2.91644573e-01f,+8.31589475e-02f,-3.34325522e-01f,-4.51626722e-03f,+1.58399120e-01f,
-7.68695772e-02f,+2.64603198e-02f,-2.14975610e-01f,-2.10602686e-01f,+1.04475208e-02f,
-1.16450816e-01f,-8.67447853e-02f,-1.67811941e-02f,-2.00793728e-01f,+9.31710526e-02f,
+1.92164853e-01f,+3.22625972e-02f,-8.31694901e-02f,-2.05407031e-02f,+1.79132558e-02f,
+7.00875465e-03f,+2.15791717e-01f,-4.81619388e-02f,-5.63633256e-02f,-1.48227304e-01f,
+1.95614211e-02f,+2.51862496e-01f,+1.92252938e-02f,+7.18542859e-02f,+1.98860452e-01f,
+2.79321462e-01f,+2.98326701e-01f,+2.41754249e-01f,+1.94830284e-01f,+3.56205483e-03f,
+4.70332578e-02f,+2.47003306e-02f,+1.20800927e-01f,+9.14385263e-03f,+7.01129660e-02f,
-3.45260412e-01f,+2.59012759e-01f,+8.67780447e-02f,-1.69997618e-01f,+8.66619870e-02f,
-4.84096438e-01f,-1.34422436e-01f,+1.63491163e-02f,+1.01412900e-01f,-7.91721269e-02f,
+1.06366031e-01f,-2.22229928e-01f,+1.35140941e-01f,-9.63688642e-02f,+5.07280342e-02f,
+2.90872186e-01f,-2.02824220e-01f,+7.55575001e-02f,+2.21532136e-01f,-4.51120101e-02f,
-6.57670498e-01f,-2.51504153e-01f,+1.04474165e-01f,+3.79178226e-02f,-6.14662655e-02f,
-3.31785008e-02f,-6.44168854e-02f,-1.73498049e-01f,+8.98536518e-02f,+1.21761002e-01f,
+4.71671484e-02f,-1.69712454e-01f,+2.04678271e-02f,-4.34380807e-02f,-1.37813479e-01f,
-9.00562033e-02f,-2.07077742e-01f,-2.90367343e-02f,+1.84178725e-01f,+6.50376156e-02f,
-1.47740275e-01f,-3.87633927e-02f,-1.15577132e-01f,-2.75361985e-01f,-1.90672532e-01f,
-1.13673070e-02f,+8.25250968e-02f,-5.58354817e-02f,-2.40590304e-01f,-5.42528592e-02f,
-1.56577483e-01f,+2.90276837e-02f,-1.22643374e-01f,-1.12582929e-01f,+9.69441235e-02f,
-2.77053088e-01f,+1.77237421e-01f,-7.32859224e-02f,+1.47665694e-01f,+1.26048680e-02f,
+3.05410679e-02f,-1.54771760e-01f,-5.59759736e-02f,-7.65184015e-02f,+1.79416277e-02f,
+8.87580737e-02f,-2.98700422e-01f,-1.20050251e-01f,-1.71696305e-01f,+1.59495741e-01f,
-3.42192948e-01f,-3.40012386e-02f,-1.57393720e-02f,+1.05997898e-01f,-5.97735457e-02f,
-1.95629984e-01f,+4.20745015e-02f,+4.93704379e-02f,+1.86480000e-03f,-1.27408400e-01f,
-8.32379162e-02f,+2.70102978e-01f,+2.29815289e-01f,+1.42630428e-01f,-1.25507370e-01f,
-2.06655636e-01f,+4.51742858e-02f,-3.23645175e-02f,-2.68652618e-01f,-9.33030844e-02f,
+1.69052884e-01f,+7.80714974e-02f,+8.03947821e-02f,+3.23499851e-02f,+3.27126458e-02f,
+7.34228119e-02f,+1.27923995e-01f,+2.31375784e-01f,-1.67792216e-01f,-7.72114322e-02f,
-5.26891723e-02f,+1.14046428e-02f,-5.12646548e-02f,-3.93830836e-02f,+1.30629361e-01f,
-1.24188535e-01f,-6.21275231e-03f,+1.21889636e-01f,-1.60457760e-01f,-1.33791596e-01f,
+6.60731718e-02f,+1.73303053e-01f,-7.20971078e-02f,+1.47877425e-01f,-2.09682211e-01f,
-9.68285128e-02f,-6.21775277e-02f,+2.57182211e-01f,-2.07736880e-01f,-5.79757914e-02f,
+7.95214623e-02f,-6.84654117e-02f,+1.30003408e-01f,+9.19219330e-02f,+1.25747681e-01f,
-2.62479991e-01f,-3.12404722e-01f,-5.85684665e-02f,-1.72434509e-01f,-1.55042946e-01f,
-1.65804066e-02f,+6.14942163e-02f,+2.40429446e-01f,+2.53129154e-01f,+1.46531060e-01f,
-2.02766865e-01f,+1.28001526e-01f,+2.44192228e-01f,-9.88524631e-02f,+7.37601966e-02f,
+1.41581818e-01f,+1.23988293e-01f,-9.67786908e-02f,-1.14955135e-01f,-3.97282988e-02f,
-7.26591796e-02f,+1.57426164e-01f,+1.42881691e-01f,-9.40554887e-02f,-2.85915464e-01f,
+7.34881237e-02f,+2.30045944e-01f,-1.95538819e-01f,+2.83879846e-01f,+5.55918775e-02f,
-9.14769322e-02f,+2.95278758e-01f,+8.96751285e-02f,-3.12751755e-02f,-2.67257169e-03f,
+2.25016519e-01f,-5.32295136e-03f,+2.47512817e-01f,+1.97305977e-01f,+1.94359630e-01f,
-3.36261354e-02f,+1.80673629e-01f,-3.40604901e-01f,-4.41565365e-02f,-7.56269023e-02f,
+3.18006366e-01f,-2.20169090e-02f,+2.46760145e-01f,+1.17451712e-01f,-7.59595772e-03f,
-1.26243904e-01f,+1.18208043e-01f,+1.72331393e-01f,-3.00785273e-01f,+3.32850486e-01f,
-1.82062939e-01f,+2.35971175e-02f,-6.81938231e-02f,-7.07129762e-02f,-1.54192671e-02f,
-8.59976187e-02f,-2.35867843e-01f,+1.22411735e-02f,-4.12614346e-02f,+3.06563467e-01f,
+2.85063624e-01f,+1.41620412e-01f,-7.62340501e-02f,-2.72473454e-01f,-5.66675849e-02f,
+4.57067713e-02f,-3.60690095e-02f,-2.83446256e-02f,-1.72637358e-01f,+2.09588587e-01f,
-6.74512982e-02f,-4.20691252e-01f,-7.16427937e-02f,-4.19851214e-01f,-3.86273977e-03f,
-7.33664185e-02f,-2.06121564e-01f,-1.71233322e-02f,+6.10552505e-02f,-1.72510579e-01f,
+7.46820420e-02f,+2.27069274e-01f,+8.72192532e-02f,-2.13746995e-01f,-8.44758451e-02f,
+7.92457461e-02f,+5.90793453e-02f,-2.94842422e-02f,+9.31533650e-02f,+4.03881297e-02f,
+1.91629708e-01f,-1.70905888e-01f,+2.67164558e-01f,+2.98368752e-01f,+1.40420854e-01f,
+4.60958242e-01f,-6.16595037e-02f,-1.90048397e-01f,-4.04776394e-01f,-2.01092083e-02f,
+6.72086999e-02f,-2.56789595e-01f,+5.50938919e-02f,+6.68496713e-02f,-1.13147423e-01f,
-6.13828376e-02f,-4.84602973e-02f,-1.18785329e-01f,-1.29816860e-01f,-9.69304740e-02f,
-5.55137247e-02f,+1.22741621e-03f,-4.20575775e-02f,-1.04069844e-01f,+1.53833017e-01f,
-3.64054859e-01f,+1.55883958e-03f,+6.55294955e-02f,+8.08163136e-02f,+6.92856908e-02f,
-6.44270405e-02f,-1.89502221e-02f,-5.80989905e-02f,+1.69951275e-01f,-3.40251736e-02f,
-2.53832847e-01f,+2.70061284e-01f,-1.11457475e-01f,+9.60567966e-03f,+4.15885337e-02f,
+1.19652048e-01f,+1.41549200e-01f,-3.36813219e-02f,+7.28484169e-02f,+1.50170028e-01f,
+2.45719165e-01f,+1.83648705e-01f,+1.66832488e-02f,-1.41126260e-01f,-8.30809698e-02f,
-1.54893529e-02f,+2.26367489e-01f,-9.02548730e-02f,-1.58368826e-01f,+1.18774503e-01f,
-2.08715215e-01f,-2.12678835e-01f,+1.05258204e-01f,+9.24094692e-02f,-2.28557512e-01f,
-5.67885935e-02f,-8.67463946e-02f,-1.87176064e-01f,-1.61288828e-01f,-4.87201065e-02f,
+5.18927313e-02f,+1.83051944e-01f,+6.44895211e-02f,-1.96626410e-01f,+1.30252689e-01f,
+2.53066570e-01f,+2.06304304e-02f,+1.53738990e-01f,+2.54008502e-01f,-3.57095420e-01f,
+5.65330386e-02f,-3.55961807e-02f,+5.79959415e-02f,+1.10570371e-01f,+1.23659305e-01f,
-7.39185810e-02f,-2.64381886e-01f,-2.16307774e-01f,-1.48977101e-01f,+1.15938805e-01f,
+3.43447179e-02f,+1.19321093e-01f,-1.60299614e-02f,-3.03114504e-01f,-2.45084628e-01f,
+1.45946890e-01f,-3.93699557e-01f,-1.06664710e-02f,+1.71690434e-01f,+2.08418310e-01f,
+7.33635500e-02f,-3.06658149e-02f,+3.58020775e-02f,+2.74211437e-01f,+9.68211517e-02f,
-1.26173720e-01f,-1.58435956e-01f,-8.48463625e-02f,+5.37707284e-02f,-1.07983477e-01f,
-2.03984320e-01f,-1.42734826e-01f,-4.00455296e-02f,-2.76891112e-01f,-2.69796073e-01f,
+1.58556908e-01f,-4.86180410e-02f,-4.52618040e-02f,+6.86790571e-02f,-2.16146126e-01f,
+7.30598494e-02f,-9.94548127e-02f,+1.89123079e-02f,+8.54626819e-02f,+1.02303572e-01f,
-5.94471805e-02f,-4.47666906e-02f,-4.34102565e-02f,+8.79773721e-02f,+1.70102939e-01f,
+2.48892158e-01f,-5.32804281e-02f,-2.89452851e-01f,+2.57696450e-01f,-2.42891565e-01f,
-3.41589339e-02f,+1.14417441e-01f,-1.33676067e-01f,+5.09597845e-02f,-2.07173601e-01f,
-2.00074360e-01f,-8.93124118e-02f,-5.10712340e-02f,-3.67300749e-01f,+1.73110336e-01f,
-1.23685345e-01f,-4.89281453e-02f,+1.90129355e-02f,-1.22702099e-01f,-1.51140928e-01f,
-9.33004245e-02f,+7.48121887e-02f,-1.82650015e-01f,+9.39416066e-02f,-4.26443778e-02f,
-3.39277796e-02f,-2.10291326e-01f,+7.70074036e-03f,+3.66710313e-02f,-1.81562230e-01f,
+1.45100728e-01f,+3.81791475e-03f,+4.25532646e-02f,+9.75069925e-02f,+3.00535075e-02f,
+5.14305681e-02f,+1.68820962e-01f,-9.67159867e-02f,-4.30188626e-02f,-5.25744744e-02f,
-1.63328350e-01f,-2.96458393e-01f,+1.12718038e-01f,+1.22847324e-02f,-2.03268543e-01f,
-7.04353377e-02f,-5.62384017e-02f,+6.36790544e-02f,-2.05542982e-01f,+1.22710727e-01f,
+1.64350182e-01f,+1.47282723e-02f,-4.30332646e-02f,-3.44540179e-02f,+1.24319427e-01f,
-2.49077097e-01f,-1.50568962e-01f,-9.36722159e-02f,-4.75104630e-01f,+2.22653732e-01f,
+1.78359702e-01f,+4.30237167e-02f,-7.76277855e-02f,-1.85552955e-01f,+2.20758263e-02f,
+1.44856706e-01f,+2.78126925e-01f,-1.24846429e-01f,+1.43431231e-01f,+2.60057040e-02f,
-2.59325385e-01f,-1.25831768e-01f,+4.20393944e-02f,-7.25566074e-02f,-1.28798140e-02f,
+2.25122765e-01f,-3.38511169e-01f,-1.03123009e-01f,+2.16811374e-01f,-6.18651742e-03f,
-4.30320889e-01f,-2.74442732e-01f,+9.72417369e-03f,+2.01753005e-01f,-3.12302351e-01f,
-6.88408036e-03f,+1.54712185e-01f,+6.72581419e-02f,+7.05928206e-02f,-4.33063461e-03f,
+2.08369419e-01f,-1.74513519e-01f,+6.82079643e-02f,-3.24512050e-02f,-2.43345737e-01f,
-1.07852742e-01f,-9.53705683e-02f,-2.78807729e-01f,-1.02763943e-01f,-3.65451239e-02f,
+4.66924340e-01f,-2.16654360e-01f,-1.58211768e-01f,+8.07945356e-02f,-1.35228291e-01f,
-9.82823670e-02f,+1.76786836e-02f,-9.14693698e-02f,+5.60447425e-02f,+1.74733892e-01f,
-4.42737453e-02f,+1.13955447e-02f,-1.09647535e-01f,-4.01701033e-02f,-2.32403483e-02f,
-1.36339307e-01f,-6.81877956e-02f,-1.62518397e-01f,-4.38828349e-01f,+5.45826182e-03f,
+1.96472138e-01f,-3.27585518e-01f,-7.82645773e-03f,+2.47496292e-02f,-2.75810175e-02f,
+6.21834360e-02f,+1.27224118e-01f,-3.66097391e-01f,-3.43246460e-01f,-9.63381678e-02f,
+2.67771989e-01f,-1.09707147e-01f,+9.30176079e-02f,+9.47010666e-02f,+2.20262408e-01f,
-1.15292989e-01f,-4.28757910e-03f,-2.75431335e-01f,-1.36506975e-01f,-3.45998436e-01f,
+2.86606234e-02f,+4.65671881e-04f,-1.78558946e-01f,-2.12955773e-01f,+1.22375108e-01f,
-3.68261933e-01f,-2.05045134e-01f,-1.55243009e-01f,+9.07669142e-02f,-1.37843490e-01f,
+2.18135536e-01f,-2.73600340e-01f,-9.11261812e-02f,+6.40530065e-02f,-2.18714118e-01f,
-1.12842247e-02f,-3.83082390e-01f,-9.05848071e-02f,-4.21526395e-02f,+9.01408643e-02f,
+5.70114404e-02f,-5.00258349e-04f,+3.59929055e-02f,+1.27232388e-01f,+4.43998426e-02f,
-1.09357975e-01f,+5.51216118e-02f,-5.42402491e-02f,+1.31066069e-02f,-7.20901787e-02f,
+1.27157956e-01f,-8.39645043e-02f,-2.54361164e-02f,-1.29186764e-01f,+1.29999638e-01f,
+3.22912246e-01f,+1.12194739e-01f,-1.02337323e-01f,-3.13856989e-01f,-4.90662083e-02f,
-3.31441499e-02f,-3.63041103e-01f,-8.83807763e-02f,+1.80767179e-01f,-3.22804265e-02f,
-1.26773357e-01f,-1.42680377e-01f,-4.10625935e-02f,+2.28862435e-01f,-1.59376234e-01f,
+1.54156446e-01f,-1.64443254e-02f,+4.29987162e-03f,+2.62637082e-02f,-3.82873863e-01f,
+2.02045485e-01f,+3.72287273e-01f,-1.90891415e-01f,-1.44563988e-01f,+1.25791341e-01f,
+2.69753098e-01f,-1.83156808e-03f,-1.02054402e-01f,-8.07958767e-02f,+5.17430417e-02f,
+1.21277412e-02f,+4.71461676e-02f,+1.69409215e-01f,-2.82563597e-01f,-2.97124423e-02f,
-4.07497823e-01f,+2.24479362e-01f,+1.56836376e-01f,-1.99106157e-01f,-1.34835914e-01f,
+1.95143253e-01f,-1.01058781e-01f,+4.63045435e-03f,+3.44187692e-02f,+3.94644700e-02f,
+4.62462902e-02f,-5.55875860e-02f,+9.15557891e-03f,+3.40218604e-01f,+4.78777021e-01f,
+1.46553159e-01f,-1.59247488e-01f,-2.49247447e-01f,-3.83753031e-01f,-3.84685583e-02f,
-2.32435077e-01f,+7.29445517e-02f,-1.70179531e-01f,+2.64626354e-01f,+6.23000562e-02f,
-7.55361021e-02f,+3.03033769e-01f,+2.29124129e-01f,+6.17897026e-02f,+1.29210159e-01f,
-1.72917023e-01f,+2.89444089e-01f,-2.82918774e-02f,+3.66019696e-01f,+1.68512940e-01f,
+2.18541175e-01f,+2.39103749e-01f,-1.65230613e-02f,-1.14688881e-01f,+1.21809363e-01f,
-1.07162029e-01f,-1.36250362e-01f,+1.97406203e-01f,-6.17608279e-02f,-1.64849401e-01f,
+1.17440298e-01f,+5.67168109e-02f,-3.24590802e-02f,+2.66349882e-01f,+1.48987263e-01f,
-8.62935483e-02f,+1.52098477e-01f,+2.42121756e-01f,-1.87129706e-01f,+2.33434930e-01f,
+2.22792655e-01f,+1.86773613e-02f,+3.10925126e-01f,-4.22865115e-02f,+2.28625052e-02f,
-2.07170323e-01f,-2.44690597e-01f,-3.10113043e-01f,-7.60397539e-02f,-3.15797806e-01f,
+1.73168704e-02f,+3.07257753e-02f,+5.10449037e-02f,-2.23224461e-01f,+2.62014903e-02f,
+5.13646677e-02f,+2.34418005e-01f,+1.85341433e-01f,-4.85795066e-02f,+1.43227220e-01f,
-3.43511343e-01f,-1.09435290e-01f,-1.53480724e-01f,+1.98279604e-01f,-4.00215983e-02f,
-1.40195325e-01f,+2.85059456e-02f,+7.92630017e-02f,+1.36211142e-01f,-6.87823668e-02f,
-1.44239098e-01f,-2.02682599e-01f,-7.49667883e-02f,-1.04343228e-01f,+1.24937735e-01f,
+1.41336828e-01f,-1.60873726e-01f,-9.28355455e-02f,+5.41381091e-02f,+1.68623149e-01f,
-3.45915742e-02f,-1.67406112e-01f,+1.95188627e-01f,+1.11430049e-01f,-3.79266180e-02f,
+6.14921749e-02f,+1.60734374e-02f,-8.25176314e-02f,+2.38863364e-01f,-3.00949395e-01f,
-2.43397698e-01f,-1.15469821e-01f,+1.60754323e-01f,-8.25369079e-03f,+1.35893561e-02f,
-2.77197987e-01f,-2.79057976e-02f,+3.79488687e-03f,-2.46261224e-01f,+3.48993056e-02f,
-1.52079374e-01f,+3.41921955e-01f,+2.82993503e-02f,+1.23192236e-01f,+6.44425601e-02f,
-2.83900499e-01f,+4.19009961e-02f,-5.18908203e-01f,+1.50513083e-01f,+1.97301045e-01f,
-1.07928887e-01f,+2.99228638e-01f,+1.95643947e-01f,-7.09813833e-02f,+6.63429648e-02f,
-1.91839673e-02f,-8.00810456e-02f,-6.63727075e-02f,-8.45500976e-02f,-9.64548215e-02f,
+3.92095856e-02f,+2.06372038e-01f,-3.32743913e-01f,-1.05248742e-01f,+4.33803089e-02f,
+1.44237936e-01f,+8.99006575e-02f,-7.46383052e-03f,+1.54326931e-01f,-1.48758754e-01f,
+4.48124893e-02f,+1.97821036e-01f,-1.64358422e-01f,-6.75267652e-02f,-6.85631558e-02f,
+5.43829016e-02f,-1.64581716e-01f,+4.15008627e-02f,-1.59822255e-01f,-8.59295502e-02f,
-6.30296841e-02f,-8.73834416e-02f,-8.75670984e-02f,+8.53525251e-02f,-4.97969873e-02f,
+1.50404438e-01f,-3.63548547e-01f,+2.48446420e-01f,+3.62884905e-03f,+2.81693954e-02f,
-1.22435667e-01f,+5.85806109e-02f,+8.86500478e-02f,+1.59727141e-01f,-1.30744264e-01f,
+3.68097782e-01f,-2.78428733e-01f,+4.25252229e-01f,+8.86238366e-02f,+1.48749352e-01f,
+3.44087154e-01f,-3.23040903e-01f,+3.91821675e-02f,+6.85234070e-02f,-8.81116744e-03f,
-6.76725283e-02f,+3.79797406e-02f,-3.05748899e-02f,-1.38636813e-01f,+7.28352889e-02f,
-3.64514738e-02f,-5.89440688e-02f,-2.58740902e-01f,-1.95897162e-01f,+7.34868273e-02f,
+7.69358221e-03f,+2.82280058e-01f,-5.22330068e-02f,+9.40749347e-02f,+3.65918905e-01f,
+3.41458738e-01f,+2.18289241e-01f,-2.71067232e-01f,-1.00844882e-01f,+2.60389030e-01f,
-5.74655607e-02f,+9.40107182e-02f,+1.02401890e-01f,+2.74887294e-01f,+3.18586789e-02f,
+2.97927082e-01f,+3.12680662e-01f,+2.21975031e-03f,+2.48186439e-01f,-4.86911014e-02f,
-1.44026041e-01f,+1.61554560e-01f,-1.94010846e-02f,-1.20826401e-02f,+1.02503866e-01f,
+1.36356562e-01f,+3.79211009e-01f,-1.17847852e-01f,+1.32265508e-01f,+3.98202449e-01f,
+9.87795219e-02f,+2.26744160e-01f,-1.83868945e-01f,-3.11160311e-02f,+8.82424265e-02f,
-5.25814176e-01f,+8.27278048e-02f,-8.39546099e-02f,+1.83563918e-01f,+1.81118503e-01f,
-1.82312541e-02f,+1.76489308e-01f,-8.16085339e-02f,-1.10708289e-01f,-1.19163319e-01f,
+2.29787558e-01f,+1.45267636e-01f,-1.63677752e-01f,-1.41336704e-02f,-1.83407348e-02f,
+1.44931316e-01f,-1.38264373e-01f,+1.89084318e-02f,+7.62875229e-02f,+8.21768269e-02f,
+2.03640848e-01f,+2.44329140e-01f,-2.13005856e-01f,-2.17041686e-01f,+3.02564353e-01f,
+3.18700671e-01f,+3.07839334e-01f,-3.04961540e-02f,+1.14988215e-01f,+2.62417436e-01f,
+1.06127948e-01f,-7.39031807e-02f,+2.94618875e-01f,-2.45406508e-01f,-4.81627509e-02f,
-1.40619442e-01f,+2.40166441e-01f,+8.82350281e-02f,-8.74115005e-02f,+7.86292776e-02f,
+1.48281887e-01f,+9.37872231e-02f,-5.00205234e-02f,-7.01408833e-02f,-1.67567402e-01f,
+1.77173559e-02f,+2.30191708e-01f,-1.89198293e-02f,-9.41106025e-03f,-3.12959045e-01f,
-6.04784712e-02f,-2.30994627e-01f,-7.24392980e-02f,+7.67790824e-02f,-5.92048466e-02f,
+2.93669730e-01f,+2.06676666e-02f,+1.98694561e-02f,+3.58555228e-01f,-1.22663341e-01f,
+2.26536952e-02f,+1.49451748e-01f,+1.98987931e-01f,+1.45604551e-01f,-1.86370999e-01f,
-1.73465237e-01f,-2.41244316e-01f,+4.95875664e-02f,+1.85812682e-01f,+4.08754759e-02f,
+2.90066808e-01f,+1.15547173e-01f,+2.04611439e-02f,-5.61294146e-02f,+1.59062237e-01f,
-2.43316770e-01f,+2.61389405e-01f,-1.26489222e-01f,-3.07909936e-01f,-8.30695778e-02f,
-1.29441053e-01f,-6.07842319e-02f,+2.63257027e-01f,+1.20387033e-01f,-2.83822477e-01f,
+1.04050949e-01f,-3.49451788e-02f,-1.49830133e-01f,-1.48535356e-01f,-2.05846757e-01f,
+1.26656547e-01f,+1.72488578e-02f,+2.44608819e-01f,+4.56252880e-02f,+2.70731688e-01f,
-2.63563335e-01f,+4.55024764e-02f,+2.86883354e-01f,-1.65655106e-01f,+3.38791385e-02f,
+1.77007113e-02f,-9.43972357e-03f,+4.24187966e-02f,-9.53049660e-02f,-3.72529775e-02f,
+1.19215295e-01f,+2.87906587e-01f,+1.21725917e-01f,+2.05805302e-01f,+1.60380919e-02f,
+1.25854373e-01f,+9.44907442e-02f,-7.77152777e-02f,+5.76550178e-02f,-9.47040021e-02f,
+7.43286312e-02f,-4.45603170e-02f,+1.55222297e-01f,-7.71819726e-02f,-1.50376752e-01f,
+1.19334988e-01f,+1.34433985e-01f,-7.93236941e-02f,+5.73065393e-02f,+3.15745294e-01f,
+3.59160490e-02f,+6.98614568e-02f,-1.23725280e-01f,+2.81844102e-02f,+2.14174703e-01f,
+8.87501091e-02f,-1.09024368e-01f,-2.26023242e-01f,+2.21225739e-01f,+8.10271725e-02f,
-2.74452925e-01f,-1.41158044e-01f,+7.51403198e-02f,+1.38183787e-01f,-9.96252522e-02f,
-2.05652136e-02f,-3.57330322e-01f,-3.10790360e-01f,-1.07206278e-01f,-7.91774169e-02f,
-5.65282404e-02f,-3.24366465e-02f,+1.43051773e-01f,+2.24307790e-01f,-4.24673334e-02f,
+4.09574598e-01f,+1.53363138e-01f,+5.80921732e-02f,+1.15628317e-01f,-1.55078501e-01f,
+7.83995073e-03f,+1.32642895e-01f,-9.12373420e-03f,-1.21365570e-01f,+2.63080478e-01f,
-4.01699245e-02f,-7.22876117e-02f,+1.67595401e-01f,+1.67984262e-01f,+2.81268880e-02f,
+5.14107756e-02f,-1.00882202e-01f,-2.96498030e-01f,-7.03604594e-02f,-1.08744271e-01f,
+3.04068357e-01f,+3.44856642e-02f,-5.87308109e-02f,+1.16823390e-01f,+1.04417816e-01f,
+1.52015150e-01f,+1.43391177e-01f,-5.82633279e-02f,-2.63896972e-01f,+2.14037672e-02f,
-9.07217711e-02f,+2.60337651e-01f,+1.03643842e-01f,-5.95373884e-02f,+2.28144601e-01f,
+2.53216386e-01f,+1.30347401e-01f,+9.05229375e-02f,-6.61970377e-02f,-1.56823769e-01f,
-5.26915155e-02f,+4.24447566e-01f,-1.69364169e-01f,+1.51311815e-01f,-3.13869701e-03f,
+4.75244969e-01f,+1.96696669e-01f,+1.05996117e-01f,-2.31085587e-02f,-3.89727533e-01f,
+3.38997483e-01f,+2.89828360e-01f,-1.09627821e-01f,+2.81443477e-01f,-1.94907904e-01f,
-2.08158437e-02f,+2.96994478e-01f,-2.78012544e-01f,-1.73849434e-01f,+2.22844869e-01f,
+5.09112895e-01f,-9.16020125e-02f,+4.65903059e-02f,-8.59043002e-02f,+4.02428396e-02f,
-1.21423148e-01f,+9.35539678e-02f,+7.99065381e-02f,+1.27693877e-01f,+6.64319098e-02f,
-2.44042024e-01f,+5.63778520e-01f,-3.85736138e-01f,-1.00801572e-01f,+3.21196206e-02f,
-5.36770597e-02f,+1.17210269e-01f,+7.04824273e-03f,+1.81811854e-01f,+3.46448928e-01f,
+1.29114464e-01f,+2.81270057e-01f,-1.82823166e-01f,+1.19393997e-01f,+1.85157090e-01f,
-1.52780697e-01f,+2.28963941e-01f,-2.21996740e-01f,-8.82820562e-02f,-1.26369894e-01f,
+3.68908852e-01f,+8.25389028e-02f,+1.76523253e-01f,+1.25539035e-01f,-1.35375038e-01f,
-5.57498820e-03f,+1.77003443e-01f,-3.76710854e-02f,+2.43205335e-02f,-1.18276574e-01f,
-9.86334532e-02f,-2.37187088e-01f,+5.50074100e-01f,-1.46725968e-01f,+3.05903219e-02f,
+5.83635047e-02f,+1.50077827e-02f,-1.94168776e-01f,-2.20204577e-01f,+3.88813578e-02f,
-1.74432665e-01f,+7.29109254e-03f,+1.19948946e-01f,-1.13022383e-02f,+1.19172171e-01f,
+2.82970399e-01f,+1.74616631e-02f,+3.45191211e-02f,-6.25403970e-02f,-1.62728801e-01f,
+3.32978554e-02f,-2.67311633e-01f,+7.00438321e-02f,-2.13952698e-02f,-2.55777389e-01f,
-8.64118710e-02f,-3.47649679e-02f,+9.76273865e-02f,+5.40043339e-02f,-8.24463442e-02f,
-8.25475380e-02f,+2.23653585e-01f,+1.23465329e-01f,+5.76314330e-02f,-3.36749703e-02f,
-1.01991184e-01f,+8.63399953e-02f,+1.21234782e-01f,-3.68764289e-02f,+3.06430221e-01f,
-2.23921642e-01f,+2.46746913e-01f,+5.75343482e-02f,-2.25215107e-01f,-1.89603999e-01f,
-9.15635452e-02f,-3.60644376e-03f,+2.89497115e-02f,+1.17148243e-01f,+2.50573695e-01f,
-3.09330940e-01f,+1.76400721e-01f,+4.96418923e-02f,-3.86859402e-02f,+4.17305417e-02f,
+3.99600834e-01f,+2.08128616e-01f,-3.32496315e-01f,+5.97713515e-02f,+3.16029012e-01f,
+1.54638380e-01f,+9.53465849e-02f,+4.25752178e-02f,-3.53342980e-01f,+6.74731061e-02f,
-2.21945763e-01f,-1.30307660e-01f,-3.12476838e-03f,-1.67618558e-01f,-6.17961176e-02f,
-6.69734031e-02f,+1.51741460e-01f,+8.05757418e-02f,+6.73952848e-02f,+1.57107383e-01f,
+8.97196606e-02f,-2.94595927e-01f,+5.12900278e-02f,-1.34879155e-02f,-1.65419966e-01f,
-1.07874960e-01f,-2.24547267e-01f,-1.00986687e-02f,-6.03339598e-02f,+1.22319438e-01f,
-7.87330195e-02f,+3.52426209e-02f,+3.50994468e-02f,-7.50371814e-02f,-1.41944095e-01f,
+1.63598862e-02f,+1.16991624e-01f,-8.94219615e-03f,-1.14879282e-02f,+1.07797623e-01f,
+8.46143141e-02f,+1.96745172e-01f,+4.13089901e-01f,-8.75781775e-02f,+1.66100368e-01f,
-2.76031435e-01f,-1.03126494e-02f,-2.52307981e-01f,+2.67464548e-01f,+5.42492084e-02f,
-1.44267038e-01f,-1.20850906e-01f,+1.31740108e-01f,+8.81441385e-02f,-2.70196766e-01f,
+1.57793641e-01f,-2.63227671e-01f,+3.59124094e-01f,-1.14335798e-01f,+1.80372410e-02f,
-1.86024532e-01f,+4.74375226e-02f,+3.21580529e-01f,-1.86749518e-01f,+1.37032578e-02f,
-1.60211265e-01f,+1.30264774e-01f,-1.06310502e-01f,-7.60621503e-02f,+1.35620153e-02f,
+9.15504545e-02f,+9.26089436e-02f,-3.73123735e-01f,+3.70155692e-01f,+2.33916536e-01f,
+2.22947121e-01f,+3.42644304e-01f,+5.35357464e-03f,-2.02637315e-01f,-1.36721656e-01f,
+2.94212960e-02f,-2.27913424e-01f,-1.62540331e-01f,+1.78541258e-01f,+5.28628267e-02f,
-2.22845748e-01f,-1.03737488e-02f,+3.17064375e-02f,-1.55517384e-01f,+5.02638891e-02f,
-9.38988030e-02f,+7.82616250e-03f,-1.00122556e-01f,-2.45658327e-02f,+9.11786929e-02f,
-2.50654250e-01f,-1.13229908e-01f,+1.20704219e-01f,+1.29216492e-01f,+2.60228485e-01f,
-3.29757065e-01f,+3.09865296e-01f,+6.17274269e-02f,-7.43952300e-03f,+6.68234304e-02f,
+2.09145859e-01f,+1.91998258e-02f,-2.70301223e-01f,-2.01247126e-01f,-7.53288493e-02f,
-2.70518303e-01f,+4.80444193e-01f,+1.16468936e-01f,+1.59224957e-01f,-1.51125625e-01f,
-8.32462907e-02f,+6.43433705e-02f,+2.38421783e-01f,-5.82572483e-02f,-1.48154348e-01f,
+2.36761555e-01f,-3.55946273e-02f,-8.05092752e-02f,-3.03747684e-01f,-8.02283082e-03f,
-3.01404983e-01f,+3.12305968e-02f,-7.14304596e-02f,+1.89620897e-01f,+9.94072556e-02f,
-1.42668269e-03f,+3.92788239e-02f,+1.36767104e-02f,+6.75878441e-03f,-2.69046396e-01f,
-2.81100065e-01f,+1.12937666e-01f,+4.97557856e-02f,-2.32773259e-01f,-2.24235356e-01f,
+1.76432952e-01f,-2.73670942e-01f,+1.42901734e-01f,+1.46378189e-01f,+2.94727571e-02f,
-1.75979719e-01f,+8.39299932e-02f,-8.30906630e-02f,-8.25946964e-03f,-2.16831099e-02f,
+4.47739154e-01f,-2.27730006e-01f,-2.23296180e-01f,-7.85790235e-02f,+4.76997867e-02f,
-1.95114404e-01f,+2.19909236e-01f,+5.91576844e-02f,+2.21942246e-01f,-6.72480278e-03f,
-1.38191923e-01f,+4.67472784e-02f,+1.49775475e-01f,+2.89869532e-02f,-2.86414605e-02f,
+2.05350101e-01f,+1.37108967e-01f,+5.18647768e-02f,+1.26883373e-01f,+4.65981290e-02f,
-1.72074940e-02f,+1.59765899e-01f,-6.00744374e-02f,+2.62186944e-01f,-1.10274896e-01f,
-1.10694967e-01f,+1.15729429e-01f,-5.61955944e-03f,+9.93023962e-02f,-5.64850457e-02f,
-1.18106216e-01f,+2.22296506e-01f,+1.22986145e-01f,+1.06857819e-02f,+6.45875782e-02f,
+1.65678863e-03f,+1.00967459e-01f,-1.42109305e-01f,-1.38235539e-01f,+2.06767637e-02f,
+1.38217658e-01f,-2.52207994e-01f,-1.44129217e-01f,-1.93436295e-01f,-1.34498358e-01f,
+1.41925691e-02f,+1.11245908e-01f,-8.28636512e-02f,-3.53194773e-01f,+1.34752337e-02f,
+1.40265584e-01f,+9.54633877e-02f,-8.24726820e-02f,+1.27392724e-01f,+9.87349674e-02f,
+1.59084983e-02f,+3.16551849e-02f,-9.30659100e-02f,-2.46904790e-03f,+1.84938028e-01f,
-9.48350504e-02f,-2.00864255e-01f,+3.53482634e-01f,-1.78607285e-01f,-8.14548582e-02f,
-3.94605130e-01f,+3.89892026e-03f,+1.53359070e-01f,-3.15254152e-01f,+8.57623219e-02f,
+2.36862853e-01f,+2.85516948e-01f,+5.41082025e-02f,-9.89927500e-02f,-1.34526253e-01f,
+3.84341963e-02f,+2.57401943e-01f,-9.93445292e-02f,+6.30062371e-02f,-4.40483801e-02f,
+4.25053477e-01f,+7.27295727e-02f,+7.00313672e-02f,-2.21539006e-01f,+2.06485063e-01f,
+2.24793762e-01f,+2.36750811e-01f,+4.91638370e-02f,+5.79753183e-02f,+3.25617522e-01f,
-9.63834599e-02f,+2.38079906e-01f,+2.03462705e-01f,+1.80500492e-01f,-1.69442266e-01f,
-1.01505611e-02f,-1.39218211e-01f,+1.01833761e-01f,+1.56851918e-01f,+5.45477048e-02f,
-2.73927391e-01f,+1.33383080e-01f,-2.07416732e-02f,-1.43745214e-01f,-2.53256619e-01f,
-6.47850707e-03f,-4.31496091e-02f,+6.10911101e-02f,-1.00966968e-01f,+1.93467200e-01f,
-3.29549126e-02f,+1.99956492e-01f,-1.95649594e-01f,-1.30303964e-01f,+4.45035309e-01f,
-2.39015948e-02f,+9.74457562e-02f,+2.82909162e-02f,+9.40066501e-02f,+6.73582405e-03f,
+1.02960467e-01f,-1.87807247e-01f,+2.70377606e-01f,-2.24833950e-01f,-1.28486648e-01f,
+1.10365659e-01f,-9.92411375e-03f,+1.23522282e-01f,-1.70496613e-01f,+1.00296862e-01f,
-3.02228272e-01f,-3.53723392e-02f,+1.87207647e-02f,-1.67056665e-01f,-7.23422542e-02f,
+1.60931528e-01f,+1.21662594e-01f,-2.85065442e-01f,-4.50322405e-03f,+1.54294848e-01f,
+4.38446961e-02f,-1.99034158e-02f,+8.84607248e-03f,-2.55777277e-02f,-3.32757056e-01f,
-1.85657158e-01f,-5.89834340e-02f,+1.10262454e-01f,-2.66650263e-02f,+5.69561161e-02f,
+8.37234408e-02f,+1.53796896e-01f,-1.43312097e-01f,+1.10394873e-01f,-1.31157696e-01f,
-1.57731980e-01f,-4.52080891e-02f,+3.89039785e-01f,+9.76932943e-02f,-1.81525111e-01f,
-2.36018121e-01f,+2.66029835e-01f,+2.29551032e-01f,+3.02052230e-01f,+2.82833040e-01f,
+5.30215025e-01f,+4.89870608e-02f,+1.39960378e-01f,-8.61889049e-02f,+9.08316299e-02f,
+3.07538480e-01f,+1.35212794e-01f,+3.16208275e-03f,+1.99048609e-01f,-2.15916559e-01f,
+1.76156417e-01f,-5.77139966e-02f,-4.99960780e-02f,+4.77455324e-03f,-4.86398488e-01f,
+1.09680571e-01f,-1.14574648e-01f,-4.91113178e-02f,+4.62375991e-02f,-1.16543010e-01f,
-3.05756480e-02f,+2.97125608e-01f,+1.81374416e-01f,+1.46752581e-01f,-4.80122045e-02f,
+8.75150561e-02f,-5.01927212e-02f,+5.10975234e-02f,-2.72986144e-01f,+2.34881073e-01f,
-1.30685046e-02f,-2.54836917e-01f,+3.97235043e-02f,+1.32284313e-01f,+1.20199904e-01f,
+2.41078567e-02f,+3.52395773e-01f,+6.41195402e-02f,-2.24036932e-01f,-2.13320076e-01f,
-1.67771697e-01f,-1.66138813e-01f,+1.65244862e-01f,-1.88738659e-01f,+1.74160957e-01f,
+1.70584470e-02f,+6.33213371e-02f,+2.23752216e-01f,-9.07638967e-02f,+1.58338528e-02f,
+1.33832633e-01f,+9.80972946e-02f,+6.36616200e-02f,+6.11046404e-02f,+2.58959502e-01f,
-8.49287808e-02f,+2.17103824e-01f,+1.55055255e-01f,-2.33563632e-01f,-2.99071689e-04f,
+2.05299661e-01f,+1.18658550e-01f,+1.52986631e-01f,-5.15871542e-03f,-1.74765512e-01f,
-3.26983482e-02f,+1.56370133e-01f,-4.23777401e-02f,-2.99017310e-01f,+1.23306870e-01f,
+9.76843461e-02f,+2.54267573e-01f,+1.28566455e-02f,-2.71035433e-01f,-8.18625316e-02f,
-2.13320717e-01f,+3.25502902e-02f,+4.08447385e-01f,+9.00476873e-02f,-9.18796659e-02f,
-2.02093884e-01f,+1.43585056e-01f,-5.21189049e-02f,+2.07131624e-01f,+1.03940710e-01f,
+1.55340834e-02f,-1.62723720e-01f,-2.11024940e-01f,+5.72829954e-02f,+3.93111587e-01f,
-5.19179940e-01f,-6.89658076e-02f,-1.01063631e-01f,-1.96320325e-01f,+1.39008492e-01f,
+2.28719842e-02f,+4.17282611e-01f,+1.76583230e-02f,-1.03257485e-01f,+1.53800473e-01f,
+1.33291155e-01f,-2.05074638e-01f,-1.42921701e-01f,-1.00014672e-01f,-5.87343089e-02f,
+2.11834349e-02f,+2.91208237e-01f,+1.49139285e-01f,+1.16018824e-01f,+2.45573923e-01f,
-1.05330028e-01f,-1.25528187e-01f,+3.24306600e-02f,+1.54969558e-01f,-3.11285883e-01f,
-9.51608568e-02f,-3.85185406e-02f,+1.12588713e-02f,-1.73081353e-01f,+7.67953619e-02f,
-5.89447692e-02f,-1.23888858e-01f,-1.20039962e-01f,+1.05120622e-01f,-1.04606133e-02f,
+1.35528460e-01f,+1.51261330e-01f,+5.12791872e-02f,+9.86038595e-02f,-9.96009931e-02f,
+8.26239586e-02f,+1.23935886e-01f,+8.29386562e-02f,-8.43164623e-02f,-2.12765664e-01f,
-3.37675333e-01f,+2.38524720e-01f,+1.20306134e-01f,+4.94588800e-02f,+1.90769639e-02f,
+1.13861434e-01f,-1.71805210e-02f,-4.05976810e-02f,+1.11256145e-01f,+3.70949388e-01f,
+2.24147275e-01f,-1.18472546e-01f,+2.24811003e-01f,+2.41092250e-01f,+2.89588924e-02f,
-2.70692967e-02f,+3.07921693e-02f,-7.74780568e-03f,+1.92308426e-01f,-2.95305997e-01f,
-1.14419855e-01f,-2.70772219e-01f,+6.55019581e-02f,-2.23552316e-01f,-8.53979737e-02f,
+2.65653789e-01f,+3.34746450e-01f,+2.46280022e-02f,+1.50117069e-01f,+3.61735001e-02f,
+4.03800234e-02f,+2.26107627e-01f,+1.96293414e-01f,-2.62326777e-01f,+2.29748964e-01f,
+1.79284811e-01f,-1.59130059e-02f,+1.17291421e-01f,+1.96757928e-01f,+4.03751075e-01f,
+2.35340819e-02f,-6.99523687e-02f,+1.78016812e-01f,-2.84306239e-02f,-1.29819959e-01f,
-8.86940658e-02f,+7.81984553e-02f,-8.83838758e-02f,-4.79060337e-02f,+1.59543023e-01f,
+1.04248993e-01f,+2.68955678e-01f,-1.12206146e-01f,+3.95694114e-02f,-2.66687006e-01f,
+1.49534196e-01f,+1.34202540e-02f,-5.89830894e-03f,-1.28559038e-01f,-1.40171513e-01f,
+4.43922311e-01f,-8.99228454e-02f,+3.83289933e-01f,-8.30010623e-02f,-1.52893156e-01f,
+1.58714667e-01f,+7.29323551e-02f,-8.92142430e-02f,+2.24758044e-01f,-1.13598950e-01f,
+2.23782897e-01f,-6.10149838e-03f,+4.71127748e-01f,-3.02648455e-01f,-3.16430211e-01f,
-2.72367239e-01f,-1.08050806e-02f,+3.93815450e-02f,+1.16250195e-01f,-1.90300979e-02f,
+2.77588695e-01f,-1.08322881e-01f,+4.33396399e-01f,-4.24617808e-03f,+2.05048159e-01f,
-3.24074984e-01f,-3.82910490e-01f,+6.86967894e-02f,-1.74763858e-01f,+1.05959781e-01f,
-3.79873216e-01f,-7.69856796e-02f,-1.98825169e-03f,+1.16402641e-01f,+3.18519957e-02f,
+6.87786192e-02f,-1.09720733e-02f,+1.61327824e-01f,+8.87402054e-03f,+7.45710656e-02f,
+1.45315632e-01f,-1.34193689e-01f,+1.70042768e-01f,-9.23622400e-02f,-1.00155726e-01f,
+7.62986168e-02f,+1.91313885e-02f,+1.81281537e-01f,-1.01260468e-01f,-2.37661138e-01f,
-1.70423016e-01f,+2.64522314e-01f,+3.94731387e-02f,-1.90667883e-01f,+3.41511704e-02f,
-2.11834177e-01f,-4.28033574e-03f,+2.64253430e-02f,+2.12523580e-01f,+1.48613408e-01f,
+2.69282553e-02f,+9.86318216e-02f,+7.00439140e-02f,+2.77782738e-01f,+1.03817925e-01f,
+1.75617144e-01f,+3.05408150e-01f,-2.00484529e-01f,+1.05480060e-01f,+1.30361497e-01f,
+2.50589281e-01f,-6.64957166e-02f,-5.14313281e-02f,+2.68379152e-01f,-1.23253815e-01f,
-7.74931023e-03f,+2.96095293e-02f,-2.62340233e-02f,+7.10580405e-03f,+2.92813629e-01f,
-8.43763351e-02f,-1.90763906e-01f,+2.60888547e-01f,-6.65526092e-02f,+2.80440841e-02f,
+1.06483459e-01f,+1.29963541e-02f,+1.43521234e-01f,+2.30872244e-01f,+6.33648038e-02f,
+2.35094413e-01f,+6.74046651e-02f,+4.47968431e-02f,+2.32613478e-02f,-6.39293343e-02f,
+7.93266222e-02f,+2.45518282e-01f,+8.58477876e-02f,-8.96789059e-02f,-9.70969051e-02f,
+1.15563609e-01f,-7.31385648e-02f,+3.65969166e-02f,-7.04971030e-02f,+1.16238803e-01f,
+1.60239533e-01f,-1.21390544e-01f,+1.13873087e-01f,-9.91565585e-02f,+3.18028212e-01f,
+4.74781357e-02f,-5.66927381e-02f,-1.62783414e-02f,+3.14273685e-01f,+1.01377435e-01f,
-1.45625621e-01f,+2.57929772e-01f,+1.25123024e-01f,-5.08781597e-02f,+2.29936168e-01f,
-8.85790214e-02f,+2.10628703e-01f,-3.50390114e-02f,+2.56407410e-02f,-3.14733759e-02f,
-1.56251997e-01f,+3.16527396e-01f,+1.79564312e-01f,+2.57480979e-01f,-3.22640082e-03f,
-2.54386306e-01f,+1.81017980e-01f,+1.80940509e-01f,-1.58929657e-02f,-1.87009782e-01f,
+1.02275044e-01f,+5.03429770e-02f,+2.89092846e-02f,-1.47996798e-01f,-1.80323660e-01f,
+2.70959914e-01f,+2.14985996e-01f,+5.45735890e-03f,+2.02400818e-01f,+1.19724274e-01f,
+1.27105966e-01f,+1.75468773e-01f,+7.55361244e-02f,+6.46857321e-02f,+1.80799086e-02f,
-7.85062555e-03f,-1.20860972e-01f,-3.53483707e-02f,+2.62225866e-01f,-1.53888747e-01f,
+1.60998017e-01f,+5.89255765e-02f,+7.13843387e-03f,+2.92764664e-01f,-4.86445725e-02f,
+1.05758034e-01f,+4.46781367e-01f,-1.59951955e-01f,-2.09668819e-02f,+1.05336979e-01f,
-8.06865394e-02f,-1.63973063e-01f,-1.58550933e-01f,-7.97536746e-02f,-2.90660169e-02f,
-1.07661085e-02f,-2.26954464e-02f,-2.28793435e-02f,-1.78850546e-01f,+7.63323009e-02f,
+7.47814402e-02f,+1.27375111e-01f,-2.16197595e-01f,+3.47193599e-01f,+1.98678643e-01f,
+5.82182109e-02f,+5.61490171e-02f,+7.76834488e-02f,-8.04197788e-03f,+1.90238997e-01f,
-1.61393404e-01f,-1.33817822e-01f,+1.43797457e-01f,+2.27279067e-01f,-2.13745385e-02f,
+2.28791371e-01f,+1.13770187e-01f,-1.28298566e-01f,+3.40363309e-02f,-2.05600224e-02f,
-5.63847907e-02f,-7.26377964e-02f,+8.37440416e-02f,-1.65950894e-01f,-2.30728999e-01f,
-9.18919295e-02f,+3.37016940e-01f,+1.93084925e-01f,+8.45881850e-02f,-3.25137959e-03f,
+1.12196095e-01f,-3.78126413e-01f,-9.44647864e-02f,+3.02223802e-01f,-9.58320722e-02f,
+4.74644564e-02f,+2.16512129e-01f,-4.67571132e-02f,-7.35536367e-02f,+7.23718628e-02f,
+2.90445477e-01f,-1.27082661e-01f,+9.56498012e-02f,+2.01605827e-01f,+2.28201170e-02f,
+2.29028255e-01f,-1.09941721e-01f,+1.72905937e-01f,+2.48896390e-01f,-6.24154601e-03f,
-7.51431808e-02f,+1.29095033e-01f,+3.43223754e-03f,-1.46487445e-01f,-1.91275626e-01f,
-4.55937013e-02f,-1.05476357e-01f,+1.50909729e-03f,-3.37898880e-01f,+2.37076014e-01f,
+2.07597136e-01f,+1.05169810e-01f,-2.97562312e-03f,-1.34884432e-01f,+1.43398583e-01f,
-1.83537334e-01f,-2.05417603e-01f,+1.98688880e-01f,-5.02298810e-02f,+1.69311073e-02f,
-3.73647697e-02f,+8.14503059e-02f,-5.35217002e-02f,+7.66786858e-02f,+1.82289425e-02f,
+4.56875488e-02f,+6.35496676e-02f,+3.52553666e-01f,-6.27144948e-02f,-3.50060649e-02f,
+6.95407614e-02f,+2.50404000e-01f,+5.88867329e-02f,+1.46452919e-01f,-1.70850396e-01f,
-2.33796388e-01f,-1.72365651e-01f,-3.42961289e-02f,+1.75693914e-01f,-6.75461888e-02f,
+1.82130318e-02f,-1.15827501e-01f,+8.04935917e-02f,-1.89293593e-01f,+8.61046687e-02f,
+9.02896151e-02f,-1.06293090e-01f,+3.66014659e-01f,-2.47522920e-01f,+8.20934586e-03f,
+2.07681790e-01f,-1.48680352e-03f,+2.01868210e-02f,-8.16725120e-02f,+8.58997852e-02f,
-2.74392813e-01f,+2.92982757e-01f,-1.77038144e-02f,-4.32797708e-02f,-2.20141679e-01f,
-1.36982948e-01f,-8.97586495e-02f,+1.64029762e-01f,+1.00819513e-01f,-1.51876479e-01f,
+1.88588779e-02f,+1.08283795e-01f,-3.01760256e-01f,-1.49059892e-01f,+7.78773706e-03f,
+7.55505636e-02f,-2.10041821e-01f,-1.09884068e-01f,-1.35574698e-01f,+3.77878070e-01f,
-7.01945573e-02f,-1.03918105e-01f,+1.60322338e-01f,-2.42449120e-01f,-3.74026269e-01f,
-1.28227055e-01f,+1.21070454e-02f,-1.20428436e-01f,+1.49512917e-01f,-5.60256317e-02f,
+2.27072150e-01f,+2.84202218e-01f,+1.70934349e-02f,-2.18341321e-01f,-1.23158097e-01f,
+2.40958676e-01f,-1.40358150e-01f,+6.23836741e-02f,-1.96536705e-01f,-1.85627550e-01f,
-4.86179888e-02f,-1.49599031e-01f,-1.50099829e-01f,-6.66402057e-02f,-8.23526271e-03f,
-8.41640681e-02f,-9.08026248e-02f,+4.64511395e-01f,+2.09957421e-01f,-2.51813859e-01f,
+2.79714704e-01f,-1.13183394e-01f,-2.94330418e-01f,-5.96263185e-02f,-7.72525668e-02f,
+1.47350699e-01f,+2.74477959e-01f,+2.72821456e-01f,+2.42443103e-02f,+1.35002583e-01f,
-1.02023967e-01f,-8.42121840e-02f,-1.66590527e-01f,-2.05308050e-01f,-3.18737365e-02f,
-1.40706196e-01f,+6.60110787e-02f,-5.26386648e-02f,+4.57804911e-02f,+5.56783266e-02f,
+2.23332062e-01f,-1.08655684e-01f,+7.86130801e-02f,+2.84110516e-01f,-1.62374407e-01f,
+1.95268229e-01f,-2.38673817e-02f,+2.79167295e-01f,+8.46815333e-02f,+5.81970930e-01f,
-2.25056455e-01f,-2.83611804e-01f,+4.52737242e-01f,-4.52676788e-02f,-1.22551322e-01f,
+5.53971946e-01f,+2.82474339e-01f,-3.21564764e-01f,-3.58676612e-02f,-1.86443254e-01f,
-3.13664079e-02f,-2.62650996e-01f,-2.33636051e-01f,+8.77303258e-02f,+2.30566725e-01f,
-2.42675155e-01f,-1.08575575e-01f,-3.41178924e-01f,+1.88403085e-01f,-6.87118247e-02f,
+1.58242926e-01f,-5.27417623e-02f,+9.52043384e-02f,+7.22630024e-02f,+1.96944294e-03f,
+2.97931246e-02f,+7.80302733e-02f,-1.34988409e-02f,-2.08674908e-01f,-1.60302997e-01f,
-4.41265032e-02f,+1.29884094e-01f,-6.25087097e-02f,+1.64105818e-01f,+1.12542234e-01f,
-9.06562135e-02f,-1.09127648e-02f,+9.16695893e-02f,+3.67955387e-01f,+5.63642047e-02f,
-8.77130181e-02f,+1.10074535e-01f,-1.10859215e-01f,-1.18449844e-01f,+6.04505613e-02f,
+4.08931911e-01f,-5.62244318e-02f,-1.04739573e-02f,+2.15087578e-01f,-2.53765523e-01f,
+3.67864631e-02f,+1.15060985e-01f,-6.25528544e-02f,+2.29391143e-01f,-1.44414026e-02f,
-1.49928659e-01f,-6.27161860e-02f,+1.16862105e-02f,+7.37308711e-02f,+3.83059569e-02f,
+8.90717432e-02f,+1.38940990e-01f,+2.62929555e-02f,+1.11343339e-01f,-4.20367807e-01f,
-1.68998122e-01f,-2.55930603e-01f,+9.02823061e-02f,-1.71474889e-01f,+1.09769695e-01f,
-3.10431361e-01f,+2.46772647e-01f,-8.26514289e-02f,-5.84076270e-02f,+2.44911969e-01f,
-1.32459283e-01f,+3.45191181e-01f,-1.37271211e-01f,-2.67644431e-02f,+2.39801332e-01f,
-1.80651978e-01f,-1.28989249e-01f,+9.03925896e-02f,+2.34841198e-01f,+1.69814110e-01f,
-1.29507203e-02f,-3.58025916e-02f,-1.34630620e-01f,+1.18902892e-01f,+2.17122957e-01f,
-1.13014672e-02f,+3.06819100e-02f,-2.85172254e-01f,+3.39093544e-02f,+5.03138840e-01f,
-4.36559498e-01f,-2.10256856e-02f,-1.19186029e-01f,+5.40307947e-02f,-2.33067237e-02f,
-2.65936077e-01f,+1.20841570e-01f,-2.91367173e-01f,+1.41887248e-01f,-7.30314404e-02f,
-3.27871293e-01f,+1.42483264e-01f,+2.86002815e-01f,+9.07007530e-02f,-1.24229202e-02f,
+1.35546520e-01f,-2.41383180e-01f,-1.42521009e-01f,-3.01956125e-02f,-1.66803762e-01f,
+2.13691592e-02f,+4.53641601e-02f,+1.89157471e-01f,+1.16568217e-02f,+2.14237496e-02f,
+4.06567268e-02f,-1.45717651e-01f,-3.26966017e-01f,+3.49706769e-01f,-8.63178894e-02f,
+1.35241866e-01f,+1.66752487e-01f,+5.54927230e-01f,+5.61640784e-02f,-1.52937314e-02f,
+1.52848765e-01f,+2.56665707e-01f,+1.08852603e-01f,+1.58159778e-01f,+1.60630643e-02f,
+2.81148702e-01f,+2.14702964e-01f,-1.82465792e-01f,-3.48952830e-01f,+1.71676964e-01f,
+9.73382145e-02f,-1.61600664e-01f,-1.70910239e-01f,-1.22287549e-01f,+2.35194162e-01f,
+2.28853583e-01f,+2.53742307e-01f,+4.96606566e-02f,+6.92030564e-02f,+8.07491615e-02f,
+1.58236399e-01f,-6.73510507e-02f,+1.68588787e-01f,-1.28966747e-02f,-5.34741282e-02f,
-1.15005523e-01f,-8.60502198e-02f,+1.53128341e-01f,+5.49043082e-02f,-9.20285471e-03f,
+1.56577304e-01f,-1.88383490e-01f,+1.66487023e-02f,+2.65413485e-02f,+2.34112497e-02f,
-2.31930062e-01f,-1.86081856e-01f,+4.53250541e-04f,+1.18938088e-01f,-2.67499179e-01f,
+1.65112749e-01f,+3.06788413e-03f,-3.36448140e-02f,-1.87503889e-01f,-2.45925248e-01f,
+2.84564048e-02f,+4.67790067e-02f,+9.38912630e-02f,-1.53207019e-01f,-3.68906379e-01f,
-8.12493414e-02f,+1.72929987e-01f,-3.82828057e-01f,+2.09684507e-03f,-1.75619021e-01f,
-1.28214493e-01f,-2.06484217e-02f,-4.40346897e-02f,+1.46244586e-01f,+2.34979346e-01f,
+1.25230134e-01f,+2.68306043e-02f,-3.36683840e-01f,+2.16266066e-01f,-1.16398744e-02f,
+3.84663880e-01f,+2.39152480e-02f,-6.59565553e-02f,-6.30333796e-02f,+4.08555344e-02f,
+1.85589254e-01f,+6.30107475e-03f,+2.69160658e-01f,+1.73133239e-01f,+2.03157872e-01f,
-1.99111030e-02f,-8.11556801e-02f,+2.79325843e-02f,-4.72848043e-02f,+2.08067169e-04f,
-2.49438241e-01f,-2.24752426e-02f,-2.51574606e-01f,-2.28902191e-01f,-2.23338276e-01f,
+1.01894952e-01f,+4.24156189e-01f,+2.40894109e-01f,+1.83048397e-01f,-1.70190528e-01f,
+1.25736654e-01f,+3.21287692e-01f,+1.31481960e-01f,-2.65373811e-02f,+1.91794410e-01f,
-8.26760754e-03f,-1.01405114e-01f,+2.19833970e-01f,+6.67547658e-02f,+3.24422382e-02f,
+1.72562413e-02f,-1.12411425e-01f,+1.76197246e-01f,+9.58051756e-02f,+6.61772639e-02f,
+3.13441008e-01f,+1.82529256e-01f,-8.74905102e-03f,-3.84340547e-02f,-1.15593731e-01f,
-1.72652960e-01f,-3.59003186e-01f,+7.64352223e-03f,+1.83073863e-01f,-1.89984627e-02f,
-3.01776323e-02f,+6.73231483e-02f,+1.74148351e-01f,-8.15132931e-02f,+3.47809315e-01f,
+1.50307380e-02f,-3.21846068e-01f,-5.98032884e-02f,-1.19486731e-02f,-3.47269401e-02f,
-2.31467918e-01f,+3.84514064e-01f,+1.21538624e-01f,+4.86572878e-03f,+3.23138952e-01f,
+5.14042303e-02f,-8.03676248e-03f,-3.71309459e-01f,+8.73784348e-02f,+1.28742978e-01f,
-1.08589251e-02f,+6.01914488e-02f,+1.17093414e-01f,+1.03433721e-01f,-1.77317321e-01f,
-2.38651540e-02f,+3.15500855e-01f,-7.17906132e-02f,-6.51691779e-02f,+1.55942157e-01f,
-3.48022580e-02f,+1.76733524e-01f,-1.20525613e-01f,+3.14303935e-01f,-1.49373621e-01f,
+4.05824691e-01f,+3.11064333e-01f,+1.82281435e-01f,+1.62415821e-02f,+1.25140384e-01f,
+1.24725468e-01f,+1.45131513e-01f,-6.62100017e-02f,-6.69575632e-02f,-1.09535307e-01f,
-3.80071886e-02f,-5.85416220e-02f,-1.45241708e-01f,+4.83600684e-02f,+2.26727631e-02f,
+2.87180394e-03f,+2.74636924e-01f,+8.22524354e-02f,-8.43522474e-02f,-9.42633301e-02f,
+1.33871406e-01f,+4.87850234e-02f,-7.21127093e-02f,-5.03688911e-03f,+1.89652979e-01f,
+1.48671180e-01f,+1.21683560e-01f,+1.42196313e-01f,-5.47287948e-02f,-4.48326208e-02f,
-1.85122490e-01f,+1.42208591e-01f,-8.16006213e-02f,+2.36181065e-01f,-1.37993217e-01f,
+2.30098814e-02f,+2.19653785e-01f,-1.68026611e-01f,+3.43078643e-01f,+1.46091849e-01f,
-5.65759726e-02f,+2.61937350e-01f,+4.53711413e-02f,+2.12100983e-01f,-1.03298925e-01f,
-7.40531459e-02f,+6.82497844e-02f,+2.50950575e-01f,-2.86415815e-01f,+1.07459061e-01f,
-3.19124162e-01f,+6.73755705e-02f,+2.75010139e-01f,+1.57728121e-01f,-3.03015858e-01f,
-1.57472953e-01f,-1.54584378e-01f,+2.20976159e-01f,+1.70951784e-01f,+1.74135476e-01f,
+1.44949555e-01f,+1.68538257e-01f,-1.40242830e-01f,-7.85102025e-02f,-1.67313531e-01f,
+2.51281424e-03f,+4.02874738e-01f,+2.48559996e-01f,+3.71500030e-02f,+3.93975526e-02f,
-1.30416378e-01f,-1.47205843e-02f,+7.13819042e-02f,+1.83489799e-01f,+1.91437285e-02f,
+2.70430725e-02f,+1.33274958e-01f,+1.28179967e-01f,+5.91864996e-02f,+2.00491115e-01f,
+7.61103583e-03f,+2.54434466e-01f,+3.96417230e-01f,+1.02714837e-01f,+1.42853975e-01f,
-4.77552898e-02f,+1.33083284e-01f,+2.09738046e-01f,+9.10694748e-02f,-1.35083437e-01f,
+1.12827970e-02f,-2.27355540e-01f,+1.29593492e-01f,+2.26523966e-01f,-8.43100995e-02f,
-1.63708881e-01f,+8.30046013e-02f,+3.02415282e-01f,-1.58171204e-03f,-1.76737070e-01f,
+2.24376544e-01f,+4.61608246e-02f,-8.28896239e-02f,-3.90781723e-02f,-1.24385199e-02f,
-1.47430003e-01f,+1.76057369e-01f,+3.69475260e-02f,-2.69085821e-02f,-1.18185565e-01f,
+6.88556060e-02f,-1.57760799e-01f,+8.01308602e-02f,+6.81142807e-02f,+9.05039012e-02f,
-9.27342568e-03f,+4.57893573e-02f,+2.27173001e-01f,+9.41982791e-02f,-2.16083648e-03f,
-1.52814716e-01f,+1.92659661e-01f,+2.38055661e-01f,-1.61110416e-01f,+7.48614594e-02f,
-1.00535668e-01f,-9.69571546e-02f,+1.08659947e-02f,+1.99120119e-01f,-2.40952484e-02f,
+7.73552209e-02f,+3.15921783e-01f,-2.54035026e-01f,-3.06900088e-02f,+3.25010978e-02f,
+4.36161570e-02f,-1.65490489e-02f,+1.97362006e-02f,+1.04017347e-01f,+3.89534593e-01f,
-8.69594589e-02f,+7.39663541e-02f,+1.05929859e-01f,-1.36856034e-01f,+9.04872045e-02f,
+7.73494393e-02f,-3.35268900e-02f,+4.19537663e-01f,+8.97443965e-02f,+9.70891193e-02f,
-6.24903068e-02f,+9.37594101e-02f,-9.70823243e-02f,-1.65416464e-01f,+8.18524882e-02f,
+5.86722344e-02f,+1.22839641e-02f,+1.13119677e-01f,+2.00911000e-01f,+3.15391183e-01f,
+1.45275265e-01f,+2.13120878e-01f,+2.67853707e-01f,+1.96883067e-01f,-1.24237694e-01f,
+4.32683229e-02f,-1.74711749e-01f,+6.12669215e-02f,-7.69299120e-02f,-1.58868730e-01f,
+2.20763981e-01f,-2.93105096e-02f,-1.17865510e-01f,-8.59530568e-02f,+4.63182211e-01f,
+2.38884613e-01f,+7.17222467e-02f,-1.43295884e-01f,+8.00907910e-02f,-1.96573675e-01f,
-2.49396935e-01f,-1.28970563e-01f,+3.55427653e-01f,+5.46620488e-02f,-2.46476814e-01f,
+1.24095969e-01f,+1.71587378e-01f,+1.85411125e-01f,-4.93803099e-02f,-8.70617330e-02f,
+1.25724286e-01f,-1.90046847e-01f,-1.79389372e-01f,-2.57252097e-01f,-2.91124940e-01f,
+4.99016792e-02f,+8.57513696e-02f,+1.78863049e-01f,+2.78559387e-01f,+2.51795679e-01f,
+2.11155862e-01f,+2.06016466e-01f,-5.01509011e-03f,-6.35020137e-02f,-1.03777768e-02f,
+1.64219528e-01f,-3.33135188e-01f,+3.22538972e-01f,+5.09459339e-02f,-1.71202481e-01f,
+1.48324907e-01f,+2.61418074e-01f,-3.07390541e-01f,-9.74714905e-02f,-1.54061303e-01f,
+1.27957478e-01f,+7.10046813e-02f,+2.95018733e-01f,+2.62152106e-01f,+1.00897297e-01f,
+2.35258862e-02f,-1.24803044e-01f,+1.64580792e-01f,-5.25204241e-02f,+6.72412813e-02f,
+2.99429446e-01f,+2.84517348e-01f,+4.31063175e-02f,+1.85920954e-01f,-6.81502521e-02f,
-1.85802970e-02f,-6.13089185e-03f,+8.79570171e-02f,+5.79974204e-02f,+3.92172523e-02f,
-1.73699588e-01f,+1.80303808e-02f,+1.48965776e-01f,-7.15524256e-02f,-8.37051589e-03f,
+5.63085899e-02f,-1.19053526e-02f,+4.81200702e-02f,-2.43761197e-01f,+7.38949031e-02f,
-1.83655560e-01f,-1.93099648e-01f,+5.42097241e-02f,+5.56532368e-02f,-1.14229225e-01f,
-5.82511984e-02f,+5.60930872e-04f,+6.70618862e-02f,+4.59399596e-02f,+8.40473250e-02f,
-1.27212241e-01f,-1.50362104e-01f,+1.11837044e-01f,-1.49673149e-01f,-5.60522359e-03f,
+3.00721079e-01f,+1.60282642e-01f,+1.52689770e-01f,-2.48212591e-02f,+1.03306979e-01f,
-2.14313745e-01f,+4.11014371e-02f,+1.75240356e-02f,-2.04359174e-01f,-3.42413932e-01f,
+4.00894046e-01f,-5.29088303e-02f,-6.45380020e-02f,-2.33698666e-01f,-2.80682668e-02f,
+3.42071533e-01f,+3.96972969e-02f,+6.87601343e-02f,-1.74861133e-01f,+1.30823851e-01f,
-1.45309716e-01f,+5.87696992e-02f,-2.49189138e-01f,+8.84137303e-02f,+1.96930230e-01f,
-2.39264324e-01f,-1.57494247e-01f,+1.43775523e-01f,+2.05851153e-01f,-4.60488796e-02f,
+2.15846509e-01f,-4.36963849e-02f,-1.85736164e-01f,-1.47389039e-01f,+1.51009172e-01f,
+2.69095361e-01f,+1.56813204e-01f,-3.12905371e-01f,+2.85414495e-02f,-2.11135939e-01f,
-6.85661435e-02f,-1.74098969e-01f,+3.30241710e-01f,+3.05348724e-01f,+1.47323497e-02f,
-9.86438692e-02f,-1.73829332e-01f,+1.69550329e-01f,+3.09290662e-02f,+3.08221579e-01f,
-1.15896009e-01f,-2.46391874e-02f,+4.76710238e-02f,-1.62213370e-01f,+2.61393189e-02f,
-1.55290365e-01f,+1.84474692e-01f,+3.19320112e-01f,+4.91170973e-01f,-3.18630156e-03f,
-7.09860399e-02f,-8.09887946e-02f,-2.03135476e-01f,+4.86143418e-02f,+1.83796957e-01f,
+9.23689082e-02f,-5.13688959e-02f,-6.08107597e-02f,-2.97116041e-01f,+1.94378078e-01f,
+1.44255804e-02f,+7.90981129e-02f,-7.69894943e-02f,+1.40055820e-01f,+2.27537751e-01f,
+5.37029386e-01f,-1.30616337e-01f,-1.38286725e-02f,-1.89002618e-01f,-5.75244315e-02f,
-5.47467731e-02f,+4.89775240e-01f,+1.92183465e-01f,-1.61405444e-01f,+2.50604451e-01f,
+6.56628087e-02f,-3.86607312e-02f,+2.20569655e-01f,-3.62277329e-02f,+1.19020768e-01f,
+1.98378548e-01f,-2.15681642e-01f,+6.18075905e-03f,+7.19332770e-02f,+7.64243454e-02f,
-2.04032790e-02f,-3.31851691e-02f,+2.33582277e-02f,+4.37730812e-02f,+1.96051463e-01f,
+1.23266838e-01f,+1.35467917e-01f,-2.36386776e-01f,+1.17360257e-01f,-1.88833214e-02f,
+5.05532809e-02f,+1.79480866e-01f,+9.50715691e-02f,-1.03634983e-01f,+9.29591134e-02f,
-2.29003400e-01f,-3.10561806e-01f,-3.59557308e-02f,-1.84577987e-01f,+2.98531294e-01f,
+1.22614540e-01f,+4.08856981e-02f,-4.20234278e-02f,-9.45586562e-02f,+6.51447102e-02f,
+2.56970465e-01f,-6.21797591e-02f,-2.97197830e-02f,+1.59707412e-01f,-3.35119143e-02f,
+3.60899605e-02f,+2.63141632e-01f,-1.89056899e-02f,+1.97923146e-02f,+7.49860033e-02f,
-1.18135564e-01f,-1.66613370e-01f,+9.53353792e-02f,+5.48458844e-02f,+1.27764836e-01f,
-8.24832022e-02f,+2.50178933e-01f,-7.04865996e-03f,-4.14468646e-02f,+3.50477695e-02f,
-7.32173398e-03f,+3.30865651e-01f,+9.19543132e-02f,+2.53757983e-01f,-1.23561203e-01f,
+9.93758217e-02f,-4.02173176e-02f,+2.41751950e-02f,+1.88805819e-01f,+1.94579035e-01f,
-4.99472246e-02f,+8.86085182e-02f,-1.66409016e-01f,-9.69331264e-02f,+1.56009309e-02f,
+1.40818268e-01f,+2.15032235e-01f,-3.01824331e-01f,-1.29842728e-01f,+1.08726330e-01f,
-6.56899111e-03f,-1.12396821e-01f,+9.20972675e-02f,-6.62562847e-02f,+4.10904922e-03f,
+7.67647848e-02f,-1.41111342e-03f,-4.13430929e-02f,-1.13758929e-01f,-1.26109451e-01f,
+1.67359352e-01f,+8.41247216e-02f,-1.75133646e-01f,+7.94188827e-02f,-2.03576107e-02f,
+1.95724189e-01f,+2.47252107e-01f,+7.88512081e-02f,-2.58745164e-01f,+1.99000165e-01f,
-3.01879287e-01f,+1.30381241e-01f,+3.68247926e-02f,-6.96888268e-02f,-8.74692947e-02f,
+1.33226380e-01f,+1.31910101e-01f,+1.24647938e-01f,+8.78322572e-02f,+2.06970692e-01f,
+2.23385647e-01f,-2.41037115e-01f,+1.15068108e-01f,+4.84380186e-01f,+4.53388989e-01f,
+4.30176221e-02f,-1.55697577e-02f,-1.61079690e-01f,+1.17472269e-01f,+1.02427885e-01f,
-7.49108493e-02f,+1.49032727e-01f,+2.07606032e-01f,+2.88852751e-01f,+3.91786806e-02f,
-1.13359854e-01f,+1.02225706e-01f,-2.11854592e-01f,+3.33507149e-03f,-2.39862487e-01f,
+1.59813240e-02f,+1.10358872e-01f,+1.99196413e-01f,+3.77495557e-01f,+1.50268137e-01f,
+2.78451890e-01f,-1.42586872e-01f,+1.39247224e-01f,-5.48847727e-02f,-2.51171016e-03f,
+2.94643283e-01f,-7.06232041e-02f,-1.86612949e-01f,-6.66344911e-02f,-2.84971714e-01f,
+1.97740048e-02f,+1.20233677e-01f,-1.24281146e-01f,+1.75807416e-01f,-1.13186061e-01f,
-2.69372407e-02f,-1.34644449e-01f,-1.16565302e-01f,-8.34218860e-02f,+3.70750904e-01f,
-2.42004663e-01f,+2.15296701e-01f,+6.75430149e-02f,-4.68526185e-02f,+2.63964117e-01f,
-4.89012897e-02f,-2.47211251e-02f,+2.58192241e-01f,+1.69449374e-01f,-9.43039954e-02f,
+9.54282470e-03f,+6.79504797e-02f,+1.06865585e-01f,-2.81454027e-01f,-1.77489325e-01f,
+7.98466429e-02f,-1.22672163e-01f,-1.57644048e-01f,+2.30775923e-01f,-7.23613277e-02f,
+3.01845558e-02f,+1.82426453e-01f,+1.65341750e-01f,-1.31215096e-01f,-7.86660686e-02f,
+5.69479525e-01f,+4.47674096e-02f,+1.45968273e-01f,+2.49644332e-02f,+3.64590079e-01f,
+3.44129980e-01f,-2.56305113e-02f,-9.67630520e-02f,-1.22674093e-01f,+5.61807230e-02f,
-2.85270661e-01f,-1.64273366e-01f,-6.92388862e-02f,-2.90622991e-02f,+1.88889921e-01f,
-1.77854970e-01f,-2.01268308e-02f,-1.18050732e-01f,+2.01341331e-01f,-1.64238796e-01f,
+2.24613547e-01f,+3.05649966e-01f,+8.92104208e-02f,-4.74458672e-02f,-4.63925162e-03f,
-1.12021543e-01f,+2.76092947e-01f,+1.42564237e-01f,+4.68332954e-02f,-7.13702142e-02f,
-2.20398679e-02f,+3.61171886e-02f,-1.03497989e-02f,-1.93445176e-01f,-1.56379163e-01f,
-4.74825455e-03f,+1.29125550e-01f,+7.52334595e-02f,+1.87633205e-02f,+9.01921540e-02f,
-3.96206200e-01f,-2.55375840e-02f,+4.08543050e-02f,+2.38858536e-01f,-1.93806916e-01f,
-1.38839588e-01f,-9.98775959e-02f,+2.95136034e-01f,+6.39799312e-02f,-3.49297747e-02f,
-6.27491921e-02f,+4.71410066e-01f,+1.18636727e-01f,-9.93805900e-02f,-2.81016499e-01f,
-3.82989161e-02f,-1.30398467e-01f,+1.26811013e-01f,-3.72409552e-01f,-5.48704481e-03f,
-2.20528860e-02f,+8.88820663e-02f,+3.87704015e-01f,-2.01230831e-02f,-9.89706665e-02f,
+9.91064310e-02f,+6.11534342e-02f,+7.38043785e-02f,+1.20662795e-02f,-5.97643182e-02f,
+1.29851818e-01f,+1.72369525e-01f,+2.02182665e-01f,+1.53482497e-01f,+9.01491344e-02f,
-1.18082337e-01f,-6.22851104e-02f,+2.59347111e-01f,-1.15702793e-01f,-2.05822557e-01f,
-1.51949421e-01f,+2.55564153e-01f,-2.67098378e-02f,-7.51299411e-02f,+2.02170953e-01f,
+2.55439401e-01f,+1.38959795e-01f,+3.47478062e-01f,+2.84598712e-02f,+1.83774754e-02f,
-1.46497324e-01f,-1.81257874e-01f,+1.82132632e-01f,+2.08704799e-01f,+9.76606533e-02f,
+4.92603153e-01f,+3.33455019e-02f,+1.16332881e-01f,-2.34352350e-01f,-4.52238619e-02f,
+7.66508207e-02f,+2.62744054e-02f,-2.66252607e-01f,+8.30491483e-02f,+3.22724581e-01f,
+1.85889885e-01f,-3.68649177e-02f,-2.35066153e-02f,+1.47408023e-01f,+7.53425658e-02f,
+3.35591584e-02f,-2.18734816e-02f,+1.12151355e-01f,-3.03938001e-01f,+2.08172262e-01f,
-3.39907929e-02f,+1.12656049e-01f,-2.41824519e-02f,+2.11473759e-02f,+1.63227934e-02f,
+5.06918058e-02f,+9.06822011e-02f,-3.03198490e-02f,+4.68358025e-02f,+1.47026330e-01f,
+2.39277668e-02f,+1.00276507e-01f,+1.10318646e-01f,-5.31163141e-02f,+6.24392569e-01f,
-2.98397660e-01f,+1.88331962e-01f,+1.08335622e-01f,-1.38067365e-01f,-3.94060016e-02f,
+7.09137414e-03f,+2.75512844e-01f,-7.99409002e-02f,+7.81865194e-02f,+5.88307194e-02f,
-3.55861068e-01f,-1.88205197e-01f,-2.39373352e-02f,+2.60851622e-01f,-2.18405500e-01f,
-8.00918043e-02f,+3.48191649e-01f,+3.39673668e-01f,-9.25262421e-02f,+2.57286608e-01f,
+4.95138764e-03f,-3.44653353e-02f,+8.48757774e-02f,+1.05825722e-01f,+1.80136204e-01f,
-2.78433748e-02f,+5.56815008e-04f,-1.97533667e-01f,-2.14555889e-01f,-2.08521355e-03f,
+9.78463516e-02f,-2.29117587e-01f,+5.13808653e-02f,-2.73759011e-02f,+9.60820988e-02f,
+1.20304059e-02f,+1.23762146e-01f,-3.74823213e-02f,-9.95825678e-02f,-8.23391527e-02f,
+1.00656338e-01f,+4.87191183e-03f,-5.12860790e-02f,-3.11858207e-01f,+1.90406814e-01f,
+2.19624992e-02f,+2.47741565e-01f,+2.44296156e-02f,-1.82942554e-01f,-2.22592726e-01f,
+1.08985275e-01f,-1.06577449e-01f,+1.19824745e-01f,+9.23333168e-02f,-1.77437644e-02f,
-5.49831465e-02f,+4.20480579e-01f,-2.84294873e-01f,+1.84968904e-01f,+8.45286772e-02f,
+2.55652666e-01f,+3.99475813e-01f,+5.90077378e-02f,+3.14240195e-02f,+1.60905495e-01f,
-2.01318368e-01f,-1.93999514e-01f,-1.53617680e-01f,+1.61994055e-01f,+4.41474691e-02f,
-2.37376556e-01f,-2.87144035e-01f,-2.96154413e-02f,-9.99641716e-02f,+2.05733016e-01f,
+2.02809840e-01f,+2.11708188e-01f,-3.73371869e-01f,-5.25072068e-02f,-6.18973449e-02f,
+7.57235810e-02f,+1.44019634e-01f,-4.27545933e-03f,-1.23497888e-01f,-9.88276526e-02f,
-1.00273220e-02f,+1.95743337e-01f,+2.24489093e-01f,+1.27912551e-01f,+2.22518370e-01f,
+2.65662005e-04f,-6.13883361e-02f,+5.49867190e-02f,+9.50427279e-02f,+4.37184125e-01f,
+3.57802324e-02f,+3.31928343e-01f,-9.77944862e-03f,+2.40706608e-01f,-1.96210910e-02f,
+1.81368925e-02f,-1.48416072e-01f,+1.68922916e-01f,-1.45576209e-01f,+1.32314548e-01f,
-1.16415583e-02f,-9.44126844e-02f,+4.30434681e-02f,-7.84634724e-02f,-2.79365122e-01f,
-1.53442040e-01f,-2.53268003e-01f,+8.16505924e-02f,+4.72797364e-01f,+4.68496233e-01f,
-2.14741230e-01f,-1.15677826e-01f,-1.50733501e-01f,-1.02670290e-01f,-3.78683954e-02f,
-1.69891994e-02f,-1.76622078e-01f,+3.18491369e-01f,+4.00686003e-02f,+6.58359975e-02f,
+3.23976636e-01f,+1.00953855e-01f,+1.56360656e-01f,-2.30438411e-01f,+5.65661192e-02f,
+8.48512575e-02f,+4.18247953e-02f,-3.25355470e-01f,+1.53866440e-01f,+2.43949518e-01f,
+1.92285374e-01f,-9.45088570e-04f,-1.04353972e-01f,-2.49819994e-01f,+4.10435140e-01f,
-1.20714240e-01f,+9.55118388e-02f,-1.93004906e-01f,+2.14094073e-01f,-3.43766510e-01f,
+2.49922603e-01f,-2.28828058e-01f,+7.96020329e-02f,-9.93563235e-02f,-3.61067861e-01f,
+1.75593235e-02f,-2.15553548e-02f,-2.80130319e-02f,+3.62021565e-01f,-5.19176871e-02f,
+1.75549865e-01f,-8.77920911e-02f,+1.62470460e-01f,-4.06674389e-03f,+4.05115217e-01f,
+1.60959587e-01f,+3.03280532e-01f,-1.99135974e-01f,-3.11454106e-02f,-4.37809341e-02f,
+9.91281494e-02f,-7.46796131e-02f,-6.39225394e-02f,-4.13491875e-01f,-4.38289493e-01f,
+1.33238211e-01f,+6.30287454e-03f,+6.19246550e-02f,-1.19284943e-01f,+7.85160884e-02f,
-1.08158328e-01f,+2.66660690e-01f,-7.26792216e-02f,-1.60319075e-01f,+2.01681286e-01f,
-1.32316602e-02f,-1.36392172e-02f,-1.52043566e-01f,-1.14213545e-02f,+1.97327867e-01f,
+6.54754601e-03f,-2.27831185e-01f,-2.61820406e-01f,-4.40817587e-02f,+1.65698603e-02f,
-4.83740456e-02f,+1.81686103e-01f,-1.70047767e-02f,+1.38289735e-01f,-4.47105952e-02f,
+3.82059842e-01f,-5.98397627e-02f,+7.71473721e-02f,-1.52986348e-02f,-6.18900433e-02f,
-1.59658492e-02f,+3.44353795e-01f,+8.17345753e-02f,+1.61986575e-01f,-1.28519386e-01f,
+2.30360422e-02f,+5.34993857e-02f,-4.67085280e-02f,-3.04027617e-01f,+2.72377640e-01f,
-6.13023601e-02f,-6.66863238e-03f,-3.47263552e-02f,+3.44220519e-01f,-4.60752472e-02f,
+2.31874451e-01f,-2.12916628e-01f,-2.49324199e-02f,+1.24978393e-01f,-1.85659572e-01f,
+8.46649706e-02f,-5.55709526e-02f,+8.58918577e-02f,-2.39720166e-01f,+7.18051046e-02f,
+2.09196299e-01f,+5.11413775e-02f,-1.18263789e-01f,+2.54948437e-01f,-1.70432497e-02f,
+1.86299503e-01f,-3.57269123e-02f,+3.86890978e-01f,+4.97989170e-02f,+1.64751053e-01f,
-2.75945943e-02f,-6.96335435e-02f,+6.68256208e-02f,+2.77163684e-01f,-7.58512840e-02f,
+1.49236947e-01f,-2.77742267e-01f,-7.08235055e-02f,+3.35163742e-01f,-1.64712995e-01f,
-1.25767365e-01f,-6.92066327e-02f,+3.34534734e-01f,-7.11376371e-04f,+4.59640741e-01f,
+3.05484325e-01f,+2.12521493e-01f,+2.44699284e-01f,+1.74438879e-01f,+1.81945756e-01f,
-4.55801964e-01f,-4.69267756e-01f,+1.18025757e-01f,+7.05849305e-02f,+5.70153818e-02f,
-1.31583735e-01f,+4.09034491e-02f,+2.46379748e-02f,+2.58498937e-01f,-7.36671090e-02f,
+1.91512983e-02f,-1.20104827e-01f,+3.54863673e-01f,-3.43799815e-02f,-8.68138373e-02f,
+1.98727593e-01f,-5.63999489e-02f,-1.33648720e-02f,-1.74800251e-02f,-1.30315274e-01f,
-3.04498613e-01f,-1.31364912e-01f,+8.42805835e-04f,-7.31647238e-02f,-3.20183396e-01f,
+2.85345823e-01f,+7.21844956e-02f,+2.08630204e-01f,+3.04002345e-01f,+2.74489760e-01f,
+1.71734974e-01f,+2.96870679e-01f,+6.74191816e-03f,-1.09994568e-01f,-1.62592530e-01f,
+8.77527222e-02f,-1.09919645e-01f,+6.07188120e-02f,+5.82862198e-02f,-1.69883505e-01f,
+1.34020284e-01f,+5.62076271e-02f,+2.94880420e-01f,+1.68986455e-01f,+1.96180716e-01f,
-5.57808764e-02f,+7.68823549e-02f,-5.75675294e-02f,+1.41502410e-01f,+9.02301446e-02f,
-2.79161148e-02f,+2.02424660e-01f,+4.64312285e-02f,+1.17014602e-01f,-3.20488513e-02f,
+3.42135392e-02f,+1.02106437e-01f,-6.91842958e-02f,-1.89483121e-01f,-2.33236119e-01f,
+1.08796917e-01f,-1.98169008e-01f,+5.03841452e-02f,+2.86868736e-02f,+1.51071429e-01f,
-2.36046370e-02f,-1.03029376e-02f,-2.41530657e-01f,-1.51050702e-01f,+3.99506465e-02f,
-2.73939632e-02f,+2.11436152e-01f,+2.82559752e-01f,-6.81267381e-02f,-1.05028383e-01f,
+1.55566439e-01f,-1.71876490e-01f,+4.05611098e-01f,-4.69914265e-02f,-4.43274416e-02f,
+4.07973289e-01f,-3.38666141e-01f,-9.82782915e-02f,-7.88261741e-03f,+1.96763396e-01f,
-1.08729139e-01f,+6.01804182e-02f,+1.40346169e-01f,-1.30592421e-01f,+4.21889760e-02f,
+5.51472977e-02f,+9.32347961e-04f,-1.60012484e-01f,+3.18179987e-02f,-3.14590558e-02f,
-1.34429380e-01f,+4.82540466e-02f,-1.79662168e-01f,-2.29856372e-02f,-1.20859087e-01f,
+2.70237833e-01f,+6.76732790e-03f,+9.25636515e-02f,-1.95932567e-01f,-4.38286066e-02f,
+2.21769344e-02f,-1.67473271e-01f,+5.02245367e-01f,+2.91041415e-02f,-1.61118358e-01f,
-6.62703738e-02f,+1.07993573e-01f,+1.12835765e-01f,+1.73311517e-01f,-2.24183425e-01f,
+7.23735690e-02f,+9.96455401e-02f,+3.40965509e-01f,+2.10845158e-01f,-4.23194945e-01f,
-3.27564739e-02f,+1.61786169e-01f,+1.51492700e-01f,+1.52942285e-01f,-2.34379023e-01f,
+1.95790697e-02f,+2.56373525e-01f,+6.38791397e-02f,+2.98719376e-01f,-1.74569771e-01f,
+1.12306818e-01f,-3.28599930e-01f,+2.40549874e-02f,-3.57352896e-04f,-1.74184635e-01f,
+3.14648658e-01f,-2.82420754e-01f,-7.03698471e-02f,+1.24349363e-01f,-2.89632201e-01f,
+6.83611184e-02f,+6.02791309e-02f,+4.36583489e-01f,+1.36387616e-01f,-2.74719559e-02f,
+4.35597301e-02f,+3.69157165e-01f,+1.38402283e-01f,-1.12389423e-01f,+1.72998980e-01f,
+9.39382538e-02f,-1.23161860e-01f,+7.25593716e-02f,-1.26525760e-01f,-1.18170958e-02f,
+1.09900944e-01f,+1.01549201e-01f,+3.22616249e-01f,-8.12128261e-02f,-7.38234371e-02f,
+8.06616321e-02f,+9.63656697e-03f,+1.11554444e-01f,+1.02719873e-01f,+1.07206115e-02f,
+8.60240832e-02f,-8.07578415e-02f,-1.01520367e-01f,+1.40903100e-01f,-1.31141469e-01f,
+4.08163905e-01f,-7.73713663e-02f,+2.82047033e-01f,+1.71920568e-01f,+3.31734419e-02f,
+2.90965647e-01f,+2.37002134e-01f,+1.11669198e-01f,+1.97537750e-01f,-1.06654033e-01f,
+1.24099292e-01f,+1.53498322e-01f,-2.10061520e-01f,+1.70609683e-01f,+2.50868648e-01f,
+1.74890250e-01f,+1.67993158e-01f,-1.55667355e-02f,-1.21391363e-01f,-1.92108173e-02f,
-1.25392243e-01f,+1.00968562e-01f,-1.41263291e-01f,+1.25167400e-01f,-3.39945674e-01f,
+2.90683960e-03f,+2.10292086e-01f,-4.14992832e-02f,+1.39072919e-02f,+1.18716165e-01f,
+6.55325055e-02f,+5.99407256e-02f,-2.88981684e-02f,+1.30917966e-01f,-3.70253362e-02f,
+2.23353982e-01f,+5.08268690e-03f,+8.68907198e-02f,+1.24489151e-01f,+3.29613507e-01f,
-1.20111696e-01f,+7.89474323e-02f,-1.33512005e-01f,+3.52182724e-02f,-1.43956721e-01f,
-1.91487789e-01f,-1.45576462e-01f,-2.02967655e-02f,-2.67968755e-02f,-8.83319303e-02f,
+5.85698895e-02f,+8.74510854e-02f,+9.47508737e-02f,+3.83489966e-01f,+2.30801962e-02f,
+5.87009341e-02f,-5.43945909e-01f,-1.09321341e-01f,-1.47184372e-01f,-5.57408333e-02f,
-6.82010353e-02f,+1.88108861e-01f,+2.95784086e-01f,-3.64323966e-02f,+6.78020939e-02f,
-3.04188788e-01f,+2.44924635e-01f,+2.01532125e-01f,-8.25320408e-02f,+3.23352724e-01f,
+2.13182822e-01f,+1.91855580e-01f,+1.46414831e-01f,-2.22377002e-01f,+8.42570588e-02f,
+7.69792646e-02f,+1.36121050e-01f,+2.99527496e-01f,+3.27808052e-01f,-1.87214851e-01f,
+1.35173440e-01f,-6.56386614e-02f,-2.65975706e-02f,+1.28970787e-01f,-8.45041592e-03f,
-5.05462140e-02f,+1.22743629e-01f,-1.59421578e-01f,-6.52602874e-03f,+7.94045553e-02f,
-9.66978371e-02f,+2.54402488e-01f,-7.78189600e-02f,-1.47522822e-01f,-1.52233794e-01f,
+1.28626421e-01f,-7.53192604e-02f,-2.55074710e-01f,-1.57571569e-01f,+8.50700587e-02f,
-1.72930524e-01f,-1.38669401e-01f,+1.84231251e-01f,+5.91643825e-02f,-1.05098881e-01f,
+9.04454887e-02f,+1.35795936e-01f,+2.11979672e-02f,-2.57015586e-01f,-1.43094316e-01f,
+1.73276260e-01f,+1.98586106e-01f,-5.45325875e-01f,+6.85938150e-02f,+3.71537745e-01f,
-4.95055281e-02f,+1.83229417e-01f,-3.29544663e-01f,+1.40158936e-01f,+2.16796920e-01f,
-1.14746824e-01f,-1.20328709e-01f,-3.77114385e-01f,+2.84897201e-02f,+1.85782820e-01f,
-8.25739801e-02f,+3.57510090e-01f,+2.99185783e-01f,-7.44397715e-02f,-2.65755355e-01f,
-1.41725659e-01f,+1.42387539e-01f,+2.28238814e-02f,+8.85889232e-02f,+2.53051817e-02f,
+2.41897419e-01f,-7.45310506e-04f,-1.86866567e-01f,+2.20760301e-01f,+3.12617004e-01f,
+3.50673981e-02f,+1.01409361e-01f,-3.29215318e-01f,+2.10995786e-02f,-2.21265052e-02f,
+3.27409953e-01f,-2.41512865e-01f,+1.88651919e-01f,+2.57690474e-02f,+2.16422588e-01f,
+1.73172474e-01f,+1.00507624e-01f,+2.25115702e-01f,-1.69651911e-01f,-8.60411227e-02f,
+2.01662973e-01f,-7.76839852e-02f,+6.57302290e-02f,-1.31979426e-02f,-9.24708843e-02f,
+5.90196028e-02f,+6.16773777e-02f,-9.29965898e-02f,-1.25820726e-01f,-4.41366173e-02f,
-1.94681641e-02f,-3.87193188e-02f,-1.96777984e-01f,+3.01358759e-01f,+4.61236574e-02f,
+4.04106826e-02f,+3.46489139e-02f,+3.42314482e-01f,+2.39202991e-01f,+1.64108321e-01f,
-3.34454291e-02f,-2.34028831e-01f,+1.93444580e-01f,-2.21906565e-02f,-1.81679558e-02f,
-1.08255655e-01f,+1.05122827e-01f,+1.55139193e-01f,+7.76150904e-04f,-5.77205271e-02f,
-9.68775675e-02f,-9.91876945e-02f,-5.54523952e-02f,+1.04405880e-01f,+2.09867388e-01f,
+9.50420275e-02f,+1.09240644e-01f,-2.55664647e-01f,-1.90096870e-02f,-2.53861165e-03f,
+2.18872353e-01f,+3.21460664e-01f,-1.21287026e-01f,+3.76808969e-03f,+6.19251765e-02f,
+2.33441107e-02f,-1.07782297e-01f,-9.30682104e-03f,-4.19605523e-02f,+1.85148984e-01f,
+1.54414907e-01f,+1.93109617e-01f,-3.10663283e-01f,+3.17040123e-02f,+7.57547319e-02f,
-9.16197374e-02f,-1.50967538e-01f,-1.26525715e-01f,-1.31856233e-01f,-4.14962322e-02f,
+2.90927798e-01f,-2.31404020e-03f,-4.93678404e-03f,+6.48813248e-02f,-1.44749120e-01f,
+1.64578274e-01f,+3.42971236e-01f,+1.54077068e-01f,-1.83406975e-02f,-4.01374489e-01f,
+2.37460211e-01f,+3.82823832e-02f,+5.99058904e-02f,-6.33904040e-02f,+6.00384474e-02f,
+3.76034528e-01f,+9.29833055e-02f,-2.12164238e-01f,-2.31208459e-01f,+1.50389940e-01f,
-1.02982959e-02f,+1.01277821e-01f,-1.20680034e-01f,-1.36905000e-01f,+4.81876612e-01f,
+7.43646324e-02f,+1.41209960e-01f,+2.37260312e-01f,+7.60710835e-02f,-8.78269747e-02f,
+1.81090415e-01f,-2.67575651e-01f,+2.17920598e-02f,-2.52588123e-01f,-6.30285591e-02f,
+1.59024566e-01f,-2.97127385e-02f,+5.04762568e-02f,-1.67059585e-01f,-7.56476596e-02f,
+4.15353209e-01f,+7.97204897e-02f,+1.92605644e-01f,+7.72139803e-02f,-6.53897598e-02f,
+1.18682683e-01f,+2.46690996e-02f,-4.09115314e-01f,-1.34679988e-01f,+9.74156186e-02f,
+1.01438530e-01f,+2.79117346e-01f,+1.41157225e-01f,-1.66683689e-01f,-1.34331167e-01f,
+2.76559830e-01f,+9.88963991e-02f,+2.10985258e-01f,+4.67792928e-01f,-1.00032143e-01f,
+2.61568725e-01f,-1.91193596e-01f,-1.27354756e-01f,+6.25062585e-02f,+2.79751986e-01f,
-1.53873563e-01f,+8.80909264e-02f,+1.74656827e-02f,+1.91525687e-02f,-1.78058937e-01f,
-1.28786594e-01f,-5.46153858e-02f,-2.91244090e-01f,-6.77263960e-02f,-3.80735323e-02f,
-6.60363510e-02f,+3.93570177e-02f,-1.51760101e-01f,+2.42061362e-01f,-9.93410796e-02f,
-1.99834146e-02f,+1.05536357e-01f,+1.28527004e-02f,+4.58823219e-02f,-7.96673521e-02f,
-4.27701622e-02f,+1.58311594e-02f,+4.57027480e-02f,-5.09198904e-02f,+9.53204036e-02f,
+3.15672792e-02f,+3.24812889e-01f,-3.90125923e-02f,-1.43736690e-01f,+8.94354209e-02f,
-2.15098217e-01f,-1.80530790e-02f,+5.91268688e-02f,+6.30299821e-02f,+1.47042558e-01f,
-5.62014282e-02f,+9.94317681e-02f,+1.99505895e-01f,-9.43761226e-03f,+1.91409737e-01f,
+1.34713143e-01f,+4.86947075e-02f,-5.60145341e-02f,+1.33743426e-02f,-2.42563292e-01f,
+4.39797938e-02f,-5.02301417e-02f,+1.81493573e-02f,-6.15982264e-02f,-2.65702546e-01f,
+1.35326788e-01f,+1.87411591e-01f,-3.71714026e-01f,+9.33250710e-02f,-2.22263619e-01f,
-1.00020014e-01f,+3.72685909e-01f,+2.33332753e-01f,-1.10531580e-02f,+5.95835038e-02f,
+1.64461266e-02f,+2.70625483e-02f,+1.91180736e-01f,-1.56970546e-01f,-4.24175411e-02f,
+3.19394439e-01f,+2.19145641e-01f,-1.72683671e-01f,+1.90900043e-01f,-1.47452861e-01f,
-2.73687929e-01f,-2.29022115e-01f,+7.34872445e-02f,+1.34212554e-01f,-1.32733926e-01f,
+8.89461860e-03f,+3.61124873e-01f,-2.40042210e-01f,-1.18856750e-01f,-1.69179856e-03f,
-1.15089588e-01f,-1.12134382e-01f,+7.41593465e-02f,-1.43704787e-01f,+2.19359659e-02f,
-2.74577104e-02f,+1.70131430e-01f,+1.10326894e-01f,+1.98797524e-01f,+1.45224974e-01f,
+4.74912189e-02f,-5.16855903e-02f,-1.81168467e-02f,+1.52758971e-01f,-2.60205984e-01f,
+1.48493513e-01f,+1.58770919e-01f,-5.62586039e-02f,-1.74810141e-01f,+9.44832414e-02f,
+3.47824931e-01f,+1.09769829e-01f,+1.61416188e-01f,-5.10467440e-02f,+1.32639512e-01f,
-1.05989531e-01f,+1.61582755e-03f,-3.01979035e-01f,+3.07166904e-01f,-2.42700372e-02f,
-1.05638713e-01f,+2.08992399e-02f,+3.03070098e-02f,-1.82130069e-01f,-5.45291379e-02f,
-2.39687696e-01f,+1.73726156e-01f,+5.51433027e-01f,-5.83980121e-02f,-1.52733162e-01f,
-1.29721105e-01f,-3.81756313e-02f,+7.81234652e-02f,+1.91680446e-01f,+1.29648075e-01f,
+5.02347872e-02f,+1.28292069e-01f,-4.60147224e-02f,-8.01267326e-02f,-8.23926460e-03f,
+1.91718161e-01f,-4.40498032e-02f,+7.14881048e-02f,+6.93493113e-02f,+7.57776126e-02f,
-2.23371372e-01f,+2.71236241e-01f,+3.18697244e-01f,-3.19862217e-02f,+4.77439314e-02f,
-5.72814941e-02f,+4.35477942e-01f,+1.02521934e-01f,+2.95994401e-01f,-2.22006422e-02f,
-1.81729689e-01f,-1.14846155e-01f,-7.16080070e-02f,+1.88891545e-01f,+4.42386754e-02f,
+1.65152118e-01f,+1.62840068e-01f,+3.76266949e-02f,+3.32438409e-01f,+3.06169093e-01f,
-1.84178323e-01f,+2.52197891e-01f,-5.78078404e-02f,+2.33538941e-01f,+6.54645711e-02f,
-1.01070836e-01f,-9.88679230e-02f,-6.68319762e-02f,+4.45228964e-02f,+3.35387021e-01f,
+2.84433141e-02f,+8.87060538e-02f,-8.36206134e-03f,+1.95705950e-01f,+3.49875502e-02f,
-2.65037566e-01f,-6.08841702e-02f,-7.29470924e-02f,+1.19894417e-02f,+1.70901835e-01f,
+1.99744269e-01f,-8.47484693e-02f,+5.66456877e-02f,-8.59270766e-02f,+6.55547976e-02f,
+1.81278840e-01f,-1.67692304e-01f,-7.12679401e-02f,+1.85562223e-01f,+1.44548371e-01f,
-2.29363933e-01f,+3.12589593e-02f,+6.06701933e-02f,-1.94739521e-01f,-1.18369602e-01f,
-1.54091641e-01f,+2.98441201e-01f,-7.22161829e-02f,+5.86177129e-03f,+1.45106643e-01f,
-1.04463935e-01f,+4.53975737e-01f,-1.87136844e-01f,+3.24628986e-02f,-1.19316138e-01f,
+8.88318270e-02f,+4.37467098e-02f,-5.09505626e-03f,-1.60332769e-01f,-1.13433897e-01f,
+1.22338645e-01f,-1.58582374e-01f,+5.23572624e-01f,+1.28477916e-01f,+1.49678946e-01f,
+9.45520848e-02f,+7.95283169e-02f,+3.13566953e-01f,+8.82874355e-02f,-5.37407510e-02f,
+1.56047359e-01f,+1.15053363e-01f,-3.79974186e-01f,+2.82763373e-02f,+1.58312380e-01f,
-4.36930172e-02f,+9.59853977e-02f,+1.30728647e-01f,+1.06088713e-01f,-1.04627758e-01f,
-2.94344515e-01f,+7.04941750e-02f,+2.81554282e-01f,+1.45170288e-02f,-2.25139096e-01f,
+1.74775091e-03f,+1.71117902e-01f,-2.58042216e-01f,-2.78737280e-03f,+2.66038328e-01f,
-8.74366239e-02f,+4.87100571e-01f,-9.17374045e-02f,-4.28236201e-02f,-7.30728507e-02f,
+7.15434849e-02f,+7.68121928e-02f,+1.02543592e-01f,-2.81338274e-01f,-4.49751914e-01f,
-1.08392186e-01f,-6.42742380e-04f,+1.00836158e-01f,-6.05690442e-02f,-1.72977865e-01f,
-6.63521945e-01f,+6.53693676e-02f,-1.48747161e-01f,+2.07045391e-01f,-6.63406923e-02f,
-1.63840011e-01f,+5.31639643e-02f,+2.74098992e-01f,+1.40176266e-01f,-3.30289192e-02f,
-2.88585007e-01f,+4.31837663e-02f,-1.41341925e-01f,-1.02370165e-01f,-1.94018215e-01f,
-6.72632158e-02f,+6.34790212e-02f,+2.74109274e-01f,+2.40736380e-02f,+2.82559954e-02f,
-1.60881430e-01f,-1.04289092e-02f,+3.68275583e-01f,-4.97549653e-01f,-7.04897791e-02f,
+7.36196265e-02f,-7.00365454e-02f,-4.11050804e-02f,-2.70553440e-01f,+4.43954878e-02f,
-1.90643921e-01f,-7.00333482e-03f,-1.78926498e-01f,-4.77258302e-03f,+9.56345201e-02f,
-9.55456719e-02f,-3.63229401e-02f,+1.88733771e-01f,+4.28483218e-01f,+1.65938407e-01f,
-2.71692604e-01f,+1.71768978e-01f,-5.36835492e-02f,-2.93843210e-01f,-2.86328524e-01f,
+2.79134847e-02f,-3.09877116e-02f,+6.64216429e-02f,-4.76344749e-02f,-7.85742998e-02f,
-1.48581997e-01f,+6.05978444e-03f,-5.34521155e-02f,+2.01553956e-01f,-8.87430683e-02f,
+1.03155728e-02f,+3.40556026e-01f,+2.95261234e-01f,-7.12036788e-02f,+2.54232474e-02f,
+1.04064800e-01f,+1.12192735e-01f,+1.12360157e-01f,+1.27227515e-01f,-1.15575284e-01f,
+4.83918972e-02f,+2.16846868e-01f,+3.88621874e-02f,-3.19555663e-02f,-3.04855824e-01f,
+7.08497986e-02f,+4.18989331e-01f,-3.87586839e-02f,+6.21038154e-02f,+2.43883178e-01f,
+4.38958034e-02f,-3.15164886e-02f,+1.94279417e-01f,-2.99934596e-01f,-1.70827970e-01f,
-1.24339387e-01f,+2.00602815e-01f,+2.35973805e-01f,+2.01897800e-01f,+2.50490218e-01f,
-1.45267040e-01f,-1.28177656e-02f,-5.36304079e-02f,+1.55404187e-03f,+7.32595250e-02f,
+3.59969353e-03f,+9.94825810e-02f,+1.37165010e-01f,-4.10161726e-02f,+3.47942829e-01f,
+1.35775939e-01f,-5.85808866e-02f,+5.52742891e-02f,-7.53286928e-02f,-1.71954334e-02f,
+2.06385523e-01f,-8.56693089e-02f,+2.28494883e-01f,-1.51517034e-01f,+5.60448058e-02f,
-1.01231538e-01f,-2.18781587e-02f,+1.93299115e-01f,+5.87456748e-02f,+1.58982873e-01f,
+7.62853324e-02f,-5.18309288e-02f,-1.06011502e-01f,+1.15410537e-02f,-1.71214670e-01f,
+1.75800309e-01f,+2.62064427e-01f,+1.49126410e-01f,+7.31209517e-02f,+9.27623510e-02f,
+3.78639214e-02f,+2.24509045e-01f,+1.53311893e-01f,+4.77632135e-02f,-1.10532261e-01f,
-1.06966510e-01f,-4.43768781e-03f,+1.82582751e-01f,-1.16941202e-02f,+2.96318941e-02f,
+2.11461306e-01f,-8.98427516e-02f,-1.19041137e-01f,+1.34868808e-02f,-2.30297502e-02f,
+1.16103284e-01f,+1.17485665e-01f,-3.50755639e-02f,-4.17414933e-01f,-6.25101328e-02f,
+7.85170197e-02f,-2.78904606e-02f,-2.54454404e-01f,-1.35785013e-01f,+3.29250991e-01f,
+1.78420931e-01f,-4.76989746e-01f,-1.59560755e-01f,-1.95449576e-01f,-7.04009235e-02f,
-1.13503106e-01f,-1.16040669e-01f,+3.45301591e-02f,-7.15345815e-02f,+2.12809980e-01f,
+2.39410978e-02f,+2.24618018e-01f,+7.45945275e-02f,+2.46787593e-02f,-5.73758818e-02f,
-1.17166661e-01f,+9.90674123e-02f,+5.44803329e-02f,-1.63572773e-01f,-1.02484204e-01f,
+1.45355895e-01f,+9.40832421e-02f,-2.65709698e-01f,+2.19569549e-01f,+5.92226349e-02f,
-7.41737634e-02f,+1.35937795e-01f,+9.90701467e-02f,+1.49337560e-01f,+1.13448530e-01f,
+2.17346698e-01f,-2.79421180e-01f,+3.31222624e-01f,+1.55884668e-01f,+1.50049388e-01f,
-1.22870125e-01f,+1.32105067e-01f,+5.96157126e-02f,-5.82721569e-02f,-1.89182460e-01f,
+2.31966704e-01f,-2.16617778e-01f,-3.08641102e-02f,+2.88864613e-01f,+1.17716849e-01f,
+3.56877893e-02f,-9.46565419e-02f,+2.40553916e-01f,+3.08386624e-01f,+1.91926464e-01f,
+2.76485011e-02f,-1.18482802e-02f,-8.64758119e-02f,-6.71673492e-02f,+4.29981314e-02f,
+1.65330887e-01f,+9.29135978e-02f,-3.18652958e-01f,-2.05290496e-01f,+3.21464032e-01f,
+2.50429243e-01f,+4.25833501e-02f,-2.55701602e-01f,-9.68601257e-02f,+8.43747109e-02f,
-1.69049814e-01f,-2.69345015e-01f,+4.31725651e-01f,-4.72276248e-02f,+2.34857559e-01f,
-6.21758513e-02f,-9.89762098e-02f,-1.27160564e-01f,+1.03254870e-01f,+2.13904902e-01f,
+2.53869444e-01f,+1.50685087e-01f,+2.01801911e-01f,-1.35903833e-02f,+8.73863399e-02f,
+6.94798455e-02f,-5.60602464e-04f,-1.72633235e-03f,+3.17905322e-02f,-1.59951136e-01f,
-1.69296227e-02f,+8.65194947e-02f,+8.98976699e-02f,-8.11263323e-02f,+1.40735861e-02f,
+9.01700929e-02f,+2.50133127e-01f,-4.90249619e-02f,-5.17306365e-02f,+8.26353654e-02f,
-5.78584410e-02f,+7.59652108e-02f,+3.43360938e-02f,+5.32659478e-02f,+2.49264300e-01f,
+1.27385378e-01f,+1.59380853e-01f,-6.80068731e-02f,-1.80265889e-01f,+2.04049245e-01f,
+2.41777673e-01f,+2.69390596e-03f,+8.56554955e-02f,-3.44260819e-02f,+3.76356781e-01f,
+2.44439870e-01f,+3.03741097e-01f,-3.83875936e-01f,-1.25604525e-01f,-9.82999057e-02f,
+1.49387166e-01f,-8.24003965e-02f,+1.87824056e-01f,+1.25612482e-01f,+3.00574601e-01f,
-1.58831105e-01f,+7.61585608e-02f,-1.69852246e-02f,+1.56594589e-02f,+3.75402749e-01f,
-3.15562636e-02f,+6.64559230e-02f,-1.62030131e-01f,+1.85282394e-01f,+1.72386587e-01f,
+3.78671110e-01f,-2.38255203e-01f,-1.23618245e-01f,+1.88358709e-01f,-2.79688656e-01f,
+2.47547477e-01f,-6.32897988e-02f,+1.61318228e-01f,-1.71075419e-01f,+8.59544650e-02f,
-3.94925624e-02f,+7.18213096e-02f,-5.04293106e-02f,+2.55532339e-02f,+1.43566594e-01f,
-2.45824322e-01f,-1.09395217e-02f,-8.45326111e-02f,-3.14255416e-01f,+3.73661071e-02f,
+5.67040183e-02f,-3.53095978e-02f,+3.45831364e-01f,-6.34531751e-02f,-3.06873806e-02f,
+1.54607430e-01f,-1.62690029e-01f,+1.23848245e-01f,+3.43870878e-01f,+3.15343797e-01f,
+2.25354116e-02f,+2.69617349e-01f,+1.21884517e-01f,+1.74411446e-01f,+2.37229094e-02f,
-2.40728721e-01f,+5.19065633e-02f,-1.52116418e-01f,-2.12013155e-01f,-2.61572808e-01f,
+1.64781753e-02f,-1.09721296e-01f,+4.36946712e-02f,+2.92237494e-02f,+1.71151638e-01f,
+5.33405468e-02f,-1.07949540e-01f,-2.72072613e-01f,+3.83834869e-01f,+3.23773086e-01f,
-1.27889425e-01f,+1.97088391e-01f,-6.40245304e-02f,-7.40778223e-02f,+7.44468719e-02f,
-8.67215842e-02f,-3.37167084e-01f,-1.59305632e-01f,+2.52234548e-01f,+6.38420880e-02f,
-5.73592223e-02f,+1.04918592e-01f,+4.05639336e-02f,+1.32727981e-01f,+1.02960534e-01f,
+1.75055847e-01f,+9.25680920e-02f,-9.08176939e-04f,-3.61467183e-01f,+2.03730613e-01f,
+9.39970762e-02f,+5.13385236e-02f,-1.35179684e-01f,+7.30812037e-03f,+3.65547054e-02f,
-2.84638628e-02f,+1.96550161e-01f,+1.01016663e-01f,+1.41777903e-01f,+1.98356465e-01f,
+4.74782027e-02f,-3.09189767e-01f,-2.73043156e-01f,+1.35972366e-01f,-2.77865916e-01f,
-1.94886681e-02f,+1.89465005e-02f,+6.92056715e-02f,-1.99727640e-01f,+3.74423936e-02f,
+1.83415443e-01f,+4.96720113e-02f,-1.65390566e-01f,+3.22249047e-02f,-8.08777660e-02f,
-7.23441597e-03f,-3.88347149e-01f,+9.99177061e-03f,-6.35926127e-02f,+9.80314463e-02f,
+1.32752061e-01f,+1.30612478e-01f,-1.13516031e-02f,-1.19226269e-01f,-9.78247076e-02f,
+9.39054415e-02f,-2.23730326e-01f,+2.30597317e-01f,+5.46658218e-01f,+4.67842184e-02f,
-5.64329093e-03f,-6.41670302e-02f,+1.12439446e-01f,-3.96851659e-01f,-1.63690507e-01f,
-2.32499130e-02f,+1.85075372e-01f,+8.83363336e-02f,-1.65991127e-01f,+1.37278244e-01f,
-2.49370076e-02f,+1.03502348e-01f,+9.71449316e-02f,+3.97543749e-03f,-3.44764769e-01f,
+1.64574191e-01f,+1.58208102e-01f,+1.02048762e-01f,+5.30454144e-02f,+6.59575462e-02f,
+1.06636949e-01f,-1.67749450e-02f,+2.76690394e-01f,-3.93094085e-02f,-6.75121769e-02f,
+6.03279583e-02f,-1.26261801e-01f,+3.81010398e-02f,-3.67939062e-02f,-1.94193259e-01f,
+2.26839468e-01f,-1.59605533e-01f,-1.35844827e-01f,+7.11702975e-03f,+1.88299343e-01f,
-2.13324130e-01f,-2.27453485e-01f,-1.46490097e-01f,+2.48214588e-01f,+2.20468100e-02f,
+9.37707126e-02f,-2.19195947e-01f,-2.50162214e-01f,+8.12218934e-02f,-4.59725037e-02f,
-4.27045561e-02f,+2.35728696e-01f,+4.29118164e-02f,-2.39267349e-01f,-8.09310749e-02f,
-8.15668553e-02f,+4.23451839e-03f,-2.55691469e-01f,-1.57055289e-01f,-1.01875603e-01f,
+1.07145846e-01f,+1.47471949e-01f,+9.77584496e-02f,+2.18367442e-01f,-4.66717258e-02f,
-8.02464336e-02f,+7.16845319e-02f,+1.33571297e-01f,+1.56729579e-01f,+1.56356975e-01f,
+5.45549951e-02f,-8.18110164e-03f,-2.33419370e-02f,-8.50297213e-02f,+1.77273244e-01f,
+2.76499968e-02f,-9.99897197e-02f,-3.47405046e-01f,+2.08861772e-02f,-1.15954310e-01f,
+2.04485029e-01f,+7.95151293e-02f,+2.38613725e-01f,+2.62322843e-01f,+1.07404046e-01f,
+4.02506888e-02f,-4.19132441e-01f,-1.36167571e-01f,-3.34480077e-01f,-2.43495762e-01f,
+2.35922728e-02f,+2.97993243e-01f,-2.46072352e-01f,-1.46068841e-01f,+9.96621400e-02f,
+2.57798452e-02f,+8.49107057e-02f,-6.82402179e-02f,+1.47254039e-02f,+9.73962769e-02f,
-1.21607460e-01f,+2.84840405e-01f,+2.35469267e-01f,+1.92016304e-01f,-8.40397701e-02f,
-2.85062551e-01f,-1.54256716e-01f,+3.06722522e-01f,+3.36354882e-01f,+1.33305117e-01f,
+1.60173491e-01f,-1.70294661e-02f,-1.04761139e-01f,-1.11160733e-01f,+4.90755308e-03f,
+1.94761395e-01f,-1.75399005e-01f,+1.12740837e-01f,-7.78892776e-03f,+2.06454739e-01f,
+7.22385421e-02f,-4.68025714e-01f,+1.97787717e-01f,+4.54136968e-01f,+2.41363391e-01f,
+5.02737723e-02f,-2.37203073e-02f,+7.83663169e-02f,+2.51002371e-01f,-2.28040107e-02f,
+1.44340366e-01f,+2.87922528e-02f,-1.26988664e-02f,-3.26523669e-02f,-3.29651564e-01f,
+3.91093194e-02f,-2.64403727e-02f,-7.57203400e-02f,-5.78900427e-02f,-9.77711603e-02f,
+3.22963685e-01f,+1.59136608e-01f,+1.52011380e-01f,+1.00004427e-01f,+8.48327503e-02f,
+9.87436175e-02f,-5.16122244e-02f,+2.99313106e-02f,-5.83141595e-02f,-3.17120105e-01f,
+1.73845798e-01f,-1.11488931e-01f,+8.70577917e-02f,-2.85157170e-02f,+2.35967651e-01f,
-9.04762596e-02f,-1.76152661e-01f,+7.61277378e-02f,-2.77884841e-01f,+2.44349271e-01f,
+1.11676455e-01f,-1.38513669e-01f,+3.41454186e-02f,-1.23318195e-01f,+5.35660349e-02f,
-1.24337606e-01f,+6.89404160e-02f,+2.26448104e-01f,+1.78691953e-01f,+6.02142066e-02f,
+4.35306914e-02f,+3.28990728e-01f,+2.09659919e-01f,-8.94172117e-02f,+1.45118758e-01f,
-1.29524246e-01f,+5.71545102e-02f,+2.08981022e-01f,-2.46151879e-01f,+5.18302083e-01f,
-6.93128034e-02f,+4.11793552e-02f,+9.24477354e-02f,-3.52806091e-01f,-1.83467671e-01f,
+3.09130490e-01f,-1.15150779e-01f,+8.32040235e-02f,+7.17263073e-02f,+1.97366178e-01f,
-1.04119755e-01f,-1.15461508e-02f,+1.07020818e-01f,+2.32188981e-02f,+2.57380068e-01f,
+1.34487867e-01f,+2.30567724e-01f,-1.70210481e-01f,-1.28832981e-01f,-2.63568968e-01f,
-1.11677080e-01f,+8.39565042e-03f,+2.77822971e-01f,-2.78254777e-01f,+1.85665637e-01f,
-8.08711872e-02f,-1.48041844e-01f,+1.64721370e-01f,+4.14639562e-02f,-2.41233647e-01f,
-2.61350870e-01f,+1.70911953e-01f,-8.06290135e-02f,+2.93255359e-01f,+1.94240399e-02f,
+6.02703616e-02f,-7.20265955e-02f,-1.04129769e-01f,+1.14405647e-01f,-1.35317624e-01f,
+1.88149810e-02f,+1.41446367e-01f,+1.52655458e-02f,+3.06170881e-01f,+7.08228722e-02f,
+6.05977746e-03f,-3.31903994e-02f,-7.73405433e-02f,+3.85398301e-03f,+2.13869512e-01f,
-2.67781436e-01f,+1.17413148e-01f,+4.79886346e-02f,+7.90883824e-02f,+1.81476727e-01f,
+3.60693666e-03f,+7.77841061e-02f,-3.65224332e-02f,-2.22789153e-01f,-1.82983782e-02f,
+3.59979004e-01f,+1.04757771e-02f,+6.11674190e-02f,+1.40787050e-01f,-2.22787634e-02f,
-2.19525933e-01f,+6.45701811e-02f,+6.09538183e-02f,-2.18771268e-02f,+4.70392220e-03f,
-1.57433420e-01f,+5.39179426e-03f,+1.19034477e-01f,+2.01990873e-01f,+2.74269491e-01f,
+6.90392181e-02f,-1.42629609e-01f,+2.38294363e-01f,+1.24792188e-01f,-1.14935664e-02f,
-5.07050678e-02f,-9.86361504e-02f,-1.03366062e-01f,-7.20415488e-02f,+7.15629980e-02f,
+3.03323239e-01f,+1.83421314e-01f,+4.73963693e-02f,-7.53406286e-02f,+5.47743738e-02f,
+1.33209052e-02f,+1.53010041e-01f,-2.31877804e-01f,+1.86687857e-01f,+1.88709095e-01f,
+2.27004543e-01f,+1.76784154e-02f,-1.16284862e-01f,+6.95070205e-03f,+6.88460693e-02f,
-2.66158003e-02f,-1.04805902e-01f,-4.35981415e-02f,+8.45327452e-02f,+5.07085137e-02f,
-1.56131554e-02f,+3.62370536e-02f,+7.28984084e-03f,+1.07333563e-01f,-8.18929002e-02f,
+3.23667713e-02f,+1.57971963e-01f,+2.26396203e-01f,+3.62294316e-01f,+4.74693701e-02f,
+1.42154768e-01f,-6.42544106e-02f,-1.15790285e-01f,+3.76043990e-02f,-8.84075835e-02f,
+1.03378803e-01f,+1.05442949e-01f,+3.31083983e-02f,+7.74782151e-02f,-3.91837247e-02f,
+2.35220175e-02f,+1.48745567e-01f,-8.92835110e-03f,+1.80413164e-02f,+6.83167651e-02f,
-2.61751682e-01f,+8.59077349e-02f,-1.14516631e-01f,+1.55197904e-01f,+1.46460518e-01f,
+6.82031661e-02f,+2.80526327e-03f,-1.44858763e-01f,+3.64480577e-02f,-6.92083687e-02f,
+2.60472476e-01f,+3.21465023e-02f,+2.22846553e-01f,+3.87025252e-02f,+6.02047518e-02f,
+1.76180862e-02f,+1.83087617e-01f,-6.55581132e-02f,-8.00924003e-02f,+1.62040368e-01f,
+1.40150189e-01f,-1.45463556e-01f,+7.42777959e-02f,+4.34073955e-02f,-2.80087143e-01f,
+1.00005858e-01f,+1.17896892e-01f,+2.77085990e-01f,+3.91831368e-01f,+1.17875986e-01f,
+1.29655600e-01f,-1.76940948e-01f,+3.00681651e-01f,+6.61378205e-02f,+1.31244287e-01f,
+1.18366867e-01f,-6.72773346e-02f,+2.27630902e-02f,+5.37038855e-02f,+9.77247022e-03f,
+9.59679037e-02f,+1.66980177e-01f,-1.49642602e-02f,+3.02658137e-02f,-1.68803245e-01f,
-7.86955357e-02f,+1.80863827e-01f,-1.98467702e-01f,+3.65401693e-02f,+1.99827969e-01f,
+1.36234105e-01f,+1.25406712e-01f,+2.31886860e-02f,+1.48472264e-01f,+6.70358092e-02f,
-9.91353169e-02f,+2.34706238e-01f,+6.42825142e-02f,+1.05450384e-01f,-3.23969215e-01f,
+8.93032998e-02f,+2.90440023e-01f,-1.14423163e-01f,-2.22601146e-01f,+2.78849959e-01f,
-4.38829422e-01f,+1.54768854e-01f,+1.48495391e-01f,-3.19150127e-02f,-1.00685887e-01f,
-9.96265560e-02f,+2.42033035e-01f,+2.86099792e-01f,-1.67484656e-02f,-2.22920217e-02f,
-2.00424567e-02f,-1.06284410e-01f,-1.72654614e-01f,+3.44392836e-01f,+2.35979706e-01f,
-3.62449102e-02f,-2.21922882e-02f,+5.86870238e-02f,-2.65164170e-02f,+8.00284445e-02f,
-1.95987850e-01f,-8.91525447e-02f,+9.96538997e-02f,+6.66340394e-03f,+1.32527813e-01f,
-1.14667669e-01f,+3.42166632e-01f,-4.38196585e-02f,-1.10863678e-01f,+2.21542604e-02f,
-1.13631479e-01f,+8.41934532e-02f,+7.42393583e-02f,+2.08425105e-01f,+9.96287167e-02f,
+1.58989102e-01f,+1.35126337e-01f,+1.58535540e-01f,+2.37966090e-01f,-1.70385554e-01f,
-7.50009343e-02f,-8.25641081e-02f,+5.98378144e-02f,-3.19888145e-02f,+4.73736003e-02f,
+2.05799825e-02f,+1.46733478e-01f,-1.24495858e-02f,-7.64360800e-02f,+1.29242972e-01f,
-3.49097401e-01f,+3.62289213e-02f,-4.68266234e-02f,+5.93728907e-02f,+3.16349119e-01f,
+1.77956559e-02f,+1.14045657e-01f,-3.35734375e-02f,-7.88550749e-02f,-9.99693945e-02f,
+1.64228454e-01f,+2.33154714e-01f,-1.69714227e-01f,-1.27284229e-02f,+1.25593580e-02f,
-1.79712564e-01f,-1.68209076e-01f,-5.42430915e-02f,+5.21798199e-03f,-2.92563252e-02f,
+2.23029733e-01f,-1.07472166e-01f,-1.41023457e-01f,+9.69843864e-02f,+2.46727824e-01f,
+8.49815551e-03f,-1.24297373e-01f,+2.83263251e-02f,+2.31319424e-02f,+2.86129080e-02f,
-2.00089186e-01f,+2.93522924e-02f,+1.78687721e-02f,+3.50454837e-01f,+7.29474053e-02f,
-6.24673963e-02f,-3.39993946e-02f,+2.99132168e-01f,-2.11487100e-01f,-8.02755207e-02f,
-9.29502398e-02f,-8.53281692e-02f,-2.04366967e-01f,+1.29399255e-01f,+5.20021804e-02f,
+2.00446397e-02f,+9.83610228e-02f,+6.63205683e-02f,+1.46872327e-01f,+8.16248581e-02f,
+9.58227366e-02f,+2.71607693e-02f,+3.63249965e-02f,+1.80055231e-01f,+2.11063866e-02f,
-1.54245626e-02f,+1.67001449e-02f,+6.99696988e-02f,+5.20345755e-02f,-3.13957304e-01f,
-1.61153451e-02f,+4.38536331e-02f,+3.90915900e-01f,+3.09104472e-03f,+2.47040376e-01f,
-3.19639325e-01f,+2.43418999e-02f,-7.81447813e-03f,-5.43447211e-02f,-4.14800718e-02f,
+2.35022515e-01f,+2.15579927e-01f,-8.27527121e-02f,-1.59061968e-01f,+1.43625885e-01f,
-8.41561239e-03f,+6.68253144e-03f,-3.37997638e-02f,-7.68636586e-03f,+2.06477493e-01f,
+1.19603701e-01f,+1.82089865e-01f,+8.24911073e-02f,-5.70625663e-02f,-1.83881745e-01f,
+5.52705005e-02f,+1.26640230e-01f,+9.60515290e-02f,+1.62845165e-01f,+4.10356373e-02f,
-1.61966477e-02f,+8.93746130e-03f,+1.04528576e-01f,+5.22213764e-02f,+1.18778028e-01f,
-2.46687144e-01f,+1.91573240e-02f,+2.69873977e-01f,+1.11364916e-01f,+8.47143754e-02f,
+9.76026058e-02f,+1.40348189e-02f,+7.08054900e-02f,-7.33454749e-02f,+1.79473504e-01f,
+3.75063866e-02f,+1.01374708e-01f,-5.51770777e-02f,+1.60147920e-01f,+6.45265356e-02f,
+8.05838481e-02f,+1.25525324e-02f,+7.95525033e-03f,+1.36663869e-01f,+2.35974584e-02f,
+1.59917757e-01f,+1.12278327e-01f,+1.47910133e-01f,-2.51838695e-02f,+3.50849330e-02f,
-2.29257476e-02f,-3.11766230e-02f,+2.37561271e-01f,-8.88705701e-02f,+1.58988237e-02f,
+8.30897093e-02f,+1.42172603e-02f,+1.19857483e-01f,-4.79110852e-02f,+1.19160870e-02f,
+1.56458601e-01f,+4.31823522e-01f,+1.02620766e-01f,-1.91023827e-01f,+1.39327884e-01f,
+6.06102087e-02f,+1.13580674e-01f,+8.15704539e-02f,+9.37940255e-02f,+5.29445969e-02f,
+3.22760269e-02f,+3.12130228e-02f,-7.02139959e-02f,+9.75303650e-02f,-1.80125803e-01f,
-9.79007874e-03f,+9.36718136e-02f,+4.01062034e-02f,+9.64348763e-03f,+2.70501733e-01f,
+3.86943638e-01f,+2.22653169e-02f,+1.28067017e-01f,+5.73075302e-02f,-4.38694507e-02f,
-2.31125820e-02f,+1.46543205e-01f,+1.34971648e-01f,-1.34675100e-01f,+1.02655716e-01f,
+3.32110338e-02f,-2.82068968e-01f,+1.24747725e-02f,+1.15482874e-01f,+3.18104178e-02f,
-1.75537273e-01f,-2.06213325e-01f,-9.11681801e-02f,+1.19887754e-01f,-5.55374771e-02f,
+3.97281647e-01f,-9.29712504e-02f,+2.84499705e-01f,-2.53910661e-01f,+2.22500842e-02f,
-5.12238070e-02f,-1.83150634e-01f,+2.04458944e-02f,+1.08054996e-01f,-3.54944497e-01f,
+1.22218728e-02f,+5.71706034e-02f,+1.12975352e-01f,-1.76769972e-01f,-3.27183306e-02f,
+1.72401935e-01f,-4.28925268e-03f,-8.34548920e-02f,-4.47983965e-02f,-8.16529617e-03f,
+1.37657583e-01f,-1.34918422e-01f,+1.97612658e-01f,-1.15707666e-01f,-9.91378631e-03f,
+7.11535662e-03f,+3.90478581e-01f,+9.16598886e-02f,-4.62827235e-02f,-2.44740412e-01f,
-1.61691695e-01f,+1.45482585e-01f,+2.72601806e-02f,+2.04211235e-01f,-2.15422034e-01f,
-4.63965423e-02f,+1.62730113e-01f,-7.60327801e-02f,-4.84152883e-02f,+3.49258743e-02f,
+5.19164763e-02f,-3.73089686e-02f,+8.25420618e-02f,+1.68690234e-01f,+3.46094310e-01f,
-2.48628587e-01f,+1.22088529e-01f,+2.01183334e-01f,-2.85993963e-01f,-3.05214780e-03f,
+1.33513346e-01f,-3.81302685e-02f,+1.51926801e-01f,+9.85744894e-02f,-8.85976255e-02f,
+1.17516279e-01f,+1.42131001e-01f,-1.42486170e-01f,+2.02796143e-03f,-1.82274848e-01f,
+1.64831087e-01f,+6.29493743e-02f,+6.65371343e-02f,-6.74818531e-02f,-1.72267348e-01f,
+1.61373258e-01f,+2.10188463e-01f,-9.85926017e-02f,-1.87665746e-01f,-3.40018302e-01f,
+4.37540933e-02f,+2.02096611e-01f,-9.78491902e-02f,+1.22529007e-01f,+1.30989328e-01f,
+6.77345693e-02f,+5.43688200e-02f,+7.64683932e-02f,+1.61938727e-01f,+1.27631307e-01f,
+3.52936536e-02f,+1.30421951e-01f,+6.79071918e-02f,+3.39063704e-02f,-1.65185958e-01f,
+1.37748927e-01f,+1.59462363e-01f,+6.02590591e-02f,+2.60290951e-01f,+1.51106074e-01f,
+2.36234337e-01f,+5.60487472e-02f,-4.51524146e-02f,+4.94627655e-02f,+5.70593327e-02f,
+1.09957010e-01f,+8.63718167e-02f,+3.14580016e-02f,+5.32360040e-02f,+1.32850900e-01f,
-1.24220014e-01f,+2.34448925e-01f,-2.33533867e-02f,-8.32037181e-02f,-4.02994789e-02f,
-1.31128043e-01f,-1.11305945e-01f,-1.26782246e-02f,-9.02310163e-02f,+1.96482047e-01f,
+2.97208242e-02f,-1.25910521e-01f,-2.92982515e-02f,-1.69624791e-01f,-1.88618898e-01f,
+7.46201724e-03f,-1.56409517e-01f,-1.85406003e-02f,-7.63303787e-02f,-4.96897055e-03f,
+3.84134278e-02f,+7.74246156e-02f,+1.46077856e-01f,-2.49371573e-01f,+7.06317201e-02f,
+6.51548803e-02f,-9.01315883e-02f,+1.00605875e-01f,-1.23604024e-02f,-1.67945832e-01f,
-3.40316892e-02f,+4.08104882e-02f,+8.01955238e-02f,+8.28180686e-02f,-6.93164067e-04f,
+1.65885668e-02f,+1.07480630e-01f,+5.17497361e-02f,-7.75896907e-02f,+3.64449173e-02f,
+4.23139594e-02f,+4.24201079e-02f,+1.78572387e-01f,+8.99590552e-02f,-1.22678094e-01f,
+1.62382424e-01f,+1.53693706e-01f,-1.10037595e-01f,-1.67241663e-01f,-7.83747286e-02f,
+7.62030035e-02f,-1.44900173e-01f,-8.45040306e-02f,+2.34786436e-01f,+8.22166130e-02f,
-2.50451677e-02f,+1.63640231e-01f,+3.11503619e-01f,-1.12094119e-01f,-4.50596847e-02f,
-2.22657248e-02f,+1.27446011e-01f,-6.76880474e-04f,+7.09286630e-02f,-1.08790591e-01f,
-1.76474974e-01f,+1.73336476e-01f,+1.31401550e-02f,-1.58493266e-01f,-1.32674679e-01f,
-2.86717229e-02f,+1.09189346e-01f,+5.96061610e-02f,+6.42345548e-02f,+8.34072754e-02f,
+7.98871666e-02f,-1.85034662e-01f,+1.31859677e-02f,+2.84225261e-03f,-9.82539654e-02f,
-1.74175903e-01f,+3.30224051e-03f,-1.21149316e-01f,+1.28529608e-01f,-5.11417873e-02f,
+4.43331189e-02f,-5.33005670e-02f,-2.04346911e-03f,+6.21706210e-02f,+2.48811573e-01f,
-7.95700327e-02f,-9.24817175e-02f,-4.71995063e-02f,-1.12283126e-01f,-5.52410409e-02f,
+1.01667076e-01f,+8.52726400e-03f,+1.17952034e-01f,+4.80909869e-02f,-1.10287750e-02f,
+2.65749190e-02f,+1.19504392e-01f,+1.30946636e-01f,-6.55329926e-03f,+1.20636247e-01f,
+1.75034091e-01f,+1.73450485e-01f,-8.12797770e-02f,+9.36025083e-02f,+5.43381386e-02f,
+2.17154212e-02f,+1.71681583e-01f,-3.24455313e-02f,-5.06283164e-01f,+1.79381818e-01f,
+1.71092644e-01f,+2.22947255e-01f,+4.17707451e-02f,+2.18754888e-01f,+7.63932019e-02f,
+9.33849066e-02f,-9.04035568e-02f,-2.09553957e-01f,+2.04792678e-01f,+5.48060276e-02f,
+2.88302042e-02f,+9.90709811e-02f,-3.12714577e-02f,-1.39508769e-01f,-1.77170277e-01f,
+1.37693882e-01f,+3.42980102e-02f,-9.05451998e-02f,-6.70192689e-02f,+1.14226364e-01f,
+1.98773310e-01f,+1.99535694e-02f,+2.94763923e-01f,-1.96507648e-01f,-1.39816225e-01f,
+4.87100519e-03f,+1.11161932e-01f,+1.68656915e-01f,+2.80726533e-02f,+8.57604519e-02f,
+2.68887542e-02f,-1.09322585e-01f,-4.74859774e-02f,+3.50463897e-01f,+1.61123514e-01f,
+2.03549027e-01f,-4.98662293e-02f,+2.13887736e-01f,+2.88043052e-01f,+4.18652929e-02f,
+4.62840870e-02f,+1.72880873e-01f,-1.36966119e-02f,+1.86959282e-01f,-1.84115723e-01f,
-1.70728713e-01f,+1.98282510e-01f,+7.98961297e-02f,-2.67358959e-01f,+1.38819605e-01f,
-1.57016233e-01f,+1.73154801e-01f,+9.49971564e-03f,+1.39020845e-01f,-2.03747183e-01f,
+3.35499048e-02f,+9.76634249e-02f,+6.66590035e-02f,-2.02278078e-01f,+1.13910370e-01f,
-1.07087515e-01f,-2.28260681e-01f,-4.64944616e-02f,-3.04507703e-01f,-1.45650953e-01f,
-1.39507800e-01f,+2.44755130e-02f,-5.40974662e-02f,+9.11510661e-02f,-2.93832645e-03f,
-8.88362080e-02f,-7.30601102e-02f,+1.90005168e-01f,-1.57819822e-01f,+2.16303542e-01f,
+2.65240613e-02f,-1.85856119e-01f,+1.24228761e-01f,+1.33449212e-01f,-2.46571936e-02f,
+2.58800443e-02f,+7.87420794e-02f,-8.85535702e-02f,+3.82982016e-01f,+1.42847478e-01f,
-2.79848594e-02f,-5.44892661e-02f,+6.38705045e-02f,-2.41201594e-01f,+2.62782633e-01f,
+1.31443776e-02f,-1.72691233e-02f,-9.72240791e-02f,-2.60645580e-02f,+5.02382405e-02f,
+2.53572851e-01f,-1.28610432e-01f,+2.17516169e-01f,+7.81662539e-02f,-6.90815300e-02f,
+2.14787319e-01f,+8.82037953e-02f,-2.81573176e-01f,+3.96509320e-02f,+1.95206657e-01f,
-7.38988519e-02f,+1.23599032e-02f,-1.34942591e-01f,+4.67149347e-01f,-1.79311112e-01f,
+2.05327809e-01f,-8.67995024e-02f,-1.92131549e-01f,+1.24347985e-01f,-2.66403794e-01f,
-8.80378857e-02f,+2.44066790e-02f,-1.47294566e-01f,+4.02316123e-01f,-2.94544458e-01f,
-2.68185977e-02f,+1.36042938e-01f,+9.50891823e-02f,-6.49762377e-02f,-1.06223650e-01f,
+3.07838857e-01f,-1.02392666e-01f,+1.69957504e-01f,+1.31714672e-01f,-1.96963117e-01f,
+6.36813268e-02f,-3.86023074e-02f,-2.10226387e-01f,+1.94864079e-01f,+2.25805297e-01f,
+9.16004851e-02f,-7.15408772e-02f,+2.25444913e-01f,-4.97346520e-02f,+5.37704676e-02f,
-2.63737530e-01f,-3.63590121e-02f,+4.16463874e-02f,+1.72274575e-01f,+2.03755125e-01f,
-2.77486354e-01f,-8.63636360e-02f,+2.68704861e-01f,-1.62213162e-01f,+1.93445742e-01f,
+4.44110006e-01f,+1.66089371e-01f,+3.75809669e-01f,-1.18878879e-01f,+1.84403956e-01f,
-8.27029571e-02f,-8.17050785e-02f,-1.17684618e-01f,+2.96037376e-01f,-9.47228968e-02f,
+1.15236394e-01f,+1.09856255e-01f,-4.98235412e-03f,-2.25755852e-02f,-6.29968122e-02f,
+5.93642816e-02f,-5.21183982e-02f,+1.10759042e-01f,+2.08925262e-01f,+3.69016565e-02f,
-3.19692433e-01f,+9.46187824e-02f,+2.60749191e-01f,-2.90126782e-02f,-2.51457132e-02f,
-1.41213447e-01f,+6.73526898e-03f,-1.04963128e-03f,+7.59831846e-01f,-5.50688505e-02f,
-1.46543890e-01f,-1.12897210e-01f,+6.58244044e-02f,-2.40675122e-01f,+1.55041233e-01f,
-2.89166123e-01f,-6.25094399e-02f,-1.96242601e-01f,+1.41367704e-01f,+3.57809477e-02f,
-5.98877333e-02f,+1.42992839e-01f,+1.07928067e-01f,+3.08220834e-01f,-1.57659613e-02f,
-1.14486344e-01f,+5.30384742e-02f,-3.75049770e-01f,-2.52120882e-01f,-1.48291662e-01f,
-1.66965365e-01f,-1.52645007e-01f,-9.58487019e-02f,+1.42690778e-01f,-1.24532051e-01f,
+1.95086002e-01f,-6.13982566e-02f,+2.44328946e-01f,+1.71178386e-01f,-5.29333763e-03f,
-1.44639090e-01f,+7.26829916e-02f,+2.78480887e-01f,+6.45448193e-02f,+1.60731211e-01f,
+2.27355212e-01f,+4.85904589e-02f,-2.57658243e-01f,-1.39313981e-01f,+1.69076785e-01f,
-2.12203935e-01f,-7.01314583e-02f,-4.80482960e-03f,+8.71747658e-02f,+3.71873751e-02f,
+1.57749906e-01f,+1.24325104e-01f,+2.16985289e-02f,-9.02881026e-02f,+3.92232351e-02f,
+3.04287583e-01f,+4.85010967e-02f,+2.08941400e-01f,-6.01988845e-02f,+3.97409648e-02f,
+2.88308412e-01f,-2.45549634e-01f,-2.30891928e-01f,+2.11286157e-01f,+1.95256799e-01f,
+9.34829488e-02f,+3.61933321e-01f,-3.73898447e-01f,+1.14565760e-01f,-1.13011993e-01f,
-1.79111958e-01f,+4.63051227e-04f,+4.25884984e-02f,+1.30645141e-01f,+1.34388402e-01f,
-3.18642519e-02f,-1.31106198e-01f,-2.51498312e-01f,+2.82091618e-01f,+2.25161359e-01f,
-3.33585553e-02f,-1.45569950e-01f,+1.89354762e-01f,-1.13818519e-01f,-1.19556688e-01f,
-6.87905177e-02f,-7.23475814e-02f,-1.64579991e-02f,-4.01831232e-02f,+2.04116598e-01f,
-1.62941515e-01f,-1.54928446e-01f,+2.11086869e-02f,+1.12311974e-01f,+1.81007847e-01f,
-1.94735423e-01f,+1.35963401e-02f,-2.69746333e-02f,+3.46927345e-01f,-1.38197601e-01f,
-2.54384071e-01f,-7.96356723e-02f,-1.29354363e-02f,+2.04421282e-01f,+1.94906414e-01f,
+1.66863248e-01f,-1.03153065e-01f,+3.53965968e-01f,-1.40029863e-01f,-1.07810751e-01f,
-1.85907796e-01f,+8.92116725e-02f,-1.69705763e-01f,+1.49424702e-01f,+5.17687619e-01f,
-4.48905043e-02f,+3.26152444e-01f,+4.44761515e-02f,-2.15485290e-01f,-1.40254363e-01f,
+2.87076473e-01f,-5.53108193e-02f,+2.00370640e-01f,+6.14611097e-02f,-9.31391418e-02f,
+1.39878169e-01f,+7.40796402e-02f,+1.51472092e-01f,+2.36548960e-01f,+2.15290412e-01f,
-2.53795266e-01f,-1.05928555e-01f,+1.00671396e-01f,+8.42903703e-02f,+5.01930490e-02f,
+5.57044186e-02f,+2.13549644e-01f,+3.44351113e-01f,-2.86933422e-01f,+2.95459107e-02f,
+2.21203879e-01f,-1.08888976e-01f,+1.04870677e-01f,+1.24006467e-02f,+2.69997209e-01f,
-1.35451555e-01f,+8.69607106e-02f,+1.22269057e-01f,+4.29209381e-01f,+4.32108700e-01f,
-2.54589677e-01f,-2.07527205e-01f,-2.40673736e-01f,+2.45330796e-01f,-1.47478223e-01f,
+1.30013272e-01f,+2.68700659e-01f,-9.11074504e-02f,-3.40877250e-02f,-3.86542790e-02f,
-2.70956129e-01f,+1.19901218e-01f,-1.12304986e-01f,+2.37216782e-02f,-3.40931746e-03f,
-3.69717516e-02f,+3.22677307e-02f,+7.54318610e-02f,-3.84621508e-02f,-3.85017954e-02f,
+1.11161657e-01f,-7.80218691e-02f,+1.34783611e-01f,+1.82903558e-02f,-8.53318498e-02f,
-5.93149960e-02f,+8.32278952e-02f,-1.29697667e-02f,-6.97399452e-02f,-2.41571069e-01f,
-3.19726206e-02f,+1.65757716e-01f,-9.51722637e-02f,-6.34268625e-03f,-1.87449947e-01f,
-3.34839113e-02f,+9.75890532e-02f,+1.21060543e-01f,+8.29937980e-02f,+5.59489243e-02f,
-2.27439553e-01f,-2.17915699e-01f,-2.63215423e-01f,+2.11450234e-01f,-3.05013835e-01f,
-4.86826757e-03f,-4.61923219e-02f,-1.64977551e-01f,+7.65990764e-02f,-6.33910596e-02f,
+5.28954566e-02f,-5.66395558e-02f,+1.48762017e-01f,-5.63981533e-02f,-1.27966896e-01f,
-1.15506398e-02f,-2.08096966e-01f,+2.00632781e-01f,-4.44212258e-02f,+3.42640519e-01f,
+4.69586030e-02f,+9.08018351e-02f,+6.56189471e-02f,+1.13232858e-01f,+2.48024508e-01f,
-2.52915204e-01f,+2.30118036e-01f,-3.34619619e-02f,+7.85046443e-03f,+2.25597426e-01f,
+3.81857783e-01f,+6.39091060e-02f,+2.16976106e-01f,+1.90535799e-01f,+1.10346831e-01f,
+1.13957204e-01f,+9.84174609e-02f,+3.91280837e-02f,-6.08530752e-02f,+1.53397277e-01f,
+1.65555552e-01f,+5.88616589e-03f,+2.60465480e-02f,+1.06343411e-01f,-6.34641573e-02f,
+7.22547323e-02f,-1.57239065e-01f,+1.59721121e-01f,-3.65625888e-01f,+1.30349426e-02f,
-5.30433096e-02f,+1.61293611e-01f,+2.78189778e-01f,-2.66134053e-01f,+1.96509987e-01f,
+1.99826702e-01f,+3.25892195e-02f,-3.59212667e-01f,-7.42141306e-02f,+2.32022367e-02f,
-9.61991120e-03f,-2.88569219e-02f,+3.67444269e-02f,-1.89712018e-01f,-1.88221499e-01f,
+8.90981704e-02f,-8.39497969e-02f,-3.55130732e-01f,-3.95596683e-01f,-4.14880179e-02f,
+2.80863285e-01f,+1.46515258e-02f,+3.32573682e-01f,+4.63335775e-02f,+2.96531200e-01f,
+2.97357470e-01f,-1.76983960e-02f,-3.41156036e-01f,+6.36887550e-02f,+2.58327276e-01f,
-2.47633904e-02f,+2.92830527e-01f,+1.83002010e-01f,-1.69359580e-01f,-9.31038484e-02f,
+2.11887434e-01f,+5.77106476e-02f,+9.82307270e-02f,+8.73458385e-02f,+5.78954928e-02f,
+7.71929696e-02f,+1.52847201e-01f,-8.52264650e-03f,-1.01618849e-01f,+5.05707301e-02f,
+5.74361794e-02f,+2.99403258e-03f,-1.97996199e-01f,+8.47698525e-02f,-1.68114692e-01f,
+1.49138540e-01f,+4.76976968e-02f,+1.21296421e-01f,-1.18539423e-01f,-1.31876752e-01f,
+3.79986674e-01f,-7.16576166e-03f,+2.55139321e-01f,-4.94198501e-02f,-3.71691287e-02f,
+7.00011998e-02f,-2.37011448e-01f,+3.95047337e-01f,-6.87062368e-02f,-1.73002630e-02f,
+9.93541032e-02f,+1.47124186e-01f,-1.92089796e-01f,-4.40780856e-02f,+2.73194760e-01f,
-2.92137964e-03f,+2.75169641e-01f,+2.14044261e-03f,-1.60168886e-01f,-1.70166746e-01f,
+4.21655476e-02f,+1.07739329e-01f,-8.91421810e-02f,+2.45301679e-01f,+1.48129975e-02f,
+4.16506007e-02f,-2.20089965e-02f,+1.86327010e-01f,-1.71854645e-02f,+1.67638600e-01f,
+3.09386641e-01f,-7.83955231e-02f,+1.07559524e-02f,-1.61233857e-01f,+1.83877781e-01f,
-1.90155819e-01f,+4.41104323e-01f,+3.81508954e-02f,+3.96043099e-02f,+2.44374156e-01f,
-3.47925685e-02f,+1.40735939e-01f,+4.43969592e-02f,+6.53239638e-02f,+1.54151380e-01f,
+1.02629364e-01f,+2.42932159e-02f,+1.76297814e-01f,+3.15127522e-01f,+2.33931288e-01f,
+8.18699822e-02f,+2.37538785e-01f,-5.16088903e-02f,-1.03075720e-01f,+1.26203820e-01f,
+3.18801492e-01f,+1.25871360e-01f,+4.91170622e-02f,+1.50658354e-01f,-9.81042720e-03f,
+6.33731037e-02f,+2.52615750e-01f,+1.34430677e-02f,-1.81033000e-01f,-9.33686793e-02f,
+1.92670330e-01f,-7.20395818e-02f,-1.99442148e-01f,-2.91972101e-01f,+1.49561584e-01f,
-1.80865601e-01f,-8.34524930e-02f,+1.12144455e-01f,-7.67756328e-02f,-1.34139225e-01f,
-2.04060003e-02f,-4.82200226e-03f,-1.67934805e-01f,-5.70083642e-03f,+1.72185525e-02f,
+1.93837844e-02f,-2.01636311e-02f,+4.15183045e-02f,+7.92718381e-02f,-3.13946098e-01f,
-1.75771549e-01f,+5.88087440e-02f,+1.61889847e-03f,+3.72709602e-01f,-1.18315540e-01f,
-1.37355685e-01f,-3.02131385e-01f,-2.40991652e-01f,-1.81092173e-01f,-1.32117406e-01f,
+3.47636282e-01f,+1.04381070e-01f,+7.25455657e-02f,+1.11796439e-01f,+1.30601212e-01f,
+6.61536679e-02f,-6.13365807e-02f,-2.27905318e-01f,+1.13714978e-01f,+2.30816573e-01f,
+1.59402415e-01f,-1.07740261e-01f,-4.55034897e-02f,-6.44595027e-02f,+1.21455118e-01f,
+2.88362443e-01f,-1.54821992e-01f,-2.50801761e-02f,+5.02410252e-03f,+1.54084623e-01f,
+5.52493222e-02f,-2.79505491e-01f,+1.21836793e-02f,+1.95119634e-01f,+5.78039326e-02f,
+6.16063289e-02f,+1.80542007e-01f,-1.40072629e-02f,+3.45094539e-02f,+9.49971303e-02f,
+3.09932176e-02f,+2.29489848e-01f,-5.84746059e-03f,-8.11645761e-02f,+5.09339757e-03f,
-6.03584126e-02f,+8.44973102e-02f,+1.03377484e-01f,+1.09559707e-01f,-8.89172927e-02f,
+3.95249546e-01f,-1.08502582e-02f,-2.46707536e-03f,-1.36370435e-02f,+1.24244198e-01f,
-5.35058528e-02f,-2.42522463e-01f,+1.63108081e-01f,-7.62560070e-02f,+1.19633041e-01f,
-2.84468323e-01f,-5.10390475e-02f,+2.68826276e-01f,-2.58861095e-01f,-1.75060138e-01f,
-5.93627617e-02f,+5.14423884e-02f,-1.03050582e-01f,-1.10523187e-01f,-1.75684780e-01f,
-4.24911790e-02f,-1.56703815e-02f,+2.15771526e-01f,-1.89360589e-01f,-3.62824313e-02f,
+1.36931896e-01f,-2.73913682e-01f,-3.15462835e-02f,+2.24827066e-01f,-1.92171205e-02f,
+5.34312725e-01f,+3.04644927e-02f,+1.41350497e-02f,-1.53428987e-01f,-1.68413132e-01f,
+6.68469770e-03f,+1.45981967e-01f,+1.89625844e-01f,+9.88208652e-02f,+1.86505035e-01f,
+2.03755200e-01f,+2.54704893e-01f,-3.02750677e-01f,-1.11852018e-02f,+2.68386036e-01f,
-2.36352459e-01f,+5.56404926e-02f,-9.11067277e-02f,+1.66438557e-02f,+1.59977451e-01f,
-5.74579351e-02f,+5.22208959e-02f,+2.09809234e-03f,-1.36869203e-03f,-1.74591973e-01f,
+9.82981622e-02f,+1.09132819e-01f,-3.47701311e-01f,-1.86763287e-01f,+3.14301491e-01f,
+2.73125142e-01f,-1.91023014e-02f,-1.16062425e-02f,+1.16681851e-01f,+1.11542102e-02f,
+2.09436156e-02f,-3.20129424e-01f,-1.90594330e-01f,-9.16617885e-02f,-1.97877496e-01f,
-5.77219352e-02f,+4.05246876e-02f,+3.84533331e-02f,+3.37607533e-01f,+2.36698031e-01f,
-1.33107916e-01f,+8.35596677e-03f,-1.47875756e-01f,+2.31498793e-01f,+1.57213256e-01f,
-1.31814191e-02f,-1.12729244e-01f,-1.94487214e-01f,-1.90771073e-01f,-4.91956696e-02f,
+4.18753207e-01f,+1.04696862e-01f,-3.72006632e-02f,+1.29395261e-01f,-1.34417847e-01f,
+1.87949408e-02f,-2.50860304e-01f,+1.49491146e-01f,+1.37898579e-01f,-1.07819542e-01f,
-2.57268131e-01f,+2.44298279e-02f,+2.84977525e-01f,+1.83574975e-01f,+2.32831791e-01f,
-8.75550788e-03f,+3.75963271e-01f,+6.09577261e-02f,+3.51810604e-02f,-1.27316609e-01f,
-1.54223263e-01f,+2.63616413e-01f,-1.34105012e-01f,-8.26070756e-02f,-3.83503153e-03f,
-5.29666692e-02f,-4.36201841e-02f,-1.16602980e-01f,-1.60419911e-01f,-2.53000081e-01f,
+6.56845346e-02f,-2.31456757e-02f,+1.62400380e-01f,+2.26593509e-01f,-2.21617594e-02f,
+3.56822670e-01f,-3.88275571e-02f,-3.77423018e-01f,+5.41664436e-02f,-1.20714024e-01f,
+5.94517216e-03f,+4.20571771e-03f,-2.19842300e-01f,-8.64176676e-02f,-1.11615330e-01f,
+1.35351986e-01f,+3.03746402e-01f,+1.65486276e-01f,+1.38051119e-02f,+1.42880216e-01f,
-1.09712720e-01f,+3.70173380e-02f,-3.34435254e-01f,-8.99682716e-02f,-2.99261779e-01f,
-3.63260019e-03f,+2.72403240e-01f,+9.39687714e-02f,-8.59233588e-02f,+3.00465852e-01f,
-1.20550461e-01f,-1.55398436e-02f,-1.99302182e-01f,-1.14345506e-01f,-4.65832613e-02f,
+2.62823611e-01f,+9.87047255e-02f,+1.64309159e-01f,-2.38148645e-01f,+1.95774987e-01f,
-6.21074103e-02f,+1.27308011e-01f,-8.70538875e-02f,+3.33539009e-01f,-1.08877391e-01f,
+2.32214540e-01f,+3.48549038e-02f,-1.39395833e-01f,+1.87932596e-01f,-4.55415063e-03f,
+1.26538455e-01f,+2.07643844e-02f,+3.56344551e-01f,-2.50221252e-01f,-7.94404596e-02f,
+1.63688362e-01f,-6.49312288e-02f,-3.82146567e-01f,-2.79845208e-01f,+3.29490751e-02f,
+2.42872283e-01f,+1.48918465e-01f,+3.17358673e-02f,+1.95869997e-01f,+2.39807814e-01f,
+2.65205204e-01f,-8.53125900e-02f,-1.42534718e-01f,-1.72669496e-02f,+1.56265810e-01f,
+5.46233132e-02f,-3.32391798e-01f,-2.91895300e-01f,-2.15917993e-02f,-7.09924474e-02f,
-1.22550219e-01f,+4.47370596e-02f,-2.22176582e-01f,+2.06058711e-01f,+2.46086434e-01f,
-9.94613245e-02f,-2.70788193e-01f,-2.25557983e-01f,+4.03667361e-01f,-1.34000987e-01f,
-1.59318000e-01f,+2.53985763e-01f,-1.59296915e-01f,-5.60656302e-02f,+3.04864556e-01f,
+1.36408895e-01f,+1.69957936e-01f,+2.91303992e-01f,-1.68162599e-01f,-6.84052035e-02f,
-1.09212380e-02f,+1.34796379e-02f,+3.81673388e-02f,-2.60716259e-01f,-1.80014357e-01f,
-2.44760439e-01f,+6.44272491e-02f,+3.50265652e-01f,-1.63584381e-01f,+2.46856704e-01f,
-1.38082623e-01f,+1.65278435e-01f,+1.49644688e-02f,-8.93759653e-02f,+5.14517613e-02f,
-6.34623170e-02f,+1.28131002e-01f,-4.98796813e-02f,+9.63887200e-02f,+1.81205168e-01f,
-1.45100951e-01f,-6.83846101e-02f,+2.88322181e-01f,+1.08232364e-01f,-2.38167927e-01f,
-1.38251647e-01f,-1.03646619e-02f,+4.08609472e-02f,-2.45061770e-01f,+5.21726534e-03f,
+1.60114071e-03f,-1.82492912e-01f,+3.25148851e-01f,+1.79083243e-01f,-1.69940159e-01f,
-9.09807831e-02f,+5.05969673e-02f,+2.58763820e-01f,+2.32836321e-01f,-6.76332638e-02f,
-2.66450971e-01f,+2.63519108e-01f,+1.01112261e-01f,+1.18366722e-02f,-2.49584794e-01f,
-1.59808263e-01f,+2.63538659e-01f,+2.80402862e-02f,-3.34016085e-01f,-1.00189649e-01f,
+2.14375909e-02f,-2.29489461e-01f,+3.98090966e-02f,+1.85524020e-02f,+2.86770780e-02f,
+9.21220034e-02f,-1.13453962e-01f,+7.97685236e-02f,+9.00653750e-02f,+2.15856612e-01f,
+2.96704974e-02f,-2.86969002e-02f,-2.68980592e-01f,+5.45905307e-02f,+1.41711608e-01f,
+1.36977330e-01f,-2.36416027e-01f,+2.06540912e-01f,-1.73087358e-01f,+5.40766604e-02f,
-1.51578173e-01f,+2.74057895e-01f,-6.94539919e-02f,-2.93351579e-02f,+1.02316044e-01f,
-9.61626768e-02f,-1.55376539e-01f,-2.68855214e-01f,-5.93084618e-02f,+7.53307790e-02f,
+5.02130628e-01f,+7.24787917e-03f,-4.93853725e-02f,-2.24786729e-01f,+2.20068991e-01f,
-1.14764914e-01f,-1.94439709e-01f,+6.97479323e-02f,+1.19212426e-01f,+1.25356063e-01f,
+3.70929465e-02f,-2.06121579e-02f,-2.13602316e-02f,+1.81623232e-02f,+2.72622108e-01f,
-5.59843928e-02f,-1.20021619e-01f,-3.23741108e-01f,-1.22463129e-01f,+1.24947667e-01f,
-2.28116900e-01f,+3.42423618e-02f,+1.58134893e-01f,-5.06037436e-02f,+8.72104317e-02f,
+1.72121242e-01f,+1.83207452e-01f,+1.02345616e-01f,+2.69640889e-02f,-2.35860988e-01f,
+1.50670856e-01f,+1.19640864e-01f,-5.83815239e-02f,+1.96597844e-01f,-5.31958267e-02f,
+1.67139620e-01f,+1.56457931e-01f,-1.57770798e-01f,-1.07872158e-01f,-8.92292485e-02f,
+2.45036110e-01f,+1.63417011e-01f,+2.54536062e-01f,-2.82539099e-01f,+1.92361102e-01f,
-3.33290547e-02f,-4.76152711e-02f,+1.96627364e-01f,+2.14371979e-01f,-3.49808894e-02f,
-9.99791250e-02f,+1.83221430e-01f,+1.08420298e-01f,-2.47191284e-02f,-2.00080395e-01f,
+1.77880973e-01f,-1.18762739e-01f,+4.25140053e-01f,-1.12753354e-01f,-2.78182983e-01f,
+7.62277171e-02f,-1.31219644e-02f,+1.08390793e-01f,-3.34298760e-01f,-1.05500489e-01f,
+2.89729983e-01f,-1.25702866e-03f,-2.26500511e-01f,+3.86329502e-01f,+9.56496075e-02f,
+1.09677143e-01f,+3.14677119e-01f,-3.20210785e-01f,-2.84365654e-01f,-2.48088434e-01f,
-1.53376430e-01f,-1.45756751e-02f,+2.39666864e-01f,-1.67888463e-01f,+9.60531179e-03f,
-1.49577511e-02f,-8.59138742e-03f,+2.63126791e-02f,-1.28547192e-01f,-4.05610830e-01f,
+2.90727258e-01f,-1.63383745e-02f,+4.08407152e-02f,-2.26209238e-01f,-1.00293376e-01f,
+1.00987352e-01f,+2.71249145e-01f,+1.00825101e-01f,+1.64221823e-01f,-4.70296919e-01f,
-3.04270932e-03f,-5.58410957e-02f,+2.40666911e-01f,-1.46024868e-01f,+3.58604312e-01f,
+1.89090058e-01f,+2.11082064e-02f,-1.22784175e-01f,-7.94564113e-02f,-3.21662612e-02f,
+3.29735667e-01f,-1.40812218e-01f,+1.96253330e-01f,-4.62555349e-01f,+2.41759628e-01f,
-3.29080254e-01f,+7.23249614e-02f,+1.72249094e-01f,-1.53461294e-02f,-9.47227627e-02f,
-1.50768170e-02f,-3.97777446e-02f,+1.16028920e-01f,+2.50356466e-01f,+1.34915262e-01f,
-1.86886638e-01f,+2.41660640e-01f,+1.94675267e-01f,-2.05167338e-01f,-2.85827428e-01f,
+3.25556517e-01f,+2.00958565e-01f,-1.72012344e-01f,-1.97812870e-01f,-1.32619604e-01f,
+1.19094707e-01f,+2.49663502e-01f,+5.03120236e-02f,-1.09783635e-01f,-6.99770898e-02f,
-7.64908791e-02f,+1.35334194e-01f,+6.23252168e-02f,-2.04905778e-01f,-8.10646173e-03f,
-4.50999215e-02f,-1.59222141e-01f,+1.44474745e-01f,-2.20346317e-01f,+4.99647744e-02f,
+6.08682744e-02f,+1.17613385e-02f,-1.11195594e-02f,+3.71420532e-02f,+8.16138368e-03f,
+1.32231459e-01f,+7.34962672e-02f,-6.39945269e-02f,+1.28124371e-01f,+5.16495900e-03f,
-5.05547300e-02f,+2.37426654e-01f,-6.16032071e-02f,+1.58102944e-01f,-7.27590621e-02f,
-5.86173087e-02f,+2.18703836e-01f,+1.00414060e-01f,+1.39201522e-01f,+6.43344223e-02f,
-2.42590800e-01f,+3.05302054e-01f,+2.51232367e-02f,+4.92472835e-02f,-6.28038123e-02f,
-2.82210320e-01f,+6.36993023e-03f,+1.94171235e-01f,+1.74780130e-01f,+1.27696255e-02f,
+2.66321283e-02f,-1.08342888e-02f,+5.87601475e-02f,+7.14903884e-03f,-6.91246539e-02f,
-2.59921670e-01f,+3.69140357e-01f,-1.40435994e-01f,+1.49625152e-01f,-1.33189827e-01f,
-1.27903879e-01f,+6.13664538e-02f,+1.26619831e-01f,+1.21218443e-01f,+8.67596790e-02f,
+1.42010182e-01f,+6.43727258e-02f,-1.58661515e-01f,+1.57389715e-01f,-3.23262930e-01f,
-2.70037949e-02f,+1.11572780e-01f,-4.32621352e-02f,+6.01769350e-02f,+1.87744960e-01f,
-3.17590684e-01f,-6.71582343e-03f,+1.18276596e-01f,+2.28957668e-01f,+8.38319883e-02f,
-2.16605648e-01f,+2.33710930e-01f,+1.71871230e-01f,-4.42002676e-02f,-1.49592683e-01f,
-2.34578893e-01f,+9.49791372e-02f,+7.55980471e-03f,-1.27856523e-01f,+1.18801728e-01f,
+2.79508363e-02f,-1.59464497e-02f,-1.18045598e-01f,+1.31097510e-02f,-1.57769788e-02f,
+1.98786557e-02f,+5.95587455e-02f,-2.20559701e-01f,-1.21774614e-01f,+2.64572613e-02f,
-9.08298939e-02f,+1.69095144e-01f,-9.90815908e-02f,-1.73342526e-01f,+7.69760236e-02f,
+2.18779564e-01f,-7.77350068e-02f,+1.55674657e-02f,+1.59931690e-01f,-1.83278859e-01f,
-1.11814700e-01f,+3.65898013e-02f,-9.11249369e-02f,-2.19741344e-01f,-1.84684262e-01f,
+3.06607276e-01f,-1.85304612e-01f,-7.51991943e-02f,-2.80240744e-01f,-4.34209742e-02f,
+2.47152358e-01f,+2.22607091e-01f,+7.34903589e-02f,+7.42817521e-02f,+7.69267678e-02f,
+1.80341303e-02f,-1.73733398e-01f,-6.50847107e-02f,-2.19762430e-01f,-1.46651790e-01f,
-7.07046837e-02f,+6.65250942e-02f,+6.78651407e-02f,+1.36367530e-02f,+2.27908924e-01f,
+1.09306157e-01f,-1.11718580e-01f,-1.26087358e-02f,+2.83314168e-01f,+8.56282637e-02f,
+2.98013359e-01f,-1.61192924e-01f,-3.10527474e-01f,+6.17104545e-02f,-9.19393077e-02f,
-1.71647757e-01f,+1.04742087e-01f,+1.15568154e-01f,-1.52587488e-01f,-1.12673514e-01f,
+1.90530077e-01f,-1.17453501e-01f,+1.03776464e-02f,-3.36611196e-02f,+1.26722187e-01f,
+5.57716750e-02f,+1.37855327e-02f,-8.03988576e-02f,-2.03137308e-01f,+1.20748490e-01f,
+1.12116076e-01f,-5.13933077e-02f,-1.68261528e-01f,+2.19117507e-01f,+4.51234505e-02f,
-2.76910335e-01f,-9.91460402e-03f,-4.41593342e-02f,-1.12677902e-01f,+1.11300029e-01f,
+1.53351501e-01f,-1.51196226e-01f,+1.36056632e-01f,+4.12559621e-02f,-2.32281283e-01f,
+2.90402800e-01f,-1.20168865e-01f,+6.40049279e-02f,-1.76018216e-02f,-2.21397862e-01f,
+2.17228040e-01f,+2.06373870e-01f,+1.34106785e-01f,+1.08778387e-01f,+1.74688503e-01f,
-3.31839137e-02f,+4.96893004e-02f,+9.72527787e-02f,-1.64339896e-02f,+1.24964096e-01f,
-1.97002083e-01f,+2.96473242e-02f,+1.38281569e-01f,-2.81697780e-01f,+1.59141004e-01f,
-7.69610256e-02f,+3.78417701e-01f,-2.05676243e-01f,-2.60543153e-02f,-3.03002633e-02f,
+8.14980268e-02f,+3.25232118e-01f,+1.82845816e-01f,-6.89651892e-02f,-3.11916489e-02f,
+1.24574080e-01f,+6.19369410e-02f,+4.13662195e-02f,-7.00971410e-02f,+5.37636243e-02f,
-7.50724971e-02f,-9.83837619e-02f,+1.69173956e-01f,-7.57243857e-02f,-3.30434501e-01f,
+1.96675621e-02f,+1.01550654e-01f,-2.64260262e-01f,+8.18328857e-02f,+4.19295281e-01f,
-2.30289370e-01f,-6.26556650e-02f,+3.19033891e-01f,+1.02214843e-01f,+5.22808321e-02f,
+1.42056644e-01f,-5.60198501e-02f,+7.30024576e-02f,+9.51947197e-02f,-1.25599429e-02f,
-2.54064742e-02f,+1.29234508e-01f,-1.78675339e-01f,+6.37702784e-03f,+3.84600088e-02f,
-7.43211061e-02f,-1.19447418e-01f,+7.77700022e-02f,-1.43916279e-01f,-3.08702409e-01f,
-5.20326803e-03f,+1.35935480e-02f,-1.00848638e-01f,+3.35563011e-02f,+1.26791179e-01f,
+1.13123976e-01f,-1.71155483e-02f,+1.84412405e-01f,+7.53622428e-02f,-1.41784072e-01f,
-1.30696923e-01f,-5.68767004e-02f,-9.51205567e-02f,+1.00674726e-01f,-1.54387921e-01f,
-2.25101724e-01f,-6.72474876e-02f,-2.67019898e-01f,+8.65172520e-02f,+4.18195799e-02f,
+4.60826792e-02f,-2.58347720e-01f,-5.87695837e-03f,+2.05522720e-02f,-9.70758870e-02f,
+3.69914532e-01f,+4.44173254e-02f,-2.01691091e-01f,+1.97907522e-01f,+3.76046568e-01f,
-8.21010545e-02f,+1.08712330e-01f,+1.55615225e-01f,-1.34248249e-02f,+5.26017137e-02f,
-1.33132041e-02f,-1.39369547e-01f,+1.68785825e-01f,-9.45747420e-02f,+1.06168829e-01f,
+6.68023229e-02f,-5.08358143e-02f,+5.33669777e-02f,+8.05935916e-03f,-1.27114117e-01f,
+3.57572883e-02f,-1.04064323e-01f,+9.68886912e-02f,+3.37641209e-01f,-1.52351126e-01f,
-1.63925245e-01f,+1.26228511e-01f,-1.33197963e-01f,+1.48578793e-01f,+3.90812661e-03f,
+2.94273766e-03f,-6.41585290e-02f,+1.80091053e-01f,-5.90055026e-02f,-1.98035628e-01f,
-1.88830450e-01f,-1.18697725e-01f,-1.02694891e-01f,-1.18065149e-01f,-3.98091301e-02f,
-1.59986675e-01f,-1.66086107e-02f,-2.11602319e-02f,-1.53893279e-02f,+1.71380609e-01f,
-2.40592062e-01f,-3.85454930e-02f,-2.40744546e-01f,+4.01541851e-02f,+4.77665216e-02f,
+6.80456012e-02f,+3.85542437e-02f,-2.94795558e-02f,-2.62882173e-01f,-6.09910768e-03f,
+5.30123860e-02f,-1.71224736e-02f,-7.37186074e-02f,+1.19173832e-01f,+1.43302022e-03f,
+2.04990525e-02f,+1.62232260e-03f,-9.28690806e-02f,+4.46551181e-02f,+6.21434189e-02f,
-2.04787567e-01f,-2.59715527e-01f,+4.79950830e-02f,-1.33428097e-01f,-2.54688133e-02f,
+3.73127423e-02f,-8.36985707e-02f,+9.98177454e-02f,+8.05244446e-02f,-2.92183440e-02f,
+2.35443190e-01f,+2.47961078e-02f,-7.96391293e-02f,+5.64889386e-02f,-4.49430710e-03f,
+1.07902840e-01f,+5.03709875e-02f,+5.18482402e-02f,+1.95101932e-01f,+1.66525126e-01f,
-6.81452006e-02f,+2.50196978e-02f,+1.92420147e-02f,+2.43523866e-01f,-6.06860965e-02f,
+2.61588633e-01f,+1.14466615e-01f,+8.40422958e-02f,+1.27820402e-01f,-1.12691209e-01f,
+2.38443613e-01f,-2.53898688e-02f,-9.46351439e-02f,-5.02531044e-02f,+4.18642946e-02f,
+4.46976125e-02f,+2.66048610e-01f,-1.55876204e-01f,-6.66386113e-02f,+2.29467228e-02f,
+1.43018991e-01f,+1.89619243e-01f,-5.90962954e-02f,+6.03777915e-02f,+1.17215849e-01f,
-8.96161273e-02f,+2.02916503e-01f,-2.47433633e-01f,+1.74436774e-02f,+8.61128420e-02f,
+1.22888284e-02f,+1.79722868e-02f,+4.93967831e-02f,-1.26545206e-02f,-8.82167742e-02f,
+1.41262487e-01f,-1.60845742e-01f,-1.94907025e-01f,+4.49579470e-02f,+1.88455936e-02f,
+9.87893343e-02f,+7.45064691e-02f,+1.62252188e-01f,+2.15881884e-01f,+9.69422981e-02f,
+1.16544075e-01f,+4.38979380e-02f,-9.32365060e-02f,+1.51592061e-01f,+2.94318944e-02f,
+2.16512047e-02f,-7.48176128e-02f,+1.24813199e-01f,+5.48248142e-02f,-5.31577356e-02f,
+1.97866455e-01f,+1.00726105e-01f,-3.58335339e-02f,-1.50311425e-01f,+5.55634648e-02f,
-6.35962337e-02f,-5.60632423e-02f,+9.76092294e-02f,-1.11829594e-01f,+2.86390893e-02f,
+9.67250690e-02f,+8.05182010e-02f,+1.35923803e-01f,-1.44291475e-01f,-2.32998773e-01f,
+3.02931536e-02f,+2.31993586e-01f,+4.26716544e-02f,-9.66171920e-02f,+1.18712902e-01f,
-2.04644278e-01f,+4.56033908e-02f,+5.14699221e-02f,-1.35392144e-01f,-9.03673843e-03f,
+7.24380612e-02f,-7.31313005e-02f,+9.00494680e-02f,+5.09648584e-02f,-2.53250301e-02f,
+1.65602341e-02f,+1.40680566e-01f,+5.54788373e-02f,-1.94202021e-01f,+1.89829037e-01f,
+9.27852746e-03f,-2.04673409e-01f,+1.38533460e-02f,-2.31811166e-01f,-1.27702311e-01f,
-1.81151349e-02f,+5.03188334e-02f,-1.07159711e-01f,-2.23046377e-01f,-4.46246415e-02f,
+9.14773569e-02f,-3.57495900e-03f,+2.49467492e-02f,+1.36608794e-01f,-1.49019212e-01f,
+4.68737185e-02f,+1.10449642e-01f,-1.97175726e-01f,+2.32399199e-02f,+2.63260752e-01f,
-1.70614362e-01f,+2.54997104e-01f,+8.73806477e-02f,+2.87336916e-01f,+7.01113492e-02f,
+4.32756282e-02f,-2.64806878e-02f,-1.36382002e-02f,+9.65061411e-02f,-2.76751369e-02f,
-5.43365888e-02f,-4.00346108e-02f,-1.08914740e-01f,+1.22728653e-01f,+2.39199489e-01f,
+1.59262389e-01f,+9.92316902e-02f,+2.26353303e-01f,-3.39865759e-02f,+1.32589847e-01f,
+3.59202474e-02f,-8.14428851e-02f,+4.63184044e-02f,+5.05038304e-03f,+2.16724537e-02f,
+1.89279243e-01f,-1.09786272e-01f,-1.33343741e-01f,-9.90290344e-02f,+6.94704950e-02f,
+5.78633398e-02f,-7.52153099e-02f,-7.11000338e-02f,+2.26284876e-01f,+1.38034448e-01f,
-7.75148645e-02f,+1.30885556e-01f,-1.19598553e-01f,+2.48212159e-01f,-5.71966432e-02f,
-3.09248805e-01f,-1.68100148e-02f,-1.63219094e-01f,-5.94632812e-02f,-5.12572154e-02f,
+1.53050095e-01f,-1.57070309e-01f,+4.80327643e-02f,+1.23480253e-01f,+1.33463830e-01f,
-4.16975878e-02f,+1.02083392e-01f,-8.10069516e-02f,+7.48106316e-02f,+2.32898332e-02f,
-1.41220748e-01f,+4.46682386e-02f,-2.42770493e-01f,+1.87654853e-01f,-1.03262268e-01f,
+4.28791158e-02f,+1.10476598e-01f,+2.43821189e-01f,-5.22743650e-02f,+1.13503085e-02f,
+4.15358832e-03f,+2.16923848e-01f,-7.53447935e-02f,+7.80127123e-02f,+8.51999037e-03f,
-1.39231831e-01f,-8.98477584e-02f,+1.51220694e-01f,+1.02493577e-01f,+1.20189928e-01f,
-4.20394614e-02f,+1.48083508e-01f,+1.80256099e-01f,-1.27558738e-01f,-6.22183755e-02f,
-8.08585733e-02f,+1.43138379e-01f,+5.48906438e-02f,+2.05606893e-01f,-1.48113547e-02f,
-2.33046576e-01f,+4.25729640e-02f,-5.16790226e-02f,-9.08179954e-02f,-2.30772227e-01f,
-5.52256182e-02f,+9.18814093e-02f,-2.02414207e-02f,+1.73969939e-01f,+2.60760114e-02f,
+2.11778227e-02f,-1.15637966e-01f,+1.17950760e-01f,-5.42263798e-02f,+7.40165338e-02f,
+8.34269300e-02f,+1.24119267e-01f,+9.26828161e-02f,-9.68160480e-02f,+1.59317821e-01f,
+8.34721699e-02f,-8.41552112e-03f,+1.55679733e-01f,-1.14035591e-01f,-9.90377143e-02f,
+5.77698871e-02f,+4.96620908e-02f,-1.57162935e-01f,+2.56768502e-02f,+7.21143112e-02f,
+6.77031055e-02f,+8.15879554e-03f,+1.10215597e-01f,-9.42531377e-02f,-1.00365780e-01f,
+7.31323659e-02f,+1.65724859e-01f,-4.60201502e-02f,+3.04845691e-01f,-1.42163470e-01f,
+8.04567412e-02f,+1.13050587e-01f,+5.64366430e-02f,-2.06305146e-01f,+7.29293525e-02f,
+3.05970833e-02f,-9.57502350e-02f,+2.72142291e-01f,-9.62376967e-02f,-2.24006660e-02f,
-8.75335485e-02f,+3.79295163e-02f,-3.17860991e-02f,+2.15520278e-01f,-2.44910300e-01f,
-2.52389610e-01f,+1.63410511e-02f,+1.46257401e-01f,-1.46546647e-01f,-1.77471966e-01f,
+7.61067867e-02f,+7.12928101e-02f,-1.74651798e-02f,-3.18495883e-03f,+5.47753386e-02f,
+5.07460907e-02f,+1.15165509e-01f,+2.33220356e-03f,+1.11584999e-01f,+2.33040586e-01f,
+1.10702403e-01f,+6.86486661e-02f,-6.43461421e-02f,+1.08701400e-01f,+5.60170636e-02f,
-9.02156066e-03f,-5.77273928e-02f,+3.84042971e-02f,-4.21730168e-02f,-2.80526262e-02f,
+3.52053344e-02f,+8.19254145e-02f,-9.58211571e-02f,+2.41705924e-02f,+6.68168887e-02f,
-3.54891941e-02f,+8.00639689e-02f,-7.94719905e-02f,-1.57045126e-01f,-1.06663719e-01f,
+1.01168230e-01f,+1.97074890e-01f,-2.30812207e-02f,-1.60076499e-01f,-7.76830092e-02f,
+1.77689791e-02f,+1.14886411e-01f,+1.37918979e-01f,-1.93249507e-04f,-2.81566113e-01f,
+3.04746121e-01f,+1.31432116e-01f,+1.06342889e-01f,+6.59719929e-02f,+2.00003516e-02f,
+2.63990223e-01f,+3.87433618e-02f,+1.38288140e-01f,-1.18234120e-01f,-3.70337889e-02f,
+9.80148911e-02f,+1.09894365e-01f,+2.89180189e-01f,-3.82341743e-02f,+3.21969427e-02f,
+3.05209719e-02f,+1.23544998e-01f,-2.09761828e-01f,+8.26079100e-02f,-1.03761993e-01f,
+8.28920752e-02f,+1.57697544e-01f,+5.87514639e-02f,-1.05338339e-02f,-5.52150458e-02f,
+1.33173287e-01f,+1.98574457e-02f,-1.36886984e-01f,-4.73604649e-02f,+4.71438169e-02f,
+2.28228465e-01f,-1.28849193e-01f,+4.83350307e-02f,+1.14896163e-01f,-1.51287746e-02f,
-1.39437586e-01f,+5.63517995e-02f,+3.70078646e-02f,+2.10634515e-01f,+4.41927612e-02f,
+8.69410113e-02f,+2.98464239e-01f,+2.20728666e-02f,+1.47773340e-01f,+1.87337682e-01f,
-2.14555096e-02f,+2.79716887e-02f,+1.63915336e-01f,+2.12646559e-01f,+1.63345724e-01f,
-2.37930473e-02f,+4.21498209e-01f,+1.89243983e-02f,+8.88015181e-02f,+1.08173653e-01f,
-2.36146793e-01f,+1.29237816e-01f,-4.85565886e-02f,+2.72646666e-01f,+1.20817818e-01f,
-1.18748672e-01f,-7.25222519e-04f,+8.72902945e-02f,+8.69914815e-02f,+8.94975066e-02f,
-2.25900337e-01f,+3.58349651e-01f,-2.55222153e-02f,+4.28541936e-02f,-7.22408742e-02f,
+1.56539142e-01f,-1.41930416e-01f,-5.94348833e-02f,-5.99122653e-03f,+1.65760461e-02f,
+2.00880706e-01f,+2.21321806e-01f,-2.39070043e-01f,-9.44788568e-03f,-7.21656904e-03f,
+1.44484252e-01f,+2.66216900e-02f,-1.80470496e-01f,-4.40214500e-02f,-2.57884890e-01f,
-1.30420804e-01f,+1.81389332e-01f,+4.17341769e-01f,+1.96006179e-01f,-3.01501229e-02f,
+3.38377953e-02f,-2.05980316e-01f,+5.37968725e-02f,+1.75855726e-01f,-1.51282102e-01f,
+1.27485916e-01f,+8.51951391e-02f,+4.58549172e-01f,+3.09769176e-02f,-2.26512342e-03f,
+1.15334451e-01f,-3.46825346e-02f,+2.67800599e-01f,-2.24179756e-02f,+2.97446907e-01f,
+2.24183835e-02f,-1.66336030e-01f,+1.76426508e-02f,-1.50958821e-01f,+9.12587270e-02f,
-3.49770929e-03f,+1.31384470e-02f,+4.78041135e-02f,+1.09172009e-01f,-1.59578085e-01f,
-1.68865308e-01f,-3.45733911e-02f,-1.27774194e-01f,+2.38742996e-02f,+9.03439522e-02f,
+2.71759450e-01f,+6.72280639e-02f,+4.22539294e-01f,+9.99753475e-02f,+1.73545226e-01f,
+1.26277208e-01f,+6.56306148e-02f,+6.19679727e-02f,+1.06737807e-01f,+6.41625896e-02f,
-1.22876018e-01f,+1.24650281e-02f,+1.90680221e-01f,-1.32238016e-01f,+9.47042182e-02f,
+4.21213061e-01f,+1.16237566e-01f,+6.82785641e-03f,-1.98774099e-01f,+3.57701987e-01f,
+8.84102806e-02f,+4.99937730e-03f,-1.42800272e-01f,+3.85624729e-02f,-3.02795358e-02f,
+1.66894540e-01f,+5.62047958e-02f,+3.78556065e-02f,-1.01759754e-01f,-9.22556370e-02f,
+1.10203400e-01f,+1.02582127e-01f,-1.06223360e-01f,+1.20252050e-01f,-1.08665101e-01f,
-4.93165739e-02f,-2.28005260e-01f,+1.21810786e-01f,-2.17365604e-02f,-2.85962243e-02f,
-1.23240054e-01f,+6.72100410e-02f,+9.12131369e-03f,-2.26546273e-01f,-1.16474025e-01f,
+2.68236130e-01f,+1.07667200e-01f,+3.78415704e-01f,-3.67351770e-02f,-7.80102462e-02f,
+4.39792089e-02f,+1.52553573e-01f,-1.59673482e-01f,+1.04104139e-01f,+2.72289872e-01f,
-1.24536224e-01f,+3.51400524e-02f,-2.70351768e-01f,+2.20170975e-01f,+1.34576470e-01f,
+3.01627647e-02f,+6.21802658e-02f,+1.13835618e-01f,+4.00477834e-02f,-3.66780348e-03f,
+1.21921395e-04f,+4.29623052e-02f,-2.16897264e-01f,-3.82152684e-02f,+6.24488182e-02f,
+6.10293932e-02f,+1.30190507e-01f,+2.13538617e-01f,+5.81443645e-02f,+1.40364736e-01f,
-6.94656670e-02f,+3.97955365e-02f,-1.89029634e-01f,+4.76816557e-02f,+2.67968595e-01f,
+1.69100270e-01f,-1.06981181e-01f,-1.82352886e-01f,-5.25785610e-03f,-8.30119774e-02f,
-2.42379054e-01f,-1.83721725e-02f,-2.09967002e-01f,-1.89377993e-01f,+1.90415040e-01f,
+3.09334069e-01f,-1.69727802e-01f,-4.19959836e-02f,+1.20220788e-01f,-1.60706967e-01f,
-1.77872270e-01f,+5.85275367e-02f,+7.83277303e-02f,+5.85836098e-02f,-1.67488866e-02f,
+7.61501119e-02f,+2.18545660e-01f,+5.74199520e-02f,-6.32642815e-03f,+1.90476254e-01f,
+4.07489426e-02f,+2.44884193e-01f,+2.93443799e-02f,+2.31630936e-01f,-1.08799614e-01f,
-6.65306672e-02f,+1.15069598e-01f,+7.49834701e-02f,+8.28059539e-02f,-2.44151615e-02f,
-1.40225515e-02f,-1.97454810e-01f,-1.05179876e-01f,+6.84855431e-02f,-1.24531098e-01f,
+8.30985904e-02f,+3.11939418e-03f,-4.71644662e-02f,+2.90715490e-02f,+7.53142908e-02f,
+1.73551813e-01f,-8.45362023e-02f,-1.00190766e-01f,-1.52538009e-02f,+9.66353863e-02f,
+2.11177170e-02f,+7.92776346e-02f,-9.09205079e-02f,-4.44785394e-02f,+1.17452964e-01f,
-1.22076622e-03f,+1.81097418e-01f,-7.32908547e-02f,+6.51207790e-02f,+2.68296182e-01f,
-3.92658487e-02f,+1.03437364e-01f,+7.36608580e-02f,+2.17430517e-01f,-1.68808162e-01f,
-1.03969961e-01f,-4.43069115e-02f,+3.90216634e-02f,+5.84233887e-02f,+6.61469996e-02f,
+8.72297436e-02f,+9.64967161e-02f,-3.61799374e-02f,+7.79843554e-02f,-2.01914012e-02f,
+3.17724831e-02f,-2.13112563e-01f,-1.20534033e-01f,+1.58233687e-01f,+1.95126429e-01f,
+7.86667764e-02f,+4.17958722e-02f,-8.71098265e-02f,-2.41940171e-02f,+6.89413995e-02f,
-2.50010286e-04f,+2.44767562e-01f,+4.63554971e-02f,+1.54274791e-01f,+4.97765690e-02f,
-1.66642722e-02f,-1.16652839e-01f,-2.00044855e-01f,-3.40426087e-01f,-1.12262815e-01f,
-1.19048327e-01f,-6.08461201e-02f,-7.05137700e-02f,+4.16899100e-02f,+1.53218523e-01f,
-8.02456960e-02f,-3.02660037e-02f,+2.15021908e-01f,+4.27497104e-02f,+2.74263054e-01f,
+5.98309673e-02f,+2.45794460e-01f,+3.33449990e-02f,+6.12045787e-02f,+4.61590849e-02f,
-1.54242501e-01f,+1.97794989e-01f,-8.26894566e-02f,+8.50071907e-02f,+1.23832770e-01f,
-1.34960756e-01f,+1.41681999e-01f,+2.89548934e-01f,-3.19518335e-02f,+8.98805112e-02f,
+1.26820132e-01f,-2.20402420e-01f,+1.39942542e-01f,+2.41707247e-02f,-1.93639994e-02f,
-2.53777772e-01f,-1.29806362e-02f,-1.39324823e-02f,-1.12868868e-01f,-1.19483128e-01f,
-5.00423573e-02f,+1.07084163e-01f,+2.16248855e-01f,-1.04090020e-01f,-1.77423000e-01f,
-7.55845569e-03f,+2.11972803e-01f,-1.48262829e-01f,+1.67775840e-01f,+1.23729989e-01f,
+1.11468308e-01f,+1.75707743e-01f,-4.80702482e-02f,+7.05827400e-02f,+1.41468411e-03f,
+3.85436006e-02f,-6.07882179e-02f,+1.58868819e-01f,+1.90240353e-01f,-8.08649808e-02f,
-1.79414060e-02f,-2.21563354e-02f,+1.17904954e-01f,+1.46948129e-01f,+2.54854131e-02f,
+1.67479217e-01f,-2.12378517e-01f,+4.71101031e-02f,+3.28885838e-02f,+1.51971161e-01f,
+1.13613315e-01f,-1.46325707e-01f,-8.02279264e-02f,+7.01929033e-02f,+7.54128098e-02f,
-5.33795282e-02f,-5.92721552e-02f,-8.58544186e-02f,+1.23496577e-01f,+3.13605845e-01f,
-3.41356583e-02f,+7.76005313e-02f,-2.13325378e-02f,+2.91567326e-01f,+2.79876232e-01f,
+8.88836682e-02f,+1.49754852e-01f,-2.16705129e-01f,+3.93483788e-03f,+3.96015942e-01f,
-4.05312516e-02f,+1.48506507e-01f,+2.21360877e-01f,-5.67128770e-02f,-3.06065604e-02f,
+1.87267080e-01f,+1.98582530e-01f,+1.71179011e-01f,-1.68470456e-03f,+2.39708126e-01f,
-1.51243895e-01f,+1.12106271e-01f,-1.72411010e-01f,+5.52514717e-02f,-1.52084261e-01f,
-4.62010168e-02f,+2.07262427e-01f,+1.46709591e-01f,-1.89384133e-01f,+4.24117930e-02f,
-7.92892203e-02f,+2.14091763e-01f,-1.06494233e-01f,+1.70437172e-01f,+4.90016825e-02f,
-1.30321607e-01f,-3.45544182e-02f,+1.59520973e-02f,+1.95775926e-01f,+5.71063273e-02f,
-2.24604364e-02f,-7.82442465e-02f,-1.03044901e-02f,+9.58290473e-02f,+1.54316491e-02f,
-6.69123456e-02f,-1.77601889e-01f,+2.95744449e-01f,+2.54996985e-01f,+2.53575556e-02f,
-9.60855037e-02f,-2.71023154e-01f,+1.36817709e-01f,+2.12033570e-01f,-3.24415453e-02f,
+3.71333659e-02f,+1.31950095e-01f,+1.14018358e-01f,-1.92037746e-01f,+1.03505909e-01f,
+1.01728804e-01f,+1.41460717e-01f,+4.43738922e-02f,+5.87076582e-02f,-3.31180900e-01f,
+1.87364534e-01f,+9.80758667e-02f,+1.46265805e-01f,+2.73951828e-01f,+2.58105785e-01f,
-4.69806651e-03f,-4.33327034e-02f,+5.87476231e-03f,+9.54664424e-02f,-6.53707534e-02f,
-5.67954667e-02f,-6.70817569e-02f,+8.89584422e-02f,-2.89818972e-01f,+9.09333229e-02f,
-4.57137190e-02f,-1.83357358e-01f,-2.71527600e-02f,+9.54259560e-02f,+1.11356765e-01f,
-4.93915267e-02f,+1.07682213e-01f,+6.94368258e-02f,+1.29191756e-01f,+1.69348046e-02f,
-1.74951881e-01f,+4.94853295e-02f,+2.63196379e-02f,-1.43966293e-02f,-2.13854983e-01f,
+7.22618401e-02f,+2.19243377e-01f,+1.53405622e-01f,-7.66553432e-02f,+1.10560656e-01f,
+3.19410227e-02f,+2.56635636e-01f,-2.04825327e-02f,+3.41723114e-02f,+1.55962765e-01f,
-1.51659995e-01f,-4.40253578e-02f,-5.80498017e-02f,+7.62427179e-03f,+7.14532658e-02f,
+2.02420294e-01f,-5.86405732e-02f,+2.17272788e-01f,-9.01375785e-02f,+1.36143193e-01f,
+1.20922856e-01f,-1.81522012e-01f,+1.51699618e-01f,+7.07405284e-02f,-1.47555053e-01f,
+9.26373079e-02f,-4.37842719e-02f,+1.32970558e-02f,+2.25748330e-01f,+1.35454595e-01f,
+1.26825824e-01f,+3.67100149e-01f,+4.46984923e-04f,+2.31058374e-02f,-8.30087587e-02f,
+7.98695385e-02f,-7.67682046e-02f,-9.26200524e-02f,+3.33159156e-02f,-5.36658838e-02f,
-3.46723765e-01f,+1.62450224e-02f,+1.32355675e-01f,+2.52769776e-02f,-4.11852403e-03f,
+3.33477668e-02f,-2.47354284e-01f,+3.06232311e-02f,-2.37040281e-01f,+1.65496752e-01f,
-7.82968476e-03f,-3.11349090e-02f,+8.69410187e-02f,+1.20022103e-01f,+7.02222809e-02f,
-2.80071706e-01f,+8.60828012e-02f,-1.20234422e-01f,-1.48387209e-01f,+8.46003890e-02f,
+8.94833654e-02f,-1.51767448e-01f,+5.45363910e-02f,+7.35033154e-02f,+1.82720780e-01f,
-3.00390534e-02f,+2.86330730e-01f,+1.35582417e-01f,-1.82641625e-01f,-7.38449320e-02f,
+5.75314567e-04f,+1.32770054e-02f,+5.85552379e-02f,+1.73678294e-01f,+3.52052040e-02f,
+6.34792522e-02f,-8.32678750e-02f,-7.85809532e-02f,-4.50735010e-04f,+9.19029675e-03f,
+3.26523297e-02f,-2.64864089e-03f,-1.63403794e-01f,-2.01787010e-01f,+7.36691132e-02f,
-7.16354772e-02f,+7.10551441e-02f,+1.18880728e-02f,+1.89856682e-02f,-2.84173843e-02f,
+2.65037157e-02f,-1.43072810e-02f,-3.75339240e-02f,+1.58589557e-01f,-2.50356756e-02f,
+2.72100251e-02f,+4.24655154e-02f,+1.26865849e-01f,+3.11251014e-01f,+1.33183122e-01f,
+2.88688868e-01f,-3.60388756e-02f,-1.57330677e-01f,-1.68539807e-01f,+1.13731228e-01f,
-3.50012667e-02f,+1.34512722e-01f,-8.49729404e-02f,+1.35300579e-02f,+2.08273619e-01f,
+1.12022951e-01f,+2.13820279e-01f,+3.34478393e-02f,+1.19964024e-02f,+2.38703974e-02f,
+1.68333147e-02f,+2.39866264e-02f,+5.21236509e-02f,-1.45207003e-01f,+7.98839256e-02f,
+6.05907552e-02f,+3.79592001e-01f,-1.26374243e-02f,-2.34785497e-01f,+2.88112432e-01f,
+3.57819766e-01f,+3.43883559e-02f,-2.30790019e-01f,+2.76697308e-01f,-1.06788754e-01f,
+2.60943353e-01f,-6.61983714e-02f,+3.00248802e-01f,+8.10740236e-03f,+4.62709069e-02f,
+2.82966554e-01f,+1.98087156e-01f,+1.49153441e-01f,+3.93055081e-02f,+1.53795257e-01f,
+1.37105808e-01f,+4.18023691e-02f,+4.02126946e-02f,-1.11234963e-01f,+3.62152494e-02f,
+2.83732384e-01f,-1.27212226e-01f,+1.18337506e-02f,+2.42567733e-01f,+4.69707102e-02f,
-1.67076856e-01f,+4.37859967e-02f,+2.89858192e-01f,+2.76823312e-01f,-2.40789652e-01f,
+2.25992694e-01f,-8.04897249e-02f,+6.41907975e-02f,+9.02587269e-03f,+1.24560647e-01f,
+2.13517677e-02f,-1.89700142e-01f,+1.66200697e-01f,+3.25036123e-02f,-1.36499889e-02f,
+9.10658538e-02f,-5.23355678e-02f,+1.18235789e-01f,-2.26210728e-02f,+2.08256066e-01f,
-1.45844951e-01f,+1.64569646e-01f,-6.57678992e-02f,-1.02864191e-01f,+1.00517124e-01f,
+1.71550028e-02f,-1.91164494e-01f,+1.08178265e-01f,+7.94597119e-02f,+5.41212186e-02f,
+1.19182199e-01f,+1.28767774e-01f,-1.61065027e-01f,-3.38585302e-02f,+8.32139701e-02f,
+7.69112706e-02f,-1.45376369e-01f,-2.42499590e-01f,+1.50012910e-01f,+7.90738314e-02f,
+2.73707241e-01f,-9.08837467e-02f,-1.11996114e-01f,+2.23895296e-01f,+3.03284382e-03f,
+1.35874555e-01f,-1.12764746e-01f,-1.98998868e-01f,+2.52901435e-01f,+4.56314459e-02f,
+5.62006049e-02f,+1.15218088e-01f,+3.24540101e-02f,+6.17108755e-02f,-1.85113139e-02f,
-8.96411166e-02f,-1.78358063e-01f,+5.56378625e-02f,+8.71013198e-03f,-2.17585452e-02f,
+3.84481177e-02f,+6.57950491e-02f,+3.91474336e-01f,+6.90193698e-02f,-5.79113476e-02f,
-2.27997586e-01f,+4.54909503e-02f,+1.31608248e-01f,-2.44993374e-01f,+2.50042349e-01f,
-4.08141501e-02f,-1.31900892e-01f,+2.14722246e-01f,+2.30447173e-01f,+1.32739335e-01f,
+2.31080100e-01f,-1.06266467e-02f,-5.24259061e-02f,-2.03900382e-01f,+1.70949489e-01f,
+8.60026181e-02f,+4.60948981e-02f,-6.24410734e-02f,-1.09041534e-01f,-1.87366471e-01f,
+2.13939160e-01f,-1.28332134e-02f,+2.23237321e-01f,-1.89706311e-02f,-2.12414395e-02f,
+6.05689809e-02f,-1.72878280e-01f,+4.63756546e-02f,+5.26006557e-02f,+8.48785788e-02f,
+9.47032571e-02f,+1.47141621e-01f,+8.18927512e-02f,-6.70560002e-02f,-2.12740786e-02f,
-1.20102808e-01f,+1.43834963e-01f,+4.47048470e-02f,+5.76796234e-02f,+1.27308965e-02f,
+3.41347698e-03f,-6.70029670e-02f,+2.91112274e-01f,-2.68616110e-01f,-1.15302809e-01f,
-1.49566755e-01f,+3.61978486e-02f,+1.39994413e-01f,+1.73848778e-01f,+6.76286146e-02f,
-1.57011941e-01f,-7.35954568e-02f,-1.34503156e-01f,-9.45971459e-02f,+1.04613237e-01f,
+1.89002275e-01f,-2.63991412e-02f,+1.36341497e-01f,-5.92446402e-02f,-3.92404318e-01f,
+6.76144361e-02f,-4.23647948e-02f,+1.38968945e-01f,+1.18288167e-01f,+1.26037523e-01f,
+1.84953764e-01f,+1.94951341e-01f,+1.72140941e-01f,-1.48853421e-01f,+6.10632636e-02f,
-2.18505442e-01f,+2.04356134e-01f,+1.82363421e-01f,+8.08041617e-02f,+7.24009424e-02f,
-2.55551457e-01f,-9.14640259e-03f,-5.53150736e-02f,-1.10397249e-01f,-1.54051527e-01f,
+1.40630007e-01f,+2.43247494e-01f,-3.22341114e-01f,+1.84015498e-01f,+1.58047572e-01f,
+2.03058138e-01f,+7.20192641e-02f,-6.03072532e-02f,-2.23549530e-02f,-3.94097604e-02f,
+3.63227785e-01f,+2.54217923e-01f,-1.03940554e-01f,-1.04231402e-01f,+8.68139863e-02f,
-5.57288378e-02f,+5.23412265e-02f,-3.86196077e-02f,+1.18770838e-01f,-1.67549416e-01f,
-2.23613754e-02f,-6.63139252e-03f,+3.44311371e-02f,+1.02538958e-01f,+2.04341218e-01f,
+3.69032830e-01f,-2.59696525e-02f,-4.93616164e-02f,-1.65203214e-02f,-3.35183069e-02f,
-1.11081284e-02f,+8.74779224e-02f,+3.30530137e-01f,+2.15826139e-01f,+3.01267523e-02f,
-5.63772172e-02f,-2.96393424e-01f,+1.06575146e-01f,-6.02113530e-02f,+1.66747063e-01f,
-6.13054968e-02f,+1.97711080e-01f,+6.69063628e-02f,-8.51723365e-03f,-1.54074833e-01f,
+7.48419389e-02f,+1.97436705e-01f,-7.63440728e-02f,+2.97479276e-02f,+1.83942646e-01f,
+1.17412455e-01f,-1.57742098e-01f,+1.33425564e-01f,+8.27019960e-02f,+9.24165845e-02f,
+2.20897555e-01f,-1.94954216e-01f,-1.32017463e-01f,+3.12184412e-02f,+2.03532025e-01f,
-1.08738482e-01f,+4.42053899e-02f,+6.40592072e-03f,-3.24371532e-02f,+3.66062522e-01f,
+1.68984339e-01f,-2.07381040e-01f,+7.65685597e-03f,+2.20068827e-01f,-1.40756309e-01f,
-1.29069895e-01f,+2.82705426e-01f,+1.83441892e-01f,+1.46027818e-01f,+1.00520007e-01f,
-6.61621690e-02f,+3.90663333e-02f,-7.56818615e-03f,-9.20877904e-02f,-4.05938886e-02f,
+1.25240102e-01f,+9.77133811e-02f,+2.68322434e-02f,-9.07052085e-02f,+6.93706274e-02f,
-9.04516205e-02f,-1.19970277e-01f,-3.52219343e-01f,-1.29645854e-01f,+4.66096140e-02f,
-1.70391276e-01f,-1.21070810e-01f,+3.02279294e-01f,-1.93400279e-01f,+8.73755366e-02f,
-5.22060916e-02f,-2.74627656e-01f,-1.51029095e-01f,-7.93946534e-02f,+3.60545933e-01f,
-2.63327837e-01f,+8.62324461e-02f,+1.08916387e-01f,+1.01420321e-02f,+2.07378358e-01f,
+1.62307397e-01f,+1.69798478e-01f,-1.11467406e-01f,+7.01609254e-02f,-1.81465164e-01f,
+2.38399222e-01f,+2.72697210e-01f,-1.32497698e-01f,-4.92265150e-02f,+6.47031963e-02f,
+1.54489979e-01f,+2.81057209e-02f,+1.61044374e-01f,+1.07502649e-02f,-2.88613513e-03f,
-1.92978308e-02f,-8.56279954e-02f,+9.50488299e-02f,-2.05677990e-02f,+8.85757282e-02f,
-1.61062181e-01f,+1.53589219e-01f,+5.77034838e-02f,+7.61134457e-03f,-8.58407021e-02f,
+1.05689988e-01f,+1.89195573e-01f,+1.63125023e-01f,+5.04271388e-02f,-3.45425569e-02f,
+1.20595753e-01f,-1.42330736e-01f,+2.02643767e-01f,+1.11842826e-01f,+1.49681434e-01f,
+2.57437881e-02f,-6.18204474e-02f,+5.84148206e-02f,+2.80973852e-01f,+5.20843528e-02f,
+1.75021756e-02f,+1.90471053e-01f,-6.54391944e-02f,-1.22949257e-01f,+8.30950662e-02f,
+2.44329557e-01f,+2.52803892e-01f,-5.91238514e-02f,+2.47592017e-01f,+6.79711550e-02f,
+2.35517249e-01f,-1.57825902e-01f,+1.58187419e-01f,+7.22111836e-02f,+1.78108178e-02f,
+1.49919942e-01f,-5.42346127e-02f,+1.90290466e-01f,-7.83413053e-02f,-1.18987866e-01f,
-1.04057819e-01f,-2.02167124e-01f,+3.19085270e-01f,-1.38411343e-01f,-1.52300391e-02f,
+4.46036011e-02f,-5.43958992e-02f,-2.95355082e-01f,+2.75159702e-02f,+1.48661673e-01f,
+5.05053326e-02f,-7.95682445e-02f,-4.22330886e-01f,-2.07138792e-01f,+9.46521834e-02f,
+2.90499300e-01f,+7.28896111e-02f,-1.42290266e-02f,-2.42211208e-01f,+5.70101477e-02f,
-6.14721477e-02f,-1.99693814e-01f,-1.12789929e-01f,-1.37225837e-01f,-1.24356501e-01f,
+3.47713269e-02f,-1.55788369e-03f,+1.01915479e-01f,-1.55868620e-01f,+2.92444043e-02f,
+4.89822077e-03f,+9.71734338e-03f,+3.61311287e-02f,+3.76713276e-01f,-7.10458308e-02f,
+2.35800460e-01f,-1.71878815e-01f,-6.33950755e-02f,-9.13342088e-02f,+1.17015600e-01f,
+1.32180989e-01f,-5.18018231e-02f,-6.36707991e-02f,+8.23663920e-02f,+6.67468160e-02f,
-1.48966108e-04f,-1.38911545e-01f,-4.63147797e-02f,+1.20494157e-01f,-1.19733764e-02f,
+1.15627982e-01f,-1.14985451e-01f,+6.67420179e-02f,+7.34334439e-02f,+1.00779384e-01f,
+2.35718582e-03f,+4.32908460e-02f,+3.03730428e-01f,+4.42920700e-02f,+1.82227809e-02f,
-7.47301197e-03f,+9.34445634e-02f,-4.18675914e-02f,-1.49715289e-01f,-5.70263853e-03f,
-2.45152801e-01f,-5.07523194e-02f,+1.94732957e-02f,+8.13351721e-02f,+1.84923202e-01f,
-4.01983708e-02f,+1.29232872e-02f,+9.69592109e-02f,+2.68852592e-01f,+5.16182221e-02f,
+2.15192363e-01f,-1.86827898e-01f,-1.73287503e-02f,+2.03243956e-01f,+6.23547696e-02f,
+1.31403252e-01f,-1.54758677e-01f,+1.53992057e-01f,-1.65519658e-02f,-1.70364320e-01f,
-4.22477350e-02f,+2.99669616e-02f,-5.67425229e-02f,-6.82928190e-02f,+3.29665616e-02f,
-1.47520617e-01f,+1.03253745e-01f,+3.48303795e-01f,-1.12067819e-01f,+7.24686980e-02f,
-1.39462398e-02f,+3.15862931e-02f,+3.78510132e-02f,+1.51828602e-01f,+1.50608586e-03f,
+3.47496308e-02f,-9.07052606e-02f,+5.84691800e-02f,-1.67029664e-01f,-4.65634875e-02f,
+2.02564523e-01f,+3.22675556e-01f,-7.15576634e-02f,+8.29677433e-02f,+5.66881523e-02f,
-6.52991012e-02f,-7.34686479e-02f,-1.35198468e-02f,+6.47212788e-02f,-1.56955142e-02f,
+1.96480840e-01f,+1.99439123e-01f,+1.41316429e-02f,-2.13723272e-01f,-1.44824132e-01f,
+3.93290482e-02f,-2.03514099e-02f,+9.48385224e-02f,+2.61357743e-02f,+1.80518225e-01f,
+9.96543840e-02f,-5.49631268e-02f,-4.04966362e-02f,-5.62652349e-02f,+3.26026529e-02f,
+4.96848822e-02f,+1.20401263e-01f,-1.09356537e-01f,-1.24637298e-01f,-5.49144596e-02f,
+8.52888525e-02f,-6.19873889e-02f,+1.04922473e-01f,+1.38190806e-01f,-1.87422812e-01f,
-1.39283806e-01f,+2.20591173e-01f,+6.50948808e-02f,-1.81067586e-02f,+3.49895537e-01f,
-7.73037151e-02f,-5.42928651e-02f,+8.94213840e-02f,+2.36642241e-01f,-1.22876912e-01f,
+1.14106745e-01f,-1.57583445e-01f,-2.60592699e-01f,+3.02610576e-01f,+6.66800514e-02f,
-2.26542249e-01f,+9.79561657e-02f,+1.33812994e-01f,+3.75818878e-01f,+1.19305523e-02f,
+6.47645146e-02f,+1.98599517e-01f,-2.17436463e-01f,-2.72311062e-01f,+5.20460010e-02f,
-6.10742532e-02f,-4.37797084e-02f,+1.24426149e-01f,+2.14530438e-01f,-1.36172205e-01f,
-1.45408660e-01f,-2.89667025e-02f,+1.72664568e-01f,+5.43941818e-02f,-1.33886561e-01f,
-2.76924688e-02f,-9.08661485e-02f,-1.45171955e-02f,+1.28189638e-01f,+2.80484945e-01f,
-2.19250008e-01f,+1.45544007e-01f,+1.37159199e-01f,-1.77022815e-01f,-1.82221830e-01f,
+1.55802339e-01f,-1.60554215e-01f,+3.56800519e-02f,-3.22419428e-03f,+1.25600621e-01f,
+7.96070695e-02f,-7.80429840e-02f,-1.53564036e-01f,+1.29057884e-01f,+1.00151345e-01f,
+2.73549050e-01f,+9.90654994e-03f,-3.58805172e-02f,-4.49937470e-02f,+2.16032073e-01f,
+4.08663191e-02f,+7.45669799e-03f,+6.78453669e-02f,+1.13440394e-01f,+6.77019879e-02f,
+1.16998889e-01f,-7.91941658e-02f,+2.23216593e-01f,+1.05496615e-01f,-2.51414806e-01f,
+7.76151717e-02f,+2.74328828e-01f,-2.12274790e-01f,+7.49546513e-02f,-1.28981620e-01f,
+7.62454793e-02f,-6.54698014e-02f,-1.56202450e-01f,+1.01133659e-01f,+1.18986063e-01f,
+6.68365285e-02f,-5.05891489e-03f,+8.54503736e-02f,-2.01183155e-01f,-3.14274356e-02f,
-1.05164975e-01f,-7.82510340e-02f,-1.82351813e-01f,+8.14012513e-02f,+1.36185005e-01f,
+8.39101598e-02f,-2.00657010e-01f,+4.96011563e-02f,+1.26131743e-01f,-5.22080883e-02f,
+1.61950644e-02f,+1.80985630e-01f,-5.49339093e-02f,+5.98657280e-02f,+9.77236480e-02f,
-4.45455424e-02f,-8.23530182e-03f,-1.70632616e-01f,-2.15402562e-02f,-1.92976117e-01f,
-1.56055823e-01f,+2.24650607e-01f,-4.05711271e-02f,+1.40024245e-01f,-7.55254403e-02f,
-5.27491095e-03f,-4.86184172e-02f,-8.46955553e-02f,+1.90602437e-01f,+1.20594472e-01f,
+1.61802560e-01f,+4.99305278e-02f,-1.95053577e-01f,-3.93052250e-02f,+2.04278886e-01f,
+1.62924692e-01f,-1.51663840e-01f,-2.61420757e-02f,+9.94621515e-02f,+8.03747866e-03f,
-3.72097418e-02f,+1.21785738e-01f,+1.88132808e-01f,+3.97957340e-02f,+9.51124206e-02f,
-1.06603831e-01f,+1.81610674e-01f,+7.53196478e-02f,-3.32049024e-03f,-4.03490663e-02f,
-8.12768638e-02f,+9.39214006e-02f,-5.18637113e-02f,+3.15677002e-02f,-1.54606715e-01f,
-7.17064589e-02f,+5.47032990e-02f,-1.23176068e-01f,-5.31448126e-02f,-5.69149442e-02f,
+5.44129163e-02f,+6.85126409e-02f,-1.70911700e-02f,-1.03780724e-01f,+1.85643330e-01f,
+1.05457067e-01f,-2.28664484e-02f,+9.89413038e-02f,+2.71951199e-01f,+5.78980520e-02f,
-2.90665869e-03f,-1.45493252e-02f,+3.67518544e-01f,-1.62632123e-01f,-2.76646584e-01f,
+1.41975313e-01f,-1.55663505e-01f,-1.52365565e-01f,-5.99130467e-02f,-1.56392798e-01f,
-2.99119711e-01f,+1.06271200e-01f,+1.25166863e-01f,+2.02599764e-02f,+3.82977240e-02f,
-1.79333389e-01f,+1.24522306e-01f,-1.85220793e-01f,-1.45160957e-04f,+1.43684773e-02f,
+7.17551187e-02f,-8.50320235e-02f,-6.68078810e-02f,-1.24616973e-01f,-1.61456853e-01f,
+1.88370228e-01f,-1.07786097e-01f,-2.95584798e-02f,+1.57305777e-01f,+5.30739222e-03f,
+1.40246972e-01f,-4.26102966e-01f,-4.51601706e-02f,+6.29385263e-02f,+1.74707770e-01f,
+3.65747541e-01f,+7.44693726e-02f,+1.65693596e-01f,-9.28437039e-02f,+2.84940809e-01f,
+1.60444438e-01f,+1.19281173e-01f,+3.95923972e-01f,-1.20663986e-01f,-2.94555873e-01f,
+1.90242186e-01f,-7.64406398e-02f,+1.67387411e-01f,+1.42204156e-02f,+1.42046079e-01f,
+1.64121747e-01f,+1.76829975e-02f,+2.59828232e-02f,+3.87046009e-01f,-7.96484351e-02f,
-6.80562481e-02f,+9.69269797e-02f,-1.57834575e-01f,+1.82989836e-01f,+5.77513799e-02f,
-1.11845937e-02f,-3.51146162e-02f,-1.08113484e-02f,-2.03011408e-02f,+3.06480154e-02f,
-1.44528061e-01f,+1.19061442e-02f,-6.62967563e-02f,+5.79464957e-02f,+1.24752574e-01f,
-2.19974309e-01f,+2.33976424e-01f,+1.03011698e-01f,-6.97989985e-02f,-4.62284945e-02f,
+7.99339190e-02f,-8.40784684e-02f,+1.02825217e-01f,+2.49076281e-02f,-2.09126487e-01f,
-1.12213297e-02f,-1.78157911e-01f,-1.30210996e-01f,+3.45238158e-03f,+3.85862626e-02f,
+4.25694026e-02f,-1.93664223e-01f,+2.10287303e-01f,+9.75688100e-02f,-1.91715509e-01f,
+4.05869633e-02f,-2.09284052e-01f,-1.72110312e-02f,-9.81258601e-02f,-4.35754687e-01f,
+3.75434645e-02f,-8.04018527e-02f,-1.59610361e-01f,+4.46617696e-03f,-1.44086286e-01f,
-1.55380145e-01f,+2.04887688e-01f,+1.95612341e-01f,+7.44872242e-02f,+2.48757582e-02f,
+1.18310973e-01f,+4.83609959e-02f,-7.45923445e-02f,-6.28068745e-02f,+1.68310300e-01f,
-1.62761919e-02f,+6.31571747e-03f,-4.74390239e-02f,+5.63344061e-02f,+3.60099733e-01f,
-2.97747552e-02f,-1.62300125e-01f,+4.32438478e-02f,+1.84053779e-01f,+8.94972011e-02f,
-2.18006209e-01f,-7.27039427e-02f,-1.67421684e-01f,-1.88898325e-01f,+3.36792976e-01f,
-2.11579368e-01f,+4.32773530e-02f,+4.72751670e-02f,+1.83005929e-01f,+6.96988031e-02f,
+1.56524360e-01f,-1.23140804e-01f,-1.06794955e-02f,-3.05158138e-01f,-2.67020047e-01f,
-1.03577435e-01f,+1.85995057e-01f,+2.65528094e-02f,-5.99313043e-02f,+2.24690259e-01f,
-5.38036115e-02f,+1.21693671e-01f,+1.53948233e-01f,-1.30595505e-01f,+5.32006659e-02f,
+1.63543522e-01f,+2.74823964e-01f,+1.06945604e-01f,+1.68713555e-01f,-2.15180051e-02f,
-2.78445482e-01f,+1.58139661e-01f,+1.74178153e-01f,+2.15489209e-01f,-1.13111869e-01f,
-1.16784483e-01f,-5.20212799e-02f,-5.92670813e-02f,-7.90929347e-02f,-5.01096956e-02f,
-3.55715561e-03f,+4.24464159e-02f,-1.19453922e-01f,+2.02896595e-01f,-3.50302756e-02f,
+9.54615623e-02f,-1.64324224e-01f,+1.47017226e-01f,-1.77769244e-01f,+2.06087366e-01f,
+2.28228047e-02f,-2.96831250e-01f,+6.91626035e-03f,-1.18901439e-01f,-1.29890099e-01f,
+2.07703114e-01f,+9.97385159e-02f,-9.36772600e-02f,+2.11312145e-01f,+2.18717381e-02f,
+1.99748680e-01f,+8.76672100e-03f,+1.89391404e-01f,-3.57905887e-02f,-2.00983301e-01f,
-2.36890074e-02f,+8.07586238e-02f,+2.13692058e-02f,-4.32304069e-02f,+1.95605904e-01f,
-1.12937622e-01f,+1.96563542e-01f,+5.63822500e-02f,-1.99763432e-01f,+6.64144829e-02f,
-1.69977292e-01f,+3.39870937e-02f,-2.11148769e-01f,+7.80846784e-03f,+2.39232615e-01f,
-2.42552206e-01f,-2.81310141e-01f,+1.04727089e-01f,-1.39001638e-01f,+6.23674840e-02f,
-2.33837396e-01f,+1.32736877e-01f,+6.51388764e-02f,+1.45159096e-01f,+2.55764592e-02f,
-1.04252234e-01f,-1.13279074e-01f,-1.52941301e-01f,-9.39431563e-02f,+1.35820895e-01f,
+1.12359211e-01f,+2.93125771e-02f,-9.55926254e-02f,-2.52685510e-03f,-1.97277576e-01f,
+7.80026317e-02f,+1.96622282e-01f,-4.55388473e-03f,+1.95595454e-02f,+3.77998874e-02f,
-3.25250953e-01f,-2.71605607e-02f,+5.83030656e-02f,+2.72637457e-01f,+1.39546469e-01f,
-3.37629393e-02f,-4.29427139e-02f,+2.35497147e-01f,+4.24469113e-02f,+2.42082655e-01f,
+2.97681719e-01f,+2.23877311e-01f,-3.68253887e-03f,+8.17440823e-02f,-8.40202793e-02f,
-1.35287791e-02f,+1.20120840e-02f,+3.27532478e-02f,-4.60388511e-02f,+9.98036936e-02f,
-1.06695686e-02f,+5.02196662e-02f,-1.07832730e-01f,-4.52621235e-03f,-3.80756736e-01f,
+2.05599695e-01f,-1.80364043e-01f,-2.58231871e-02f,-1.33146435e-01f,-2.63647437e-01f,
-7.97369778e-02f,+3.25321257e-01f,-4.14072089e-02f,-4.06333283e-02f,-2.07306687e-02f,
-1.81083858e-01f,-3.12767774e-02f,-1.51579097e-01f,-5.54992676e-01f,+1.06840320e-01f,
+7.01457560e-02f,+3.68105859e-04f,+5.75051419e-02f,-5.64797074e-02f,-4.40676391e-01f,
+2.71366119e-01f,+5.08940034e-02f,-9.27201882e-02f,+2.76224881e-01f,+1.60795271e-01f,
-5.96164726e-02f,-1.84606612e-01f,-8.89401231e-03f,+1.75039113e-01f,+6.04127236e-02f,
+1.48937898e-02f,+2.31859952e-01f,+1.07844025e-01f,-2.62712836e-01f,+4.88542914e-02f,
-1.58270560e-02f,+1.13824708e-02f,+1.30142540e-01f,-1.85123757e-01f,+1.00187153e-01f,
+6.17577620e-02f,+5.82463406e-02f,-1.85860321e-01f,+1.42238230e-01f,+4.26292010e-02f,
+1.06128685e-01f,+1.07324034e-01f,-9.15416554e-02f,-7.91694522e-02f,-6.53566048e-02f,
-1.15381852e-01f,+1.86814833e-02f,-1.22844242e-01f,+2.09380433e-01f,-2.36359999e-01f,
-1.86138138e-01f,+8.64848942e-02f,+1.40221668e-02f,+6.76724538e-02f,+3.17608491e-02f,
+6.34318739e-02f,-6.76838905e-02f,+2.72063632e-02f,-1.36910141e-01f,+4.58319345e-03f,
-2.45277166e-01f,+2.26951644e-01f,-3.37353647e-02f,-5.41989207e-02f,-2.05195859e-01f,
-2.56233010e-02f,+9.52316150e-02f,-6.62552714e-02f,-1.23539031e-03f,+1.46255448e-01f,
+1.16165116e-01f,-1.21177696e-01f,+3.28910053e-02f,-8.21817443e-02f,-9.76234768e-03f,
-8.01813453e-02f,-6.56002536e-02f,+2.70372443e-02f,-1.25014959e-02f,+1.00818045e-01f,
+1.39805153e-01f,-1.93463132e-01f,+4.24943119e-02f,+2.61376500e-01f,+3.20756696e-02f,
-4.91030365e-02f,-2.38125294e-01f,+8.97375941e-02f,-2.00289026e-01f,-8.55280738e-03f,
-7.47427195e-02f,-1.72569528e-01f,-7.27159157e-02f,-1.60297588e-01f,+1.52141616e-01f,
+3.81565355e-02f,+2.78649339e-03f,-3.72367501e-02f,+1.42932221e-01f,-1.35566875e-01f,
+1.01151593e-01f,-1.15055643e-01f,+4.11952049e-01f,-1.04693202e-02f,+1.53649570e-02f,
+1.68190584e-01f,+1.92731336e-01f,-8.48037750e-02f,-1.54108465e-01f,+4.72191535e-02f,
-1.17623851e-01f,+1.83720216e-01f,-6.46562828e-03f,-1.12857908e-01f,+1.32951438e-01f,
+8.07918683e-02f,+1.09567620e-01f,-1.17135197e-01f,+7.15264529e-02f,+2.15590969e-01f,
+1.10711388e-01f,+2.98045546e-01f,+9.74013358e-02f,-1.46263972e-01f,-7.94101283e-02f,
-1.01700932e-01f,-2.34082326e-01f,-2.74880111e-01f,-2.77645200e-01f,-3.02964211e-01f,
-3.40455204e-01f,-1.27795637e-02f,+2.50506308e-02f,-3.91948640e-01f,-3.95824388e-02f,
+6.43802807e-02f,-7.20660537e-02f,+2.30210692e-01f,+1.12489695e-02f,-4.78208251e-02f,
+1.59814358e-01f,-9.03116316e-02f,-6.78578615e-02f,+9.57048610e-02f,-5.75647615e-02f,
-9.39942822e-02f,-6.37922287e-02f,+1.24494798e-01f,-2.07822129e-01f,-2.02229172e-01f,
-1.53318733e-01f,-3.32310684e-02f,-1.26508558e-02f,+7.66220391e-02f,-2.12557971e-01f,
+2.90488213e-01f,+1.68202937e-01f,+4.97906834e-01f,+1.58732325e-01f,+8.53832215e-02f,
-8.54511112e-02f,+4.09838744e-02f,+2.16717124e-01f,+9.43437070e-02f,-1.39889531e-02f,
+1.41150370e-01f,-1.04291648e-01f,+1.94497928e-01f,+3.53894792e-02f,+2.76712507e-01f,
-2.55255044e-01f,-3.98722365e-02f,-8.17551017e-02f,+1.25344947e-01f,-7.29333311e-02f,
+1.74298003e-01f,+1.70321107e-01f,+4.43372726e-01f,+2.86989480e-01f,-1.88765928e-01f,
+6.58049732e-02f,+8.11955146e-03f,-5.08359969e-02f,-3.74850095e-03f,-2.19073758e-01f,
-1.90310955e-01f,-3.23649980e-02f,+1.60974916e-02f,+3.82799618e-02f,+1.35237679e-01f,
-1.43982798e-01f,+2.99364366e-02f,+5.81127219e-02f,+1.35950595e-01f,+1.68220494e-02f,
+2.46031255e-01f,+2.11410314e-01f,-2.57261265e-02f,-1.48889363e-01f,+1.86035812e-01f,
-1.09185077e-01f,-2.71723955e-03f,+2.30894774e-01f,-9.76524502e-02f,-7.76962563e-02f,
+2.63764523e-04f,-7.09124580e-02f,+2.45474577e-01f,-2.76270926e-01f,+2.27696478e-01f,
+1.68139771e-01f,+4.90004569e-02f,+1.04113571e-01f,-1.60525709e-01f,+2.16123089e-01f,
+4.32066992e-02f,-5.01552299e-02f,-1.55480355e-01f,+1.08895607e-01f,+8.30911845e-02f,
+1.03322186e-01f,-7.98503533e-02f,-2.28930503e-01f,-9.30396188e-03f,-5.25784306e-02f,
-9.57958922e-02f,+2.07006782e-01f,+1.00388661e-01f,-1.12290479e-01f,-5.44630736e-02f,
+1.45637736e-01f,+3.01974326e-01f,+5.88250719e-02f,+1.63649753e-01f,-2.02329889e-01f,
+8.22403058e-02f,-2.37614359e-03f,-6.72821254e-02f,+1.54805154e-01f,-2.16819942e-01f,
-1.41991526e-01f,+1.36702627e-04f,+5.38829379e-02f,+2.76144203e-02f,-8.32367390e-02f,
+1.52063087e-01f,-4.35595453e-01f,+3.99858266e-01f,-1.17741160e-01f,-6.49256110e-02f,
+6.99688643e-02f,-2.47715235e-01f,+2.14334473e-01f,-2.68016402e-02f,-2.83776522e-01f,
-1.97461853e-03f,-8.35335925e-02f,+7.67191201e-02f,+4.91292179e-02f,-1.33925647e-01f,
-1.36191204e-01f,+8.29476491e-03f,+2.94751357e-02f,+7.93167204e-02f,-5.28407767e-02f,
-9.26254243e-02f,+1.74592629e-01f,+6.44381100e-04f,-2.55138665e-01f,+1.28547132e-01f,
+8.83821771e-02f,+1.31562456e-01f,+3.19839537e-01f,-4.21656109e-02f,+6.22963160e-02f,
-2.54419819e-02f,+2.24231437e-01f,-1.51587920e-02f,+1.08386636e-01f,+2.28170276e-01f,
+2.58746892e-01f,+5.90503700e-02f,+2.34865800e-01f,-1.87526718e-01f,+3.58050577e-02f,
+1.64914713e-03f,-1.50871836e-02f,+1.01784490e-01f,-7.03745633e-02f,-8.79659690e-03f,
-4.44578618e-01f,-1.05928831e-01f,-2.79575467e-01f,-2.26350307e-01f,-1.09168947e-01f,
+7.46642053e-02f,-6.01319596e-02f,-1.42342567e-01f,+2.98952460e-01f,+1.35552492e-02f,
+5.00134341e-02f,+1.31584421e-01f,-6.65927008e-02f,-1.11588530e-01f,-7.40525424e-02f,
-9.96610448e-02f,+9.93450265e-03f,-3.97584662e-02f,-2.79206038e-03f,-3.33159044e-02f,
+2.66679257e-01f,+1.43909350e-01f,-1.65104613e-01f,-1.47087779e-02f,+1.50927335e-01f,
+7.08096549e-02f,-1.48187906e-01f,+3.39203626e-01f,+1.30700931e-01f,-1.31535247e-01f,
-9.16499272e-02f,-3.39463383e-01f,+1.31747518e-02f,+3.14058691e-01f,-4.56194393e-02f,
+2.03116015e-01f,-6.86210841e-02f,+1.78091004e-01f,+1.37727559e-01f,+2.92964071e-01f,
+5.20463660e-02f,+5.83382957e-02f,+2.51851201e-01f,+5.31926490e-02f,-9.51804593e-02f,
+1.58144310e-01f,-7.41944984e-02f,+1.41252995e-01f,-1.24943644e-01f,+1.73112616e-01f,
+1.96390092e-01f,-1.72503263e-01f,-3.10879737e-01f,+1.84221268e-01f,+7.45471716e-02f,
+7.55061209e-02f,-2.14804515e-01f,+3.19182336e-01f,+3.43864672e-02f,-3.37903738e-01f,
+3.35430577e-02f,+1.01121873e-01f,-4.48053032e-02f,+1.46634370e-01f,-2.93912981e-02f,
+8.95348117e-02f,-1.86644178e-02f,+1.97858810e-01f,-3.57717834e-02f,+4.42056656e-02f,
+2.50502646e-01f,+2.64295787e-01f,+6.63824705e-03f,+6.20168373e-02f,+2.41500497e-01f,
-9.40114260e-02f,-4.04566713e-02f,+1.52744561e-01f,+4.87621017e-02f,+2.32901827e-01f,
-4.42163367e-03f,+1.37680948e-01f,+1.32176634e-02f,+2.63802022e-01f,+2.84860134e-01f,
-1.23969428e-01f,-9.27095041e-02f,+2.88552679e-02f,+8.41489211e-02f,-4.04375233e-03f,
+2.82095760e-01f,+1.14461081e-02f,-1.64914317e-03f,-1.28755584e-01f,+2.09842816e-01f,
-3.46041530e-01f,+2.08600491e-01f,-1.09867873e-02f,+1.84242994e-01f,+4.22744043e-02f,
+1.08998351e-01f,+2.34849732e-02f,-5.95192648e-02f,-6.15160204e-02f,+2.22304687e-01f,
-1.41249329e-01f,-2.77078807e-01f,+3.42265636e-01f,+1.35678589e-01f,+1.75896943e-01f,
+2.01852590e-01f,-7.09567368e-02f,+2.20783100e-01f,-3.05149127e-02f,+1.74333960e-01f,
+2.02683240e-01f,-8.01911298e-03f,-1.96025565e-01f,-1.55152932e-01f,-2.95295477e-01f,
+3.17416750e-02f,+2.58677099e-02f,-1.53198525e-01f,-1.47058830e-01f,+6.42927513e-02f,
+2.17947066e-01f,+2.09979683e-01f,+2.99783051e-01f,+1.61993697e-01f,+3.94004136e-02f,
+2.93040395e-01f,-5.91573352e-03f,+1.10395670e-01f,+6.08177967e-02f,+1.20710544e-01f,
-8.07740986e-02f,+1.12205386e-01f,+1.69783190e-01f,+5.72593510e-02f,-3.31235915e-01f,
-1.03359848e-01f,+6.63251728e-02f,-3.79792750e-01f,-3.13050240e-01f,+1.86520778e-02f,
-2.25247607e-01f,+2.31600583e-01f,-1.71755422e-02f,-4.05819155e-02f,-5.25693968e-02f,
+2.14766189e-01f,-1.92159697e-01f,-1.34402543e-01f,+1.22260936e-01f,+2.78659649e-02f,
+3.84716362e-01f,+1.06598303e-01f,+2.44674996e-01f,+4.09621775e-01f,+6.90056011e-02f,
+6.71215504e-02f,-1.94995001e-01f,+9.73570198e-02f,+1.41395077e-01f,+4.37535614e-01f,
+9.88972932e-03f,-9.90122110e-02f,+2.20328778e-01f,-6.27326593e-02f,+1.95683427e-02f,
+1.57564417e-01f,+1.15459889e-01f,-2.98742373e-02f,+5.24479374e-02f,+1.09059304e-01f,
-1.55902624e-01f,-2.50713397e-02f,+1.59313343e-02f,+3.75944197e-01f,+6.46210983e-02f,
-2.17971385e-01f,+6.37156889e-02f,+3.14217448e-01f,-9.33028311e-02f,-1.13797197e-02f,
-6.49553463e-02f,+2.23132223e-02f,+4.41499837e-02f,+3.96871977e-02f,-3.55175972e-01f,
-7.40018934e-02f,+4.39980393e-03f,-4.67795208e-02f,-8.18211436e-02f,-4.94045205e-02f,
-1.26711711e-01f,-6.38385788e-02f,+2.77136415e-01f,-7.28580281e-02f,+1.11506749e-02f,
-1.38425410e-01f,-2.69136224e-02f,+1.27283454e-01f,+1.13570821e-02f,+2.93327421e-01f,
+6.72500432e-02f,-3.39620449e-02f,-9.59480554e-02f,-1.62677914e-01f,+2.96689659e-01f,
-8.18237215e-02f,+1.26825139e-01f,-2.00957626e-01f,-3.46612483e-02f,-1.59189388e-01f,
-8.12246371e-03f,-2.77440641e-02f,-1.00435838e-01f,-2.22385451e-01f,+1.87324107e-01f,
+1.02519833e-01f,-1.07556179e-01f,+1.55074745e-01f,+3.51560637e-02f,+2.62632459e-01f,
+1.59302667e-01f,+1.57215804e-01f,+1.74195003e-02f,-7.67368600e-02f,+3.86783123e-01f,
-1.30734220e-01f,+1.59121230e-01f,-2.19435081e-01f,+1.59961239e-01f,+1.68628216e-01f,
+5.56495227e-02f,+1.45934880e-01f,+3.57854217e-01f,+1.57620739e-02f,-7.61294588e-02f,
+3.95917520e-02f,-3.30037102e-02f,-2.70104587e-01f,+2.74030454e-02f,-1.83559451e-02f,
+1.16730832e-01f,+1.14868052e-01f,-7.19700009e-02f,+3.10150981e-01f,-3.61969359e-02f,
+9.25872177e-02f,+7.01425448e-02f,-7.53253102e-02f,+1.13573804e-01f,-2.41615161e-01f,
-2.43136913e-01f,-2.38670200e-01f,-1.45477653e-01f,+7.08734840e-02f,-4.57867719e-02f,
+1.36439443e-01f,-5.70139894e-03f,-4.41317670e-02f,+8.63274187e-02f,+2.04160497e-01f,
+4.09206450e-01f,+1.45296440e-01f,-5.56979030e-02f,-3.36891979e-01f,+5.54473698e-01f,
+1.55594289e-01f,-2.11095989e-01f,-1.32212982e-01f,+9.86045375e-02f,+2.55204797e-01f,
+5.47056459e-02f,-5.89961000e-02f,+6.17253967e-03f,-1.02408327e-01f,-2.17372090e-01f,
-2.43078526e-02f,+4.22089361e-02f,-2.21613646e-02f,-3.59267563e-01f,+1.25087619e-01f,
+5.58480583e-02f,+1.35613689e-02f,+2.11145207e-01f,-7.61986151e-02f,-1.92273706e-01f,
-1.52845010e-01f,-5.32640070e-02f,+1.92376092e-01f,-2.51799226e-02f,+5.32655511e-03f,
+7.91214108e-02f,+1.82651147e-01f,+2.48868525e-01f,-5.72072305e-02f,-2.47759700e-01f,
+1.19975090e-01f,-4.36831526e-02f,+1.56201601e-01f,+2.18864366e-01f,+1.97099969e-01f,
+5.86742572e-02f,-1.18992649e-01f,-1.22321360e-01f,-1.56678185e-02f,-1.24967314e-01f,
-9.87706557e-02f,-6.34343922e-02f,-4.75923670e-03f,+1.38353929e-03f,+2.07145274e-01f,
+1.02735953e-02f,+1.84034914e-01f,+5.43111563e-02f,-9.25689097e-03f,+1.25563323e-01f,
-2.64142789e-02f,+1.23860709e-01f,+1.54185563e-01f,+4.08449918e-02f,-8.57069809e-03f,
-1.97715938e-01f,-1.02144398e-01f,+1.92452431e-01f,+1.10522658e-01f,+6.93252608e-02f,
-4.88866009e-02f,-2.23123297e-01f,+2.03286037e-01f,+1.95518695e-02f,+3.74812074e-02f,
-1.81537136e-01f,-1.16167076e-01f,-4.45581883e-01f,-1.90275654e-01f,-2.80005962e-01f,
-9.34153497e-02f,-3.45487557e-02f,+6.07594736e-02f,+1.21911138e-01f,+1.62388474e-01f,
-1.16450667e-01f,+1.50142834e-01f,-4.86814864e-02f,-1.31294906e-01f,-2.57962734e-01f,
+9.21571553e-02f,-1.05453551e-01f,+1.64689735e-01f,+9.81678069e-02f,-1.70361221e-01f,
-1.53133765e-01f,-2.04230845e-01f,-4.60369177e-02f,+8.77602845e-02f,+1.21142119e-01f,
-2.08807826e-01f,+3.59405726e-02f,-5.49207069e-02f,+1.60381228e-01f,-2.17499374e-03f,
-8.66801217e-02f,+8.62357691e-02f,+1.56395569e-01f,+3.58472437e-01f,-2.52413660e-01f,
-1.21541083e-01f,-2.36144662e-01f,-8.66146758e-02f,-5.24259508e-02f,-1.29936531e-01f,
+9.28678587e-02f,+1.30018368e-01f,-3.25060147e-03f,-4.06543277e-02f,-1.12019338e-01f,
+7.96753317e-02f,-1.18532047e-01f,-4.79926109e-01f,+1.09922126e-01f,+1.05896108e-01f,
+3.20502549e-01f,-4.47596759e-02f,+2.68084824e-01f,+3.64172161e-01f,+1.50604352e-01f,
+1.03766426e-01f,+5.54883713e-03f,+5.20331599e-02f,+2.00777143e-01f,+1.12090409e-01f,
+6.30608574e-02f,-2.81541869e-02f,+3.98835428e-02f,-3.49306688e-02f,-9.44433659e-02f,
+1.09552056e-01f,+1.43659590e-02f,+7.10707307e-02f,+1.24333173e-01f,+1.59683019e-01f,
+8.10529143e-02f,-1.55212700e-01f,-1.74539924e-01f,-1.28497466e-01f,-7.44564161e-02f,
-1.82921425e-01f,+6.18025176e-02f,-1.05703190e-01f,+3.10179852e-02f,+2.66464382e-01f,
+1.32589146e-01f,+2.69342959e-01f,-5.93333459e-03f,+1.49258211e-01f,+2.08803639e-01f,
-1.63754746e-01f,+5.05572781e-02f,+2.46343520e-02f,+4.57922481e-02f,-2.15991020e-01f,
+1.77132681e-01f,+6.78672865e-02f,-1.45007342e-01f,-9.54082757e-02f,+4.43863980e-02f,
+1.24057807e-01f,-8.42046812e-02f,-6.76270723e-02f,-9.34907794e-02f,+2.20780279e-02f,
+2.10431535e-02f,-3.07936728e-01f,-1.54748991e-01f,+3.00459303e-02f,-1.65335685e-02f,
+2.11566165e-02f,-5.01488894e-02f,-3.49396348e-01f,-2.08584309e-01f,+2.04445273e-01f,
-1.29773647e-01f,+1.16282344e-01f,-9.67655703e-02f,-7.50494655e-03f,+1.29516229e-01f,
+2.34679524e-02f,-1.60772577e-01f,+6.24682987e-03f,+2.06171215e-01f,-1.33623466e-01f,
+4.05156845e-03f,+2.60484576e-01f,+2.64698770e-02f,+3.50355357e-02f,-6.96531497e-03f,
-2.99097955e-01f,+8.42899457e-02f,-1.30154863e-01f,-2.85483509e-01f,+2.40597472e-01f,
+3.20572890e-02f,-8.93855020e-02f,+1.37203501e-03f,+7.61699229e-02f,-7.92722926e-02f,
-9.24328640e-02f,-6.18701875e-02f,+1.05306311e-02f,-5.43208010e-02f,-1.04281917e-01f,
-1.64591577e-02f,+6.82150945e-02f,+8.43729824e-02f,+2.01536249e-02f,+8.06991905e-02f,
-3.97492349e-01f,+2.55554859e-02f,+1.91869646e-01f,-1.18229538e-01f,-1.08546875e-01f,
-2.77283132e-01f,+1.43787593e-01f,-1.49581075e-01f,+9.53955725e-02f,+1.07191026e-01f,
-3.04295891e-03f,+1.78887710e-01f,-1.93608522e-01f,+6.56408295e-02f,+3.85735044e-03f,
-1.16609223e-01f,+3.92656475e-02f,+1.59036100e-01f,-1.12556301e-01f,+1.13956593e-02f,
-7.16689527e-02f,+1.16819113e-01f,+9.19395238e-02f,+2.06023470e-01f,-1.43612847e-01f,
-6.35453016e-02f,-1.69071585e-01f,+2.22283900e-01f,-9.30866152e-02f,+3.23616453e-02f,
-8.10854807e-02f,+1.06672376e-01f,+3.55467349e-01f,-8.10855255e-03f,+5.73427081e-02f,
-1.46128729e-01f,+1.04233757e-01f,-7.18310624e-02f,-3.29649180e-01f,+3.05047095e-01f,
+1.47285759e-01f,+9.97227579e-02f,+1.12152174e-01f,+1.11081004e-01f,-3.66844535e-02f,
-2.62662414e-02f,+1.12979993e-01f,-1.75014555e-01f,-1.32542670e-01f,-1.83882281e-01f,
+1.17738292e-01f,-6.27537668e-02f,-2.34282568e-01f,+8.30484256e-02f,-2.59329118e-02f,
+1.49097681e-01f,-3.55475038e-01f,+1.63683638e-01f,-7.80612603e-02f,+1.06857978e-01f,
-1.93430036e-01f,-1.20223030e-01f,+2.33914167e-01f,+1.93644036e-02f,-1.01704737e-02f,
-5.16967177e-02f,-2.63267070e-01f,+4.95601624e-01f,+1.26458809e-01f,+2.80963153e-01f,
-6.98051751e-02f,-2.81800598e-01f,+2.76393890e-01f,+9.88378078e-02f,+3.11095357e-01f,
-4.04599756e-02f,+1.66395396e-01f,-1.68931291e-01f,-4.82165404e-02f,-4.17238660e-02f,
-2.37785324e-01f,-2.98406959e-01f,+2.33254135e-01f,+1.11720778e-01f,+7.17013031e-02f,
-1.54572174e-01f,+1.88736960e-01f,+1.43102482e-01f,-2.17731670e-01f,-3.58748920e-02f,
+1.00412406e-01f,+8.24066103e-02f,-2.78783619e-01f,+1.32757708e-01f,+7.57423288e-04f,
+1.68557718e-01f,+1.49774313e-01f,-1.94221213e-01f,-2.29439735e-01f,-3.84975187e-02f,
+2.10796908e-01f,-8.36359113e-02f,-8.22051316e-02f,+6.23137876e-03f,-1.82801008e-01f,
-8.48990381e-02f,+1.66989326e-01f,+1.12851813e-01f,-5.76567091e-03f,+2.56108254e-01f,
-3.17655593e-01f,+5.43239191e-02f,+2.06887141e-01f,-9.09981579e-02f,-7.36146867e-02f,
+1.73538983e-01f,+3.14012199e-04f,+8.16590711e-02f,+5.62126100e-01f,-1.30668283e-01f,
-1.13656886e-01f,-1.17191620e-01f,-3.33824903e-02f,+3.74694690e-02f,+2.07364410e-01f,
+7.59719834e-02f,+2.83171654e-01f,+1.51798606e-01f,+1.10948779e-01f,+7.73419887e-02f,
+7.80269131e-02f,+1.24827184e-01f,+2.18175277e-01f,+3.95028479e-02f,+1.67958871e-01f,
-8.04619938e-02f,-3.87232564e-02f,-6.71846718e-02f,-1.87781200e-01f,-8.83831754e-02f,
+2.59595931e-01f,-1.19882785e-02f,-1.44440345e-02f,-4.11916792e-01f,-4.10223126e-01f,
+1.00536101e-01f,+1.20825596e-01f,-1.71354651e-01f,+7.66764581e-02f,-2.18569953e-02f,
+1.31163910e-01f,-1.23718724e-01f,+1.37156591e-01f,-1.52740795e-02f,+2.06469037e-02f,
+2.35917181e-01f,-9.48886722e-02f,+9.81447399e-02f,+9.68481228e-03f,+7.59658888e-02f,
+5.65512888e-02f,+8.43793675e-02f,-3.00070763e-01f,-3.77074145e-02f,-3.03826094e-01f,
+6.94652051e-02f,+1.42696902e-01f,+8.32410678e-02f,+3.56110930e-01f,+1.02698050e-01f,
+2.58677918e-02f,+1.39797032e-02f,+3.86272930e-02f,-1.10111989e-01f,-1.37512535e-01f,
+6.62407950e-02f,-2.74199396e-01f,+2.11919650e-01f,+4.09934402e-01f,-3.23438138e-01f,
+5.51590845e-02f,+1.32722259e-01f,-1.13660861e-02f,+7.22463131e-02f,-5.03374003e-02f,
+8.93659331e-03f,+1.40211880e-01f,+1.70895696e-01f,-1.62338719e-01f,-8.44006147e-03f,
+4.21169437e-02f,+4.02138293e-01f,-6.94067180e-02f,-1.95022076e-01f,+1.14007525e-01f,
-2.23076373e-01f,-1.89407319e-02f,+1.87507778e-01f,-2.73864150e-01f,+2.14367062e-01f,
+1.02424495e-01f,+2.23727837e-01f,+2.58159250e-01f,-1.00693218e-01f,+3.18566740e-01f,
-2.91385680e-01f,-6.17189445e-02f,-2.16787696e-01f,+1.15552679e-01f,+6.38975576e-02f,
-1.76463932e-01f,+1.22706592e-01f,+4.59806211e-02f,-4.76453789e-02f,+1.09546781e-01f,
+8.97524953e-02f,+1.11160204e-01f,+1.29738033e-01f,-1.12269938e-01f,+1.62430964e-02f,
+8.56023654e-02f,+1.32561773e-01f,-3.98759358e-02f,-6.64876923e-02f,+3.11368644e-01f,
-1.55853197e-01f,+1.47215530e-01f,+2.12541372e-01f,+3.77789646e-01f,-1.20339012e-02f,
+1.66215777e-01f,-1.68821365e-01f,-8.59287903e-02f,-7.14139491e-02f,-1.59825057e-01f,
+4.33022588e-01f,-8.45841765e-02f,-3.39164019e-01f,-2.11917460e-02f,-6.66060522e-02f,
+3.23101766e-02f,-1.29922539e-01f,+1.09364294e-01f,+2.70242155e-01f,-6.70411019e-03f,
-7.30860978e-02f,-5.29437512e-02f,-3.08479704e-02f,+1.66824922e-01f,+8.39130282e-02f,
+5.70022576e-02f,+7.68742785e-02f,-1.63688697e-02f,-3.13727260e-02f,-2.68112779e-01f,
-3.51924486e-02f,-1.62966609e-01f,+3.30303431e-01f,-1.84957072e-01f,-1.28711984e-01f,
-2.53491163e-01f,-1.23401741e-02f,-6.71180561e-02f,-3.83756217e-03f,-5.52223157e-03f,
-8.42287764e-02f,-1.92844108e-01f,+9.19896066e-02f,-1.84933633e-01f,+2.49677688e-01f,
-4.01522629e-02f,+1.43059030e-01f,+8.30188915e-02f,-9.76644978e-02f,+1.64432570e-01f,
-2.04606861e-01f,-5.07421270e-02f,-3.46902221e-01f,-2.31720328e-01f,+2.27205217e-01f,
+2.04452634e-01f,+6.07412383e-02f,+3.12528968e-01f,-3.55562605e-02f,-1.58518344e-01f,
+3.70638996e-01f,-1.07833199e-01f,+1.74359471e-01f,-2.02256203e-01f,+1.37900636e-01f,
+8.49304646e-02f,-1.64075688e-01f,+1.26443356e-01f,+2.27996439e-01f,+2.08939193e-03f,
-2.43819222e-01f,+1.95458025e-01f,-4.31937091e-02f,+8.46544728e-02f,+1.37094269e-02f,
-2.03735027e-02f,-2.17739925e-01f,-3.73701811e-01f,+1.31229952e-01f,-1.58888876e-01f,
-1.12852767e-01f,+2.96862513e-01f,-9.47724730e-02f,-5.48806451e-02f,-1.03854418e-01f,
+1.41023949e-01f,+2.89489299e-01f,-1.11261439e-02f,-3.63138281e-02f,-1.71943083e-01f,
-2.28397958e-02f,+1.57165259e-01f,-2.90740486e-02f,-6.44243434e-02f,-1.79668546e-01f,
+3.88395667e-01f,-8.55957642e-02f,-2.47348294e-01f,-4.56768364e-01f,-3.67785282e-02f,
+3.75634789e-01f,+2.23365247e-01f,-1.19986586e-01f,-2.39796370e-01f,+4.56207842e-01f,
+5.14237434e-02f,+2.18106121e-01f,-2.73583412e-01f,-1.14346564e-01f,-4.26305085e-02f,
+1.39920246e-02f,+3.24641466e-01f,-1.03235520e-01f,+5.25498450e-01f,+1.22575246e-01f,
-1.46115661e-01f,+1.41291812e-01f,+2.90394515e-01f,+5.91610782e-02f,+2.16751341e-02f,
+2.28195146e-01f,-1.38166979e-01f,-3.02308667e-02f,+2.97876298e-01f,+1.69729330e-02f,
+1.53252050e-01f,+2.24376932e-01f,-1.11433186e-01f,+5.59053719e-02f,+4.30191383e-02f,
-2.37957761e-02f,+1.01236455e-01f,+9.77632627e-02f,-3.25468659e-01f,+3.86818801e-03f,
+1.13824860e-03f,+1.19146459e-01f,+1.76801104e-02f,-1.83912307e-01f,-1.45318896e-01f,
+6.89845979e-02f,+6.02187403e-02f,+8.59023482e-02f,-2.80202985e-01f,-2.43868247e-01f,
+1.87350005e-01f,+1.50812164e-01f,-6.33216202e-02f,+2.60142952e-01f,-6.38400167e-02f,
+1.73462252e-03f,+1.47905275e-01f,+2.83179313e-01f,+7.18715563e-02f,-7.31241181e-02f,
+2.90484786e-01f,+3.66637170e-01f,+1.86230510e-01f,-8.01281258e-03f,+1.00273080e-01f,
-1.39867410e-01f,-2.29538321e-01f,-4.12821360e-02f,-1.44771440e-02f,+4.62397523e-02f,
+3.28726381e-01f,-1.55823216e-01f,+1.59642860e-01f,-1.30667344e-01f,-1.47352815e-01f,
-1.90126281e-02f,-1.31366730e-01f,-1.69448748e-01f,+5.24939597e-02f,-3.34512182e-02f,
+1.65089890e-01f,+6.52721673e-02f,-4.54707406e-02f,+1.44226654e-02f,+6.57053478e-03f,
-2.80097157e-01f,+1.82455089e-02f,+2.60772675e-01f,+1.37492567e-01f,-8.32203627e-02f,
+1.56865031e-01f,+9.49072912e-02f,+7.71433040e-02f,-6.76328763e-02f,-8.05510953e-02f,
+2.05872908e-01f,+1.30813494e-01f,+2.51169205e-01f,+6.93585426e-02f,-1.78629547e-01f,
-1.29290894e-01f,+4.73806672e-02f,-6.83725625e-02f,+1.40597625e-02f,+2.26028204e-01f,
-1.95609964e-02f,+1.00733358e-02f,-1.30100593e-01f,+9.79714468e-02f,-1.36028215e-01f,
-1.41278887e-02f,+2.71601602e-02f,-1.53292492e-01f,-3.81662650e-03f,+9.00790766e-02f,
-6.93288893e-02f,-4.41590756e-01f,+2.86004752e-01f,+3.14493775e-02f,-3.87896062e-03f,
-2.29962513e-01f,-3.96586321e-02f,+4.37543958e-01f,+9.62294638e-02f,+8.15503597e-02f,
-1.95433144e-02f,-1.09720016e-02f,-1.93047710e-02f,+8.18960071e-02f,+1.00687616e-01f,
-1.36481166e-01f,-2.05024794e-01f,+2.10049793e-01f,-1.59003437e-01f,+1.32933706e-01f,
-7.49326721e-02f,-1.91777661e-01f,+1.49228632e-01f,+1.39180467e-01f,+3.21955770e-01f,
-5.57531491e-02f,+6.79547489e-02f,+1.70286983e-01f,-3.17926019e-01f,-3.75598110e-02f,
-1.16422489e-01f,+1.08310953e-01f,+2.60820091e-02f,+9.77821201e-02f,+4.08417024e-02f,
+7.21832812e-02f,-1.46837840e-02f,-1.49694845e-01f,-6.80185556e-02f,-2.21332341e-01f,
-1.63450986e-01f,+3.41097862e-02f,+3.52466223e-03f,-2.15403333e-01f,+2.93945581e-01f,
+6.22113384e-02f,-7.90266991e-02f,+8.50641355e-02f,+7.80580053e-03f,-4.94809635e-02f,
+8.45275894e-02f,+5.13480371e-03f,+5.74109256e-02f,+1.91959247e-01f,+1.58492923e-01f,
-3.11498903e-02f,-2.55291862e-03f,-7.26736011e-03f,+7.57393567e-03f,+1.26783758e-01f,
-1.24298334e-01f,-2.27826774e-01f,-3.20947886e-01f,-5.86005859e-02f,+2.19173968e-01f,
+8.27975869e-02f,-2.07575664e-01f,-1.96873158e-01f,+2.64841348e-01f,+2.60942578e-01f,
+8.37754533e-02f,+4.18398619e-01f,-7.80648515e-02f,-1.17587432e-01f,-3.63438912e-02f,
-4.58507519e-03f,+1.05693191e-01f,-4.03399676e-01f,-4.47610766e-03f,-6.49104416e-02f,
-2.66757667e-01f,+1.52686253e-01f,+1.99341420e-02f,+8.77305027e-03f,-1.41881868e-01f,
-1.78187147e-01f,-1.04796238e-01f,+4.94222417e-02f,-1.98582143e-01f,-5.72499037e-02f,
-3.09377331e-02f,+6.81475271e-03f,-3.95429850e-01f,-6.39619604e-02f,-2.11910889e-01f,
-6.37423759e-03f,+1.90393090e-01f,+2.09274925e-02f,-1.86495721e-01f,+3.95788401e-02f,
-7.51864836e-02f,+9.76538584e-02f,+8.94047972e-03f,-3.56251113e-02f,-4.05655913e-02f,
-1.96151108e-01f,-1.53802425e-01f,-2.03310236e-01f,-2.01937873e-02f,+3.34547013e-01f,
-1.60239622e-01f,-8.20041075e-02f,+1.65268168e-01f,+2.06529617e-01f,-2.58183926e-01f,
+1.55430272e-01f,+2.65342534e-01f,+8.51891935e-02f,+3.00703704e-01f,-1.25995815e-01f,
-2.95084529e-02f,+5.57196327e-02f,+1.19997218e-01f,+1.46676630e-01f,-1.00377142e-01f,
+1.00080997e-01f,+2.11198092e-01f,-1.82012931e-01f,+1.20958664e-01f,+1.35370076e-01f,
+1.73083410e-01f,+2.00492427e-01f,-1.61092430e-01f,-6.78599030e-02f,+1.26813412e-01f,
-2.92552024e-01f,-2.02897307e-03f,-3.13544869e-02f,+7.26090223e-02f,+2.65346318e-01f,
+2.36704692e-01f,+2.48597398e-01f,-8.73000920e-03f,-4.84198220e-02f,+2.32726038e-01f,
-6.98279887e-02f,-1.16803572e-01f,-7.48838484e-02f,+1.52412638e-01f,+2.17806250e-01f,
+3.02926213e-01f,-1.33060977e-01f,+1.28197029e-01f,-1.78432584e-01f,-6.10037781e-02f,
+3.39247316e-01f,-2.97340840e-01f,+2.81505696e-02f,-1.91575137e-03f,+8.79459903e-02f,
+2.68736202e-02f,-1.00673370e-01f,-4.69089746e-02f,+1.80677529e-02f,-1.71306469e-02f,
+1.23004124e-01f,+1.89231455e-01f,-6.53872341e-02f,-1.86681841e-02f,-4.56434786e-01f,
+1.36724576e-01f,-3.87898758e-02f,-1.66293576e-01f,+2.03536272e-01f,+1.50776029e-01f,
+1.36678759e-02f,+4.08757776e-02f,+5.25237210e-02f,-3.71556282e-02f,+1.34738028e-01f,
+8.02703202e-02f,-8.16067457e-02f,-1.35544777e-01f,-6.24823980e-02f,-1.57529324e-01f,
+2.44688496e-01f,+1.91518977e-01f,+9.75539312e-02f,-6.00831620e-02f,-3.94755555e-03f,
+2.42563039e-01f,+3.07917953e-01f,-2.50759780e-01f,+5.06237708e-02f,-7.32456148e-02f,
-8.66692886e-02f,+1.27951413e-01f,+3.25463206e-01f,-1.94508895e-01f,-5.96756302e-02f,
+1.76283896e-01f,+3.40302855e-01f,-4.84966636e-02f,+1.84805363e-01f,-7.00407848e-02f,
-2.18198538e-01f,+5.62728709e-03f,-1.53103292e-01f,-3.18433382e-02f,+9.24143195e-03f,
-2.44509503e-01f,-1.27896741e-01f,-3.75174016e-01f,+1.65399656e-01f,+1.31131247e-01f,
+3.74068879e-02f,+1.38577133e-01f,-4.29381996e-01f,-1.78449765e-01f,+1.82279095e-01f,
-3.14051390e-01f,+4.17826213e-02f,+3.35865706e-01f,+1.70506552e-01f,-1.21302731e-01f,
-2.20086142e-01f,+2.08688900e-01f,+1.40127791e-02f,-3.90807800e-02f,-6.12059655e-03f,
+2.97924932e-02f,+5.79892620e-02f,+1.59274846e-01f,+1.31441027e-01f,-1.53528422e-01f,
-2.01314136e-01f,+3.14745530e-02f,-4.40685637e-02f,-5.77670410e-02f,-4.59113009e-02f,
-2.27050688e-02f,+1.12518862e-01f,-3.18021178e-02f,-1.95365131e-01f,-7.70370811e-02f,
-8.76594484e-02f,-2.65762031e-01f,+2.20926665e-03f,+6.02696389e-02f,-1.33393216e-03f,
-3.32713127e-02f,+4.74142909e-01f,+1.54210359e-01f,+1.63718820e-01f,+1.33765370e-01f,
-5.31479195e-02f,-2.94164985e-01f,-2.18632773e-01f,+2.72545870e-02f,+4.36947644e-02f,
-5.05543686e-02f,+2.39452854e-01f,-8.28964487e-02f,+1.23321474e-01f,+2.74943918e-01f,
-3.65571007e-02f,-1.24288030e-01f,-2.18958825e-01f,-4.11315076e-02f,-3.66100781e-02f,
-2.25235224e-02f,-1.26608536e-02f,-3.26710604e-02f,+1.15551837e-01f,+1.13000438e-01f,
+5.98938316e-02f,-4.03500706e-01f,-1.08072266e-01f,-3.98569740e-02f,-2.27086067e-01f,
-6.13721125e-02f,-1.22514404e-01f,+2.72056814e-02f,-2.77938358e-02f,+2.32566193e-01f,
-7.77983144e-02f,+7.70310983e-02f,+8.41589496e-02f,+8.63280743e-02f,-2.72627268e-02f,
-1.15688853e-01f,+1.84339926e-01f,-1.66037790e-02f,-1.82360392e-02f,+9.62605402e-02f,
+3.49136554e-02f,+9.29265544e-02f,-4.06700969e-02f,+1.34897456e-01f,+5.36359847e-01f,
-5.23693338e-02f,+9.50541049e-02f,+1.02502249e-01f,+7.51558915e-02f,+2.12090071e-02f,
-1.51511475e-01f,-8.41084719e-02f,+3.45987380e-02f,+2.31103562e-02f,+4.47038472e-01f,
+6.55486956e-02f,-1.21535286e-01f,-1.70026019e-01f,+1.90611988e-01f,-5.38870879e-02f,
+7.77662592e-03f,-5.08497842e-02f,-3.09439786e-02f,+1.27727181e-01f,+1.23694755e-01f,
-5.49420826e-02f,+7.49593750e-02f,-9.37031433e-02f,+7.15092421e-02f,+1.25457048e-02f,
+3.71864945e-01f,-4.51634169e-01f,-5.30890040e-02f,+1.16760395e-01f,+3.70364562e-02f,
-1.15021907e-01f,+5.10665588e-02f,-2.30885074e-01f,-6.10940158e-02f,-1.27740651e-01f,
-1.89586226e-02f,-1.04341395e-01f,+7.71865919e-02f,-1.39270768e-01f,-4.61845286e-02f,
+3.10046017e-01f,-5.92719465e-02f,-1.66993365e-02f,-5.43474071e-02f,-2.39905983e-01f,
+2.28907838e-02f,+7.51812235e-02f,-3.02720349e-02f,-5.64787053e-02f,-5.90968765e-02f,
-8.34870785e-02f,-1.06014058e-01f,+5.76207638e-02f,-2.10197985e-01f,+1.55234590e-01f,
-8.07363912e-02f,-5.31063005e-02f,-2.30683342e-01f,+6.96642324e-02f,-1.23527132e-01f,
+8.94097760e-02f,+6.31292239e-02f,-4.69662882e-02f,-7.60427043e-02f,+2.77282596e-02f,
-3.93906869e-02f,+2.09276348e-01f,+2.40113199e-01f,+1.14248902e-01f,-2.56235376e-02f,
+2.01639488e-01f,-2.18255058e-01f,-6.28696680e-02f,-2.56199967e-02f,+5.38316332e-02f,
+1.25856772e-01f,+4.10414003e-02f,+1.13067687e-01f,+1.35274380e-01f,+2.25744545e-02f,
+4.39436361e-02f,-7.51885250e-02f,-9.08893812e-03f,+1.31886795e-01f,-3.29922363e-02f,
+1.71207320e-02f,+6.94581419e-02f,-1.71511993e-02f,-1.91546500e-01f,+6.52062073e-02f,
-4.94825356e-02f,-1.13496175e-02f,-9.10606310e-02f,-8.80646706e-02f,-4.26109470e-02f,
-7.98296854e-02f,+1.12192996e-01f,+9.93679985e-02f,-6.54535219e-02f,+1.65321119e-02f,
-1.63175657e-01f,+4.25978124e-01f,-1.05555862e-01f,-9.58323404e-02f,+2.26616755e-01f,
-4.03541699e-02f,-2.46292025e-01f,+1.86062142e-01f,+3.24622482e-01f,+2.08322152e-01f,
+5.23167402e-02f,+1.70301393e-01f,+2.14543622e-02f,+2.02924564e-01f,+2.89137475e-02f,
-8.62583145e-02f,+2.50848323e-01f,-9.68244001e-02f,+6.55458644e-02f,-2.44578227e-01f,
-1.47465616e-01f,+1.19177729e-01f,+8.31063371e-03f,+6.10860325e-02f,-3.80302429e-01f,
-2.47281082e-02f,+3.80734131e-02f,+2.31837761e-02f,-5.88825457e-02f,-1.25724509e-01f,
+1.17562108e-01f,+5.86705841e-02f,+5.90454005e-02f,-1.44637898e-01f,+2.25276668e-02f,
-1.67898446e-01f,+5.46976477e-02f,-2.14130089e-01f,+4.30806190e-01f,-8.27105120e-02f,
-1.32997140e-01f,+7.21591637e-02f,-2.65232176e-02f,-2.95613497e-01f,-6.82594627e-02f,
+1.48419470e-01f,-2.09321097e-01f,+1.30517498e-01f,+4.63608801e-02f,-2.92744804e-02f,
+2.05358420e-03f,+2.87952423e-01f,+1.52409479e-01f,+9.35948342e-02f,+1.84461474e-01f,
+2.58869566e-02f,+2.99827605e-01f,+1.17869943e-01f,+2.95046940e-02f,+3.32584232e-01f,
+3.71440232e-01f,-4.39623429e-04f,+2.07258195e-01f,-1.40759617e-01f,-1.08328857e-01f,
-9.68403816e-02f,+1.22523621e-01f,-1.06819041e-01f,+1.83301717e-01f,+9.25275013e-02f,
+9.25021693e-02f,+3.24152499e-01f,+1.45553708e-01f,-2.07583070e-01f,+1.77963488e-02f,
-2.24076092e-01f,-8.35122466e-02f,+1.23369154e-02f,+5.17667122e-02f,-9.46927369e-02f,
-1.73529778e-02f,-6.77964389e-02f,+1.38477400e-01f,+5.07719330e-02f,+1.81654647e-01f,
+3.63454521e-01f,+8.71822685e-02f,-1.04640283e-01f,+2.82612741e-01f,-1.84960008e-01f,
+6.87517747e-02f,-8.71025473e-02f,+1.37527242e-01f,-2.06132069e-01f,-1.02696903e-01f,
+2.16963664e-01f,+3.23803335e-01f,+1.27591357e-01f,+5.47560975e-02f,+1.37313558e-02f,
-1.34584174e-01f,+7.96260610e-02f,+1.22034863e-01f,-1.35256335e-01f,-1.24686345e-01f,
-1.67600855e-01f,+1.61687896e-01f,-2.03780323e-01f,+2.28048209e-02f,-7.71595836e-02f,
+5.87840229e-02f,-1.38271227e-01f,+1.88791022e-01f,+1.11962035e-01f,+4.19120938e-02f,
+1.24872485e-02f,-1.89392552e-01f,+4.38606292e-02f,+2.82518983e-01f,+2.85711765e-01f,
-1.66668743e-01f,+1.65922269e-02f,-1.43098071e-01f,+5.76730585e-03f,-3.07256639e-01f,
+1.07892063e-02f,-3.39291357e-02f,-8.83736759e-02f,+1.45054206e-01f,-1.97025705e-02f,
+5.91432638e-02f,-1.95353497e-02f,+2.05404349e-02f,+5.99698313e-02f,+3.07485461e-02f,
+1.33881494e-01f,+2.79545933e-01f,-1.52495946e-03f,-8.98681730e-02f,+2.72032231e-01f,
-1.33831516e-01f,-3.53293270e-02f,+5.83930463e-02f,-2.01110289e-01f,-1.22763075e-01f,
+4.70448621e-02f,-6.55435920e-02f,-9.64702964e-02f,-4.51953486e-02f,+2.72693604e-01f,
+7.22791031e-02f,-4.11703885e-02f,+9.74019095e-02f,+1.07771121e-01f,+5.01296632e-02f,
-1.10113705e-02f,+2.24680472e-02f,+7.43531715e-03f,+1.81681946e-01f,+2.18467295e-01f,
+2.76732385e-01f,+2.68272143e-02f,+2.29515091e-01f,-1.93911623e-02f,-1.28156915e-01f,
-7.38952821e-03f,+7.88234845e-02f,+1.17466561e-01f,+7.50340149e-03f,+6.97264969e-02f,
-3.53669561e-02f,-1.56392515e-01f,+4.56032902e-02f,+6.40710890e-02f,+1.90440953e-01f,
-7.01886043e-02f,+2.19862133e-01f,+1.20330647e-01f,-1.77838922e-01f,-1.73451498e-01f,
-1.15512693e-02f,-1.60333514e-01f,+2.91291308e-02f,-2.06813678e-01f,+9.61315930e-02f,
+1.80592611e-01f,-1.67192921e-01f,-8.55275989e-02f,-1.26455635e-01f,-1.28749218e-02f,
-4.58799422e-01f,-5.71137574e-03f,+1.22956254e-01f,+2.66387850e-01f,+9.32646692e-02f,
+3.26288678e-02f,+6.59143180e-02f,+3.07685822e-01f,+1.88902318e-01f,-2.63695046e-02f,
-9.05017257e-02f,+1.95159480e-01f,-1.37350023e-01f,-1.24944979e-02f,-2.19920710e-01f,
-3.86507273e-01f,-1.95279598e-01f,+2.01726500e-02f,+6.90786242e-02f,-1.59925342e-01f,
-3.81994247e-03f,+3.73918980e-01f,+6.39262125e-02f,+1.03155956e-01f,+1.16889983e-01f,
+1.27335638e-01f,-1.78032398e-01f,-3.19732688e-02f,-4.63133268e-02f,-1.43913865e-01f,
+1.40813412e-02f,+2.89311677e-01f,+2.92967886e-01f,+4.24230814e-01f,+2.91669667e-01f,
+9.05539468e-02f,-1.38712153e-02f,+1.16939154e-04f,+2.63013870e-01f,-1.20521680e-01f,
-2.57990565e-02f,-4.38330434e-02f,+8.11257511e-02f,+3.98818515e-02f,+2.20123425e-01f,
-3.87146510e-02f,+4.60267931e-01f,+4.70007546e-02f,-9.66153741e-02f,-1.05685748e-01f,
+2.61721434e-03f,+1.38815716e-01f,+4.92671207e-02f,-7.21789943e-03f,-1.47904143e-01f,
-1.51346266e-01f,+2.21888065e-01f,+4.91068140e-02f,+1.18481696e-01f,+1.33387834e-01f,
-5.50812036e-02f,-1.10082775e-01f,+4.68048221e-03f,-3.87535170e-02f,-1.45038784e-01f,
-1.05434805e-01f,-1.08077697e-01f,+1.08282126e-01f,+1.38355136e-01f,-5.44473156e-02f,
+2.85380632e-01f,+2.16934845e-01f,-3.05609882e-01f,+3.10375858e-02f,-2.50720233e-02f,
+9.61106792e-02f,-3.15170884e-01f,+1.34320766e-01f,+1.79209635e-01f,+1.89315975e-01f,
+2.50824064e-01f,+8.53763968e-02f,-2.36177102e-01f,-1.26385495e-01f,+1.16824806e-01f,
-9.22795609e-02f,+1.01935335e-01f,+2.84555573e-02f,-2.32673183e-01f,-3.51521820e-02f,
-3.75903368e-01f,-5.81991160e-04f,+1.81773365e-01f,-2.70467609e-01f,-1.14248961e-01f,
-1.39331862e-01f,-5.16555645e-02f,-4.63214256e-02f,+1.63382679e-01f,-1.10515235e-02f,
+2.11347803e-01f,+1.33684231e-02f,+9.25567150e-02f,+1.55503511e-01f,-9.91681218e-02f,
-2.06329934e-02f,+1.59300953e-01f,-1.60682425e-01f,+2.30724335e-01f,-7.19659356e-03f,
-1.04070846e-02f,-9.54353809e-02f,-1.89549893e-01f,-4.80964109e-02f,-9.76569653e-02f,
+3.22780274e-02f,+1.19679153e-01f,+9.21321213e-02f,+2.23712698e-01f,-2.51284409e-02f,
+6.67762663e-03f,+1.84659898e-01f,-3.29695232e-02f,-4.14518602e-02f,+1.24673999e-03f,
-5.66850565e-02f,+9.30524152e-03f,-1.50275305e-01f,+2.33142450e-01f,+2.33400688e-01f,
+2.38308206e-01f,+3.46993245e-02f,-1.38394423e-02f,-1.36456832e-01f,-3.97292823e-02f,
+1.65250041e-02f,+4.25577015e-02f,+5.50544001e-02f,+2.48070419e-01f,+2.32878923e-01f,
+8.12711641e-02f,-3.24456364e-01f,+1.34672120e-01f,-9.36003700e-02f,+1.13834448e-01f,
+4.22601104e-01f,+1.52449250e-01f,-1.45825282e-01f,+3.50490920e-02f,+3.41576710e-02f,
-1.98097989e-01f,-8.74550343e-02f,+8.42461064e-02f,+5.09683527e-02f,+1.63908496e-01f,
+1.94790736e-01f,+5.20718217e-01f,-1.09404355e-01f,+2.49065477e-02f,-2.01263428e-01f,
+1.16759434e-01f,+1.75904736e-01f,-1.60470203e-01f,+1.75981045e-01f,+3.20512652e-01f,
+6.46402910e-02f,+8.61102864e-02f,-5.16023822e-02f,+4.27283585e-01f,+1.08505540e-01f,
-4.60793413e-02f,+5.86207323e-02f,+2.86579549e-01f,+1.91173349e-02f,-2.27980807e-01f,
+7.49711320e-02f,+2.05150291e-01f,-1.51059583e-01f,-7.65308961e-02f,-1.24642223e-01f,
-1.07665963e-01f,+2.70430833e-01f,-2.26781564e-03f,+6.42249361e-02f,-6.81309551e-02f,
-2.45855808e-01f,+1.16293184e-01f,+8.36746097e-02f,-1.45581737e-01f,+1.58232003e-01f,
+7.95782581e-02f,-2.34110430e-01f,+1.26368580e-02f,-4.84931245e-02f,-6.43647164e-02f,
-1.43288076e-01f,-1.26583025e-01f,+1.62151560e-01f,+2.20977440e-02f,+1.50420174e-01f,
-1.85498763e-02f,+1.66225240e-01f,-7.08226487e-02f,+1.72026977e-01f,-2.07976297e-01f,
-2.37410218e-01f,-1.11004569e-01f,-6.67835772e-02f,-3.51255834e-02f,+9.17339325e-02f,
+1.04142234e-01f,+8.55673030e-02f,+3.05430498e-02f,+1.81399241e-01f,-1.00711450e-01f,
+1.75563127e-01f,-9.86439176e-03f,-1.33232817e-01f,-2.29161270e-02f,+2.33187020e-01f,
+1.63384348e-01f,+2.87197269e-02f,+1.18733294e-01f,+8.93252194e-02f,+5.04570119e-02f,
+1.22355491e-01f,-2.07362950e-01f,-8.15083310e-02f,+8.20402429e-02f,-2.18399718e-01f,
-1.17395058e-01f,+6.59493580e-02f,+3.57122153e-01f,+3.03335309e-01f,+2.53981769e-01f,
+1.26912361e-02f,+8.71407315e-02f,-1.00573011e-01f,-7.87848532e-02f,+7.89751559e-02f,
-7.88010843e-03f,+3.31754595e-01f,+3.41790527e-01f,-2.01087177e-01f,-1.16304971e-01f,
-3.11953481e-02f,-1.12719893e-01f,-1.04836874e-01f,-5.71428612e-02f,+2.22972482e-01f,
-7.85652548e-02f,+8.74813348e-02f,+2.13264301e-02f,+2.94225395e-01f,+1.89305365e-01f,
-9.99942794e-03f,+3.12113822e-01f,+5.99852130e-02f,-2.11076513e-01f,+3.59074101e-02f,
+2.86183786e-02f,+3.11867774e-01f,+1.21003494e-01f,+2.93573216e-02f,+2.44380713e-01f,
-1.33167580e-01f,+1.98241964e-01f,-8.39929432e-02f,-1.44270211e-01f,-3.94825339e-02f,
+9.29126740e-02f,+4.25822437e-02f,-1.10619672e-01f,-7.19320178e-02f,-1.78561002e-01f,
+1.05293505e-01f,+2.62342781e-01f,+1.12140588e-01f,-1.52451977e-01f,+3.03296626e-01f,
+1.96661025e-01f,-8.85559693e-02f,-5.51836453e-02f,-1.06080145e-01f,+1.61043426e-03f,
-2.95869149e-02f,+5.60047865e-01f,+1.23235971e-01f,-8.69986340e-02f,-9.32714045e-02f,
-1.23045303e-01f,+3.18768471e-02f,-1.53533041e-01f,+1.91831619e-01f,-8.04777518e-02f,
+2.91586835e-02f,-5.77659383e-02f,+1.94816411e-01f,-1.89781681e-01f,+1.59668550e-01f,
-1.06902003e-01f,+1.29804969e-01f,-9.37274545e-02f,-2.80157298e-01f,+1.46411166e-01f,
-1.80417702e-01f,-6.80573210e-02f,-9.51064825e-02f,+3.27179551e-01f,+1.38847083e-01f,
-1.37390807e-01f,-4.35096249e-02f,-5.19522280e-02f,+2.14843471e-02f,-3.00862104e-01f,
+3.20972279e-02f,+3.18324924e-01f,+1.70250118e-01f,+5.76074272e-02f,-9.27429199e-02f,
-1.36950109e-02f,+2.52788335e-01f,+1.74922734e-01f,+3.15319836e-01f,+3.57271254e-01f,
+9.73796621e-02f,-1.92965209e-01f,+4.84096929e-02f,-6.18533418e-02f,-7.33068027e-03f,
+3.95283140e-02f,+1.22183152e-02f,+5.72933257e-02f,-2.01086000e-01f,-2.45368648e-02f,
+2.35907465e-01f,+1.57593176e-01f,+2.61765905e-02f,-2.75713932e-02f,-1.63407829e-02f,
+5.95583804e-02f,-1.93047434e-01f,+2.28404731e-01f,+1.33240432e-01f,-3.83283228e-01f,
+6.93328902e-02f,+2.07786337e-01f,+2.52870545e-02f,-1.62196323e-01f,-2.12722421e-01f,
+1.39166966e-01f,-6.54411614e-02f,+8.66448954e-02f,-2.57529080e-01f,-2.78296262e-01f,
+7.87912980e-02f,-1.28224930e-02f,+5.17903686e-01f,-3.57815683e-01f,+1.25945993e-02f,
+3.09294946e-02f,+3.92262824e-02f,-1.75668359e-01f,+3.27404231e-01f,-1.80658191e-01f,
-2.08099917e-01f,+1.18278868e-01f,+8.29245746e-02f,+1.93272904e-01f,+2.12889820e-01f,
-7.84270465e-02f,-2.74664521e-01f,-7.19064325e-02f,+6.77529424e-02f,+7.97312707e-02f,
-8.19961354e-02f,-4.98492122e-02f,+1.73606962e-01f,-1.41359314e-01f,-7.94283003e-02f,
+4.62188460e-02f,+2.43677393e-01f,-3.57114598e-02f,-9.23472643e-02f,-2.61170179e-01f,
-3.75754312e-02f,-1.46425396e-01f,+3.70887779e-02f,+1.66102999e-03f,-2.94897765e-01f,
+6.85879588e-02f,-1.21184876e-02f,-2.75773317e-01f,+2.70186625e-02f,-3.48075092e-01f,
-2.06223205e-01f,-1.84825167e-01f,-1.33962080e-01f,-2.82292843e-01f,+1.52342487e-02f,
-4.26354110e-02f,-8.21308643e-02f,+2.31472641e-01f,-9.03614387e-02f,+1.41998380e-01f,
-5.41378111e-02f,+9.80207995e-02f,-3.56828958e-01f,+4.12042998e-02f,+3.73247147e-01f,
-8.22998136e-02f,-2.79772341e-01f,-1.68382764e-01f,+5.34535684e-02f,+5.26361525e-01f,
-5.32394042e-03f,-7.76020810e-02f,+1.53804585e-01f,+5.97396791e-02f,+1.24184705e-01f,
-1.70036014e-02f,+2.03245580e-01f,+1.22574285e-01f,-6.27563894e-02f,-4.34840620e-01f,
-2.51677632e-01f,-3.66261490e-02f,+1.06579520e-01f,+1.64592385e-01f,-8.94274190e-02f,
+1.49668297e-02f,-2.36056030e-01f,-1.29664928e-01f,+1.63415505e-04f,-9.61436331e-02f,
+1.83998227e-01f,+4.14204113e-02f,-8.91641602e-02f,+1.64590776e-01f,-4.33395356e-02f,
-2.39016131e-01f,-1.04570583e-01f,-3.17628354e-01f,+2.21033081e-01f,+2.75477290e-01f,
+2.21211817e-02f,-6.81195930e-02f,-1.98895380e-01f,-1.33270234e-01f,+1.61964878e-01f,
-1.11088395e-01f,-2.03111053e-01f,-2.10482553e-02f,+3.62638891e-01f,-5.97262755e-04f,
+5.65449595e-02f,-1.48246616e-01f,-6.65874556e-02f,-8.52388516e-03f,-7.56177381e-02f,
-1.09533146e-01f,-3.41789201e-02f,-3.20118994e-01f,+1.44238263e-01f,+2.64779210e-01f,
-4.45576124e-02f,+4.54506218e-01f,-2.35009864e-02f,+7.83777535e-02f,-8.19149166e-02f,
-1.62186176e-01f,-4.24651280e-02f,-9.90409255e-02f,-2.97393978e-01f,+2.30839059e-01f,
-1.06145509e-01f,+9.69310701e-02f,+1.84019748e-02f,-3.70442659e-01f,+1.10837623e-01f,
-3.57207537e-01f,+1.29732653e-01f,-1.47551686e-01f,-2.38531858e-01f,+1.12246372e-01f,
-6.83676302e-02f,+1.92874134e-01f,-5.62313572e-02f,-2.70193100e-01f,+3.23177785e-01f,
+1.45685613e-01f,-2.04162002e-01f,+1.39685959e-01f,+6.48966581e-02f,-7.09693506e-02f,
-1.70121804e-01f,+1.03974320e-01f,+1.75622970e-01f,+8.59150738e-02f,-1.17386028e-01f,
-1.10515028e-01f,+1.26046285e-01f,+1.12557122e-02f,+4.50286642e-02f,-1.40730962e-01f,
-9.98719037e-03f,+2.12832794e-01f,+2.80720014e-02f,+4.29097056e-01f,+1.89152118e-02f,
+3.19832973e-02f,+1.20926499e-01f,+1.68980211e-02f,-4.18247581e-02f,-1.22605257e-01f,
+2.63548374e-01f,-1.83796227e-01f,+9.15823132e-02f,-1.65010408e-01f,+5.80348969e-02f,
+6.63044453e-02f,+1.93189293e-01f,-8.84242449e-03f,+1.99859977e-01f,+1.36583205e-02f,
+1.60779431e-01f,-3.30028757e-02f,+9.23839435e-02f,+4.26264666e-02f,-9.74125415e-02f,
+2.11712405e-01f,-8.43368769e-02f,+1.18126757e-01f,-6.17657900e-02f,-7.27517158e-02f,
+2.33328603e-02f,+2.87760228e-01f,+8.74326378e-02f,-1.30498961e-01f,+2.47402295e-01f,
+7.59228915e-02f,-1.03324294e-01f,+4.18238901e-02f,-4.36606891e-02f,-3.96508388e-02f,
+1.77801594e-01f,+3.26548040e-01f,+1.91685483e-01f,+1.46472201e-01f,-1.28039733e-01f,
-2.11860374e-01f,+2.58635223e-01f,+2.80476585e-02f,+2.22632270e-02f,+2.00201094e-01f,
+1.29131466e-01f,+1.74157292e-01f,-1.08117692e-01f,-1.50652573e-01f,-1.11146718e-01f,
+1.54590070e-01f,+1.14302233e-01f,+3.37611049e-01f,-2.54191101e-01f,+4.15315926e-01f,
-3.20676863e-01f,+1.57015305e-02f,+7.68692195e-02f,-1.32413611e-01f,-1.66036099e-01f,
+4.05225791e-02f,-1.77625015e-01f,-2.08179113e-02f,+4.03880119e-01f,+1.02858797e-01f,
-6.77500502e-05f,-8.31776857e-02f,+5.33513613e-02f,-1.71618447e-01f,-3.13239098e-01f,
+2.06742883e-02f,-3.53097409e-01f,+7.96951354e-02f,-2.14729714e-03f,-1.31459177e-01f,
+4.42497209e-02f,-1.67709589e-01f,-7.78795630e-02f,-1.17451243e-01f,-6.39966875e-02f,
-4.11839457e-03f,-2.13522953e-03f,+4.49477851e-01f,+1.98108360e-01f,+1.78980574e-01f,
+7.85326287e-02f,+3.08656115e-02f,+1.38965026e-01f,+8.50742459e-02f,-3.56054194e-02f,
+1.00641884e-02f,+7.13388622e-02f,-2.99915466e-02f,-2.24856481e-01f,+1.19109817e-01f,
-2.07323104e-01f,-2.33156741e-01f,-1.75790459e-01f,-2.76989132e-01f,-9.51470062e-02f,
+1.35496333e-01f,+3.65688950e-02f,-4.80076253e-01f,-2.64643162e-01f,+9.23584253e-02f,
+8.77501294e-02f,+1.24026611e-02f,-1.31571829e-01f,-8.43667440e-05f,+1.06018096e-01f,
+1.61884174e-01f,+1.31763995e-01f,-2.19415322e-01f,+2.39367001e-02f,+2.39795987e-02f,
+7.64148831e-02f,+6.22199103e-02f,+1.13892965e-01f,+1.38743389e-02f,+2.56831914e-01f,
+3.27785373e-01f,-1.99481502e-01f,+2.10073501e-01f,+2.17774853e-01f,+2.01027930e-01f,
+7.52358586e-02f,-2.17590749e-01f,-3.33168656e-01f,+6.78516254e-02f,+7.80168967e-03f,
+4.96903695e-02f,+1.29969735e-02f,+7.06953742e-03f,-2.76541431e-02f,+8.00239891e-02f,
-6.68988004e-02f,-1.03144154e-01f,-1.70593023e-01f,-1.85309336e-01f,+9.61442068e-02f,
+6.00516014e-02f,-2.25163046e-02f,-1.68754935e-01f,+6.80060759e-02f,-1.94875139e-03f,
-2.11903051e-01f,+2.53623277e-01f,+2.00113609e-01f,-1.17781768e-02f,-2.24864691e-01f,
+3.26342657e-02f,+8.97934437e-02f,+1.57690063e-01f,-4.20911536e-02f,-3.58360082e-01f,
+2.69800246e-01f,+1.30815282e-01f,+6.07853457e-02f,+3.67486149e-01f,-2.06183255e-01f,
-5.71518438e-03f,-1.65962949e-01f,+9.62097123e-02f,+1.11383513e-01f,+2.21931469e-02f,
-7.40762949e-02f,+2.23538250e-01f,+9.86795034e-03f,+3.74268442e-02f,+4.22689542e-02f,
+1.02980740e-01f,-5.91562502e-02f,+1.60693929e-01f,-7.18905404e-02f,+2.71827281e-01f,
+3.87019031e-02f,-2.04118099e-02f,+7.37596154e-02f,-3.28877032e-01f,+2.63696671e-01f,
+1.78289443e-01f,+4.61956374e-02f,-1.01510279e-01f,-7.99171701e-02f,+1.82469487e-01f,
+2.11732000e-01f,-4.78444844e-02f,+6.54153014e-03f,-3.23131382e-02f,+1.49151742e-01f,
+2.82926142e-01f,+1.87545270e-01f,-1.22612149e-01f,+4.13295269e-01f,-2.65408754e-01f,
-2.00891376e-01f,-2.52395153e-01f,-1.85653925e-01f,+7.72210360e-02f,+9.76738408e-02f,
-8.36763084e-02f,-1.58534557e-01f,+2.62370259e-01f,+4.81101088e-02f,+9.12785903e-02f,
+7.61913806e-02f,+2.04377785e-01f,+3.33141685e-02f,+1.91774890e-01f,-2.51762480e-01f,
-3.35397124e-02f,-8.29569027e-02f,-3.80351134e-02f,+1.15207762e-01f,+1.71012972e-02f,
+1.07686937e-01f,+2.09204897e-01f,-1.45902961e-01f,-1.06174849e-01f,+2.14372110e-02f,
-5.99121302e-02f,+2.68843323e-02f,+2.04772782e-02f,+4.36088704e-02f,+1.33734182e-01f,
+1.56673849e-01f,-5.94949909e-02f,-2.38166228e-01f,-3.70719045e-01f,+8.03418681e-02f,
-1.67145327e-01f,+9.77761522e-02f,+1.51195179e-03f,+1.04304608e-02f,+1.73119515e-01f,
-2.90240675e-01f,-1.20344684e-02f,+1.86141938e-01f,+1.13420069e-01f,+7.12187737e-02f,
-1.43703625e-01f,-3.14407945e-01f,+2.98972595e-02f,-6.34289309e-02f,-1.05491042e-01f,
+4.61281568e-01f,+2.80540168e-01f,+1.62783973e-02f,-1.74073175e-01f,-1.87858026e-02f,
-1.55913429e-02f,+7.01883659e-02f,-1.27177104e-01f,+8.36763158e-03f,-2.24738583e-01f,
+3.08963079e-02f,-1.00045897e-01f,-7.57355988e-02f,-3.77144888e-02f,+4.69986089e-02f,
-2.05903783e-01f,+7.00210184e-02f,+5.40743656e-02f,-1.43694039e-02f,-8.92815888e-02f,
+1.37694687e-01f,+1.03671692e-01f,-3.19247961e-01f,-1.20253138e-01f,+2.88431883e-01f,
+1.36685371e-01f,-1.43317163e-01f,-1.02960594e-01f,+1.24070272e-01f,-8.78253803e-02f,
-5.10007888e-02f,-7.94097260e-02f,+2.65558995e-02f,-6.11994369e-03f,-2.65441030e-01f,
+2.60619093e-02f,+1.99566722e-01f,+7.45958313e-02f,+1.93038389e-01f,+4.02333260e-01f,
-1.02909915e-02f,-1.74477249e-01f,-1.48091227e-01f,+1.27135113e-01f,-8.06003958e-02f,
+1.37269288e-01f,+1.12153217e-01f,-4.24192883e-02f,+3.32467079e-01f,+6.33923933e-02f,
-5.13072824e-03f,+1.19684013e-02f,+5.50550222e-02f,+1.26602482e-02f,+1.79550037e-01f,
-4.18495327e-01f,+4.33073379e-02f,+1.62940696e-01f,+8.33852217e-03f,+1.71759457e-03f,
+6.72094971e-02f,-5.42931538e-03f,+1.63564608e-01f,-2.18357846e-01f,+2.65596986e-01f,
+1.04820669e-01f,+2.66508996e-01f,-4.44176316e-01f,-4.89924073e-01f,+7.18990788e-02f,
-1.58121616e-01f,-2.32044950e-01f,-3.90461311e-02f,+4.07549024e-01f,-1.26902431e-01f,
-1.74554631e-01f,-2.93433219e-02f,-5.54464385e-02f,+3.25577766e-01f,-2.46794336e-03f,
-8.49977210e-02f,-3.20843011e-01f,-1.30176872e-01f,+1.11553252e-01f,-4.73410100e-01f,
-5.19475946e-03f,+1.49040297e-01f,+5.19362167e-02f,+2.84030586e-01f,+2.75613256e-02f,
+4.07892987e-02f,+3.39304283e-02f,+3.58566120e-02f,+1.23448774e-01f,-4.04844843e-02f,
+2.24007368e-01f,-8.26406106e-02f,+1.46773368e-01f,+2.11995631e-01f,-5.93162477e-02f,
-3.40069309e-02f,-2.71363199e-01f,+2.46994004e-01f,+1.77132502e-01f,-7.02655837e-02f,
+9.78757814e-02f,-4.14009690e-01f,+2.83017665e-01f,+1.37439638e-01f,-7.95781985e-02f,
+1.87651351e-01f,+1.51814684e-01f,+8.75912830e-02f,-2.91988906e-02f,+9.94383767e-02f,
+1.01970188e-01f,+4.46097832e-03f,+1.36921689e-01f,+2.64790446e-01f,-9.37799960e-02f,
-2.00129803e-02f,-1.04333140e-01f,-3.23760090e-04f,-6.81095049e-02f,-2.52021194e-01f,
-2.98315044e-02f,+1.00506082e-01f,+1.16475217e-01f,-2.50576232e-02f,-2.96673179e-01f,
+1.12171389e-01f,-5.37934303e-02f,+3.00160617e-01f,+1.82737422e-03f,+1.81748085e-02f,
+7.59531781e-02f,+8.97717699e-02f,+6.09855689e-02f,+3.78219247e-01f,+7.95832798e-02f,
+2.01707371e-02f,+3.00143901e-02f,-8.04749951e-02f,-3.13604698e-02f,+3.70442897e-01f,
-1.00423209e-01f,-2.03202695e-01f,-1.74246337e-02f,-8.15992728e-02f,+5.01805007e-01f,
+9.66840237e-02f,-4.86444831e-01f,-8.44031200e-02f,+2.22731736e-02f,+8.36069211e-02f,
+1.04014233e-01f,+8.19184929e-02f,+1.08769290e-01f,-1.28398106e-01f,-1.18590817e-01f,
-2.31368184e-01f,+3.89556855e-01f,-1.59380540e-01f,+1.75047502e-01f,-1.39852092e-02f,
-4.32921872e-02f,-1.30299225e-01f,+1.53981298e-01f,+3.32507670e-01f,-2.64284443e-02f,
+1.60066951e-02f,+2.54736662e-01f,+1.53215542e-01f,-2.63427943e-01f,-1.10983066e-01f,
+1.58868328e-01f,+4.06954028e-02f,+2.27919951e-01f,-3.34033251e-01f,+7.31676351e-03f,
-4.02231999e-02f,-5.22406437e-02f,-1.20919518e-01f,-9.34761986e-02f,-1.95115179e-01f,
-2.08341867e-01f,-1.89748421e-01f,+3.15842181e-01f,+4.12828922e-02f,-2.82466989e-02f,
+7.21126124e-02f,+8.70806873e-02f,+3.19874249e-02f,+1.23242900e-01f,-1.18502729e-01f,
+5.82200028e-02f,-8.66159275e-02f,-2.12657019e-01f,+2.85298973e-01f,-2.28043735e-01f,
+1.57410085e-01f,+6.88336268e-02f,-2.17672944e-01f,+1.13470867e-01f,-2.65916109e-01f,
+1.13086551e-01f,+1.90097958e-01f,+9.58364457e-02f,+3.47472787e-01f,-3.68918478e-02f,
-1.56616658e-01f,+1.05315493e-03f,+9.83291343e-02f,+6.55065253e-02f,+1.06806323e-01f,
-1.02364756e-01f,+3.20978373e-01f,-4.09956723e-01f,-9.69432518e-02f,+1.87176049e-01f,
-6.01487756e-02f,+2.09315076e-01f,-2.22700417e-01f,-1.45029770e-02f,-1.11940671e-02f,
+1.81195736e-01f,+4.25523460e-01f,-2.90283877e-02f,+1.93846703e-01f,+1.30025133e-01f,
-1.38828591e-01f,+1.18434899e-01f,-1.40096188e-01f,+1.41777486e-01f,-2.50413984e-01f,
+1.35131776e-01f,-1.71010047e-02f,+2.26636976e-01f,-1.28656000e-01f,+2.18294449e-02f,
+1.08870663e-01f,+1.12657204e-01f,-1.83014259e-01f,+8.37076604e-02f,-3.49241644e-01f,
+2.77130216e-01f,-3.03275377e-01f,-2.31570899e-01f,+5.07779300e-01f,-3.31812464e-02f,
-2.18390405e-01f,+6.75258040e-02f,+1.47840917e-01f,+3.21779788e-01f,-1.03252403e-01f,
-1.52468711e-01f,+9.32728723e-02f,-5.11249481e-03f,+2.79829353e-02f,-2.01544255e-01f,
-2.27544963e-01f,+8.23462531e-02f,+3.90836090e-01f,+3.73680033e-02f,+1.47853598e-01f,
-9.01794955e-02f,-6.59309402e-02f,+7.46864676e-02f,+9.82802361e-02f,-5.14150411e-02f,
-4.47948091e-02f,+1.94978699e-01f,-3.07431906e-01f,+1.04527526e-01f,+3.09588075e-01f,
+2.46035501e-01f,+1.32782012e-01f,+1.52351052e-01f,+5.58811575e-02f,-7.17854798e-02f,
+5.80049567e-02f,-1.37643695e-01f,-3.83988991e-02f,+6.03228435e-02f,-1.26226813e-01f,
-4.50308695e-02f,+1.90727934e-01f,+1.40670195e-01f,-2.07017688e-03f,+1.47307955e-03f,
+1.86157390e-01f,-5.02651259e-02f,+3.11689507e-02f,-6.92162141e-02f,+2.19873562e-01f,
+6.19221270e-01f,+3.17359269e-02f,+1.75121557e-02f,+5.16104512e-02f,-9.03098881e-02f,
+3.17029422e-03f,+5.20103335e-01f,+6.89383410e-03f,-2.91920274e-01f,+2.03219652e-01f,
+1.29732728e-01f,+2.12556198e-01f,+6.73294738e-02f,+2.67160684e-01f,-1.99036121e-01f,
+7.17521459e-02f,-1.94169700e-01f,+1.50528640e-01f,+1.07492097e-01f,+2.22885102e-01f,
-4.82467450e-02f,-1.62564322e-01f,+3.64128500e-02f,+1.02564089e-01f,-1.79217592e-01f,
-2.05224112e-01f,-1.17406972e-01f,+4.32933390e-01f,-7.14957155e-03f,+7.26025924e-02f,
-7.02489242e-02f,+2.67722040e-01f,-1.07016414e-02f,-9.15663596e-03f,-8.76410604e-02f,
-1.70709282e-01f,+9.62697342e-03f,+8.87107328e-02f,-2.27184802e-01f,+1.46534681e-01f,
+3.47573638e-01f,+1.48594320e-01f,+2.53013939e-01f,+8.63944069e-02f,-8.07557926e-02f,
-8.41637626e-02f,+1.22409709e-01f,+2.46508613e-01f,-5.33214882e-02f,-1.30367458e-01f,
+1.64512962e-01f,-1.13192976e-01f,+1.38038784e-01f,-2.25541443e-01f,+1.98162541e-01f,
+1.25589529e-02f,+1.01705328e-01f,+1.28808245e-01f,+1.40286475e-01f,-3.54325324e-01f,
+7.69446716e-02f,-4.62899543e-03f,+2.94423968e-01f,-2.41704122e-03f,-8.42816830e-02f,
+2.83142719e-02f,+2.93253928e-01f,-2.15068117e-01f,-8.42067599e-02f,-2.98554629e-01f,
-9.53176841e-02f,+1.92127869e-01f,+1.34398982e-01f,+2.48333678e-01f,+2.13212162e-01f,
-3.21829170e-02f,-2.12033521e-02f,+3.18951085e-02f,-9.08607468e-02f,-4.17084426e-01f,
+1.30278990e-01f,-2.37183332e-01f,-1.04306273e-01f,+1.88094094e-01f,+1.81871712e-01f,
+2.37730697e-01f,-1.10456914e-01f,-1.59873348e-02f,-1.13442436e-01f,+2.21994855e-02f,
-6.00244328e-02f,+2.14354232e-01f,+2.38887832e-01f,+1.33972302e-01f,-3.34652960e-01f,
+8.62066150e-02f,-1.88452065e-01f,+6.85628653e-02f,+1.04938395e-01f,-2.01739430e-01f,
+5.36559708e-02f,+5.45096397e-02f,-1.65310893e-02f,-3.61300185e-02f,+3.15439329e-02f,
+1.57648847e-01f,+1.46921620e-01f,+1.17883002e-02f,+4.50945348e-01f,+5.48788831e-02f,
+3.24329385e-03f,-9.96811762e-02f,-3.57689798e-01f,+1.61519885e-01f,-4.19970080e-02f,
-2.27040172e-01f,-1.57263264e-01f,-3.95780727e-02f,-1.83097675e-01f,+8.71734098e-02f,
-5.70155606e-02f,+1.64469063e-01f,-9.60249677e-02f,+1.63943648e-01f,-3.31264645e-01f,
+2.45296564e-02f,-7.06735030e-02f,-2.57197201e-01f,-1.12400472e-01f,+2.40719721e-01f,
+2.45595500e-02f,-1.58862069e-01f,+2.15204895e-01f,+4.76978831e-02f,+1.70563623e-01f,
+2.58186385e-02f,+9.68226567e-02f,-1.75190330e-01f,-7.35899135e-02f,+7.43209422e-02f,
-2.54231364e-01f,-3.33144367e-01f,+1.56881467e-01f,-7.67845362e-02f,-9.81441215e-02f,
-8.68020058e-02f,-8.54415148e-02f,+1.60658032e-01f,+3.27420771e-01f,+4.28968698e-01f,
-3.38156931e-02f,+1.07696816e-01f,+7.20537305e-02f,+3.84118594e-02f,+1.21768169e-01f,
+1.64970785e-01f,+5.97234704e-02f,-2.41722856e-02f,+2.55261123e-01f,-3.03394675e-01f,
+5.55647630e-03f,+1.82057917e-01f,+2.36343015e-02f,+1.65548399e-02f,+5.08381939e-03f,
-1.09181672e-01f,+2.24825919e-01f,-2.11519800e-04f,-2.88196299e-02f,-1.47383921e-02f,
+2.74273723e-01f,+4.86194231e-02f,+2.37236489e-02f,-2.54148185e-01f,-1.03300586e-01f,
-6.92292228e-02f,+2.49871254e-01f,+1.80571973e-01f,-4.03554067e-02f,+8.14802200e-02f,
+2.75837451e-01f,-6.05924465e-02f,+2.41069943e-01f,+8.22053924e-02f,+2.25923404e-01f,
+2.02969611e-01f,-5.19113280e-02f,-1.15001328e-01f,+2.32676357e-01f,-1.63725903e-03f,
-1.26288787e-01f,-1.02847945e-02f,+5.08604310e-02f,+2.28655085e-01f,+6.17871881e-02f,
-2.12540984e-01f,+2.65368521e-01f,+8.98635909e-02f,+2.84269061e-02f,-7.42292181e-02f,
+4.05061245e-01f,-4.25729513e-01f,+9.69132930e-02f,-2.41096795e-01f,+1.68775037e-01f,
-2.84314036e-01f,+2.20148303e-02f,+8.22247341e-02f,-6.08139783e-02f,-1.95161596e-01f,
+1.09018479e-02f,+2.44655013e-01f,+1.16767533e-01f,+1.84472516e-01f,+3.49149257e-02f,
-1.65022328e-01f,-3.12809460e-02f,+2.11270787e-02f,-3.46649796e-01f,-2.39547268e-01f,
+1.01251140e-01f,+2.31238112e-01f,+1.01055074e-02f,-2.78012037e-01f,-1.67220920e-01f,
-1.46694839e-01f,+5.97918369e-02f,-1.42772868e-02f,+1.08538702e-01f,+6.71639442e-02f,
+1.28951102e-01f,-7.06921145e-02f,-2.04976559e-01f,+7.23033249e-02f,+2.34052196e-01f,
+1.30431086e-01f,+1.77809179e-01f,-1.68941706e-01f,-1.23423830e-01f,+1.61093637e-01f,
+1.76747158e-01f,-1.48762256e-01f,+1.79763436e-01f,-1.14703923e-01f,+3.03481352e-02f,
+9.18790027e-02f,+1.58083811e-01f,+2.32757807e-01f,+1.29428402e-01f,-7.25168288e-02f,
-2.37885937e-01f,+1.53291389e-01f,-6.94283471e-03f,-1.00989178e-01f,-2.52740011e-02f,
+2.15336815e-01f,-7.06236809e-02f,-4.96528018e-03f,+1.93542197e-01f,+2.57788837e-01f,
+8.85589421e-02f,+1.83769420e-01f,+2.78418899e-01f,-8.00533071e-02f,-1.56611368e-01f,
-1.19648084e-01f,+1.68191846e-02f,-2.28965923e-01f,+4.01928015e-02f,+3.57375085e-01f,
+8.91532525e-02f,-1.10671572e-01f,-1.94174021e-01f,-1.31860524e-01f,-1.55136868e-01f,
+2.57953107e-01f,+1.20595485e-01f,-9.28758308e-02f,-1.30158991e-01f,-8.49519446e-02f,
+3.03059742e-02f,+2.64371574e-01f,+9.31011662e-02f,+1.84229895e-01f,-1.42964914e-01f,
+4.37345318e-02f,+6.97302669e-02f,+2.79143304e-01f,+3.05343270e-02f,+8.88624564e-02f,
+1.95507947e-02f,-2.30321568e-02f,-1.05731949e-01f,+1.62538633e-01f,-1.35831889e-02f,
-2.70081848e-01f,-1.38969347e-01f,-9.35595259e-02f,+1.70373991e-02f,-2.00415611e-01f,
-1.13080099e-01f,+1.81685314e-01f,+3.98726821e-01f,-3.31717551e-01f,+1.02904990e-01f,
+5.63371480e-02f,-1.90704465e-02f,+6.76696971e-02f,+2.31031030e-01f,+3.68015654e-02f,
-1.20617814e-01f,-5.44247683e-03f,-1.03486702e-01f,+3.08621377e-01f,-6.78340718e-02f,
-4.59725410e-02f,+1.34227365e-01f,-1.41648486e-01f,+3.29284400e-01f,-7.10190833e-03f,
+4.51902747e-02f,-3.90251577e-02f,-9.73572209e-02f,-1.41613204e-02f,-2.27900833e-01f,
-9.42241624e-02f,+2.58419842e-01f,-4.94188219e-02f,-9.76924673e-02f,+3.19397897e-02f,
+1.28347963e-01f,+1.04617395e-01f,+1.09253354e-01f,+2.18532696e-01f,+1.79043397e-01f,
+2.14876771e-01f,+9.24483389e-02f,+8.11937675e-02f,-1.19934618e-01f,+2.24615619e-01f,
+2.41627824e-02f,+4.00918908e-02f,-1.11531682e-01f,-7.59949461e-02f,-5.80292568e-02f,
-3.11954110e-03f,-6.88977093e-02f,-2.06711054e-01f,-3.55418101e-02f,+1.89346194e-01f,
+5.72000779e-02f,+1.06448367e-01f,-4.08634096e-02f,-1.14016630e-01f,+7.89802894e-02f,
-2.12656960e-01f,-8.42711255e-02f,+2.10531726e-01f,+1.12312799e-02f,-8.97702016e-03f,
-2.86863055e-02f,+1.61368906e-01f,-1.49014607e-01f,-4.53129001e-02f,-6.76675094e-03f,
-1.85216628e-02f,+6.37288690e-02f,-1.21912055e-01f,-2.20502764e-02f,-2.54820343e-02f,
+1.35895550e-01f,+1.44803420e-01f,-8.42140093e-02f,+2.01084226e-01f,-5.84588461e-02f,
+7.09025795e-03f,+9.19077173e-02f,+1.69518828e-01f,+1.42564282e-01f,+1.31851798e-02f,
-2.05171764e-01f,-1.56408370e-01f,-1.88641310e-01f,+9.74709541e-02f,+2.40521636e-02f,
+1.20070875e-01f,+3.38352546e-02f,-1.93206310e-01f,-1.24321930e-01f,-5.68607301e-02f,
-2.58593887e-01f,-1.56745926e-01f,+4.80016554e-03f,-2.41768677e-02f,-3.62553005e-03f,
-1.55111887e-02f,+7.97875747e-02f,-1.33282691e-01f,+5.43697998e-02f,-5.82088754e-02f,
+7.45136142e-02f,-1.94842741e-01f,+5.20089626e-01f,-3.69597822e-02f,-1.47143751e-01f,
+3.77453178e-01f,+3.64667177e-02f,+1.15418099e-01f,-1.52379304e-01f,+1.20945059e-01f,
+2.12433115e-01f,+3.46759595e-02f,-1.83477089e-01f,-1.92625150e-01f,-1.18708014e-01f,
+2.05317698e-03f,-2.07078934e-01f,+8.18234310e-02f,+2.43955985e-01f,+4.01511222e-01f,
+1.50004789e-01f,-1.14039909e-02f,-1.86060578e-01f,+1.20761976e-01f,+1.95776597e-01f,
-1.74324345e-02f,+6.93457350e-02f,+8.34746361e-02f,+3.65873538e-02f,+2.88086738e-02f,
-8.13695416e-02f,-1.75057516e-01f,-9.39675346e-02f,+1.23266861e-01f,-7.97047019e-02f,
+4.03867587e-02f,+3.90708186e-02f,-2.09386900e-01f,-1.90393925e-01f,-1.44685339e-02f,
+1.43544927e-01f,+1.20106578e-01f,+5.07263355e-02f,-3.57562080e-02f,+1.66516647e-01f,
+1.43648937e-01f,+7.57772401e-02f,-1.39027983e-01f,+2.92037100e-01f,+3.51797529e-02f,
+3.12496901e-01f,+2.03865051e-01f,-1.51726991e-01f,+5.56890443e-02f,-1.15751855e-01f,
+2.34179184e-01f,-5.31931967e-02f,-1.48434892e-01f,+8.60236138e-02f,-1.07573427e-01f,
-2.02042330e-02f,+2.47161612e-01f,+3.34323086e-02f,+1.02249347e-01f,+1.09517738e-01f,
+2.02566072e-01f,-2.26363409e-02f,-5.47126215e-03f,+1.01830803e-01f,-9.15860757e-02f,
+1.93016812e-01f,-1.12349823e-01f,+4.49823495e-03f,+1.91844657e-01f,+2.31122971e-01f,
-1.44657820e-01f,-3.48214689e-03f,-8.96195844e-02f,+2.43966114e-02f,+1.02119245e-01f,
+7.37195686e-02f,+7.65582547e-02f,+1.77500919e-01f,+3.81793529e-02f,+2.33531520e-01f,
-1.53555255e-02f,-1.27044931e-01f,+1.40609369e-01f,-1.01644136e-01f,+1.64463624e-01f,
-1.66862562e-01f,+1.15123995e-01f,-1.07982822e-01f,-1.51919678e-01f,+6.06104061e-02f,
+9.30367336e-02f,+3.99999768e-01f,+9.56868455e-02f,-1.51364761e-03f,-1.01551771e-01f,
+1.68297172e-01f,+6.68252632e-02f,+4.93897013e-02f,-1.96252018e-01f,+1.14550956e-01f,
+2.27494165e-02f,+5.10218479e-02f,+8.07632655e-02f,+2.48965956e-02f,+2.75017798e-01f,
-1.24219812e-01f,-1.65469974e-01f,+1.87249586e-01f,+1.31179646e-01f,+1.20201774e-01f,
-1.03074275e-01f,+1.91008404e-01f,+7.52590895e-02f,+2.53506172e-02f,-1.49830624e-01f,
+2.05309659e-01f,-3.84537168e-02f,-5.99370785e-02f,+9.55617204e-02f,-3.21805403e-02f,
+3.26040059e-01f,-9.26729143e-02f,+1.46077707e-01f,-3.09551150e-01f,+1.18624739e-01f,
-4.64651696e-02f,+3.29777375e-02f,+5.96562885e-02f,+2.57952303e-01f,-1.73301071e-01f,
-5.05948216e-02f,+3.82449627e-02f,-4.97915372e-02f,-5.92803247e-02f,-2.47421160e-01f,
-9.77768451e-02f,-1.59667283e-01f,-3.55657786e-02f,-3.69736925e-02f,+2.20978856e-01f,
+1.91358283e-01f,+1.23239599e-01f,+2.44151607e-01f,+4.38223779e-03f,-1.67286754e-01f,
-1.44019863e-03f,+4.02629614e-01f,+1.52056040e-02f,-1.84187740e-02f,+1.77894145e-01f,
+7.90609792e-03f,+1.42516732e-01f,+7.74192438e-02f,+3.08980681e-02f,-1.77900732e-01f,
+1.78088412e-01f,+5.59795499e-02f,+1.50791973e-01f,+8.57598148e-03f,-7.34865963e-02f,
+5.92974611e-02f,+2.79672772e-01f,-1.08366907e-01f,+1.16596483e-01f,+4.76295575e-02f,
+2.38069385e-01f,+1.74371570e-01f,+9.50762108e-02f,-1.10600680e-01f,-8.22042823e-02f,
-1.52270734e-01f,+3.09712067e-02f,-2.17009559e-02f,+1.14880912e-01f,-4.01386805e-02f,
+2.76581501e-03f,+1.67504176e-01f,+1.37706250e-01f,-8.06326047e-02f,+1.11257568e-01f,
+7.54445374e-01f,+1.07885040e-01f,-3.70180979e-02f,+3.07020366e-01f,-8.96093994e-02f,
+1.76407322e-01f,-8.07603151e-02f,+1.25163430e-02f,+1.07268780e-01f,+5.52249588e-02f,
-5.36058135e-02f,-3.25808376e-02f,-5.62423021e-02f,+3.89127508e-02f,+1.21635318e-01f,
+9.67205688e-02f,+4.21281941e-02f,+3.98916416e-02f,+1.95569322e-02f,-2.39795838e-02f,
+6.69804439e-02f,+1.96835414e-01f,+4.58110869e-03f,-1.57933429e-01f,+1.67700633e-01f,
+2.99838871e-01f,-5.65873533e-02f,+2.14766175e-01f,+4.28799875e-02f,+4.30866294e-02f,
+2.58140206e-01f,+1.90633461e-01f,+4.92573708e-01f,+9.70802233e-02f,+1.40264584e-02f,
-8.69751498e-02f,-1.95214912e-01f,+1.83829758e-02f,-6.54956698e-02f,+1.40848279e-01f,
-2.35298742e-02f,+2.02221110e-01f,+3.42460275e-01f,-5.66964969e-03f,+8.80091637e-02f,
+8.59976634e-02f,-2.52558410e-01f,-6.41789138e-02f,+2.76520252e-02f,-2.01513022e-01f,
+7.30336905e-02f,+6.15722947e-02f,-6.93961307e-02f,-1.32585645e-01f,+1.76743031e-01f,
+1.21992290e-01f,-3.22762817e-01f,+3.99206206e-02f,-1.61312953e-01f,+1.60709426e-01f,
-1.16004959e-01f,+1.73878238e-01f,+1.91618614e-02f,+9.39789787e-02f,-2.13281706e-01f,
-1.89071983e-01f,-6.83663487e-02f,-1.81896165e-01f,-6.33348078e-02f,-7.38943294e-02f,
-1.15733920e-02f,+2.51031429e-01f,+1.74921364e-01f,+7.75024593e-02f,+2.34128445e-01f,
+3.99092197e-01f,+5.38596697e-03f,-8.50699916e-02f,+2.48288348e-01f,+2.51406491e-01f,
-7.60070011e-02f,+8.04477185e-03f,+1.32933445e-02f,+1.54926926e-01f,+1.45249311e-02f,
-1.29057318e-01f,+1.73367523e-02f,+8.44003074e-03f,-6.88084750e-04f,+1.79018620e-02f,
-3.49182487e-02f,+2.48739403e-02f,+4.57173198e-01f,-1.42640337e-01f,+7.46101961e-02f,
+3.67698562e-03f,-1.31705791e-01f,+4.82967764e-01f,-6.12848774e-02f,+1.12618677e-01f,
-1.20936438e-01f,+1.38531655e-01f,+1.34076491e-01f,-4.19619046e-02f,-3.69671434e-02f,
+1.12200946e-01f,+2.30826601e-01f,+8.71126875e-02f,+1.35976687e-01f,-1.93367079e-02f,
-4.63884957e-02f,+1.77658185e-01f,-2.27088213e-01f,+4.75766510e-02f,-1.39252931e-01f,
+3.34633887e-02f,-7.67534822e-02f,-2.70790905e-01f,+4.83888090e-02f,+1.56507328e-01f,
-9.03608277e-02f,+1.57884523e-01f,+4.76939119e-02f,-9.32268128e-02f,+9.60405543e-02f,
+1.58525765e-01f,-1.34009615e-01f,+1.18822239e-01f,+5.83524168e-01f,+1.42881557e-01f,
-8.31988826e-02f,+8.60075429e-02f,-2.72660051e-03f,-2.88912710e-02f,-4.81050797e-02f,
+8.06581229e-03f,-6.14126101e-02f,-8.71952996e-02f,-8.12443420e-02f,-1.13348484e-01f,
-2.06171185e-01f,+1.74007397e-02f,-6.76976740e-02f,-6.07471690e-02f,+3.02034914e-01f,
-1.82903230e-01f,+1.78418770e-01f,+5.01868408e-03f,+2.18358845e-01f,-1.26772455e-03f,
+3.55592463e-04f,+1.25366136e-01f,+2.51425743e-01f,+3.54974456e-02f,-6.59114718e-02f,
-4.95943427e-02f,+2.01504007e-02f,+1.18646987e-01f,+1.27160281e-01f,+1.64476380e-01f,
+2.95376927e-01f,+2.08596691e-01f,+3.91237438e-01f,-5.80583587e-02f,+2.24094003e-01f,
-3.43679674e-02f,-1.98005512e-01f,+9.38972831e-02f,-7.77575150e-02f,+3.64731550e-02f,
-7.34510925e-03f,+2.04333261e-01f,+1.53246924e-01f,+9.28480476e-02f,-2.01543085e-02f,
-1.19906524e-02f,+1.42697901e-01f,-3.96436490e-02f,+6.31077439e-02f,+8.40265825e-02f,
+9.67721343e-02f,+3.30863476e-01f,-5.30014187e-02f,+7.09969644e-03f,-1.84223652e-01f,
-2.33578384e-02f,-1.16947502e-01f,+5.02817810e-01f,-3.41759552e-03f,+3.82303894e-02f,
-1.15187261e-02f,+1.52134776e-01f,-1.72888748e-02f,+1.42058074e-01f,-1.51119918e-01f,
+2.76828110e-01f,-1.45153552e-01f,-1.68378883e-05f,-1.38663724e-01f,+1.81938857e-01f,
+7.27737248e-02f,-8.54202211e-02f,-3.12377810e-02f,-3.27786803e-01f,-1.79224968e-01f,
+1.30311236e-01f,-1.31790623e-01f,+2.48134971e-01f,-1.36278898e-01f,-2.27450486e-02f,
+1.06196396e-01f,+6.81375265e-02f,-1.35544557e-02f,+4.15464118e-02f,+1.82986438e-01f,
+1.89345924e-03f,+1.22221082e-01f,+2.50614006e-02f,-1.22100085e-01f,-8.38845670e-02f,
+8.32017958e-02f,+9.88893956e-02f,+4.84683692e-01f,-1.11034460e-01f,+6.79712594e-02f,
+2.33771391e-02f,-1.22859776e-01f,+2.88271531e-02f,+3.59339058e-01f,+2.26611674e-01f,
-1.83820128e-01f,+7.11187422e-02f,+1.91309005e-01f,-3.83271324e-03f,+2.20572442e-01f,
+4.21388596e-01f,-1.22892708e-01f,+1.61152214e-01f,-1.81826614e-02f,+1.47288352e-01f,
-1.78144366e-01f,+2.12551624e-01f,+9.85486582e-02f,+1.71386912e-01f,-3.19516212e-02f,
+5.70518225e-02f,-4.09643091e-02f,+1.59290768e-02f,+1.43760726e-01f,+6.11212775e-02f,
+7.19815120e-02f,-1.34907827e-01f,-2.16766998e-01f,+4.61417943e-01f,-4.36819084e-02f,
-2.86072135e-01f,+1.69967726e-01f,-2.94472445e-02f,+2.15833858e-01f,+2.57197320e-01f,
+1.24233916e-01f,-4.06907260e-04f,+3.09118070e-03f,+5.26068918e-02f,-9.63417813e-02f,
+1.25262246e-01f,-8.08686242e-02f,-2.01927330e-02f,+8.32582358e-04f,-1.86932817e-01f,
-9.36513990e-02f,-2.43525863e-01f,+1.89671051e-02f,-9.75823700e-02f,+1.19295076e-01f,
-2.14794297e-02f,-2.33860016e-01f,-1.64318919e-01f,-1.49718970e-01f,+3.19930077e-01f,
+1.18744008e-01f,-8.21740925e-02f,+3.78929049e-01f,-2.68191472e-02f,+4.55791689e-02f,
+4.96359505e-02f,-9.77689624e-02f,+2.10018381e-01f,+4.38386761e-02f,+8.61166641e-02f,
-7.94497356e-02f,-5.95075414e-02f,+8.96787643e-02f,-4.63367403e-01f,-9.67348441e-02f,
-1.52595788e-02f,-3.12346071e-01f,-7.63111040e-02f,+2.86714375e-01f,-9.20292586e-02f,
+4.89803925e-02f,-2.28678033e-01f,+6.61378354e-02f,-9.12932605e-02f,+1.76074222e-01f,
+9.53703448e-02f,+1.37848780e-01f,+3.42111677e-01f,-2.50030588e-02f,-1.31818587e-02f,
+1.03995487e-01f,+1.60200760e-01f,+1.82887912e-02f,-1.86876118e-01f,+2.60589749e-01f,
-5.24086282e-02f,-1.05791889e-01f,-2.91712843e-02f,+9.55976024e-02f,-1.50578097e-02f,
+9.81359109e-02f,+8.21016077e-03f,+3.42264473e-01f,+2.98789710e-01f,+1.10433854e-01f,
-8.62131044e-02f,+3.73254903e-02f,-1.60177033e-02f,+1.64073363e-01f,-1.05652153e-01f,
-2.10222676e-01f,+1.20056786e-01f,-1.12904213e-01f,+2.99747903e-02f,-1.87079147e-01f,
-3.69540639e-02f,-2.45187595e-01f,+1.69472620e-01f,+1.54570669e-01f,-2.02419475e-01f,
+8.96859076e-03f,-2.72243209e-02f,-2.71974504e-02f,-2.76085977e-02f,-1.67234629e-01f,
+2.36466564e-02f,+1.74920589e-01f,+2.48203035e-02f,+9.13611278e-02f,-1.34878069e-01f,
+1.20489627e-01f,+3.02218497e-02f,-1.12831101e-01f,-2.07717806e-01f,+1.16910055e-01f,
+6.69919103e-02f,-1.08626902e-01f,-7.16078728e-02f,-1.58451632e-01f,-1.41119942e-01f,
+3.18402871e-02f,+2.79364157e-02f,-6.14007376e-02f,+2.01056469e-02f,+2.30342090e-01f,
-1.97370201e-01f,-7.01840818e-02f,-1.21763125e-01f,-1.02381120e-02f,-8.04013535e-02f,
+1.67650789e-01f,+1.51588812e-01f,+4.98263910e-02f,+3.24333340e-01f,+4.51284274e-03f,
+2.27400050e-01f,-1.58937559e-01f,+4.12960276e-02f,-1.19663157e-01f,-2.57375777e-01f,
+2.90678084e-01f,+5.55899203e-01f,+1.63427085e-01f,+2.33894169e-01f,-5.18272668e-02f,
-3.68061692e-01f,+4.74318899e-02f,+1.71983019e-01f,-1.78289250e-01f,+1.82192594e-01f,
+8.98435637e-02f,+2.11813331e-01f,-1.33559033e-01f,-2.89716333e-01f,-2.38294452e-02f,
-6.23336714e-03f,+7.64124021e-02f,-4.19466347e-02f,-3.23601067e-02f,-8.81900936e-02f,
-1.27697781e-01f,+2.81444788e-01f,+1.09775648e-01f,-1.24559246e-01f,+9.97290388e-02f,
+1.41459322e-02f,-4.97931242e-02f,-9.04562548e-02f,+1.19670391e-01f,-4.05855775e-02f,
+4.05242741e-02f,+3.18341911e-01f,+2.38431841e-02f,-8.67399275e-02f,+1.59668401e-01f,
+4.76265606e-03f,+1.00050017e-01f,+2.31328323e-01f,+1.59490466e-01f,-1.13240033e-01f,
+6.98002577e-02f,-2.18765698e-02f,+1.32638544e-01f,+3.85199606e-01f,-1.93100050e-02f,
-2.72769302e-01f,+7.25706518e-02f,+1.37329072e-01f,+1.70595441e-02f,+7.99452215e-02f,
-4.35913866e-03f,+6.38964400e-02f,+1.89341977e-01f,+1.98028728e-01f,+2.50308812e-01f,
-8.24861974e-02f,+1.91022411e-01f,-2.13429153e-01f,+6.59071282e-02f,+3.05995226e-01f,
-8.04493576e-02f,+1.05289645e-01f,+1.19233452e-01f,-7.81319588e-02f,+2.35583931e-01f,
+8.80053490e-02f,+2.36382544e-01f,+8.60522315e-02f,-3.60312313e-01f,+9.03767943e-02f,
+3.66401047e-01f,+1.00866426e-02f,+1.93756938e-01f,+1.27940163e-01f,+1.39911920e-01f,
-1.48293927e-01f,+3.00535440e-01f,-1.17272576e-02f,-2.05224603e-01f,-4.68439609e-02f,
+3.86309251e-02f,-5.49252369e-02f,-1.00377351e-01f,-1.83192596e-01f,-1.18160672e-01f,
-2.32495308e-01f,+2.09152531e-02f,-7.18655298e-03f,-1.14505164e-01f,+2.41668120e-01f,
-7.83888698e-02f,+1.42818779e-01f,+3.47733617e-01f,-5.25029600e-01f,-1.09200038e-01f,
-1.74907386e-01f,-2.67274976e-01f,-1.54783264e-01f,+1.55164495e-01f,-1.56348467e-01f,
-3.32905129e-02f,-1.66593716e-01f,+7.40709826e-02f,+1.35259390e-01f,+4.98474687e-02f,
+2.25220714e-02f,-1.24437712e-01f,+6.16294704e-02f,-1.85680479e-01f,-6.22979961e-02f,
+2.56613523e-01f,-5.20161241e-02f,+6.66601807e-02f,-1.39808774e-01f,+8.96600038e-02f,
-1.48218453e-01f,-1.64390560e-02f,+1.75455529e-02f,+3.69856745e-01f,-6.37787879e-02f,
+2.75483709e-02f,-8.19650441e-02f,+1.28577068e-01f,+1.86184824e-01f,+1.07699208e-01f,
+1.00363523e-01f,+3.63039561e-02f,+1.65496320e-02f,-3.42393178e-03f,-8.99624974e-02f,
+3.93155254e-02f,+2.55425453e-01f,+1.57845870e-01f,-5.47075458e-02f,+2.45591193e-01f,
-7.25180507e-02f,+1.34297147e-01f,+2.86402404e-01f,-6.28907531e-02f,-8.20083544e-02f,
-5.03207743e-02f,-6.56054765e-02f,-9.14867297e-02f,-6.22392669e-02f,-2.12839805e-02f,
-7.26064518e-02f,+1.08075179e-01f,-7.94862881e-02f,+1.02965109e-01f,-2.15076730e-01f,
+5.47167361e-02f,-1.40592262e-01f,+1.32858127e-01f,-8.22644010e-02f,-1.38144374e-01f,
+2.26683646e-01f,+3.77040766e-02f,+1.33430168e-01f,+6.97381943e-02f,+1.43599570e-01f,
-1.35550305e-01f,+4.22237627e-02f,-1.02959134e-01f,-1.65063947e-01f,+2.84305140e-02f,
-3.06105047e-01f,+8.01509321e-02f,-6.33497834e-02f,+2.70232707e-01f,+1.35380598e-02f,
-4.16828617e-02f,+3.36142555e-02f,-6.42177239e-02f,+5.35015240e-02f,+3.07473958e-01f,
+2.72451967e-01f,+1.41215220e-01f,+2.58110493e-01f,-3.21124673e-01f,-8.97297338e-02f,
+3.02039701e-02f,+2.17787921e-01f,+2.17511997e-01f,+2.86570247e-02f,+7.88269341e-02f,
-9.08919275e-02f,+1.68361858e-01f,+1.79318875e-01f,-6.86975345e-02f,+1.89430490e-01f,
+2.58612521e-02f,+7.15196598e-03f,+2.46004343e-01f,+1.52139917e-01f,+1.77596003e-01f,
-1.98340356e-01f,+3.83617990e-02f,-2.74658680e-01f,+7.36752674e-02f,+9.22609940e-02f,
+9.95309837e-03f,-8.78642052e-02f,-9.66780856e-02f,-2.04332978e-01f,+2.96342187e-02f,
-2.48902351e-01f,-1.29051700e-01f,-7.43649378e-02f,-3.49315628e-02f,-2.96878498e-02f,
-9.25272051e-03f,+1.49766818e-01f,+2.82856166e-01f,+1.41100526e-01f,-4.17610765e-01f,
+3.11723739e-01f,+6.94655478e-02f,-6.59771189e-02f,-1.31466091e-01f,-4.60802615e-02f,
+1.89322699e-02f,+5.47923334e-02f,+5.18422537e-02f,+9.56316963e-02f,+1.39016226e-01f,
+2.05689684e-01f,-2.35543594e-01f,+4.17251945e-01f,+4.33712527e-02f,+4.44353431e-01f,
+4.52141166e-02f,-2.15330034e-01f,-1.92780867e-01f,+3.13228145e-02f,+8.94010887e-02f,
+2.23636087e-02f,-1.86609164e-01f,+9.57415327e-02f,+5.12946881e-02f,+3.85698736e-01f,
-1.56709775e-01f,+2.97913194e-01f,-1.02869213e-01f,-6.20019920e-02f,-4.31164205e-02f,
+1.56317338e-01f,+8.12190548e-02f,-2.78890487e-02f,-6.05238676e-02f,+1.80540010e-01f,
-1.49388403e-01f,-4.96703051e-02f,-3.03049311e-02f,+1.45754695e-01f,-1.57414958e-01f,
-7.34787285e-02f,-3.57482322e-02f,+2.80622900e-01f,-1.14051417e-01f,-1.24098822e-01f,
-1.29871607e-01f,-8.03044289e-02f,+3.61359179e-01f,+2.96027303e-01f,+5.99216782e-02f,
+1.35393560e-01f,-1.03684038e-01f,+7.30141029e-02f,-2.95638815e-02f,-1.09631792e-02f,
+1.24489041e-02f,-1.61629301e-02f,+1.66297704e-02f,+5.69897369e-02f,-2.28320360e-01f,
-1.76289737e-01f,-1.51910245e-01f,-7.03885257e-02f,+4.83194813e-02f,-6.49467930e-02f,
+8.85810517e-03f,-2.68329591e-01f,+2.25915253e-01f,+1.33414090e-01f,-7.61826485e-02f,
+6.80010626e-03f,-1.64617449e-02f,+1.20536037e-01f,-3.68767395e-03f,-4.08083126e-02f,
-3.86593267e-02f,-2.07616994e-03f,-1.36537462e-01f,+2.62108266e-01f,+2.17350081e-01f,
+3.90128829e-02f,+6.53505400e-02f,-2.45350733e-01f,+1.46898299e-01f,-9.80782062e-02f,
+1.19399004e-01f,-3.35857928e-01f,-3.31983387e-01f,-1.50763318e-01f,-1.74690917e-01f,
+1.97362617e-01f,+3.84922922e-02f,+3.86197143e-03f,+7.60916062e-03f,+7.60061517e-02f,
+7.24743912e-03f,-4.85492498e-02f,+2.12110683e-01f,-4.33640257e-02f,+2.72619992e-01f,
-1.22483745e-01f,+9.57129821e-02f,+4.62084264e-02f,+1.04718722e-01f,-1.17694676e-01f,
-6.28271922e-02f,+7.86974505e-02f,+1.35356233e-01f,+4.65126604e-01f,+2.76187092e-01f,
-8.19029361e-02f,+1.26342580e-01f,+7.69457174e-03f,-2.43050367e-01f,-1.00138493e-01f,
+9.33090076e-02f,-1.74924195e-01f,-2.25435887e-02f,+9.43284035e-02f,+4.90703098e-02f,
-1.26170546e-01f,+1.21046931e-01f,+2.29677796e-01f,+7.22310841e-02f,+4.93827946e-02f,
+2.37009495e-01f,+3.41267824e-01f,+1.56602755e-01f,+5.93026951e-02f,-1.06644057e-01f,
-3.03999841e-01f,+1.69311881e-01f,+2.62583196e-01f,-2.10487828e-01f,+1.27124891e-01f,
-1.52215183e-01f,+2.20050037e-01f,+4.43866625e-02f,-1.42062441e-01f,+3.51057589e-01f,
+1.76241294e-01f,+6.17345989e-01f,+1.14277944e-01f,+2.00070977e-01f,-1.04596997e-02f,
+2.30124801e-01f,+2.25500345e-01f,+8.19654539e-02f,+1.69530228e-01f,-1.07436910e-01f,
+9.40847397e-03f,+3.43716562e-01f,+2.45373949e-01f,+1.92470431e-01f,+1.09091431e-01f,
+1.94037303e-01f,-1.90550461e-01f,+3.63842584e-02f,+1.57353297e-01f,+1.27122208e-01f,
-1.15781866e-01f,+1.76849067e-01f,-3.24679492e-03f,-2.95758490e-02f,+2.62356907e-01f,
-2.48889208e-01f,+3.12331945e-01f,-2.00083062e-01f,+8.85447413e-02f,-1.35446161e-01f,
+5.91877252e-02f,+2.64566272e-01f,-2.52843410e-01f,+1.05503008e-01f,+1.08638771e-01f,
-9.49208513e-02f,-3.87352616e-01f,-1.30701691e-01f,-1.48130640e-01f,+4.41750102e-02f,
-2.44757384e-02f,+2.14054570e-01f,+3.13213676e-01f,-1.79631516e-01f,-2.95479540e-02f,
+1.89686283e-01f,+1.51273474e-01f,+1.88260287e-01f,-2.59182036e-01f,-1.03736065e-01f,
-8.67034495e-02f,-6.72428831e-02f,+1.98725238e-01f,-3.45233679e-01f,+1.29814362e-02f,
-4.53181416e-02f,-2.16413572e-01f,+1.19832367e-01f,-1.03362307e-01f,+1.50188193e-01f,
-2.41749659e-01f,-7.06300065e-02f,-1.93270738e-03f,-1.17229313e-01f,-2.40779728e-01f,
+1.25116780e-01f,-1.16090521e-01f,+1.39789492e-01f,+1.45265803e-01f,+9.96405482e-02f,
-1.33394599e-01f,-1.39637366e-01f,+9.66820270e-02f,+2.41194159e-01f,+1.56917617e-01f,
-2.06267193e-01f,-3.10279965e-01f,-4.06702459e-02f,+5.84698737e-01f,-1.91510573e-01f,
-1.12042069e-01f,-7.55869746e-02f,+2.12656856e-01f,-4.36909422e-02f,+1.31799811e-02f,
+8.57302248e-02f,-1.10337831e-01f,+1.42926946e-01f,+6.24017827e-02f,-6.10443540e-02f,
+1.26243114e-01f,-3.69633943e-01f,-7.25561380e-02f,-3.47594991e-02f,-1.72274962e-01f,
+2.74445921e-01f,+1.39308646e-01f,-9.97635722e-02f,-1.03937820e-01f,+1.57953680e-01f,
-8.99743512e-02f,-9.11977440e-02f,-3.65377963e-01f,+2.81352341e-01f,+3.90044123e-01f,
-2.10882947e-01f,+5.92661537e-02f,-8.13030824e-02f,+2.58719716e-02f,-3.53726864e-01f,
+4.86998446e-02f,-2.32745826e-01f,-5.54920323e-02f,-1.28940567e-02f,-3.56936152e-03f,
+1.73761442e-01f,+1.71401128e-01f,-2.95421660e-01f,+1.23720385e-01f,-7.04535916e-02f,
+2.99675107e-01f,-1.23289905e-01f,-2.51774669e-01f,-1.67555466e-01f,+2.21696973e-01f,
-8.94833207e-02f,+2.83837086e-03f,+1.72294393e-01f,-1.94231004e-01f,-1.04290314e-01f,
-4.37914938e-01f,+1.27242118e-01f,-7.75758252e-02f,+2.45188817e-01f,+1.11486509e-01f,
-1.92904443e-01f,-2.24911898e-01f,+1.31590171e-02f,+7.12499917e-02f,+6.30633980e-02f,
+5.83987683e-02f,-5.05358316e-02f,+6.59825653e-02f,-4.24814522e-02f,-2.28375152e-01f,
-4.64946367e-02f,-2.28765234e-01f,+1.34193271e-01f,+9.77004468e-02f,-1.72198817e-01f,
-2.24065632e-01f,-1.70262292e-01f,-2.02159688e-01f,+1.09099805e-01f,+1.01837628e-01f,
+3.76612917e-02f,+1.34003520e-01f,+7.62755349e-02f,+1.62999377e-01f,+4.29474674e-02f,
+4.57369208e-01f,-1.69230532e-02f,-6.10458106e-02f,+5.59796765e-02f,-5.02763353e-02f,
+1.56608582e-01f,-5.27030006e-02f,-1.41123608e-01f,-5.93262501e-02f,+4.57418621e-01f,
-2.17215363e-02f,+3.35754395e-01f,-1.26615316e-01f,+3.40793394e-02f,-1.35060057e-01f,
+1.25105232e-01f,-2.19086956e-04f,-1.27798840e-01f,-8.85538161e-02f,+1.31936923e-01f,
+8.92144907e-03f,-9.90523100e-02f,+3.12469453e-01f,+1.37552574e-01f,+1.42118394e-01f,
-6.63209483e-02f,-1.87276259e-01f,-9.55074579e-02f,+2.16545507e-01f,+1.54187724e-01f,
-4.64360304e-02f,-2.93846224e-02f,+1.81362212e-01f,+3.19662631e-01f,+1.31007165e-01f,
+3.95650603e-02f,+1.44130856e-01f,+8.67486298e-02f,-7.90612847e-02f,-1.90151818e-02f,
-5.97632453e-02f,-2.30466984e-02f,+6.45830631e-02f,+9.48045775e-02f,-5.78193702e-02f,
+1.79618418e-01f,+6.46093860e-02f,+2.02621192e-01f,-6.94886521e-02f,+1.78828597e-01f,
-5.49000017e-02f,-7.90441707e-02f,+1.69604048e-01f,+1.69668078e-01f,-2.23830372e-01f,
-9.90597084e-02f,-1.42233655e-01f,+1.73186481e-01f,-8.07181224e-02f,-2.41764449e-02f,
-3.15365568e-02f,+7.70412982e-02f,+1.93702951e-01f,+1.17791526e-01f,-1.37023047e-01f,
+1.70826271e-01f,-1.81896016e-01f,-4.53567356e-02f,+1.10650428e-01f,+2.19659388e-01f,
+3.49033922e-02f,-2.33563222e-02f,+8.97828117e-02f,+2.53063530e-01f,-4.30952758e-01f,
-1.53773511e-02f,-1.45274833e-01f,-5.72165381e-03f,-1.79271594e-01f,-5.10664396e-02f,
-2.73686290e-01f,-3.38898093e-01f,+3.13292027e-01f,+7.85271376e-02f,+2.73049712e-01f,
-3.01747620e-01f,-1.04605801e-01f,+2.31744379e-01f,-1.79605350e-01f,-1.51534215e-01f,
+8.32400545e-02f,+2.24501848e-01f,+7.67639577e-02f,+1.76533103e-01f,+3.38799328e-01f,
-2.45853409e-01f,-1.81479812e-01f,+1.51403874e-01f,-9.16698501e-02f,-2.33393505e-01f,
+6.37339428e-02f,-7.40832537e-02f,+8.47749114e-02f,-3.68611842e-01f,-9.24634561e-02f,
+2.35446513e-01f,+1.91599980e-01f,+2.48966724e-01f,-5.99067472e-02f,+2.03895360e-01f,
+1.05290420e-01f,+1.26266032e-01f,-1.75491348e-02f,-2.87071131e-02f,+2.15617910e-01f,
+1.46595061e-01f,-1.09952971e-01f,+4.60035712e-01f,+1.36003971e-01f,+3.13826576e-02f,
+2.75315732e-01f,-2.81548426e-02f,+2.72379220e-01f,-4.41998690e-02f,+3.03557605e-01f,
-9.97096999e-04f,-1.64573625e-01f,+1.54028490e-01f,+5.26104905e-02f,+1.08539030e-01f,
-3.56548488e-01f,+7.73371309e-02f,-2.92259455e-01f,+2.21249595e-01f,+1.27233759e-01f,
-1.66935161e-01f,-2.67180726e-02f,+2.25387681e-02f,-5.06314039e-02f,+2.95962393e-01f,
-1.30410030e-01f,-1.38211893e-02f,-4.76295054e-02f,-6.86939210e-02f,-1.11678593e-01f,
-3.44444700e-02f,+1.76785722e-01f,-1.00820363e-01f,-1.41300961e-01f,+2.62394249e-01f,
-1.22251883e-01f,-1.01162763e-02f,+8.28865021e-02f,-1.56228378e-01f,+2.15278551e-01f,
-1.11721270e-01f,-1.93425015e-01f,+1.03873657e-02f,-2.81620502e-01f,-6.48462549e-02f,
+3.04706305e-01f,+2.16236800e-01f,+1.20690525e-01f,-1.93549749e-02f,+2.51249135e-01f,
-4.90768366e-02f,-3.03838760e-01f,+5.25916973e-03f,+1.38643295e-01f,+2.64131457e-01f,
+2.58380145e-01f,+7.31267035e-03f,+2.11539865e-01f,-2.51510404e-02f,+5.15522398e-02f,
-1.14647977e-01f,+1.64721444e-01f,-1.89536795e-01f,+2.54759528e-02f,+7.94001520e-02f,
+3.40964347e-01f,-1.58172980e-01f,-3.08862031e-01f,-1.77186847e-01f,+2.42133483e-01f,
+8.41194168e-02f,+4.40839529e-02f,+1.63019728e-02f,-1.84586525e-01f,+1.38854489e-01f,
-3.79123390e-01f,+3.66763622e-01f,+1.58712327e-01f,+3.47892679e-02f,-1.00132804e-02f,
-1.01700969e-01f,-2.76483726e-02f,-2.67416120e-01f,-8.11764523e-02f,-2.33998105e-01f,
+1.91141009e-01f,+5.99869564e-02f,-2.33224377e-01f,-4.26749103e-02f,-3.88883464e-02f,
-3.66040379e-01f,-1.15662791e-01f,+1.21306062e-01f,-1.95531249e-01f,+2.55527288e-01f,
-4.15811315e-02f,+5.81013933e-02f,-6.13144860e-02f,-1.87093019e-01f,-1.15193032e-01f,
+1.26661450e-01f,+3.09650283e-02f,+7.64519870e-02f,+4.39564317e-01f,-4.58086319e-02f,
-2.14954823e-01f,+2.77443409e-01f,-5.97535912e-03f,+7.66783655e-02f,+1.99411824e-01f,
+1.38728663e-01f,+8.57347026e-02f,-2.64250070e-01f,+4.08739522e-02f,+1.84268758e-01f,
+2.24712476e-01f,+7.55968466e-02f,-7.93111473e-02f,-1.11968694e-02f,-4.56865393e-02f,
+2.08366588e-02f,+2.22106427e-01f,+3.28544021e-01f,-1.38179094e-01f,+5.07726669e-02f,
+2.80650079e-01f,-1.63667411e-01f,-5.18906653e-01f,+1.77712017e-03f,-1.65677741e-01f,
-1.91045180e-01f,-2.11452514e-01f,-2.79715627e-01f,-9.57672969e-02f,+4.30067688e-01f,
-1.18897460e-01f,-7.93164074e-02f,-1.34777188e-01f,+2.89397798e-02f,+9.63311642e-02f,
-4.46116626e-02f,-1.40365571e-01f,+1.47031784e-01f,+2.76383936e-01f,-5.23780361e-02f,
-1.05371855e-01f,-1.33888125e-01f,+6.51675537e-02f,-1.99287862e-01f,+1.33527368e-01f,
-4.56448868e-02f,+1.35046855e-01f,+1.74329415e-01f,-2.26747617e-01f,+1.21881530e-01f,
-1.69190634e-02f,-2.35271752e-01f,+3.36806029e-01f,+3.87267947e-01f,-2.71800179e-02f,
+1.64860919e-01f,-4.55876999e-03f,-9.87037271e-02f,+1.27125114e-01f,+1.36587769e-02f,
-4.14692238e-02f,+2.90064484e-01f,+2.33134925e-01f,+4.44929264e-02f,+1.06225923e-01f,
-2.50227869e-01f,-3.70716006e-01f,-7.90474862e-02f,+1.00835331e-01f,-5.72346672e-02f,
+2.60158420e-01f,-2.98555046e-01f,-1.42780676e-01f,+3.90631735e-01f,+3.58551443e-01f,
-4.42130119e-01f,+2.63689876e-01f,+1.95036829e-01f,+2.77378470e-01f,+4.48701680e-02f,
-1.79693967e-01f,-3.28049392e-01f,-4.00701344e-01f,+1.90678418e-01f,-2.80468583e-01f,
+2.03109980e-02f,-4.73797992e-02f,+7.00527355e-02f,+3.60695779e-01f,+1.75232619e-01f,
-1.05502093e-02f,+7.84446821e-02f,-1.59606695e-01f,-8.80338997e-02f,+1.73578918e-01f,
+1.48299634e-01f,-2.03049351e-02f,+1.99582085e-01f,+3.79316002e-01f,-4.72053327e-02f,
+1.65690780e-01f,-2.38793090e-01f,-1.41233817e-01f,+9.89535376e-02f,+4.51140404e-02f,
+1.48744673e-01f,+3.50935429e-01f,+1.39658526e-01f,+2.60406017e-01f,-1.58531100e-01f,
-3.67715240e-01f,+8.53992254e-02f,-1.39127493e-01f,-5.29058933e-01f,-1.20179050e-01f,
+4.74208184e-02f,+1.12416804e-01f,+1.04341842e-01f,+2.58476466e-01f,+1.89883396e-01f,
+7.38742724e-02f,+1.99827012e-02f,+3.30279589e-01f,+2.15116832e-02f,+1.38908848e-01f,
-1.24664744e-02f,-2.13452265e-01f,+1.73335880e-01f,+1.01346686e-01f,+2.54789591e-02f,
+3.92755829e-02f,+2.26096705e-01f,-2.48003572e-01f,-2.50660777e-01f,+2.92120725e-01f,
+3.03986967e-01f,+5.98405413e-02f,-8.76761824e-02f,-8.45207050e-02f,+1.28901929e-01f,
+2.02292264e-01f,+2.98965037e-01f,+1.79887377e-02f,+8.67004991e-02f,+1.07671209e-01f,
-7.30752125e-02f,+1.38326630e-01f,+9.90237966e-02f,+1.14141449e-01f,-1.16457641e-01f,
-1.06303737e-01f,+1.52922794e-01f,+1.85526401e-01f,-1.54434353e-01f,-1.27783477e-01f,
+3.13426107e-02f,+2.51377553e-01f,-1.72792241e-01f,+2.34005511e-01f,+1.97315633e-01f,
+3.15915532e-02f,-2.65482664e-01f,+1.09882723e-03f,+9.17582363e-02f,+1.18449911e-01f,
-7.49574676e-02f,+4.55594361e-01f,-1.20648816e-01f,+1.16185367e-01f,+1.26008559e-02f,
-2.29812525e-02f,-1.28773809e-03f,-3.04154366e-01f,-2.88300186e-01f,-5.72645329e-02f,
-4.08848077e-01f,+2.36687884e-01f,+2.78473437e-01f,+1.41421899e-01f,-3.38208109e-01f,
+6.21693432e-02f,-3.18833768e-01f,-7.78918946e-03f,-5.65140173e-02f,+7.96284154e-03f,
-3.27107787e-01f,-3.46069694e-01f,+1.27722651e-01f,-1.10675484e-01f,+6.34332225e-02f,
+1.32834166e-01f,-2.21460946e-02f,-2.41276503e-01f,+1.65464841e-02f,-1.42866939e-01f,
-3.10117602e-01f,+2.78041549e-02f,-2.67205954e-01f,-1.45123899e-01f,+2.09052622e-01f,
-2.44117267e-02f,-2.01468930e-01f,-3.41492504e-01f,+3.16276491e-01f,+4.33308929e-02f,
+1.83494776e-01f,-2.19815314e-01f,+1.79039538e-01f,+9.75622907e-02f,-7.17511680e-03f,
+2.24630937e-01f,+1.27250284e-01f,+8.42005387e-02f,+8.19635112e-03f,-1.35227159e-01f,
+1.18805449e-02f,-2.96694674e-02f,-1.56220779e-01f,+2.90395737e-01f,+9.93425474e-02f,
-2.87361210e-03f,-1.02766426e-02f,-7.45671941e-03f,+2.01149937e-02f,-5.17755151e-01f,
-7.47375637e-02f,-2.36990705e-01f,+4.01003480e-01f,-2.01284304e-01f,-3.30522239e-01f,
+3.89542103e-01f,-3.76869477e-02f,+2.05079213e-01f,-2.14607883e-02f,-1.20755993e-01f,
-1.96714818e-01f,-1.18535757e-02f,-1.99105144e-01f,+6.74843863e-02f,+1.35703444e-01f,
+2.65714973e-02f,-1.93133950e-01f,+3.68757024e-02f,-7.25663230e-02f,-1.40600681e-01f,
+5.80159761e-02f,-6.65495172e-02f,+4.59549055e-02f,-1.67734064e-02f,+4.69975173e-02f,
-2.26934880e-01f,+4.05917875e-03f,+3.33321467e-02f,-9.47604626e-02f,+2.10391328e-01f,
-1.91613391e-01f,-1.89358015e-02f,+1.12644523e-01f,+2.15241779e-02f,+2.34308690e-01f,
+2.73922700e-02f,+2.93998301e-01f,+1.21557042e-01f,-7.37474710e-02f,+1.18124053e-01f,
-2.45326906e-01f,+1.68569818e-01f,-2.18651518e-02f,-2.49568924e-01f,+1.40468597e-01f,
+1.56354442e-01f,+1.80319063e-02f,-2.76835293e-01f,+1.30690649e-01f,+4.01275344e-02f,
+7.94595480e-03f,-2.42318198e-01f,+1.16920002e-01f,-9.97513011e-02f,+2.60026008e-01f,
-2.16853052e-01f,-7.93638155e-02f,-7.01668561e-02f,-3.37517768e-01f,+2.00294471e-05f,
-4.76538762e-03f,+5.08629009e-02f,-2.12764949e-01f,-4.76391137e-01f,+1.67211980e-01f,
-2.11826593e-01f,-1.14306554e-01f,+1.41922250e-01f,+3.50865982e-02f,+1.39404774e-01f,
+2.13139364e-03f,-8.27684402e-02f,-1.37965277e-01f,+7.24492371e-02f,+1.70151204e-01f,
+2.10478052e-01f,-1.16893284e-01f,+6.75639287e-02f,+3.60643595e-01f,+6.17754817e-01f,
+9.88009200e-02f,+4.06571701e-02f,-1.36174351e-01f,-6.99163554e-03f,-2.36541912e-01f,
-1.25943124e-01f,+9.02341530e-02f,-7.60663822e-02f,+1.29019752e-01f,+1.21201746e-01f,
+7.32002258e-02f,-4.91919853e-02f,+1.70230806e-01f,+7.93644637e-02f,+1.24432646e-01f,
+4.84619178e-02f,+5.59691787e-02f,-4.45913300e-02f,-2.46939406e-01f,-1.66712970e-01f,
-1.15120336e-01f,-4.37173426e-01f,-2.53729492e-01f,-2.47859862e-02f,-1.58797309e-01f,
+2.28540991e-02f,-2.77206600e-01f,+7.57893100e-02f,-1.18894733e-01f,+1.42795473e-01f,
-4.87650961e-01f,-6.65068952e-03f,+8.96055177e-02f,+7.15594366e-02f,-1.91976562e-01f,
+3.00123662e-01f,-1.65080801e-01f,-8.61025415e-03f,-3.16946924e-01f,+2.06794664e-01f,
+1.93129227e-01f,+2.15549931e-01f,-2.85302520e-01f,+5.35773858e-02f,-2.65950710e-01f,
+1.30700648e-01f,-1.58721756e-04f,-1.60149798e-01f,-2.14702040e-02f,-8.79520997e-02f,
+9.51312259e-02f,+3.02403979e-02f,-2.84752071e-01f,-1.36154413e-01f,-1.09062821e-01f,
+1.46743804e-01f,+6.92877397e-02f,-7.91245624e-02f,-5.15376627e-02f,-3.37825827e-02f,
-1.31130412e-01f,-1.41842410e-01f,-1.94816552e-02f,+9.03545469e-02f,-2.02161953e-01f,
+3.79332453e-02f,+3.88713628e-02f,+2.53173262e-01f,-1.69000104e-01f,+1.15452170e-01f,
-1.23751037e-01f,+1.01915866e-01f,-4.84929755e-02f,+7.63266236e-02f,+1.35865003e-01f,
-7.93892890e-03f,-4.21276726e-02f,-1.43284887e-01f,-2.15666562e-01f,+1.30634055e-01f,
+3.14608783e-01f,+1.18688643e-01f,+7.07598925e-02f,-8.75545144e-02f,-4.95495759e-02f,
-1.75854728e-01f,-1.59741148e-01f,-2.18924172e-02f,-2.25010216e-01f,-1.01574466e-01f,
+1.66122913e-01f,+7.26148412e-02f,-2.71018058e-01f,+2.72709765e-02f,+9.42977369e-02f,
-2.82537825e-02f,-1.96132176e-02f,-3.52747217e-02f,+7.53191635e-02f,-3.09751630e-02f,
-4.85445946e-01f,+1.29603371e-01f,-2.51268834e-01f,+6.20907471e-02f,+3.12798530e-01f,
+3.71375173e-01f,-9.36969742e-03f,-2.71808654e-01f,-2.48186707e-01f,+8.74474943e-02f,
+1.77697539e-01f,-1.59257531e-01f,-1.78288836e-02f,+3.03921383e-02f,-1.22815885e-01f,
-1.05961218e-01f,-2.33597923e-02f,+5.43881841e-02f,-5.90993762e-02f,-6.29578233e-01f,
+4.23367508e-02f,-6.95324540e-02f,+2.55825907e-01f,-2.98364609e-01f,+3.61288898e-02f,
-6.73102960e-02f,+6.43887976e-03f,-6.82429373e-02f,+1.22776605e-01f,-2.47061715e-01f,
+3.84119004e-01f,+4.45850194e-02f,+9.41113830e-02f,+2.26278618e-01f,+4.83008176e-01f,
-4.99548577e-02f,-6.53287545e-02f,-1.57475844e-01f,-9.36981142e-02f,-8.07490125e-02f,
-6.51818365e-02f,-8.65701512e-02f,+3.73014249e-03f,+2.84972966e-01f,+1.98531866e-01f,
-1.78946227e-01f,-8.82704649e-03f,+2.62021814e-02f,+8.80720317e-02f,+1.20572664e-01f,
-1.74652692e-02f,+2.25752555e-02f,-1.51269570e-01f,+2.35433608e-01f,-1.81276098e-01f,
+8.59063640e-02f,+2.09423333e-01f,-2.31727157e-02f,+3.21781158e-01f,+2.02820644e-01f,
-2.18956575e-01f,-1.22529447e-01f,-2.28403717e-01f,+2.78920471e-03f,+4.67470288e-02f,
-2.40336694e-02f,+6.87859906e-03f,-2.32433692e-01f,+1.80680573e-01f,-2.02630647e-02f,
-1.33161455e-01f,-6.41123354e-02f,-2.30043441e-01f,+6.46912083e-02f,+1.26009956e-01f,
+1.42277122e-01f,-9.26067010e-02f,-6.79967776e-02f,+1.27613157e-01f,+3.59848812e-02f,
-5.52241206e-02f,+1.48392981e-02f,+8.17740187e-02f,-1.34473711e-01f,+2.06374466e-01f,
-1.34252191e-01f,+6.07774481e-02f,-1.24366852e-02f,+3.29523496e-02f,+2.30416283e-02f,
-1.91776648e-01f,+1.15546741e-01f,+3.30841579e-02f,+1.68886781e-01f,+5.34781963e-02f,
+5.80664985e-02f,+8.77951235e-02f,-4.26731817e-03f,+6.70688003e-02f,-8.27398822e-02f,
+4.66905415e-01f,-1.48078561e-01f,+5.92426062e-02f,+1.90927923e-01f,-6.78957477e-02f,
+2.96481878e-01f,+1.47203758e-01f,+1.13621220e-01f,-4.10765201e-01f,+1.91419467e-01f,
+1.97215512e-01f,+3.76643360e-01f,-4.94004861e-02f,-2.49252751e-01f,+3.01696211e-01f,
+1.74338564e-01f,-1.56445593e-01f,+3.45819831e-01f,+1.07237004e-01f,+2.15457603e-01f,
+5.57615198e-02f,+7.87291229e-02f,-1.09988555e-01f,-1.39928967e-01f,-1.95407018e-01f,
+1.66058332e-01f,-1.23787746e-01f,+1.28074840e-01f,-8.72070044e-02f,-1.01628140e-01f,
+2.00984273e-02f,-2.77932212e-02f,-1.11825369e-01f,+1.87347792e-02f,+1.11395717e-02f,
-1.59528047e-01f,+9.81581733e-02f,-8.38352181e-03f,+3.06624770e-01f,-8.18314403e-02f,
-8.78623873e-02f,+6.96583241e-02f,+1.40155956e-01f,+3.88315082e-01f,+1.22088864e-01f,
+1.41421586e-01f,+1.60166606e-01f,-1.05708785e-01f,-4.73355986e-02f,-3.18578556e-02f,
+4.82425600e-01f,+9.43875909e-02f,-1.74372956e-01f,+2.95652092e-01f,+1.03605755e-01f,
+7.48466328e-02f,+3.21384612e-03f,-8.22093412e-02f,-8.40381384e-02f,-1.62750244e-01f,
+1.82140246e-02f,-1.50305137e-01f,+1.13076456e-01f,+2.61117425e-03f,+3.00845318e-02f,
-1.71604753e-01f,+1.85402721e-01f,-1.95580408e-01f,-1.98465824e-01f,-3.14444974e-02f,
-9.45114903e-03f,+6.52771741e-02f,-1.56032830e-01f,+7.03632236e-02f,-1.48261115e-01f,
-4.00528647e-02f,-2.60816872e-01f,+1.90033183e-01f,-2.72738129e-01f,+2.29041353e-01f,
-2.80737188e-02f,-2.00325906e-01f,+1.68302521e-01f,+2.30117381e-01f,+4.05720860e-01f,
+7.35559240e-02f,+2.45445296e-02f,+4.05460030e-01f,-2.67421335e-01f,+2.79403478e-01f,
+4.03122790e-02f,-1.15324266e-01f,+9.79446769e-02f,+3.52351815e-01f,-2.04352021e-01f,
+9.19319615e-02f,-1.30142331e-01f,+1.34458199e-01f,-1.20515488e-01f,-4.93662022e-02f,
+4.86729853e-02f,+1.38170943e-01f,+2.02715650e-01f,+7.14500025e-02f,-1.43352762e-01f,
+1.53275773e-01f,+6.76750159e-03f,-1.45932764e-01f,+1.06622890e-01f,+2.44379684e-01f,
+3.46880227e-01f,+7.60309398e-02f,-2.01027408e-01f,+2.53207773e-01f,+1.18195869e-01f,
-4.10717763e-02f,+7.12013245e-02f,-3.80787075e-01f,+1.77652285e-01f,+1.04612447e-02f,
+6.65403605e-02f,+1.78374708e-01f,+2.33119130e-01f,-2.08957747e-01f,+2.36063868e-01f,
-6.16878644e-02f,+7.13828877e-02f,+3.72319609e-01f,+5.64249277e-01f,+1.88470781e-01f,
-7.51395449e-02f,+1.46997705e-01f,+2.98218459e-01f,+1.88764527e-01f,+3.72911319e-02f,
-1.98605895e-01f,-3.77088934e-02f,+9.51497182e-02f,+2.22631857e-01f,-1.90419257e-01f,
-1.01500772e-01f,-1.65134951e-01f,+3.74829859e-01f,+3.31234522e-02f,+3.19917127e-02f,
+9.68671869e-03f,-1.00717366e-01f,-2.28952467e-02f,-2.92523541e-02f,-1.44678563e-01f,
-2.09126234e-01f,+7.36453235e-02f,+3.29306722e-01f,-3.06494739e-02f,+3.71850342e-01f,
+3.66056472e-01f,-6.48213029e-02f,-2.03015044e-01f,-4.79039103e-02f,+2.44783923e-01f,
+1.96501017e-01f,+9.96589884e-02f,+1.69184834e-01f,-3.10752332e-01f,-3.20637487e-02f,
+2.26902664e-02f,+1.60856172e-02f,-2.86788791e-01f,+3.89223173e-03f,+4.38938998e-02f,
+1.92371774e-02f,+1.25918150e-01f,+1.10419519e-01f,-1.56904235e-01f,-2.81415313e-01f,
+2.60386169e-01f,+1.43008947e-01f,-8.30263868e-02f,-1.07567810e-01f,-1.45463407e-01f,
+2.89579500e-02f,+1.21461548e-01f,+1.69158608e-01f,+2.08043922e-02f,+1.10904194e-01f,
+3.53927910e-02f,+3.97653952e-02f,-6.18756637e-02f,+3.44825946e-02f,-5.50889112e-02f,
-8.38338137e-02f,+1.19926788e-01f,-1.73498899e-01f,-7.66047928e-03f,-8.97308215e-02f,
-1.33628324e-01f,+2.47388884e-01f,+2.06603646e-01f,-5.84231354e-02f,+5.96869178e-02f,
+1.80756375e-01f,+2.86759079e-01f,-3.79952863e-02f,-1.53771043e-01f,-1.82187498e-01f,
-1.47873908e-01f,-4.44372408e-02f,+1.49308667e-01f,+8.98334309e-02f,-2.25347981e-01f,
-3.50186303e-02f,-2.50629306e-01f,-3.45880911e-02f,-1.60248771e-01f,-1.23070829e-01f,
+7.27959201e-02f,+1.94850773e-01f,+1.03237957e-01f,+6.44250661e-02f,-1.63644865e-01f,
+3.35014910e-02f,+3.10585082e-01f,+1.34218588e-01f,-3.25148940e-01f,+1.05702549e-01f,
+4.58924592e-01f,+1.71015412e-01f,+2.13766977e-01f,-1.39885144e-02f,-1.09444052e-01f,
+9.50188264e-02f,-1.58825591e-02f,+1.24337085e-01f,+1.90792710e-01f,+1.93404347e-01f,
-2.59566933e-01f,-1.16080150e-01f,-9.40796360e-02f,+3.76710474e-01f,-3.29248756e-02f,
+2.81606257e-01f,+3.02407574e-02f,+1.86828434e-01f,+1.51102930e-01f,-5.19286431e-02f,
+4.15776595e-02f,-6.85361922e-02f,+3.35477777e-02f,-9.71022844e-02f,+6.27026781e-02f,
-6.83528334e-02f,-2.87298948e-01f,-1.89430520e-01f,+7.39715025e-02f,+8.80635530e-02f,
+6.30445927e-02f,-7.62511268e-02f,+2.76038826e-01f,+1.52701214e-01f,-5.58549166e-02f,
-2.72185147e-01f,+1.30153522e-01f,+1.14373162e-01f,+1.31530821e-01f,-6.05020113e-02f,
+6.62663281e-02f,+1.83628187e-01f,+2.39014044e-01f,+1.39168739e-01f,-9.47027430e-02f,
+8.05716515e-02f,-1.89989626e-01f,-1.72543243e-01f,-2.30498210e-01f,-4.39901985e-02f,
-1.23034552e-01f,+1.00250915e-01f,-2.54571378e-01f,+2.40174606e-01f,-1.16669863e-01f,
+9.14270803e-02f,+1.82104304e-01f,+3.04246813e-01f,+4.96147461e-02f,-5.86963817e-02f,
+6.04343787e-02f,-4.69635390e-02f,+3.31861496e-01f,+3.22981358e-01f,+2.43503124e-01f,
-1.53985322e-01f,-1.28702521e-01f,+4.37127389e-02f,+1.56773075e-01f,+1.05296105e-01f,
-1.00201629e-01f,+1.20861746e-01f,+1.17676817e-01f,-2.92456392e-02f,+3.20780873e-02f,
+4.76647094e-02f,+1.23695806e-01f,+8.30243900e-02f,-3.06169748e-01f,+1.90090805e-01f,
-7.64008388e-02f,-2.06824303e-01f,-1.19199000e-01f,+2.15797871e-01f,+2.03804418e-01f,
-1.16187304e-01f,+8.19590688e-02f,+2.81488150e-01f,-7.70673081e-02f,-7.45816156e-02f,
-1.60910159e-01f,+1.11133501e-01f,+8.62112045e-02f,+1.49953008e-01f,+1.51468620e-01f,
-5.21948226e-02f,+6.87530786e-02f,+6.08281158e-02f,-1.58423945e-01f,-4.66904521e-01f,
-6.12667799e-02f,+1.87177286e-01f,-6.74783215e-02f,+1.97854981e-01f,+3.46157067e-02f,
+8.56575072e-02f,+2.41447583e-01f,+3.96366529e-02f,+1.27675533e-02f,+3.31469327e-02f,
-1.17333338e-01f,-1.76760808e-01f,+1.65930957e-01f,-1.23143578e-02f,-3.92146446e-02f,
-4.01390083e-02f,+2.27494631e-02f,+1.66383743e-01f,-1.10713065e-01f,+5.39313890e-02f,
-3.32712382e-01f,-1.88172795e-02f,+4.69345301e-02f,-2.83322096e-01f,-1.54558942e-01f,
-4.92885821e-02f,+3.69179882e-02f,-7.92539865e-02f,+1.02374271e-01f,+7.53134191e-02f,
-2.72087008e-01f,+5.21557271e-01f,+7.13492334e-02f,-2.72059143e-01f,+3.15618999e-02f,
+1.70026734e-01f,-1.09305799e-01f,+1.71847373e-01f,+7.00905919e-02f,+3.56890529e-01f,
+2.07255736e-01f,-1.51452243e-01f,-4.08907160e-02f,+6.84256330e-02f,+2.60192692e-01f,
+3.20777148e-02f,+1.18983045e-01f,-1.26361474e-01f,+1.98168568e-02f,+1.82221115e-01f,
-1.50355145e-01f,-1.79767683e-02f,-3.96529622e-02f,-6.23611100e-02f,-2.64916807e-01f,
+1.18723169e-01f,-1.26013067e-03f,+1.67249724e-01f,-2.61486858e-01f,+1.49041470e-02f,
+3.00655514e-02f,+1.58712760e-01f,+3.37311141e-02f,+2.38733053e-01f,-7.02598691e-02f,
+3.43842469e-02f,-3.52628753e-02f,-1.23495616e-01f,+1.70902535e-01f,-7.36970603e-02f,
-7.71539211e-02f,-6.47675770e-04f,-9.98197794e-02f,-1.54915452e-01f,+1.40904993e-01f,
-8.37402269e-02f,-1.18094489e-01f,-2.93517876e-02f,-1.92242995e-01f,-2.54100561e-02f,
+1.29544213e-01f,+1.22022659e-01f,+1.73302889e-01f,-2.62223661e-01f,+3.57491784e-02f,
-1.26576111e-01f,-1.25278473e-01f,+1.36925876e-01f,-1.66899368e-01f,+2.77923852e-01f,
+2.25565210e-01f,-3.60275775e-01f,-1.65288616e-02f,-1.11928999e-01f,-1.03487127e-01f,
-2.51156002e-01f,+4.75235134e-02f,+4.80651157e-03f,+9.38206092e-02f,-2.01621935e-01f,
-2.38373533e-01f,+1.07165817e-02f,-1.73745051e-01f,+6.82456493e-02f,+3.98971364e-02f,
+7.66109377e-02f,+1.18484497e-02f,-2.28789896e-01f,-3.57376859e-02f,+2.45458856e-02f,
-3.06308508e-01f,-6.78202584e-02f,-5.22493385e-02f,-2.04874948e-01f,+6.54729903e-02f,
+7.66840205e-03f,+1.23502120e-01f,-3.44761610e-01f,-5.31346202e-02f,+2.22137243e-01f,
+7.49544473e-03f,+6.74774572e-02f,+2.86030829e-01f,-4.30893861e-02f,-1.56876966e-01f,
-1.55843601e-01f,+2.85792589e-01f,-2.11727303e-02f,+2.11978868e-01f,-1.13366246e-01f,
-1.02708757e-01f,+2.82784905e-02f,+2.87547857e-02f,-1.61619931e-01f,-1.62644833e-01f,
-2.02579796e-02f,+1.06746517e-01f,-5.44363931e-02f,-2.57238686e-01f,-9.39670131e-02f,
+1.19065538e-01f,+1.15375139e-01f,-1.40672520e-01f,-3.21328670e-01f,+1.04106940e-01f,
+2.33610213e-01f,-1.13475025e-01f,+1.66185722e-02f,+5.39814942e-02f,+6.49331976e-03f,
+3.13855596e-02f,-2.12771773e-01f,+5.81119321e-02f,+1.33413061e-01f,-1.24154486e-01f,
+1.60585288e-02f,+1.27948094e-02f,-5.10377064e-02f,-1.37284756e-01f,-6.75035492e-02f,
+1.57267958e-01f,-1.71919361e-01f,-1.15820169e-01f,-1.48912817e-01f,-3.84207107e-02f,
+3.63720655e-01f,+6.49054572e-02f,+2.20783606e-01f,-7.80965015e-02f,+3.67735960e-02f,
-2.55899459e-01f,-2.41627604e-01f,-1.30221367e-01f,-1.01918243e-01f,+2.25689217e-01f,
-6.33069724e-02f,-5.14103211e-02f,-3.20962965e-02f,-2.83005983e-01f,-1.22215346e-01f,
+4.59464453e-02f,+7.39333183e-02f,-1.13914400e-01f,+1.04056977e-01f,+1.08613253e-01f,
+1.21700287e-01f,-1.33854851e-01f,+2.99735159e-01f,-1.01258248e-01f,+1.73465516e-02f,
-1.54562771e-01f,-1.33568004e-01f,-1.80568889e-01f,-4.33793180e-02f,-1.64360672e-01f,
+6.12626262e-02f,+1.75402120e-01f,+3.32865477e-01f,+1.25387654e-01f,-3.46818427e-03f,
+1.40673816e-01f,+1.87568128e-01f,-1.93133220e-01f,+1.35212883e-01f,-1.63961008e-01f,
-2.60611057e-01f,+9.79349986e-02f,-1.55921262e-02f,+1.29139125e-01f,-1.28423035e-01f,
-2.68106103e-01f,+2.92535331e-02f,-9.94040072e-02f,+5.92778027e-02f,+6.82761967e-02f,
-1.92182437e-01f,+5.26906773e-02f,-2.22516641e-01f,-1.68289736e-01f,-1.14896409e-01f,
-1.20678626e-01f,+1.29630715e-02f,-1.90510452e-01f,-1.04358979e-01f,+1.01244345e-01f,
+2.60353595e-01f,+4.70140250e-03f,-8.29044431e-02f,-1.02336727e-01f,+2.28313982e-01f,
-1.60410061e-01f,-2.22171843e-01f,+6.75253347e-02f,+2.24504799e-01f,-2.51655936e-01f,
+3.38900834e-02f,-4.10923958e-02f,-1.90731421e-01f,-2.39084080e-01f,+1.96977079e-01f,
-8.53314763e-04f,+1.60682142e-01f,-1.13809429e-01f,+2.73805782e-02f,-9.00076255e-02f,
+1.63255617e-01f,-1.47657305e-01f,+1.63037971e-01f,-6.67796433e-02f,-5.12077920e-02f,
+2.53318921e-02f,-1.67253036e-02f,+8.06040689e-02f,+3.47740144e-01f,+4.08283472e-01f,
-5.63050397e-02f,+5.81993349e-02f,+2.17295349e-01f,+1.33476913e-01f,+6.20565042e-02f,
-7.76630417e-02f,-8.07897672e-02f,-2.78784871e-01f,-9.41182077e-02f,+2.88071364e-01f,
+1.39114156e-01f,-1.90553203e-01f,-1.14316978e-02f,+1.67445421e-01f,+6.13011010e-02f,
+2.49044731e-01f,-6.41757697e-02f,+1.21391140e-01f,-4.37613800e-02f,-6.54160008e-02f,
+1.19516425e-01f,-7.51254931e-02f,+1.97240815e-01f,-9.74209979e-02f,-8.49137362e-03f,
+2.64858752e-01f,+1.16888531e-01f,+1.71549767e-01f,-1.32813618e-01f,-1.74727812e-02f,
+1.20762691e-01f,+5.31497821e-02f,+1.85029078e-02f,+4.43990827e-02f,+2.35653639e-01f,
+7.93118849e-02f,-1.17513485e-01f,+1.00219227e-01f,+1.75083429e-01f,-3.19118887e-01f,
+1.03558429e-01f,+1.38283506e-01f,+6.79897517e-02f,-1.70770779e-01f,+2.42475495e-01f,
-3.14819634e-01f,+2.76794761e-01f,+1.73821345e-01f,+1.59953594e-01f,-2.17949837e-01f,
+7.60377571e-02f,+4.02031541e-01f,-4.27979194e-02f,-1.23670399e-01f,+2.64410526e-01f,
-1.41129524e-01f,+7.55541921e-02f,-9.05861557e-02f,+4.32599150e-02f,+3.47827017e-01f,
-1.43537611e-01f,-2.39369646e-02f,-2.86783516e-01f,-1.09800603e-02f,+1.09610096e-01f,
-5.71367741e-02f,+1.46239936e-01f,+1.98326662e-01f,-7.10601509e-02f,+3.31516229e-02f,
+1.59295753e-01f,+3.29375193e-02f,+2.29082927e-01f,-2.73387164e-01f,+1.85333133e-01f,
+6.19959384e-02f,+1.63530465e-02f,+1.27441362e-01f,-4.54812944e-02f,+1.27070844e-01f,
+2.07046345e-01f,+5.54095842e-02f,-2.55296320e-01f,+7.78262392e-02f,+2.44434178e-01f,
+2.08913963e-02f,+3.11897039e-01f,+1.16421496e-02f,-1.81045830e-01f,+7.31810853e-02f,
-3.48558098e-01f,+1.23892166e-01f,+1.40093550e-01f,+1.25650853e-01f,-2.66080379e-01f,
+6.17384491e-03f,+1.30186290e-01f,+1.03178389e-01f,-2.73814350e-01f,+1.38577804e-01f,
-1.89865634e-01f,-1.17032789e-01f,+2.31335357e-01f,+6.14621565e-02f,+3.94011378e-01f,
-1.01430014e-01f,+2.03901783e-01f,+8.21998417e-02f,+3.61637101e-02f,-5.01460508e-02f,
-5.05307317e-03f,-1.36341393e-01f,-3.10880505e-02f,+1.94984842e-02f,+1.34676874e-01f,
+3.36109936e-01f,-1.94037274e-01f,+3.12360916e-02f,-6.26243576e-02f,+1.77037030e-01f,
+2.95012295e-01f,-7.86558688e-02f,+3.19754221e-02f,+1.65855527e-01f,+8.70767832e-02f,
+1.86171278e-01f,-1.49200335e-01f,-5.95498346e-02f,+1.22524671e-01f,+1.20289475e-01f,
+1.07769091e-02f,-1.64252788e-01f,+5.17694913e-02f,+2.80202985e-01f,+6.99947551e-02f,
-1.56287566e-01f,-1.18419401e-01f,-1.05575576e-01f,-1.22084236e-02f,+9.03031528e-02f,
+3.27546805e-01f,+1.00615330e-01f,-1.05415419e-01f,+1.73481807e-01f,+9.22124982e-02f,
+9.40632373e-02f,+5.28347641e-02f,-1.62774876e-01f,-2.58891135e-01f,-2.20868379e-01f,
+7.37992153e-02f,+9.69416797e-02f,+1.26435608e-01f,-3.03993151e-02f,+6.33002222e-02f,
-7.22534731e-02f,-3.46924216e-01f,+2.67033696e-01f,-1.28975332e-01f,+2.00622723e-01f,
-7.32800812e-02f,+3.33553910e-01f,+2.26005062e-01f,+7.57279480e-03f,+2.09160641e-01f,
-3.74588281e-01f,+3.25240679e-02f,+2.04236478e-01f,+1.49181038e-01f,+2.54536629e-01f,
-7.03737587e-02f,+2.14711607e-01f,+6.07471317e-02f,+1.29453894e-02f,-1.00137867e-01f,
+2.04661772e-01f,-8.61822367e-02f,+6.28698245e-02f,+1.22999944e-01f,+8.93192962e-02f,
+5.35811856e-02f,+8.68995637e-02f,-1.22957543e-01f,-1.84634864e-01f,+1.09705135e-01f,
-8.79574120e-02f,+2.02509895e-01f,+3.17112923e-01f,+3.68673652e-02f,+1.34207681e-01f,
+8.54290575e-02f,+5.45295514e-02f,+2.34109849e-01f,-1.86015740e-01f,+1.61779016e-01f,
-3.19608450e-02f,-3.29056442e-01f,+9.77406874e-02f,+1.83227763e-01f,+5.31644784e-02f,
+9.59804803e-02f,+6.60817996e-02f,+2.84272045e-01f,-2.69436479e-01f,-9.72812623e-02f,
+1.04101680e-01f,-5.26418630e-03f,+3.49729955e-01f,+1.15445040e-01f,+1.66397318e-01f,
-5.23184389e-02f,-1.42305598e-01f,-9.05695781e-02f,-3.59979235e-02f,+3.17323133e-02f,
-5.38996607e-02f,-3.32832545e-01f,+3.62714291e-01f,+9.89487544e-02f,-1.16233751e-02f,
+9.75765660e-02f,+1.59162641e-01f,+1.88583285e-01f,+2.91856498e-01f,+2.89761666e-02f,
-3.22901048e-02f,+1.40180960e-01f,-4.18359637e-02f,-2.32598618e-01f,-2.29707003e-01f,
-3.04222763e-01f,+3.10977492e-02f,-7.76007846e-02f,+3.22968513e-02f,+3.89708072e-01f,
+1.81175664e-01f,-3.42697874e-02f,-1.34771094e-01f,+1.06299520e-01f,+2.09325850e-01f,
-2.04135198e-02f,-1.52478769e-01f,-7.18979612e-02f,+6.99789077e-02f,-1.10150874e-02f,
-5.66845089e-02f,-1.29731940e-02f,-9.09493398e-03f,+2.67874420e-01f,+2.48047411e-01f,
+2.23990247e-01f,-8.84868875e-02f,+3.71131934e-02f,-1.47778630e-01f,-1.39466465e-01f,
+6.27848413e-03f,-2.24323615e-01f,-2.14758385e-02f,+1.30568758e-01f,+3.28913659e-01f,
+3.57263274e-02f,-1.95862874e-01f,+3.15662026e-01f,-1.75462395e-01f,-2.52968911e-02f,
-1.39994305e-02f,-9.20544788e-02f,-1.78177819e-01f,+1.58913597e-01f,+2.32911557e-01f,
-1.09392121e-01f,+1.68805420e-01f,-2.01638099e-02f,+5.30270813e-03f,+1.68001637e-01f,
-1.39617890e-01f,+6.21519834e-02f,-4.94647585e-02f,+1.73101351e-02f,-7.95075968e-02f,
-1.11363761e-01f,+3.08854170e-02f,+3.34806778e-02f,-1.11721903e-01f,+1.65682554e-01f,
+2.98875749e-01f,+2.80966878e-01f,+7.18038995e-03f,-1.27506956e-01f,+2.43646249e-01f,
-2.95975115e-02f,+1.98200583e-01f,-1.84510648e-01f,+1.19574137e-01f,+1.37943342e-01f,
-1.97473705e-01f,+5.07426411e-02f,-1.93924174e-01f,-2.02983320e-02f,-4.98450287e-02f,
-1.13800600e-01f,-2.98055321e-01f,-1.07377693e-01f,+4.47244011e-02f,+2.07987115e-01f,
-3.33248749e-02f,+2.36134216e-01f,+3.57482210e-02f,+4.20172699e-02f,-2.94086874e-01f,
+9.76078138e-02f,-1.44849494e-01f,-9.66153815e-02f,+2.30704352e-01f,+6.72412217e-02f,
+3.10577974e-02f,-9.87886339e-02f,-1.04042374e-01f,+2.93108691e-02f,+9.23972353e-02f,
+1.48089668e-02f,-1.48935556e-01f,+9.08863768e-02f,-1.39710009e-01f,+2.95670062e-01f,
+9.33953598e-02f,-2.69927364e-02f,-1.50571972e-01f,+1.05053499e-01f,+1.58695564e-01f,
+3.13216269e-01f,+1.61603257e-01f,-9.02190655e-02f,+6.80764541e-02f,-8.45388919e-02f,
+9.93940309e-02f,+9.98784322e-03f,-1.64627820e-01f,+1.95972800e-01f,+1.57704242e-02f,
-2.48350091e-02f,-1.31358042e-01f,+6.24972880e-02f,+4.17483263e-02f,+9.88533869e-02f,
+1.13987796e-01f,-1.22444868e-01f,+2.61214554e-01f,+1.68804795e-01f,-2.24392533e-01f,
-1.49975419e-01f,-1.33457454e-02f,-1.40010402e-01f,-1.04663439e-01f,+7.43623525e-02f,
+7.13876542e-03f,+2.59276628e-01f,+1.93043530e-01f,-1.07886717e-01f,-2.17978358e-01f,
+4.19622585e-02f,+2.85240877e-02f,+1.99159920e-01f,-2.50853226e-02f,+3.02532390e-02f,
+6.39218464e-03f,-3.78083512e-02f,-4.30810777e-03f,-2.79043075e-02f,+2.34839961e-01f,
+3.17740917e-01f,-4.04474288e-02f,-2.73143668e-02f,+1.22590207e-01f,-8.80682543e-02f,
-1.68427572e-01f,+2.65582263e-01f,-1.72601834e-01f,+1.68211266e-01f,+7.33055770e-02f,
+6.63325340e-02f,-3.04877579e-01f,-1.94785669e-01f,-2.54942000e-01f,+3.11043590e-01f,
+1.45354262e-02f,+1.94447204e-01f,+4.78974245e-02f,-1.83515877e-01f,+2.16153666e-01f,
-3.18972528e-01f,+1.46549955e-01f,+1.00240782e-01f,+1.73508570e-01f,-1.16577428e-02f,
-2.62669213e-02f,+8.81511346e-02f,+3.00043195e-01f,+1.84831411e-01f,+4.05331366e-02f,
+5.55060618e-02f,-1.10278666e-01f,+1.56476386e-02f,-1.54621929e-01f,+1.10383451e-01f,
+3.64392810e-02f,-2.16336235e-01f,+5.82140870e-02f,+1.11194439e-01f,+1.08976029e-01f,
-4.47805561e-02f,-1.13528647e-01f,+6.63597733e-02f,-3.66574861e-02f,-5.81370033e-02f,
+5.41537814e-02f,+1.11233164e-02f,-4.29384597e-02f,+1.23824574e-01f,+1.24015488e-01f,
-5.61503097e-02f,+5.33297509e-02f,+1.17469326e-01f,-1.24121107e-01f,+2.96216626e-02f,
+1.67493761e-01f,+7.11904988e-02f,+1.01152606e-01f,+5.90757132e-02f,+8.82189870e-02f,
-1.83802322e-01f,+1.79597847e-02f,+1.60602689e-01f,+2.60775769e-03f,+7.31308311e-02f,
+6.01621643e-02f,-2.37261336e-02f,-2.01300755e-01f,-3.02544773e-01f,+1.53174430e-01f,
-1.48221716e-01f,+1.47189707e-01f,-1.56201333e-01f,-3.13537985e-01f,-4.00574654e-02f,
-7.08648786e-02f,+5.15249930e-02f,-1.95441395e-01f,+1.44408539e-01f,-1.23352811e-01f,
+1.22152433e-01f,-1.02325991e-01f,-1.66791782e-01f,-1.57015860e-01f,+5.97524941e-02f,
+3.33297253e-01f,+1.41970571e-02f,-1.12347774e-01f,-2.87063092e-01f,+8.57420415e-02f,
-7.63630448e-03f,+6.63327724e-02f,+1.06572635e-01f,-1.34783762e-03f,-2.69840866e-01f,
+2.99647581e-02f,-4.41153944e-02f,+9.66925398e-02f,+1.19721137e-01f,+1.48589239e-01f,
-1.33639678e-01f,-1.62694454e-01f,-1.68502629e-01f,-1.72491953e-01f,+4.77361074e-03f,
-2.94331778e-02f,+3.96842770e-02f,+2.37273291e-01f,-1.11762948e-01f,-1.47238269e-01f,
+4.69009764e-03f,-7.16189444e-02f,-1.14611246e-01f,+1.35501161e-01f,-2.44349968e-02f,
-3.62892039e-02f,+6.82039037e-02f,+1.39450813e-02f,-2.14395970e-02f,-5.27909026e-02f,
-1.15202546e-01f,-1.58170983e-01f,-2.78226674e-01f,+1.08294599e-01f,+2.72360951e-01f,
-3.60051066e-01f,+1.19591638e-01f,+1.45139754e-01f,-6.12564497e-02f,+2.46709853e-01f,
-1.32773355e-01f,+3.59394014e-01f,+2.44751886e-01f,-2.03930780e-01f,-7.91865066e-02f,
-4.43337709e-02f,+5.14772497e-02f,-1.06017351e-01f,+8.46045464e-02f,-1.75221767e-02f,
-2.79316187e-01f,+1.89445689e-01f,+2.69391149e-01f,-2.26823054e-02f,-1.22603094e-02f,
+2.42857281e-02f,+1.92151759e-02f,-1.16982058e-01f,-1.62088051e-01f,+3.76882136e-01f,
+2.85488278e-01f,-5.03757931e-02f,-2.15389952e-02f,+2.25539133e-01f,+1.07444435e-01f,
-4.64402102e-02f,+2.45574620e-02f,+4.52462256e-01f,+2.11061135e-01f,-1.68219879e-01f,
+1.11200117e-01f,-2.41337359e-01f,-1.95760384e-01f,+1.25588521e-01f,+3.21365982e-01f,
+5.47720864e-02f,+5.98589070e-02f,-5.48415557e-02f,+4.65622265e-03f,+1.38798490e-01f,
+2.41094232e-01f,-5.64333536e-02f,+6.29706383e-02f,+1.85207576e-01f,-8.89727995e-02f,
+8.22360665e-02f,+1.65096283e-01f,-2.06357669e-02f,-2.62354374e-01f,+6.26755580e-02f,
+1.82052881e-01f,+9.16194096e-02f,-2.46004596e-01f,+1.52126640e-01f,+2.31447414e-01f,
+2.59398311e-01f,-5.74045554e-02f,-2.49595404e-01f,-5.10482490e-01f,-2.94386148e-01f,
+1.83488301e-04f,-4.69849333e-02f,-1.00388294e-02f,-2.40128204e-01f,+4.44445044e-01f,
+6.86652362e-02f,+1.20152652e-01f,-1.51480898e-01f,+6.34151995e-02f,-1.40154585e-01f,
+1.34312809e-01f,-1.59964651e-01f,-7.22884908e-02f,-2.13131160e-01f,-1.75709456e-01f,
-6.07665293e-02f,+2.88628876e-01f,+9.00970995e-02f,-1.42009944e-01f,-1.28906801e-01f,
+1.68842241e-01f,+3.27623665e-01f,-2.08385915e-01f,-1.11479379e-01f,-1.02497101e-01f,
-1.96713433e-01f,+1.60917491e-01f,+2.86889017e-01f,+4.62834770e-03f,-5.55260442e-02f,
+2.29730099e-01f,-2.21918002e-01f,+2.17764024e-02f,-7.30026215e-02f,+8.70290324e-02f,
-2.48164654e-01f,-4.83176149e-02f,-4.71574031e-02f,+1.07673155e-02f,+1.82218984e-01f,
+2.83010136e-02f,-6.94065588e-03f,-1.33012742e-01f,-1.48627341e-01f,+1.34509251e-01f,
-2.05867961e-02f,+8.87910500e-02f,+3.09728146e-01f,-3.57759058e-01f,+1.21231824e-01f,
-1.41604356e-02f,-3.66795771e-02f,+1.27388850e-01f,-2.10488588e-01f,+8.98700655e-02f,
-5.03763510e-03f,+1.21282235e-01f,+1.13853663e-01f,-8.44725519e-02f,-1.93410903e-01f,
+1.58861905e-01f,+1.24088570e-01f,+5.45771793e-02f,+2.69585341e-01f,-2.02012524e-01f,
+7.90075436e-02f,+4.17731218e-02f,+6.37285709e-02f,+2.16518506e-01f,-7.92418495e-02f,
+2.19844401e-01f,-5.06357513e-02f,+2.67353892e-01f,+2.38634706e-01f,+1.23327576e-01f,
+3.51787806e-02f,+2.03321986e-02f,-3.21162976e-02f,-7.77580068e-02f,+8.59473348e-02f,
+2.04301581e-01f,+1.33930981e-01f,-8.58989805e-02f,+2.23909304e-01f,-2.84830511e-01f,
+1.17050931e-01f,+1.50298133e-01f,+4.14485931e-01f,+1.34174198e-01f,-2.34864250e-01f,
+1.33230776e-01f,+2.20867023e-01f,+9.63498503e-02f,+1.89099312e-01f,-9.32240635e-02f,
+2.59174317e-01f,+1.71960771e-01f,+7.96457380e-03f,+2.71592528e-01f,+6.57031015e-02f,
-7.75191411e-02f,-4.07950357e-02f,+1.42852798e-01f,-1.80739254e-01f,-6.13716710e-03f,
+7.69233257e-02f,+1.56586841e-01f,-5.52096032e-02f,-1.93744168e-01f,-1.17022492e-01f,
+1.56409040e-01f,-2.77640790e-01f,-2.62663096e-01f,-2.87085742e-01f,+8.67429003e-02f,
+8.06211159e-02f,-1.45217493e-01f,-1.47728115e-01f,-2.20956989e-02f,+1.43384309e-02f,
+8.89165606e-03f,-1.86620057e-02f,+1.13149449e-01f,+2.30257288e-01f,+1.34142399e-01f,
+3.26118842e-02f,-7.34358504e-02f,+2.41254956e-01f,+9.72861201e-02f,-5.81611022e-02f,
+6.62658438e-02f,-1.47232398e-01f,-3.80924046e-01f,+2.11830199e-01f,-9.38923508e-02f,
+2.20992118e-01f,-5.97425140e-02f,-4.87002343e-01f,+4.41493168e-02f,-1.22093916e-01f,
-3.24049413e-01f,+2.65892506e-01f,-1.89041391e-01f,+1.63631830e-02f,+1.13470025e-01f,
+1.33432657e-01f,+1.06408805e-01f,+1.03592083e-01f,-2.32856944e-01f,+3.76108699e-02f,
+2.98363417e-01f,+1.87389761e-01f,-4.18066606e-03f,+6.71751574e-02f,+3.55662674e-01f,
+5.09505719e-02f,+8.86732806e-03f,+1.54429339e-02f,+1.39361754e-01f,+3.07246268e-01f,
+3.40729654e-01f,-1.49147168e-01f,+3.16006780e-01f,-3.04235399e-01f,-1.22763671e-01f,
+2.28909761e-01f,-3.03936183e-01f,-2.81722158e-01f,-8.36507510e-03f,-6.86044246e-02f,
-3.38520616e-01f,-1.04061268e-01f,-1.80016663e-02f,-2.11757556e-01f,-6.40310422e-02f,
+1.99392289e-01f,+9.22592431e-02f,+6.35798037e-01f,+2.54773974e-01f,+2.78134048e-01f,
-5.29452376e-02f,+3.18504483e-01f,+1.19020268e-01f,+9.31072608e-02f,-5.33098131e-02f,
+7.09247068e-02f,+2.19272435e-01f,+7.05143064e-02f,+5.97833954e-02f,+7.55468803e-03f,
+1.49891138e-01f,-2.15847731e-01f,+3.23289722e-01f,+8.11075494e-02f,+5.01205493e-03f,
-1.14844419e-01f,+1.33683175e-01f,-2.58839279e-01f,+6.88725114e-02f,+1.56553328e-01f,
-1.02092199e-01f,+1.70645714e-01f,-2.39670184e-02f,-2.27925211e-01f,+8.23897347e-02f,
-2.38908142e-01f,+5.45698218e-02f,+1.93932548e-01f,+3.84638160e-02f,+3.45983654e-02f,
-5.06407209e-02f,-3.61426920e-02f,+5.33073992e-02f,-2.98306406e-01f,+1.92089513e-01f,
+2.35894725e-01f,-1.68784663e-01f,+2.34897912e-01f,-2.23978460e-02f,+2.25771099e-01f,
+2.20851183e-01f,-2.07913313e-02f,+1.36931211e-01f,+1.22656249e-01f,+1.24629132e-01f,
-1.22141764e-01f,-2.45878503e-01f,-8.67136344e-02f,+2.35759094e-02f,-9.29271877e-02f,
-2.63184011e-01f,+3.65589336e-02f,+8.66177026e-03f,-5.75899966e-02f,+3.54151636e-01f,
+2.87450105e-01f,-1.18942007e-01f,+1.73223883e-01f,+5.81637435e-02f,+6.11112034e-03f,
+1.81104690e-01f,-1.58592910e-01f,-1.86476067e-01f,-6.27071410e-02f,-3.49050999e-01f,
-1.26086488e-01f,+2.89449811e-01f,+4.21167910e-01f,-8.13260078e-02f,+3.02988946e-01f,
-5.35414405e-02f,+1.72456987e-02f,-2.91637868e-01f,+1.59778133e-01f,-4.42051925e-02f,
-2.84492578e-02f,-5.66141568e-02f,-4.68877144e-02f,-1.06388383e-01f,-1.48590535e-01f,
-3.74075994e-02f,+1.50870914e-02f,+1.48393586e-01f,-6.63037673e-02f,+3.82167786e-01f,
-5.88294938e-02f,+1.04918689e-01f,+2.08549321e-01f,-1.83460768e-02f,+1.68478817e-01f,
+2.01618671e-01f,-7.48537779e-02f,+7.03046769e-02f,-6.58278242e-02f,-1.27370730e-01f,
-1.29777536e-01f,+3.67515951e-01f,+1.19571447e-01f,+2.02936172e-01f,+1.58090353e-01f,
+2.15118229e-01f,+2.56189018e-01f,-1.08995251e-01f,+1.16036972e-02f,+4.06309962e-01f,
-1.18783176e-01f,+1.33377709e-03f,-2.66033530e-01f,-1.75254390e-01f,+2.07011834e-01f,
+5.42278253e-02f,-1.58389702e-01f,+2.16991156e-01f,+9.44728926e-02f,-6.95994571e-02f,
-1.46584004e-01f,+9.64770652e-03f,-6.11818694e-02f,+7.26138279e-02f,-2.53227837e-02f,
-2.36777350e-01f,+8.22111126e-03f,+4.53596860e-02f,+5.16710766e-02f,+1.23268254e-01f,
+3.15731019e-02f,+1.58604816e-01f,-2.45529875e-01f,+6.89710751e-02f,-4.16244157e-02f,
-3.35084707e-01f,-1.78131148e-01f,+2.89740950e-01f,-1.65414676e-01f,+2.52440929e-01f,
-3.09574395e-01f,-1.75141588e-01f,+1.48305103e-01f,+1.92957342e-01f,-2.89271772e-01f,
-2.60884106e-01f,-1.80093035e-01f,+4.53142524e-01f,+9.91340503e-02f,+3.58552873e-01f,
+1.56114891e-01f,-2.35514424e-04f,+2.25312293e-01f,-3.75469267e-01f,-7.55526051e-02f,
-3.62724751e-01f,+5.99365532e-02f,-3.45099755e-02f,+6.41250536e-02f,-3.06125805e-02f,
+1.16694734e-01f,+1.90961093e-01f,+2.58616388e-01f,+5.60396090e-02f,-6.36561811e-02f,
+4.42806110e-02f,-1.69558555e-01f,+1.77065983e-01f,+3.24703038e-01f,-1.70817867e-01f,
+3.60247195e-01f,+2.61859536e-01f,+8.44649822e-02f,+2.10722938e-01f,+2.25341365e-01f,
+8.84891972e-02f,-3.68834347e-01f,+2.53045529e-01f,-2.56378263e-01f,+2.70223394e-02f,
-2.34582182e-02f,+9.08419341e-02f,+5.52341603e-02f,+3.73800173e-02f,+1.27279878e-01f,
+2.14617729e-01f,-9.07084793e-02f,+2.66595095e-01f,-4.33737636e-02f,-7.00969324e-02f,
+3.53039168e-02f,+2.60870531e-02f,-2.41511405e-01f,-6.48750737e-02f,+7.12764412e-02f,
+3.02063972e-02f,-1.85670927e-01f,+1.94215477e-01f,+3.11507642e-01f,-1.29022256e-01f,
-2.73612171e-01f,-1.50717065e-01f,-8.25225189e-02f,+4.19211462e-02f,+1.41301185e-01f,
+6.27103597e-02f,-1.26708061e-01f,-5.82899079e-02f,-3.76661047e-02f,+1.45606473e-01f,
+8.84758309e-02f,+2.13855565e-01f,-1.52964041e-01f,-9.20042247e-02f,-2.48410538e-01f,
-8.00821856e-02f,+1.76195517e-01f,+3.34459245e-02f,-1.60140157e-01f,+2.82736327e-02f,
+1.29198834e-01f,-2.02401057e-02f,-1.99491948e-01f,-1.50012076e-01f,+2.89304167e-01f,
+8.89962986e-02f,-3.02882552e-01f,+6.00933880e-02f,+3.52292620e-02f,+1.17483757e-01f,
-7.49141127e-02f,-6.91559538e-02f,-1.39425069e-01f,+7.06917942e-02f,+2.99120992e-01f,
+1.10275365e-01f,-1.32181481e-01f,+1.78703949e-01f,+2.55229682e-01f,+3.61483097e-02f,
+3.61262977e-01f,-1.79103553e-01f,-3.67020182e-02f,+6.87819626e-03f,+9.72478390e-02f,
-3.51490378e-02f,+4.45482992e-02f,-1.01480439e-01f,+3.01251858e-02f,-4.92863022e-02f,
-4.10263892e-03f,-2.05373436e-01f,+1.04010075e-01f,+3.61080505e-02f,+9.35317427e-02f,
-1.08511811e-02f,+9.56490934e-02f,+1.16940066e-01f,+6.35275524e-03f,-1.03868514e-01f,
+1.83679029e-01f,+7.82814696e-02f,+1.83255315e-01f,-3.22770178e-02f,-1.08654857e-01f,
+1.32234618e-01f,+1.77781686e-01f,+1.79278344e-01f,-2.03614030e-02f,+1.55311972e-01f,
+1.36784494e-01f,-2.18082175e-01f,+1.59070164e-01f,+4.88961548e-01f,-1.89557880e-01f,
+2.66963299e-02f,-4.53289971e-03f,-9.78328586e-02f,+3.22926521e-01f,-3.41674872e-02f,
+1.35811329e-01f,+1.86853200e-01f,+5.65310232e-02f,-9.77324918e-02f,-1.99225515e-01f,
-1.24898471e-01f,+1.00266635e-01f,+2.82336235e-01f,+1.65105730e-01f,-1.14463486e-01f,
+1.31146610e-01f,+1.48608446e-01f,-1.38381332e-01f,+1.36943638e-01f,+2.93856144e-01f,
-2.81592697e-01f,+5.62328473e-02f,+2.28717983e-01f,+1.73133478e-01f,-2.80961484e-01f,
-6.45484477e-02f,-9.64632705e-02f,+8.07044059e-02f,+9.46141779e-02f,+1.43833995e-01f,
+7.30757117e-02f,+3.36772382e-01f,+6.85208663e-02f,-1.11887112e-01f,-5.18951602e-02f,
+7.04676211e-02f,+8.86139050e-02f,-7.37104043e-02f,+3.06818932e-01f,-2.13710174e-01f,
+1.24308251e-01f,+8.61758217e-02f,-8.97786114e-03f,+5.07892482e-02f,+7.13410899e-02f,
+1.09929465e-01f,+8.81418586e-03f,-5.40466793e-02f,+3.07886094e-01f,+5.10787219e-02f,
-7.54184201e-02f,-1.99959666e-01f,+3.84927797e-03f,+2.93359701e-02f,-1.37533545e-01f,
+1.73466042e-01f,+2.87156940e-01f,+7.17475340e-02f,+1.16594009e-01f,-1.07242770e-01f,
-3.05264592e-01f,-3.18746902e-02f,-3.02295268e-01f,-3.14808279e-01f,+1.82933718e-01f,
-1.08212195e-02f,-3.30815502e-02f,-3.95565517e-02f,-9.29614753e-02f,+3.35835926e-02f,
-1.34283647e-01f,+5.41473329e-01f,+1.00672364e-01f,+3.42355132e-01f,+1.22641213e-01f,
-1.99873120e-01f,-1.06052056e-01f,-6.06415793e-02f,+2.60469973e-01f,-1.52272850e-01f,
+3.73652518e-01f,+3.60369653e-01f,-6.12454191e-02f,+8.90313555e-03f,-2.27750987e-01f,
+6.46299217e-03f,-1.74776241e-01f,+5.90242222e-02f,-2.29424894e-01f,-2.01934427e-01f,
-9.17447582e-02f,-3.27951871e-02f,+2.81927809e-02f,+2.23846614e-01f,+1.67237043e-01f,
-7.47026727e-02f,+1.81801185e-01f,+2.85806626e-01f,+1.08317368e-01f,+7.03957956e-03f,
-4.36463915e-02f,-4.42175508e-01f,-4.93899398e-02f,-5.58014177e-02f,+5.51668346e-01f,
+3.71766031e-01f,-5.05210645e-02f,+1.43618375e-01f,+4.12046164e-02f,-3.98994118e-01f,
+2.96119541e-01f,-4.09300148e-01f,+1.24362029e-01f,-1.65510148e-01f,-1.57973662e-01f,
-1.17278196e-01f,+2.14416355e-01f,+1.35670722e-01f,-1.42163290e-02f,+1.27656326e-01f,
-2.39430144e-01f,-4.63158935e-02f,+1.49046928e-01f,-2.74852097e-01f,+6.01003952e-02f,
-1.43744305e-01f,+3.14703554e-01f,-1.33377269e-01f,-2.48371121e-02f,+1.97229624e-01f,
+4.55150083e-02f,-1.31112292e-01f,-8.19673762e-03f,+7.15867877e-02f,+1.27917647e-01f,
-7.10418224e-02f,+1.42177185e-02f,-9.21694748e-03f,+7.51282424e-02f,+1.63328990e-01f,
-7.76785389e-02f,-7.44505748e-02f,+1.72583982e-02f,-1.24276146e-01f,-2.26136848e-01f,
-4.39618230e-01f,-6.27337322e-02f,-1.82705373e-01f,+1.23365626e-01f,-1.12686194e-01f,
+1.52061820e-01f,-3.56125087e-01f,-4.91519757e-02f,-2.78343678e-01f,-1.99673306e-02f,
+4.11005318e-01f,+1.66802600e-01f,-4.74145375e-02f,-2.86037892e-01f,-9.50431377e-02f,
+1.63414031e-02f,+4.68710028e-02f,-4.69733089e-01f,-2.44544595e-02f,+1.84003010e-01f,
-2.41092414e-01f,+1.18201934e-01f,-1.52397797e-01f,-2.58118868e-01f,-1.19990572e-01f,
-6.64218366e-02f,+2.58748263e-01f,-1.76800638e-01f,+2.02896640e-01f,-1.13945380e-01f,
-3.82283032e-02f,-5.95939904e-02f,+3.15542333e-02f,+2.59463722e-03f,-1.88787922e-01f,
+8.94400943e-03f,+2.88029522e-01f,+1.33734375e-01f,-5.39126992e-01f,+1.59463316e-01f,
+8.40586722e-02f,-5.16659282e-02f,+3.28528732e-01f,+2.33409613e-01f,-3.94143425e-02f,
-3.27390581e-02f,+1.05265826e-01f,-6.34070393e-03f,-1.53672069e-01f,+1.43522903e-01f,
-3.68401222e-02f,+1.17524624e-01f,-2.54870743e-01f,-1.56217963e-01f,-1.48701563e-01f,
+3.32168519e-01f,+2.49285325e-01f,+7.96556771e-02f,+1.85816865e-02f,+2.06566334e-01f,
+9.13116802e-03f,+4.31874812e-01f,+2.32095532e-02f,+4.97853070e-01f,-6.65079206e-02f,
+8.65022317e-02f,-3.38177502e-01f,+2.45024025e-01f,+6.80824071e-02f,+2.53867656e-01f,
+8.52110460e-02f,+2.44002804e-01f,-2.64527828e-01f,-3.47262286e-02f,-1.00038372e-01f,
+2.05958128e-01f,-1.59154311e-01f,+2.14650407e-01f,+1.44014627e-01f,+2.73416132e-01f,
+2.00219899e-01f,-6.27549179e-03f,+1.28327653e-01f,+1.49098545e-01f,+3.04710120e-01f,
+6.50283918e-02f,-9.70658883e-02f,+6.73027784e-02f,-1.19242355e-01f,-1.40493587e-01f,
+6.21757098e-02f,-5.72562031e-02f,+2.49421269e-01f,+9.49328616e-02f,+2.91353554e-01f,
+6.84970692e-02f,+2.94673979e-01f,-2.04643860e-01f,-1.62997395e-01f,-1.24871604e-01f,
+1.24014959e-01f,-8.43550935e-02f,-4.15148556e-01f,+1.54910251e-01f,-7.07526281e-02f,
-1.15611879e-02f,-2.01948151e-01f,-2.05982104e-01f,-1.47512615e-01f,+1.25656158e-01f,
+2.00272836e-02f,-1.18447565e-01f,+1.56478137e-01f,+4.34909128e-02f,-4.69560891e-01f,
+3.21306176e-02f,-1.92609757e-01f,-3.43427658e-02f,+3.29833239e-01f,-7.34506398e-02f,
-1.75357461e-01f,-1.77735567e-01f,-1.60840452e-01f,-1.58525899e-01f,+8.94151181e-02f,
+1.02087215e-01f,+3.57003897e-01f,-2.51237601e-01f,+7.74389654e-02f,-7.40561113e-02f,
-9.18471720e-03f,-1.27986878e-01f,+6.25909328e-01f,-2.46954322e-01f,+3.35603893e-01f,
+2.13845640e-01f,-6.39569238e-02f,+1.48942664e-01f,+2.70205438e-01f,-2.03064278e-01f,
+2.49461100e-01f,-2.08400011e-01f,-4.63441536e-02f,-1.59246340e-01f,+1.37980774e-01f,
+2.31676877e-01f,-9.01597291e-02f,-3.32773440e-02f,+2.11876854e-01f,+5.03482521e-02f,
-1.55120846e-02f,-6.83149472e-02f,+6.51520956e-03f,-5.23996316e-02f,+3.91042262e-01f,
+1.23856947e-01f,-2.95901686e-01f,+5.36884665e-02f,-2.93451268e-02f,+1.44104198e-01f,
+6.67556748e-02f,+5.86940732e-04f,+1.26582250e-01f,+1.14531614e-01f,+2.37984851e-01f,
-1.92361549e-02f,+1.60594419e-01f,+2.77550165e-02f,+6.12110011e-02f,-9.97549854e-03f,
+1.29217029e-01f,-1.19024422e-02f,+9.07892548e-03f,+7.65483901e-02f,+1.00529958e-02f,
-8.84432346e-02f,+3.11459750e-02f,-5.26792966e-02f,-8.11912864e-02f,+1.39695197e-01f,
+1.77402794e-01f,+5.36410153e-01f,+1.50365740e-01f,+3.08279097e-01f,-1.17227413e-01f,
-2.36151237e-02f,-1.23767748e-01f,+5.37566170e-02f,+2.16819663e-02f,+2.91160792e-02f,
-1.12819202e-01f,-3.89573485e-01f,+8.71588588e-02f,+1.45645052e-01f,+1.49226058e-02f,
-4.00472313e-01f,+1.94403201e-01f,+2.17375398e-01f,-1.74184844e-01f,+3.98552343e-02f,
-1.90780178e-01f,-2.58674711e-01f,+4.94733639e-02f,+2.78950552e-03f,-4.77738529e-02f,
-2.89866515e-03f,-8.44352543e-02f,-2.44577006e-02f,+3.29657346e-01f,-1.61472708e-01f,
+1.63216799e-01f,-4.21276502e-03f,-4.42067683e-02f,+1.78520054e-01f,+4.29913178e-02f,
-3.69028598e-02f,-6.77553937e-02f,+2.95970440e-01f,-8.20444003e-02f,-3.16275172e-02f,
-2.98826069e-01f,+2.23597199e-01f,+1.94285840e-01f,+2.36167401e-01f,+8.75764489e-02f,
+2.63282448e-01f,-3.08223188e-01f,+1.84718624e-01f,-2.51245219e-02f,+1.49686903e-01f,
+2.18530014e-01f,+1.19088657e-01f,-2.34527931e-01f,+5.48616536e-02f,-1.06039286e-01f,
-1.18968248e-01f,-5.53558655e-02f,+1.50758907e-01f,+2.06891283e-01f,+1.83568716e-01f,
-1.96018279e-01f,-2.97418702e-02f,+9.60664675e-02f,-2.73808956e-01f,+1.03513971e-01f,
+3.96869741e-02f,+1.24892555e-01f,-2.96436071e-01f,-9.55869630e-02f,-7.40247667e-02f,
-2.39465818e-01f,+3.19073319e-01f,-4.89487797e-02f,+8.66668522e-02f,+8.56481791e-02f,
+1.81327850e-01f,+2.48925388e-01f,-1.02934934e-01f,+7.99670443e-02f,+1.50703862e-01f,
-4.19153929e-01f,+1.78886041e-01f,+6.74097938e-03f,+2.12940022e-01f,+2.35931754e-01f,
-3.83995533e-01f,+2.05591455e-01f,-2.02966496e-01f,-1.24815799e-01f,-2.30885193e-01f,
+2.21388221e-01f,-3.54245640e-02f,-3.31787586e-01f,+4.46680710e-02f,+2.48765245e-01f,
+1.03694454e-01f,+1.06057800e-01f,-1.51296645e-01f,+4.46301103e-02f,+9.47038457e-02f,
+1.99381858e-01f,+1.00329414e-01f,+2.55830646e-01f,-2.67195292e-02f,+7.73151740e-02f,
-2.41909444e-01f,-4.94308285e-02f,+2.99774781e-02f,+1.45803675e-01f,+3.18464041e-02f,
+4.54956405e-02f,-6.58401400e-02f,-3.19530189e-01f,-1.65455848e-01f,-1.21008255e-01f,
+1.37659922e-01f,+2.37274524e-02f,+1.80784672e-01f,+7.20606074e-02f,+3.35419357e-01f,
-6.91382512e-02f,-3.59207541e-01f,-1.58400938e-01f,-1.33985907e-01f,+1.00652643e-01f,
-9.29089040e-02f,+8.29348713e-02f,-3.20539549e-02f,+5.35647087e-02f,-1.14074752e-01f,
+1.94403738e-01f,+1.86006501e-01f,-4.85390306e-01f,-1.13042645e-01f,-1.84916686e-02f,
+2.78256446e-01f,+4.64738384e-02f,+2.70498879e-02f,-8.29053074e-02f,-1.68846250e-01f,
-5.19449823e-04f,+2.22334146e-01f,-1.52510494e-01f,+2.64337420e-01f,+1.92805938e-02f,
-1.32182613e-01f,+6.77797124e-02f,+4.49243560e-02f,-7.53579959e-02f,+2.00038746e-01f,
-1.18032672e-01f,+7.84605392e-04f,+5.31563014e-02f,-2.28686724e-02f,-7.04817101e-02f,
+3.79621200e-02f,+2.83586770e-01f,-8.45531225e-02f,-3.37014794e-02f,+2.05701873e-01f,
+1.30519480e-01f,-2.43492573e-02f,+2.62034655e-01f,-3.02317142e-01f,+2.90680438e-01f,
-2.62807645e-02f,+9.18940008e-02f,+8.25617276e-03f,-4.13500696e-01f,+1.05782531e-01f,
-4.58775282e-01f,-1.22450143e-01f,-1.70623977e-02f,+2.75079757e-01f,-2.80721754e-01f,
-2.61701103e-02f,+1.78094387e-01f,-5.38285077e-02f,+1.95083216e-01f,+2.92986911e-02f,
+6.67741746e-02f,+1.96634047e-02f,+1.89655591e-02f,-7.30727464e-02f,+6.80353418e-02f,
+4.01413649e-01f,-7.41079971e-02f,-6.67943209e-02f,+3.65169882e-03f,+1.54537052e-01f,
-1.40299931e-01f,-7.65238553e-02f,+2.95606136e-01f,+3.03534735e-02f,+9.47857127e-02f,
+1.82938859e-01f,+1.37674212e-01f,+1.85850769e-01f,+9.22093242e-02f,+1.02835447e-01f,
-2.58900583e-01f,+1.09148644e-01f,+5.80317574e-03f,+3.01915169e-01f,-9.85794887e-03f,
+7.51158744e-02f,-6.75029904e-02f,+1.29622906e-01f,-1.94737777e-01f,-7.69722089e-02f,
+8.62111598e-02f,-1.14013411e-01f,+2.33016387e-02f,-2.83220798e-01f,-8.13240781e-02f,
-1.49275824e-01f,+7.18913898e-02f,+4.21227366e-02f,+3.08257103e-01f,+4.22458977e-01f,
+1.00318134e-01f,+3.45652364e-02f,+2.23163664e-02f,+6.81257516e-04f,-4.64584202e-01f,
+1.31176142e-02f,-1.27835453e-01f,+2.23942455e-02f,-9.88282170e-03f,-6.85116202e-02f,
+3.76063943e-01f,-9.91648063e-02f,-1.29300863e-01f,+1.97407052e-01f,-9.83285382e-02f,
-1.65835187e-01f,-8.48509818e-02f,+1.93488851e-01f,+1.76789045e-01f,-4.04989049e-02f,
-2.07412526e-01f,+4.76067424e-01f,+2.82792956e-01f,+1.22486308e-01f,-1.88550189e-01f,
+1.57659695e-01f,-1.34505089e-02f,-7.27226213e-02f,-1.03504490e-02f,+1.41455248e-01f,
+8.10459703e-02f,+4.31120247e-01f,+2.40464598e-01f,-3.96755189e-02f,-1.87446982e-01f,
+2.32797459e-01f,+2.86942814e-03f,+1.36613369e-01f,+3.30852747e-01f,-1.86927259e-01f,
+1.80343285e-01f,-1.05156153e-01f,-2.42867991e-01f,-2.01730564e-01f,+6.57048970e-02f,
+2.18581796e-01f,+1.32497057e-01f,+2.35254273e-01f,+1.67353123e-01f,+9.23959911e-02f,
-2.24421099e-02f,+5.58538437e-02f,+1.36544913e-01f,-1.29320890e-01f,-8.76689404e-02f,
+1.94616958e-01f,-4.86205727e-01f,+9.77696553e-02f,-1.61976025e-01f,-7.77357444e-02f,
+1.57889605e-01f,+1.07763521e-02f,+2.12888911e-01f,-3.45804058e-02f,-2.80655593e-01f,
-6.84477240e-02f,-3.45294058e-01f,-9.41620767e-02f,+3.35406815e-03f,-4.35910642e-01f,
-5.87817654e-02f,-1.25841603e-01f,+4.96995784e-02f,-4.20637466e-02f,+2.18440235e-01f,
-2.15786323e-02f,-2.58069426e-01f,-2.48040743e-02f,-4.00801823e-02f,-3.42493616e-02f,
+3.47650170e-01f,-2.69905418e-01f,-2.19641123e-02f,+1.23697177e-01f,-2.16557547e-01f,
-1.23981209e-02f,+2.55673584e-02f,+1.01027310e-01f,+1.84415534e-01f,-1.49037555e-01f,
+7.63524696e-02f,-2.46601298e-01f,-2.25368559e-01f,-1.23167343e-01f,-2.43451953e-01f,
+6.25309944e-02f,-1.64697766e-01f,+4.74044643e-02f,-2.15565920e-01f,+8.36117715e-02f,
+1.26770645e-01f,-2.54803210e-01f,+1.07527092e-01f,+4.17812318e-02f,-3.18097204e-01f,
-1.30340025e-01f,-3.37007612e-01f,-3.35464865e-01f,+1.77778289e-01f,+1.21573165e-01f,
+1.51856795e-01f,-4.29780364e-01f,-1.53595321e-02f,-6.63015395e-02f,+1.75592396e-02f,
+1.13847516e-01f,+8.82884264e-02f,+1.15387261e-01f,-6.04441687e-02f,-3.17613073e-02f,
+5.47723845e-02f,+1.55634537e-01f,+3.24667096e-01f,+7.31009543e-02f,+1.04027294e-01f,
+2.92389721e-01f,-8.06777179e-02f,+3.59504521e-02f,+1.24622703e-01f,+1.66456029e-01f,
+1.66939899e-01f,+2.28429735e-01f,+2.60940157e-02f,-1.93169937e-01f,-5.50426096e-02f,
+7.68360794e-02f,+9.79413837e-02f,+7.61943385e-02f,-5.86539060e-02f,+1.88618526e-01f,
+2.67875224e-01f,+7.72470012e-02f,-8.29087421e-02f,+4.96302992e-02f,-2.09590688e-01f,
+1.44227192e-01f,+2.27089331e-01f,-7.59336874e-02f,-5.11525981e-02f,+5.56169227e-02f,
+3.77855115e-02f,+9.97352228e-02f,+6.74827248e-02f,-1.94332853e-01f,+7.96777010e-02f,
-6.46448955e-02f,+1.65156677e-01f,-4.68950206e-03f,+6.19005039e-02f,+5.48885763e-02f,
+1.86555356e-01f,-9.02431086e-02f,-2.02452511e-01f,-2.47033790e-01f,+2.02137530e-01f,
+1.05723031e-01f,+1.35958284e-01f,+8.34606681e-03f,-5.84603846e-02f,+1.69722475e-02f,
+1.73579231e-01f,+1.37147801e-02f,+2.49722660e-01f,-5.47571108e-02f,+2.47085281e-02f,
+1.77355513e-01f,-6.34625703e-02f,-2.86537021e-01f,-8.20913464e-02f,-1.73804715e-01f,
+2.75841001e-02f,+7.19487816e-02f,+2.04570964e-02f,-1.03806630e-01f,+8.79037008e-02f,
+1.33391410e-01f,-2.88853850e-02f,-1.17606826e-01f,-4.54712719e-01f,+1.31005540e-01f,
+1.02156267e-01f,+1.95269082e-02f,-6.95033073e-02f,+9.64708719e-03f,+1.65889487e-01f,
+1.44951582e-01f,-7.45839849e-02f,+6.37377650e-02f,+9.53324586e-02f,+2.30880275e-01f,
+6.33678958e-02f,+4.08729585e-03f,-1.35685235e-01f,+1.23457126e-01f,-3.28293651e-01f,
-4.32326682e-02f,+7.62794763e-02f,+2.84073263e-01f,+1.83350116e-01f,+7.72919366e-03f,
-8.21000412e-02f,+3.52718920e-01f,-1.11490346e-01f,+1.47099629e-01f,-2.08231211e-02f,
-1.38390243e-01f,+1.67270496e-01f,-2.66814500e-01f,+8.21703002e-02f,-1.42387124e-02f,
-4.77870740e-02f,+5.56268822e-03f,+2.14854121e-01f,-2.03185141e-01f,+1.18802585e-01f,
+1.44038856e-01f,+1.96025610e-01f,-2.07180940e-02f,+1.48550302e-01f,+5.62125295e-02f,
+5.10089509e-02f,+1.43544963e-02f,+1.40830487e-01f,-1.46560326e-01f,+1.10173658e-01f,
-1.65712982e-01f,+1.20359756e-01f,+2.31718421e-01f,-4.91663180e-02f,-2.27232322e-01f,
-1.53472081e-01f,+1.50074456e-02f,-1.05965473e-01f,-6.76782429e-02f,-1.07626468e-01f,
+1.69126600e-01f,-1.47746697e-01f,-2.34320700e-01f,-2.69579589e-02f,+5.40342554e-02f,
+1.39225259e-01f,+6.32069036e-02f,+1.44420341e-01f,-5.64408079e-02f,+7.62411207e-02f,
-1.39679879e-01f,-9.40949377e-03f,+8.18172693e-02f,-1.77787811e-01f,+3.15249525e-02f,
-6.81384802e-02f,-8.91518444e-02f,+1.08307086e-01f,-2.87328754e-02f,-4.10805829e-02f,
-1.37242034e-01f,+9.62138060e-04f,+1.05591357e-01f,+9.60201174e-02f,-1.22501314e-01f,
+5.53664602e-02f,-6.27689734e-02f,-1.35567542e-02f,+2.51801699e-01f,+9.62477773e-02f,
+1.04156107e-01f,-2.13398248e-01f,-2.85068184e-01f,+1.61516026e-01f,-6.80456217e-03f,
+1.54510841e-01f,+1.49274200e-01f,-3.60510033e-03f,+7.77267590e-02f,-5.18390127e-02f,
-3.97140563e-01f,+6.59924746e-02f,-7.15612099e-02f,-3.12747099e-02f,+1.34900615e-01f,
-1.71766400e-01f,-3.05381119e-01f,-1.02212325e-01f,+9.36409272e-03f,+6.27071187e-02f,
-7.81454220e-02f,+1.25985235e-01f,+5.46002202e-02f,-1.87497199e-01f,+1.59277633e-01f,
-6.57431260e-02f,-3.35249245e-01f,+4.46464419e-02f,+1.03915654e-01f,+1.29445493e-01f,
+1.23671934e-01f,+8.62874240e-02f,-4.72954549e-02f,-2.09267866e-02f,+4.66039218e-02f,
-3.24328840e-02f,-5.04529923e-02f,-6.82920497e-03f,+7.88085759e-02f,+5.32834977e-02f,
+8.18266124e-02f,-8.82945359e-02f,+1.05619691e-02f,+7.91589171e-02f,+1.25317603e-01f,
-5.80698065e-02f,+8.98322463e-02f,-6.24847040e-02f,+2.83589028e-02f,+1.01635106e-01f,
+2.11969316e-01f,+4.09503758e-01f,+1.74540877e-01f,+1.48372382e-01f,-3.38709094e-02f,
+2.35717013e-01f,-6.66878931e-03f,-3.64255160e-02f,+2.75569707e-01f,-1.66340038e-01f,
+7.82055035e-02f,-1.14015423e-01f,+1.06986212e-02f,+7.26172999e-02f,+1.27318650e-01f,
-1.99659720e-01f,+1.99699476e-01f,+1.25913575e-01f,+2.78264880e-01f,-3.15510109e-02f,
-2.40753084e-01f,+8.63513425e-02f,+3.84530753e-01f,-6.92894533e-02f,-8.87362361e-02f,
+1.53340593e-01f,+1.35516047e-01f,-1.28211677e-01f,+3.28019038e-02f,+2.74948865e-01f,
-9.66135412e-02f,+7.36581311e-02f,-1.61596790e-01f,-5.20806685e-02f,-1.14983618e-01f,
-3.36632989e-02f,+1.24794289e-01f,-1.13644889e-02f,-2.03842819e-01f,-1.99208751e-01f,
+4.82652523e-02f,-1.56928636e-02f,-2.50742346e-01f,+1.34843349e-01f,+7.55198253e-03f,
+5.54989800e-02f,+3.24139409e-02f,+5.45076840e-02f,-3.31750698e-02f,+2.13638619e-01f,
+3.20716910e-02f,+6.24466687e-02f,+1.00052571e-02f,-3.46768536e-02f,-2.95961406e-02f,
+3.50553304e-01f,-1.63190752e-01f,+5.76913841e-02f,-1.10134646e-01f,+1.99784115e-01f,
+6.36300398e-03f,-1.53287396e-01f,+2.26364449e-01f,-3.66561376e-02f,+2.25402061e-02f,
+2.35721141e-01f,+2.15893373e-01f,-1.40446663e-01f,+3.61943804e-03f,+2.10984766e-01f,
+1.05454423e-01f,-1.17746383e-01f,-1.98434922e-03f,+2.20718071e-01f,+7.82650486e-02f,
-4.63314056e-02f,-1.21907383e-01f,+3.38759199e-02f,-8.98703709e-02f,+6.07683174e-02f,
-2.50301093e-01f,+1.28730983e-01f,+9.69637707e-02f,+2.77814507e-01f,-2.71281116e-02f,
-1.36660740e-01f,-1.93395063e-01f,+3.42888124e-02f,+2.14306086e-01f,+2.34515548e-01f,
+2.02470608e-02f,-1.70168146e-01f,+2.45413072e-02f,+1.79114342e-01f,+2.41800137e-02f,
-1.99334115e-01f,+6.11736439e-02f,-1.20387133e-03f,-6.52669370e-02f,+4.11653593e-02f,
+2.93105114e-02f,-2.40333825e-01f,-2.19149947e-01f,+4.65564914e-02f,+4.66172285e-02f,
+3.74602824e-02f,-6.21814951e-02f,-6.74278736e-02f,-1.52921930e-01f,+3.32842767e-02f,
+5.96125722e-02f,-1.15771465e-01f,+4.17909846e-02f,+2.27766439e-01f,-1.26553997e-01f,
-6.80715814e-02f,+8.18865374e-02f,-1.93134069e-01f,+3.08744982e-03f,+4.85122539e-02f,
+6.87018335e-02f,+1.58758491e-01f,+5.83265796e-02f,-4.91754785e-02f,-1.01964146e-01f,
+1.40101835e-01f,-4.75975573e-02f,-1.21930996e-02f,-4.75058295e-02f,-1.26355246e-01f,
+3.37818987e-03f,-7.37044662e-02f,+7.34872445e-02f,-5.80400266e-02f,-1.97648808e-01f,
-5.05773425e-02f,+5.22380397e-02f,+1.35986567e-01f,-7.24601895e-02f,+1.49829954e-01f,
-5.37372474e-03f,-2.34113336e-01f,+1.01013266e-01f,-2.28070930e-01f,+6.65763393e-02f,
-2.12798491e-01f,+1.22113004e-01f,-1.76055491e-01f,-7.01757967e-02f,+2.01025218e-01f,
+1.13738850e-01f,+3.31120521e-01f,-1.59845397e-01f,+3.13509911e-01f,-1.28627531e-02f,
+1.67426944e-01f,+2.75441140e-01f,+1.79223046e-01f,+2.53078118e-02f,-1.27013754e-02f,
+1.65035352e-01f,-2.23581374e-01f,-8.32134038e-02f,+1.16878875e-01f,+1.53237775e-01f,
-5.02617024e-02f,+1.20283030e-01f,-1.58399895e-01f,+6.50613084e-02f,-3.90146859e-02f,
+1.20391496e-01f,-1.66554525e-02f,-2.42052265e-02f,+4.76651490e-01f,-5.39256856e-02f,
-1.48988038e-01f,+1.11076199e-01f,-4.84553985e-02f,-1.73654377e-01f,-1.95371419e-01f,
+5.95189705e-02f,-2.96014138e-02f,+1.78935096e-01f,+5.37998863e-02f,-2.49125306e-02f,
+2.04853207e-01f,+3.06931555e-01f,-3.47182482e-01f,+2.08080992e-01f,+2.79709011e-01f,
+1.23913996e-01f,+4.02231067e-01f,+1.43984511e-01f,-1.32888496e-01f,+7.20556527e-02f,
+2.65511405e-02f,+1.47402491e-02f,+1.07771307e-01f,+5.48246466e-02f,+1.58882633e-01f,
+3.13171208e-01f,+8.03674385e-02f,-7.73286223e-02f,-1.59425423e-01f,+6.48463368e-02f,
-7.97222629e-02f,-1.06200524e-01f,+1.36384815e-01f,+8.50715563e-02f,+1.37408510e-01f,
+4.73415591e-02f,-1.10616550e-01f,-1.46451905e-01f,+9.35873762e-02f,-2.80418303e-02f,
+3.28639984e-01f,-1.66885391e-01f,-2.69859564e-02f,-1.53828575e-03f,+1.27553180e-01f,
+2.32753791e-02f,+8.71121511e-02f,-3.87243740e-02f,+9.88909416e-03f,+5.02912374e-03f,
+2.32959852e-01f,+2.63433278e-01f,-4.79505099e-02f,-2.52573997e-01f,-1.10436454e-01f,
-1.41878605e-01f,-8.22673813e-02f,+2.27687895e-01f,+4.98566963e-02f,-7.99544230e-02f,
+7.43947849e-02f,+2.61126049e-02f,+2.85528284e-02f,-2.04004228e-01f,+8.22925642e-02f,
+2.50623643e-01f,+2.58188188e-01f,+3.82458866e-02f,+1.93026543e-01f,+1.26002520e-01f,
+9.86071080e-02f,-7.59818405e-02f,-4.00117151e-02f,-2.17753965e-02f,-1.06363617e-01f,
+3.41815762e-02f,-6.99916705e-02f,-1.27381608e-01f,+2.18320917e-02f,-1.55739918e-01f,
-2.55903423e-01f,+1.89523235e-01f,+2.29865357e-01f,+1.96440041e-01f,+3.39027196e-02f,
+1.04383722e-01f,+3.01132381e-01f,-6.77384138e-02f,+1.70686662e-01f,-1.59360722e-01f,
-7.94809163e-02f,-1.22109644e-01f,-3.80445607e-02f,+9.64733139e-02f,+3.13198529e-02f,
+9.12677869e-03f,+3.49754840e-02f,-1.90285236e-01f,-4.18750718e-02f,-3.44245583e-02f,
+2.71626841e-02f,+1.66833326e-01f,+5.25575057e-02f,-2.55252630e-01f,+1.45843983e-01f,
-1.37590751e-01f,-1.38166890e-01f,+2.15144046e-02f,-1.28892645e-01f,+1.18376352e-01f,
+5.50459512e-02f,+9.29844752e-03f,-1.42062217e-01f,+1.41972020e-01f,+2.33045772e-01f,
-4.73310333e-03f,+7.64057599e-03f,-1.64623693e-01f,+1.04168430e-01f,+5.14129782e-03f,
-3.94301489e-02f,-4.54838425e-02f,-7.23540410e-02f,+4.26885709e-02f,-7.09159300e-02f,
-2.37815604e-01f,+1.14541367e-01f,-1.48047447e-01f,+1.09396145e-01f,+5.62533066e-02f,
+2.90405959e-01f,+5.61210588e-02f,-8.88937861e-02f,+2.05644175e-01f,+7.41087496e-02f,
+2.52433002e-01f,+1.23530189e-02f,-9.91139337e-02f,+1.62977442e-01f,+1.28242806e-01f,
+6.91242591e-02f,-7.26886243e-02f,+1.80955604e-01f,-9.25768241e-02f,-5.69689795e-02f,
-2.22785488e-01f,+1.26770601e-01f,+1.27044693e-01f,+3.30658406e-02f,+2.24278510e-01f,
-3.08674812e-01f,-2.15084888e-02f,+2.59972692e-01f,+1.34965330e-02f,+4.47972305e-02f,
-9.41598415e-02f,-3.14628193e-03f,+6.29231334e-02f,-2.22292263e-02f,-2.81720255e-02f,
+1.07324086e-01f,-3.02813649e-01f,+6.58642128e-02f,+5.28858379e-02f,-5.60276620e-02f,
-2.73368452e-02f,-3.05429455e-02f,-1.96002930e-01f,-1.51357263e-01f,+7.84488842e-02f,
+3.94355327e-01f,+3.96123119e-02f,+1.26340926e-01f,+5.18023744e-02f,-3.83849256e-03f,
-9.63164046e-02f,+3.28192860e-02f,+4.86404598e-01f,+3.01329762e-01f,+4.24903072e-02f,
-3.47315311e-01f,+8.66711587e-02f,+1.50391430e-01f,-1.18509732e-01f,-1.65881142e-01f,
+4.82784435e-02f,+2.23612547e-01f,+1.03742838e-01f,+1.60512194e-01f,+2.25537032e-01f,
+3.82993892e-02f,+5.74453533e-01f,-1.33265227e-01f,+6.52743056e-02f,-2.41684094e-01f,
+7.18103349e-02f,-9.46137160e-02f,-2.84439325e-01f,+1.66669324e-01f,-2.17893600e-01f,
+9.10143554e-02f,-3.66773605e-01f,-1.27602577e-01f,-2.74314791e-01f,-1.69346392e-01f,
-1.08830623e-01f,-6.87222332e-02f,-1.03875034e-01f,-2.75796741e-01f,+7.41903633e-02f,
-1.55346533e-02f,-4.94801588e-02f,-5.43695055e-02f,-3.17480624e-01f,-1.89266637e-01f,
+1.89792141e-01f,-1.87674582e-01f,-1.41664058e-01f,-1.78769216e-01f,-2.27387026e-01f,
-2.34566748e-01f,+1.51293218e-01f,-2.73109585e-01f,+2.27814749e-01f,+2.85815131e-02f,
-3.39366011e-02f,+1.68973356e-01f,-1.62794963e-01f,-4.90896255e-02f,+8.40769708e-02f,
+1.10016264e-01f,+2.85822213e-01f,-1.09996594e-01f,-2.71320995e-02f,+2.23925337e-02f,
+9.68998522e-02f,+9.86778066e-02f,-9.16291773e-02f,-2.80503910e-02f,-1.49339497e-01f,
-6.72317520e-02f,+9.65098664e-02f,-9.77272615e-02f,+1.72822222e-01f,+1.82527117e-02f,
+1.29158080e-01f,+3.67810950e-02f,-9.97072309e-02f,-6.22260273e-02f,-2.68328816e-01f,
+2.56729901e-01f,-4.75819409e-02f,+3.86525840e-01f,-7.89408982e-02f,+1.17396876e-01f,
+2.40376547e-01f,-1.27463162e-01f,-2.13954404e-01f,+2.67001614e-02f,-4.30301189e-01f,
+2.12007120e-01f,-1.20048925e-01f,-1.51870027e-01f,-2.50614025e-02f,+6.55209869e-02f,
-1.96414426e-01f,+1.14164218e-01f,+1.79013126e-02f,+1.29298404e-01f,+1.13759272e-01f,
+2.49864951e-01f,+2.53550500e-01f,+4.49666008e-02f,+1.76775843e-01f,-1.81338444e-01f,
+1.94193408e-01f,-4.90515912e-03f,+2.44436562e-01f,+9.49943438e-02f,+1.66412368e-01f,
+1.03048854e-01f,+2.79069226e-02f,-1.92613527e-02f,+4.64663953e-01f,+2.32905701e-01f,
-6.25959113e-02f,-7.88054720e-04f,-4.50788029e-02f,-4.18703407e-02f,+1.17203863e-02f,
-1.18742995e-01f,-3.88658457e-02f,+1.92160547e-01f,+1.24215446e-01f,-1.41892880e-01f,
+2.72435695e-01f,+4.98493314e-01f,+9.23134834e-02f,-9.82216373e-02f,+1.93137810e-01f,
-2.07455933e-01f,+7.87309110e-02f,+1.22915267e-03f,+6.96081072e-02f,+1.04671353e-02f,
-2.65576154e-01f,-3.90232950e-01f,+1.09646514e-01f,+3.98431838e-01f,+3.08097959e-01f,
-1.36640698e-01f,+4.46438827e-02f,+7.88285956e-02f,-2.11600903e-02f,-2.77439468e-02f,
+1.05421849e-01f,+1.35923833e-01f,+1.71374157e-02f,+6.40883818e-02f,+1.14063382e-01f,
+1.21388296e-02f,+6.96021616e-02f,-2.55178362e-02f,-9.42950770e-02f,+1.36993587e-01f,
+1.92891493e-01f,-1.58655658e-01f,+1.15900151e-01f,-1.58853352e-01f,-2.16245800e-02f,
+3.81121859e-02f,+3.10258870e-03f,-8.81210938e-02f,+1.02707066e-01f,+2.31863245e-01f,
-4.38411310e-02f,+9.89472587e-03f,+2.27628142e-01f,+3.19044702e-02f,+1.34268338e-02f,
+7.33956099e-02f,-7.55021535e-03f,+9.95182618e-02f,+1.42124847e-01f,+4.32760119e-01f,
-7.96840563e-02f,-7.42159933e-02f,-8.19671154e-02f,+1.66307420e-01f,+8.21978226e-02f,
-2.85715926e-02f,+1.15467422e-01f,+1.68854207e-01f,-1.10366128e-01f,+7.73551092e-02f,
+1.33032009e-01f,-1.85983740e-02f,-5.08715361e-02f,+1.07994102e-01f,+6.19362853e-02f,
+7.50783384e-02f,-3.17057967e-02f,+6.03348389e-02f,+2.53585905e-01f,-4.04221751e-02f,
+2.87767947e-01f,-3.39835323e-03f,+2.14618266e-01f,-1.75254396e-03f,+1.57210827e-01f,
+1.86548755e-01f,-1.05939664e-01f,-2.08138555e-01f,+2.96103861e-03f,+1.91263370e-02f,
-7.09009096e-02f,+1.72812477e-01f,-6.27962500e-02f,+2.91160703e-01f,+2.43098244e-01f,
-1.47039086e-01f,+2.51111567e-01f,-3.12235624e-01f,-2.77342230e-01f,+1.09305784e-01f,
-2.35166326e-01f,-2.02260867e-01f,+1.25064328e-01f,+6.36984557e-02f,+2.43333891e-01f,
-1.93414956e-01f,-2.07827449e-01f,-7.62636885e-02f,-7.80548342e-03f,+9.61815342e-02f,
+3.12480330e-01f,+2.50926822e-01f,-2.61818264e-02f,+1.93408430e-01f,+3.53811160e-02f,
-6.92845210e-02f,+2.01162040e-01f,-1.76584557e-01f,-6.33479953e-02f,+2.93458812e-02f,
-1.46667585e-01f,+1.58755317e-01f,-2.32416764e-01f,+5.59598021e-02f,+1.43738743e-02f,
-5.11890985e-02f,-1.90208912e-01f,+8.24739933e-02f,-2.08376218e-02f,+9.65711996e-02f,
+8.98353010e-02f,-8.78570005e-02f,+2.48775080e-01f,+2.40609884e-01f,-3.37044060e-01f,
-8.85013193e-02f,-1.20478749e-01f,-1.67362299e-02f,+7.73626268e-02f,-1.59683138e-01f,
-1.61826506e-01f,-1.27696648e-01f,+1.76879242e-01f,+5.97102419e-02f,+1.00229844e-01f,
+3.92262749e-02f,+1.67958558e-01f,-2.25578561e-01f,-7.59643838e-02f,-2.52745718e-01f,
+1.50516883e-01f,-9.62780043e-02f,+1.48235634e-01f,+1.48982753e-03f,-1.15521654e-01f,
+8.50699916e-02f,-2.37316471e-02f,-1.25316682e-03f,-1.50800943e-02f,+3.85567307e-01f,
+3.95209014e-01f,-6.66840896e-02f,-2.34295592e-01f,+3.08713652e-02f,+2.51060098e-01f,
+1.29299819e-01f,+1.32350668e-01f,-1.76430047e-01f,+1.52680829e-01f,+7.30977627e-03f,
-1.52117476e-01f,+1.28910970e-02f,-3.83378208e-01f,-5.26738726e-02f,-2.19060645e-01f,
+7.86421075e-03f,+2.06243116e-02f,-2.46809885e-01f,-1.88725710e-01f,-8.37466195e-02f,
+1.80086374e-01f,-4.71882015e-01f,+2.12435707e-01f,+2.77846396e-01f,+1.54528171e-01f,
+1.66449353e-01f,+1.47932157e-01f,-1.95525944e-01f,+3.84444177e-01f,+7.80607909e-02f,
+2.76497334e-01f,-1.94275111e-01f,+2.03967467e-01f,-8.00732449e-02f,-1.03055812e-01f,
-8.53170305e-02f,+4.13753726e-02f,+2.39624038e-01f,+6.81735650e-02f,+1.98972479e-01f,
+5.79260178e-02f,+5.30549884e-02f,+3.04136183e-02f,+1.76845595e-01f,+9.70796868e-02f,
-2.97724515e-01f,-2.61934791e-02f,-7.18313754e-02f,+1.20540597e-01f,-3.92976105e-01f,
-2.41565388e-02f,+1.33739457e-01f,-2.66188215e-02f,-1.39999762e-01f,+1.40374869e-01f,
-5.40858880e-02f,-1.89326391e-01f,-1.78694025e-01f,+1.62522748e-01f,+2.53282875e-01f,
-3.75415571e-03f,-2.43051961e-01f,-1.81863770e-01f,-1.81257073e-02f,+2.55423039e-01f,
-1.21194430e-01f,-5.53213179e-01f,+8.49129930e-02f,+1.98285833e-01f,+2.25373507e-02f,
-2.05662251e-01f,+2.74768919e-01f,+2.59857953e-01f,+1.39067173e-01f,-9.76232067e-02f,
-3.61015499e-02f,-9.41871386e-03f,+2.79875487e-01f,+5.82740121e-02f,-3.25124681e-01f,
+2.81989366e-01f,-1.18301310e-01f,+6.41784430e-01f,-3.01082171e-02f,+1.42062679e-01f,
+2.52412469e-03f,+7.68974721e-02f,+1.64029256e-01f,-2.01179441e-02f,-4.35441220e-03f,
+2.99080580e-01f,-2.20289696e-02f,-1.74596459e-01f,+3.55147809e-01f,+9.25363973e-02f,
+2.21578315e-01f,+1.21495798e-01f,+1.17638998e-01f,-2.13781018e-02f,+8.43360052e-02f,
+2.23868519e-01f,+5.50189093e-02f,+9.97755602e-02f,+7.60122016e-02f,-4.22408469e-02f,
-1.67897657e-01f,-1.92291439e-01f,+1.94028199e-01f,+1.00295797e-01f,+1.28473729e-01f,
+4.39132273e-04f,+2.02553004e-01f,+3.00358003e-03f,+2.39030719e-01f,-1.66802943e-01f,
-2.25561745e-02f,+5.71522340e-02f,+5.07023148e-02f,+1.49137691e-01f,-2.99887527e-02f,
-8.62700567e-02f,+2.92977154e-01f,+2.94595361e-01f,+9.81283933e-03f,+1.32086575e-01f,
+9.20185670e-02f,+3.21334124e-01f,+4.35913950e-01f,-6.60015494e-02f,+2.03405276e-01f,
-5.43469936e-02f,+1.23843960e-01f,-7.79822990e-02f,+6.34920299e-02f,-2.98866808e-01f,
-1.15060188e-01f,-7.62146935e-02f,-8.87015462e-03f,+3.49204615e-02f,-4.71798293e-02f,
+8.02422315e-02f,+4.05603275e-02f,-3.56730819e-01f,-3.23062241e-01f,-5.97511679e-02f,
-2.18393728e-01f,-8.98090079e-02f,+2.17911974e-01f,+1.21708512e-01f,+1.64752334e-01f,
-2.49695908e-02f,+1.36222944e-01f,+1.72003362e-04f,-1.53248951e-01f,-8.44783522e-03f,
+2.68419802e-01f,-3.58705483e-02f,-3.10712695e-01f,-1.45181030e-01f,+4.53578159e-02f,
+4.09600258e-01f,+1.46269888e-01f,-3.66522297e-02f,+8.05517361e-02f,-7.14821592e-02f,
-8.28755870e-02f,-2.03734368e-01f,+5.15702628e-02f,+4.17952091e-01f,+4.17342000e-02f,
+1.09646589e-01f,+2.26886403e-02f,-2.51252204e-01f,+2.32734874e-01f,+1.73200116e-01f,
-5.39567508e-02f,+3.98403816e-02f,+2.47650757e-01f,+4.40196358e-02f,+5.63906273e-03f,
+5.88375553e-02f,-1.07791513e-01f,+3.33886892e-01f,-7.30004683e-02f,+2.21684366e-01f,
+9.96150896e-02f,+3.47707756e-02f,+2.92007637e-04f,-2.80957103e-01f,+6.91253096e-02f,
+7.94859156e-02f,+2.75460988e-01f,+3.12250197e-01f,-3.79017770e-01f,-2.32309058e-01f,
-1.63545012e-01f,-2.35886440e-01f,+1.17204607e-01f,-4.83180322e-02f,+1.26493856e-01f,
+1.70618221e-01f,-1.92600816e-01f,+1.97237611e-01f,-1.76103979e-01f,-1.35741338e-01f,
+3.58658940e-01f,-5.33569872e-01f,-2.03139018e-02f,+2.01119155e-01f,+1.25907809e-01f,
+1.45919636e-01f,-1.74614359e-02f,+1.08920440e-01f,+7.49525987e-03f,+3.95849086e-02f,
-1.05787091e-01f,+1.53938368e-01f,+2.00744644e-01f,-4.43495125e-01f,+1.97356582e-01f,
+1.50421590e-01f,-6.25104234e-02f,-1.32544056e-01f,-1.52673898e-02f,+5.35654686e-02f,
-2.77864397e-01f,+3.94823849e-02f,+9.74975377e-02f,-1.12922400e-01f,+2.77312901e-02f,
-1.68465048e-01f,-2.38196120e-01f,+1.24127723e-01f,+9.61440504e-02f,+9.91434157e-02f,
+7.12895915e-02f,-2.45541766e-01f,-2.15162739e-01f,+3.12161088e-01f,+3.06894422e-01f,
+2.49939680e-01f,-1.09143466e-01f,+1.90334059e-02f,+3.45015347e-01f,-3.90357301e-02f,
+1.74238265e-01f,+3.68202385e-03f,+1.79278422e-02f,+3.05635303e-01f,-1.59041911e-01f,
-7.10203946e-02f,+4.39402722e-02f,+1.72013745e-01f,-4.06005271e-02f,+1.82563752e-01f,
-1.84598580e-01f,-3.37904654e-02f,+3.50606680e-01f,+2.12844685e-01f,-4.99876514e-02f,
-1.62165746e-01f,+1.81387700e-02f,-1.37590304e-01f,-4.47953075e-01f,-2.10868925e-01f,
+8.12177360e-02f,+2.54824877e-01f,-3.36246371e-01f,-1.76299945e-01f,+8.46619830e-02f,
+1.17149800e-01f,+4.12300527e-02f,+1.39256090e-01f,-1.77600995e-01f,+6.78149164e-02f,
+1.68971866e-01f,+1.86784472e-02f,-5.73053695e-02f,+3.35877120e-01f,+1.22198522e-01f,
+1.17897995e-01f,+1.43358022e-01f,-4.55980934e-02f,+8.73987749e-02f,+2.67936084e-02f,
+3.17374989e-02f,+1.84922457e-01f,-7.37317652e-02f,+1.02462741e-02f,+6.44813552e-02f,
+1.99569345e-01f,+1.94651857e-01f,-3.13345253e-01f,+6.18915819e-02f,-3.25643361e-01f,
-2.92150825e-02f,-4.70536612e-02f,-1.36693478e-01f,+1.08032122e-01f,+3.82459044e-01f,
+1.35870457e-01f,-8.42573270e-02f,+1.18619949e-01f,-3.35602947e-02f,+7.29152337e-02f,
+5.06571710e-01f,+4.19158220e-01f,-1.25615358e-01f,+1.64871633e-01f,-1.77141264e-01f,
-3.77591252e-01f,+2.70398676e-01f,-8.77658371e-03f,+2.59044290e-01f,-4.21265289e-02f,
-6.78363219e-02f,+2.16226801e-01f,-2.35446900e-01f,+2.12015182e-01f,-1.72888413e-01f,
-2.04495732e-02f,-4.03777331e-01f,-2.65134990e-01f,+1.49843702e-03f,+2.95406610e-01f,
+2.22508982e-01f,+1.35578021e-01f,+1.69144958e-01f,-8.82233381e-02f,+1.32149935e-01f,
-1.93432733e-01f,+2.21600369e-01f,+1.50919994e-02f,-2.69329458e-01f,-1.76490039e-01f,
+1.06605940e-01f,+4.93431985e-02f,+2.40999639e-01f,-5.28700426e-02f,+1.17347464e-01f,
-2.38234520e-01f,+2.84516394e-01f,+2.03320101e-01f,-1.65355936e-01f,-5.72335497e-02f,
+1.98905692e-01f,+1.20109436e-03f,+1.63161829e-01f,+4.76644225e-02f,-3.43092978e-01f,
+6.99965134e-02f,+2.28303730e-01f,+1.70015946e-01f,+4.18582052e-01f,-1.16070971e-01f,
+4.92136657e-01f,-3.17644887e-02f,+1.40719771e-01f,+4.94667999e-02f,+1.39630347e-01f,
+1.94618791e-01f,-4.32149023e-02f,-2.31743027e-02f,+1.02650613e-01f,-1.79328695e-01f,
+1.16293341e-01f,+6.19839644e-03f,+6.17872290e-02f,-1.60272017e-01f,+1.93100303e-01f,
+1.20290041e-01f,-1.36289969e-01f,-2.89878994e-01f,+1.90934390e-01f,+7.22425953e-02f,
+3.58303660e-03f,+7.00446889e-02f,+2.56894231e-01f,-1.54041529e-01f,-6.70226291e-02f,
+9.28600729e-02f,+1.45575881e-01f,-1.03939727e-01f,-1.03849381e-01f,+4.36830744e-02f,
+4.26262200e-01f,-2.52286702e-01f,+1.88253209e-01f,-4.70535457e-02f,+2.85418987e-01f,
+5.73270738e-01f,+5.55625372e-02f,+2.91036099e-01f,+7.34292790e-02f,+1.68930888e-01f,
-3.27740848e-01f,-2.05235317e-01f,-1.75456349e-02f,+5.91679886e-02f,-4.88070808e-02f,
-2.76531816e-01f,+2.12273136e-01f,+1.02949105e-01f,-1.57368332e-02f,-1.55657321e-01f,
+2.42711827e-01f,-1.98492900e-01f,-1.06471054e-01f,+1.07837200e-01f,+4.54211503e-01f,
+3.37574750e-01f,+1.70920730e-01f,+4.79617640e-02f,-2.71496445e-01f,+3.10421567e-02f,
+2.07083285e-01f,+4.88419011e-02f,+2.06258055e-02f,-7.80304242e-03f,-1.95456877e-01f,
+9.54296887e-02f,+6.90145940e-02f,+3.19344461e-01f,-2.39321649e-01f,-1.23681324e-02f,
+6.66172728e-02f,+1.72391742e-01f,-2.18624622e-01f,+1.53079048e-01f,+4.14398871e-02f,
-3.36730540e-01f,+1.31265195e-02f,+9.67905670e-02f,+1.54860944e-01f,-8.71378854e-02f,
+9.81273055e-02f,+1.51754739e-02f,-5.44097461e-02f,+5.39474040e-02f,-1.35835141e-01f,
-2.22329155e-01f,+5.46657205e-01f,+3.77961487e-01f,+8.48383904e-02f,+9.02758315e-02f,
-3.85037810e-02f,-1.51539356e-01f,+1.86974125e-03f,-2.65750680e-02f,-1.59986736e-03f,
-7.36777410e-02f,-1.25344560e-01f,-1.53750002e-01f,-1.24119975e-01f,+1.37316987e-01f,
-4.02860373e-01f,+1.28629327e-01f,+1.36787459e-01f,+2.39886373e-01f,-1.47905918e-02f,
+1.97430536e-01f,-3.26621503e-01f,-8.53647187e-04f,+1.02551244e-01f,+3.70105863e-01f,
+1.99965626e-01f,+4.70990837e-02f,+8.66619647e-02f,+2.01479673e-01f,+2.46822953e-01f,
-4.83403243e-02f,+6.00054152e-02f,+1.96772605e-01f,-4.02324140e-01f,+1.28706172e-01f,
-3.91637951e-01f,-1.14977956e-01f,+2.23096684e-02f,-1.71529986e-02f,-2.88091362e-01f,
+3.46063852e-01f,-1.04933985e-01f,-2.38541011e-02f,+7.17175975e-02f,-1.77172095e-01f,
-1.07495159e-01f,-1.37830183e-01f,-4.34286326e-01f,-2.35587806e-01f,+1.85172968e-02f,
+1.02447636e-01f,+2.35248148e-01f,+3.70190114e-01f,+4.37991291e-01f,-8.46302733e-02f,
-1.12279780e-01f,-9.50381681e-02f,-7.32433349e-02f,+6.31198660e-02f,+2.11642116e-01f,
-1.28058553e-01f,-1.99549317e-01f,+1.00663729e-01f,-2.08564177e-01f,-1.36763588e-01f,
-2.36852258e-01f,+5.74423037e-02f,+3.51712033e-02f,-1.30682677e-01f,+4.03069198e-01f,
+1.04620494e-01f,-1.87952474e-01f,+1.25953197e-01f,+1.22465640e-01f,-1.07119061e-01f,
-3.65724057e-01f,+2.53283143e-01f,+6.01563044e-02f,+1.02882013e-01f,-9.21934694e-02f,
-1.30987987e-01f,-1.07295342e-01f,-4.45392728e-02f,-1.70090660e-01f,-3.37147057e-01f,
+1.71110600e-01f,+2.32598949e-02f,+4.39522684e-01f,+6.22281171e-02f,-4.69320789e-02f,
-4.11757641e-02f,-7.55256340e-02f,-9.30648446e-02f,+1.19119033e-01f,+5.87750375e-02f,
+4.75133881e-02f,-2.96759084e-02f,+2.05883265e-01f,-8.13838467e-02f,-1.67390525e-01f,
-1.25108873e-02f,+7.19006062e-02f,-3.21375012e-01f,-3.29824239e-01f,-2.75927130e-02f,
-9.04679298e-02f,+1.44902736e-01f,-4.54939365e-01f,-1.57898471e-01f,+1.12508684e-02f,
-3.16803396e-01f,-1.82497486e-01f,-1.93775922e-01f,-5.31343594e-02f,+4.50385898e-01f,
+1.95102423e-01f,-1.36309192e-01f,-8.92486870e-02f,+6.34596795e-02f,-3.49967122e-01f,
-1.19440801e-01f,+1.78956077e-01f,-7.77136981e-01f,-4.70856465e-02f,+1.11501805e-01f,
-1.35327876e-02f,+3.04246783e-01f,-2.05202065e-02f,+7.50239640e-02f,+1.53392658e-01f,
-2.04251893e-02f,+1.52406946e-01f,+2.66472087e-03f,-3.55640277e-02f,-2.13974625e-01f,
-9.67367887e-02f,-1.25006977e-02f,+1.23632424e-01f,-1.96056306e-01f,+2.05288485e-01f,
+2.66922265e-01f,-5.51021509e-02f,-4.74434346e-03f,+2.33307213e-01f,-6.56220391e-02f,
+3.97458263e-02f,+1.77672550e-01f,+8.08303654e-02f,-2.85360008e-01f,-1.80640280e-01f,
+2.54380792e-01f,-1.26317069e-01f,+3.48092616e-02f,-3.91630948e-01f,+7.81913623e-02f,
+7.55614936e-02f,-8.32546130e-03f,-2.52425205e-03f,+4.37640725e-03f,+2.68877774e-01f,
-6.93696216e-02f,+3.86052281e-02f,+3.42078060e-02f,-2.20394470e-02f,+5.80267720e-02f,
-1.56409606e-01f,+1.35542840e-01f,-1.81591377e-01f,+7.45861605e-02f,-2.17681125e-01f,
-9.37538221e-02f,-5.75830378e-02f,-1.64241955e-01f,+2.71073133e-02f,+1.93580389e-02f,
-1.95123509e-01f,+3.18231404e-01f,+9.47356001e-02f,-1.70739233e-01f,+8.44168216e-02f,
+5.47143966e-02f,-9.95858088e-02f,-8.46849680e-02f,+1.07693754e-01f,+6.72317371e-02f,
+9.97734368e-02f,-1.83321401e-01f,+2.94240594e-01f,-1.97510704e-01f,-5.71207702e-02f,
-1.11372791e-01f,+9.18240398e-02f,-2.62228623e-02f,+2.78987259e-01f,-1.12024806e-01f,
+7.13642165e-02f,+2.36117065e-01f,+1.10059306e-01f,-2.92879999e-01f,-4.02337126e-02f,
+3.05255726e-02f,+1.09164037e-01f,+2.68896937e-01f,+7.10044950e-02f,+3.64917636e-01f,
-2.43215635e-01f,-1.40301764e-01f,+5.09503298e-02f,-3.05619866e-01f,-4.55785021e-02f,
+4.20145020e-02f,-1.04295850e-01f,-1.32768378e-01f,+2.60259141e-03f,-2.76988387e-01f,
-9.20243636e-02f,+5.62185422e-02f,+1.91612974e-01f,+1.22568376e-01f,+1.22856826e-01f,
+1.23352468e-01f,+2.15701953e-01f,-1.09542822e-02f,-5.59647679e-02f,+2.13195369e-01f,
-1.84571132e-01f,-1.79913849e-01f,-8.70618373e-02f,+3.03680021e-02f,+4.31256182e-02f,
-7.42917806e-02f,+1.36130676e-01f,-4.55584973e-02f,-9.45389345e-02f,+1.82760358e-01f,
-9.69211757e-02f,-2.02659294e-02f,-8.16947594e-02f,-1.02571703e-01f,-2.32542749e-03f,
-1.35318995e-01f,+1.99380755e-01f,+9.64745134e-02f,-7.45305941e-02f,-1.30028903e-01f,
-1.48928776e-01f,+3.53186846e-01f,+5.16905859e-02f,+8.88780951e-02f,+1.05983213e-01f,
-1.81341320e-02f,-1.49783075e-01f,+7.20761195e-02f,+8.83182064e-02f,+2.61444628e-01f,
+1.41771644e-01f,+9.52996984e-02f,+1.11157127e-01f,+1.00338878e-02f,-4.26741466e-02f,
-1.33009106e-01f,+6.99154437e-02f,+3.18033695e-01f,-4.37136739e-02f,+9.85171553e-03f,
+7.36022592e-02f,-4.57414947e-02f,+5.22698276e-02f,+1.42788053e-01f,-1.08036332e-01f,
+4.02481668e-02f,-1.89186558e-01f,-1.26881391e-01f,+1.05553463e-01f,+6.09776936e-02f,
+4.10812609e-02f,+1.78726718e-01f,+9.54923630e-02f,+4.40388620e-01f,+2.63325334e-01f,
+4.12142947e-02f,-4.51049097e-02f,-2.32692093e-01f,+3.23833555e-01f,+3.29562068e-01f,
+2.31296614e-01f,-1.22695178e-01f,+1.43297464e-01f,+1.30929396e-01f,-4.81717661e-02f,
+2.34517068e-01f,+2.09889114e-01f,-3.94098572e-02f,-1.77465267e-02f,-2.67734557e-01f,
-1.24751210e-01f,+3.82395349e-02f,-7.77111575e-02f,-4.56248447e-02f,+8.29342473e-03f,
-2.19044700e-01f,+3.44675869e-01f,+1.17825605e-01f,-4.33712862e-02f,+8.71462002e-02f,
+2.68529832e-01f,+9.97599959e-02f,-2.07948685e-02f,-4.85796668e-03f,-1.23318233e-01f,
+2.37175643e-01f,-2.27593407e-01f,-8.87984559e-02f,-2.01802105e-01f,+2.04855368e-01f,
+3.88008775e-03f,+1.42117962e-01f,+1.70296341e-01f,-2.34749109e-01f,-1.76792890e-01f,
-2.07557768e-01f,+3.30591761e-02f,-1.89969808e-01f,+2.72565782e-01f,+2.75992900e-01f,
+1.93280559e-02f,-2.71246672e-01f,-7.57093504e-02f,-1.22315317e-01f,-1.94208741e-01f,
-2.71315753e-01f,+7.63053298e-02f,-3.89473855e-01f,-3.86696070e-01f,+9.71302949e-03f,
+1.04583807e-01f,+1.78646564e-01f,+9.41254795e-02f,+9.47958678e-02f,-1.99625373e-01f,
-3.07350427e-01f,-2.79896259e-01f,-2.37886921e-01f,+8.89561996e-02f,-2.24692677e-03f,
-6.54229075e-02f,-2.61462107e-03f,+2.04708263e-01f,-4.37402539e-02f,+2.90023834e-01f,
+1.10175483e-01f,+5.49177714e-02f,-9.03243572e-02f,+3.29942405e-02f,+4.21108911e-03f,
+1.00735307e-01f,+1.74928248e-01f,+1.02903560e-01f,+7.64468983e-02f,+5.02543338e-02f,
+3.68762240e-02f,+7.10616186e-02f,-2.14958787e-02f,+4.31858301e-01f,+2.99518496e-01f,
+7.52576515e-02f,+1.15960605e-01f,+3.74715626e-02f,-1.44169107e-01f,-1.15703186e-03f,
-5.45555539e-02f,-1.21616252e-01f,+3.06939129e-02f,-1.58746734e-01f,+1.00835286e-01f,
-1.56976253e-01f,-7.25875422e-02f,-1.20625481e-01f,-1.93379328e-01f,+2.71504968e-01f,
+5.13123535e-02f,-3.15565630e-05f,+2.24070147e-01f,-8.55829418e-02f,+1.57041997e-01f,
+2.13448524e-01f,+4.54476088e-01f,+8.81329551e-02f,-9.61335003e-03f,+1.33540615e-01f,
-8.33825916e-02f,-6.86635971e-02f,-9.64866057e-02f,-1.21362107e-02f,-1.66565984e-01f,
-2.25758761e-01f,-1.17644109e-01f,-1.08608924e-01f,-1.15597155e-02f,+2.47829661e-01f,
-3.30565453e-01f,-2.10565049e-02f,+1.97458595e-01f,+2.90955663e-01f,+4.50293235e-02f,
+7.22376211e-03f,-8.00561532e-02f,+8.72424990e-02f,+1.48932979e-01f,+3.18629086e-01f,
-4.26279232e-02f,+1.38636827e-01f,+2.43877485e-01f,+1.37404084e-01f,-4.64779586e-02f,
-1.14180237e-01f,-1.24483682e-01f,+1.41579419e-01f,-1.98593885e-01f,+9.57702100e-02f,
-1.06255941e-01f,+1.64240450e-01f,-9.95033905e-02f,-2.10876856e-03f,+2.88332760e-01f,
+1.03084765e-01f,+1.42266646e-01f,+6.93036914e-02f,+7.58555830e-02f,-1.46106392e-01f,
+1.49595924e-02f,+1.82029709e-01f,+4.85128118e-03f,+1.62637740e-01f,-4.95119318e-02f,
+3.01270515e-01f,+1.74405985e-02f,-4.45651188e-02f,+1.14802510e-01f,-2.80333627e-02f,
+8.06718916e-02f,+1.54619336e-01f,-4.71003773e-03f,+1.60159156e-01f,-1.20910056e-01f,
-9.85730365e-02f,+6.75590932e-02f,+1.88506305e-01f,-2.02606283e-02f,-1.05723310e-02f,
-3.79667394e-02f,-4.67230082e-02f,+2.58107662e-01f,+1.94430590e-01f,-2.25218181e-02f,
-1.61809139e-02f,+7.60674775e-02f,+5.03261805e-01f,-3.58051956e-02f,+1.03308931e-01f,
+7.41853267e-02f,-1.04922444e-01f,+4.65770483e-01f,+1.10476457e-01f,+6.61325529e-02f,
+5.47866374e-02f,+1.36592597e-01f,-1.23392204e-02f,+2.58033961e-01f,+7.24639520e-02f,
+3.97961698e-02f,+1.40053660e-01f,-8.54667090e-03f,+1.04146801e-01f,-2.55871356e-01f,
-2.60368615e-01f,-6.11466803e-02f,+9.51009803e-03f,-8.61932710e-02f,+1.73640653e-01f,
+6.16280623e-02f,+9.10577700e-02f,-1.47325680e-01f,-1.57592103e-01f,+4.11659926e-01f,
-1.68744147e-01f,-2.96538830e-01f,-8.94180983e-02f,-9.50730965e-02f,+2.72288173e-01f,
+4.95125324e-01f,-1.04102857e-01f,+2.18569949e-01f,-2.25149691e-01f,+9.36441496e-02f,
+8.05092230e-02f,-6.13707229e-02f,+1.16296925e-01f,+9.14045200e-02f,-2.12761760e-01f,
+2.18854859e-01f,+4.82029058e-02f,+1.03636689e-01f,+1.92744896e-01f,-9.24396738e-02f,
+2.52831221e-01f,+1.39967605e-01f,+7.07132816e-02f,+2.28274658e-01f,+1.05700836e-01f,
+2.42540658e-01f,+1.54871657e-01f,+2.01747715e-01f,+2.92358518e-01f,+3.52100551e-01f,
-2.74929941e-01f,+1.15686446e-01f,+1.20784670e-01f,-1.30989002e-02f,-2.04857454e-01f,
+1.07204253e-02f,-2.68945634e-01f,+4.06581253e-01f,-8.47175419e-02f,+2.75724661e-02f,
+8.13062936e-02f,-8.29399452e-02f,-6.05588853e-02f,-2.48737335e-01f,+2.69350242e-02f,
+4.19979729e-02f,-1.09157406e-01f,+1.84616502e-02f,+4.72169846e-01f,-7.29215369e-02f,
+3.86341326e-02f,+3.18002433e-01f,+7.70118162e-02f,-3.74243945e-01f,+3.63108814e-01f,
-2.59742439e-02f,+2.89627090e-02f,+1.15969731e-02f,+7.57158548e-02f,-1.64040089e-01f,
+1.35258436e-01f,+1.07257746e-01f,-4.06866223e-02f,-8.76112357e-02f,+1.53843477e-01f,
+1.75153643e-01f,+1.13530099e-01f,-1.42193303e-01f,+2.03323707e-01f,+6.70085400e-02f,
-1.54110327e-01f,-2.23262552e-02f,-1.65561631e-01f,-5.53028584e-02f,+4.26951110e-01f,
-3.61985825e-02f,-5.89910522e-02f,-3.59031349e-01f,-1.08200282e-01f,+3.97928767e-02f,
-5.28832041e-02f,-9.03904289e-02f,+1.62544206e-01f,+4.54502553e-02f,-9.67762098e-02f,
-3.06559354e-01f,+7.87111372e-02f,+2.91819215e-01f,+1.21102091e-02f,+2.93083340e-01f,
-2.60243177e-01f,-2.13893607e-01f,-2.55770415e-01f,-3.74800675e-02f,-1.28646016e-01f,
+3.53976250e-01f,-9.79575366e-02f,+1.23602770e-01f,+1.71541706e-01f,+1.34966120e-01f,
-3.39214467e-02f,-1.83675840e-01f,+1.05846329e-02f,+1.40282467e-01f,-6.76810816e-02f,
-1.67046741e-01f,+1.12702049e-01f,-1.48673326e-01f,+3.20993751e-01f,+1.40293062e-01f,
+1.85754806e-01f,-3.85314524e-02f,-3.01891845e-02f,-4.04785462e-02f,+1.96391195e-01f,
-5.04385717e-02f,+5.53728491e-02f,-2.10604593e-01f,-4.65273112e-02f,-8.11637659e-03f,
+2.07233235e-01f,+1.72591880e-01f,-3.80955543e-03f,-2.96244740e-01f,+8.30779523e-02f,
+3.57558206e-02f,+1.59234107e-01f,-7.39233792e-02f,+2.65595973e-01f,-4.35948595e-02f,
-4.03296314e-02f,+1.73297699e-03f,-4.58435863e-02f,+1.49912313e-01f,+1.58901334e-01f,
-2.82307476e-01f,-9.62190479e-02f,+2.76754975e-01f,-2.43542984e-01f,-1.39265522e-01f,
+3.25759262e-01f,+1.09756768e-01f,-3.79009455e-01f,+1.53425872e-01f,-6.39431104e-02f,
-1.67833030e-01f,-2.18309224e-01f,+2.02725947e-01f,+8.05915594e-02f,+9.08392891e-02f,
-3.70000824e-02f,-1.55832335e-01f,+2.33030796e-01f,+1.28772557e-01f,+8.63775378e-04f,
-3.62696446e-04f,+1.08948678e-01f,-1.06743246e-01f,-7.82882497e-02f,-1.06859535e-01f,
-2.94127941e-01f,-3.01603705e-01f,-3.45872015e-01f,-1.36178762e-01f,+8.92038122e-02f,
+1.35616407e-01f,+3.15906495e-01f,+2.25646660e-01f,-2.19868049e-02f,-9.95573774e-02f,
+1.69869259e-01f,+2.22228810e-01f,-6.85491711e-02f,-6.31809235e-02f,+2.15155333e-02f,
+8.81118700e-02f,-6.99715391e-02f,-1.06544606e-01f,-3.70858349e-02f,-1.22632049e-01f,
+2.28140607e-01f,+2.50678658e-01f,-4.85405959e-02f,+3.72262336e-02f,+8.50070491e-02f,
-1.62186056e-01f,-4.50624190e-02f,-1.52684391e-01f,-2.52813458e-01f,+6.62774518e-02f,
-8.22829083e-02f,+2.49194920e-01f,-1.30688205e-01f,+2.62167603e-01f,+1.01839766e-01f,
-1.80145614e-02f,-2.58055091e-01f,-7.83902481e-02f,-3.17168087e-02f,+1.04692496e-01f,
+1.45613039e-02f,+1.17680393e-01f,+2.53005952e-01f,-7.63462037e-02f,+1.02428973e-01f,
-1.62372768e-01f,+1.31585315e-01f,+1.93041161e-01f,-3.39796215e-01f,-1.94209471e-01f,
-2.31749654e-01f,-3.65271308e-02f,+1.99665368e-01f,+2.64835000e-01f,-1.33666908e-02f,
-1.89819336e-02f,-6.71694428e-02f,+2.92070694e-02f,-5.92481270e-02f,-2.14789271e-01f,
-4.67695035e-02f,-9.31693986e-02f,+1.33735895e-01f,-1.49706053e-02f,-1.63250342e-01f,
+8.06064606e-02f,-1.87748820e-01f,-7.75329098e-02f,+8.89062434e-02f,+1.74314491e-02f,
-1.62124291e-01f,-9.68598798e-02f,+3.57432246e-01f,-4.88022007e-02f,+4.05822806e-02f,
+1.47240043e-01f,-8.25128928e-02f,+6.05289452e-02f,+1.85025439e-01f,+5.83165474e-02f,
+2.00350434e-01f,+1.76651046e-01f,-2.50688136e-01f,+4.18163389e-02f,+1.82393193e-01f,
+9.18872133e-02f,+1.80955574e-01f,-6.16619028e-02f,+5.64304255e-02f,+2.54092626e-02f,
-9.15408581e-02f,-6.05988055e-02f,+2.42190138e-01f,+2.26498052e-01f,-2.94752661e-02f,
-2.32259661e-01f,+3.38045806e-02f,+1.76183894e-01f,+2.09235907e-01f,-7.86928907e-02f,
-1.75025761e-02f,+2.19690558e-02f,-6.24562474e-03f,-4.86487662e-03f,+3.42247665e-01f,
+6.83363378e-02f,+1.22271381e-01f,-4.64406912e-04f,+5.92421889e-02f,+9.69580039e-02f,
+1.51575387e-01f,-1.42400205e-01f,-3.17966610e-01f,+7.16392472e-02f,+1.54557928e-01f,
+2.44851843e-01f,+2.16818601e-02f,-4.77565937e-02f,+4.84653592e-01f,+8.58686939e-02f,
-2.60975122e-01f,-7.28193969e-02f,-1.77998804e-02f,+7.20356107e-02f,+9.52867493e-02f,
+1.95852548e-01f,-2.17078790e-01f,-2.86457688e-01f,-1.59414008e-01f,+2.94968300e-02f,
-1.37444720e-01f,+1.65108815e-01f,+9.44084451e-02f,-1.64357275e-01f,+2.10547924e-01f,
+3.59477624e-02f,-1.31810352e-01f,+1.04135975e-01f,-1.00017749e-01f,-3.30538079e-02f,
-1.01720197e-02f,-1.60860240e-01f,-1.68823034e-01f,-1.07222788e-01f,+2.35174254e-01f,
+1.29418820e-01f,-7.07127079e-02f,+1.39036685e-01f,-1.67169813e-02f,+1.13480471e-01f,
-6.77808672e-02f,-1.64339505e-02f,-1.72045305e-01f,+9.17734653e-02f,+1.92064106e-01f,
-2.31048450e-01f,+5.29006049e-02f,+5.35255849e-01f,+6.62651733e-02f,-1.64786860e-01f,
+6.97043724e-03f,+2.10101753e-01f,-1.32991731e-01f,+2.08834901e-01f,+4.10351753e-01f,
+3.81250046e-02f,+9.02072899e-03f,+1.66728780e-01f,-7.94640183e-03f,+3.22882563e-01f,
-2.45972008e-01f,-1.52008235e-01f,-1.56909376e-01f,-1.28756195e-01f,+3.20141882e-01f,
+4.11965884e-02f,+1.81665625e-02f,-9.54831839e-02f,+7.81086087e-02f,+1.14590570e-01f,
-4.12440188e-02f,-5.03694043e-02f,-5.48732579e-02f,-6.24032058e-02f,-2.32485369e-01f,
-1.79578513e-01f,+7.75075033e-02f,-6.93784133e-02f,+2.49458640e-03f,+2.14939147e-01f,
-1.69632629e-01f,-2.32075155e-01f,-6.88092113e-02f,-1.77572593e-01f,-1.46561086e-01f,
-2.19661593e-01f,+4.58607227e-02f,+2.29007117e-02f,-3.23884755e-01f,+3.38793285e-02f,
+1.21727623e-01f,-2.06109107e-01f,+3.23290586e-01f,+6.00571148e-02f,-1.68006897e-01f,
-3.53459328e-01f,-2.91151702e-02f,+1.74374029e-01f,+3.23599994e-01f,-1.34685829e-01f,
+8.78488868e-02f,-8.42452571e-02f,-1.93490431e-01f,-3.59042645e-01f,+3.94107886e-02f,
-8.84744003e-02f,-8.25352222e-02f,+2.02717781e-01f,-2.28462458e-01f,-1.02441974e-01f,
-2.73125410e-01f,+2.41298839e-01f,+1.97010204e-01f,+1.12014472e-01f,+3.05825081e-02f,
-5.19061387e-01f,+3.14109981e-01f,-8.46502036e-02f,+2.88419753e-01f,-9.97815058e-02f,
+2.86083579e-01f,+2.24376693e-01f,-2.85442084e-01f,+1.66758657e-01f,+2.50124991e-01f,
-1.45119384e-01f,-2.85589755e-01f,+1.15707055e-01f,-2.04894036e-01f,-1.17224514e-01f,
+2.60948479e-01f,+3.06192100e-01f,+2.22833231e-01f,+1.85477287e-01f,-1.41625926e-01f,
+3.85539234e-02f,+5.53075299e-02f,-1.50089473e-01f,-3.23574208e-02f,-1.10252492e-01f,
-1.91668108e-01f,+1.94487154e-01f,-7.64434785e-02f,-1.33534357e-01f,+7.64284804e-02f,
-1.86536714e-01f,+1.43845797e-01f,-1.88967481e-01f,-2.51332581e-01f,-3.17104191e-01f,
+1.41129836e-01f,+2.75276244e-01f,-1.48396775e-01f,+4.54492010e-02f,+2.75634229e-01f,
+5.61472476e-02f,+3.17909926e-01f,+1.42226070e-01f,+3.39727163e-01f,-1.43284962e-01f,
+3.15551795e-02f,-2.63281614e-02f,-2.05207281e-02f,+5.13646044e-02f,-1.21405490e-01f,
-4.61971387e-02f,+3.52242112e-01f,+2.06061602e-01f,-1.02068186e-01f,+1.08655214e-01f,
+1.66497722e-01f,+3.79347801e-02f,-5.42887440e-03f,+1.19017027e-01f,-2.29832709e-01f,
-4.78890270e-01f,+1.27708867e-01f,-8.22651684e-02f,+2.06161961e-01f,-1.39160352e-02f,
+1.98570620e-02f,+2.35470071e-01f,+7.63578713e-02f,+9.59570706e-02f,+1.90742407e-02f,
+1.30234882e-01f,-3.47759835e-02f,-1.87236741e-01f,+2.87127614e-01f,-1.19020287e-02f,
+1.49324173e-02f,-1.03762589e-01f,+1.36211380e-01f,+2.59626985e-01f,-2.14123815e-01f,
-2.15972699e-02f,-4.00657952e-02f,-1.49530977e-01f,+3.16814154e-01f,-3.36253613e-01f,
-6.40292615e-02f,-6.20874166e-02f,-8.52146819e-02f,+1.42344058e-01f,-2.19670273e-02f,
+1.27531752e-01f,+8.93498436e-02f,-9.08569321e-02f,+3.17323208e-02f,+4.66681540e-01f,
-6.05941415e-02f,+2.17575908e-01f,-1.99334651e-01f,+9.04980153e-02f,+8.32590181e-03f,
+2.16565087e-01f,+2.48832628e-01f,+5.16204722e-02f,-1.22487769e-01f,+6.85178414e-02f,
+1.94327667e-01f,-1.91823587e-01f,+5.67150339e-02f,-2.30341241e-01f,+2.76170850e-01f,
-1.82087585e-01f,+7.11371750e-02f,+2.70302415e-01f,+2.80981004e-01f,+4.05131698e-01f,
+3.50217195e-03f,+1.83557466e-01f,+2.91431341e-02f,+1.19981142e-02f,-2.27946714e-01f,
+1.42420620e-01f,-1.28886327e-01f,-1.25515219e-02f,-1.92768484e-01f,+3.23516995e-01f,
+2.47824296e-01f,+6.78226054e-02f,+8.67748111e-02f,+2.54313827e-01f,-2.18581423e-01f,
+1.90923829e-02f,+2.13016346e-01f,-8.58321562e-02f,+1.02594495e-01f,+3.12619172e-02f,
+3.22118923e-02f,+1.46828359e-02f,-1.51344806e-01f,-1.40128881e-01f,-9.68535244e-02f,
-1.45470440e-01f,-2.90644616e-01f,+8.93615782e-02f,-1.07846662e-01f,+2.83503123e-02f,
-2.00294092e-01f,+5.53314239e-02f,+1.34557799e-01f,+1.22086845e-01f,-7.82504901e-02f,
-1.36467263e-01f,+2.54075974e-01f,-1.40540451e-01f,+1.82963498e-02f,-2.85176262e-02f,
+8.78756791e-02f,+1.69565126e-01f,+2.96266586e-01f,+1.19986096e-02f,+2.95889437e-01f,
+5.81702515e-02f,+2.86552519e-01f,+2.90824920e-02f,-2.29989104e-02f,-1.04239672e-01f,
-3.86670828e-02f,+5.80964331e-03f,+1.32602118e-02f,+8.01643431e-02f,+2.57161170e-01f,
+9.87811480e-03f,-9.47243497e-02f,+2.36679632e-02f,-2.87602991e-01f,+1.09563336e-01f,
+1.76879521e-02f,+1.91253945e-01f,+2.36086681e-01f,+1.94049746e-01f,-1.05259992e-01f,
+1.10994741e-01f,+7.70202205e-02f,+1.77746579e-01f,-1.68196768e-01f,-2.17713058e-01f,
-8.66691396e-02f,+6.64921924e-02f,+3.39588583e-01f,-6.17268011e-02f,+1.01657927e-01f,
-3.54775079e-02f,-1.64220244e-01f,-9.32802111e-02f,+7.88155124e-02f,-7.90750384e-02f,
+2.23139912e-01f,+1.58122629e-01f,+1.88184544e-01f,+9.17143375e-02f,-6.08684756e-02f,
-4.50213365e-02f,+1.54481009e-01f,+9.70134744e-04f,-1.01712890e-01f,-1.10743225e-01f,
-7.20131025e-02f,+1.53282927e-02f,+6.86927214e-02f,+1.56998724e-01f,+8.14560577e-02f,
+2.21068993e-01f,+1.41250744e-01f,-8.05081353e-02f,+2.82944322e-01f,-1.22907441e-02f,
+3.06266665e-01f,+7.25884661e-02f,-8.91069546e-02f,-4.01209556e-02f,+1.56327821e-02f,
-2.84599513e-02f,+3.13477576e-01f,-6.61054105e-02f,+1.62788123e-01f,-2.24828243e-01f,
+6.71930313e-02f,-3.74525599e-02f,-3.98656651e-02f,-6.56851381e-02f,-7.41580129e-02f,
+3.95388901e-01f,+1.86839461e-01f,-1.50889205e-02f,+2.24810645e-01f,+5.86370714e-02f,
-9.42951068e-02f,+2.66255945e-01f,+1.68513894e-01f,+9.29643214e-02f,+7.68784573e-03f,
-1.94664346e-03f,-1.90908223e-01f,+1.11353081e-02f,+1.26351222e-01f,+4.28281957e-03f,
+1.32140175e-01f,+1.43148392e-01f,+1.70704164e-02f,-9.64063499e-03f,+3.24184299e-02f,
+7.58196739e-03f,-2.72570178e-02f,+1.15213424e-01f,+3.53753902e-02f,+2.28518382e-01f,
+1.71382859e-01f,-1.18225694e-01f,+2.42207968e-03f,-3.73639576e-02f,+1.48599178e-01f,
+1.92501843e-01f,+1.83852136e-01f,+1.68615207e-01f,-1.12028353e-01f,+2.04625241e-02f,
+5.57043590e-02f,-6.40247390e-03f,+2.56692559e-01f,+9.82905477e-02f,+7.33012483e-02f,
+4.85684872e-02f,+3.45683992e-02f,+9.14979428e-02f,-2.22046999e-03f,+1.00192755e-01f,
+1.53790146e-01f,-5.72327152e-02f,-1.75849319e-01f,+7.71051273e-03f,+1.57192320e-01f,
-7.76081681e-02f,-5.65795228e-02f,+9.77272540e-02f,+8.27101991e-02f,+4.12807688e-02f,
-2.01739639e-01f,+2.28573335e-03f,+2.13185567e-02f,-9.55085158e-02f,+9.76827834e-03f,
+3.28776747e-01f,-8.11150819e-02f,+1.59130767e-01f,-1.14661520e-02f,-3.11368238e-02f,
+1.52474493e-01f,+3.84577140e-02f,+6.63342327e-02f,+1.87944368e-01f,+1.03201002e-01f,
+2.74540901e-01f,-6.58559725e-02f,+1.30845800e-01f,+2.68314511e-01f,+1.72420852e-02f,
-7.17106089e-02f,+1.01895235e-01f,-1.00802049e-01f,-5.45316003e-02f,+1.12100042e-01f,
-1.37867145e-02f,+1.02579586e-01f,+1.11477733e-01f,-8.01286697e-02f,+9.48718563e-02f,
+2.27487355e-01f,-3.72648209e-01f,+2.74747998e-01f,+2.29567096e-01f,-3.13459300e-02f,
-1.41649514e-01f,-5.58212735e-02f,-2.62730625e-02f,+4.42181528e-02f,+2.08935708e-01f,
-1.80609599e-01f,+1.05425283e-01f,-2.21366018e-01f,-1.47799939e-01f,+2.52760738e-01f,
-1.30004421e-01f,-6.44541755e-02f,-1.04695775e-01f,+1.84043497e-01f,+2.44254116e-02f,
+4.81677085e-01f,-1.66088909e-01f,+9.59711224e-02f,-1.85831357e-02f,-8.22784659e-03f,
+7.49406368e-02f,+5.75773120e-02f,+1.02562845e-01f,+1.59601539e-01f,+2.92856306e-01f,
+1.69369563e-01f,-1.76283017e-01f,-6.30967990e-02f,-3.71586382e-02f,+1.32199720e-01f,
+1.02929302e-01f,-8.63220394e-02f,-6.98087830e-03f,+1.94889531e-02f,-3.80144306e-02f,
-5.30580021e-02f,+6.48439452e-02f,-8.66417661e-02f,+2.64984101e-01f,-1.99881390e-01f,
-7.47206509e-02f,-6.47673979e-02f,+1.47451058e-01f,-1.45956069e-01f,-1.25069931e-01f,
+1.10351421e-01f,-2.88975090e-01f,-1.68278515e-01f,+1.12520427e-01f,-8.83582085e-02f,
+9.36863851e-03f,-1.03792753e-02f,-1.19602136e-01f,-3.53072695e-02f,-1.12098008e-01f,
+2.57804990e-01f,+2.24296853e-01f,+6.52322918e-02f,+1.84865251e-01f,-2.69964546e-01f,
+1.46309674e-01f,-7.65402764e-02f,-1.89516902e-01f,+7.58296773e-02f,+5.59243523e-02f,
+5.53673655e-02f,+1.29967798e-02f,-2.52628237e-01f,+1.04885206e-01f,+2.62501538e-02f,
+1.35954067e-01f,+2.02247158e-01f,-1.65401045e-02f,+9.62272380e-03f,+1.19121395e-01f,
+5.31909168e-02f,+4.18845475e-01f,+3.11344594e-01f,+5.27357794e-02f,+1.45159662e-01f,
-9.19316057e-03f,+4.83022071e-03f,+6.10855222e-02f,+3.46818008e-02f,-1.15287192e-02f,
-2.82997489e-02f,+3.79567929e-02f,-1.01229064e-01f,-1.21577149e-02f,+5.43069430e-02f,
+1.28552631e-01f,+6.48125485e-02f,+3.15199159e-02f,+1.05336338e-01f,+6.86031953e-02f,
+2.67801106e-01f,+1.79633141e-01f,-1.23340264e-01f,+2.79591203e-01f,-2.49900252e-01f,
+4.60871990e-04f,-2.05982234e-02f,+4.95085344e-02f,+7.30504543e-02f,-7.93018341e-02f,
+3.32031772e-03f,-2.69506633e-01f,-7.33579621e-02f,+6.78830966e-02f,-3.54751274e-02f,
-1.56130329e-01f,+8.99844691e-02f,-7.83592761e-02f,+3.60333845e-02f,-5.38234971e-02f,
+8.27479083e-03f,+3.12769145e-01f,+2.80702174e-01f,+2.17527524e-01f,+8.38663206e-02f,
-1.59441773e-02f,+1.57075271e-01f,-2.20839754e-01f,+1.36420086e-01f,-7.45735839e-02f,
-9.25284177e-02f,-2.13806614e-01f,-4.94121686e-02f,+2.01505926e-02f,+1.42749131e-01f,
-1.45836189e-01f,+7.12678283e-02f,-1.85439974e-01f,+1.62686825e-01f,+1.97584052e-02f,
+1.43739551e-01f,+3.92682804e-03f,+1.04422130e-01f,-1.45968422e-01f,-4.27985080e-02f,
+4.84581739e-02f,+7.71003440e-02f,-6.17253259e-02f,-4.64961044e-02f,-1.16344430e-01f,
-4.08763328e-04f,-4.80451882e-02f,+2.96327204e-01f,-2.29290634e-01f,+6.67615160e-02f,
-7.19413906e-02f,-1.08335286e-01f,-3.57220462e-03f,-1.01660565e-01f,+2.21279114e-02f,
-2.09119767e-01f,-1.30616635e-01f,-3.28840792e-01f,-1.41074834e-02f,+1.68422088e-01f,
+1.17262088e-01f,+4.40841801e-02f,-9.12632048e-02f,-1.53378211e-03f,-1.00722820e-01f,
+1.43275604e-01f,+5.56012690e-02f,-1.28869265e-01f,-3.89357418e-01f,+7.74192512e-02f,
-1.72220834e-03f,+2.20797703e-01f,-5.34473360e-02f,-2.89388627e-01f,+2.04358399e-01f,
-1.78665146e-01f,-2.56570160e-01f,+1.40811920e-01f,+2.36697882e-01f,+5.60175069e-02f,
+1.36918768e-01f,-1.54258519e-01f,-1.51906073e-01f,-1.09382086e-01f,+2.85093993e-01f,
-9.30667669e-02f,+8.64680205e-03f,-5.75722940e-02f,-5.29089570e-02f,+1.03118002e-01f,
-1.90285742e-01f,+4.78733182e-02f,+8.61643348e-03f,+1.87301058e-02f,-5.64411730e-02f,
-5.20898700e-02f,-7.49817537e-03f,+1.94372252e-01f,-1.12523511e-01f,+7.17836060e-03f,
-1.30166128e-01f,+1.39508203e-01f,-1.64412692e-01f,-2.66448736e-01f,-4.42055017e-01f,
+2.15774715e-01f,+4.12263349e-02f,+3.58716920e-02f,-1.03901558e-01f,-1.99202076e-02f,
+9.43932012e-02f,-2.28217486e-02f,+9.81684700e-02f,+6.89873323e-02f,-2.67806172e-01f,
+1.47775143e-01f,+1.94865093e-01f,-1.02342576e-01f,+2.67564774e-01f,+2.88055707e-02f,
-2.22940192e-01f,+2.04331562e-01f,+2.20920593e-01f,+1.38948290e-02f,+2.70445049e-01f,
-7.67849560e-04f,+1.85979471e-01f,+1.53099209e-01f,-5.29509084e-03f,+7.38913193e-02f,
-3.53617780e-02f,+2.97432616e-02f,+1.64152667e-01f,+2.09773347e-01f,-1.35457322e-01f,
+1.53342308e-02f,+7.03401417e-02f,-1.06328540e-01f,+8.19066986e-02f,+2.90623695e-01f,
-1.26899602e-02f,+8.60086735e-03f,+1.04480013e-01f,-1.57815292e-01f,-2.48036385e-02f,
+1.07261680e-01f,+7.57004023e-02f,+1.15675382e-01f,+2.45098814e-01f,+1.54950500e-01f,
-1.89963892e-01f,+2.67211169e-01f,-3.52389514e-02f,-1.27418026e-01f,+2.10882485e-01f,
+1.46555737e-01f,+9.03907120e-02f,-2.60845888e-02f,-2.25732848e-01f,-6.31972104e-02f,
+9.24541503e-02f,+1.12211676e-02f,-1.22949360e-02f,-5.89333214e-02f,+2.02383116e-01f,
-7.71130994e-02f,+1.48089200e-01f,+6.24162294e-02f,-6.11591265e-02f,+9.41334590e-02f,
-4.25295206e-03f,+5.44820307e-03f,+1.31193116e-01f,+9.14920196e-02f,+7.57860616e-02f,
+8.26364458e-02f,+6.68959245e-02f,-2.01020479e-01f,+8.40398073e-02f,-1.76012725e-01f,
-6.16493039e-02f,-1.46030366e-01f,-8.33565369e-02f,+1.62754864e-01f,+3.60938758e-01f,
-6.67061657e-02f,+4.83319685e-02f,+1.32891446e-01f,-1.83754247e-02f,-3.32764233e-03f,
+2.08344638e-01f,-1.22758532e-02f,-1.80255026e-01f,+1.09479502e-01f,-3.04689914e-01f,
-8.77296086e-03f,+1.70998853e-02f,+1.14513233e-01f,+3.52111876e-01f,+1.03259347e-01f,
-3.40664655e-01f,+7.89923221e-02f,+3.73164080e-02f,-7.55602494e-02f,+1.36770502e-01f,
+9.26560909e-02f,+1.15758978e-01f,+9.88769680e-02f,+7.21964464e-02f,+2.16842934e-01f,
-6.45913333e-02f,+6.62736893e-02f,-2.60969222e-01f,-3.37879926e-01f,-6.56126579e-03f,
+1.33869629e-02f,-1.91236436e-01f,+2.14350507e-01f,-5.67560717e-02f,+2.84024805e-01f,
-3.80215943e-02f,-1.40615672e-01f,+2.86455033e-03f,-2.52417117e-01f,-9.69889387e-02f,
+7.21966401e-02f,+2.83016860e-01f,-1.31709069e-01f,-1.90645397e-01f,+5.35035767e-02f,
+1.78630561e-01f,-2.78690662e-02f,+1.95001915e-01f,+3.19594070e-02f,-3.54206413e-01f,
-3.57113540e-01f,+2.17350230e-01f,+3.25754404e-01f,+1.91249363e-02f,+6.42493516e-02f,
+2.55812764e-01f,-6.55405000e-02f,-2.59441257e-01f,+1.60452649e-01f,-1.23626322e-01f,
+2.39627615e-01f,+2.97862411e-01f,+2.90381938e-01f,+2.26149157e-01f,+5.60257062e-02f,
+2.44860083e-01f,+1.47608861e-01f,+4.13864583e-01f,-6.38771206e-02f,+1.20141089e-01f,
+4.15722877e-02f,-2.71823648e-02f,-1.57952309e-01f,-1.52415251e-02f,+8.73421431e-02f,
+1.13567859e-01f,+1.08278833e-01f,+1.34880841e-01f,+2.72641510e-01f,+1.45232439e-01f,
-9.24760625e-02f,+1.66326374e-01f,+1.48484215e-01f,-3.68497446e-02f,-2.73072310e-02f,
-3.10055260e-02f,+2.61249393e-01f,-3.30998600e-02f,-8.58531967e-02f,+2.04534978e-01f,
-6.41077980e-02f,+6.43808991e-02f,+3.59264702e-01f,+4.31692339e-02f,+2.24729121e-01f,
+1.99571937e-01f,+1.61440179e-01f,+9.61346701e-02f,+8.12975168e-02f,+1.96085516e-02f,
+1.84961379e-01f,-6.61483556e-02f,+3.66407633e-01f,+2.10990701e-02f,+7.18787611e-02f,
+2.12762251e-01f,+1.32014364e-01f,+2.65283614e-01f,+5.47313131e-02f,+1.19207121e-01f,
-1.87431946e-01f,+5.10782562e-02f,+8.82691443e-02f,-1.60384759e-01f,+1.16139330e-01f,
+3.52344900e-01f,+1.14338726e-01f,-1.22862726e-01f,+3.81118804e-02f,+1.19173946e-02f,
-1.01862729e-01f,+3.05782795e-01f,-6.47204891e-02f,-1.64464191e-01f,-1.96347430e-01f,
-1.33717448e-01f,-2.64796525e-01f,+1.97799340e-01f,+4.23129380e-01f,+3.24358672e-01f,
+1.33371919e-01f,-1.08076304e-01f,-1.31045356e-02f,+1.17810309e-01f,+4.85512689e-02f,
-8.55092332e-02f,-8.67712125e-02f,-8.76562968e-02f,-2.83089936e-01f,-3.42584252e-02f,
-1.21580057e-01f,-1.89683497e-01f,+2.01253936e-01f,-2.30761766e-01f,+2.15084597e-01f,
-7.56270811e-02f,-8.39034244e-02f,+1.73353598e-01f,+1.67634934e-01f,-4.58269268e-02f,
-6.57653809e-02f,-2.46157572e-01f,+1.71008438e-01f,-1.12358332e-01f,+1.37811810e-01f,
+1.64259627e-01f,-6.78179488e-02f,-5.03431484e-02f,+1.11398548e-01f,+1.28298014e-01f,
+2.19327196e-01f,+1.36668518e-01f,-1.74951106e-01f,+1.63746625e-01f,+1.51064485e-01f,
+2.81421632e-01f,+8.39950740e-02f,+1.54270276e-01f,-6.64367899e-02f,+3.30356359e-01f,
+5.38678244e-02f,+2.04669073e-01f,+9.31054428e-02f,+1.01340160e-01f,-1.09364174e-01f,
-9.94096026e-02f,+2.84566786e-02f,-2.69726645e-02f,+8.85747895e-02f,-6.83322549e-02f,
+5.05517982e-02f,-2.44727135e-02f,+6.22100532e-02f,-8.16448554e-02f,-3.63393612e-02f,
-9.12553445e-03f,+1.07121512e-01f,+7.35063925e-02f,-1.91143472e-02f,+2.45064241e-03f,
-2.38306932e-02f,-2.69191772e-01f,-1.80892237e-02f,-2.70026565e-01f,+1.25219464e-01f,
+3.13749164e-01f,+1.72912970e-01f,-5.16293347e-02f,+8.02749991e-02f,-3.44057828e-01f,
-1.99895874e-01f,+1.69491366e-01f,+1.07902158e-02f,-1.13119900e-01f,+1.03615485e-01f,
+4.33137238e-01f,-3.88146549e-01f,+1.71286404e-01f,+5.55095933e-02f,-2.65843958e-01f,
+2.29797084e-02f,-1.75106257e-01f,+3.43743622e-01f,-1.21239215e-01f,+3.57175440e-01f,
+1.10598244e-01f,-2.32884139e-01f,-3.21800448e-02f,+1.04793444e-01f,+5.55012226e-02f,
-2.18095824e-01f,+2.00226054e-01f,+2.50805914e-01f,+1.16355173e-01f,+2.14700118e-01f,
+1.81114107e-01f,-5.46804145e-02f,-1.41482279e-01f,+1.25687018e-01f,-8.01446959e-02f,
+6.34362549e-02f,-2.20681325e-01f,+1.23728923e-01f,-1.49692968e-01f,-3.05512220e-01f,
+3.01610269e-02f,-9.82553661e-02f,+1.84754744e-01f,+1.30580524e-02f,+1.19138964e-01f,
+4.34910357e-02f,+2.38165095e-01f,+1.83320284e-01f,-1.77166127e-02f,+1.69554260e-02f,
+6.68187067e-02f,+2.68077493e-01f,-7.62681514e-02f,-2.36255839e-01f,-4.40289646e-01f,
+2.56645620e-01f,+1.65171996e-01f,+5.48764840e-02f,+1.63135648e-01f,-8.16968903e-02f,
+8.73542577e-02f,-2.23169848e-01f,-5.40697932e-01f,-2.88948298e-01f,+7.99132213e-02f,
-1.17662981e-01f,-1.70451045e-01f,+1.52735800e-01f,-4.25726958e-02f,+2.36611590e-01f,
+1.64789811e-01f,-5.89069091e-02f,+1.16033696e-01f,+6.39443099e-02f,+1.19885691e-01f,
+1.54754922e-01f,-3.27070914e-02f,-4.34085995e-01f,+2.53451522e-03f,-4.98262187e-03f,
-7.70317689e-02f,-1.54195623e-02f,-5.50438613e-02f,-8.84970501e-02f,+1.34855300e-01f,
-4.64177988e-02f,+2.26767790e-02f,+2.27239311e-01f,+2.61572469e-02f,-3.08960468e-01f,
+2.15540767e-01f,+1.60908416e-01f,-1.89349398e-01f,+1.16683751e-01f,-9.97677520e-02f,
+1.87403396e-01f,+1.73879176e-01f,-2.04563856e-01f,+3.22754145e-01f,-1.97563007e-01f,
+2.44722664e-02f,-1.18246071e-01f,+3.87510471e-02f,-1.58609733e-01f,+1.73083618e-02f,
+3.45230736e-02f,+1.82615697e-01f,+2.35852659e-01f,-2.56649435e-01f,-1.73038226e-02f,
+3.34759615e-02f,-9.27194133e-02f,-1.63506925e-01f,+5.10118753e-02f,-7.09835738e-02f,
+3.14859778e-01f,+1.68818444e-01f,+3.33979763e-02f,+3.20153594e-01f,+3.63673568e-02f,
-1.57853365e-01f,+2.14974716e-01f,+1.56487480e-01f,-3.40573154e-02f,+1.27824582e-03f,
-1.39129534e-01f,-1.53786063e-01f,-3.52468751e-02f,-2.63858348e-01f,+4.64779548e-02f,
-2.35551462e-01f,-7.39876702e-02f,+8.52715410e-03f,-3.01290870e-01f,+9.69256386e-02f,
-1.35547131e-01f,-3.26083340e-02f,+2.00842936e-02f,+2.07016602e-01f,-2.77325958e-01f,
-4.83959466e-01f,+1.60104707e-01f,+2.10378636e-02f,+2.27859154e-01f,-6.39493242e-02f,
+6.73639327e-02f,+7.23903403e-02f,-1.36619076e-01f,-4.42649573e-02f,-1.83747604e-01f,
-4.33974266e-02f,+8.06585774e-02f,-7.77984709e-02f,+6.37103990e-02f,+1.32025167e-01f,
+4.49253172e-01f,+7.92735294e-02f,+6.76648021e-02f,+1.56817317e-01f,-3.96779120e-01f,
+2.02171892e-01f,-1.58071294e-01f,-9.09994245e-02f,+1.88001972e-02f,+1.81594521e-01f,
+2.29603536e-02f,+2.15814561e-01f,-3.96052748e-02f,+1.64001547e-02f,-2.98313022e-01f,
+7.31272474e-02f,-8.92628282e-02f,+2.05095783e-01f,+1.51055649e-01f,-6.64767027e-02f,
+1.26199737e-01f,+2.39044368e-01f,-6.71299454e-03f,+6.88707232e-02f,-3.18866879e-01f,
+1.68289915e-01f,-2.74418324e-01f,+1.10234745e-01f,+1.46972919e-02f,-9.45115462e-02f,
+1.98827043e-01f,-3.68574440e-01f,+4.80459072e-03f,+5.12512103e-02f,-1.54398263e-01f,
-1.41767040e-02f,-1.35546044e-01f,+2.70582348e-01f,-7.19798282e-02f,-1.30441025e-01f,
-5.32006659e-03f,-3.80515039e-01f,+1.23609835e-02f,+3.46109748e-01f,-4.49749688e-03f,
-5.44930957e-02f,-2.52156466e-01f,+2.59550866e-02f,+2.37227194e-02f,+1.22860506e-01f,
+1.34492507e-02f,+2.99809009e-01f,+2.91303694e-01f,+3.99815775e-02f,-3.42816770e-01f,
-1.27796590e-01f,+1.88980903e-02f,-9.06037018e-02f,-4.55665812e-02f,+6.32785484e-02f,
-2.48661831e-01f,+1.18730739e-01f,+7.86176473e-02f,-1.04476288e-01f,-3.50722611e-01f,
-1.49964839e-01f,+3.72117728e-01f,+6.03705943e-02f,-9.64167118e-02f,+8.25449750e-02f,
+6.97059557e-02f,-1.45955505e-02f,+1.23682491e-01f,-8.08344930e-02f,-2.02109814e-01f,
-6.03324398e-02f,-4.78907600e-02f,+1.44181317e-02f,-1.83034409e-02f,-7.74605572e-02f,
+1.21472247e-01f,-1.00699119e-01f,+2.11607486e-01f,-1.45594170e-02f,+2.36850381e-01f,
-1.49552181e-01f,+6.97228462e-02f,-3.18309993e-01f,+1.70387134e-01f,-7.34135583e-02f,
-2.13129491e-01f,-4.93575595e-02f,+1.17071562e-01f,-1.57785252e-01f,+1.05081372e-01f,
+2.32420668e-01f,-4.83681746e-02f,+1.50261015e-01f,+6.90120086e-02f,-1.27791420e-01f,
-1.40809109e-02f,+5.60301952e-02f,-1.06482998e-01f,-7.96889737e-02f,+7.74947628e-02f,
-2.21042052e-01f,+2.24060476e-01f,-1.03044175e-01f,-2.55366713e-02f,+2.91926652e-01f,
+1.89011112e-01f,-1.78065732e-01f,+2.73121685e-01f,+1.57608822e-01f,+1.76694632e-01f,
+8.17224849e-03f,+1.25523522e-01f,-1.18924439e-01f,-6.84876591e-02f,+2.89027303e-01f,
+1.79866955e-01f,+7.31156096e-02f,+7.95425773e-02f,+1.63657531e-01f,-2.98932344e-01f,
+4.38356586e-02f,-3.40322070e-02f,-2.01894030e-01f,-8.19607601e-02f,-2.38701135e-01f,
+2.93807775e-01f,-2.71084961e-02f,-2.08294943e-01f,+2.45846227e-01f,-8.76201168e-02f,
-1.52530760e-01f,+3.48201305e-01f,-9.18178707e-02f,+5.10303736e-01f,-2.50758439e-01f,
-2.50965536e-01f,-8.45476314e-02f,+3.80403697e-02f,-5.23704886e-02f,+7.31202736e-02f,
-1.07944449e-02f,-1.20521478e-01f,+9.70526785e-02f,-5.00161275e-02f,-3.78011130e-02f,
+3.63020897e-01f,+2.13975534e-01f,+1.39233291e-01f,+2.09161062e-02f,+3.17470521e-01f,
+1.69796184e-01f,+8.31037611e-02f,+1.93119585e-03f,+1.03831641e-01f,-3.50119084e-01f,
+1.73209570e-02f,-2.48862598e-02f,+9.20094699e-02f,+2.75963187e-01f,+2.09524762e-02f,
-1.93066925e-01f,+4.55000848e-02f,+5.27703226e-01f,-2.89951568e-03f,-9.72284898e-02f,
+2.50826836e-01f,+1.83432937e-01f,+9.22803357e-02f,+2.01031089e-01f,+3.34530830e-01f,
+6.61980659e-02f,+1.10036202e-01f,+8.30658302e-02f,-7.93891847e-02f,+8.37989226e-02f,
+1.83880478e-02f,+1.72171310e-01f,-2.43120361e-02f,+2.38872796e-01f,+2.02576399e-01f,
-1.30952537e-01f,+9.07739699e-02f,-9.80390385e-02f,-6.91284463e-02f,-2.05958471e-01f,
-1.12349033e-01f,+2.08619684e-01f,-9.58144739e-02f,-5.43380268e-02f,-4.34544981e-02f,
+7.62359947e-02f,+7.01288804e-02f,+2.52534114e-02f,-2.22455218e-01f,-4.50087748e-02f,
+3.89389060e-02f,+5.45842111e-01f,+1.82217553e-01f,+1.58824459e-01f,+1.65893078e-01f,
-1.66074947e-01f,-1.79315284e-01f,-5.94130065e-03f,+1.56586036e-01f,+2.31933281e-01f,
+9.47505385e-02f,+2.23721042e-01f,-1.02235839e-01f,-8.13052207e-02f,-2.00169138e-03f,
-5.38989082e-02f,+6.22787587e-02f,-5.75251803e-02f,-1.18974382e-02f,+1.51827633e-01f,
+4.13796276e-01f,+1.01786710e-01f,+1.54502273e-01f,+1.45944804e-01f,+1.27368599e-01f,
+2.22400978e-01f,+2.91547596e-01f,-6.89907223e-02f,+3.84733193e-02f,+1.24590509e-01f,
+9.38346144e-03f,+6.33760616e-02f,-3.50043714e-01f,+3.51874799e-01f,+3.40789184e-02f,
-3.11075412e-02f,+1.41656339e-01f,+8.58117566e-02f,-1.86186969e-01f,+7.19811022e-02f,
-2.94386800e-02f,-3.36330980e-01f,+6.92646429e-02f,-1.96987852e-01f,-1.58195853e-01f,
-5.64191937e-02f,-6.04650117e-02f,+3.63106757e-01f,-1.37831956e-01f,+1.64286137e-01f,
-1.91280067e-01f,-2.00090021e-01f,+1.68098167e-01f,+1.14020728e-01f,+1.91361353e-01f,
-2.30849251e-01f,+6.78241029e-02f,+2.60001749e-01f,-7.98780993e-02f,-6.09419420e-02f,
-2.23041177e-02f,-3.75788100e-02f,-1.22807771e-01f,+1.09152757e-01f,+2.52707154e-02f,
+7.57269785e-02f,+2.14956164e-01f,-1.04417242e-01f,+2.38546938e-01f,-2.36123040e-01f,
+1.46932766e-01f,-4.80041578e-02f,+1.90741107e-01f,+1.63177684e-01f,+1.09741967e-02f,
-2.68015355e-01f,+1.52228370e-01f,+8.68128687e-02f,+2.58737188e-02f,+1.04736947e-01f,
-2.90057480e-01f,+1.39889628e-01f,-1.92610279e-01f,+1.14067711e-01f,+4.34572361e-02f,
+9.64249298e-02f,+1.08623289e-01f,+2.86425184e-02f,+1.63979381e-01f,+3.30167472e-01f,
-3.81938331e-02f,+2.62367159e-01f,-1.41679436e-01f,-2.73490340e-01f,-8.81694853e-02f,
-1.24941163e-01f,+1.70336515e-01f,+7.90839270e-02f,+2.98686028e-01f,+2.17659757e-01f,
+8.82982686e-02f,-1.63689360e-01f,+2.20355690e-01f,+1.58097938e-01f,+3.17782998e-01f,
-7.46256560e-02f,+1.35557160e-01f,+1.89029574e-02f,-1.49280310e-01f,+1.26949083e-02f,
+2.42089853e-01f,-9.18269083e-02f,+1.59663912e-02f,+7.83635154e-02f,-5.79237267e-02f,
+2.05342304e-02f,+1.34578183e-01f,-1.56525016e-01f,+1.25922620e-01f,-4.46723923e-02f,
+5.00870496e-03f,+4.72405702e-02f,-1.75536528e-01f,-6.89727738e-02f,-1.60304710e-01f,
-1.09813444e-01f,-2.81941533e-01f,-9.83221009e-02f,+7.22476989e-02f,-1.19909547e-01f,
-8.80445689e-02f,+1.74425527e-01f,-1.35366261e-01f,-1.65554613e-01f,-1.71193019e-01f,
+7.89875686e-02f,-1.07589193e-01f,+3.72530632e-02f,+7.06965923e-02f,+4.50499132e-02f,
-8.24467242e-02f,+2.32323825e-01f,+1.31476164e-01f,-7.84201473e-02f,-4.21683371e-01f,
-1.85565740e-01f,+2.09157914e-01f,+2.39706356e-02f,+8.61631334e-02f,-2.97395557e-01f,
+6.29935786e-02f,+1.03451677e-01f,+2.26063669e-01f,+1.01111360e-01f,-8.25021863e-02f,
-3.54953557e-02f,-2.35378161e-01f,+1.43014029e-01f,-1.46624446e-01f,+1.93916216e-01f,
-9.74058583e-02f,-3.78364064e-02f,-6.13056794e-02f,+1.14353225e-01f,-1.46646410e-01f,
-6.95616473e-03f,+3.95821631e-02f,+4.57294881e-02f,-4.08976451e-02f,-2.60732114e-01f,
+6.61966130e-02f,+3.00832927e-01f,+2.92328775e-01f,-2.87117660e-01f,+4.25684415e-02f,
-1.57458618e-01f,-2.33296558e-01f,-2.20374987e-01f,+5.31159621e-03f,+1.64756969e-01f,
+1.02689393e-01f,+1.22795060e-01f,-2.09881477e-02f,+2.56210089e-01f,+4.83156601e-03f,
-1.40211522e-03f,+1.85897157e-01f,-2.76061058e-01f,-3.76500696e-01f,+3.40466589e-01f,
+9.02295858e-02f,+5.21498680e-01f,-1.36078060e-01f,-2.19713569e-01f,+3.36591929e-01f,
-2.41602048e-01f,+1.05664432e-01f,-1.22465819e-01f,+1.85934491e-02f,-2.53125131e-02f,
+2.92291522e-01f,+2.88285404e-01f,+1.70318216e-01f,+1.84040055e-01f,+8.76766145e-02f,
-1.70162752e-01f,-1.43811390e-01f,-1.07181840e-01f,-6.76627159e-02f,+1.37515709e-01f,
-1.33780062e-01f,-1.16522059e-01f,-1.12419643e-01f,+7.07781389e-02f,+1.11427031e-01f,
+6.92137778e-02f,-3.08190048e-01f,-2.72125900e-01f,+7.23905638e-02f,-6.67819334e-03f,
+1.13507107e-01f,+2.06418380e-01f,-1.98047400e-01f,-4.03010845e-02f,+9.78582650e-02f,
+1.50552643e-02f,+1.17785133e-01f,+2.44162664e-01f,-1.87835023e-01f,+1.79641470e-02f,
-1.14040978e-01f,-7.04946294e-02f,+3.86773616e-01f,+4.62362207e-02f,-5.05705401e-02f,
-1.94459334e-01f,-1.82248652e-01f,-8.03751424e-02f,-2.11269200e-01f,-7.68924654e-02f,
+5.98651506e-02f,+3.98575775e-02f,-1.45593360e-02f,-3.67981866e-02f,+2.42678486e-02f,
+8.42584074e-02f,+1.64743647e-01f,-4.00722213e-02f,-5.70473894e-02f,+2.57770568e-01f,
+3.74697983e-01f,+1.26496032e-01f,-5.93894534e-02f,+1.01851188e-01f,+2.18384549e-01f,
+2.02527672e-01f,-2.39724636e-01f,+1.04620777e-01f,+4.46412295e-01f,-1.72387078e-01f,
-5.97154722e-02f,+2.59868979e-01f,-1.40177235e-01f,+2.66302288e-01f,+1.65185258e-01f,
+3.71789664e-01f,-1.40300378e-01f,+1.64443776e-01f,-1.55794919e-01f,-6.74552619e-02f,
+2.87129104e-01f,+1.76152840e-01f,+5.59455389e-03f,+2.04040080e-01f,+3.33749026e-01f,
+4.79411818e-02f,-3.44819039e-01f,+1.27236843e-01f,+2.72843063e-01f,-2.98672039e-02f,
-2.38580197e-01f,+5.11735938e-02f,+1.70500770e-01f,+1.66042224e-01f,+2.54158437e-01f,
+2.84858793e-01f,+3.26143384e-01f,-2.10788101e-01f,-8.70294049e-02f,+1.89745113e-01f,
+1.47935199e-02f,+1.02661066e-01f,+7.92084448e-03f,-3.05191666e-01f,+3.20632644e-02f,
-1.07224301e-01f,-2.31570959e-01f,-4.14947271e-01f,+4.19199653e-02f,+3.56307457e-04f,
-7.80564025e-02f,-1.93103388e-01f,+8.61159787e-02f,-1.19139895e-01f,+5.81295183e-03f,
+1.65425725e-02f,-1.61995962e-02f,-6.07984625e-02f,+1.84629440e-01f,-1.13586493e-01f,
-1.27069235e-01f,+1.45606101e-01f,-3.95572990e-01f,+2.36948401e-01f,+1.67196438e-01f,
-2.88026631e-01f,-4.16996144e-02f,-1.49900436e-01f,+6.56654174e-03f,+4.25620437e-01f,
+1.94191653e-02f,-2.20225216e-03f,+2.42000565e-01f,+6.23734832e-01f,-1.37533128e-01f,
-3.74491848e-02f,+2.22723916e-01f,+4.75291945e-02f,+1.20474800e-01f,-5.43319527e-03f,
-2.00268969e-01f,-6.27090037e-02f,+1.45834833e-01f,+2.49598011e-01f,+5.37619181e-02f,
-2.61906236e-01f,-9.09629390e-02f,+1.37965158e-01f,+1.37015611e-01f,-5.90313710e-02f,
+1.10275261e-01f,+9.14236456e-02f,+1.85666755e-01f,-3.39134395e-01f,-1.45431280e-01f,
+1.52830705e-01f,-6.49727285e-02f,-2.45562308e-02f,+4.26111259e-02f,-2.45318279e-01f,
-2.65098035e-01f,+3.16652060e-02f,-2.43982166e-01f,+3.03613693e-01f,-2.42499948e-01f,
+7.19754621e-02f,-2.26187378e-01f,-1.24353334e-01f,+2.14825898e-01f,+1.68842390e-01f,
+2.32847477e-03f,-4.17200238e-01f,-3.48657719e-03f,-1.87988188e-02f,+2.24980429e-01f,
+4.97134924e-02f,-2.92465091e-02f,+4.22970027e-01f,-1.66229419e-02f,-1.72699362e-01f,
-1.76931500e-01f,-2.50172615e-01f,+1.49258897e-01f,+1.57662407e-01f,+2.51497090e-01f,
-3.12710777e-02f,-2.84910593e-02f,+2.73105055e-01f,+3.57212648e-02f,-5.45738302e-02f,
+7.26504177e-02f,+1.04743667e-01f,-3.97516862e-02f,-1.88281864e-01f,+3.32268924e-01f,
+1.28668388e-02f,+1.08321674e-01f,-5.06786741e-02f,-2.12952018e-01f,-7.95301050e-02f,
+9.93843079e-02f,+7.97352195e-02f,-6.77627996e-02f,-4.96671498e-02f,+2.07376689e-01f,
+6.15754351e-02f,+4.01224136e-01f,+6.03665598e-02f,+6.71549067e-02f,-1.46897927e-01f,
-3.82703878e-02f,-1.83135748e-01f,-7.24200681e-02f,-2.33612269e-01f,+1.42497092e-01f,
+1.23374267e-02f,-1.94815882e-02f,+4.99838591e-02f,+3.65497470e-02f,-3.52243066e-01f,
-2.41572261e-02f,-1.49773762e-01f,-1.43235624e-02f,+7.91044906e-03f,-5.62712492e-04f,
-2.49768257e-01f,-1.56546697e-01f,-2.15907082e-01f,+1.41254738e-01f,+2.02332363e-02f,
-1.23098798e-01f,+5.73486127e-02f,+3.98204604e-04f,-1.24781504e-01f,-1.05955251e-01f,
+5.11968601e-03f,-5.41331507e-02f,-7.64080733e-02f,+1.58042058e-01f,+2.09386677e-01f,
-2.67638206e-01f,-1.26592711e-01f,-9.11439806e-02f,-1.45319015e-01f,-1.83140069e-01f,
+1.58036593e-02f,-1.86678395e-01f,-2.45738886e-02f,+1.14836745e-01f,-1.61057740e-01f,
+1.95985734e-01f,+1.09568842e-01f,+2.74822372e-03f,-1.19816758e-01f,+8.44673216e-02f,
-6.68424666e-02f,-1.27098158e-01f,-1.00004025e-01f,+1.66689575e-01f,-4.31610383e-02f,
+4.30786889e-03f,+1.93717435e-01f,-1.73332602e-01f,+8.19329992e-02f,-2.59300739e-01f,
-1.02876522e-01f,+1.37974918e-01f,+6.03031926e-02f,+3.60779852e-01f,-1.73890255e-02f,
-8.11321959e-02f,+1.62162170e-01f,-1.08894110e-01f,+5.61198592e-03f,-1.30901188e-01f,
-2.85001040e-01f,-2.29516730e-01f,+7.30809271e-02f,+2.13641915e-02f,+4.01666224e-01f,
-1.82186782e-01f,-6.05150647e-02f,-5.60039021e-02f,+4.54784930e-01f,+4.30108793e-02f,
-9.94978100e-03f,-1.52995274e-03f,+1.57079265e-01f,-2.25926369e-01f,+4.45061862e-01f,
+1.93816841e-01f,-1.31789083e-02f,-3.24248224e-02f,-2.85721757e-03f,+2.70658303e-02f,
+6.50623366e-02f,+3.39433178e-02f,-1.65375546e-01f,+2.43249923e-01f,-2.02736765e-01f,
-6.41864166e-02f,-2.56447732e-01f,+4.07881550e-02f,+2.98435301e-01f,+2.96003193e-01f,
+1.86616946e-02f,-1.90631077e-01f,+1.36259943e-01f,-1.90271497e-01f,+6.31237105e-02f,
-3.46742496e-02f,+1.77467898e-01f,-3.45210522e-01f,+1.20394774e-01f,-7.31339082e-02f,
+2.20369641e-02f,-3.89827609e-01f,-4.44502383e-02f,-9.40365251e-03f,-2.59482116e-02f,
-2.18252659e-01f,+1.45447776e-01f,-5.37032112e-02f,+1.35552377e-01f,+1.15274735e-01f,
+4.77179028e-02f,+1.09278999e-01f,-1.49569169e-01f,+8.34441483e-02f,+2.37862021e-01f,
+1.38487041e-01f,-1.08026043e-01f,-4.44403961e-02f,+4.69608791e-02f,+9.43001881e-02f,
-1.31105825e-01f,-2.05942050e-01f,-2.81043082e-01f,-1.01010427e-01f,+4.64898907e-03f,
-1.11530066e-01f,-2.94523984e-01f,+1.31646395e-02f,-1.58907905e-01f,-1.13581240e-01f,
+1.76136523e-01f,+1.41249105e-01f,-1.36698365e-01f,+3.34515199e-02f,-6.92265853e-02f,
+6.47745505e-02f,-1.59881581e-02f,+2.78584689e-01f,-9.88363475e-02f,-2.73933671e-02f,
+1.42288044e-01f,+1.28257319e-01f,+5.47192916e-02f,-9.11522210e-02f,-7.60111362e-02f,
-1.91288814e-01f,-2.84656938e-02f,+1.17446870e-01f,+2.76352782e-02f,+1.73796877e-01f,
+3.79837416e-02f,+2.94324815e-01f,-1.85418874e-01f,-1.42933975e-03f,-9.71372612e-03f,
+1.37725845e-01f,+6.76271841e-02f,+6.47728443e-02f,+1.49439782e-01f,-2.77342439e-01f,
-1.68795019e-01f,+1.99968129e-01f,+5.20343259e-02f,-1.02669768e-01f,+2.69469172e-01f,
+1.73609301e-01f,-1.07299149e-01f,+1.44734278e-01f,+1.90349847e-01f,-3.68206501e-02f,
-2.38473676e-02f,+1.08690061e-01f,-6.12182356e-02f,-4.13778096e-01f,+9.95347276e-02f,
+3.47282141e-01f,+7.83111900e-02f,-1.41386762e-01f,+2.74882406e-01f,+2.13794976e-01f,
+2.02608302e-01f,-2.08550226e-02f,-1.96995661e-01f,+3.67383599e-01f,-3.24748069e-01f,
+1.25493869e-01f,+3.27779353e-02f,-1.27585098e-01f,+7.06994385e-02f,-1.70130908e-01f,
-7.82434419e-02f,+1.24567814e-01f,-8.41505006e-02f,-1.78465754e-01f,-2.14813218e-01f,
+2.52492845e-01f,-1.39594777e-02f,-1.27974749e-01f,-3.37455213e-01f,-3.45455199e-01f,
-2.66423095e-02f,+1.70903981e-01f,-1.82997301e-01f,+8.88503119e-02f,+9.60017517e-02f,
+8.51413906e-02f,+1.11155771e-01f,+4.47453968e-02f,-1.19209290e-01f,+3.42003435e-01f,
+2.54326850e-01f,-2.46196892e-02f,+1.32535055e-01f,-1.61394551e-01f,+3.45710963e-02f,
+1.44113645e-01f,+8.72367918e-02f,+2.15179846e-02f,+1.01383589e-01f,+1.23422675e-01f,
-9.57659036e-02f,-1.62748411e-01f,-2.83452552e-02f,-1.65084034e-01f,+1.77793056e-01f,
+1.13262281e-01f,+6.31972849e-02f,+3.28617916e-02f,+1.21180139e-01f,+1.79352358e-01f,
+2.32936114e-01f,+7.96930119e-02f,+8.16075727e-02f,+1.89544950e-02f,+1.96157739e-01f,
-4.44526523e-02f,-1.55283362e-01f,+1.40538365e-01f,+1.43758789e-01f,+1.17752902e-01f,
-1.42208323e-01f,+7.26533234e-02f,-9.93609875e-02f,-1.57272682e-01f,+3.17316130e-02f,
+4.65024859e-02f,+4.28260177e-01f,-9.58902165e-02f,+1.98696539e-01f,-5.82603067e-02f,
+2.57212758e-01f,-1.12362340e-01f,+3.31254378e-02f,-1.04537323e-01f,+3.75792712e-01f,
-8.03880766e-02f,-2.06636921e-01f,+1.32439837e-01f,+1.00224121e-02f,-2.08687857e-01f,
+1.64300688e-02f,-5.36635704e-02f,-9.14038420e-02f,+6.77430853e-02f,+3.69649202e-01f,
-8.62917379e-02f,+1.55179545e-01f,+1.27968211e-02f,+6.77743480e-02f,+2.63026595e-01f,
+2.58855999e-01f,+2.28354439e-01f,+3.29633534e-01f,-1.29381627e-01f,+2.96205208e-02f,
+1.43535405e-01f,+8.84718373e-02f,-1.12815402e-01f,-1.29014671e-01f,-1.37232221e-03f,
+1.97101370e-01f,+1.06502876e-01f,-7.47630969e-02f,-1.69936344e-01f,+1.63874794e-02f,
+6.43141717e-02f,-7.31834620e-02f,+1.17773913e-01f,+3.97952348e-02f,+2.09150583e-01f,
-7.55850300e-02f,-1.84802204e-01f,+1.74679399e-01f,-1.66881919e-01f,-5.74931093e-02f,
+1.95886239e-01f,-1.30890608e-01f,-1.61960393e-01f,+1.21964201e-01f,+1.67691216e-01f,
+4.92017083e-02f,+1.69800952e-01f,+1.45202935e-01f,+1.32762529e-02f,-1.99159607e-02f,
-2.15647463e-02f,-9.58357230e-02f,-7.41153909e-03f,-3.64620872e-02f,-3.31226662e-02f,
+1.72809720e-01f,-4.93227579e-02f,+4.80934799e-01f,+1.26924619e-01f,+2.41126418e-01f,
-9.36826970e-03f,+7.56944194e-02f,-9.31116939e-03f,-2.26396605e-01f,-8.23539775e-03f,
+7.08708912e-02f,+3.50010753e-01f,+2.60703981e-01f,-4.08376276e-01f,-1.14386426e-02f,
+1.93330005e-01f,-1.12797700e-01f,-2.78692752e-01f,+2.93647766e-01f,-8.11012089e-02f,
+9.71063375e-02f,+2.94096708e-01f,-2.11030822e-02f,+9.51292634e-04f,+2.20096558e-01f,
-1.22011505e-01f,-1.00829177e-01f,-4.99494039e-02f,-2.57736802e-01f,+3.04293275e-01f,
-3.43715012e-01f,+1.86162680e-01f,+1.39582038e-01f,+3.59959930e-01f,-5.16836904e-02f,
+8.96731690e-02f,+2.55746514e-01f,+1.92978814e-01f,-5.97391799e-02f,+3.73977982e-02f,
-1.69812813e-01f,+1.59921467e-01f,+2.01165423e-01f,+2.64223307e-01f,+2.75578380e-01f,
+2.00432062e-01f,+1.29787952e-01f,-1.49079278e-01f,-9.46283489e-02f,-4.91404943e-02f,
-1.36881411e-01f,-3.15954946e-02f,+1.78790152e-01f,+1.28430665e-01f,-9.29917675e-03f,
+3.97566939e-03f,+9.24991518e-02f,-1.26111627e-01f,+2.03712299e-01f,+5.06900214e-02f,
+1.59840107e-01f,-1.59595326e-01f,+1.02032349e-01f,-2.92390913e-01f,-2.64747351e-01f,
+2.79837042e-01f,+1.46438293e-02f,-1.78909093e-01f,+8.12448114e-02f,+5.37134148e-02f,
-1.08406223e-01f,-3.24135497e-02f,-2.54817486e-01f,+2.78813064e-01f,+4.14876133e-01f,
-3.70073736e-01f,+4.57362831e-02f,-1.30171970e-01f,-3.22791815e-01f,-1.22904189e-01f,
-2.37202004e-01f,-1.54174030e-01f,-2.14512348e-02f,-3.98261398e-02f,+1.27934739e-01f,
+1.76324263e-01f,-1.40327528e-01f,+2.74435192e-01f,-7.72022381e-02f,+1.38996363e-01f,
-1.11808300e-01f,+2.77997786e-03f,-5.04744351e-02f,+5.42855159e-05f,-1.88880175e-01f,
+1.58795878e-01f,+2.85668001e-02f,-1.84820607e-01f,-1.31765217e-01f,+1.55304223e-01f,
+1.50127277e-01f,+1.84941709e-01f,-2.92926971e-02f,+6.76782355e-02f,+1.81935415e-01f,
+1.86276451e-01f,+2.78932512e-01f,+1.64096773e-01f,-8.49182904e-02f,-2.84190655e-01f,
-9.41387042e-02f,-2.60659784e-01f,-3.17447364e-01f,-3.02917689e-01f,-4.48141545e-02f,
+8.26359242e-02f,-4.33466733e-02f,+1.11547761e-01f,+1.77333802e-01f,+1.45598441e-01f,
+1.52037531e-01f,-6.91280374e-03f,+2.70351600e-02f,+8.26906040e-02f,+1.99166294e-02f,
-1.63878977e-01f,-9.43822190e-02f,-6.89720511e-02f,-2.00505927e-01f,-1.16964296e-01f,
+1.27063707e-01f,+2.16951384e-03f,-2.55381405e-01f,+1.20344102e-01f,+2.52900958e-01f,
-2.03658402e-01f,+4.08131480e-02f,+9.62997377e-02f,-1.01355202e-02f,+6.25435635e-02f,
+8.64142105e-02f,+8.48692283e-02f,+1.96996525e-01f,+2.98852861e-01f,-5.40595688e-02f,
-1.63669840e-01f,+7.32142925e-02f,-5.83718941e-02f,-9.14441571e-02f,+4.92484635e-03f,
+2.53194928e-01f,+1.28267789e-02f,+6.37606606e-02f,+2.10478846e-02f,+1.30998164e-01f,
-4.24239924e-03f,-1.50697172e-01f,-5.59267141e-02f,+1.70840323e-01f,+5.26020452e-02f,
+1.59836318e-02f,+1.14288278e-01f,-2.20113918e-01f,+1.66946650e-01f,+2.48903111e-01f,
+4.31136400e-01f,+1.79123208e-01f,-6.18686005e-02f,+1.38856560e-01f,-2.28906170e-01f,
+2.67074555e-02f,+4.29390520e-02f,+8.60657394e-02f,+8.91988799e-02f,+3.33315939e-01f,
+2.63343513e-01f,-2.08754703e-01f,+1.97723918e-02f,+2.88238168e-01f,-7.28084743e-02f,
+6.41666129e-02f,-1.31466478e-01f,+1.38661832e-01f,-1.44890890e-01f,-2.77897209e-01f,
+9.52868685e-02f,+9.41547155e-02f,-1.78254798e-01f,+4.06430930e-01f,-2.22941384e-01f,
-8.05431157e-02f,+3.18865627e-02f,+8.50103516e-03f,+1.51356488e-01f,+1.20374344e-01f,
+2.94059664e-01f,+4.77155447e-02f,+7.77969211e-02f,+1.19656809e-01f,+1.66045994e-01f,
-5.61453812e-02f,+2.56542265e-01f,+1.69258714e-01f,-2.73288302e-02f,+7.15080351e-02f,
+1.38573647e-01f,+4.67466004e-02f,+5.96356131e-02f,+2.26995751e-01f,-7.27773160e-02f,
-2.53514081e-01f,+1.84602905e-02f,+3.51777896e-02f,+3.22643608e-01f,+1.50884494e-01f,
-1.35164425e-01f,+2.05540895e-01f,+9.65176597e-02f,-1.69834822e-01f,+2.26905555e-01f,
-7.83146769e-02f,+2.57510953e-02f,+3.39621841e-03f,-2.55972713e-01f,-8.93533975e-02f,
-1.21845752e-02f,+8.72562081e-02f,-3.72889591e-03f,+2.49342561e-01f,+6.94568381e-02f,
+8.79635960e-02f,+2.17865884e-01f,-1.35197908e-01f,+9.62606892e-02f,+2.23799944e-02f,
+2.57480025e-01f,+9.18184593e-02f,-6.65681660e-02f,+2.55365759e-01f,+8.29173103e-02f,
+2.47317076e-01f,-4.73328799e-01f,+4.39473949e-02f,+1.80403903e-01f,-2.02787463e-02f,
-3.09749901e-01f,-9.47897732e-02f,-2.34460324e-01f,-9.72695369e-03f,+1.01591729e-01f,
+2.10961148e-01f,-7.31894374e-02f,-5.84818870e-02f,-3.11040878e-02f,+2.92955898e-02f,
+8.87673348e-02f,+1.66473255e-01f,+4.80696373e-02f,+3.23514044e-02f,-2.33481348e-01f,
-4.17946130e-01f,+1.75769746e-01f,-1.39449211e-02f,-8.54184479e-02f,+3.99595022e-01f,
-6.29065409e-02f,-1.28692379e-02f,+2.22534835e-01f,+2.05622241e-01f,-1.68816194e-01f,
+3.22547615e-01f,-2.35358323e-03f,+8.76718387e-03f,+2.83063710e-01f,+3.47764999e-01f,
-1.80573791e-01f,-5.11116944e-02f,-2.82289623e-03f,-1.27817556e-01f,-3.29891145e-01f,
-9.40848440e-02f,-1.90538511e-01f,+7.70783750e-03f,+1.09140098e-01f,+1.61473174e-02f,
+2.58665651e-01f,-1.72969371e-01f,-4.57488269e-01f,-6.73702061e-02f,-1.05797775e-01f,
-2.36677349e-01f,+1.22844934e-01f,+3.31465807e-03f,+3.03021878e-01f,-5.10874167e-02f,
-5.23480959e-03f,+1.62154242e-01f,-8.34152102e-02f,+5.60445227e-02f,+4.42360550e-01f,
-1.21600568e-01f,-1.16057895e-01f,+1.00482501e-01f,-1.59979552e-01f,-4.81179878e-02f,
-1.21034607e-01f,+1.04104117e-01f,+3.46482724e-01f,-2.48642489e-01f,-3.34149867e-01f,
+1.81371927e-01f,+6.21261299e-02f,+3.11857373e-01f,-9.20085460e-02f,+1.47557318e-01f,
-1.84633389e-01f,+7.45538324e-02f,-2.24038556e-01f,-2.05509782e-01f,+9.04435888e-02f,
-4.18476105e-01f,-2.23072365e-01f,+1.52859941e-01f,+3.40974610e-03f,-2.95609295e-01f,
-5.58571378e-03f,-6.27958551e-02f,-2.17453137e-01f,-4.12858697e-03f,-4.32508588e-02f,
+1.09257266e-01f,-2.32446864e-02f,-1.85741708e-02f,-1.67525396e-01f,-2.36801267e-01f,
+1.62872986e-03f,-3.44423831e-01f,+8.22231323e-02f,-3.27359624e-02f,-1.87916368e-01f,
+2.83122987e-01f,+2.25612640e-01f,-1.78367466e-01f,+4.17528033e-01f,+3.03674698e-01f,
-1.14838993e-02f,-2.63156235e-01f,-1.70888424e-01f,-1.23279102e-01f,-1.13366663e-01f,
-1.42543957e-01f,+2.09446222e-01f,-5.63998185e-02f,-3.95138189e-02f,-1.52780920e-01f,
-2.19474807e-01f,+3.15184072e-02f,-2.48234645e-02f,-1.09345578e-01f,+1.33074746e-01f,
+8.62009376e-02f,+1.11226648e-01f,+2.32681528e-01f,-1.21801766e-02f,+6.74738735e-02f,
+2.37268969e-01f,-3.80640388e-01f,-1.05173342e-04f,-8.21067300e-03f,-1.70259774e-01f,
-8.21796283e-02f,+1.17883086e-01f,+7.94673711e-02f,+3.85930240e-01f,+6.81226179e-02f,
+1.94707707e-01f,+2.82713562e-01f,+1.16269231e-01f,+7.26677999e-02f,-1.52893111e-01f,
-2.66978085e-01f,-1.18474187e-02f,-1.62025467e-01f,+8.50825310e-02f,+1.54384539e-01f,
-4.76489961e-02f,+2.03424007e-01f,+3.00714612e-01f,+1.50238186e-01f,-1.52351484e-01f,
+5.12981676e-02f,-7.73859695e-02f,+1.77955911e-01f,+1.07989505e-01f,-6.71310946e-02f,
-2.27119420e-02f,-2.75253113e-02f,+4.81174849e-02f,+1.41995788e-01f,+7.46690109e-02f,
-6.05007727e-03f,-1.46953240e-01f,+1.65095508e-01f,+1.31173521e-01f,-2.10752711e-01f,
+2.73187291e-02f,+2.43569445e-02f,-5.97825125e-02f,-1.18812919e-01f,+2.49650672e-01f,
+1.37372628e-01f,-2.66603678e-01f,+9.18507054e-02f,-2.29252309e-01f,-1.24272659e-01f,
+1.32938385e-01f,-3.02573711e-01f,+4.20982063e-01f,-1.24729633e-01f,+2.75398374e-01f,
+2.89012659e-02f,+6.56361924e-03f,-1.65735688e-02f,+1.17061414e-01f,-8.27620029e-02f,
-8.33559409e-02f,+6.41285032e-02f,-2.88999915e-01f,+1.84095249e-01f,-1.80053830e-04f,
+7.69973844e-02f,-1.99434474e-01f,+1.42910019e-01f,+5.48837125e-01f,-3.51632655e-01f,
+1.61670804e-01f,+4.25745040e-01f,+4.67399538e-01f,-1.14272334e-01f,-2.04113469e-01f,
+8.78775045e-02f,-1.11488000e-01f,+2.30828464e-01f,+1.11544132e-01f,-4.97676097e-02f,
-1.63760319e-01f,-1.59045145e-01f,+1.52006775e-01f,-5.01871482e-02f,-2.71919984e-02f,
+1.21614605e-01f,+7.61831179e-02f,+1.88808233e-01f,+2.33401880e-01f,+9.24040377e-02f,
+2.27703825e-01f,+2.13114377e-02f,-1.85546383e-01f,+1.54514372e-01f,+1.41066611e-01f,
+7.77056143e-02f,+1.71139017e-01f,-1.25245482e-01f,-9.30989757e-02f,+8.79105739e-03f,
-2.88747340e-01f,+1.65145978e-01f,-1.98964149e-01f,+2.07493156e-01f,+2.34581232e-01f,
-3.89294833e-01f,+4.96173464e-02f,+1.39050826e-01f,+8.90643708e-03f,-1.38568327e-01f,
+1.80553526e-01f,+5.65052778e-02f,+2.28383183e-01f,+2.52429187e-01f,+1.83216438e-01f,
+3.26427311e-01f,+1.51174814e-01f,-2.88291723e-02f,+1.99165791e-01f,-2.54619606e-02f,
+6.39606193e-02f,+2.30028614e-01f,-1.46912888e-01f,-5.87255694e-02f,-2.62568027e-01f,
-4.74486016e-02f,+1.66671202e-01f,-2.45504737e-01f,+1.36332974e-01f,-1.20352425e-01f,
+1.36662886e-01f,-2.84141991e-02f,+1.88394338e-02f,-5.15723974e-02f,-2.44367883e-01f,
+4.31496680e-01f,+2.08025098e-01f,+1.41291201e-01f,+1.59565568e-01f,-6.98430464e-02f,
-1.68681294e-01f,-1.97876558e-01f,-4.12223078e-02f,+3.51618141e-01f,-3.00109051e-02f,
-6.21419102e-02f,-5.73088452e-02f,-3.32619548e-01f,+2.26698089e-02f,+1.48276035e-02f,
-8.75455737e-02f,-1.14578400e-02f,-1.47504449e-01f,-2.27635801e-01f,+1.04669295e-02f,
+2.42877901e-02f,+5.78706674e-02f,-1.03892058e-01f,+1.38267532e-01f,+6.28407821e-02f,
+3.43629606e-02f,+8.52643102e-02f,+1.15826465e-01f,-3.86049822e-02f,-1.37485156e-03f,
-1.63848892e-01f,-6.34194240e-02f,-1.20974571e-01f,+1.50712535e-01f,-1.87534355e-02f,
+9.01569873e-02f,+1.12472892e-01f,+1.70738012e-01f,-1.73170939e-01f,+4.52465177e-01f,
-1.70748919e-01f,+3.64576839e-02f,+1.40548453e-01f,+4.83758263e-02f,-2.75272012e-01f,
-1.23892203e-01f,-5.05253077e-02f,+4.40351367e-02f,+4.05525059e-01f,-1.54531792e-01f,
+1.42612383e-01f,+1.72647849e-01f,-3.34030241e-02f,+1.07381202e-01f,-1.66290164e-01f,
-5.05494699e-02f,+3.08578368e-02f,-1.08522326e-01f,+1.97302893e-01f,-1.68428421e-01f,
+2.43327677e-01f,+1.83537126e-01f,+2.39596963e-01f,+1.90932304e-01f,+1.70179039e-01f,
+3.12929600e-01f,-9.89440605e-02f,-1.75675198e-01f,-6.50003180e-02f,+1.06733300e-01f,
-3.03043760e-02f,+1.78711917e-02f,+1.76357225e-01f,-2.05531031e-01f,-2.39226431e-01f,
-2.46005282e-01f,-5.42597398e-02f,-8.73309895e-02f,-8.56348425e-02f,-8.76481608e-02f,
-1.88295230e-01f,+3.63496393e-02f,+1.86504513e-01f,-4.56520505e-02f,-1.12165354e-01f,
-7.87766948e-02f,+7.85281658e-02f,+1.97693631e-01f,+1.55374229e-01f,-1.92265853e-01f,
-2.47689954e-04f,-5.95271476e-02f,-1.51299298e-01f,+7.99190849e-02f,+2.49966867e-02f,
-1.92015171e-01f,+2.29483354e-03f,+1.19582109e-01f,+6.83569768e-03f,+9.19737816e-02f,
-7.92362317e-02f,+1.48838684e-01f,+1.89545199e-01f,+1.34328499e-01f,-1.49983596e-02f,
+1.11396402e-01f,-7.74528757e-02f,+4.23397124e-02f,-1.75196022e-01f,-1.87374314e-03f,
+2.24454805e-01f,-6.49468079e-02f,-1.27422586e-01f,-1.28307879e-01f,-1.29250020e-01f,
+8.18401277e-02f,+7.60127977e-02f,+8.24391544e-02f,-1.94787577e-01f,-9.19793993e-02f,
-4.58214059e-02f,-3.33964318e-01f,+1.96640745e-01f,-1.71568811e-01f,+2.34015658e-02f,
+2.57909417e-01f,+1.41933382e-01f,+1.86507151e-01f,-7.04245493e-02f,+6.89863935e-02f,
+2.88295835e-01f,+3.21082119e-03f,-1.23097785e-01f,+2.46796459e-01f,-2.27960959e-01f,
-1.12083673e-01f,-1.98539034e-01f,+2.12806538e-01f,-8.17977563e-02f,+1.16178043e-01f,
+1.35493845e-01f,-1.45634308e-01f,+2.24846750e-01f,-7.87841529e-03f,+2.34336182e-01f,
+1.34360790e-01f,-6.64962679e-02f,+4.77201603e-02f,-6.70773163e-02f,+2.39082262e-01f,
-1.64252907e-01f,-1.54211624e-02f,+1.74900681e-01f,-7.59029835e-02f,-5.60833104e-02f,
-6.97124675e-02f,-5.67587614e-02f,-4.67313416e-02f,-9.26600769e-02f,-1.07819222e-01f,
-2.10558437e-02f,+2.24015027e-01f,-3.47089879e-02f,+3.71627621e-02f,-1.85702354e-01f,
-1.62994504e-01f,+6.05597952e-03f,-5.00619002e-02f,-1.33976445e-01f,+3.93861443e-01f,
+2.97957510e-01f,+2.59320229e-01f,-2.81030267e-01f,+4.50054519e-02f,+1.78241715e-01f,
+1.28562734e-01f,+1.80853769e-01f,-5.47106825e-02f,+1.67190626e-01f,+1.53614596e-01f,
-1.30215839e-01f,-2.84396820e-02f,-4.54315916e-02f,+2.10817933e-01f,-1.05966195e-01f,
+1.26917377e-01f,+6.70966581e-02f,+1.39829651e-01f,+1.11354580e-02f,+2.61505488e-02f,
+1.53937647e-02f,+3.51603404e-02f,+1.16988517e-01f,-1.31652892e-01f,-9.30413231e-03f,
+2.26249658e-02f,-1.41418964e-01f,-1.55739903e-01f,-1.82303146e-01f,-4.24044095e-02f,
+7.43099004e-02f,-7.12171122e-02f,-9.66417566e-02f,-1.44208148e-01f,+5.77616841e-02f,
-4.52340357e-02f,+2.38791212e-01f,-1.75152738e-02f,+5.15866987e-02f,+7.28833079e-02f,
+2.10738722e-02f,-1.19138760e-02f,-3.71730737e-02f,-2.02977836e-01f,-9.78947505e-02f,
+1.51679948e-01f,-3.25186476e-02f,+1.59007728e-01f,+1.89407140e-01f,+1.30578905e-01f,
+2.08918527e-01f,-7.81924501e-02f,+7.68267289e-02f,-1.02449417e-01f,+2.90306080e-02f,
+9.35676619e-02f,+1.33720979e-01f,-3.24655652e-01f,+1.13456108e-01f,+2.39736229e-01f,
+1.15337342e-01f,+7.45428428e-02f,+9.01071131e-02f,-2.02579588e-01f,+9.00222978e-04f,
-4.40565422e-02f,-2.03126207e-01f,+1.61008053e-02f,+1.02823026e-01f,+9.34250187e-03f,
+6.24337010e-02f,-9.51376557e-02f,-4.68900912e-02f,-4.89504933e-02f,+2.52090871e-01f,
+5.18839061e-02f,+3.93410213e-02f,+6.91006556e-02f,-9.77408513e-03f,-1.17498018e-01f,
-7.12600052e-02f,-5.21014407e-02f,+1.55450106e-01f,+2.05142274e-01f,-1.38662541e-02f,
+1.90695927e-01f,-5.50174946e-03f,-1.82463482e-01f,+1.71719685e-01f,+1.40850663e-01f,
-1.30642042e-01f,-2.29044016e-02f,-1.59442413e-03f,+5.28114475e-02f,+1.08778097e-01f,
+4.95752096e-02f,-2.98146717e-02f,+2.09068861e-02f,-1.31259216e-02f,+1.31860062e-01f,
+2.13572517e-01f,+3.54461488e-03f,+3.50195587e-01f,-1.62739336e-01f,-1.28615454e-01f,
-6.86218590e-02f,-4.57385816e-02f,+2.03878641e-01f,-1.00212112e-01f,+1.16126008e-01f,
-1.32500112e-01f,+3.06078523e-01f,+3.77514884e-02f,+1.30206794e-01f,+2.12022915e-01f,
-9.93540511e-02f,+3.87064628e-02f,-4.05043475e-02f,-6.37637451e-02f,+6.65596500e-02f,
-9.98503566e-02f,+5.61880395e-02f,-1.58603981e-01f,-1.97489873e-01f,-1.25145242e-01f,
-5.66977113e-02f,-8.84226188e-02f,-8.70710313e-02f,+5.19218408e-02f,-9.89332050e-02f,
-2.25545436e-01f,-2.94122798e-03f,+3.88406776e-02f,-1.85571149e-01f,+1.58063285e-02f,
-5.74998707e-02f,+1.82510719e-01f,-3.99237692e-01f,+1.34341687e-01f,-5.32175712e-02f,
-1.27083510e-01f,+2.19768524e-01f,-1.66519150e-01f,+1.58978909e-01f,+2.46482454e-02f,
+8.31170529e-02f,-2.80426387e-02f,+1.21928833e-01f,+1.81289479e-01f,-9.23656970e-02f,
+1.98876023e-01f,-2.32673530e-03f,-8.27574730e-02f,+9.05960649e-02f,-9.32509676e-02f,
+1.83538437e-01f,-6.91286027e-02f,+1.14350384e-02f,+5.01244068e-02f,-6.72541484e-02f,
+2.72455215e-01f,+1.02737129e-01f,+5.73550835e-02f,-3.74104157e-02f,+1.64993897e-01f,
+2.00814232e-01f,-2.32882202e-01f,+2.21716743e-02f,+1.59070641e-01f,-6.39372766e-02f,
+2.00027958e-01f,+1.44049436e-01f,+3.80821750e-02f,+3.70398790e-01f,-7.24899620e-02f,
+1.31409675e-01f,+1.22558527e-01f,+5.11255935e-02f,+7.29799271e-02f,+2.48136386e-01f,
+8.93571898e-02f,+1.01198107e-01f,-1.74277484e-01f,+3.93694192e-02f,+2.65344195e-02f,
-1.23608917e-01f,+2.26229936e-01f,+1.67814702e-01f,-1.34382486e-01f,-6.30183220e-02f,
+3.09675336e-01f,+9.26700011e-02f,+2.42032647e-01f,+8.75878036e-02f,+3.40587586e-01f,
-1.35697410e-01f,+1.14867523e-01f,+3.09798211e-01f,+9.55672115e-02f,+8.93299803e-02f,
-1.18333369e-01f,-8.14660080e-03f,+2.61599749e-01f,+2.82773584e-01f,+1.29710421e-01f,
+1.47329822e-01f,+1.23103850e-01f,-4.33084443e-02f,-4.24024202e-02f,-2.47181021e-02f,
-1.60182416e-01f,+2.39953905e-01f,-9.47389975e-02f,+1.90514490e-01f,-1.02563202e-02f,
-3.33123021e-02f,+1.57229528e-01f,-7.54319876e-02f,-7.50747323e-02f,-1.74173806e-02f,
+3.13648283e-01f,+2.81668603e-01f,-2.54902035e-01f,+9.66176391e-02f,+1.69601277e-01f,
-2.56246597e-01f,+2.24904552e-01f,+2.33048089e-02f,-2.92892724e-01f,+1.66178823e-01f,
+1.38418794e-01f,+2.29037508e-01f,-1.08645499e-01f,+2.73050070e-01f,-4.52159718e-02f,
-7.16926754e-02f,-1.29241496e-01f,-2.75115043e-01f,+3.35275754e-02f,-2.97124647e-02f,
+6.26610890e-02f,+1.74163245e-02f,-8.02740082e-03f,-5.42668961e-02f,-9.25695300e-02f,
+1.03556179e-01f,+1.79187302e-02f,-1.11689396e-01f,+5.36283925e-02f,-4.96419072e-02f,
+1.30922467e-01f,+3.74057621e-01f,-7.33111948e-02f,-2.70764619e-01f,-3.26008275e-02f,
+2.40628958e-01f,+1.45835653e-01f,-6.64789304e-02f,+2.35041410e-01f,+4.92030419e-02f,
+1.19533077e-01f,-1.58078521e-01f,-3.87493335e-02f,-2.75291968e-02f,-1.06996514e-01f,
+5.79930730e-02f,-6.25147019e-04f,+1.39337033e-01f,+1.40882924e-01f,+7.55943879e-02f,
+2.23526537e-01f,-1.03140041e-01f,-1.22036384e-02f,-7.44078532e-02f,+1.29847512e-01f,
+1.27125084e-01f,+4.69755948e-01f,+4.53184508e-02f,+2.07847327e-01f,-7.65664503e-02f,
-1.43176571e-01f,+3.14554200e-02f,+2.11772710e-01f,-7.37573355e-02f,+2.81318337e-01f,
+5.72021939e-02f,-1.50821134e-01f,+9.16287899e-02f,+1.18017763e-01f,+6.25869930e-02f,
+2.97042966e-01f,-1.71415597e-01f,-1.68652579e-01f,+8.99740830e-02f,-1.32243171e-01f,
+1.77127048e-01f,+3.67656589e-01f,-1.13575526e-01f,+1.30675986e-01f,-4.38800827e-02f,
+2.60669887e-01f,-4.38363515e-02f,-2.24460423e-01f,+8.85062367e-02f,+3.55096683e-02f,
+1.34532750e-01f,+1.28775850e-01f,+8.51302221e-02f,+3.73611115e-02f,+1.78241298e-01f,
-8.36524069e-02f,+1.06894732e-01f,+1.39693111e-01f,-2.03109354e-01f,-1.52588904e-01f,
-1.42770395e-01f,+2.08736926e-01f,-6.46997318e-02f,-2.04164032e-02f,-1.48260295e-01f,
-1.53743684e-01f,-2.14473754e-01f,+1.07991599e-01f,+5.57463348e-01f,-5.27758598e-02f,
-2.12500080e-01f,-2.17513084e-01f,+1.34478599e-01f,+2.24898443e-01f,-1.52247231e-02f,
+4.96063940e-02f,+3.79271358e-01f,-2.72605747e-01f,-2.10471191e-02f,+1.95808858e-01f,
+1.97039559e-01f,-3.50921266e-02f,-3.30819041e-02f,+4.68497798e-02f,+1.50858015e-01f,
+3.17245156e-01f,-9.29640755e-02f,+2.60851113e-04f,+1.30894005e-01f,-1.73387870e-01f,
+1.20723527e-02f,-2.21286580e-01f,-2.52965301e-01f,-7.18916021e-03f,-1.02392428e-01f,
-3.45811576e-01f,-2.04844221e-01f,-3.87488701e-03f,+3.33763771e-02f,+2.45821834e-01f,
-1.03058428e-01f,+8.78591985e-02f,-2.68557340e-01f,-1.08620219e-01f,+1.47621632e-01f,
-1.45282783e-02f,-6.99623972e-02f,-8.64114687e-02f,+1.19604900e-01f,+1.01750702e-01f,
-3.15353930e-01f,+1.46844303e-02f,-8.03297535e-02f,-8.12956970e-03f,+1.35639340e-01f,
+2.67670065e-01f,-6.67004986e-03f,+8.87601003e-02f,-2.78694425e-02f,+6.01253510e-02f,
+3.18490535e-01f,+2.25485638e-01f,-2.17915550e-01f,-2.18630284e-01f,+1.06716789e-01f,
+6.67817742e-02f,+9.78043750e-02f,+5.63468263e-02f,+5.45534715e-02f,-3.58039066e-02f,
-4.98828031e-02f,-2.22270593e-01f,+1.96844727e-01f,+5.71060851e-02f,+5.15957654e-01f,
-4.68657427e-02f,+9.14852023e-02f,+7.51335127e-03f,-2.66050603e-02f,-6.45579994e-02f,
-7.17630386e-02f,-3.12100556e-02f,+2.72874516e-02f,-7.43580163e-02f,-1.20600916e-01f,
+3.60999741e-02f,+2.32566208e-01f,+6.03189282e-02f,-5.16886115e-02f,-5.82709126e-02f,
+2.62914956e-01f,+1.41153604e-01f,-1.19205028e-01f,-3.25533864e-03f,+3.53883319e-02f,
+1.72946677e-01f,-3.35110217e-01f,-6.45328313e-02f,+4.59680408e-02f,+1.75058410e-01f,
+2.52392709e-01f,+2.17136949e-01f,+3.15392427e-02f,-6.13949150e-02f,-1.91926822e-01f,
+9.75340530e-02f,+2.06737846e-01f,+2.00781152e-01f,+9.82470959e-02f,+4.04860675e-02f,
-2.39370361e-01f,+3.10391545e-01f,-1.09543875e-01f,+6.32413551e-02f,+1.47640910e-02f,
+2.01782092e-01f,-1.94690138e-01f,+2.34612711e-02f,-3.28545243e-01f,+7.37990364e-02f,
-5.05733304e-02f,+1.51559979e-01f,+1.66640699e-01f,+1.22758918e-01f,+8.23786780e-02f,
-1.62744120e-01f,+1.24114566e-01f,-2.04387382e-01f,+5.94492294e-02f,+3.07185829e-01f,
-4.18485552e-02f,-3.77581418e-02f,-6.69761598e-02f,-1.59265716e-02f,+1.07124068e-01f,
+3.94066393e-01f,+1.56530514e-01f,+1.70276493e-01f,-3.95008065e-02f,-1.28521502e-01f,
-1.01491310e-01f,+1.75584778e-01f,+3.26797098e-01f,+1.36232346e-01f,+1.18598171e-01f,
+2.79785432e-02f,-3.85852069e-01f,-1.32036611e-01f,+1.15529850e-01f,+2.89216787e-01f,
+7.45463148e-02f,-1.64264306e-01f,-1.69936955e-01f,+4.06844467e-01f,+4.01436061e-01f,
+1.26401298e-02f,-8.13926607e-02f,+1.82344243e-01f,+1.33694723e-01f,+2.04816952e-01f,
-1.04260482e-01f,-2.24398375e-01f,+2.03617737e-01f,+7.14944378e-02f,-1.17502384e-01f,
+2.44024307e-01f,+1.43706709e-01f,-7.46824071e-02f,-8.94021913e-02f,-1.67546183e-01f,
+1.74842432e-01f,+3.18301290e-01f,-2.77043641e-01f,+1.48320094e-01f,-2.81025153e-02f,
+4.03494425e-02f,-3.37448791e-02f,-2.76124524e-03f,+2.15205729e-01f,+1.38644859e-01f,
-9.17299315e-02f,+9.68583208e-03f,-2.22056001e-01f,+1.31689593e-01f,-1.94714352e-01f,
-9.45698991e-02f,-1.64172649e-01f,+7.28886947e-02f,+4.10101384e-01f,-1.02983965e-02f,
+2.81104505e-01f,-4.04359326e-02f,+2.19428942e-01f,-1.16466902e-01f,+1.41655877e-01f,
-1.84923306e-01f,-3.59475240e-02f,-1.96240008e-01f,+2.15801690e-02f,-2.63446927e-01f,
+9.13153216e-02f,+4.88553494e-02f,+7.87164550e-03f,-2.25085959e-01f,-1.96744367e-01f,
-3.90109867e-01f,-1.45682380e-01f,+3.03916037e-01f,+8.21793638e-03f,-7.90229589e-02f,
+2.72354931e-02f,-2.84505069e-01f,+1.66694850e-01f,+8.45976397e-02f,-1.08206205e-01f,
+2.30482221e-01f,-1.33493945e-01f,+1.77217901e-01f,+3.15844357e-01f,+1.88455969e-01f,
-1.66070446e-01f,+1.14283472e-01f,-9.67247933e-02f,-2.72239804e-01f,+8.74143541e-02f,
+5.83557412e-02f,-3.76741849e-02f,+9.08682793e-02f,+7.10456148e-02f,+1.64690260e-02f,
-2.29036644e-01f,+3.91432196e-01f,-2.07532674e-01f,-2.20714524e-01f,+2.39329457e-01f,
-2.31711776e-03f,-2.33009651e-01f,+1.76300153e-01f,-6.18062541e-02f,-9.34491754e-02f,
+2.06475914e-01f,-2.14851387e-02f,-2.83121645e-01f,-1.29994974e-01f,+2.47032288e-02f,
-1.21635132e-01f,+8.23231041e-03f,-2.12221928e-02f,+5.20230979e-02f,+2.84866337e-02f,
+9.63481218e-02f,-2.56428182e-01f,+4.85172242e-01f,+1.68114733e-02f,+6.20782897e-02f,
+5.29468060e-02f,-1.49444282e-01f,+1.67875126e-01f,+2.70117987e-02f,-2.30898350e-01f,
-3.46258461e-01f,+2.31301449e-02f,+1.50390342e-01f,-1.58708155e-01f,-3.95301022e-02f,
+1.09494060e-01f,-9.27734524e-02f,+1.30301207e-01f,+1.46036193e-01f,-4.15039109e-03f,
-1.36385173e-01f,+1.55966803e-01f,-7.18253702e-02f,-1.81136578e-02f,+3.06116998e-01f,
-2.55335644e-02f,+1.76461279e-01f,-5.82061708e-02f,+2.18357727e-01f,-8.01126733e-02f,
+2.40371183e-01f,+7.61375427e-02f,+1.87091291e-01f,-4.16329596e-03f,-3.07330459e-01f,
-3.66510041e-02f,+1.24684714e-01f,-5.60729858e-03f,-2.22867578e-01f,+2.36905336e-01f,
+1.87267005e-01f,-1.38487056e-01f,+6.22374266e-02f,-4.18996811e-02f,+2.10267350e-01f,
+7.93355852e-02f,-2.21310541e-01f,+9.67383087e-02f,+9.83557254e-02f,-1.09478712e-01f,
-4.94679436e-02f,-1.90857694e-01f,+5.80425970e-02f,+4.94646393e-02f,-1.83315158e-01f,
+5.20614795e-02f,+2.34061092e-01f,+8.80536065e-02f,-2.64431238e-01f,-3.08597475e-01f,
+5.39952755e-01f,+2.99099445e-01f,+1.14081599e-01f,-3.30726743e-01f,-2.26230308e-01f,
-1.98221188e-02f,+1.11692585e-01f,-2.15160418e-02f,+3.79510880e-01f,+1.19831890e-01f,
-7.53899962e-02f,+2.82350592e-02f,+1.59449548e-01f,+1.57564387e-01f,+3.00728083e-01f,
-1.44581959e-01f,-1.99908279e-02f,-7.02383593e-02f,-1.06214039e-01f,-5.87202944e-02f,
-1.42522663e-01f,-1.23863788e-02f,-2.39205316e-01f,+2.42411688e-01f,+3.66062015e-01f,
+4.34742384e-02f,-8.17476399e-03f,+1.63998351e-01f,-1.42728388e-01f,-1.74104542e-01f,
-8.56037810e-02f,+1.69947281e-01f,-1.98270380e-01f,-1.14398561e-01f,-4.23923671e-01f,
+7.87356794e-02f,+5.98340333e-02f,-2.48342663e-01f,-6.04077876e-02f,-1.17433205e-01f,
-2.68006194e-02f,-2.03059733e-01f,+1.52137354e-02f,+3.21646444e-02f,+4.88274843e-01f,
-8.13381895e-02f,-4.19031270e-02f,+2.99146846e-02f,+8.90704170e-02f,+3.07902366e-01f,
+4.07681055e-02f,+2.52348244e-01f,-3.91671397e-02f,-4.08556052e-02f,-2.25590348e-01f,
-1.60209984e-02f,-2.10652620e-01f,+1.83965623e-01f,-3.36545110e-01f,+1.17565540e-03f,
-7.02804625e-02f,+2.09418356e-01f,+2.96141624e-01f,+1.53146446e-01f,+1.41180366e-01f,
+1.11140475e-01f,-4.71408218e-02f,+2.63597667e-01f,+2.81520963e-01f,-4.41611201e-01f,
-1.61006704e-01f,-5.00976145e-02f,+1.15358837e-01f,-2.60508694e-02f,-1.02788612e-01f,
+5.31789623e-02f,-2.64218390e-01f,-7.84905180e-02f,+7.34359249e-02f,+1.09166257e-01f,
+5.04284725e-02f,-1.13432266e-01f,+4.18647856e-01f,-1.37667328e-01f,+2.42220402e-01f,
+1.84598133e-01f,-2.55353808e-01f,-1.35408193e-01f,+3.51414293e-01f,+2.81268880e-02f,
+6.27721623e-02f,-6.24262318e-02f,+2.48154238e-01f,+1.22717850e-01f,+1.22650176e-01f,
+4.63971458e-02f,+3.52017917e-02f,+7.36604184e-02f,-8.97528082e-02f,+1.46090746e-01f,
-5.87793961e-02f,+3.21050137e-02f,+2.79962942e-02f,+7.77131170e-02f,+4.16668970e-03f,
-2.12700427e-01f,-2.06565261e-01f,+5.40371463e-02f,-1.16834223e-01f,-2.72829115e-01f,
+3.67932737e-01f,-9.86876190e-02f,+2.55964130e-01f,-6.62198886e-02f,+9.41778868e-02f,
-4.19930033e-02f,+3.15639108e-01f,+1.41599491e-01f,+3.91066432e-01f,-1.28782973e-01f,
-2.88166791e-01f,-3.00102830e-01f,-7.46595953e-03f,-1.59239378e-02f,-3.65143627e-01f,
-1.37329176e-01f,+5.58019094e-02f,-1.45113869e-02f,-2.04370752e-01f,+3.25582996e-02f,
+2.54176762e-02f,-2.17989963e-02f,+5.45774326e-02f,+7.44865909e-02f,+7.31829479e-02f,
-2.95586258e-01f,+2.85971016e-01f,+1.07896574e-01f,-2.68552750e-01f,+1.74835790e-02f,
+2.57637706e-02f,-9.87476557e-02f,+7.68511817e-02f,-8.20394531e-02f,+1.28303275e-01f,
-1.10059574e-01f,+2.88988590e-01f,-1.44205287e-01f,+7.22465385e-03f,+8.90384614e-02f,
-2.13738918e-01f,+7.68161640e-02f,+1.84445843e-01f,+2.39962474e-01f,+2.39256248e-01f,
+2.48237373e-03f,+9.20849852e-03f,+1.08173214e-01f,+1.94725156e-01f,-2.01486543e-01f,
-8.56505521e-03f,+5.81683628e-02f,-6.47580028e-02f,+2.62453556e-02f,-1.59774110e-01f,
-6.63747117e-02f,+1.34076700e-01f,-2.68304229e-01f,-8.34650993e-02f,+2.05477290e-02f,
-9.44281295e-02f,+2.42762774e-01f,+4.19522338e-02f,+2.61335164e-01f,+4.81271558e-03f,
+4.05108631e-02f,+1.67989627e-01f,-2.88628221e-01f,-7.75041953e-02f,-1.90423042e-01f,
-1.15877815e-01f,-1.25827948e-02f,+1.45520344e-01f,-1.38613731e-01f,-1.52870029e-01f,
+1.81136876e-01f,+9.75035653e-02f,+8.58450904e-02f,+1.26983657e-01f,+6.49896339e-02f,
+1.36390105e-01f,-7.25896731e-02f,-4.50208746e-02f,-4.22789812e-01f,+2.52726912e-01f,
+5.78266308e-02f,-2.50323504e-01f,+2.12484784e-02f,+1.77919656e-01f,-1.82541534e-01f,
+2.11109146e-01f,-2.61427492e-01f,-2.11334735e-01f,-1.30329456e-03f,+1.89876154e-01f,
-9.95104089e-02f,+3.15863729e-01f,+4.24030483e-01f,-5.81661314e-02f,+1.03804849e-01f,
+4.57340442e-02f,+1.49774015e-01f,-2.80902497e-02f,-1.32154807e-01f,+2.23328639e-02f,
+2.72677064e-01f,-3.12767297e-01f,+1.34825662e-01f,+4.35117364e-01f,-3.05268943e-01f,
+3.53215605e-01f,-9.79877170e-03f,-1.32847298e-02f,+2.41683096e-01f,-8.85127857e-02f,
-4.50727865e-02f,-1.07933350e-01f,-4.16470692e-02f,-2.15778481e-02f,-5.16825020e-01f,
-8.72025937e-02f,+1.13471068e-01f,+1.55972481e-01f,-4.21880037e-01f,-1.49716765e-01f,
-1.02746218e-01f,-1.75418947e-02f,+2.42895894e-02f,-1.45539597e-01f,+3.24935406e-01f,
-9.93887559e-02f,-5.86678572e-02f,+5.90217523e-02f,+1.21136151e-01f,-8.09364542e-02f,
-1.37334660e-01f,+3.95299017e-01f,-2.10779440e-02f,-2.47470319e-01f,+1.82596549e-01f,
+4.07017581e-02f,+2.71408945e-01f,+6.68068007e-02f,+4.56598625e-02f,+2.62128025e-01f,
+8.93226042e-02f,+3.70398276e-02f,+2.71863222e-01f,-6.27568737e-02f,-1.55227378e-01f,
-2.46887151e-02f,+1.90534610e-02f,-1.96888335e-02f,+7.87569880e-02f,+1.46502942e-01f,
+2.03758344e-01f,+4.18669581e-01f,-1.79378986e-01f,+3.48043069e-03f,+4.44398355e-03f,
-4.02230918e-02f,+2.65977323e-01f,+1.39223889e-01f,+1.44771099e-01f,-8.63615796e-02f,
+2.17048690e-01f,+4.09331918e-01f,-1.84288010e-01f,-1.10894419e-01f,-2.78279111e-02f,
+1.20397873e-01f,-3.65647189e-02f,+8.83830413e-02f,+9.44202691e-02f,+1.23632334e-01f,
-1.56871438e-01f,-1.87323332e-01f,-4.68238071e-02f,+1.65830344e-01f,+3.27584334e-02f,
+3.10426839e-02f,+2.31715873e-01f,-2.20880769e-02f,+1.69855967e-01f,-6.37616143e-02f,
+2.24116877e-01f,-1.72968820e-01f,-4.83569456e-03f,+5.24166562e-02f,+3.45144719e-01f,
-2.44488567e-01f,-4.34658118e-02f,+1.80235699e-01f,-2.37751767e-01f,+2.64061719e-01f,
+7.65158832e-02f,+7.61309490e-02f,-5.42890429e-02f,-6.81962967e-02f,-2.72553921e-01f,
+6.66599944e-02f,+1.82865690e-02f,-1.56640425e-01f,-1.26383856e-01f,+3.73284444e-02f,
-2.10567012e-01f,+4.39701170e-01f,+9.26216543e-02f,+5.93107305e-02f,+1.85302481e-01f,
+2.02937871e-01f,+2.81467617e-01f,+2.89829099e-03f,+1.20434221e-02f,-3.82700004e-02f,
-1.13922954e-01f,-2.74227530e-01f,-1.33435324e-01f,+2.63396949e-01f,+2.79520571e-01f,
+8.46421495e-02f,+1.03533641e-02f,-9.05960426e-02f,+3.27994185e-03f,-3.27505432e-02f,
-4.19881850e-01f,+1.05946638e-01f,+8.08131173e-02f,+1.26032665e-01f,+2.33266488e-01f,
-8.40551406e-02f,-6.18432909e-02f,+3.75512689e-02f,+1.92919031e-01f,+2.21941695e-02f,
-6.87038675e-02f,+1.52439430e-01f,-5.21939173e-02f,-9.78307277e-02f,-1.34015828e-01f,
-1.16354741e-01f,+8.99418518e-02f,+1.38344064e-01f,+1.72871113e-01f,+1.85419738e-01f,
-2.75322914e-01f,-4.17587578e-01f,+9.39811915e-02f,+7.14873848e-03f,-2.09081024e-01f,
-1.04177810e-01f,+1.65168699e-02f,+1.49331570e-01f,+8.83851647e-02f,+1.01826243e-01f,
-1.41326606e-01f,+1.53743476e-01f,+1.04995619e-03f,+2.05434393e-02f,+1.45550489e-01f,
+6.51856661e-02f,+4.98342626e-02f,-2.64453709e-01f,+7.21945539e-02f,-3.03757824e-02f,
+9.73297283e-02f,+1.08472079e-01f,+2.82994807e-01f,-2.55454518e-02f,+5.68723232e-02f,
+1.89948753e-01f,-7.78330490e-02f,+2.04100639e-01f,+1.53233767e-01f,-1.23450898e-01f,
-2.93480694e-01f,+8.66681188e-02f,-3.50453168e-01f,-6.52910620e-02f,-1.22287989e-01f,
+1.72287390e-01f,-1.27362981e-01f,+1.81086347e-01f,+1.04922615e-01f,-1.29204243e-01f,
+1.14315785e-01f,+1.12208262e-01f,-8.94377008e-02f,+2.57780641e-01f,+9.34217274e-02f,
+2.37133548e-01f,+2.10233718e-01f,-1.62236169e-02f,+2.26657346e-01f,-9.19296294e-02f,
+6.07275628e-02f,-6.25375584e-02f,-1.95761353e-01f,+6.91537261e-02f,-2.16613095e-02f,
-1.83390096e-01f,+7.12068826e-02f,+2.55762607e-01f,+1.27939224e-01f,+2.48860195e-02f,
+6.19516931e-02f,+1.14089273e-01f,-1.02990992e-01f,+1.38758168e-01f,-1.87792689e-01f,
+9.94349346e-02f,-1.13452278e-01f,+1.83709487e-01f,+1.77606687e-01f,+4.09857407e-02f,
+5.77504113e-02f,-1.20985247e-02f,+2.62849052e-02f,-3.87870133e-01f,+1.32209688e-01f,
-9.29378420e-02f,-2.99161002e-02f,+4.74517932e-03f,+3.25876564e-01f,-9.08765048e-02f,
+4.71971244e-01f,+3.18939209e-01f,-9.11641419e-02f,-3.48630436e-02f,-1.45296887e-01f,
-2.11081192e-01f,-7.42036477e-02f,+8.34985152e-02f,+1.97561368e-01f,+9.41311270e-02f,
+3.00786853e-01f,-1.74629897e-01f,+2.63761014e-01f,+1.67738155e-01f,-2.53504425e-01f,
+1.24161087e-01f,+3.04291755e-01f,+1.48762390e-01f,+1.11505456e-01f,+1.22410111e-01f,
+6.26579821e-02f,+4.98545140e-01f,+1.03782095e-01f,+1.92127198e-01f,+5.33789676e-03f,
-3.48167300e-01f,+1.99912816e-01f,-7.69553659e-03f,+3.00378203e-01f,+1.32412672e-01f,
+3.91015381e-01f,+8.22799280e-02f,+7.16441721e-02f,+1.30083397e-01f,-8.22412968e-02f,
+2.04262659e-01f,-7.02030063e-02f,+1.08838826e-02f,-2.07249030e-01f,-6.11578524e-02f,
+1.50387719e-01f,+4.13050234e-01f,+2.36429468e-01f,+7.59472623e-02f,-2.93485284e-01f,
-3.47609259e-02f,-2.63583750e-01f,+8.35374929e-03f,+2.50697225e-01f,+2.64879972e-01f,
+5.89571334e-02f,-7.37451687e-02f,-6.19834177e-02f,+1.11914590e-01f,+3.54360975e-02f,
-4.09131013e-02f,+3.29716176e-01f,+2.01892182e-01f,+3.17104667e-01f,+6.21441007e-02f,
-1.16398195e-02f,+2.74776835e-02f,+2.43278235e-01f,+9.92378742e-02f,-1.91814467e-01f,
-1.43769858e-02f,+1.00300759e-01f,-7.94260651e-02f,+7.86598250e-02f,-2.89778680e-01f,
-1.31825671e-01f,-3.83763611e-02f,+2.92403698e-02f,+7.35217929e-02f,-8.54714680e-03f,
-1.64771844e-02f,-9.60956216e-02f,+1.03566408e-01f,-3.86417061e-02f,+4.44282554e-02f,
-2.15743154e-01f,+2.35147327e-02f,+3.99431258e-01f,-4.22194093e-01f,-1.49575219e-01f,
-5.08815655e-03f,-2.12495655e-01f,-7.45961592e-02f,-8.55031610e-02f,-1.90290794e-01f,
-6.43895492e-02f,-3.27030346e-02f,+6.08001687e-02f,-2.76325867e-02f,+2.18741834e-01f,
+1.48350522e-01f,+5.03356829e-02f,-1.21705897e-01f,+3.18485916e-01f,-8.85959342e-02f,
+1.78187415e-01f,-8.12602639e-02f,-5.85894100e-02f,+2.04014912e-01f,+2.48529673e-01f,
+1.96202874e-01f,-1.91454157e-01f,-1.22319303e-01f,+1.31135225e-01f,-2.17152819e-01f,
-1.62015125e-01f,-2.03860268e-01f,-1.19708464e-01f,+1.57135278e-01f,+1.53687239e-01f,
+6.78248629e-02f,+3.35349031e-02f,+3.11935127e-01f,+2.07295254e-01f,+2.10796461e-01f,
+2.00180411e-01f,-9.60439071e-02f,-2.34413505e-01f,+2.77156979e-01f,+1.37789667e-01f,
-2.51593262e-01f,+3.87116745e-02f,-6.68472126e-02f,+1.84801698e-01f,+1.74236298e-01f,
-1.32895663e-01f,-2.00350713e-02f,+1.16381079e-01f,+1.05566330e-01f,+1.59119651e-01f,
-3.30354981e-02f,-2.55270988e-01f,+1.47902936e-01f,+2.91489750e-01f,+1.19760327e-01f,
+3.58430333e-02f,-1.27137750e-01f,-1.84595391e-01f,-1.90476611e-01f,-1.91599891e-01f,
-5.00750653e-02f,-3.11716497e-01f,+6.10560291e-02f,-1.27357710e-02f,-5.78152984e-02f,
+9.30738542e-03f,+2.04881549e-01f,+1.86021090e-01f,+9.34824869e-02f,+5.18624522e-02f,
-6.10725224e-01f,-2.80386031e-01f,-3.67151648e-02f,+2.65866488e-01f,+1.33582547e-01f,
+9.54912752e-02f,-9.65997428e-02f,-6.17408864e-02f,-2.31417626e-01f,+3.56159300e-01f,
-8.25273693e-02f,+3.16447973e-01f,+2.70789802e-01f,+3.39750350e-02f,+2.01975524e-01f,
+1.56943187e-01f,-3.95743065e-02f,+2.63281375e-01f,+2.45751098e-01f,+2.94998527e-01f,
-1.61111280e-01f,-1.74248919e-01f,-7.58237839e-02f,+3.47245574e-01f,-7.54838213e-02f,
-1.24049239e-01f,+7.67297484e-03f,-1.45077467e-01f,+1.04287073e-01f,+2.31358737e-01f,
-1.68685347e-01f,-8.48749503e-02f,-5.99530376e-02f,+1.64941818e-01f,-8.70843157e-02f,
-3.05918932e-01f,+2.27586418e-01f,-4.22022715e-02f,-1.10272229e-01f,+1.44642889e-02f,
-1.28853932e-01f,+5.30258715e-01f,+1.66719332e-01f,+2.28455782e-01f,-2.31536970e-01f,
+1.05370633e-01f,-1.51731521e-01f,-1.59726128e-01f,+1.32616788e-01f,+4.53041464e-01f,
-7.99330845e-02f,+6.49016351e-02f,+3.10157418e-01f,+2.72763610e-01f,-1.76297456e-01f,
-1.69734225e-01f,-1.85635164e-01f,+1.47413230e-02f,-1.15589298e-01f,-1.25722587e-01f,
+1.37904689e-01f,+1.29955083e-01f,+7.29800165e-02f,-2.60635018e-02f,-6.28215307e-03f,
+1.16788112e-01f,+1.75697356e-01f,+1.52642757e-01f,+2.08990842e-01f,+2.08161399e-01f,
-1.54962048e-01f,+4.01307419e-02f,+1.17554173e-01f,-2.35664278e-01f,+1.00041032e-01f,
+3.10010165e-01f,+9.57010984e-02f,+1.83299724e-02f,-1.68078631e-01f,+2.96600405e-02f,
-9.53738615e-02f,-1.99445650e-01f,+1.77548215e-01f,+2.39068747e-01f,+2.80504733e-01f,
+1.04256645e-01f,+1.88914239e-01f,-7.59578273e-02f,+1.29624546e-01f,-2.74398196e-02f,
+5.17052189e-02f,+4.15449403e-02f,+1.05100483e-01f,+2.08634406e-01f,-2.33877786e-02f,
-1.56975284e-01f,-2.03815058e-01f,+2.70977896e-02f,+5.93282431e-02f,+2.85517752e-01f,
+1.63565770e-01f,-6.78510442e-02f,-1.85668752e-01f,-1.10003524e-01f,+6.40955567e-02f,
+8.15070122e-02f,+4.25099283e-02f,-2.19210401e-01f,-1.22287646e-01f,-1.16543330e-01f,
-2.58484840e-01f,+7.78786838e-02f,+1.07894756e-01f,+1.94795892e-01f,+9.78945717e-02f,
+2.27071345e-01f,+2.38530263e-01f,+2.48375051e-02f,+1.92161277e-01f,+4.64542985e-01f,
-1.99389327e-02f,-9.41656306e-02f,+3.65942009e-02f,+1.84409276e-01f,-1.63657427e-01f,
+1.23130332e-03f,-1.39280304e-01f,+6.30668700e-02f,-6.38977066e-02f,-1.26270086e-01f,
+2.83931252e-02f,-2.87903491e-02f,+1.70933530e-01f,-1.29923835e-01f,+2.72331059e-01f,
-1.12107852e-02f,-6.99999332e-02f,-1.11064008e-02f,-1.04049064e-01f,+1.42409936e-01f,
-2.91938148e-02f,-2.11608246e-01f,+2.14190334e-02f,-2.94909868e-02f,+2.62542605e-01f,
+2.69470587e-02f,+8.99020303e-03f,-4.92744684e-01f,+4.66068313e-02f,+1.13949969e-01f,
+1.89410791e-01f,+2.48565421e-01f,-3.04614931e-01f,-1.54998854e-01f,-9.56180021e-02f,
+2.39172012e-01f,+9.54648703e-02f,+2.53986865e-01f,-1.10462150e-02f,+2.14013979e-02f,
-9.66356471e-02f,+4.03011367e-02f,+1.23538263e-01f,-5.41021675e-02f,-1.50838748e-01f,
-9.83364955e-02f,+5.78888282e-02f,-9.58480611e-02f,+2.81470776e-01f,+1.96024906e-02f,
-5.91189526e-02f,-6.92449883e-02f,+1.28780559e-01f,+1.33249030e-01f,-3.31697762e-02f,
+1.56179935e-01f,-1.68497309e-01f,-2.20407080e-02f,-2.56102830e-01f,-4.43056896e-02f,
+2.97909945e-01f,-1.66436329e-01f,-4.25881669e-02f,+1.56354964e-01f,-4.40946929e-02f,
-1.08636774e-01f,-4.86666597e-02f,+1.42871425e-01f,-1.47094354e-01f,+1.17471643e-01f,
-1.14404112e-02f,-1.38207898e-01f,-3.17303777e-01f,-1.12614565e-01f,+2.30963249e-02f,
-7.26264343e-02f,+1.74736250e-02f,+1.00762442e-01f,+1.88906521e-01f,+3.12948078e-02f,
-2.42963973e-02f,-9.65529587e-03f,+1.11606149e-02f,-2.37765256e-02f,-5.44322431e-02f,
-3.48286003e-01f,+2.19983310e-01f,+1.31423965e-01f,+7.16564506e-02f,-2.60866612e-01f,
-2.16968894e-01f,+1.04521543e-01f,+1.70978770e-01f,-7.73131102e-02f,+1.37174726e-01f,
+3.72972637e-02f,+1.73228368e-01f,-2.08031218e-02f,+1.06827550e-01f,-3.75064872e-02f,
+1.53406009e-01f,+2.75063455e-01f,-2.48794183e-01f,-1.23030834e-01f,+1.17857434e-01f,
+5.06537184e-02f,+2.20445514e-01f,+7.62556046e-02f,+3.17327352e-03f,+1.99037805e-01f,
+5.68595231e-02f,-1.48685321e-01f,-1.21793017e-01f,-4.89912182e-02f,-5.55242300e-02f,
+2.98990812e-02f,-1.66544348e-01f,-1.27010509e-01f,-3.14040929e-01f,-9.16562006e-02f,
-2.31269702e-01f,-8.05522650e-02f,-1.50226168e-02f,+1.27284616e-01f,-5.21077076e-03f,
+8.24682117e-02f,+2.30798379e-01f,+2.17440780e-02f,-1.69633478e-01f,-1.20234318e-01f,
-5.12413941e-02f,-6.31208196e-02f,+5.86554147e-02f,-4.17376868e-02f,-1.14351936e-01f,
+1.16963387e-01f,-1.92432374e-01f,-2.37515569e-01f,+3.46778125e-01f,+4.12427448e-02f,
-1.17363408e-01f,+8.78906474e-02f,+3.24248463e-01f,+1.03833027e-01f,+3.76755334e-02f,
-3.49138416e-02f,-1.56576991e-01f,+6.31357506e-02f,-2.17654571e-01f,+6.27032444e-02f,
-2.50033643e-02f,+3.59348990e-02f,+2.89411485e-01f,-7.19389096e-02f,+3.30574214e-02f,
-2.11876258e-02f,+1.48560330e-01f,+1.96094424e-01f,-1.40340120e-01f,+8.72201473e-03f,
+4.21101041e-03f,+2.03957319e-01f,-2.70253032e-01f,-1.40199244e-01f,-7.67366514e-02f,
+2.52153754e-01f,+1.81121364e-01f,+1.09650396e-01f,+2.14563552e-02f,+3.75690311e-01f,
+1.55032262e-01f,+1.89374313e-01f,+1.89847842e-01f,+2.23898083e-01f,-1.12180889e-01f,
+4.96092111e-01f,+1.65431544e-01f,-1.77583560e-01f,-7.79597461e-02f,+5.25448024e-02f,
+2.65823632e-01f,+2.31226161e-01f,+3.02208245e-01f,-1.77630648e-01f,+2.79592335e-01f,
+3.60580608e-02f,+1.72628358e-01f,+1.64445475e-01f,+1.24325477e-01f,+2.08819717e-01f,
-1.06161246e-02f,+1.60017073e-01f,+2.62944609e-01f,+4.58908901e-02f,-2.24356264e-01f,
-2.44412408e-03f,+3.43517922e-02f,+1.01909705e-01f,-7.10415244e-02f,-3.87610912e-01f,
+2.39136487e-01f,-1.29494267e-02f,+3.37465763e-01f,-7.35635385e-02f,+1.83747962e-01f,
+1.59234911e-01f,-2.58429945e-01f,-5.02696484e-02f,+6.80313632e-02f,+2.29219943e-01f,
+2.57682744e-02f,+1.40620366e-01f,+6.25062212e-02f,-2.69179139e-02f,+5.72802126e-02f,
+2.98719913e-01f,+2.90287286e-01f,-1.19578771e-01f,+2.93655455e-01f,-6.52368367e-02f,
-1.46664813e-01f,-1.25921264e-01f,-1.14737362e-01f,+9.19858739e-02f,+6.18187105e-03f,
+1.23317100e-01f,+1.53283298e-01f,-2.95249403e-01f,+2.53721029e-01f,-1.12265022e-02f,
-1.63825870e-01f,+2.43134797e-01f,-1.26165658e-01f,-3.55708711e-02f,-1.08651713e-01f,
+3.63025814e-02f,+1.12202920e-01f,+2.61566222e-01f,-4.80954647e-02f,+9.69891921e-02f,
+5.45588210e-02f,+2.25540116e-01f,-1.51694000e-01f,+1.48905158e-01f,+8.44737962e-02f,
+1.87782254e-02f,-1.11107137e-02f,-1.05632722e-01f,-3.22968848e-02f,+4.65735123e-02f,
+7.40555376e-02f,+2.45385095e-02f,-2.82156896e-02f,+1.44515738e-01f,-4.24988344e-02f,
+9.79152918e-02f,-1.40360564e-01f,-1.13176599e-01f,+5.36864735e-02f,+1.07293241e-01f,
+3.09246153e-01f,+2.25155741e-01f,+1.76482484e-01f,-1.37354210e-01f,+7.37544671e-02f,
-9.40822531e-03f,-5.94133846e-02f,-9.02120173e-02f,-8.29255283e-02f,+1.46554276e-01f,
+1.09227106e-01f,+2.51777649e-01f,+2.45699495e-01f,+3.61975431e-02f,-1.36684641e-01f,
-6.41393363e-02f,-1.18624188e-01f,-7.16213882e-02f,+6.98322058e-02f,+2.48684436e-01f,
+1.77753580e-04f,-7.07220584e-02f,+2.05427289e-01f,+1.56676769e-01f,-1.10345818e-01f,
+2.10363045e-01f,-2.06284717e-01f,-2.24987976e-02f,+1.98060364e-01f,+8.30180645e-02f,
-1.28569216e-01f,-1.38740659e-01f,-2.67511774e-02f,+6.31478429e-02f,-2.33404070e-01f,
+1.39760098e-03f,-6.20711744e-02f,-2.71546006e-01f,+1.61656037e-01f,-1.53024733e-01f,
+2.84676164e-01f,+1.58472091e-01f,-1.46461010e-01f,+1.01163417e-01f,-8.39826167e-02f,
-2.84044772e-01f,+7.28950799e-02f,+5.10622151e-02f,+2.98994005e-01f,-1.40288889e-01f,
-8.68420005e-02f,-3.26310620e-02f,+1.51943296e-01f,-6.98682442e-02f,+5.52117564e-02f,
-7.45275617e-02f,+3.56350392e-02f,+1.30147740e-01f,-5.66402636e-02f,-1.09644778e-01f,
-1.29120827e-01f,+1.00734606e-01f,-1.00868233e-01f,+4.79679853e-02f,+1.83849365e-01f,
-3.34950723e-02f,+7.35326065e-03f,+1.68164387e-01f,+2.01449424e-01f,-1.10584527e-01f,
-1.37193397e-01f,-1.15414687e-01f,+6.92622215e-02f,+4.18249406e-02f,+2.60923989e-02f,
+2.44011194e-01f,+5.89408018e-02f,+3.19099545e-01f,-5.30627333e-02f,-1.04991384e-01f,
+2.75407493e-01f,+2.22570509e-01f,+8.74661431e-02f,-3.70602459e-02f,+1.98367342e-01f,
+4.61600199e-02f,+1.27654940e-01f,+4.35105473e-01f,+1.27852380e-01f,+2.90744066e-01f,
-1.46754041e-01f,+1.85990408e-01f,-7.59153068e-02f,-4.12569344e-02f,+1.74268246e-01f,
+2.21499085e-01f,+1.78364575e-01f,+2.44898275e-01f,+7.51060098e-02f,+3.26112032e-01f,
-9.24984366e-02f,+2.28516370e-01f,-2.10023690e-02f,-8.81051570e-02f,+1.15184300e-01f,
+1.03394203e-01f,-6.95739761e-02f,+1.67566821e-01f,+7.33100995e-02f,-9.13740844e-02f,
+2.25327536e-02f,+1.28816992e-01f,+3.98030579e-01f,+7.94862136e-02f,-2.69967527e-03f,
+3.07305783e-01f,+5.65263070e-02f,+2.30651721e-01f,+2.15886742e-01f,-6.36220202e-02f,
+4.65832129e-02f,-3.52377981e-01f,+2.83251218e-02f,+3.84297632e-02f,-2.40798183e-02f,
-9.35885608e-02f,-2.68415332e-01f,+1.42017722e-01f,+1.97224751e-01f,+1.81476504e-01f,
+2.29383577e-02f,+1.18512593e-01f,+5.63327074e-02f,+9.61261690e-02f,+1.01712540e-01f,
+6.96437582e-02f,+1.68399945e-01f,-2.68896133e-01f,+1.01650991e-01f,-2.23953143e-01f,
-1.75308540e-01f,-1.67705953e-01f,-1.75919726e-01f,-5.80305159e-02f,+2.41486102e-01f,
-1.55256599e-01f,-2.58087426e-01f,-5.14409319e-02f,+3.46932337e-02f,+3.36543024e-01f,
+1.20378457e-01f,+2.57862508e-02f,+6.11543581e-02f,-1.37470275e-01f,+1.61699980e-01f,
+1.25314221e-01f,-1.23591363e-01f,+2.98095942e-01f,+1.63904369e-01f,-1.52227402e-01f,
+2.70310584e-02f,-1.15400374e-01f,+1.35984108e-01f,+8.16010535e-02f,-2.61519372e-01f,
+2.14126278e-02f,-1.29976496e-02f,+1.46617249e-01f,-5.78619689e-02f,+7.10086003e-02f,
+7.38646314e-02f,+3.16403955e-02f,-1.62180975e-01f,-2.01452509e-01f,+1.46573946e-01f,
+9.63581428e-02f,-2.61637103e-02f,+4.96772379e-02f,-1.02374367e-02f,+7.09392354e-02f,
+2.05150574e-01f,+2.64759958e-01f,+1.03059053e-01f,+2.64714479e-01f,-2.29517728e-01f,
-1.42517425e-02f,+1.63853392e-01f,+3.97589654e-01f,-8.44085589e-02f,+4.73206416e-02f,
+1.45596936e-01f,+2.44352028e-01f,+2.76567549e-01f,+2.19839990e-01f,+1.18336745e-01f,
-2.19804212e-01f,-1.33745447e-01f,-4.58026715e-02f,-1.45357430e-01f,+1.96736634e-01f,
-1.45502150e-01f,+8.57332721e-02f,+4.10539582e-02f,+1.96902633e-01f,+5.45303188e-02f,
+8.02367330e-02f,+6.46787211e-02f,+1.14626296e-01f,-7.07701817e-02f,+1.31445274e-01f,
+1.75905406e-01f,+5.65725490e-02f,-9.49272588e-02f,+2.07403541e-01f,+3.24482471e-02f,
+6.17318675e-02f,+6.14883285e-03f,-1.32544208e-02f,+6.33793995e-02f,-3.71258259e-02f,
-5.20392880e-02f,-1.42763242e-01f,+1.29227072e-01f,-1.09458335e-01f,+1.58290029e-01f,
+8.88091624e-02f,+3.13224554e-01f,+3.42093036e-02f,+9.83173847e-02f,-2.94323146e-01f,
+1.06695615e-01f,+6.19501397e-02f,+5.65679558e-02f,-5.00573441e-02f,-7.01604262e-02f,
-1.68583542e-01f,+2.61269864e-02f,-2.28393286e-01f,-1.15932316e-01f,-1.60099134e-01f,
-7.04670250e-02f,+1.39846653e-01f,+1.76113740e-01f,+7.29467720e-02f,+1.53349280e-01f,
-3.89253199e-02f,-1.73522264e-01f,+2.10979640e-01f,+2.28620082e-01f,+1.81179065e-02f,
+1.21122450e-01f,+1.25935495e-01f,-1.30970031e-01f,-7.53643960e-02f,+3.50254886e-02f,
-1.57759920e-01f,-1.25453159e-01f,+4.93215956e-02f,+1.66485354e-01f,+6.15993654e-03f,
+7.60703385e-02f,-2.16746092e-01f,+2.10641220e-01f,+4.21496689e-01f,-3.20740440e-03f,
-1.66940484e-02f,-3.23209971e-01f,-1.91800907e-01f,+2.84462452e-01f,-4.38345298e-02f,
+1.87337156e-02f,-4.76665944e-02f,+1.46629721e-01f,-1.12309240e-01f,+1.49179146e-01f,
+3.72549891e-02f,-1.28892839e-01f,-1.87958091e-01f,+9.93832573e-02f,+5.63470349e-02f,
-1.65377986e-02f,+1.47826418e-01f,-9.37829912e-02f,+2.40889341e-01f,+1.73241645e-01f,
+1.57271877e-01f,+1.15098774e-01f,+7.68576264e-02f,+9.73720625e-02f,+1.08511060e-01f,
+2.17587203e-01f,+2.67459042e-02f,+2.41001602e-02f,+3.32951784e-01f,+1.63520440e-01f,
+2.07187310e-02f,+1.83011368e-02f,-7.63798878e-02f,-2.57599596e-02f,-3.97167820e-03f,
+7.63555523e-03f,-2.22192511e-01f,-1.11126184e-01f,+1.46901414e-01f,-9.46735740e-02f,
+1.69649795e-01f,+1.69216961e-01f,-1.13323882e-01f,+3.02314758e-01f,-1.95667014e-01f,
-4.81788889e-02f,+1.95658788e-01f,+2.25945204e-01f,+5.15256776e-03f,+1.97656497e-01f,
-8.49480275e-03f,+2.36280393e-02f,+5.31224012e-02f,+1.21646650e-01f,-1.63738102e-01f,
+1.52392894e-01f,-2.02330500e-02f,-2.14845568e-01f,+2.21068248e-01f,+2.05968484e-01f,
-2.05039978e-01f,+1.52544126e-01f,+1.74816653e-01f,+1.88838571e-01f,+2.32098233e-02f,
-1.46290869e-01f,-5.65764681e-02f,+2.14797944e-01f,-1.09062359e-01f,-2.54360169e-01f,
-9.21597630e-02f,+6.36008456e-02f,+1.01008296e-01f,+9.68974158e-02f,+1.56599358e-01f,
+6.79641366e-02f,+4.13131937e-02f,+1.79255921e-02f,-9.22187120e-02f,+2.02053025e-01f,
+1.62406057e-01f,-4.01979864e-01f,-1.21400431e-01f,+1.14338547e-01f,+2.15776004e-02f,
+3.87601078e-01f,+1.12959780e-01f,+2.47501612e-01f,-4.86343578e-02f,+1.31835632e-05f,
-5.21617122e-02f,+2.96924426e-03f,+1.92628559e-02f,+4.39892635e-02f,-1.91729143e-01f,
-5.04185967e-02f,+1.27322897e-02f,-3.29195112e-01f,-8.92846361e-02f,-1.45575389e-01f,
-1.01177126e-01f,+1.57325372e-01f,-1.81636717e-02f,+1.23620845e-01f,+1.16689742e-01f,
-4.96429764e-02f,+1.62100330e-01f,-9.98747051e-02f,+7.94406086e-02f,+1.78162694e-01f,
-2.69640893e-01f,-1.95519865e-01f,+2.38575131e-01f,-5.01675811e-03f,-8.23673159e-02f,
+1.61451437e-02f,+8.98727328e-02f,-9.40148905e-03f,+2.84091920e-01f,+1.74099222e-01f,
+1.21373072e-01f,+4.53061536e-02f,+1.07356749e-01f,+1.61118656e-01f,-5.35415560e-02f,
+1.97408572e-02f,-1.36635542e-01f,-8.35415423e-02f,+4.52375747e-02f,+2.25918278e-01f,
+1.37500554e-01f,-1.87201604e-01f,-1.65801775e-02f,+7.21476972e-02f,+7.29459375e-02f,
+7.98558146e-02f,-2.41684094e-01f,-4.12778072e-02f,-6.45096526e-02f,-6.96131662e-02f,
+4.88920659e-02f,+1.34808764e-01f,-7.84016699e-02f,-4.16137874e-02f,+2.97233928e-02f,
+4.84062498e-03f,+7.32929911e-03f,-1.03306234e-01f,-1.00501202e-01f,+4.22657356e-02f,
+3.92573439e-02f,+1.41170219e-01f,+1.42858662e-02f,-1.09707542e-01f,+7.32982829e-02f,
-2.82612711e-01f,-3.21396999e-02f,-1.68337598e-01f,-3.46178859e-01f,+8.60296264e-02f,
-2.38761410e-01f,+2.89509475e-01f,+3.32526653e-03f,-2.70815864e-02f,-8.63017067e-02f,
+1.38682738e-01f,-8.40901658e-02f,+8.91365930e-02f,-9.32913870e-02f,+6.31707609e-02f,
-2.05889061e-01f,-3.72808874e-01f,+2.35891059e-01f,-5.67910373e-02f,-2.63906002e-01f,
-1.19436391e-01f,+9.10914615e-02f,-3.76973823e-02f,-1.50566669e-02f,+2.14530528e-01f,
+1.48937628e-01f,-6.06512055e-02f,-3.38080190e-02f,+5.75097613e-02f,+2.85205487e-02f,
+1.81066886e-01f,+4.78554741e-02f,-8.15677643e-02f,+1.02752477e-01f,-1.02132708e-01f,
+8.12071860e-02f,-1.82422139e-02f,+1.33369938e-01f,-2.65403241e-01f,+1.66780442e-01f,
-4.39972691e-02f,+8.79864916e-02f,-9.02819484e-02f,+6.67710677e-02f,+1.78936735e-01f,
+1.65010497e-01f,-1.09550230e-01f,-1.18369032e-02f,+1.84950441e-01f,+1.60378385e-02f,
+2.38279983e-01f,+1.50161862e-01f,+1.10656880e-01f,+1.30080283e-01f,-8.94784033e-02f,
-1.71918795e-01f,+2.22949475e-01f,+3.89231414e-01f,+1.60903394e-01f,+6.74135014e-02f,
-1.50148392e-01f,-4.26823273e-02f,-1.82203591e-01f,-7.12261274e-02f,-1.32116050e-01f,
-8.32043737e-02f,-1.13090478e-01f,-1.62314121e-02f,+1.09988235e-01f,-2.95404553e-01f,
-6.30353168e-02f,-1.36846423e-01f,+3.05084676e-01f,+1.17091192e-02f,+1.11181080e-01f,
+1.27803877e-01f,-1.49537455e-02f,+8.77530798e-02f,+8.86373296e-02f,-2.82091200e-02f,
-1.16187736e-01f,-1.63157105e-01f,+1.31891325e-01f,-1.66783437e-01f,+2.31403008e-01f,
-5.50241619e-02f,-1.11339308e-01f,+3.67184496e-03f,+9.54106152e-02f,+7.58897737e-02f,
+3.50791961e-02f,-3.09913844e-01f,+1.24196015e-01f,-7.77536333e-02f,+7.61970058e-02f,
-1.20072521e-01f,+4.87525053e-02f,+2.65628517e-01f,-6.48759678e-02f,+2.27556869e-01f,
+4.96915579e-02f,-1.21497795e-01f,-1.41688496e-01f,+1.15647025e-01f,+6.28187880e-02f,
+7.91303590e-02f,+3.52936015e-02f,-3.04440737e-01f,-8.12368095e-02f,+3.91157538e-01f,
-3.09426457e-01f,+1.37256067e-02f,+1.06079437e-01f,+5.07653318e-03f,+1.32446215e-01f,
-3.33640665e-01f,+6.91324174e-02f,-7.88638517e-02f,-9.03369039e-02f,+6.71456428e-03f,
+5.83880842e-02f,-2.62151882e-02f,-3.08076829e-01f,-1.77503992e-02f,+1.20492361e-01f,
-1.50330305e-01f,-1.01545110e-01f,+1.86851129e-01f,-5.25179207e-02f,-5.57712056e-02f,
+2.38027826e-01f,+8.86815488e-02f,-1.91897988e-01f,+2.62642056e-01f,+4.71815933e-03f,
-8.06158110e-02f,-2.02578321e-01f,+2.77464837e-01f,+2.41432399e-01f,+3.99690196e-02f,
+4.08283137e-02f,+1.74252868e-01f,+1.23431295e-01f,+1.09493077e-01f,+1.59799397e-01f,
+6.85253516e-02f,+1.54285222e-01f,+1.33131742e-01f,+1.86790645e-01f,+1.36253655e-01f,
-2.49143362e-01f,+4.40487042e-02f,+1.72696859e-01f,-4.18029428e-02f,-1.63347214e-01f,
+3.98893774e-01f,+4.44567315e-02f,+3.10085386e-01f,-5.02465665e-02f,-6.60994202e-02f,
-1.64922461e-01f,-2.84086704e-01f,+1.05064854e-01f,+9.19635966e-02f,+2.37204358e-02f,
+5.59128262e-02f,-2.42258795e-02f,+6.75337091e-02f,-1.05978541e-01f,+7.01643378e-02f,
+3.77295800e-02f,+1.80110022e-01f,-2.32819505e-02f,+2.29056731e-01f,+1.65283158e-01f,
-2.13831306e-01f,+1.10633001e-01f,+2.29514807e-01f,-7.65167549e-02f,+1.47235230e-01f,
-3.83680798e-02f,+3.17650855e-01f,+2.40046829e-01f,+5.00771701e-02f,+6.97873533e-03f,
+1.42340407e-01f,+8.15945566e-02f,+1.29901767e-02f,-1.13112584e-01f,-2.58672703e-02f,
-3.71141583e-02f,+1.74689721e-02f,+1.10291511e-01f,+5.47824800e-02f,+6.47040159e-02f,
+1.79939598e-01f,-1.81552425e-01f,+5.03397398e-02f,+2.58499067e-02f,+2.57382989e-01f,
+9.72410962e-02f,+3.33933420e-02f,-5.74066080e-02f,-4.63711191e-03f,+1.43432468e-01f,
+3.50532591e-01f,-1.13582060e-01f,+8.01927522e-02f,-4.10279632e-02f,-2.73936018e-02f,
+2.79006898e-01f,+8.29049423e-02f,+2.50511933e-02f,+5.62604442e-02f,+1.42423674e-01f,
+6.61684498e-02f,-2.61100028e-02f,+6.65463060e-02f,+1.90968215e-01f,-1.14505239e-01f,
-5.67565672e-03f,+1.52659550e-01f,+3.35598923e-02f,-5.32385185e-02f,-1.70587569e-01f,
-5.86339198e-02f,-7.81615451e-02f,+3.34109105e-02f,-4.73159142e-02f,-8.45092982e-02f,
-1.47582784e-01f,+2.24292977e-03f,+1.61222160e-01f,-1.87343471e-02f,+7.15899514e-04f,
+1.89200640e-02f,-1.47799566e-01f,+2.16124922e-01f,-1.31984532e-01f,+7.25017861e-02f,
-6.63441047e-02f,-9.10343528e-02f,-1.36593208e-01f,-1.33985491e-03f,-1.67973116e-01f,
+3.35748717e-02f,+8.56638700e-02f,+5.13750911e-02f,+2.47644216e-01f,+1.38333976e-01f,
+2.78303683e-01f,+1.79371327e-01f,-1.05616346e-01f,+7.76603594e-02f,+1.87619366e-02f,
+8.71400237e-02f,+1.47372531e-02f,-7.21653271e-03f,+9.07907858e-02f,-8.96169841e-02f,
-6.88884854e-02f,+2.88178146e-01f,+3.77830714e-01f,-8.84852037e-02f,+1.57892928e-02f,
+2.48360291e-01f,+2.49213185e-02f,+4.29010205e-02f,+3.71628441e-02f,-8.11324120e-02f,
-5.20129614e-02f,+2.66441405e-02f,+8.35589319e-02f,+1.57880172e-01f,+1.03911206e-01f,
+2.07870990e-01f,+2.19144300e-01f,+1.62017554e-01f,-6.31564949e-03f,+3.55968699e-02f,
-3.05926055e-02f,-1.98000118e-01f,+1.58520807e-02f,-1.50083944e-01f,+2.81663448e-01f,
+8.00306574e-02f,+1.68399587e-01f,-6.01446927e-02f,-5.69696501e-02f,+4.38083522e-02f,
+8.95855501e-02f,+3.05524796e-01f,-1.08963206e-01f,+7.53822029e-02f,+6.85982360e-03f,
+5.91915064e-02f,+3.05683076e-01f,-5.81843033e-02f,+2.61908919e-01f,-4.67588156e-02f,
+8.95268247e-02f,+6.55701160e-02f,+7.30820447e-02f,-1.41831473e-01f,+2.71005481e-01f,
-8.76070261e-02f,+2.06155814e-02f,-1.69163108e-01f,+3.17876111e-03f,+1.56383455e-01f,
+2.05117583e-01f,+3.23774181e-02f,-6.91718832e-02f,+1.18971407e-01f,+1.05649978e-01f,
+4.30297792e-01f,+1.50590256e-01f,+1.49054900e-01f,-6.33767173e-02f,-2.84586459e-01f,
-5.43733835e-02f,+1.68193713e-01f,+1.70186073e-01f,+4.27784175e-02f,+3.40052009e-01f,
+5.40535077e-02f,+4.65158559e-02f,+1.68530434e-01f,-5.53199053e-02f,-5.96253276e-02f,
-5.32966815e-02f,+1.07082583e-01f,-1.98604375e-01f,-5.87749237e-04f,-1.86199456e-01f,
-9.78657082e-02f,-1.33400053e-01f,-5.69809973e-03f,-3.55521962e-02f,+4.74253185e-02f,
+2.11726576e-01f,+7.41673410e-02f,+5.67387715e-02f,+4.67438363e-02f,-2.52617806e-01f,
-5.38496748e-02f,-8.69259704e-03f,-3.86785530e-02f,-4.09869514e-02f,+6.71183169e-02f,
-2.85222054e-01f,-1.78827330e-01f,-6.76665157e-02f,+4.82361391e-03f,+1.71150833e-01f,
+8.88580382e-02f,+9.56873316e-03f,-2.07578227e-01f,-1.29987448e-01f,+1.77072555e-01f,
+9.50289369e-02f,+2.60655731e-01f,-4.84625697e-02f,-1.96651788e-03f,-4.32668105e-02f,
-9.16307345e-02f,+1.60911411e-01f,-5.29086888e-02f,+3.43633182e-02f,+1.81982309e-01f,
+5.57593592e-02f,+1.05526716e-01f,-1.50619462e-01f,-7.71979522e-03f,+1.16154835e-01f,
+5.33384131e-03f,-9.21860933e-02f,+1.62049174e-01f,+1.36868775e-01f,-5.10930941e-02f,
+3.06835007e-02f,+4.28110436e-02f,-1.82987466e-01f,-1.42986268e-01f,+2.71707386e-01f,
-6.95889443e-02f,-1.54386565e-01f,-6.01875074e-02f,+7.19039515e-02f,-2.10620224e-01f,
+6.10617511e-02f,+1.89016089e-01f,+3.85395885e-01f,-2.53562123e-01f,+1.11821592e-01f,
+3.71162631e-02f,+2.54130587e-02f,-8.16866010e-02f,-1.08239315e-01f,+6.47416338e-02f,
+2.93412507e-02f,+8.64271298e-02f,-1.43313915e-01f,+1.34683028e-01f,-9.59520265e-02f,
-1.24557361e-01f,-7.24948272e-02f,-2.55733609e-01f,+1.68699622e-01f,+1.61067918e-01f,
+8.49889498e-03f,+1.65079370e-01f,-1.65905133e-02f,+6.32831976e-02f,-1.81267008e-01f,
+1.20939828e-01f,-8.44939649e-02f,-5.51179098e-03f,+1.04169594e-02f,+6.87838942e-02f,
-7.54680187e-02f,+5.52900275e-03f,+5.50569668e-02f,-7.05930740e-02f,+8.66011977e-02f,
-7.95299113e-02f,+2.39561930e-01f,-1.08770058e-01f,-1.60369992e-01f,+3.85579281e-02f,
-3.25248092e-02f,-7.36450637e-03f,-2.35555783e-01f,-7.08826110e-02f,+7.98720345e-02f,
+1.84487432e-01f,-1.82681307e-01f,+4.61257517e-01f,-1.84897244e-01f,+3.03014129e-01f,
-8.78559276e-02f,+9.63753983e-02f,-1.68373272e-01f,-1.65379286e-01f,-1.66983113e-01f,
-8.03029835e-02f,+3.90725099e-02f,-6.47561848e-02f,+4.29716289e-01f,+1.07813999e-01f,
-1.13302812e-01f,-2.21811205e-01f,+2.56253123e-01f,+2.69026518e-01f,-8.60041603e-02f,
-7.13691264e-02f,-1.93917587e-01f,-2.56954908e-01f,+3.26418102e-01f,-2.52196223e-01f,
+2.54011929e-01f,-3.50338578e-01f,-9.87366736e-02f,-7.72629306e-02f,+4.26879451e-02f,
-1.82453722e-01f,+9.57823098e-02f,+1.76608205e-01f,-2.42874268e-02f,-4.17058878e-02f,
-2.89077669e-01f,+5.33465296e-02f,+3.29059601e-01f,+4.29074824e-01f,+1.58884361e-01f,
-1.51773274e-01f,+2.88488388e-01f,+1.08368844e-01f,+2.47290600e-02f,-2.16214955e-01f,
+2.44137794e-01f,-3.43107134e-01f,-6.48108572e-02f,+2.86665503e-02f,+4.99901399e-02f,
+6.99062496e-02f,-5.68135316e-03f,+1.09508686e-01f,+4.50556017e-02f,+1.56594589e-02f,
+7.66203851e-02f,-2.86726058e-02f,+3.69754508e-02f,+4.57953755e-03f,+1.09203123e-01f,
+6.65100738e-02f,-4.65388775e-01f,-2.69790202e-01f,-2.95459870e-02f,+2.92603355e-02f,
-8.06222484e-02f,-7.70856440e-02f,+4.52837050e-01f,-5.07509038e-02f,+2.77844042e-01f,
+8.34964365e-02f,-2.00507268e-01f,+6.61920160e-02f,-1.46037061e-02f,-2.86863092e-02f,
-1.56801417e-02f,-3.80799830e-01f,+9.17432234e-02f,-1.32399589e-01f,+9.80428979e-02f,
+4.00463305e-02f,+2.34373331e-01f,+5.35032786e-02f,+1.33738577e-01f,-4.54864204e-01f,
+1.25239696e-02f,+1.14208259e-01f,+1.39168361e-02f,+2.86792248e-01f,+2.11608276e-01f,
+8.70540440e-02f,+1.44353628e-01f,+2.06978202e-01f,-1.81177855e-01f,-6.47193566e-02f,
-4.38787267e-02f,+6.97908178e-02f,+2.60848731e-01f,+1.80373609e-01f,+1.63566425e-01f,
-9.19506326e-02f,-1.85797870e-01f,-4.58069257e-02f,-1.83704004e-01f,-6.41704276e-02f,
+1.99917153e-01f,-4.09474075e-02f,-8.66293460e-02f,+1.65523253e-02f,+2.74957478e-01f,
+9.56999362e-02f,+9.98831689e-02f,+1.44891869e-02f,+6.76541403e-02f,-1.08957909e-01f,
+2.17884615e-01f,+4.74830978e-02f,+6.24346770e-02f,+3.00867576e-02f,-9.13014412e-02f,
+5.03274472e-03f,+5.04639633e-02f,+9.97181237e-03f,+1.96882635e-02f,-5.35412040e-03f,
+2.31312543e-01f,+7.83329979e-02f,+4.06388985e-03f,+8.40177573e-03f,+5.11744916e-02f,
-1.03345826e-01f,+1.91450059e-01f,+2.10173085e-01f,-1.77976698e-01f,-8.86566788e-02f,
+1.28653124e-01f,+1.65896297e-01f,+7.88534875e-04f,-2.55224466e-01f,+1.18934475e-02f,
+2.74733510e-02f,+4.59634364e-02f,+7.32963756e-02f,+4.34583649e-02f,+1.51422217e-01f,
-2.31267288e-01f,+1.34587139e-01f,+1.78201124e-01f,+6.78964257e-02f,+3.79211336e-01f,
+5.53691015e-02f,-8.92051235e-02f,+1.59754753e-01f,+1.30233735e-01f,-4.55515198e-02f,
+7.24207088e-02f,-2.01236770e-01f,-1.29056141e-01f,+5.01999408e-02f,+9.39511582e-02f,
+2.46879971e-03f,-8.77183601e-02f,+6.54614717e-02f,-2.65761226e-01f,+9.48250443e-02f,
+7.24771619e-02f,+4.04854901e-02f,-1.29757151e-01f,+1.89001694e-01f,+3.75987172e-01f,
-9.34235975e-02f,-3.72525156e-02f,+3.11179012e-01f,-1.82482630e-01f,-1.40904441e-01f,
+6.89944625e-02f,-7.69422427e-02f,+2.80002832e-01f,+1.59111455e-01f,-1.37439013e-01f,
-3.63095254e-01f,+7.14779645e-02f,-4.20378223e-02f,-1.39052361e-01f,-1.89830408e-01f,
+2.73610037e-02f,-2.64834668e-02f,+2.93381196e-02f,+1.90070450e-01f,+1.17410406e-01f,
+8.11060052e-03f,-1.15292065e-01f,-1.06007062e-01f,+1.94067627e-01f,-1.02153622e-01f,
+1.67165041e-01f,+2.23602861e-01f,+5.73063977e-02f,+1.34810001e-01f,-2.68951058e-01f,
+1.34026334e-01f,+1.68029130e-01f,-1.00499541e-01f,+1.83537081e-01f,-1.86845288e-01f,
+2.94408679e-01f,-1.92032922e-02f,-1.80165339e-02f,-7.61863366e-02f,+1.17299482e-01f,
+6.67267591e-02f,+1.28014788e-01f,-1.50761977e-01f,-4.85236803e-03f,-4.40213770e-01f,
-8.15951917e-03f,+3.43439206e-02f,+3.32206711e-02f,+1.32739320e-01f,+3.48291874e-01f,
+2.61826850e-02f,+2.41468549e-01f,+1.93183392e-01f,+1.03667691e-01f,+2.15531625e-02f,
+3.11493635e-01f,+2.11717933e-01f,-2.22096905e-01f,-7.01783523e-02f,+2.57991739e-02f,
+1.52479149e-02f,+2.58708805e-01f,+9.44271460e-02f,-1.31647989e-01f,+7.01478273e-02f,
-1.08865589e-01f,+9.44823697e-02f,-4.63086972e-03f,-2.50199288e-02f,+2.79235661e-01f,
+1.42472491e-01f,+1.29964957e-02f,-3.94639149e-02f,+2.09440291e-01f,+1.11521974e-01f,
-7.98928589e-02f,+1.74418300e-01f,-1.76156629e-02f,+1.06310062e-01f,+7.04153255e-02f,
+2.21233163e-02f,+8.56005028e-03f,-2.43433818e-01f,+1.48248985e-01f,+1.84309259e-01f,
-1.21033497e-01f,-3.24212015e-02f,+5.19155636e-02f,-2.22020552e-01f,+2.57123083e-01f,
+1.47017047e-01f,+2.63894081e-01f,-2.83974200e-01f,+2.07433060e-01f,+2.97228277e-01f,
+1.38144478e-01f,-8.76904353e-02f,+5.24808839e-02f,-1.29038906e-02f,+2.51655336e-02f,
-5.41490577e-02f,+2.58912653e-01f,+6.67700320e-02f,-2.27325447e-02f,+1.07794516e-02f,
-3.10246442e-02f,+1.92765743e-01f,+3.55351754e-02f,+3.54583949e-01f,-4.77969535e-02f,
+1.25127241e-01f,-2.97293514e-01f,+3.43761817e-02f,-1.22892238e-01f,-2.12173094e-03f,
+9.91062447e-02f,+2.12997571e-01f,-1.04217753e-01f,-6.12068810e-02f,-1.24271758e-01f,
+7.69538507e-02f,+1.74004093e-01f,-3.48862298e-02f,+2.72913396e-01f,+4.07241136e-01f,
+6.36429340e-02f,+1.34603098e-01f,+4.86116149e-02f,-7.47193471e-02f,-4.21784964e-04f,
-3.24529022e-01f,-6.11835606e-02f,-4.84787673e-02f,+2.53355682e-01f,+1.77038252e-01f,
+3.56262833e-01f,-2.75753369e-03f,+4.88951385e-01f,-1.60249765e-03f,-7.27869868e-02f,
+1.55777112e-01f,+7.09196478e-02f,+1.94733888e-02f,+1.73155546e-01f,+1.45208597e-01f,
-1.55410513e-01f,-9.43737105e-02f,+2.26296395e-01f,+2.80439794e-01f,+2.02560261e-01f,
+1.96181625e-01f,-1.42529845e-01f,+4.04472128e-02f,-2.26398036e-01f,+9.98286251e-03f,
-2.56521344e-01f,+7.88969845e-02f,+1.01254970e-01f,-3.82753685e-02f,+8.15763399e-02f,
-2.41842300e-01f,-3.00676405e-01f,+1.64745763e-01f,+1.06072091e-01f,-2.68565595e-01f,
+1.70099542e-01f,+3.94351095e-01f,-3.01747080e-02f,-1.35114118e-01f,+1.44454055e-02f,
-6.48412257e-02f,+7.81403556e-02f,-2.35503495e-01f,-5.26868564e-04f,+5.91588356e-02f,
-2.29520015e-02f,-1.84013601e-02f,-2.23795325e-01f,+3.49721342e-01f,+1.16934199e-02f,
+7.44750500e-02f,+5.52980416e-02f,-6.12766109e-02f,-2.97521502e-01f,+1.73812136e-01f,
+1.98872983e-01f,-1.43146943e-02f,+8.96401852e-02f,+2.35187948e-01f,+4.45746511e-01f,
-2.59454865e-02f,-4.97034267e-02f,+2.58504391e-01f,+2.11976647e-01f,+1.67488754e-01f,
-1.64251819e-01f,-3.70952100e-01f,-2.93671037e-03f,+1.13565646e-01f,+1.55246615e-01f,
-1.84108168e-01f,+1.96011320e-01f,+8.90508294e-02f,+2.70352334e-01f,-8.69875103e-02f,
+4.43473400e-04f,-4.06671606e-04f,+1.05274409e-01f,+6.99428692e-02f,+2.29757614e-02f,
+9.44643915e-02f,-9.30825323e-02f,-1.04780793e-01f,-2.94814730e-04f,-3.47238094e-01f,
+1.60143301e-01f,+3.10378790e-01f,+4.27657440e-02f,-3.13417375e-01f,-1.51008293e-01f,
+7.13488758e-02f,-3.34180683e-01f,-9.78279635e-02f,-1.86459988e-01f,-1.99798215e-02f,
-1.01571918e-01f,+3.93432081e-02f,+3.04597795e-01f,-2.70154357e-01f,+2.50633657e-02f,
-8.90970826e-02f,-6.91826046e-02f,+2.12772936e-01f,+3.92376184e-02f,-4.19787131e-02f,
+1.81317776e-01f,+7.34775513e-02f,-5.25981247e-01f,+2.01203242e-01f,-9.40849409e-02f,
-4.05815810e-01f,-1.36379480e-01f,+1.93033636e-01f,+2.19031736e-01f,-6.72972798e-02f,
+1.04279984e-02f,+4.48611900e-02f,+5.06230667e-02f,+5.85289001e-02f,+9.82332304e-02f,
+1.06794313e-01f,-6.83830604e-02f,+1.73915938e-01f,-5.59752211e-02f,+1.48730859e-01f,
-3.56479317e-01f,-2.34351367e-01f,+3.25346440e-02f,+8.65408480e-02f,+7.93873370e-02f,
-1.32399902e-01f,+1.76383182e-01f,-5.68633787e-02f,+8.88096839e-02f,-3.09503913e-01f,
-2.56490469e-01f,+1.08066082e-01f,+1.26575291e-01f,+1.48711532e-01f,-1.26880214e-01f,
-8.19254294e-02f,-4.04564068e-02f,-2.05384776e-01f,-2.09811796e-02f,-1.91423208e-01f,
+9.79516879e-02f,+5.51542938e-02f,-1.31423429e-01f,-7.19074607e-02f,-3.02648783e-01f,
+7.72570521e-02f,-7.26548955e-02f,+2.26023719e-01f,-3.19210291e-02f,+1.03246361e-01f,
-3.87944616e-02f,-1.79154098e-01f,+6.65713027e-02f,+1.38381839e-01f,-5.76704033e-02f,
+1.49137095e-01f,-2.09506959e-01f,+2.05022725e-03f,+2.69241065e-01f,+1.60423458e-01f,
-2.90398180e-01f,+6.43545017e-02f,+8.47714096e-02f,-5.72535358e-02f,-3.11665842e-03f,
+1.05319936e-02f,+7.31960908e-02f,-1.32482961e-01f,-4.67203185e-02f,+1.29153386e-01f,
-7.39603564e-02f,-1.12185832e-02f,+6.16561659e-02f,+8.87916684e-02f,-1.27082244e-01f,
+2.65801311e-01f,+1.13833517e-01f,+4.58872616e-02f,+1.79995112e-02f,-1.76182643e-01f,
-2.96323542e-02f,+1.59967035e-01f,-8.46690685e-02f,+5.09554856e-02f,-8.05149153e-02f,
-1.10681370e-01f,-1.56432733e-01f,+1.64567623e-02f,+5.06031737e-02f,+1.79702323e-02f,
-1.88771099e-01f,-3.42120677e-02f,+3.33851576e-01f,+2.64300555e-01f,-1.14378773e-01f,
+1.38111949e-01f,-7.62878582e-02f,-2.27444321e-02f,+7.76502639e-02f,-1.39666960e-01f,
-2.45613858e-01f,-7.87067926e-04f,-2.48736590e-01f,+6.02528192e-02f,-1.36729300e-01f,
-4.31390069e-02f,-1.00711450e-01f,+1.37127623e-01f,+8.46425071e-02f,-9.80015472e-02f,
-7.82385543e-02f,+2.12174952e-01f,+8.90484303e-02f,+3.01679373e-01f,-1.60038248e-01f,
+6.72555193e-02f,+1.78278655e-01f,+1.30110160e-01f,+7.82242343e-02f,+2.28627875e-01f,
+7.53407329e-02f,+2.99369365e-01f,-2.76360601e-01f,-1.08209781e-01f,+4.56636325e-02f,
+1.87036663e-01f,+7.00135678e-02f,+3.78748000e-01f,-1.43396676e-01f,+7.52671808e-02f,
+3.75111997e-02f,+6.21654466e-02f,+3.09225142e-01f,+4.31480967e-02f,-3.85605320e-02f,
-1.46555185e-01f,+1.94249928e-01f,+1.75941348e-01f,-1.09990224e-01f,-2.21373066e-01f,
-3.74421291e-02f,+1.40016764e-01f,+7.28899287e-03f,+2.88396239e-01f,-6.23598434e-02f,
-2.00080592e-02f,+1.54122729e-02f,-9.06639323e-02f,-3.91832292e-02f,-1.34169802e-01f,
-1.51353553e-01f,+4.62768860e-02f,+3.15357745e-01f,-2.51013309e-01f,+1.31898373e-01f,
+2.43394859e-02f,-3.17714922e-02f,+2.66901832e-02f,-1.01057991e-01f,+1.32394582e-01f,
+1.98595181e-01f,-9.73592624e-02f,-1.53841916e-04f,+1.64853051e-01f,+2.09333390e-01f,
+2.77362578e-02f,-1.14462398e-01f,-1.73664629e-01f,-7.29545802e-02f,+1.26736060e-01f,
-2.57620532e-02f,+2.42369309e-01f,+9.35102850e-02f,+1.96712285e-01f,+7.37818182e-02f,
-5.79507686e-02f,-9.20705497e-02f,+1.41738588e-02f,-2.84602761e-01f,-1.36559740e-01f,
+7.65673965e-02f,+3.48983705e-01f,-3.15403715e-02f,-1.12349831e-01f,+2.74801642e-01f,
+1.66760221e-01f,+1.20623067e-01f,+2.41780713e-01f,+2.03418672e-01f,+1.84226374e-03f,
-8.73700604e-02f,+4.62889969e-02f,-3.32211591e-02f,-3.55319269e-02f,+2.28927255e-01f,
-3.61134596e-02f,-5.73381722e-01f,-2.29007125e-01f,-1.43134743e-01f,+2.01199993e-01f,
+1.46215066e-01f,-9.30357948e-02f,+7.59869590e-02f,+1.60716400e-01f,-2.46273149e-02f,
-2.64181554e-01f,+3.26234311e-01f,-4.11433950e-02f,-1.37287006e-01f,+1.34652227e-01f,
+9.71711054e-02f,-2.79798299e-01f,+7.95782954e-02f,-9.13792104e-02f,-1.44821897e-01f,
+1.45394221e-01f,+2.39117205e-01f,+2.40598813e-01f,+2.30084658e-01f,+6.99531212e-02f,
+4.78823148e-02f,-1.88163310e-01f,-1.42062962e-01f,+2.47864891e-02f,-4.49475050e-01f,
+5.57057336e-02f,+4.81528491e-02f,-7.52878562e-02f,-2.34060232e-02f,-3.23328264e-02f,
+2.45657247e-02f,+1.16681613e-01f,-1.17629059e-01f,+9.60430130e-03f,-5.79432026e-02f,
+9.47864279e-02f,+1.00485288e-01f,-1.64127760e-02f,+1.13466218e-01f,+2.29632445e-02f,
+2.92106599e-01f,+2.35749274e-01f,-4.20760773e-02f,-7.63300359e-02f,+9.75784063e-02f,
-2.86455527e-02f,-2.65887305e-02f,+1.21966928e-01f,+8.58267099e-02f,+3.61115672e-02f,
-1.89409535e-02f,+1.22721069e-01f,-7.47136548e-02f,+9.05595999e-03f,+2.02514939e-02f,
-1.55134769e-02f,-1.89823322e-02f,+1.54563561e-01f,-6.79925233e-02f,-3.24543789e-02f,
-4.72917743e-02f,+3.62820104e-02f,+1.10467218e-01f,+1.03181206e-01f,-2.75312275e-01f,
-2.52053082e-01f,+1.67794507e-02f,-2.39120722e-01f,+6.53182045e-02f,-1.04958542e-01f,
+1.65141057e-02f,-7.79331848e-02f,-8.86143148e-02f,-9.79010910e-02f,+2.50473320e-01f,
-1.30230993e-01f,-1.35956630e-01f,-4.79652919e-02f,-6.42966330e-02f,+1.45590827e-01f,
+1.77728701e-02f,-1.11333206e-02f,-2.93909550e-01f,-4.38538082e-02f,-2.11898349e-02f,
+2.00009391e-01f,-2.83501655e-01f,-7.95760676e-02f,+4.98665199e-02f,-2.67892390e-01f,
-6.52104570e-03f,-4.72930036e-02f,-2.41345152e-01f,-2.38914564e-01f,+1.76618159e-01f,
+1.02578208e-01f,-2.64624566e-01f,+2.05545604e-01f,+2.03249067e-01f,+3.87349166e-02f,
-5.49147464e-03f,-1.73448488e-01f,-1.02764688e-01f,+2.79080067e-02f,+1.87817350e-01f,
+1.05673708e-01f,+7.18030555e-04f,-1.33686721e-01f,-1.09873630e-01f,+1.37510747e-01f,
+1.55589372e-01f,+2.21628025e-01f,+1.72413275e-01f,-1.27525568e-01f,-6.19704127e-02f,
-5.05832955e-02f,+9.63321850e-02f,+1.48281351e-01f,+6.15913384e-02f,-1.12676501e-01f,
+3.59491333e-02f,-4.84094955e-02f,+4.27097753e-02f,-8.99426565e-02f,+1.12342879e-01f,
+7.17035830e-02f,+2.67483652e-01f,-2.71794051e-01f,+3.43926959e-02f,+1.49890572e-01f,
+1.56914026e-01f,+3.26272070e-01f,-6.07057102e-02f,-6.98194727e-02f,+2.22987175e-01f,
+7.96524137e-02f,-1.26192942e-01f,-1.33763462e-01f,+1.00314111e-01f,-5.60494587e-02f,
-1.35633484e-01f,+4.72290115e-03f,-8.61427784e-02f,-5.36379032e-02f,+2.05781803e-01f,
+8.81471708e-02f,+1.79340944e-01f,-2.16153920e-01f,-1.18447453e-01f,-2.93805618e-02f,
+1.59059290e-03f,-3.36841084e-02f,+2.00488828e-02f,+9.48533230e-03f,+3.32893734e-03f,
-1.27913386e-01f,-5.50468862e-02f,-1.99695557e-01f,+1.30451038e-01f,+5.86655959e-02f,
+8.46086666e-02f,+8.31736550e-02f,+4.93702255e-02f,-1.66767575e-02f,+1.47918791e-01f,
-1.36546465e-02f,+1.85035467e-01f,+2.71196842e-01f,+1.56083062e-01f,-2.74219483e-01f,
-1.89148895e-02f,-1.04740545e-01f,-5.20496769e-03f,-1.69762775e-01f,-3.57146449e-02f,
+2.56340858e-03f,+5.98497652e-02f,+8.32825452e-02f,+4.32720371e-02f,+5.41525036e-02f,
+1.41727850e-01f,+1.51743650e-01f,+1.53904539e-02f,-2.38674715e-01f,+1.65449873e-01f,
+8.99085552e-02f,-1.41159981e-01f,+5.54026179e-02f,+1.23104835e-02f,-5.09080887e-02f,
-6.04106784e-02f,+3.57847720e-01f,+2.27066129e-01f,-9.68460441e-02f,-3.28933522e-02f,
-1.52046829e-01f,+1.01785474e-01f,-1.52770162e-01f,+2.57571936e-01f,-8.89756903e-02f,
+4.76889461e-02f,-8.49796161e-02f,+2.50374079e-01f,-5.50934821e-02f,+2.17198402e-01f,
-2.13920400e-01f,+1.34329095e-01f,-6.77395985e-02f,-2.16948614e-02f,-1.65916070e-01f,
+1.44451782e-01f,+2.38773581e-02f,+2.10655659e-01f,+2.04905406e-01f,+3.35837305e-01f,
+8.09706151e-02f,-2.43022293e-01f,-2.47255430e-01f,+1.50537230e-02f,+2.62066424e-01f,
+6.76959800e-03f,+1.73691306e-02f,-7.66968206e-02f,+1.08755983e-01f,-7.38074705e-02f,
+6.83923811e-02f,+1.42549038e-01f,+4.97149006e-02f,+2.07172230e-01f,-4.45042551e-02f,
+1.48250639e-01f,+2.01837286e-01f,+1.08437724e-01f,+2.02972636e-01f,+2.32881054e-01f,
+3.37391086e-02f,+9.31435898e-02f,+2.31795013e-01f,-1.83937345e-02f,+5.72803104e-03f,
-1.32014751e-02f,+1.17955534e-02f,+2.95224339e-02f,-1.52205318e-01f,+2.05767602e-01f,
-7.55450502e-02f,+2.57021356e-02f,+1.06699625e-02f,-2.25555032e-01f,+4.50754073e-03f,
+8.18359181e-02f,-1.28554195e-01f,+1.13881286e-02f,-8.58130530e-02f,-5.05013391e-02f,
+7.25932270e-02f,+1.25833213e-01f,-1.98552027e-01f,+1.30359098e-01f,+6.13145195e-02f,
-3.11197013e-01f,+1.29851922e-02f,-5.09676859e-02f,+1.23341620e-01f,-3.75432521e-03f,
-2.05062985e-01f,+1.78845264e-02f,-3.37538242e-01f,+2.98360556e-01f,+1.09301254e-01f,
+3.28793712e-02f,-1.78310886e-01f,-4.74364534e-02f,+1.82215776e-02f,+2.73807198e-01f,
-4.68442515e-02f,+5.11329807e-02f,+7.77988881e-02f,+9.50820819e-02f,+4.32519577e-02f,
-4.53918688e-02f,-4.52016816e-02f,+9.59742442e-02f,-9.79111120e-02f,-1.26906112e-01f,
-3.16991150e-01f,-3.95650789e-02f,-1.89609841e-01f,-8.41439590e-02f,+4.43220511e-02f,
-1.33974895e-01f,+1.14800237e-01f,+1.93460196e-01f,+7.16837794e-02f,-2.20645845e-01f,
-3.66123952e-02f,-1.14039712e-01f,-3.06516699e-02f,+1.29430015e-02f,+2.19409093e-01f,
+3.31503510e-01f,-1.22911753e-02f,+2.62553245e-01f,-1.83504984e-01f,-2.52913944e-02f,
+1.54406026e-01f,+1.18332475e-01f,+1.18824944e-01f,-2.36086354e-01f,+1.79299600e-02f,
+8.76928866e-03f,-2.38169776e-03f,-2.13766657e-02f,+7.72687644e-02f,+1.14662625e-01f,
-7.63696879e-02f,-8.20528343e-02f,-1.04536340e-01f,+7.12062344e-02f,+2.96324313e-01f,
+8.89838561e-02f,-1.10380672e-01f,-2.00221077e-01f,-4.18316364e-01f,+8.68039876e-02f,
-8.17279220e-02f,-8.72346200e-03f,-3.48467380e-02f,+4.18545380e-02f,+1.89869106e-01f,
-1.49949834e-01f,+1.40285967e-02f,+4.39031273e-02f,-3.36236767e-02f,-7.94624910e-02f,
+1.00765392e-01f,+1.55409528e-02f,-1.09533831e-01f,+2.55802572e-01f,+6.07825862e-03f,
-1.34630591e-01f,-1.01240747e-01f,+1.22302167e-01f,-1.59122124e-02f,+2.41308495e-01f,
+2.87909284e-02f,+2.47235507e-01f,-8.04102123e-02f,+2.82742888e-01f,+1.31881997e-01f,
+7.12954625e-02f,+1.54681951e-01f,+1.38970882e-01f,-3.10791463e-01f,-1.50716588e-01f,
+3.96967493e-03f,-7.63792843e-02f,+6.16097189e-02f,+8.52913857e-02f,-1.83988526e-01f,
-2.24186312e-02f,+1.69683039e-01f,+7.72673115e-02f,-6.84593841e-02f,+1.64393008e-01f,
+6.28882498e-02f,+1.48113165e-02f,+1.29352435e-01f,-1.52260378e-01f,+1.55269444e-01f,
+3.16860467e-01f,+5.72872795e-02f,-1.15453877e-01f,-1.20677106e-01f,+6.04286371e-03f,
-6.34321570e-02f,-2.21708175e-02f,+1.98758952e-02f,-1.31649375e-01f,+4.84627485e-03f,
+4.05246168e-02f,-1.38072014e-01f,+7.39130303e-02f,+1.35547504e-01f,-1.84657096e-04f,
+5.40954173e-02f,+1.84568077e-01f,+1.34562971e-02f,+2.49463186e-01f,-1.00923777e-01f,
+2.08777878e-02f,-2.00025037e-01f,-1.07140563e-01f,-3.76464203e-02f,+1.25069484e-01f,
+7.28053506e-03f,+4.47853394e-02f,+1.06774524e-01f,-1.88331157e-01f,-1.67053550e-01f,
-2.06169948e-01f,-1.94388104e-03f,-1.65922478e-01f,+9.02942941e-02f,+2.17279315e-01f,
+4.33053151e-02f,+1.03559189e-01f,+3.13481629e-01f,+3.43584903e-02f,+1.12687014e-01f,
+5.73722413e-04f,+2.36506641e-01f,+6.78606657e-03f,+1.42882913e-02f,-3.16017985e-01f,
-1.12225190e-01f,+4.85876426e-02f,+1.47216499e-01f,+1.05756469e-01f,+2.39887312e-02f,
+2.40967751e-01f,+6.81495517e-02f,+4.18484844e-02f,+5.40886968e-02f,+2.13533454e-02f,
-1.97739348e-01f,+1.64088055e-01f,-6.77261874e-02f,+2.23218780e-02f,+1.37155697e-01f,
-9.13960102e-04f,+3.32450941e-02f,+1.18721925e-01f,+1.66150212e-01f,+1.62644282e-01f,
+1.04946338e-01f,-1.45226553e-01f,-6.60266504e-02f,+2.50501428e-02f,+2.67076671e-01f,
+1.89366132e-01f,+7.54158497e-02f,-4.41834517e-02f,-8.08588788e-02f,+8.21335241e-02f,
+1.49945453e-01f,+4.65246923e-02f,+1.02135371e-02f,+4.07556891e-02f,+1.62479896e-02f,
-3.45450430e-03f,-2.72223949e-01f,+1.10678449e-01f,-5.89878485e-02f,+1.36215694e-03f,
+8.29208717e-02f,+1.93852037e-01f,+2.74800472e-02f,+1.08208321e-02f,+3.46843116e-02f,
-3.18861902e-02f,+2.48865541e-02f,+1.42992437e-01f,+9.80410576e-02f,+2.18245730e-01f,
-8.12575966e-02f,+1.33229733e-01f,+1.35622174e-01f,+4.13187221e-02f,+2.20780998e-01f,
+6.37378544e-02f,-5.07271998e-02f,+1.47689089e-01f,-1.95656940e-01f,-1.39311358e-01f,
-1.34173870e-01f,-1.85972065e-01f,-1.63723882e-02f,-1.66548371e-01f,+7.36740008e-02f,
+3.91955823e-02f,+1.23812087e-01f,+6.76052645e-02f,+5.29065505e-02f,+6.40762001e-02f,
+9.58004892e-02f,+5.36174141e-02f,-1.04689680e-01f,+7.71109015e-02f,-5.15461825e-02f,
-5.71260322e-03f,-2.19321087e-01f,+4.92693521e-02f,+1.73277959e-01f,-1.91078514e-01f,
+6.50067180e-02f,+1.70442741e-02f,+8.40040445e-02f,-5.34217060e-02f,-2.70634629e-02f,
-3.21616143e-01f,+1.97127864e-01f,-1.08930655e-01f,+5.25106303e-02f,+9.37297195e-02f,
-1.61321491e-01f,-1.94436491e-01f,-4.91510890e-02f,-7.48842806e-02f,-7.61983842e-02f,
+2.36611348e-02f,-1.30211040e-01f,+2.83007890e-01f,-7.04606324e-02f,+3.34827155e-02f,
-3.15542743e-02f,-1.00088678e-01f,-5.63896541e-03f,-4.44735438e-02f,-1.47500843e-01f,
+1.68491125e-01f,-3.00599840e-02f,+1.20168917e-01f,+3.95879447e-02f,+6.61033094e-02f,
+1.22271694e-01f,+1.07126892e-01f,+2.31606066e-01f,+1.15541965e-01f,+7.76569396e-02f,
-7.88375139e-02f,-1.39627993e-01f,-1.26181357e-03f,-3.28225456e-02f,-4.54470068e-02f,
+4.50492688e-02f,+2.08577394e-01f,+7.43467286e-02f,-7.45969787e-02f,+1.64333563e-02f,
+1.18716821e-01f,+2.75900476e-02f,-7.49430209e-02f,+6.64496571e-02f,+7.75736347e-02f,
+2.64100451e-02f,-2.63477322e-02f,-4.80962098e-02f,+4.96923886e-02f,+1.11444190e-01f,
+1.26361310e-01f,-6.96632825e-03f,+1.69611529e-01f,+7.49648316e-03f,+1.13546640e-01f,
+1.63383141e-01f,-1.31334931e-01f,+3.82817052e-02f,+9.75696836e-03f,+4.17562753e-01f,
+2.32890248e-02f,+1.39699399e-01f,+3.00391376e-01f,-9.12111700e-02f,+9.71593857e-02f,
-3.93923223e-02f,-4.51086499e-02f,-1.15178294e-01f,-7.12117776e-02f,-9.52120051e-02f,
-8.20878707e-03f,+2.52883118e-02f,-1.23285130e-01f,-2.24288225e-01f,+7.41272885e-03f,
+2.27822915e-01f,+2.06498489e-01f,+2.61934340e-01f,-4.07563746e-02f,+4.64910008e-02f,
+3.79216857e-03f,-1.88693888e-02f,-1.73396364e-01f,+7.39640146e-02f,-1.53012171e-01f,
+9.61132422e-02f,-1.42420262e-01f,+7.50478879e-02f,+5.69014661e-02f,+2.81654894e-01f,
-1.57816425e-01f,-2.53815413e-01f,+5.32442667e-02f,+1.56691462e-01f,+1.01738989e-01f,
-1.27015507e-03f,-6.37271479e-02f,+1.62892640e-02f,+1.14607881e-03f,-9.43417922e-02f,
-1.48330163e-02f,-5.94550408e-02f,+1.92926198e-01f,+2.92809218e-01f,+8.43371227e-02f,
+3.82081904e-02f,+3.92892100e-02f,-1.15622304e-01f,+2.56051302e-01f,+1.74663112e-01f,
-1.39255151e-01f,+1.45802602e-01f,-1.74636245e-01f,-4.73760925e-02f,+1.34827364e-02f,
-1.04567878e-01f,-3.64405029e-02f,+5.63372932e-02f,-2.90964469e-02f,-8.61979276e-02f,
-3.10961843e-01f,+1.32259324e-01f,+3.99221480e-02f,+1.94629148e-01f,-1.88961059e-01f,
-8.76671597e-02f,+2.05064431e-01f,+1.79247767e-01f,+3.91826965e-02f,+1.26887202e-01f,
-1.64182127e-01f,+9.17652473e-02f,-1.95259154e-01f,+1.29364699e-01f,-1.48305567e-02f,
+1.91782594e-01f,+7.96691626e-02f,-6.27239197e-02f,+1.95915401e-02f,+1.71437159e-01f,
+1.71960756e-01f,-3.43119502e-01f,+1.78466141e-01f,-4.68914099e-02f,+1.20515656e-02f,
+1.65535524e-01f,-1.62522614e-01f,+1.67910069e-01f,-7.85431415e-02f,-1.40265286e-01f,
+5.55765070e-02f,-1.47251368e-01f,-1.15724117e-01f,+5.33607416e-02f,-1.06392615e-01f,
+2.39792287e-01f,+1.49492979e-01f,+1.95223212e-01f,-1.18063979e-01f,+4.21709567e-03f,
+8.65718909e-03f,-2.78794557e-01f,-6.10185638e-02f,-1.54729962e-01f,+3.37133035e-02f,
-1.87642768e-01f,+1.17891453e-01f,+3.01326830e-02f,-5.47985174e-02f,-1.04773447e-01f,
+2.55928580e-02f,-7.89940134e-02f,-1.14184201e-01f,-1.35117806e-02f,+8.66014063e-02f,
-5.96706122e-02f,+5.72331026e-02f,-1.46247342e-01f,-2.15199217e-02f,+1.10090755e-01f,
-5.97093021e-03f,+7.74818584e-02f,-1.67967305e-01f,+5.63496873e-02f,+6.51734173e-02f,
+1.37994876e-02f,-1.40027853e-03f,+2.79420584e-01f,+1.21013969e-01f,+8.68927762e-02f,
-7.80554861e-02f,-7.52982050e-02f,+3.35855931e-02f,-9.93891284e-02f,+1.55880809e-01f,
+1.10491194e-01f,+5.73778078e-02f,+1.66560769e-01f,-2.72434019e-02f,+2.80767083e-01f,
+1.12403117e-01f,+2.40578912e-02f,+1.26858979e-01f,+4.91998158e-02f,-6.60217553e-02f,
+1.66493967e-01f,+2.77371466e-01f,+2.01653928e-01f,+1.14898935e-01f,-6.56086877e-02f,
+1.53549761e-01f,-7.48795047e-02f,+5.98643012e-02f,+1.50120884e-01f,+1.26388334e-02f,
+2.94580936e-01f,+4.26758938e-02f,+2.11981773e-01f,+1.14090577e-01f,-1.28117025e-01f,
+1.52694106e-01f,-7.90895000e-02f,+1.13469005e-01f,-2.43511945e-02f,+4.11909213e-03f,
+5.47560006e-02f,+2.01089203e-01f,+2.13647947e-01f,+2.98061427e-02f,+7.28170723e-02f,
-4.38230038e-02f,-1.99848399e-01f,-2.40916219e-02f,+3.96364890e-02f,+1.81631625e-01f,
+2.86914498e-01f,+1.55778408e-01f,+4.91221324e-02f,+3.67496312e-01f,+1.10384978e-01f,
-1.45511469e-02f,-6.41882941e-02f,-9.28908736e-02f,-1.55173793e-01f,-1.43461555e-01f,
-3.66203412e-02f,+6.85129780e-03f,+7.37743154e-02f,+1.92590818e-01f,+1.02601364e-01f,
-1.20731987e-01f,-5.08182645e-02f,+2.08749071e-01f,+1.82274953e-01f,+2.17375949e-01f,
+4.64504883e-02f,-2.46572439e-02f,+9.27289352e-02f,-1.42646074e-01f,-2.60083288e-01f,
+1.45855322e-01f,+5.39982319e-02f,+1.40648767e-01f,-1.55325711e-03f,+2.34263688e-02f,
-1.60440668e-01f,-1.16574494e-02f,+2.28294179e-01f,-2.05923811e-01f,+1.29308149e-01f,
+2.13538915e-01f,-1.20007306e-01f,+3.22275348e-02f,+9.16433930e-02f,+1.22882826e-02f,
-1.16691843e-01f,-1.21134249e-02f,+3.40711735e-02f,+3.82705256e-02f,+8.96439254e-02f,
-1.96420774e-02f,+2.14509845e-01f,+9.23577771e-02f,-2.93777913e-01f,-9.12557244e-02f,
+1.38096377e-01f,+3.59056965e-02f,-4.61437926e-02f,-2.04243690e-01f,+2.66855776e-01f,
+4.88368012e-02f,+1.08724289e-01f,+7.81409442e-02f,+4.04940806e-02f,-7.21550956e-02f,
+3.59312683e-01f,-1.50075063e-01f,-6.94732927e-03f,+2.76437942e-02f,-1.23870790e-01f,
+1.74214363e-01f,+3.69857810e-02f,+8.74478519e-02f,+1.83985353e-01f,-5.49134389e-02f,
-3.52549250e-03f,-5.12469672e-02f,+2.15395838e-01f,+3.77092920e-02f,+1.34244571e-02f,
+6.04022481e-02f,+1.84818134e-01f,+4.90158312e-02f,-1.96015164e-01f,+3.61140147e-02f,
-1.27520477e-02f,+8.83758515e-02f,-3.04908119e-02f,+6.32793009e-02f,-3.91203687e-02f,
-5.20136692e-02f,-1.03549838e-01f,-2.33080275e-02f,-7.49581307e-02f,+2.91222513e-01f,
-2.17743255e-02f,-5.09981327e-02f,+4.63085063e-02f,-1.46308020e-01f,+1.13108689e-02f,
+2.08170012e-01f,+3.18085961e-02f,+1.43878028e-01f,-9.41569060e-02f,+1.42199650e-01f,
+3.92106315e-03f,+1.63187847e-01f,+1.25533447e-01f,-8.18015933e-02f,-3.93063091e-02f,
-3.77998389e-02f,-5.26638515e-02f,-1.81688368e-01f,+7.82583952e-02f,+1.11953937e-01f,
-1.14540622e-01f,-9.44264382e-02f,-2.51039285e-02f,+9.56110656e-02f,-8.26708227e-02f,
-3.41523811e-02f,-1.62411615e-01f,+7.12724328e-02f,-1.43900484e-01f,-4.74252626e-02f,
+9.80844349e-02f,+7.34383687e-02f,+1.64618090e-01f,+2.26980031e-01f,+1.71728298e-01f,
+1.02463722e-01f,-8.95740688e-02f,-1.00821974e-02f,+2.83691823e-01f,+6.93072602e-02f,
+1.73211426e-01f,-9.67546776e-02f,+7.95956403e-02f,-4.78405505e-02f,-1.84095249e-01f,
-3.33812321e-03f,+1.57103136e-01f,+8.74701608e-03f,-2.81727135e-01f,-1.58223603e-02f,
+5.28936796e-02f,-7.88723081e-02f,-1.16598442e-01f,-1.68719634e-01f,-8.54650792e-03f,
-1.69791937e-01f,+4.64127678e-03f,+4.68260385e-02f,+5.87897339e-05f,-3.05235591e-02f,
-5.85280024e-02f,+2.43299524e-03f,+1.94116667e-01f,+2.38944784e-01f,+1.61770910e-01f,
-1.38426557e-01f,-3.79950494e-01f,+1.45558938e-01f,+1.68397263e-01f,+1.52514517e-01f,
+2.40203843e-01f,+1.32117525e-01f,+1.54894516e-01f,+1.21806078e-01f,-2.70064622e-02f,
-1.34585530e-01f,-1.21453054e-01f,+1.49327502e-01f,+6.40481412e-02f,-4.45474871e-02f,
-1.68627635e-01f,+6.38900623e-02f,-1.48364156e-01f,+1.11808360e-01f,+5.80616295e-02f,
+2.81060994e-01f,-9.13190320e-02f,-1.92537487e-01f,-5.92650771e-02f,-9.53401104e-02f,
+1.40534282e-01f,+4.72717807e-02f,-1.15515709e-01f,-1.17703855e-01f,+1.24602709e-02f,
+1.75627381e-01f,+1.62999153e-01f,+3.03344484e-02f,+6.58247992e-02f,+7.64676258e-02f,
+8.27576071e-02f,+1.22026009e-02f,-1.85004652e-01f,-1.72959156e-02f,-1.06674269e-01f,
-2.64046416e-02f,+1.50767252e-01f,-1.54417962e-01f,-3.89171317e-02f,-9.12000835e-02f,
-9.99433994e-02f,+1.57415316e-01f,+1.46760911e-01f,-4.93493117e-02f,+2.94298172e-01f,
+2.77010232e-01f,-3.72067355e-02f,+1.58179820e-01f,+1.60081998e-01f,+2.74545461e-01f,
-1.39711365e-01f,+2.78251231e-01f,-1.03707492e-01f,+9.47742462e-02f,+1.59354061e-01f,
+2.46720742e-02f,+6.46948144e-02f,+6.81724101e-02f,+2.63261888e-03f,-1.20415594e-02f,
-2.78783649e-01f,+2.16940358e-01f,+1.99769903e-03f,+3.22455347e-01f,+3.40360999e-02f,
+1.99139312e-01f,+1.60521075e-01f,+2.60727525e-01f,-1.39441803e-01f,+1.01426281e-02f,
+8.28911588e-02f,-1.52831540e-01f,+1.79198027e-01f,-2.05492660e-01f,+2.22919453e-02f,
+2.48273507e-01f,+1.53473904e-02f,+7.89222494e-02f,+1.63257897e-01f,-2.46811241e-01f,
+1.58396646e-01f,+1.46411568e-01f,+9.80650187e-02f,+8.52924585e-02f,-9.29842610e-03f,
+4.57480475e-02f,+8.14952403e-02f,+7.91920274e-02f,+8.06500390e-02f,+1.83119670e-01f,
+5.55223860e-02f,+1.36726871e-01f,+2.51300037e-01f,+3.92970331e-02f,-1.15336224e-01f,
+2.02721450e-02f,-1.62404589e-02f,+1.46270156e-01f,-4.11704322e-03f,+5.81295565e-02f,
+6.59804046e-02f,+2.74084248e-02f,-2.61109490e-02f,-1.34347320e-01f,-3.19354869e-02f,
+2.34047174e-02f,+2.64472246e-01f,+1.45723233e-02f,+6.12985753e-02f,+2.94503123e-01f,
+1.87851563e-02f,-5.43502234e-02f,+4.71510381e-01f,+1.33120418e-01f,+1.85587797e-02f,
-3.41275245e-01f,+3.62640396e-02f,-2.25903895e-02f,+5.69740459e-02f,-2.25543767e-01f,
+1.07026294e-01f,+8.23716223e-02f,+1.20220326e-01f,-1.08683659e-02f,-1.43134281e-01f,
-1.51122734e-01f,+1.79445997e-01f,-3.32314335e-02f,-4.31948513e-01f,+2.76666135e-02f,
-9.38904136e-02f,+9.04332772e-02f,+8.80587399e-02f,+1.16843663e-01f,+2.43880302e-01f,
+1.36693716e-01f,-1.34845689e-01f,+2.22771093e-01f,+4.15700637e-02f,-3.16770464e-01f,
+3.34070325e-01f,-2.31611785e-02f,+2.71330595e-01f,+1.44475356e-01f,+3.04607768e-02f,
+2.94577479e-01f,+9.88842454e-03f,-3.16228241e-01f,+2.93785557e-02f,+8.52359533e-02f,
+1.25047541e-03f,+1.41257897e-01f,+1.85499623e-01f,+1.50673896e-01f,+6.62870705e-02f,
+1.54707089e-01f,-3.37429523e-01f,-2.64960617e-01f,+4.95947637e-02f,+1.30196035e-01f,
-1.13845006e-01f,+1.19617097e-01f,-2.43377760e-01f,+7.50534832e-02f,-1.77164242e-01f,
+2.18154892e-01f,-1.46822169e-01f,+1.28726482e-01f,+1.60255641e-01f,+2.79056299e-02f,
-4.77413647e-02f,+7.65200332e-02f,-1.60342246e-01f,+1.60818994e-01f,+2.39235699e-01f,
-9.88687873e-02f,+1.12281330e-02f,-1.27383247e-01f,+4.24091280e-01f,+2.22321879e-02f,
+2.15876512e-02f,-4.82959330e-01f,-1.85702130e-01f,+3.36164003e-03f,-5.75296879e-02f,
-2.60773093e-01f,+4.48830016e-02f,-1.17057942e-01f,+1.64868921e-01f,+4.07948494e-02f,
+1.92484967e-02f,-2.66964138e-01f,+8.73135403e-02f,-1.21651314e-01f,-1.71672165e-01f,
-9.36806500e-02f,-2.76948571e-01f,-9.41958204e-02f,+1.06870875e-01f,-8.34215656e-02f,
+7.50144720e-02f,-4.19683643e-02f,-3.83919589e-02f,-2.58026153e-01f,+4.57641721e-01f,
+1.53168380e-01f,-6.10108078e-02f,+6.97898939e-02f,+3.35684754e-02f,-6.81435987e-02f,
+2.21603125e-01f,+2.10371286e-01f,-9.55405012e-02f,+1.05006538e-01f,+1.82709634e-01f,
-2.77963374e-02f,+9.03326645e-02f,-2.48394877e-01f,+9.06796381e-02f,-8.25556293e-02f,
-7.46799260e-02f,-2.46420264e-01f,-2.20597520e-01f,-1.84273556e-01f,+1.75167397e-01f,
+1.97802529e-01f,+1.64903343e-01f,+8.65203217e-02f,+2.08153366e-03f,+2.40175083e-01f,
+6.68166280e-02f,+3.76877666e-01f,+8.44307095e-02f,-1.58952549e-01f,-3.11947055e-02f,
-9.15275812e-02f,-8.21466297e-02f,+6.32800981e-02f,+5.31684421e-02f,+7.22167939e-02f,
+7.04427958e-02f,+4.16646525e-02f,+3.76237519e-02f,-6.09479211e-02f,+2.05355823e-01f,
+3.35977711e-02f,-2.50681471e-02f,+1.24894641e-01f,-1.08786859e-01f,+2.91619390e-01f,
-1.03841580e-01f,+1.68595448e-01f,+2.52574563e-01f,-7.96043202e-02f,+1.43777132e-01f,
+1.34661198e-01f,-2.86193818e-01f,+1.06034167e-02f,+1.49396569e-01f,+1.06596865e-01f,
+1.32828876e-01f,+2.07882062e-01f,+2.33528197e-01f,+8.62119421e-02f,+3.48434716e-01f,
-7.70532787e-02f,+2.34765470e-01f,+7.37470090e-02f,+2.20607743e-01f,+1.89096838e-01f,
-4.84992526e-02f,-4.22084659e-01f,+1.73760965e-01f,+9.89560559e-02f,+1.28055289e-01f,
-4.95582521e-02f,-1.27917618e-01f,+1.07957236e-01f,+3.47020447e-01f,-3.26441854e-01f,
-2.94557214e-02f,+2.12067246e-01f,+1.45973757e-01f,+1.48081049e-01f,+1.24065883e-01f,
-4.60372977e-02f,+1.50093898e-01f,+5.59685007e-02f,-3.52023304e-01f,-1.31124184e-01f,
-1.20586548e-02f,+1.97166160e-01f,+2.79096127e-01f,-9.86013487e-02f,+1.38666943e-01f,
+1.64831370e-01f,+6.28478779e-03f,-9.16173682e-02f,+3.04008275e-01f,-1.28186233e-02f,
+1.29365295e-01f,-9.67980456e-03f,-2.06932664e-01f,+6.33851588e-02f,-1.44154325e-01f,
+9.28024650e-02f,+2.19572186e-02f,+3.72433215e-01f,-2.24003807e-01f,+2.06087217e-01f,
-8.75640139e-02f,-9.73402113e-02f,-1.13394752e-01f,+5.80852777e-02f,+2.72480756e-01f,
-1.71108633e-01f,+9.30025280e-02f,-2.62389362e-01f,+7.06960410e-02f,+2.82639802e-01f,
+2.65899390e-01f,+3.19161445e-01f,+6.05230927e-02f,-3.96646798e-01f,-1.12879366e-01f,
+2.76790589e-01f,+1.06116563e-01f,+1.98346630e-01f,-2.25684613e-01f,-1.35216862e-01f,
-1.88057691e-01f,+3.05324737e-02f,-7.53014758e-02f,-4.85104546e-02f,+1.27266543e-02f,
-7.46311843e-02f,+8.33860114e-02f,-2.82506216e-02f,+1.13855228e-01f,-2.31150240e-01f,
+1.79960713e-01f,+1.69402972e-01f,-1.90942198e-01f,-5.11498898e-02f,+8.20486769e-02f,
+3.15023899e-01f,-2.01521069e-01f,+5.62536046e-02f,-1.30027413e-01f,+5.45581765e-02f,
+7.25545809e-02f,+1.37527671e-03f,+3.47129196e-01f,+2.94178903e-01f,+2.19875947e-01f,
-6.93556890e-02f,-1.70502320e-01f,+3.62729318e-02f,+2.50755072e-01f,+1.52455211e-01f,
-3.07537138e-01f,-2.44602636e-02f,-8.41548517e-02f,+2.72389352e-01f,-9.03723836e-02f,
+1.15716502e-01f,+1.79160655e-01f,+1.67971000e-01f,+2.26977952e-02f,-1.76341474e-01f,
+2.31703147e-01f,-8.57121348e-02f,-4.95612510e-02f,-2.27723010e-02f,-5.42017333e-02f,
+2.29802310e-01f,-2.83102483e-01f,+2.95231044e-01f,-2.45473105e-02f,-4.48715799e-02f,
+2.04213932e-01f,+1.76368475e-01f,-1.06523894e-01f,+1.50963172e-01f,+9.93503332e-02f,
-1.32012457e-01f,-2.26287901e-01f,-7.13360235e-02f,+1.34985521e-01f,-1.12058111e-01f,
+2.92654708e-02f,-1.70200229e-01f,-1.73826274e-02f,+1.24142461e-01f,+2.16398060e-01f,
-1.25986427e-01f,+1.58905908e-01f,+7.63478354e-02f,-1.26112830e-02f,-1.16045862e-01f,
+1.70356005e-01f,+2.45841056e-01f,+1.19937815e-01f,-5.65073341e-02f,+2.12522037e-02f,
+1.69782396e-02f,+4.23297361e-02f,-5.18348813e-02f,+2.00036410e-02f,+9.63231251e-02f,
-3.79059970e-01f,+4.07957584e-02f,+9.77537483e-02f,-7.78546259e-02f,-1.22702345e-01f,
-7.34564885e-02f,-4.60338071e-02f,-2.58289035e-02f,+1.68168709e-01f,-2.46445358e-01f,
+7.93165714e-03f,+7.94111490e-02f,+6.68185800e-02f,-9.84942690e-02f,+1.37964025e-01f,
-1.58013523e-01f,+2.55210936e-01f,+8.21955279e-02f,-3.66965085e-02f,-1.33186877e-01f,
+6.02045417e-01f,+7.39137381e-02f,+1.21766560e-01f,+3.15791965e-01f,+2.48904768e-02f,
+6.85639828e-02f,-2.42625736e-02f,-1.94706008e-01f,-8.92698169e-02f,+4.62419391e-02f,
-4.80497271e-01f,-1.66414514e-01f,+1.82518035e-01f,+2.64029559e-02f,+1.45882770e-01f,
+1.16322318e-03f,+1.45519003e-01f,-1.03639819e-01f,-1.07729904e-01f,+7.42000043e-02f,
+7.24832863e-02f,+2.86499951e-02f,+6.21833503e-02f,+7.59019926e-02f,+3.46811954e-03f,
-7.22774118e-02f,+2.15785459e-01f,+1.16464179e-02f,-3.50825563e-02f,+7.56187737e-02f,
-1.27357095e-01f,-2.70409971e-01f,-1.20862044e-01f,+1.88378364e-01f,+5.17406873e-03f,
-9.36470404e-02f,+6.33385628e-02f,+1.85440570e-01f,+1.07157789e-01f,+5.29577099e-02f,
-1.70283973e-01f,+1.95849568e-01f,-7.15937186e-03f,+8.82494450e-02f,-9.86494198e-02f,
+1.35854170e-01f,+3.74394298e-01f,-6.56196922e-02f,+1.28944933e-01f,-1.40257806e-01f,
+9.56416056e-02f,+6.83581282e-04f,+1.01561181e-01f,-1.63090467e-01f,-9.15042758e-02f,
+1.50948405e-01f,+1.30882844e-01f,-7.51345456e-02f,+5.04188947e-02f,-3.86086553e-02f,
+1.32695660e-01f,-2.67781526e-01f,+1.09327219e-01f,-1.26646712e-01f,+2.02690691e-01f,
+1.63082201e-02f,+2.19805375e-01f,+1.93623006e-01f,+7.35340267e-02f,+4.86890860e-02f,
-1.40356749e-01f,-4.96027470e-02f,-1.02769792e-01f,-1.19248088e-02f,+2.04630569e-01f,
+2.48577371e-01f,-8.86439979e-02f,+8.85933638e-02f,+1.20834805e-01f,-2.78824508e-01f,
+2.00033203e-01f,+1.36603996e-01f,-8.99505317e-02f,-8.49935599e-03f,-4.34728228e-02f,
+1.45939484e-01f,+1.89568713e-01f,+1.62292689e-01f,+2.07826495e-01f,-4.77344096e-02f,
-2.13750154e-01f,+1.35502607e-01f,-8.52286816e-02f,+1.38142124e-01f,+2.46062860e-01f,
+9.59185436e-02f,-6.67512640e-02f,+2.99062058e-02f,-1.95258688e-02f,+3.51723060e-02f,
+3.43353599e-01f,-5.24640828e-02f,+1.66384310e-01f,-2.42841011e-03f,-1.49144009e-01f,
-1.39830157e-01f,+2.56323546e-01f,+6.83426261e-02f,-2.11512461e-01f,+5.85036427e-02f,
+3.36516164e-02f,-3.38021144e-02f,-3.56225111e-02f,+1.13101274e-01f,-6.56316653e-02f,
+9.09037814e-02f,+1.98424935e-01f,-2.55928785e-02f,-2.31654763e-01f,-9.55529511e-02f,
+2.10824519e-01f,+2.60253608e-01f,+6.39628097e-02f,+6.79632574e-02f,+8.43757838e-02f,
-7.13860542e-02f,-1.98244020e-01f,+4.08079237e-01f,-6.69432282e-02f,-1.02687046e-01f,
-1.00941621e-01f,-1.44516364e-01f,+3.43554974e-01f,+1.41741792e-02f,+1.08513132e-01f,
+3.88465002e-02f,+4.94708806e-01f,-5.96721843e-02f,-1.83014981e-02f,-2.08731717e-03f,
+1.48950648e-02f,-5.56936711e-02f,+2.05817625e-01f,-1.55126840e-01f,+2.20074445e-01f,
+1.94279119e-01f,+1.67221241e-02f,+3.03924084e-01f,-9.70460474e-02f,-7.11964443e-02f,
+2.69979745e-01f,+1.91441178e-02f,+9.44398642e-02f,+1.96238637e-01f,+1.52476922e-01f,
-8.13948661e-02f,-9.77263153e-02f,-1.55128807e-01f,+1.93825588e-02f,-2.89891571e-01f,
+6.86558709e-02f,-1.19208887e-01f,-7.35558197e-02f,+1.02707997e-01f,+6.82384744e-02f,
-5.26398160e-02f,+1.86806574e-01f,+8.96751583e-02f,-2.96359003e-01f,-1.10866819e-02f,
+7.56456554e-02f,+1.02650791e-01f,-7.92571083e-02f,+1.32635273e-02f,-2.50838816e-01f,
-1.11708313e-01f,+3.20791632e-01f,+1.57143977e-02f,+3.57996970e-02f,-2.68272832e-02f,
-5.32913655e-02f,-1.84372351e-01f,+2.94529051e-01f,-1.30520836e-01f,+2.56084293e-01f,
+5.26404619e-01f,-1.42305359e-01f,-9.83028263e-02f,-8.22844580e-02f,+1.72879428e-01f,
+2.01116890e-01f,-3.13730448e-01f,+4.42270376e-02f,-2.16936782e-01f,+1.07956603e-02f,
+1.94916595e-02f,+4.03112829e-01f,-2.53358126e-01f,-2.51527578e-01f,-2.72238076e-01f,
-9.73221958e-02f,-8.17052275e-02f,-1.61531031e-01f,+2.14299411e-01f,-9.25571173e-02f,
+1.38705388e-01f,+3.74621637e-02f,-2.80088484e-01f,-6.10139146e-02f,-2.13598832e-03f,
-5.92484586e-02f,-5.11888713e-02f,-2.81884186e-02f,+7.88612440e-02f,+1.44727290e-01f,
-2.23872423e-01f,+1.06371626e-01f,+1.95100471e-01f,+3.09492350e-01f,-1.56190008e-01f,
+2.75456488e-01f,-2.79095203e-01f,+2.31862053e-01f,+2.26047277e-01f,+1.67574123e-01f,
+2.54953384e-01f,+9.91066843e-02f,+3.55048180e-01f,+2.04582617e-01f,+1.83687270e-01f,
+2.83790715e-02f,-9.06173978e-03f,-5.34881167e-02f,-8.55573043e-02f,-7.17043355e-02f,
+7.27455691e-02f,-9.14605930e-02f,+4.08586115e-01f,+1.26690371e-02f,-3.13611366e-02f,
+9.75334123e-02f,+3.19275223e-02f,-5.51810265e-02f,-6.93703741e-02f,-1.06490143e-01f,
+1.81578308e-01f,-8.89540091e-03f,+7.13833645e-02f,-4.35433947e-02f,+6.21805117e-02f,
+1.22062936e-01f,+4.44973307e-03f,+1.36182860e-01f,-1.31842554e-01f,+2.94151962e-01f,
-8.35801885e-02f,-1.10454775e-01f,+2.11728275e-01f,+1.45502865e-01f,+9.50684845e-02f,
-2.31542051e-01f,-5.90027031e-03f,-2.32567400e-01f,-5.59982508e-02f,+5.95200062e-02f,
-9.06613097e-02f,-1.83488324e-01f,-7.03351619e-03f,+1.96637809e-01f,-1.01876490e-01f,
+9.60014388e-02f,-2.70052791e-01f,+1.24181777e-01f,-2.33612265e-02f,+2.61905134e-01f,
-1.42975645e-02f,+1.18034832e-01f,+4.24028605e-01f,+1.58186689e-01f,+3.87603998e-01f,
+1.53513864e-01f,+1.96230412e-01f,-4.90631796e-02f,-2.10794955e-02f,+5.73632978e-02f,
-1.08915180e-01f,-1.21307895e-01f,-1.84214875e-01f,-9.50439721e-02f,-3.55428189e-01f,
-2.78436035e-01f,+1.99266106e-01f,-2.30102073e-02f,-5.65593019e-02f,-1.34333834e-01f,
-1.23318605e-01f,+1.95806637e-01f,-3.42806242e-02f,+1.76215202e-01f,+2.60381967e-01f,
+3.18198889e-01f,-5.71628883e-02f,-3.78208965e-01f,-2.11750087e-03f,+1.15288742e-01f,
+1.89741448e-01f,+8.53857994e-02f,-7.41496608e-02f,+4.91978377e-01f,+4.51548070e-01f,
-2.12791666e-01f,+2.56959707e-01f,-1.58410147e-02f,+5.25609590e-02f,+2.04825342e-01f,
-1.56336918e-01f,+3.39305460e-01f,+1.53198466e-01f,+1.04755975e-01f,+1.54215336e-01f,
+1.12616234e-01f,-4.64447811e-02f,-5.39734289e-02f,-4.57283780e-02f,-1.37884155e-01f,
+1.95148706e-01f,-5.38848117e-02f,+3.88655663e-02f,+5.17349355e-02f,+4.72524855e-03f,
+1.80213712e-02f,+6.90812618e-02f,+1.91010348e-02f,-5.77575080e-02f,+1.09679639e-01f,
+8.64776447e-02f,-3.28669287e-02f,-6.70657754e-02f,+1.65312648e-01f,+6.96199760e-02f,
-3.97516266e-02f,+1.71074733e-01f,-1.16131201e-01f,+6.88850433e-02f,-1.40487254e-01f,
+1.06153572e-02f,-1.55873954e-01f,+1.50326133e-01f,+1.01194918e-01f,+2.35417023e-01f,
-1.52966343e-02f,+7.97742531e-02f,+1.35561094e-01f,-9.36963968e-03f,+5.81297651e-02f,
+6.49792925e-02f,+1.36893436e-01f,-2.70377304e-02f,+1.88387364e-01f,+1.69682145e-01f,
-1.51574925e-01f,+2.51375008e-02f,-2.44191423e-01f,-5.25960922e-02f,+1.22665122e-01f,
+1.86858013e-01f,-2.83553720e-01f,-8.67032185e-02f,-2.03524217e-01f,-9.00312513e-03f,
-2.36986857e-02f,-1.00549087e-02f,-8.05117190e-02f,+1.39868721e-01f,-1.82047740e-01f,
+2.98218310e-01f,+1.69260636e-01f,+8.14460218e-02f,+1.37874410e-01f,+1.05645455e-01f,
+1.56432733e-01f,+2.16148034e-01f,-1.45722508e-01f,-1.93325236e-01f,+4.83096614e-02f,
-7.40665942e-02f,+2.08418831e-01f,+9.63951088e-03f,-1.28625631e-01f,+1.17081285e-01f,
-8.19360837e-02f,+1.76091939e-02f,-1.40378743e-01f,+1.53062204e-02f,+1.06071703e-01f,
+4.88683023e-02f,+1.85194552e-01f,+1.46938026e-01f,+2.18718112e-01f,-3.35076541e-01f,
-1.92071080e-01f,-8.12958926e-02f,-4.44876514e-02f,+9.42932591e-02f,-3.35663885e-01f,
+1.41685814e-01f,+8.08068737e-02f,+1.04845278e-01f,+6.74261600e-02f,+2.46370137e-02f,
-1.59731880e-01f,+1.52099192e-01f,+1.41362771e-02f,+8.61418024e-02f,+2.39756018e-01f,
+6.19747154e-02f,-1.72641918e-01f,+2.41751313e-01f,+2.11343437e-01f,-2.13892423e-02f,
+1.25974923e-01f,-8.85635987e-02f,+2.31384300e-02f,+9.74893570e-02f,+1.12023301e-01f,
+2.08251119e-01f,-2.09692165e-01f,+5.62612787e-02f,+2.28938028e-01f,+1.23955414e-01f,
-1.07542746e-01f,+2.34863132e-01f,+2.97384232e-01f,-1.30348327e-02f,+1.02685302e-01f,
-4.20941189e-02f,+2.51393855e-01f,+1.05460159e-01f,+3.82141285e-02f,-5.52668422e-02f,
-6.04487397e-02f,-1.50466084e-01f,+4.18320578e-03f,+1.43598258e-01f,+2.79244110e-02f,
-1.29212497e-03f,-3.32833454e-02f,-1.95370153e-01f,-7.37327933e-02f,-1.28003821e-01f,
+2.95170713e-02f,-1.09467372e-01f,+9.22625735e-02f,+1.93334654e-01f,+1.44476414e-01f,
+1.60569966e-01f,-2.47799471e-01f,-1.26862124e-01f,+6.48049191e-02f,+2.46405005e-01f,
-1.05434306e-01f,-8.31258819e-02f,+2.42425464e-02f,+2.61667758e-01f,+7.99651146e-02f,
+1.03855506e-01f,-8.03402811e-02f,+1.87941045e-01f,+2.08290257e-02f,-1.87087715e-01f,
+1.00859120e-01f,-5.22770025e-02f,+1.61282316e-01f,-8.38293210e-02f,-1.11202709e-01f,
+9.98850819e-03f,+7.59517890e-04f,-1.58418074e-01f,-4.89249825e-02f,+1.32258656e-02f,
-7.78809264e-02f,+6.27949610e-02f,-8.38330761e-02f,+1.27365649e-01f,-5.45322336e-02f,
+1.76341355e-01f,-2.61861421e-02f,+1.34037703e-01f,-9.93873179e-02f,+1.71556905e-01f,
+4.30357689e-03f,-5.62370345e-02f,+5.68738356e-02f,+1.32534996e-01f,-1.07207626e-01f,
-1.48593083e-01f,+4.60718311e-02f,+1.46992058e-01f,+6.95483014e-02f,+2.47913018e-01f,
-1.20167740e-01f,-7.32972994e-02f,-1.08132735e-02f,-9.77299362e-02f,+1.28549844e-01f,
+9.58372280e-02f,+3.07893921e-02f,-1.12666804e-02f,-9.49980877e-03f,-1.20203897e-01f,
-3.21347006e-02f,+6.64715618e-02f,-1.70052454e-01f,-2.69970093e-02f,+2.49868289e-01f,
+2.92404946e-02f,+2.64565438e-01f,+1.04263648e-01f,+5.86974584e-02f,+2.67018508e-02f,
-7.82490373e-02f,-8.98155645e-02f,+1.16145064e-03f,+1.64816916e-01f,+1.98030531e-01f,
+1.34535626e-01f,+7.14740604e-02f,+7.99227282e-02f,-8.78455862e-02f,-3.61657888e-02f,
+3.21657360e-01f,+2.36575335e-01f,+1.88458338e-01f,-1.78886846e-01f,-8.55614394e-02f,
-1.79052174e-01f,+9.05587971e-02f,+1.34882942e-01f,-1.03013262e-01f,+1.09581821e-01f,
+5.57108745e-02f,-1.84881121e-01f,-1.93126220e-02f,+5.27886711e-02f,-9.85865369e-02f,
+1.10839233e-01f,+1.74967200e-01f,-1.22573068e-02f,+7.08751157e-02f,+6.02077544e-02f,
+2.05223054e-01f,-1.94875449e-01f,-1.74675230e-02f,-1.79670364e-01f,+1.61085963e-01f,
-1.25035807e-01f,-1.28155962e-01f,+3.70182134e-02f,+1.16276905e-01f,-9.67276618e-02f,
+2.37337947e-01f,-2.48218998e-01f,-1.82089265e-02f,+1.52792752e-01f,+1.50758266e-01f,
+1.62004858e-01f,+2.98339963e-01f,+2.39876844e-02f,-2.29460046e-01f,-1.50272816e-01f,
-9.33345184e-02f,+2.51300663e-01f,+1.85926054e-02f,-5.08008525e-03f,+8.77638161e-02f,
+1.63347945e-01f,+1.61536574e-01f,+2.29273647e-01f,-8.50653648e-02f,+2.31391639e-01f,
+2.72131830e-01f,-9.34610050e-03f,-1.62144199e-01f,+3.61652784e-02f,+9.31987911e-02f,
-1.10134885e-01f,+2.31284454e-01f,-1.45231724e-01f,+1.15323529e-01f,+1.40593976e-01f,
-1.95159242e-02f,-2.35166818e-01f,-1.14638992e-01f,+2.64262140e-01f,-1.28042251e-01f,
+1.97652638e-01f,-2.83868790e-01f,+1.12315103e-01f,-9.78101790e-02f,-1.21177033e-01f,
-2.32508499e-02f,+2.02166028e-02f,+1.09367959e-01f,-5.45503944e-02f,-1.30066141e-01f,
-2.91122776e-02f,-3.38750705e-03f,+1.62818789e-01f,+7.53199831e-02f,+3.57869528e-02f,
+7.28330612e-02f,+1.81261048e-01f,-1.29044995e-01f,+3.28979194e-02f,+3.00203472e-01f,
-4.83921394e-02f,-9.92691517e-02f,-3.70117798e-02f,+1.10349745e-01f,+8.88163298e-02f,
+2.15162989e-02f,-2.31111214e-01f,+1.42418638e-01f,+6.07941225e-02f,-7.03305453e-02f,
-9.01238844e-02f,+9.26939920e-02f,+7.04765320e-02f,-1.39130592e-01f,-2.17057522e-02f,
-4.42673229e-02f,-7.30551109e-02f,-2.90975630e-01f,-2.45910347e-01f,+7.63790607e-02f,
+8.89005736e-02f,-1.33826777e-01f,+1.34653494e-01f,+1.44101642e-02f,-3.21435817e-02f,
+1.35334909e-01f,-3.35487654e-04f,-2.91354908e-03f,+1.41905650e-01f,+1.97998270e-01f,
+2.58643478e-01f,-6.72819689e-02f,-5.86213283e-02f,-2.83381287e-02f,+3.82195383e-01f,
-3.01424563e-01f,-4.84291874e-02f,+6.01308569e-02f,-1.03714012e-01f,-2.30789799e-02f,
+2.76210401e-02f,-3.74666490e-02f,+4.14274961e-01f,+6.49551600e-02f,+2.96883166e-01f,
+1.66629687e-01f,+2.35439658e-01f,+7.32491389e-02f,-2.05479249e-01f,-1.12225346e-01f,
+9.28964764e-02f,+3.78980814e-03f,+6.45304084e-01f,-2.44085900e-02f,-5.52183278e-02f,
+2.33092591e-01f,+2.19774514e-01f,+1.58548132e-01f,+2.43946731e-01f,+1.62336603e-01f,
-1.83225702e-02f,-7.33630508e-02f,-1.72613263e-01f,+1.12594448e-01f,+1.01527959e-01f,
+3.13543938e-02f,-1.61632001e-01f,+1.28409192e-01f,-1.70151487e-01f,-1.89403176e-01f,
-1.42318755e-01f,-3.62934507e-02f,-1.44341260e-01f,+1.73521623e-01f,+3.80540118e-02f,
-1.09962180e-01f,+4.78634648e-02f,+1.72582373e-01f,+2.77772993e-01f,-2.01272458e-01f,
-1.38406202e-01f,+4.77291606e-02f,+4.43879291e-02f,+4.02556434e-02f,+3.29558283e-01f,
-8.42007473e-02f,+4.33125235e-02f,+2.73251951e-01f,+1.40369937e-01f,-5.59063889e-02f,
-7.22981095e-02f,+1.71803385e-01f,+3.12674008e-02f,+9.38872397e-02f,-5.23387268e-02f,
+2.68793225e-01f,+8.43934566e-02f,+2.06396848e-01f,+1.63546409e-02f,-1.82173058e-01f,
-1.05269507e-01f,-2.94217050e-01f,-3.59891658e-03f,-1.51787519e-01f,+1.21892337e-02f,
-2.04045847e-01f,+2.60085344e-01f,+1.49335489e-01f,+6.57980517e-02f,-1.42397627e-01f,
-7.90865570e-02f,-2.13860199e-01f,+2.38688271e-02f,-6.21302277e-02f,+6.47278968e-03f,
-1.21342670e-02f,+1.81988180e-01f,+1.71511292e-01f,-1.20361266e-03f,-1.03498138e-01f,
+2.18440741e-01f,+1.09505765e-01f,+7.74274394e-02f,+2.76979119e-01f,+2.41356477e-01f,
-1.55911177e-01f,-7.97739029e-02f,-1.86487630e-01f,+2.76133623e-02f,+1.82665974e-01f,
+2.78253436e-01f,-7.09536001e-02f,-3.79468617e-03f,+1.48657352e-01f,+1.34587914e-01f,
+2.37678457e-02f,-3.58645916e-02f,+2.03277007e-01f,-8.22601393e-02f,-1.97467402e-01f,
-5.23434058e-02f,-2.40382403e-01f,-1.38018206e-01f,-6.92312717e-02f,+2.63855178e-02f,
-1.18122116e-01f,-1.13491088e-01f,+1.17994301e-01f,-1.14506468e-01f,+2.10845247e-01f,
+1.92564785e-01f,+1.93061829e-01f,-7.47778937e-02f,-1.08468980e-01f,-1.41578048e-01f,
+1.34541214e-01f,-3.43852311e-01f,+1.63580954e-01f,-1.05459735e-01f,+3.78959209e-01f,
-1.61254153e-01f,-1.47541255e-01f,+2.80163009e-02f,+1.56081602e-01f,+1.42157465e-01f,
-4.48125564e-02f,-8.67730975e-02f,+6.37037493e-03f,+9.05815214e-02f,-3.44183356e-01f,
+4.95894738e-02f,-1.29204422e-01f,+1.11375257e-01f,+8.86795949e-03f,-2.49824915e-02f,
+1.57204866e-01f,-9.42566246e-02f,+2.21857354e-01f,-1.91406354e-01f,-4.58779670e-02f,
+2.10111961e-02f,-2.02946831e-02f,-2.06976235e-01f,-1.07425816e-01f,+3.04658711e-01f,
+8.02507624e-02f,-2.30898768e-01f,+1.44595280e-01f,+3.24088812e-01f,-2.37639517e-01f,
-4.16531088e-03f,-2.66145527e-01f,-3.84743288e-02f,+2.75784880e-02f,+1.29217356e-01f,
+1.26847520e-01f,-1.84559554e-03f,-7.52802864e-02f,+1.84437394e-01f,-4.22974117e-02f,
+1.73284672e-02f,-2.67583621e-03f,-4.32269901e-01f,-4.53180596e-02f,-4.41093817e-02f,
-8.37427825e-02f,-5.14201596e-02f,-1.47081226e-01f,+1.56569988e-01f,-2.75572259e-02f,
+7.13676661e-02f,+1.80911645e-01f,+9.89276990e-02f,-2.28721816e-02f,+1.33650722e-02f,
+1.73233390e-01f,-3.49171430e-01f,+2.52137259e-02f,+8.83639753e-02f,-7.20060021e-02f,
-1.21115729e-01f,+2.24242225e-01f,-1.03337713e-01f,-7.69889802e-02f,-1.46274492e-02f,
-1.02643453e-01f,-2.14925855e-01f,-1.21796474e-01f,+4.97037321e-02f,-3.66369784e-01f,
+1.07436940e-01f,-1.12542674e-01f,+1.12800732e-01f,-1.93036962e-02f,-8.67322534e-02f,
+9.30472389e-02f,-1.55905396e-01f,+1.24848396e-01f,+3.50317806e-02f,+2.52118707e-01f,
+2.37858817e-02f,+7.86839947e-02f,+7.29025230e-02f,-9.55391079e-02f,+1.72601506e-01f,
-3.75748575e-02f,+1.67228371e-01f,-1.75695747e-01f,-3.93879088e-03f,+9.96024683e-02f,
+1.76191226e-01f,+1.68221712e-01f,-1.73287138e-01f,+2.20795438e-01f,-4.98147048e-02f,
+8.42062756e-03f,+4.70492914e-02f,+1.40731126e-01f,-2.92807985e-02f,+2.65242845e-01f,
-3.88828479e-02f,-1.12505004e-01f,-1.21491499e-01f,+8.98115113e-02f,-1.43950790e-01f,
+3.42365913e-02f,-1.70312431e-02f,-1.20469846e-01f,-3.45693499e-01f,-1.41361549e-01f,
-1.48526743e-01f,+1.48856631e-02f,+1.62546530e-01f,+5.14851883e-02f,+5.75908124e-02f,
+2.39689618e-01f,+1.57893356e-02f,-1.56603858e-01f,-1.76336050e-01f,-1.20147981e-01f,
+1.12638436e-01f,+2.08704621e-01f,+9.84389782e-02f,+7.29089901e-02f,-2.67828822e-01f,
-2.49993689e-02f,+1.89025566e-01f,+9.56616178e-02f,+8.59772265e-02f,-5.76181598e-02f,
-1.78704932e-01f,+9.88197327e-02f,+2.71814436e-01f,+1.53258711e-01f,-2.27520719e-01f,
-5.86349219e-02f,+2.56606996e-01f,-2.43483454e-01f,+2.73930579e-01f,+9.74114388e-02f,
+2.85560405e-03f,-5.30687720e-02f,+8.93059447e-02f,+8.22178870e-02f,-5.91503689e-04f,
-6.64640293e-02f,+3.80525365e-04f,-3.22437100e-02f,-1.86941743e-01f,+2.37140745e-01f,
+1.08182937e-01f,-6.08925857e-02f,+5.32869585e-02f,-7.26970285e-02f,+4.41742927e-01f,
-6.52458146e-02f,-2.14552544e-02f,+1.28327563e-01f,-4.65616845e-02f,+2.78443933e-01f,
+1.05693363e-01f,-5.04797399e-01f,+6.06297292e-02f,+7.24485470e-03f,-3.39601189e-02f,
-1.20199874e-01f,+2.22564891e-01f,+1.77852833e-03f,-6.29087584e-03f,-2.75469124e-02f,
+1.17475376e-01f,+6.62209913e-02f,+7.84980580e-02f,+1.01192616e-01f,-2.27232948e-01f,
+2.16031596e-01f,+6.11078665e-02f,+2.67554581e-01f,-7.74600953e-02f,+1.49124369e-01f,
-4.95250411e-02f,-3.40792656e-01f,-1.25321284e-01f,+1.00239724e-01f,+3.99286635e-02f,
-2.28260085e-01f,+1.59064785e-01f,-4.86570150e-02f,+3.43498476e-02f,+1.93422511e-01f,
-1.10144056e-01f,-7.83999115e-02f,-1.58587411e-01f,-2.84446150e-01f,-2.79991664e-02f,
+1.05154552e-01f,+1.81839287e-01f,+2.27288857e-01f,-3.02838832e-01f,+6.62326738e-02f,
+3.27020958e-02f,-2.40636524e-03f,+2.38775924e-01f,+1.23649225e-01f,+7.35989725e-03f,
-1.89822003e-01f,+6.93453550e-02f,+1.38635552e-02f,+1.02112584e-01f,-2.27914602e-01f,
-1.74455624e-02f,+2.48745024e-01f,-9.05587524e-02f,-1.84689075e-01f,-1.22525267e-01f,
+1.79959863e-01f,-3.37520301e-01f,-9.68848467e-02f,+1.61486268e-01f,+6.35774527e-03f,
-3.10468627e-03f,+3.44563246e-01f,+1.12819649e-01f,-1.25093818e-01f,-4.31919955e-02f,
+1.40999734e-01f,+8.92883688e-02f,+1.10591084e-01f,-1.29558548e-01f,+1.02787189e-01f,
+1.06174663e-01f,-4.47816730e-01f,-7.95776839e-04f,-1.27895460e-01f,-8.83710831e-02f,
+1.09060882e-02f,-2.09617727e-02f,+1.45235598e-01f,-6.46520853e-02f,-5.44207394e-02f,
+1.84333727e-01f,-5.11860736e-02f,-6.82225451e-02f,-1.99286550e-01f,+8.46441984e-02f,
+1.68866754e-01f,-2.62471467e-01f,-3.20493393e-02f,+1.02695636e-01f,+3.08001949e-03f,
-2.85509229e-03f,-2.92605489e-01f,-1.74469471e-01f,-2.98583359e-02f,-2.65626848e-01f,
+3.07155520e-01f,-1.81376174e-01f,+9.46748927e-02f,+1.36152640e-01f,+3.85958789e-04f,
-2.51242127e-02f,-1.26389802e-01f,+8.05269368e-03f,-2.15241704e-02f,-6.99530691e-02f,
+7.39453137e-02f,-1.03263743e-02f,+5.36447242e-02f,-1.68778956e-01f,-9.60146263e-02f,
-2.73714930e-01f,+3.10255941e-02f,+2.54747778e-01f,+4.70191091e-01f,+1.10460848e-01f,
-3.75213325e-01f,+2.03559488e-01f,-8.15333501e-02f,+3.21436286e-01f,-6.51477203e-02f,
+1.23925112e-01f,-2.28624442e-03f,+1.95062071e-01f,+2.95702964e-01f,+3.33808780e-01f,
+1.94327999e-02f,+3.01009417e-01f,-1.88225552e-01f,-9.13158208e-02f,+4.51927394e-01f,
-2.34142229e-01f,-2.87841856e-01f,-4.86621819e-03f,+2.87214294e-02f,-7.26072874e-04f,
-2.04503655e-01f,-2.73824990e-01f,-1.10316247e-01f,+1.70447677e-01f,-6.16143644e-02f,
+8.17590952e-02f,+1.00252971e-01f,+4.42902185e-02f,-3.59331481e-02f,-1.98811442e-01f,
-4.13125195e-02f,-1.68840550e-02f,-1.27076387e-01f,+2.94696271e-01f,-2.75039464e-01f,
+9.13091153e-02f,+2.63203476e-02f,+2.62714744e-01f,-4.76311184e-02f,+9.99486446e-02f,
+1.05897196e-01f,+4.75850962e-02f,+1.10630833e-01f,-1.82099238e-01f,-8.01071972e-02f,
+3.30595762e-01f,-5.52627677e-03f,-1.51900304e-02f,+3.46939832e-01f,-1.11391202e-01f,
-7.16623887e-02f,-5.33563718e-02f,+4.99962457e-02f,+7.44684190e-02f,-2.56664097e-01f,
+1.42793015e-01f,-3.89559232e-02f,+9.42754000e-02f,+1.30482092e-01f,-3.70440409e-02f,
+3.30136687e-01f,-2.74172813e-01f,+7.23393932e-02f,+2.34532058e-01f,-3.30723047e-01f,
+2.55227610e-02f,-1.06169842e-01f,+2.45995060e-01f,-9.07997638e-02f,-3.63749534e-01f,
-1.48578957e-01f,-5.37967943e-02f,-7.12518170e-02f,+2.93489128e-01f,+3.36688720e-02f,
-1.63574770e-01f,+7.12038204e-02f,+6.66680261e-02f,+1.03908800e-01f,+1.89631674e-02f,
+8.45394954e-02f,+3.34617168e-01f,+1.63159087e-01f,+2.54428983e-01f,+1.55223161e-01f,
+3.36907879e-02f,-2.69483775e-01f,+4.56718169e-02f,-6.27129152e-02f,+2.36030608e-01f,
-9.23108589e-03f,+1.89933732e-01f,-1.38476118e-01f,+1.11253239e-01f,-1.70962721e-01f,
-8.65268707e-02f,+3.58489789e-02f,+2.95767151e-02f,-4.99798954e-02f,-3.13718840e-02f,
+3.28792572e-01f,+2.92673916e-01f,+7.39187524e-02f,+3.91350724e-02f,-3.64772588e-01f,
+7.56658763e-02f,+6.12867177e-02f,-2.59739220e-01f,+2.17830464e-01f,+9.00954604e-02f,
-3.11039686e-01f,+1.38950929e-01f,+4.18513939e-02f,+3.07083875e-01f,-1.50490135e-01f,
+3.42815965e-02f,-1.16455883e-01f,+8.33846629e-02f,+9.45140645e-02f,+5.59744909e-02f,
+1.70905232e-01f,+1.08560391e-01f,-2.85510153e-01f,-1.61952116e-02f,+3.49336416e-01f,
-1.36870831e-01f,+2.34606564e-01f,-3.15284193e-01f,+1.77832041e-02f,+2.43737176e-01f,
+2.69741043e-02f,-7.12273829e-03f,-2.21891046e-01f,+8.05302188e-02f,-3.22259590e-02f,
-1.78343177e-01f,-3.48373234e-01f,+2.10001767e-01f,+5.97128458e-02f,+1.96707159e-01f,
+9.44758579e-03f,+2.86929421e-02f,-2.30552852e-01f,+6.35883659e-02f,-6.75471649e-02f,
+1.17310002e-01f,+2.79409647e-01f,-4.62786593e-02f,-1.53182760e-01f,+5.88205038e-03f,
+3.79061550e-02f,+9.32378024e-02f,+2.76673049e-01f,+1.75440669e-01f,+1.93780705e-01f,
+1.40577883e-01f,+1.22267902e-01f,+1.73438445e-01f,+2.98040062e-02f,-8.56020376e-02f,
-1.66579768e-01f,+1.60811171e-02f,-2.84151472e-02f,-1.68429807e-01f,-6.05217693e-03f,
-2.22576156e-01f,-1.52129769e-01f,+8.12221393e-02f,+5.83758727e-02f,-2.23411649e-01f,
+2.29757145e-01f,+4.98881489e-02f,+2.79632896e-01f,+3.44904244e-01f,-1.62878573e-01f,
-1.95454031e-01f,+4.90535386e-02f,-4.15708363e-01f,-4.44793776e-02f,+2.55133659e-01f,
-8.06720853e-02f,+5.20049362e-04f,-1.07752331e-01f,-1.40367318e-02f,-3.00196335e-02f,
+4.59476173e-01f,+1.52054146e-01f,+5.51164709e-02f,+1.63114294e-02f,-1.73380286e-01f,
-2.95756431e-03f,+1.85014904e-01f,+5.64388186e-02f,+1.20120265e-01f,+3.05516034e-01f,
+5.42830210e-04f,+6.82427585e-02f,+3.23291749e-01f,+5.12704905e-03f,-2.48741955e-01f,
-2.70740181e-01f,+9.63957608e-02f,+2.65046418e-01f,+1.73619278e-02f,-1.47884324e-01f,
+2.39064589e-01f,+2.04145387e-02f,+1.24930300e-01f,+2.31029555e-01f,-1.00437164e-01f,
+6.02113418e-02f,+2.53700465e-01f,+4.29433167e-01f,+3.36436816e-02f,-3.90210189e-04f,
-2.59336587e-02f,+1.61584064e-01f,-1.01872429e-01f,-6.82121217e-02f,-6.83045909e-02f,
-1.22370690e-01f,-1.28455058e-01f,-5.65250218e-01f,+1.64530784e-01f,+1.12422585e-01f,
-2.43027702e-01f,-9.80788097e-02f,-1.14824891e-01f,-1.91659648e-02f,+1.14215694e-01f,
-2.11210623e-01f,+3.59680653e-02f,-4.76374617e-03f,+4.55991216e-02f,+8.33987147e-02f,
-1.19944885e-02f,+5.95062859e-02f,+2.98245817e-01f,-2.32576624e-01f,+3.16466898e-01f,
-2.09304601e-01f,-3.17236818e-02f,-1.72433699e-03f,-8.78314301e-03f,-6.22711815e-02f,
-7.26452619e-02f,+2.67540067e-02f,-3.56086701e-01f,+3.14847261e-01f,+1.70341581e-01f,
-1.04153447e-01f,+2.31078669e-01f,+4.95239301e-03f,-2.58670617e-02f,+1.57354340e-01f,
-2.74088115e-01f,-1.56434178e-01f,-9.46798399e-02f,-1.39236242e-01f,-1.14326216e-01f,
+2.66411245e-01f,+1.67788684e-01f,+2.42829069e-01f,+5.08187748e-02f,+1.67818353e-01f,
-1.10334143e-01f,+3.42878625e-02f,-1.63451359e-01f,-2.16575023e-02f,-2.26384416e-01f,
-9.25895721e-02f,+1.50453955e-01f,-2.26853997e-01f,+1.15766734e-01f,-1.43057004e-01f,
-5.59124462e-02f,+8.59737620e-02f,-2.32787028e-01f,+1.62791222e-01f,+8.37090760e-02f,
-1.12100415e-01f,+3.73773575e-01f,+6.75286129e-02f,+1.60204932e-01f,+1.26854196e-01f,
-2.19180970e-03f,-1.27364486e-01f,+1.67782560e-01f,+3.90438586e-01f,-3.57929051e-01f,
+4.74581122e-02f,+1.46752656e-01f,-1.07515581e-01f,+1.60559908e-01f,+2.93261651e-02f,
-3.89365405e-02f,+8.84741619e-02f,-1.92834824e-01f,+2.09400699e-01f,-1.45686902e-02f,
-1.31946683e-01f,+2.24021405e-01f,-5.26758023e-02f,+9.72753949e-03f,+1.62159186e-02f,
-2.20881000e-01f,+2.14729503e-01f,-2.26328820e-01f,+3.17640483e-01f,+3.22412364e-02f,
-1.39565850e-02f,+2.30236545e-01f,-2.35231174e-03f,-2.07580939e-01f,+5.04572429e-02f,
+1.51062757e-02f,+1.79667622e-01f,-1.17141299e-01f,+6.59356937e-02f,-1.81167349e-02f,
-2.23072231e-01f,-8.40945244e-02f,-1.49658129e-01f,+7.52753764e-02f,+5.99990636e-02f,
-7.23614097e-02f,+2.26876467e-01f,-1.32753685e-01f,-1.32665768e-01f,-1.96753189e-01f,
+1.78717345e-01f,-6.11328566e-03f,-3.05561945e-02f,-1.27520651e-01f,+7.43808076e-02f,
+1.55495375e-01f,-3.39036360e-02f,-3.76965590e-02f,+1.23829775e-01f,-9.56702381e-02f,
+2.05999650e-02f,-5.09349406e-02f,+1.09525435e-01f,+2.53580511e-01f,+1.53224980e-02f,
+3.94281894e-01f,+2.29045570e-01f,+7.81523157e-03f,+1.35656029e-01f,+2.62364596e-01f,
+7.97373578e-02f,+3.87924075e-01f,-1.11084050e-02f,-1.46398216e-01f,+2.96034634e-01f,
+2.10339174e-01f,-9.50462222e-02f,-1.25944525e-01f,+2.13176832e-01f,+7.04291835e-02f,
+3.76381189e-01f,+1.50797278e-01f,+9.73569695e-03f,-9.39418096e-03f,-2.41320282e-01f,
+2.07291290e-01f,-1.25830919e-01f,-5.17591462e-02f,+1.63081631e-01f,-1.78994089e-01f,
+2.01173812e-01f,-1.42995924e-01f,-1.97736219e-01f,+4.02511954e-02f,+8.20207670e-02f,
-8.48248750e-02f,-3.54637712e-01f,+7.08693340e-02f,-1.09281704e-01f,+4.44519147e-02f,
-2.13496876e-03f,-1.12907164e-01f,-6.62060976e-02f,+8.88101682e-02f,+1.84428826e-01f,
+8.40687305e-02f,+1.79996833e-01f,+2.28296995e-01f,+8.98386091e-02f,+1.67020053e-01f,
-2.77306885e-01f,-1.78289749e-02f,+1.20788895e-01f,+3.23688537e-01f,+8.40966180e-02f,
-1.02931969e-01f,+2.18160585e-01f,-1.62765518e-01f,-1.35700107e-01f,+9.93148014e-02f,
-1.28427967e-01f,+1.86155036e-01f,+4.87088645e-03f,+8.61647949e-02f,-1.20771835e-02f,
-1.96676254e-01f,-2.24814638e-01f,+1.86049819e-01f,+1.22027859e-01f,+1.65842891e-01f,
+7.43440464e-02f,+1.56354234e-01f,+1.37410149e-01f,+2.60353182e-02f,-3.22877653e-02f,
+4.61694509e-01f,-7.38775125e-03f,-2.49648020e-01f,+1.28586650e-01f,-1.06229305e-01f,
+3.55414897e-02f,-3.31026018e-02f,-2.85049807e-02f,+2.33820140e-01f,-1.15270346e-01f,
+8.01348463e-02f,-1.00338168e-01f,-1.39112934e-01f,-8.84585977e-02f,-1.80444434e-01f,
-6.14330098e-02f,+1.86049506e-01f,-9.14000198e-02f,+1.27882659e-01f,-1.66867420e-01f,
-1.68802634e-01f,-8.75837654e-02f,-1.06168896e-01f,-7.23255724e-02f,+2.39075929e-01f,
+1.99008044e-02f,-2.90183216e-01f,+2.79442996e-01f,-3.36181939e-01f,+4.16220576e-02f,
-5.12439832e-02f,+6.57430440e-02f,+9.34403986e-02f,-2.20847353e-02f,-1.49582431e-01f,
-2.91418046e-01f,-2.62764394e-02f,-4.10086336e-03f,+2.34664425e-01f,-7.96835274e-02f,
-1.25827432e-01f,-2.75474004e-02f,-6.04266860e-02f,+3.66340548e-01f,+3.09972931e-02f,
+6.56727999e-02f,+9.03105456e-03f,-1.74312547e-01f,-7.90587142e-02f,-3.38816643e-02f,
+2.16905385e-01f,+2.65987694e-01f,-1.01139814e-01f,-5.08818142e-02f,-5.22091426e-02f,
+1.01158367e-02f,-1.35008633e-01f,+1.15297884e-01f,+1.36614814e-01f,+1.07971407e-01f,
+2.06100553e-01f,+4.99701910e-02f,-1.74113229e-01f,-1.63866431e-01f,+2.44522933e-02f,
-1.67653620e-01f,+5.00464216e-02f,+1.24898531e-01f,-2.72124279e-02f,+1.43445507e-01f,
+3.26931924e-02f,+6.24236576e-02f,-2.25483179e-01f,-8.78884271e-02f,-3.70090492e-02f,
+2.67699599e-01f,+1.01056412e-01f,+1.12186961e-01f,-5.32255210e-02f,+2.86270417e-02f,
-5.57226799e-02f,-7.33461678e-02f,+2.52147108e-01f,+1.42966926e-01f,-1.02440909e-01f,
-2.06324205e-01f,-5.10949306e-02f,+3.20435405e-01f,-3.19978110e-02f,+1.66603014e-01f,
-1.18186057e-01f,-1.70707181e-01f,+2.22689822e-01f,-2.14345992e-01f,-2.98129886e-01f,
-5.78370020e-02f,-1.53259531e-01f,-5.98402619e-02f,-1.79400802e-01f,-3.19426775e-01f,
-1.26654021e-02f,+1.61811978e-01f,-2.32756615e-01f,+5.53032011e-02f,-1.03003360e-01f,
+1.53055126e-02f,+1.62729517e-01f,-6.99773952e-02f,-5.34433983e-02f,+1.36651918e-01f,
-1.74893901e-01f,+7.11131375e-04f,-1.01040997e-01f,+1.89612553e-01f,-4.54836003e-02f,
+2.31333807e-01f,+1.51107490e-01f,-4.59647253e-02f,+1.07093856e-01f,+1.13291658e-01f,
+3.97276804e-02f,-5.20852432e-02f,+8.59055016e-03f,-5.01700900e-02f,+1.29994184e-01f,
+2.05337778e-01f,+3.98976207e-01f,-8.87877941e-02f,-1.47116959e-01f,+7.80108720e-02f,
-1.92849830e-01f,+8.69063102e-03f,-1.77342921e-01f,-1.09439380e-01f,+1.12294629e-01f,
+2.64996588e-01f,-3.45143043e-02f,+1.29013881e-01f,+1.13100193e-01f,+3.50670628e-02f,
+2.28032898e-02f,-1.95419058e-01f,+7.81991035e-02f,-1.94290623e-01f,+1.14495652e-02f,
-5.20600788e-02f,-2.30312914e-01f,+1.35330081e-01f,-7.14155212e-02f,+1.72024041e-01f,
+2.06486970e-01f,+3.43547851e-01f,+2.70798087e-01f,-3.01024169e-02f,-3.38190258e-01f,
-5.32908775e-02f,+5.51268533e-02f,-1.03649735e-01f,-1.90833673e-01f,+4.08860371e-02f,
-2.13575969e-03f,+6.90253228e-02f,+2.73476392e-01f,-7.99877048e-02f,+1.96689516e-01f,
+3.03599108e-02f,+1.60880819e-01f,+1.18045524e-01f,+1.83370501e-01f,-1.15295388e-01f,
+7.54435435e-02f,+5.93890734e-02f,+2.88988382e-01f,+4.17574421e-02f,-1.54918417e-01f,
-5.53304926e-02f,-1.01681787e-03f,+2.62169957e-01f,-8.93958956e-02f,-2.91553468e-01f,
-5.32350801e-02f,-4.69410270e-02f,+1.70116335e-01f,-2.12839380e-01f,+7.36481100e-02f,
+1.81366876e-01f,+1.95373356e-01f,-7.54655972e-02f,+2.49896511e-01f,-1.13713287e-01f,
+2.66968831e-02f,-2.91496783e-01f,-3.00971214e-02f,-1.61921591e-01f,-9.54879075e-03f,
-2.98716068e-01f,-3.89379151e-02f,+1.67945470e-03f,+2.39201393e-02f,-1.52754769e-01f,
+2.09107935e-01f,+3.23222518e-01f,-1.16569899e-01f,+1.74312070e-01f,+3.38302523e-01f,
-4.70029525e-02f,-5.30132977e-03f,-1.14199966e-01f,+4.49969210e-02f,+3.85153502e-01f,
+1.22711964e-01f,-8.29446316e-02f,-1.34833087e-03f,-5.00590801e-02f,+2.65908800e-02f,
+7.60714859e-02f,+9.17399526e-02f,+1.61947042e-01f,+1.39524758e-01f,+4.31851950e-03f,
+1.72557771e-01f,+1.44417524e-01f,+5.92187643e-02f,+6.47989810e-02f,+3.52828115e-01f,
+1.44204468e-01f,+7.83304870e-02f,-1.48467183e-01f,+1.08277597e-01f,+3.71634401e-02f,
-6.22490160e-02f,+5.55257052e-02f,-1.05870210e-01f,+3.68537486e-01f,+9.04487744e-02f,
-1.91743821e-01f,+3.55646700e-01f,+1.88769728e-01f,+1.00068532e-01f,-1.88170925e-01f,
-1.00399390e-01f,-7.45857209e-02f,+6.86249882e-02f,+1.12035543e-01f,+1.70933783e-01f,
+9.07762945e-02f,-3.15678567e-02f,-2.12861165e-01f,-8.98706242e-02f,+1.79119259e-01f,
-3.47948432e-01f,-1.13632403e-01f,-3.83328736e-01f,+3.56952906e-01f,-9.31615755e-02f,
-1.96264535e-01f,+4.20646137e-03f,-2.12066889e-01f,-9.22887027e-02f,-3.25852260e-02f,
+8.34481418e-02f,+1.26279324e-01f,+1.83403656e-01f,+1.38083205e-01f,+4.84490395e-02f,
-1.88563138e-01f,+2.11456612e-01f,+3.15828562e-01f,+4.17043298e-01f,-3.18089157e-01f,
+2.04923019e-01f,+1.43947363e-01f,-1.30977467e-01f,+2.31495667e-02f,+2.03933954e-01f,
+3.21837634e-01f,+1.45360321e-01f,+1.34919897e-01f,+3.72774243e-01f,+1.18803881e-01f,
+2.06313118e-01f,+7.49556720e-02f,+2.30500445e-01f,+1.15351230e-01f,+6.19058125e-02f,
+2.11422354e-01f,-1.32317454e-01f,+1.41876116e-01f,-1.27564415e-01f,+2.93689728e-01f,
-1.52059183e-01f,-3.10247898e-01f,+9.33378860e-02f,+8.18486735e-02f,-4.39291447e-02f,
-1.33226469e-01f,-4.67576236e-02f,+9.88024771e-02f,+1.85017422e-01f,-3.64606619e-01f,
+4.71295649e-03f,+7.29963109e-02f,+1.05374865e-02f,+1.99716821e-01f,+3.18799764e-01f,
-7.82511532e-02f,-4.26394120e-02f,+1.92761138e-01f,+9.79353189e-02f,+3.06535333e-01f,
-2.04767272e-01f,+1.36025757e-01f,-2.14802787e-01f,+3.45829986e-02f,+1.07934162e-01f,
-6.15371019e-02f,-1.56954601e-01f,-5.54810643e-01f,-1.88401625e-01f,+1.67984620e-01f,
+3.03817272e-01f,+1.18754454e-01f,-1.38987480e-02f,+3.48045647e-01f,-8.29311311e-02f,
-1.39678165e-01f,+1.84223980e-01f,+1.42177150e-01f,+1.85374706e-03f,+1.59720302e-01f,
+1.05854943e-01f,-1.90207273e-01f,+1.16130151e-01f,-1.68449864e-01f,-2.70706564e-01f,
+5.41080981e-02f,+3.31833698e-02f,+1.88915282e-02f,-1.26907602e-02f,-6.09279945e-02f,
+1.52180120e-01f,+1.54307351e-01f,+1.66043025e-02f,+1.69330016e-01f,-1.13234669e-01f,
+9.20421556e-02f,-3.00668925e-01f,-1.15402825e-01f,+1.11772195e-01f,+1.13224246e-01f,
-1.11040778e-01f,-2.58486897e-01f,-1.01153009e-01f,-3.42207313e-01f,-7.08575770e-02f,
+1.01091459e-01f,+2.23493129e-01f,+6.27763644e-02f,+1.29792288e-01f,-2.87438542e-01f,
+1.56447530e-01f,-5.59355021e-02f,+1.65932789e-01f,-1.03629962e-01f,+1.15499515e-02f,
+2.67131567e-01f,+1.07973777e-01f,-1.39886066e-01f,-9.57188830e-02f,+2.26592030e-02f,
-5.89185096e-02f,-5.88200241e-02f,+2.03701124e-01f,+1.06366307e-01f,+2.90776551e-01f,
+6.13575540e-02f,+2.91288290e-02f,-1.26835629e-01f,-2.96375811e-01f,-1.21798620e-01f,
+4.84692156e-02f,+2.59346098e-01f,-5.79935126e-02f,+1.20630093e-01f,-2.69967020e-01f,
-2.55324423e-01f,-5.04283495e-02f,+7.54053369e-02f,-4.23262157e-02f,-4.60904501e-02f,
+2.14652866e-01f,-3.20314050e-01f,-1.62875205e-01f,-4.57631573e-02f,-6.32362887e-02f,
+1.42185569e-01f,-1.22356974e-02f,+1.14908017e-01f,+2.40508735e-01f,-1.17384434e-01f,
+1.49790347e-01f,-1.84392139e-01f,-1.43595412e-01f,+1.53331503e-01f,-1.12694450e-01f,
-2.06847489e-01f,+2.22636893e-01f,+2.19481632e-01f,+2.66952068e-02f,-2.50796556e-01f,
-1.75713524e-01f,-7.44736642e-02f,+5.44233732e-02f,+4.82179821e-02f,+6.67316392e-02f,
+1.46077886e-01f,+1.11120306e-01f,+5.09411752e-01f,-9.11852792e-02f,-1.10570520e-01f,
+9.36489832e-03f,+4.98336069e-02f,+1.63405612e-01f,+3.33868340e-02f,+1.95219982e-02f,
-4.51495163e-02f,+1.70305163e-01f,+1.51724471e-02f,+7.72025287e-02f,+3.58719123e-03f,
+8.83306861e-02f,-1.20598800e-01f,+1.32092789e-01f,-7.32523650e-02f,+3.78776759e-01f,
+8.74584615e-02f,+1.29998937e-01f,-1.56252295e-01f,-1.63193643e-01f,+2.41315827e-01f,
+2.86679268e-01f,+3.90229970e-02f,-5.13587333e-02f,-2.59046763e-01f,-2.61537164e-01f,
-1.07591040e-01f,-1.13683619e-01f,-1.49188519e-01f,-3.45284082e-02f,-1.59686292e-03f,
-1.17547534e-01f,+9.48129222e-02f,+4.74659316e-02f,-3.24548259e-02f,+3.33933920e-01f,
+2.48500898e-01f,-2.65432864e-01f,+1.48123637e-01f,+1.77930862e-01f,+1.17695734e-01f,
-5.95838726e-02f,+2.36915171e-01f,-7.32415989e-02f,+5.50190918e-02f,-2.16713563e-01f,
-1.68506473e-01f,-1.94554422e-02f,-5.19695133e-02f,-1.79212689e-01f,-4.17815335e-02f,
+5.50165176e-02f,+3.26609686e-02f,+2.08355021e-02f,+1.23395480e-01f,+3.86127122e-02f,
+2.37546235e-01f,-5.82227577e-03f,+6.80109635e-02f,+2.65191108e-01f,-1.38782039e-01f,
+1.57374650e-01f,-1.83813751e-01f,+1.18198857e-01f,+1.05186313e-01f,-8.09440985e-02f,
+4.44237441e-02f,+6.78758994e-02f,-3.29882234e-01f,-4.83697355e-02f,-5.01214415e-02f,
+1.25042781e-01f,+3.51960212e-01f,-7.76770934e-02f,+2.43413270e-01f,+1.49779264e-02f,
-4.17735390e-02f,-1.82990748e-02f,+2.92631418e-01f,+2.62824278e-02f,+1.74012035e-01f,
-1.17756119e-02f,-6.29597232e-02f,-1.72217965e-01f,-9.61531997e-02f,-2.64341496e-02f,
+1.79004505e-01f,+6.64960071e-02f,-1.74694415e-02f,+2.43980274e-01f,+3.86166424e-01f,
+3.61188531e-01f,+8.27042982e-02f,+1.48588493e-01f,-4.63704690e-02f,+2.59924203e-01f,
+2.41882399e-01f,+2.78314594e-02f,+1.76826105e-01f,+1.64254829e-01f,+2.52441853e-01f,
+7.33874142e-02f,+6.65404126e-02f,+2.81368375e-01f,+3.60271513e-01f,-3.08204174e-01f,
-2.73360729e-01f,-2.89353609e-01f,-2.34053005e-02f,+1.08514540e-01f,+5.07476740e-02f,
-2.05533609e-01f,-5.83710289e-03f,+1.25432029e-01f,-8.45098495e-02f,+2.11636603e-01f,
-1.29764274e-01f,+1.19389541e-01f,+1.08885460e-01f,+7.82633126e-02f,+6.71874508e-02f,
+1.23353019e-01f,+1.12885185e-01f,+1.11745849e-01f,+1.82662100e-01f,-2.58131810e-02f,
+5.57279699e-02f,-2.13553328e-02f,-1.28861144e-01f,-8.89068693e-02f,-7.01724514e-02f,
+8.77835080e-02f,+1.63131189e-02f,+1.56005159e-01f,+9.04476419e-02f,-4.00636978e-02f,
+5.25816483e-03f,-7.72053599e-02f,+9.46222916e-02f,+1.97310939e-01f,+2.20961481e-01f,
-7.97440633e-02f,+1.56535670e-01f,-1.47311568e-01f,+1.98531523e-01f,-1.27226695e-01f,
+3.87315974e-02f,-3.56020667e-02f,+4.08936143e-01f,-1.00970224e-01f,-7.75216669e-02f,
-2.65119448e-02f,-2.63870269e-01f,-1.07538864e-01f,-1.69732839e-01f,-1.31625328e-02f,
+1.50453478e-01f,+3.57671604e-02f,-4.36235875e-01f,-1.19258516e-01f,+1.06657468e-01f,
+3.50026369e-01f,+1.23882726e-01f,+2.47062087e-01f,+3.10167998e-01f,-7.75579289e-02f,
+8.23222846e-02f,+9.62111428e-02f,-1.92467496e-01f,+4.04329211e-01f,+2.09339663e-01f,
-2.07269013e-01f,+4.52583656e-03f,+2.65984386e-02f,+1.54045612e-01f,+6.37805015e-02f,
+2.11863294e-02f,-6.25208914e-02f,+1.56715602e-01f,-3.31066735e-02f,-4.09248620e-02f,
+9.33644399e-02f,-4.34954331e-04f,-2.76916564e-01f,+6.60167262e-02f,+1.10347802e-02f,
-1.36462692e-02f,+2.27988109e-01f,-8.59193597e-03f,-2.24906072e-01f,-1.81730121e-01f,
+3.22794527e-01f,+1.15080021e-01f,+2.87041813e-01f,+4.39010076e-02f,+2.72011638e-01f,
-1.71066940e-01f,+1.59327015e-01f,+6.49519684e-03f,+1.26059651e-01f,+8.47813636e-02f,
+1.68029040e-01f,-3.86972167e-02f,-5.77625178e-04f,+3.12454373e-01f,+1.84031785e-01f,
+2.80296821e-02f,+6.65102154e-02f,-8.25234875e-02f,-5.83018586e-02f,+1.25243291e-01f,
-6.40717596e-02f,+1.30545497e-01f,+1.24123096e-01f,-3.02103370e-01f,-1.15891673e-01f,
+1.12158336e-01f,+8.69970694e-02f,+1.53752267e-01f,+4.01586294e-02f,-2.57500291e-01f,
+1.24043934e-01f,-4.24393684e-01f,+4.57772493e-01f,+2.62997240e-01f,-2.85234451e-01f,
+2.32866496e-01f,-1.28312120e-02f,-1.25804186e-01f,+7.22284019e-02f,+1.72888562e-01f,
+1.48440972e-01f,+1.31072804e-01f,+1.74179479e-01f,-1.09272055e-01f,-3.66733619e-03f,
-8.59020837e-03f,+3.92064542e-01f,+2.04642728e-01f,+2.01147065e-01f,+5.58160432e-02f,
+6.69225901e-02f,-2.51941159e-02f,-1.20279290e-01f,-2.92393845e-02f,+2.07025588e-01f,
+3.77420522e-02f,-2.77618431e-02f,-3.26711118e-01f,+5.96405156e-02f,+1.15533493e-01f,
+8.98175240e-02f,+2.58249581e-01f,+3.08252901e-01f,+4.68466692e-02f,-7.82463402e-02f,
+4.01358344e-02f,+5.06195575e-02f,+3.30418758e-02f,-3.72615904e-01f,+7.86596239e-02f,
-9.46564823e-02f,-4.64680791e-02f,-1.79120794e-01f,-6.11593574e-03f,+6.85129547e-03f,
+2.04064190e-01f,-1.42870829e-01f,+3.92625570e-01f,+3.14269960e-01f,+7.70630911e-02f,
-2.04881117e-01f,-1.95170984e-01f,-9.31624994e-02f,+4.54154909e-01f,+1.74220160e-01f,
-2.62458194e-02f,+9.45366919e-02f,+2.63144262e-02f,-6.81696162e-02f,+1.49501696e-01f,
+7.30768070e-02f,+1.19346291e-01f,+6.91735968e-02f,+2.05045313e-01f,-2.54795521e-01f,
-4.06971239e-02f,+4.50720936e-02f,+2.63504654e-01f,+1.40309945e-01f,+5.16442694e-02f,
+5.15248440e-02f,+1.32084042e-01f,-3.64099927e-02f,+5.70391081e-02f,+5.60090356e-02f,
+1.91693634e-01f,-1.10787153e-01f,+9.22210738e-02f,+1.87257692e-01f,+1.52793124e-01f,
-6.71872348e-02f,+1.52112439e-01f,+3.03439703e-02f,+3.02853763e-01f,+6.10771216e-02f,
+1.08831480e-01f,+1.37487173e-01f,-1.11962147e-01f,+1.91266730e-01f,+1.23612538e-01f,
-2.71351844e-01f,-1.61612760e-02f,+9.60477144e-02f,-1.09375760e-01f,+4.71611828e-01f,
+1.67155042e-01f,-1.02971889e-01f,-8.26322064e-02f,+1.80767626e-01f,-3.56315332e-03f,
+4.07272950e-02f,-2.34311700e-01f,-9.58197042e-02f,-1.86429843e-01f,+2.15452194e-01f,
+4.00349759e-02f,-7.76096731e-02f,-1.52814001e-01f,+5.00576854e-01f,-2.79810093e-03f,
-5.11419773e-01f,+1.62288010e-01f,+1.68802664e-02f,-5.32190502e-02f,-1.31137058e-01f,
-7.80235529e-02f,+2.38986447e-01f,-1.20859750e-01f,-1.52486131e-01f,+1.71631530e-01f,
+2.81486869e-01f,+1.67139724e-01f,+2.11001754e-01f,+5.25787547e-02f,-4.53450345e-02f,
-3.39836150e-01f,+1.54778540e-01f,+1.43812433e-01f,+4.72215973e-02f,-7.85370395e-02f,
+1.10363148e-01f,-5.08278012e-02f,-1.01049997e-01f,+3.30454677e-01f,+1.05340034e-01f,
+3.17639023e-01f,-1.29925534e-02f,+1.37274280e-01f,+5.96744008e-02f,+4.29590195e-01f,
-6.42795488e-02f,-8.79895464e-02f,+1.68584734e-02f,+2.36160845e-01f,-9.95435268e-02f,
+1.65355816e-01f,+2.45965794e-01f,+1.96313798e-01f,+7.90177286e-02f,-3.79624188e-01f,
+2.87691236e-01f,+2.07435966e-01f,-2.35224083e-01f,+2.45444477e-01f,+8.37425888e-02f,
+3.56103361e-01f,+8.77895057e-02f,-2.72505730e-02f,+5.83726261e-03f,-6.22862279e-02f,
+4.76056814e-01f,-1.77058131e-01f,-3.68423969e-01f,+2.21170813e-01f,+5.89861646e-02f,
+1.19390205e-01f,-1.23288125e-01f,-2.20207348e-01f,-8.30231085e-02f,+1.75362676e-01f,
+1.34764418e-01f,+8.03503543e-02f,-1.50649503e-01f,-2.39677340e-01f,-8.46729893e-03f,
+2.43387278e-02f,-1.46448106e-01f,-4.83664311e-02f,+1.02056548e-01f,+2.28358619e-02f,
+9.37328488e-02f,+2.93115415e-02f,+2.69542057e-02f,-2.21279249e-01f,+8.95723179e-02f,
+9.55599546e-02f,+2.69520022e-02f,-4.18193310e-01f,+2.03518659e-01f,+1.19268566e-01f,
-1.34436265e-01f,+5.57454266e-02f,-1.07162498e-01f,-9.55719948e-02f,-7.25760311e-02f,
+2.72115678e-01f,-8.86978731e-02f,+3.64977628e-01f,-1.07060514e-01f,+4.19105254e-02f,
+2.38407254e-01f,-2.28543550e-01f,-9.62112918e-02f,-4.45303582e-02f,+2.81522572e-01f,
+1.55778408e-01f,+1.27260029e-01f,-1.34414613e-01f,+3.01694810e-01f,-6.91154599e-02f,
+3.67420495e-01f,-1.61728188e-01f,+1.22910917e-01f,-1.53762773e-01f,+2.20242664e-02f,
-1.27159044e-01f,+1.68473423e-01f,-1.32370308e-01f,+1.45449683e-01f,-2.24922448e-01f,
+1.38824493e-01f,+5.04492819e-02f,-5.96424155e-02f,+1.01378024e-01f,-8.12973008e-02f,
-2.89180100e-01f,+1.91107929e-01f,+1.28744878e-02f,+1.66528560e-02f,-2.18814746e-01f,
-4.41093773e-01f,-1.26850102e-02f,+2.07107812e-01f,+2.44313292e-02f,+5.78246750e-02f,
+6.18438702e-03f,+9.49706510e-02f,+9.74135846e-02f,+1.74371719e-01f,-1.19626313e-01f,
+7.00302646e-02f,+6.44844398e-02f,-1.13635205e-01f,-3.44989598e-01f,+2.42764071e-01f,
+1.06934451e-01f,+1.02535971e-01f,-6.52229190e-02f,-2.91859686e-01f,+2.07970008e-01f,
+1.91993758e-01f,-1.76443443e-01f,-2.45022535e-01f,-3.24703187e-01f,+2.17875466e-01f,
+1.82181150e-01f,+8.81235301e-03f,+1.43423960e-01f,-1.43962666e-01f,-1.02515996e-03f,
+1.42424330e-01f,+3.99305560e-02f,+1.28454193e-01f,-3.96151185e-01f,+9.04505998e-02f,
+1.68103039e-01f,-2.87064672e-01f,+8.66106525e-02f,+1.67844325e-01f,-3.87773961e-02f,
-1.73290089e-01f,+5.81060834e-02f,+8.85865912e-02f,-8.16944391e-02f,+1.68771386e-01f,
-7.31601194e-03f,+2.37813115e-01f,+7.68675506e-02f,-3.82591575e-01f,+1.36251852e-01f,
+1.82188526e-01f,+2.53187567e-01f,-8.75293836e-02f,+6.06425218e-02f,-6.24549575e-02f,
+2.89589074e-02f,+3.85949649e-02f,-1.54620782e-01f,+8.31956714e-02f,-1.34019852e-02f,
-1.32712677e-01f,-6.41501397e-02f,+5.13854139e-02f,-8.00696611e-02f,+2.89795160e-01f,
-3.14490646e-02f,-2.08749309e-01f,+1.05865672e-01f,+7.85388052e-02f,+8.67067352e-02f,
+7.93852136e-02f,-1.41026616e-01f,-8.29325989e-02f,+8.69069248e-02f,-3.68894660e-04f,
+1.46121848e-02f,+1.28365561e-01f,-1.41397893e-01f,-7.22957402e-02f,-5.55438809e-02f,
+1.00302763e-01f,-8.44478384e-02f,+1.57680407e-01f,+1.51069313e-01f,+2.19683528e-01f,
-1.58312291e-01f,+1.03685021e-01f,+1.00850277e-01f,+1.30085181e-02f,+4.05159891e-02f,
+9.40509140e-02f,-8.73597786e-02f,+6.40671328e-02f,-3.58764231e-02f,-4.31495793e-02f,
-1.23206556e-01f,+1.10275321e-01f,+7.04920068e-02f,-3.55588757e-02f,-1.61028117e-01f,
+1.59302205e-01f,+1.16940625e-01f,+4.13638391e-02f,-1.07250474e-01f,-9.50388536e-02f,
+3.71609814e-03f,+3.02719265e-01f,+7.60960486e-03f,-2.08400823e-02f,-4.67294864e-02f,
+2.32376112e-03f,+1.33457452e-01f,-1.28646225e-01f,-1.00293662e-02f,+8.44831169e-02f,
+4.99261916e-02f,+1.67559132e-01f,-2.39084825e-01f,-1.50890529e-01f,+1.68296918e-01f,
-3.44996415e-02f,+1.15301900e-01f,-1.53504044e-01f,-5.17388806e-02f,+1.28081650e-01f,
-3.98331210e-02f,+6.14715032e-02f,-2.93083359e-02f,-1.29987702e-01f,+3.24041955e-02f,
+2.64382660e-01f,+1.65172517e-02f,+1.45453513e-01f,-4.15474594e-01f,-2.99580842e-01f,
+8.53154634e-04f,-1.96973860e-01f,+2.55432129e-01f,+1.11568667e-01f,+8.78116861e-02f,
-1.38218636e-02f,-1.49608225e-01f,-1.57291934e-01f,-3.47533196e-01f,+8.95086527e-02f,
+5.94880916e-02f,+1.19449630e-01f,-2.92054206e-01f,-1.20052971e-01f,+3.59096527e-01f,
+1.04157798e-01f,+2.79663563e-01f,+2.79025473e-02f,+1.20621540e-01f,-5.58080748e-02f,
+1.13614105e-01f,+1.03180535e-01f,+8.98459703e-02f,-1.55950755e-01f,+2.18719035e-01f,
-1.83465451e-01f,-3.59849893e-02f,+1.67484641e-01f,+2.55510234e-03f,+4.44191098e-02f,
+4.24117260e-02f,+5.30903712e-02f,-2.24068612e-01f,-1.43326372e-01f,-1.00988291e-01f,
+9.59325880e-02f,+2.59888530e-01f,-5.53784408e-02f,+1.09106779e-01f,-1.56275719e-01f,
-1.59092862e-02f,-4.22519706e-02f,-1.69117838e-01f,+3.42225246e-02f,+2.50152588e-01f,
+1.29162475e-01f,-5.48956841e-02f,-4.94514912e-01f,+2.29123831e-02f,+3.82267423e-02f,
-1.04786279e-02f,-9.45620686e-02f,+3.32441516e-02f,-2.82837987e-01f,+2.84307986e-01f,
+2.98227072e-01f,+3.02083939e-01f,-1.83509171e-01f,+1.03922620e-01f,+1.53234735e-01f,
+1.85058013e-01f,-2.38412067e-01f,-4.70768027e-02f,-7.39334151e-02f,-1.76001579e-01f,
+2.25343868e-01f,+9.14747566e-02f,+1.87361683e-03f,-2.59942170e-02f,+1.85467511e-01f,
-1.16631575e-01f,+1.39078513e-01f,+6.29771128e-02f,-6.84742406e-02f,-7.30762929e-02f,
-1.30903170e-01f,+2.75514531e-03f,+3.25676531e-01f,+2.19431203e-02f,-1.24090634e-01f,
+8.76899436e-02f,+3.45833749e-01f,-2.24523336e-01f,-1.23198755e-01f,+2.08531916e-01f,
+3.42797600e-02f,+2.13261217e-01f,-2.26152137e-01f,-7.07329884e-02f,+4.95928489e-02f,
+1.49070501e-01f,-1.06619827e-01f,+1.79943308e-01f,+1.69881195e-01f,+2.46370554e-01f,
-8.74012038e-02f,-7.16980323e-02f,+1.81928352e-01f,+1.13578871e-01f,+5.26515603e-01f,
+7.72120953e-02f,+2.04136625e-01f,-1.66265607e-01f,+1.26422271e-01f,-4.81679328e-02f,
-3.05836767e-01f,+3.17972362e-01f,-2.76802957e-01f,+1.37577474e-01f,+1.55834127e-02f,
+1.62159860e-01f,-1.63019627e-01f,-2.66869217e-01f,-1.36134207e-01f,+2.24019140e-01f,
+1.43734097e-01f,+2.53813535e-01f,+1.06521659e-01f,+3.71454924e-01f,+5.39155483e-01f,
-4.67590272e-01f,-8.15500617e-02f,+3.18464115e-02f,+5.84249757e-02f,-4.72312467e-03f,
+3.01620606e-02f,+3.20870578e-02f,-1.11216314e-01f,+1.91453565e-02f,+9.31163281e-02f,
-1.68361068e-01f,+1.19671918e-01f,+2.17808619e-01f,+1.31227210e-01f,+1.44902691e-01f,
-1.24391869e-01f,-4.16907221e-02f,-4.41973144e-03f,-1.35892585e-01f,-1.32855535e-01f,
+2.66000003e-01f,+2.78115511e-01f,-4.81217057e-02f,-7.66516104e-02f,+2.65631862e-02f,
-5.26571050e-02f,-1.67233482e-01f,-2.97382083e-02f,+3.06236774e-01f,-1.10700607e-01f,
-1.02829650e-01f,-6.98712142e-03f,+1.15704805e-01f,+1.23777211e-01f,+5.56424297e-02f,
-1.65343598e-01f,-1.45030931e-01f,-5.88896386e-02f,-1.63724683e-02f,-1.03873968e-01f,
+2.31727539e-03f,+6.13254197e-02f,+7.24204108e-02f,+8.66466612e-02f,+3.00770700e-02f,
-2.99840420e-02f,+1.83565795e-01f,+1.31192178e-01f,+1.42336711e-01f,-1.05646424e-01f,
-1.70835927e-01f,-1.85464188e-01f,-1.71115994e-01f,-9.91045088e-02f,-1.55794084e-01f,
+1.95612580e-01f,+2.95295060e-01f,+2.16280203e-02f,-6.97694793e-02f,+6.43238872e-02f,
+1.06493421e-01f,-1.38556406e-01f,-2.28176322e-02f,-2.00743526e-01f,-3.07083249e-01f,
-2.91703969e-01f,+7.43911192e-02f,+1.30744070e-01f,+1.19846441e-01f,+1.31149590e-01f,
+8.05762038e-02f,-1.48773372e-01f,+4.20474373e-02f,+1.30517753e-02f,+3.51914734e-01f,
+8.39220360e-02f,-7.43049532e-02f,+1.42790034e-01f,+1.39877364e-01f,-3.94492835e-01f,
-7.44574666e-02f,+3.53132308e-01f,+3.38288397e-01f,-1.45272225e-01f,+8.94336998e-02f,
-6.07448034e-02f,-2.46449411e-02f,+9.86480489e-02f,+1.85211837e-01f,+1.88309923e-02f,
-4.20433357e-02f,-6.85803443e-02f,+1.52888805e-01f,-1.66843995e-01f,-2.75050044e-01f,
-2.10665329e-03f,+7.52546219e-03f,+1.72960028e-01f,+1.34847155e-02f,+5.38120717e-02f,
+3.47447544e-01f,+1.12322971e-01f,-1.20339552e-02f,+6.80663716e-03f,-2.17086971e-01f,
-2.14558423e-01f,+2.54918337e-02f,-1.11539289e-01f,-1.10298924e-01f,-1.02171212e-01f,
-2.54451692e-01f,-3.01332884e-02f,+1.92374304e-01f,+1.73406228e-01f,-5.60565777e-02f,
+1.04131438e-01f,-7.15717450e-02f,-5.66720478e-02f,-9.88359153e-02f,-1.41361162e-01f,
+2.89180160e-01f,+5.24647124e-02f,+1.80219308e-01f,-3.63824278e-01f,-1.30797625e-01f,
+1.49080873e-01f,-6.56084493e-02f,+1.02822289e-01f,+2.75531501e-01f,-9.18737203e-02f,
+1.94385841e-01f,-2.63602763e-01f,+3.18117440e-01f,+6.26636669e-02f,-2.42691651e-01f,
-1.04029380e-01f,+3.49714935e-01f,-3.19403503e-03f,-6.16013706e-02f,+2.63790116e-02f,
-2.28976570e-02f,-5.42031489e-02f,+1.11716233e-01f,-1.74815357e-02f,-2.16203168e-01f,
+1.29398704e-01f,+1.59228608e-01f,-1.12304673e-01f,+2.64106169e-02f,+3.14343087e-02f,
-1.93015367e-01f,+9.92892012e-02f,-1.18033119e-01f,-9.15126577e-02f,+6.51706010e-02f,
-1.16577849e-01f,+5.96708730e-02f,-5.99191971e-02f,+4.83777095e-03f,-2.25559413e-01f,
-2.38567814e-01f,+1.22708827e-02f,-3.47881019e-01f,-1.56106159e-01f,-1.14687175e-01f,
+2.12091848e-01f,-1.48109943e-01f,-1.66130677e-01f,-1.47340879e-01f,+4.33793180e-02f,
-1.13916725e-01f,-2.29069307e-01f,+1.33577660e-01f,+1.18264779e-01f,+1.22988351e-01f,
+1.63508832e-01f,+2.07486764e-01f,+8.22946709e-03f,-1.49340749e-01f,-1.14448987e-01f,
-2.59194732e-01f,-1.17108144e-01f,-6.22754656e-02f,+2.63152927e-01f,-1.08725153e-01f,
-2.11695097e-02f,-5.65011315e-02f,+1.87327802e-01f,+3.54054004e-01f,+3.24268378e-02f,
+1.69934005e-01f,+9.92543176e-02f,+1.09210983e-01f,-1.23577140e-01f,-1.02511577e-01f,
+8.73198286e-02f,+1.48160066e-02f,+2.71096408e-01f,-2.20429733e-01f,-9.84516442e-02f,
-3.54683995e-02f,+1.60143360e-01f,+1.08350113e-01f,+1.82355568e-01f,+1.84756462e-02f,
+6.29090220e-02f,+2.94748209e-02f,-1.09686278e-01f,-6.71188161e-02f,-4.60101739e-02f,
+3.09752803e-02f,+1.19096898e-01f,+8.03441629e-02f,-2.02958390e-01f,+4.50015739e-02f,
+4.43431251e-02f,+2.72971660e-01f,+1.79888904e-01f,-7.94543698e-02f,-1.50417835e-01f,
-6.84299171e-02f,-1.50329381e-01f,-3.65459621e-02f,-7.36401230e-02f,-1.04294624e-03f,
+7.93779194e-02f,-9.84697342e-02f,+1.99077994e-01f,-1.66235223e-01f,-2.68852264e-02f,
-2.37273186e-01f,-1.39085650e-02f,-1.92165494e-01f,+1.14512242e-01f,+6.34762496e-02f,
+5.03169149e-02f,-6.15972653e-02f,+1.41860083e-01f,-7.57510364e-02f,-2.83364356e-01f,
+1.17669813e-01f,+2.95753330e-01f,+2.40603648e-02f,+1.65896229e-02f,+1.25534922e-01f,
-1.01634808e-01f,+3.83676291e-02f,-1.71315223e-01f,-6.93640560e-02f,+1.15159683e-01f,
+2.14961767e-01f,+2.56569475e-01f,+1.17067680e-01f,+1.72030300e-01f,-1.68174177e-01f,
+4.00121920e-02f,+9.97636351e-04f,+3.43893431e-02f,-1.12180464e-01f,+1.83862835e-01f,
-8.26566517e-02f,-4.22676317e-02f,+9.45668668e-02f,-2.21872166e-01f,+8.93207714e-02f,
+1.35517299e-01f,+1.36218265e-01f,+1.25870198e-01f,+1.96291000e-01f,-1.71420857e-01f,
+1.33648872e-01f,-4.64503504e-02f,-2.70457715e-01f,-8.02916288e-02f,+5.78994565e-02f,
-1.26610607e-01f,-1.41817272e-01f,-1.56628102e-01f,-1.70908365e-02f,-1.59886897e-01f,
-1.53787341e-02f,+1.10047497e-01f,+6.13776315e-03f,-2.05968291e-01f,+4.65089642e-03f,
-2.78748006e-01f,+1.21755823e-01f,+1.47445887e-01f,-1.94745347e-01f,-9.61560532e-02f,
-6.67952746e-02f,+6.21538237e-02f,-9.65198223e-03f,-2.47985408e-01f,-1.72690779e-01f,
-3.88300829e-02f,+1.16222017e-01f,-2.55558252e-01f,-1.31766692e-01f,-1.51108742e-01f,
-2.72217780e-01f,+1.34902373e-01f,+7.37751275e-02f,+9.93928611e-02f,+2.62706816e-01f,
+2.40445673e-01f,-1.85654402e-01f,-1.60815477e-01f,+5.25787584e-02f,+4.11554091e-02f,
+4.61255834e-02f,-9.06932950e-02f,-1.08004339e-01f,+1.11757822e-01f,+1.43633589e-01f,
-1.51984230e-01f,-1.19826414e-01f,-1.66306943e-01f,+2.14551296e-02f,-4.97626588e-02f,
-5.84125693e-04f,-2.62760110e-02f,-2.55986482e-01f,+1.05887726e-01f,+3.16568196e-01f,
+1.28611073e-01f,+3.61616313e-01f,+1.19439527e-01f,+5.02816867e-03f,+3.40002149e-01f,
-4.38120179e-02f,-1.10909425e-01f,+7.99958184e-02f,-2.22022057e-01f,-1.60505064e-02f,
-5.65719493e-02f,-7.92274401e-02f,-3.95792693e-01f,+1.73868075e-01f,-6.31281659e-02f,
-5.87750264e-02f,+4.41870565e-04f,+7.93865919e-02f,+1.18746437e-01f,+1.37962878e-01f,
+2.64845759e-01f,-7.22637028e-02f,+8.59720036e-02f,-2.59881705e-01f,+1.49471434e-02f,
+3.91623735e-01f,+1.17263600e-01f,-5.34294486e-01f,+7.37884119e-02f,+2.39752620e-01f,
-3.71079966e-02f,-2.69270658e-01f,+6.82602376e-02f,-3.04651350e-01f,+1.11419886e-01f,
-1.28556222e-01f,-2.30664372e-01f,+3.93326968e-01f,+6.81142434e-02f,+3.03201061e-02f,
+4.00136635e-02f,+2.18471572e-01f,-2.55683035e-01f,-2.48940401e-02f,+4.69814837e-02f,
-1.38111755e-01f,-1.46080703e-01f,+6.71855807e-02f,-1.42751634e-01f,+1.19550541e-01f,
-2.26295833e-02f,-3.77598554e-02f,-1.71717796e-02f,-8.41472894e-02f,+6.86792433e-02f,
-8.13570097e-02f,+1.00333551e-02f,+1.97922125e-01f,-1.10444702e-01f,-5.72890341e-02f,
+2.45001063e-01f,-2.38746256e-02f,+2.35324129e-01f,+1.34289607e-01f,+1.04641952e-01f,
+2.62222607e-02f,+1.31164668e-02f,-4.63568605e-02f,+1.06803719e-02f,-1.49539150e-02f,
+1.59290954e-02f,-6.83790743e-02f,+8.37530643e-02f,-1.87597707e-01f,+2.44206954e-02f,
-1.34586105e-02f,-1.11407578e-01f,+2.67179473e-03f,+1.80315077e-02f,+1.06078789e-01f,
-2.10197598e-01f,+9.18969065e-02f,+5.74301817e-02f,+4.09737676e-02f,+1.37822151e-01f,
-1.17941415e-02f,-1.62537977e-01f,-5.59604354e-02f,+1.77312762e-01f,+1.65414475e-02f,
-1.87475502e-01f,+1.69870853e-02f,+1.29274070e-01f,+1.28766641e-01f,+3.85669023e-02f,
+1.07014984e-01f,-3.19265798e-02f,-6.64110333e-02f,-5.66785298e-02f,-5.08563295e-02f,
-1.06984109e-01f,+2.68351529e-02f,+1.60027191e-01f,+1.26322191e-02f,-1.76223978e-01f,
-2.00660601e-01f,-2.05053657e-01f,+1.03991710e-01f,-4.19339240e-02f,+1.81722883e-02f,
+1.79845423e-01f,+7.93128461e-03f,-2.47919858e-01f,+1.49748892e-01f,-5.16231805e-02f,
+1.08625218e-02f,+9.97343138e-02f,+3.63397270e-01f,+3.46327126e-01f,+7.29831830e-02f,
+1.47162467e-01f,+2.59900838e-02f,+4.76671569e-03f,+2.10474455e-03f,-6.73214346e-02f,
+3.03810891e-02f,+2.92490244e-01f,-1.83772519e-01f,+1.29801825e-01f,-1.88741744e-01f,
+1.11924216e-01f,-9.26116332e-02f,-1.07283676e-02f,-1.00900307e-01f,-3.73007171e-02f,
-3.41675431e-01f,-8.41122046e-02f,-8.92950594e-02f,-4.57054406e-01f,-1.36923894e-01f,
+2.80446917e-01f,-1.57233879e-01f,-3.03054433e-02f,+7.42670670e-02f,-4.22739610e-02f,
-8.22674856e-02f,+8.00122391e-04f,+1.41806126e-01f,+8.82127509e-02f,+1.67279705e-01f,
-3.88493538e-02f,+1.27501056e-01f,+2.17333898e-01f,-2.93577611e-02f,-8.82553533e-02f,
+2.65700053e-02f,-2.48049065e-01f,-4.73294407e-02f,+1.24994852e-01f,-1.34124175e-01f,
-2.72280365e-01f,-2.36476585e-02f,-5.99637032e-02f,-8.68953839e-02f,+7.47446045e-02f,
+1.15184784e-01f,-3.72973457e-03f,+1.04304431e-02f,-1.92105770e-01f,+2.34245867e-01f,
+8.48365501e-02f,-6.45316318e-02f,+9.33552012e-02f,+3.78503948e-02f,+7.14391470e-02f,
-1.78019240e-01f,+3.88931543e-01f,-1.38664722e-01f,-9.89570841e-02f,-1.36417419e-01f,
+2.75775403e-01f,+2.86525637e-01f,+7.83019438e-02f,+1.90550014e-01f,+9.94397625e-02f,
-3.04093747e-03f,-2.65777767e-01f,+1.17011264e-01f,+1.18981837e-03f,-8.33575949e-02f,
-1.19935282e-01f,+8.94023925e-02f,+8.65927413e-02f,-1.24287330e-01f,+1.73534408e-01f,
+2.42710367e-01f,+5.67977913e-02f,+2.53095210e-01f,+1.41024664e-01f,-1.22897312e-01f,
-1.33977234e-01f,-1.56184658e-01f,-8.82991105e-02f,+3.12108062e-02f,-1.48427993e-01f,
-3.86078991e-02f,-3.34710255e-02f,+1.77062497e-01f,-6.40136674e-02f,+6.72084540e-02f,
-6.19750321e-02f,-1.61039412e-01f,+7.72995502e-02f,-1.48596644e-01f,-5.55956252e-02f,
-2.84121841e-01f,+1.24942094e-01f,+1.56339675e-01f,-1.04535773e-01f,-1.16523407e-01f,
+3.08519810e-01f,-1.35352880e-01f,+2.15318292e-01f,+2.11831957e-01f,-1.77858606e-01f,
+2.49952793e-01f,-1.54952765e-01f,+2.66808644e-03f,-1.45227641e-01f,+1.82886273e-01f,
-1.87457263e-01f,+1.17382720e-01f,+2.73921967e-01f,+5.85676581e-02f,-6.99517578e-02f,
+8.50408822e-02f,-2.06835851e-01f,+2.27427557e-01f,+3.35285723e-01f,-1.94279328e-01f,
-2.49225289e-01f,+5.21486923e-02f,+1.05093211e-01f,+3.88246477e-02f,+4.33123112e-02f,
-2.08541840e-01f,-7.19416188e-04f,+3.00253958e-01f,+7.85029754e-02f,-2.61717141e-01f,
-1.65535316e-01f,+6.63609356e-02f,-9.85576063e-02f,-1.48735955e-01f,-8.62030983e-02f,
-2.21235052e-01f,+1.04582094e-01f,-4.18346703e-01f,-1.06507558e-02f,+3.36792856e-01f,
-5.52109741e-02f,+1.01784058e-01f,-2.88825154e-01f,+1.22047320e-01f,+5.96729200e-03f,
-1.89859375e-01f,-3.08242887e-02f,-4.84952405e-02f,+1.77171215e-01f,+1.06722794e-01f,
+2.19734579e-01f,+2.65188783e-01f,-4.66022529e-02f,-4.02593687e-02f,-1.48480445e-01f,
+4.15827513e-01f,-1.33117303e-01f,+4.52447906e-02f,+1.72752172e-01f,-5.93294390e-04f,
+8.11169017e-03f,-2.12579012e-01f,+3.91516775e-01f,-2.53733277e-01f,+1.28393859e-01f,
-4.00321782e-01f,+4.85756211e-02f,-6.27018437e-02f,+1.04046091e-01f,+5.01077212e-02f,
-1.20539567e-03f,+6.42206520e-02f,+5.72064593e-02f,-3.30858678e-02f,-1.11621745e-01f,
-8.25753435e-02f,+1.12062711e-02f,+1.23489693e-01f,-1.42883047e-01f,+1.13674685e-01f,
+1.21144757e-01f,+3.98582727e-01f,-2.49215551e-02f,-7.73010030e-02f,-6.73045292e-02f,
+2.20078062e-02f,+8.11550245e-02f,-1.72598183e-01f,+1.92462340e-01f,-1.29345879e-01f,
-7.13678226e-02f,+2.17762589e-01f,-1.45922095e-01f,+1.47070419e-02f,+1.21497557e-01f,
+2.32216623e-02f,+1.08429015e-01f,-4.32341397e-01f,-1.99711829e-01f,+1.04227886e-02f,
+7.65888616e-02f,-6.03338564e-03f,+1.53011784e-01f,+7.06498325e-02f,+1.50504157e-01f,
-1.13958098e-01f,+1.91747859e-01f,+2.32967868e-01f,-1.46380186e-01f,+1.38176024e-01f,
+1.61073193e-01f,+4.44567651e-02f,+9.68234017e-02f,-1.29896298e-01f,+1.30101785e-01f,
-1.53149337e-01f,+1.01091936e-01f,-3.31221014e-01f,-6.28614649e-02f,+6.14492130e-03f,
-1.99606434e-01f,-1.31015163e-02f,+4.54086334e-01f,-1.99141994e-01f,-1.97615802e-01f,
+2.13746935e-01f,+1.50283158e-01f,+9.39864740e-02f,+2.41780922e-01f,+5.00104912e-02f,
+1.12646073e-01f,+1.01741038e-01f,+2.59727649e-02f,+2.70994473e-03f,-1.01070680e-01f,
-1.98594555e-01f,+1.58823997e-01f,+3.08500737e-01f,-1.29706353e-01f,+3.01498845e-02f,
+6.06065989e-02f,-3.03649213e-02f,+1.51343301e-01f,+2.11342439e-01f,+2.35825375e-01f,
+2.85137743e-01f,+1.39750668e-03f,-1.41337201e-01f,-2.91187316e-01f,+1.13199241e-02f,
+3.54488716e-02f,+1.31005958e-01f,-4.92971390e-02f,-1.73658505e-01f,+2.50272572e-01f,
-3.71883586e-02f,+2.54490495e-01f,+3.59180510e-01f,+9.09485668e-02f,-7.07932264e-02f,
+4.08027619e-02f,-9.88428071e-02f,-2.72172932e-02f,+6.79471865e-02f,+2.44490299e-02f,
-2.10279465e-01f,-4.42744046e-02f,-1.13423906e-01f,+1.94876626e-01f,-3.26330774e-02f,
-1.63031593e-01f,+1.79348841e-01f,-1.63497746e-01f,+1.63694218e-01f,-1.26180485e-01f,
-4.58885282e-02f,+3.49492162e-01f,+3.07406168e-02f,+1.27721980e-01f,-1.27171159e-01f,
+2.70122051e-01f,-3.14024657e-01f,+6.70469105e-02f,-3.18485290e-01f,+1.25245284e-02f,
-9.67779011e-02f,+1.92742065e-01f,+2.79351890e-01f,+3.24151397e-01f,-2.95619458e-01f,
-1.80402070e-01f,+7.70944133e-02f,+1.51558086e-01f,+7.66489003e-03f,+4.27150317e-02f,
+1.96327224e-01f,+3.13377939e-02f,+3.12043548e-01f,+3.31482619e-01f,+8.86637866e-02f,
+1.77412927e-01f,+1.76343307e-01f,+1.94840685e-01f,+1.87149197e-01f,-1.61729921e-02f,
-2.26501405e-01f,-3.11988920e-01f,+4.01756555e-01f,+8.89353007e-02f,+1.29016027e-01f,
+2.25761637e-01f,+3.67836542e-02f,+2.01641381e-01f,-3.83058265e-02f,+7.82708600e-02f,
+1.14940070e-01f,-2.23615631e-01f,-1.25289306e-01f,-3.45225245e-01f,+1.45475209e-01f,
-1.59284607e-01f,-2.75149137e-01f,-3.37132335e-01f,-5.91758415e-02f,-2.87836373e-01f,
-1.34539437e-02f,-1.69856980e-01f,-3.07994395e-01f,-3.09314188e-02f,-2.52947479e-01f,
-3.41474384e-01f,-4.00464423e-02f,-2.61588752e-01f,+2.61564314e-01f,-2.90176511e-01f,
-4.04535905e-02f,-1.19881541e-01f,-4.55277354e-01f,+3.98265004e-01f,-1.40776098e-01f,
+8.33525416e-03f,-1.85495928e-01f,+3.60097826e-01f,+6.87406287e-02f,-3.52033377e-01f,
-6.65900037e-02f,+5.48112392e-02f,+2.25434117e-02f,-6.08001165e-02f,+1.02710076e-01f,
-4.07136023e-01f,+2.21543550e-01f,-3.74246150e-01f,+8.28928500e-02f,+1.25869691e-01f,
+2.17473730e-02f,-1.55890658e-01f,-8.59546214e-02f,+2.84292281e-01f,+2.87127286e-01f,
+8.91095623e-02f,-2.62767434e-01f,-3.35882574e-01f,+5.18921800e-02f,+2.91532487e-01f,
+2.60937680e-02f,+4.45268825e-02f,+2.96361685e-01f,+4.76914681e-02f,-3.35245505e-02f,
+3.15192267e-02f,+6.96540624e-02f,+2.50611454e-01f,-2.31453642e-01f,+2.88730692e-02f,
-4.50022109e-02f,-3.82127389e-02f,-5.54326251e-02f,+1.39996499e-01f,-2.41540726e-02f,
+1.01706289e-01f,+3.37305546e-01f,-2.37589702e-01f,+8.73988047e-02f,-1.99757725e-01f,
-3.10363565e-02f,-3.98078077e-02f,-4.36564013e-02f,+2.28980377e-01f,+2.34187946e-01f,
-1.71848178e-01f,-1.08570807e-01f,-4.10906188e-02f,-2.93617100e-01f,-1.88922495e-01f,
+9.31265503e-02f,+1.93084776e-02f,-4.37449664e-02f,-2.52191901e-01f,-7.47177750e-02f,
+2.41523936e-01f,-1.41819686e-01f,+1.42296642e-01f,+1.18050255e-01f,-1.57855600e-02f,
+1.19611882e-01f,+1.13781586e-01f,+8.45101774e-02f,+1.09306410e-01f,-2.62166321e-01f,
+3.06538995e-02f,+4.24644575e-02f,-1.44272801e-02f,+1.58050060e-01f,+1.37422696e-01f,
-1.10231906e-01f,-7.38722458e-02f,+8.87171552e-03f,-1.92323089e-01f,-2.07056031e-01f,
-8.75674263e-02f,+2.11901367e-01f,+7.73775131e-02f,+7.87057206e-02f,-2.73907602e-01f,
-1.34187326e-01f,-2.78892785e-01f,+1.12304032e-01f,+7.27710649e-02f,-9.37315151e-02f,
-2.33457044e-01f,+6.49264902e-02f,-8.75399485e-02f,-1.76206455e-01f,+1.74714863e-01f,
+7.45836738e-03f,-1.32661005e-02f,-1.43178210e-01f,+1.62603751e-01f,+2.70478845e-01f,
+1.21947259e-01f,-1.83055386e-01f,-2.93746352e-01f,-3.10006142e-02f,+1.21396981e-01f,
+2.58836329e-01f,+2.16946572e-01f,-3.79303005e-03f,-2.01067906e-02f,+9.41288620e-02f,
+4.67389598e-02f,-1.89300209e-01f,+2.47160941e-01f,-1.56353191e-01f,+1.11513205e-01f,
-1.10910470e-02f,+2.86751334e-02f,+7.49085248e-02f,-6.63575605e-02f,+3.34421903e-01f,
+1.51245698e-01f,+1.27013490e-01f,-3.74575034e-02f,-1.94291417e-02f,+1.41772196e-01f,
-7.73024186e-02f,-9.69685987e-02f,+8.92902464e-02f,+1.58130124e-01f,+1.40074804e-01f,
-3.68589349e-02f,+1.62561402e-01f,-2.13787369e-02f,+2.05815032e-01f,+2.41473749e-01f,
+4.47406955e-02f,+1.53420597e-01f,+2.40168981e-02f,+1.14684902e-01f,-1.81264564e-01f,
-3.81127834e-01f,-1.37110472e-01f,-4.92582731e-02f,+7.48797739e-03f,-2.65343934e-02f,
+8.61781836e-03f,+4.42088209e-02f,-9.78022441e-03f,+1.69984385e-01f,+3.65696251e-01f,
-2.65802532e-01f,-1.72106832e-01f,+1.16577059e-01f,-2.02957779e-01f,-3.63539830e-02f,
+1.52390316e-01f,+1.98752001e-01f,-2.17032507e-01f,-1.56537771e-01f,-3.03237550e-02f,
+1.66078359e-01f,+5.33208922e-02f,-1.96971431e-01f,-5.04352115e-02f,-1.71962693e-01f,
-7.09084347e-02f,-1.20936535e-01f,+1.40901104e-01f,-1.12376794e-01f,+1.89173073e-02f,
-1.48344740e-01f,-1.05517901e-01f,+2.83413590e-03f,-5.62739298e-02f,+1.26416311e-01f,
+9.69877094e-03f,-1.43754659e-02f,-2.02201188e-01f,+2.31462687e-01f,-1.25645176e-01f,
+1.63990438e-01f,-4.63582128e-02f,+2.00074032e-01f,-2.18944937e-01f,-8.13151374e-02f,
+2.35957336e-02f,-6.35628626e-02f,-3.25297490e-02f,-1.82890385e-01f,+2.24040300e-02f,
-1.97604984e-01f,+1.62330464e-01f,+1.19180046e-01f,+1.65195376e-01f,+3.97813171e-02f,
-2.94548571e-01f,-2.00829450e-02f,+2.85648644e-01f,-2.01546803e-01f,+1.75545573e-01f,
-4.11063172e-02f,+5.64940155e-01f,+2.00258091e-01f,+6.52181879e-02f,+2.23310918e-01f,
+1.33112967e-01f,+4.56053466e-02f,-1.26908734e-01f,+1.18786901e-01f,-7.91597813e-02f,
-2.31774956e-01f,+8.80276561e-02f,+3.51649784e-02f,+2.33023688e-01f,-3.10582459e-01f,
-1.51146963e-01f,+2.60852575e-01f,-1.82197765e-01f,+1.30317673e-01f,+6.64731637e-02f,
+1.45448476e-01f,-9.44118276e-02f,+4.16402481e-02f,+1.02001935e-01f,-3.24260467e-03f,
-1.29672140e-01f,+1.72112823e-01f,+4.40397233e-01f,-5.51066883e-02f,-2.78488964e-01f,
+6.72730654e-02f,-9.58631188e-02f,-1.85036689e-01f,+1.82076216e-01f,+1.49621546e-01f,
+1.80276603e-01f,+1.74456373e-01f,+4.97034239e-03f,-1.32517591e-01f,-1.51906475e-01f,
+1.63020581e-01f,-4.33906540e-03f,-1.52158141e-01f,+3.15445065e-01f,+2.26804808e-01f,
+1.14652045e-01f,-1.23484574e-01f,-8.41186419e-02f,-1.84288636e-01f,-2.55927533e-01f,
+3.84264369e-03f,+2.99141719e-03f,-2.59199411e-01f,-2.07331330e-01f,-8.77937675e-03f,
+7.00027421e-02f,-5.74393533e-02f,-1.40992954e-01f,+2.44582921e-01f,-1.94255546e-01f,
-3.45078446e-02f,+7.73340762e-02f,-1.87759653e-01f,-3.03470786e-03f,-6.06229901e-02f,
-1.33324342e-04f,-1.76105276e-02f,-2.56665736e-01f,-5.63702174e-02f,+6.12435341e-02f,
+1.77746758e-01f,-3.24297935e-01f,+2.48236746e-01f,+1.86423570e-01f,+1.35178775e-01f,
-2.64937639e-01f,+4.12849396e-01f,-1.42608240e-01f,-3.74586247e-02f,-3.67523395e-02f,
-6.28121477e-03f,+1.95023224e-01f,-6.26727566e-02f,-3.95066030e-02f,+2.25166485e-01f,
+1.55149028e-01f,-8.37963820e-02f,+1.69940338e-01f,+6.65382072e-02f,+3.10224921e-01f,
+1.99503645e-01f,+7.41343498e-02f,-7.32070059e-02f,-2.32790709e-02f,-1.66195258e-02f,
-6.15781173e-02f,+3.31092253e-02f,-1.09292127e-01f,-5.92956096e-02f,-2.95449886e-03f,
+3.65933031e-01f,+2.61537701e-01f,-1.75317556e-01f,+1.77987758e-02f,-2.15721335e-02f,
-1.42139345e-01f,+3.21033627e-01f,+1.03977270e-01f,+2.64801949e-01f,+5.55933733e-03f,
-9.71302986e-02f,-1.47096599e-02f,+4.22826521e-02f,-2.57677853e-01f,+1.63209409e-01f,
+1.00005254e-01f,+2.88967103e-01f,-7.90515020e-02f,-7.38570420e-03f,+2.16242671e-01f,
-6.56516701e-02f,+1.61342874e-01f,+3.59399468e-01f,-1.10323854e-01f,+1.77045897e-01f,
+2.62199998e-01f,+1.59372832e-03f,+2.26777852e-01f,+1.32298365e-01f,+4.72650006e-02f,
+1.55806974e-01f,+4.98919673e-02f,+2.38603875e-01f,-1.87475681e-01f,+1.44602552e-01f,
-1.13033950e-01f,+1.95331112e-01f,+2.71330662e-02f,+2.22068116e-01f,-1.75309747e-01f,
+3.54503334e-01f,+2.68946499e-01f,+1.30410537e-01f,-2.91029930e-01f,+4.36526775e-01f,
+1.52076870e-01f,+1.88837890e-02f,-5.33426553e-03f,+5.45220077e-02f,+3.36153358e-01f,
+1.50705472e-01f,+1.34571478e-01f,-2.20694430e-02f,-4.22125340e-01f,-4.72871363e-02f,
+2.32870504e-02f,-9.07790139e-02f,-1.50384814e-01f,+6.08955510e-02f,-7.73510560e-02f,
-1.96849659e-01f,-8.73584673e-02f,+1.25145659e-01f,+1.35107353e-01f,-6.81025609e-02f,
-3.27200405e-02f,+2.55033560e-02f,-1.56722203e-01f,+2.57092953e-01f,+1.58975959e-01f,
+2.27020625e-02f,-1.47667989e-01f,-1.19239278e-01f,+3.58874386e-04f,+1.33928359e-01f,
+1.03749819e-01f,-6.23501539e-02f,-2.36253276e-01f,+1.27024412e-01f,+1.09658137e-01f,
+1.65857106e-01f,-2.39543691e-01f,-1.72814637e-01f,+3.32737386e-01f,+1.41603619e-01f,
+3.54956120e-01f,+1.19769342e-01f,+4.98405695e-01f,+9.98657420e-02f,-1.64546013e-01f,
+2.24980101e-01f,-1.14617117e-01f,+1.54287398e-01f,+1.71066850e-01f,+1.65429011e-01f,
+2.62738377e-01f,-8.67629424e-03f,-2.04374865e-01f,+9.29335654e-02f,+1.20609581e-01f,
+6.53893277e-02f,+1.53896669e-02f,+1.53942332e-01f,+8.33025482e-03f,-3.72152299e-01f,
+7.26958811e-02f,-2.66594291e-01f,+7.51129761e-02f,+7.85781965e-02f,+1.18690662e-01f,
+3.22044462e-01f,+1.44940063e-01f,-1.01329513e-01f,+2.01974064e-01f,+1.31214574e-01f,
-1.39156967e-01f,-2.81147182e-01f,-2.61137545e-01f,+3.87896225e-03f,+1.59467950e-01f,
-4.19962360e-03f,-2.18208835e-01f,-1.69423729e-01f,+1.55832946e-01f,-2.97568858e-01f,
+2.88454699e-03f,-1.41934752e-01f,+4.67702784e-02f,+2.03493729e-01f,-1.70417696e-01f,
+3.71188194e-01f,+3.47036757e-02f,-1.19204968e-01f,+7.86647480e-03f,-1.34321302e-01f,
+9.90624577e-02f,+1.78197503e-01f,+1.00915030e-01f,-1.63362682e-01f,+8.32686946e-02f,
+1.45856678e-01f,+9.61450115e-02f,+2.77147163e-02f,+5.88738509e-02f,+1.16136938e-01f,
-6.45983452e-03f,-2.85375328e-03f,-2.48032480e-01f,+6.74710646e-02f,-9.61681977e-02f,
+1.64238259e-01f,+1.06952973e-01f,+2.60361731e-01f,+1.02412149e-01f,+7.53047168e-02f,
-1.14444517e-01f,-1.66220471e-01f,+5.08350460e-03f,+3.22266221e-02f,-2.25114927e-01f,
-7.61176944e-01f,+1.97126299e-01f,+1.55098960e-01f,+1.39362037e-01f,+6.11783862e-01f,
+1.80862769e-01f,-3.17587517e-03f,+4.23693895e-01f,-9.03719217e-02f,-1.53264880e-01f,
-4.50762734e-02f,+1.03034385e-01f,-4.03367728e-02f,+1.33166416e-03f,+2.94252843e-01f,
+6.94630891e-02f,+7.76565820e-02f,+1.08877353e-01f,-7.94248283e-02f,-2.18421638e-01f,
-5.91430301e-03f,-5.86101823e-02f,-3.13320965e-01f,-2.70171046e-01f,-9.19448808e-02f,
-4.44052517e-01f,-1.11818854e-02f,-1.55808076e-01f,-7.44327381e-02f,-7.00967088e-02f,
+2.51810849e-01f,+1.79936454e-01f,+1.64116591e-01f,+2.78470386e-02f,+6.29967824e-02f,
+8.36705491e-02f,-4.66330022e-01f,+6.22257628e-02f,-7.06213936e-02f,+9.71494168e-02f,
+9.51723568e-03f,-1.11640677e-01f,+1.43252924e-01f,-2.26445690e-01f,-7.72626745e-03f,
+2.19438285e-01f,-5.04558086e-02f,+1.76919982e-01f,-1.28586784e-01f,-1.18148461e-01f,
+2.48782754e-01f,-3.03191662e-01f,+3.12676400e-01f,-7.23772310e-03f,+1.42559573e-01f,
-1.55386314e-01f,-1.45844266e-01f,+1.97062045e-01f,-1.98866084e-01f,-1.69947937e-01f,
-1.57860536e-02f,-3.01355153e-01f,+3.64988707e-02f,-1.70297511e-02f,+1.25775132e-02f,
-3.86670083e-02f,+1.37363926e-01f,+2.46484607e-01f,-4.25266564e-01f,-1.43352002e-01f,
+4.74418327e-02f,-1.24493189e-01f,+1.19302329e-03f,-1.61333188e-01f,+3.46710056e-01f,
-1.54395953e-01f,-8.38703215e-02f,+1.72037885e-01f,+9.86697972e-02f,+5.70694953e-02f,
+2.79373233e-03f,+1.52289331e-01f,-1.58700973e-01f,+9.79453996e-02f,-7.07587674e-02f,
-1.67897373e-01f,-2.21583322e-02f,+1.92562286e-02f,+4.86569777e-02f,+1.14518657e-01f,
+1.25092372e-01f,+1.55542474e-02f,+1.00466847e-01f,+4.61107939e-02f,+1.31495282e-01f,
+1.25342861e-01f,+4.38095108e-02f,+7.99882412e-02f,+5.20755708e-01f,+1.67095155e-01f,
-2.72805423e-01f,+5.74835204e-02f,+2.89036520e-02f,+1.51544109e-01f,+3.85567129e-01f,
-1.99770425e-02f,+2.17407376e-01f,-7.92019442e-02f,+1.37694096e-02f,+3.08671333e-02f,
-1.52529076e-01f,+3.59606415e-01f,+3.95312220e-01f,-7.85952732e-02f,+4.20410365e-01f,
+2.76160717e-01f,+1.61254078e-01f,+1.02574296e-01f,+1.83480129e-01f,+3.35673988e-01f,
-1.86462253e-01f,+2.11726397e-01f,+7.49098044e-03f,+3.63376945e-01f,+1.24083765e-01f,
+1.46503344e-01f,-2.38209277e-01f,-1.27633661e-01f,+1.00804180e-01f,-3.81491452e-01f,
+6.14797287e-02f,-1.69706315e-01f,-4.19471301e-02f,+7.77023137e-02f,-7.97111541e-02f,
+7.34575018e-02f,-3.36745977e-02f,+1.21981591e-01f,+2.56042331e-01f,+1.66952312e-01f,
+1.65817231e-01f,+3.05138201e-01f,+8.29694495e-02f,+4.59486276e-01f,-4.17653397e-02f,
+1.54667217e-02f,-1.90470979e-01f,-1.47488490e-01f,+1.61332265e-01f,+3.77144009e-01f,
+1.93879277e-01f,+1.51562616e-01f,-3.08209479e-01f,+4.47669446e-01f,+2.26765871e-01f,
-2.35293284e-01f,+1.50802925e-01f,+3.29908449e-03f,-2.88950950e-01f,-2.80256718e-01f,
+2.24580467e-01f,-5.64285880e-03f,-3.87656391e-02f,-2.66380012e-01f,+1.84178308e-01f,
-1.81842819e-01f,+6.02195151e-02f,-7.46237636e-02f,+1.54363781e-01f,-8.24445561e-02f,
+2.79210340e-02f,-9.76895913e-02f,+1.45686284e-01f,-1.14879526e-01f,+4.16834444e-01f,
-5.02559580e-02f,+4.88579609e-02f,-1.21440880e-01f,+2.63683319e-01f,+2.73899019e-01f,
+1.38795376e-01f,+2.06116825e-01f,+1.14285909e-01f,-3.99484439e-03f,-1.52554847e-02f,
-2.18076054e-02f,-9.53334048e-02f,-9.71323624e-03f,-1.89071327e-01f,-3.29336524e-02f,
+1.30950063e-01f,+2.62864977e-01f,+6.77460060e-02f,+9.86871123e-02f,-8.42178166e-02f,
+1.82762355e-01f,-4.17141654e-02f,+1.84941754e-01f,+6.96367919e-02f,+1.39636472e-01f,
-1.13868952e-01f,+1.15482388e-02f,-8.22927654e-02f,+1.21100061e-01f,-4.29036431e-02f,
-1.55461086e-02f,-2.23010436e-01f,+3.01904649e-01f,-9.89476740e-02f,+1.24054737e-01f,
-9.98590048e-03f,+2.18466595e-01f,+5.40470853e-02f,+8.81092064e-03f,-5.49184484e-03f,
+1.63368762e-01f,+7.92866349e-02f,-1.99103281e-01f,+3.61206681e-01f,+4.33224291e-02f,
+5.46947494e-02f,+1.79115325e-01f,-4.71099056e-02f,-1.84173305e-02f,-1.86439067e-01f,
+2.54331887e-01f,-3.14413570e-02f,-7.46945813e-02f,+3.13853145e-01f,+3.27282757e-01f,
-9.16824043e-02f,-2.03743666e-01f,+2.54155785e-01f,+2.36413077e-01f,-3.74343246e-01f,
+4.37537441e-03f,-9.73037034e-02f,+2.52137721e-01f,-3.82698737e-02f,-4.02732551e-01f,
+1.98705524e-01f,-7.74107315e-03f,-7.12763593e-02f,+2.61797965e-01f,+5.02779745e-02f,
+1.71654373e-01f,-2.54852921e-01f,-3.46741192e-02f,+3.90251338e-01f,+3.11834902e-01f,
+4.55977395e-02f,+3.81300673e-02f,+3.20957839e-01f,+3.45918238e-01f,-1.08633250e-01f,
+5.48577756e-02f,+1.79311886e-01f,-1.27792269e-01f,+2.58542389e-01f,-1.29812211e-01f,
+4.08993840e-01f,-5.06672589e-03f,-2.64631957e-01f,+6.66863397e-02f,+2.89532781e-01f,
+2.71990806e-01f,+4.56144437e-02f,-8.64702836e-02f,+2.18748182e-01f,-4.61724937e-01f,
+2.85560846e-01f,+1.75435111e-01f,+8.41492563e-02f,+2.26930827e-02f,+3.75416011e-01f,
-1.36292964e-01f,+1.71549261e-01f,+1.53617084e-01f,-1.09799340e-01f,+2.28113741e-01f,
+9.85632986e-02f,+5.29875040e-01f,-2.94263512e-01f,+2.19679162e-01f,+9.08182487e-02f,
+3.75939682e-02f,+2.50292093e-01f,+1.38644487e-01f,-1.12813659e-01f,-1.30031541e-01f,
-1.05105683e-01f,+1.99008152e-01f,+2.64290720e-01f,+1.27402425e-01f,+1.26289248e-01f,
-2.76086051e-02f,+3.43714327e-01f,+1.81286409e-01f,+7.92659968e-02f,-2.22053632e-01f,
+1.20052829e-01f,-1.10778637e-01f,+1.45441502e-01f,-3.38050611e-02f,-1.60343900e-01f,
-1.25289202e-01f,+1.54862151e-01f,+1.31705612e-01f,+1.68964248e-02f,-2.60705084e-01f,
+2.66648293e-01f,+5.68849370e-02f,-7.53045175e-03f,+8.83761197e-02f,+8.44769366e-03f,
+1.84060693e-01f,-3.95818129e-02f,+2.14266881e-01f,+1.40730426e-01f,+5.04668206e-02f,
+6.43842816e-02f,+1.73404619e-01f,+1.73245519e-01f,+1.25302404e-01f,-2.81734634e-02f,
+7.66337290e-02f,-1.48972571e-01f,+1.37029067e-01f,+7.12473392e-02f,+2.63288822e-02f,
+3.48066628e-01f,-1.03675142e-01f,-2.09771156e-01f,+7.36794248e-02f,+9.29820836e-02f,
-2.79666260e-02f,-2.22775310e-01f,+1.18275233e-01f,-4.05696109e-02f,+2.18750596e-01f,
-1.23938255e-01f,-3.17413658e-01f,+2.26673082e-01f,+1.27772912e-01f,+2.62424201e-01f,
+3.01372726e-03f,+1.86584815e-01f,+4.11535084e-01f,+2.08535522e-01f,+4.85285781e-02f,
-7.19132498e-02f,+1.85161200e-03f,+1.98867351e-01f,-1.05903529e-01f,-2.78814763e-01f,
-1.40864000e-01f,-1.39876619e-01f,+1.00646012e-01f,+1.47443578e-01f,+2.65029252e-01f,
-1.50002297e-02f,-2.19702721e-01f,+1.65882036e-01f,-2.07421765e-01f,+6.69210911e-01f,
-1.76394414e-02f,-2.55896062e-01f,+5.21993898e-02f,-2.65828699e-01f,-1.13188520e-01f,
+1.81967124e-01f,-9.50079188e-02f,+9.53272432e-02f,+3.98977585e-02f,+3.70837837e-01f,
+3.02569240e-01f,-6.74129650e-02f,+1.08051457e-01f,+1.75089315e-01f,+1.08477846e-01f,
+7.43035525e-02f,-5.01207113e-02f,-1.67744040e-01f,+2.08474874e-01f,-1.38745248e-01f,
+1.13440894e-01f,+1.06525570e-01f,+3.37944835e-01f,+3.15579176e-01f,-6.71200976e-02f,
+5.44237010e-02f,+3.01248226e-02f,+3.45490843e-01f,-1.29163235e-01f,+2.48210877e-01f,
+9.08498988e-02f,-7.80150667e-02f,-6.70888135e-03f,-3.03760827e-01f,-2.78264970e-01f,
-6.69946298e-02f,-1.15925455e-02f,+5.25166877e-02f,-2.16717273e-02f,+5.98532856e-02f,
+1.08310105e-02f,+1.83062017e-01f,+3.13822143e-02f,-1.18804149e-01f,-1.10702803e-02f,
-2.06527691e-02f,-1.35416746e-01f,-1.26335591e-01f,+1.44176427e-02f,-2.35430077e-01f,
+7.35112978e-03f,+8.29012394e-02f,-6.14612922e-02f,-1.45495892e-01f,+1.81707859e-01f,
+3.24647129e-02f,-2.73534060e-01f,-3.14315021e-01f,+7.46212378e-02f,+9.61038694e-02f,
+2.02648818e-01f,+6.93567619e-02f,-1.84771389e-01f,-1.04645975e-01f,+1.67959705e-01f,
+2.25428894e-01f,+2.78713226e-01f,-2.95596290e-02f,+1.01064876e-01f,-1.58050925e-01f,
-1.74257495e-02f,-1.94262296e-01f,-1.24915324e-01f,-1.79818615e-01f,-5.12543321e-03f,
-7.52125084e-02f,-1.23038732e-01f,-3.69434319e-02f,-1.80451527e-01f,-6.25603199e-02f,
-2.42868796e-01f,+2.14707300e-01f,-4.20775935e-02f,+2.14978904e-01f,+6.63620308e-02f,
-1.37866726e-02f,+2.79712796e-01f,-1.97088644e-01f,-2.17514038e-02f,-3.62588316e-02f,
+1.15902297e-01f,+1.57938123e-01f,-4.24562097e-02f,-5.97111024e-02f,-1.47078946e-01f,
-1.38811350e-01f,+2.07304001e-01f,+1.01226475e-02f,+1.66645274e-01f,-1.75471559e-01f,
+1.25007015e-02f,+1.90210313e-01f,-9.57361981e-02f,+1.54118255e-01f,+7.13088065e-02f,
+3.32178861e-01f,+1.46185294e-01f,-7.68181495e-03f,-2.14215755e-01f,+1.01638347e-01f,
+1.13522068e-01f,+4.52844910e-02f,+5.25937155e-02f,-1.91569656e-01f,+2.13266790e-01f,
+6.55900985e-02f,+6.75966963e-02f,+3.09984703e-02f,+1.41808078e-01f,+5.13116047e-02f,
-1.60672128e-01f,+9.57460627e-02f,+1.72782853e-01f,+8.91179889e-02f,+2.39848793e-01f,
+2.96270996e-02f,+1.49596512e-01f,+6.28935471e-02f,+1.19032137e-01f,-2.91720498e-02f,
+8.91061276e-02f,-1.26283854e-01f,+1.27305724e-02f,+1.25892282e-01f,+1.60745550e-02f,
-2.33431578e-01f,+3.70999545e-01f,-1.20983142e-02f,-4.66718972e-02f,-1.38018265e-01f,
+2.87166424e-03f,-2.06878819e-02f,+1.83193475e-01f,-7.16009289e-02f,+3.43516469e-02f,
+5.86147383e-02f,-6.80984557e-02f,+1.05021589e-01f,+2.24658594e-01f,+1.53851151e-01f,
-1.38404459e-01f,-2.41913304e-01f,-1.84949189e-01f,+1.59968331e-01f,-1.07551478e-01f,
-1.94978993e-02f,+8.58627353e-03f,-1.82846606e-01f,-7.07021952e-02f,+9.92178097e-02f,
-1.89707562e-01f,+4.56195772e-02f,+1.03435688e-01f,-9.23153013e-02f,-1.08795799e-01f,
+6.09954707e-02f,-3.19026291e-01f,+1.15933254e-01f,+1.44628614e-01f,+1.07748605e-01f,
-2.56535023e-01f,-6.72892332e-02f,-7.52961412e-02f,-9.80081335e-02f,-1.69231966e-01f,
-7.89622888e-02f,+3.68216448e-02f,+1.73383325e-01f,+8.58148336e-02f,+7.31715038e-02f,
+1.71837389e-01f,+2.40944535e-01f,+4.77532417e-01f,+2.22089007e-01f,-6.97358027e-02f,
+1.99634776e-01f,+5.46133071e-02f,+1.95786357e-02f,+2.05616936e-01f,-2.71626234e-01f,
+6.47777915e-02f,-8.03226978e-02f,+1.67648599e-01f,-1.10911503e-01f,-2.26971470e-02f,
-4.73237708e-02f,-1.71231061e-01f,+1.28846969e-02f,+2.43299082e-01f,+1.98645428e-01f,
-1.16282187e-01f,-1.27808690e-01f,-1.53856277e-02f,+3.71320546e-02f,+6.62566572e-02f,
+3.13704640e-01f,+6.59036711e-02f,-2.86450218e-02f,-1.09281920e-01f,-1.83541149e-01f,
-1.56190380e-01f,-1.40818745e-01f,-2.28314456e-02f,+4.41132158e-01f,+7.57866651e-02f,
+2.24418804e-01f,+3.46375316e-01f,-1.31508663e-01f,+4.33981493e-02f,+1.10203445e-01f,
+2.19173163e-01f,+1.56794518e-01f,-3.15465897e-01f,-1.08205732e-02f,-2.10324256e-03f,
-6.08973764e-03f,+3.92322727e-02f,-6.83316216e-02f,+2.32609823e-01f,+1.71137437e-01f,
-4.18724939e-02f,-7.86215737e-02f,+2.71546215e-01f,-3.21482152e-01f,-7.63747096e-02f,
-2.23827153e-01f,+2.19780236e-01f,+7.69709498e-02f,-8.38907585e-02f,-2.02036232e-01f,
-6.74637854e-02f,+6.65329397e-02f,-1.28924251e-01f,-2.07415178e-01f,-2.46045906e-02f,
+8.95521715e-02f,+2.23341912e-01f,+1.79857433e-01f,+2.99273610e-01f,+2.37498507e-01f,
-1.04307964e-01f,-1.70006463e-03f,+1.47968620e-01f,+8.01773667e-02f,+2.10852221e-01f,
+2.64469683e-02f,+1.11497391e-03f,-1.29182145e-01f,+1.18080929e-01f,+2.64256835e-01f,
-1.97922945e-01f,+1.60402924e-01f,+2.10806221e-01f,-4.26187888e-02f,-3.23015824e-02f,
-5.19565232e-02f,+1.02301292e-01f,+1.39028355e-01f,+1.25428900e-01f,+5.12534231e-02f,
-4.13518459e-01f,+2.24569142e-01f,+2.20919490e-01f,+1.36429295e-01f,+2.12072596e-01f,
-7.59315118e-02f,+1.80683270e-01f,+7.99555853e-02f,+2.12785136e-02f,+1.72860295e-01f,
+4.41342853e-02f,+9.38845500e-02f,-7.88851455e-03f,-1.43691257e-01f,-4.05134559e-01f,
-8.75016004e-02f,+8.85971114e-02f,-4.10762336e-03f,-3.99706550e-02f,-2.66431365e-02f,
-9.44752917e-02f,-1.65156901e-01f,-2.13833712e-02f,-6.17873631e-02f,-2.95286067e-02f,
+2.66339816e-02f,-1.48147926e-01f,-1.11142047e-01f,-1.44346416e-01f,-1.23822935e-01f,
+2.33612865e-01f,+5.68077825e-02f,+3.50433379e-01f,-2.33416006e-01f,-4.90056127e-02f,
-2.12829515e-01f,+2.26828918e-01f,-1.75559178e-01f,-1.66510090e-01f,-8.88882354e-02f,
-9.41777304e-02f,-4.09035645e-02f,+1.63902685e-01f,+1.06433749e-01f,+2.72453547e-01f,
+2.17200682e-01f,+6.19018152e-02f,+9.36514437e-02f,+2.92744696e-01f,+7.59045705e-02f,
+9.20556858e-02f,+2.68115431e-01f,+1.48212567e-01f,+3.63142714e-02f,-1.19677698e-02f,
+3.21025163e-01f,+3.31558622e-02f,+2.36886786e-03f,-3.48444402e-01f,-2.08276346e-01f,
+9.59021449e-02f,-3.28365415e-01f,-2.60461569e-01f,-4.63605970e-02f,+6.86045960e-02f,
-1.04855172e-01f,-1.20223396e-01f,-1.79473296e-01f,-2.32169077e-01f,-2.81642135e-02f,
-1.00458175e-01f,-8.52937903e-03f,-2.58273870e-01f,+4.82516130e-03f,-5.62929548e-02f,
+1.38125032e-01f,-9.46035460e-02f,-3.03611513e-02f,+1.81468055e-02f,+2.19517171e-01f,
+2.98126079e-02f,+1.59525260e-01f,-1.42031088e-01f,-2.22741626e-02f,-3.15153539e-01f,
-8.19472075e-02f,+2.41973884e-02f,-5.90225449e-03f,-1.71831906e-01f,-1.03451692e-01f,
+1.16058342e-01f,+3.13099995e-02f,-2.40878969e-01f,+2.73480490e-02f,-8.67249519e-02f,
+2.12586984e-01f,-1.21299125e-01f,-3.95595506e-02f,-6.96870824e-03f,+5.67049347e-02f,
+7.00563937e-02f,+6.45025894e-02f,-3.36713865e-02f,+1.99658602e-01f,+9.97622013e-02f,
-5.97074553e-02f,+5.58244959e-02f,+2.84712762e-01f,-9.60887293e-04f,+8.64498019e-02f,
-9.49620157e-02f,+1.09378256e-01f,+7.90310800e-02f,+1.57144099e-01f,+1.48435354e-01f,
+1.38762221e-01f,-3.05102710e-02f,+6.00344054e-02f,+2.05407724e-01f,-6.16459437e-02f,
-2.70876259e-01f,+3.42051871e-02f,+1.40754832e-02f,+2.87697557e-03f,+2.11146072e-01f,
+1.97865143e-01f,-3.36962402e-01f,+5.33898454e-03f,-2.35597804e-01f,+1.28223568e-01f,
-3.45862135e-02f,-5.38191758e-02f,+1.39449835e-01f,+1.18295498e-01f,+2.72605896e-01f,
+1.24790452e-01f,-1.15698889e-01f,-1.91076815e-01f,-1.28756955e-01f,-1.96990394e-03f,
-2.28375509e-01f,-9.17887315e-02f,-6.00354746e-02f,+2.98217893e-01f,-3.36833764e-03f,
-9.09197479e-02f,-1.12676799e-01f,+5.94086461e-02f,+8.81574079e-02f,+1.58195328e-02f,
-1.17317349e-01f,+1.47208935e-02f,+1.88341826e-01f,+2.06173994e-02f,+1.30098090e-01f,
+3.13849486e-02f,-1.15873799e-01f,+1.27990872e-01f,+2.93713093e-01f,+2.18447104e-01f,
-2.18006283e-01f,+1.22982832e-02f,+1.52267113e-01f,-9.69470665e-02f,-3.41295004e-02f,
-2.25617275e-01f,+1.20635942e-01f,-3.31586748e-02f,-5.73722497e-02f,+2.69302905e-01f,
+9.23352912e-02f,-9.05259103e-02f,-1.99375059e-02f,-1.06618963e-01f,+2.36094028e-01f,
-2.46874675e-01f,-3.69182602e-02f,-1.30423112e-03f,+6.90401569e-02f,+4.57700081e-02f,
+1.64735958e-01f,+1.51563138e-01f,+3.31097320e-02f,+2.28641242e-01f,+1.80510297e-01f,
+1.97112530e-01f,-2.01994881e-01f,+1.27137676e-01f,+6.18200451e-02f,+2.04180509e-01f,
+4.84258216e-03f,+2.10430354e-01f,-8.32454488e-02f,+2.57460354e-03f,-8.05494264e-02f,
-2.38888383e-01f,+1.50538692e-02f,+1.17564565e-02f,+1.47550315e-01f,+1.92855392e-02f,
-4.02605146e-01f,-1.49051964e-01f,-1.46805063e-01f,+1.29794151e-01f,+1.28411487e-01f,
+4.54837866e-02f,+1.88791752e-01f,-2.13104442e-01f,+9.08859819e-02f,+9.15662106e-03f,
+3.06022972e-01f,-3.17737520e-01f,+6.95230290e-02f,-1.44039944e-01f,+8.46121926e-03f,
-1.79204196e-01f,+1.58139735e-01f,-1.47580206e-01f,-3.42702806e-01f,+1.80589184e-01f,
-6.44713035e-03f,-1.00393862e-01f,-8.94118026e-02f,-1.51306633e-02f,-1.15415283e-01f,
+7.00071380e-02f,+2.51498461e-01f,-1.07605316e-01f,-6.12120889e-02f,-4.92930375e-02f,
+6.50008768e-02f,+4.11625579e-02f,-5.42815812e-02f,+1.04114547e-01f,+2.11124912e-01f,
+1.86607346e-01f,-1.14190921e-01f,-8.83419216e-02f,-2.02887669e-01f,+1.41022215e-02f,
-1.89270243e-01f,+2.52734069e-02f,+3.68618965e-02f,+2.52628267e-01f,+1.98347315e-01f,
-2.15588547e-02f,-2.03487873e-01f,-3.69167864e-01f,-3.50964032e-02f,-1.30860950e-03f,
-5.61246462e-03f,-1.35052562e-01f,+1.31561875e-01f,-8.12051520e-02f,-3.26329917e-01f,
-1.44425333e-01f,+8.45730603e-02f,-9.13044885e-02f,-1.79335222e-01f,+1.15464345e-01f,
-8.53534639e-02f,-1.40449584e-01f,-1.28268823e-01f,+4.82516289e-02f,+4.25257795e-02f,
-7.59663060e-02f,-1.45162895e-01f,-2.55153049e-02f,-5.83706722e-02f,+2.19787862e-02f,
-2.16245893e-02f,+1.10062002e-03f,-1.28973678e-01f,+2.21747532e-01f,+1.66247711e-02f,
-2.46048123e-02f,+2.38968916e-02f,-5.91258220e-02f,+8.68214667e-02f,+2.99852401e-01f,
+1.23033248e-01f,-2.65347218e-04f,+1.87540248e-01f,+2.91328505e-02f,+8.57064500e-02f,
+1.87043130e-01f,-2.40603406e-02f,+1.73151735e-02f,-7.33904094e-02f,+1.41471356e-01f,
+1.26197204e-01f,-2.21019253e-01f,+8.33317935e-02f,+1.74760655e-01f,-5.21454178e-02f,
-3.10838252e-01f,-3.77428462e-03f,-2.81565357e-02f,+7.37270713e-02f,+1.76030695e-01f,
+4.89074618e-01f,-9.32757705e-02f,+9.42592844e-02f,-5.41042276e-02f,+6.30342141e-02f,
-1.45109788e-01f,+2.14013517e-01f,+3.69495302e-01f,+8.39672536e-02f,+2.71612048e-01f,
+2.05003675e-02f,+1.76067084e-01f,+4.44963239e-02f,-7.43354484e-02f,-2.20502868e-01f,
+3.60874110e-03f,+8.44813585e-02f,+9.60844234e-02f,-6.48051128e-02f,+1.24611162e-01f,
-2.67132789e-01f,-2.88027406e-01f,+1.39424637e-01f,-1.95946649e-01f,-2.62190819e-01f,
+2.17419147e-01f,-4.39840220e-02f,+2.70784229e-01f,-7.03022769e-03f,+2.95043867e-02f,
-6.34109136e-03f,-1.22863725e-01f,-2.58007169e-01f,-2.91915145e-02f,-7.23039135e-02f,
+1.61990389e-01f,-4.31275088e-03f,+2.83116758e-01f,-1.65677860e-01f,-8.03541988e-02f,
-3.36128175e-02f,+1.25807196e-01f,-6.16944730e-02f,+1.54153958e-01f,-9.50834900e-03f,
+1.04874961e-01f,+9.09254178e-02f,+3.29801321e-01f,-1.17830388e-01f,+4.46772911e-02f,
+7.43566966e-03f,+1.66688800e-01f,+2.27980673e-01f,+4.80790101e-02f,+1.02534622e-01f,
-1.20110631e-01f,-4.19503868e-01f,+1.56533256e-01f,+8.77598897e-02f,+2.81505406e-01f,
-1.91675335e-01f,-3.13645229e-02f,+3.75521109e-02f,-2.28944704e-01f,+1.24864951e-01f,
-1.66127324e-01f,-8.23231712e-02f,-1.14264630e-01f,-1.76368594e-01f,-3.13731194e-01f,
+1.58627838e-01f,+8.96465480e-02f,+2.56175488e-01f,-2.80724484e-02f,-3.96920927e-02f,
-1.04773462e-01f,-1.13342881e-01f,+1.35236904e-01f,-1.08597182e-01f,+8.83475237e-04f,
+6.65734708e-02f,+2.78137565e-01f,+5.26725128e-02f,+1.47612333e-01f,-8.56781937e-03f,
+1.29515618e-01f,+1.86071500e-01f,-4.30077724e-02f,-1.13422230e-01f,+7.26883411e-02f,
-7.41960257e-02f,+4.88866240e-01f,+3.49194556e-01f,+3.14012207e-02f,+1.94348037e-01f,
+2.31967881e-01f,+1.03296757e-01f,+1.07580684e-01f,-1.18342368e-02f,+6.42327666e-02f,
+2.16836080e-01f,+4.15025279e-02f,-7.46526271e-02f,-1.16197295e-01f,+1.07732251e-01f,
+2.94150203e-01f,-2.99432784e-01f,+5.50590158e-02f,+1.34773627e-01f,-8.60448107e-02f,
+1.09405696e-01f,+6.02109954e-02f,+3.29579651e-01f,+1.10042833e-01f,+1.69033810e-01f,
-1.68653168e-02f,+6.99401349e-02f,+1.35973334e-01f,-1.26933381e-01f,+4.11886685e-02f,
+2.90096253e-01f,+2.10068151e-01f,-1.71501935e-01f,-3.84129435e-02f,-1.47789821e-01f,
+2.43863240e-01f,+1.46931112e-01f,-1.85285121e-01f,-8.57053921e-02f,-3.97662818e-02f,
-8.56740922e-02f,-2.02735048e-02f,+1.11874066e-01f,+7.28695393e-02f,-1.62241846e-01f,
+5.83485402e-02f,+2.50571012e-01f,-1.05978288e-01f,+2.84861103e-02f,+6.55569434e-02f,
+1.58053905e-01f,+5.94228059e-02f,+8.27507079e-02f,+1.15155071e-01f,+3.86351228e-01f,
+4.68202382e-01f,-7.77175575e-02f,+1.14536002e-01f,+4.91448864e-02f,-1.09836869e-01f,
+2.73331016e-01f,+8.36959332e-02f,+6.94003031e-02f,-1.25748500e-01f,+2.81100541e-01f,
-2.22661458e-02f,-2.97584742e-01f,+6.76893145e-02f,+4.11628112e-02f,-1.79426894e-01f,
-1.22386917e-01f,-1.18815467e-01f,+6.58288226e-03f,+3.65446880e-02f,+4.91031967e-02f,
+1.94309846e-01f,+7.73977116e-02f,-4.88809705e-01f,+1.16068751e-01f,+2.58555144e-01f,
+2.95485497e-01f,+4.21966948e-02f,-2.27054939e-01f,-1.81902692e-01f,-1.74282882e-02f,
+1.42889014e-02f,-3.08622211e-01f,-1.67139471e-01f,+4.30360325e-02f,+1.01677418e-01f,
+8.36667120e-02f,-1.23608358e-01f,-3.96251321e-01f,-1.84042320e-01f,+2.15388998e-01f,
-1.53569713e-01f,+3.49857032e-01f,-2.09372193e-01f,-7.67343193e-02f,+1.11485034e-01f,
+7.16681825e-03f,-3.24204145e-03f,-1.80958882e-01f,+1.90217863e-03f,+1.98827878e-01f,
-1.58115670e-01f,+1.17747389e-01f,+1.01184323e-01f,+8.53122696e-02f,+2.43876263e-01f,
+2.08500884e-02f,+2.03971803e-01f,-1.56501591e-01f,+9.52351540e-02f,-5.12327403e-02f,
-1.46287620e-01f,-2.06157401e-01f,+2.11716220e-02f,-1.57717615e-01f,-2.99801175e-02f,
+1.22715766e-02f,+1.87557307e-03f,+1.40998349e-01f,+1.73887625e-01f,+1.71062201e-01f,
-1.18861515e-02f,+6.43026903e-02f,+2.62090236e-01f,-7.77214626e-03f,-8.67173299e-02f,
-3.42921074e-03f,-2.56456751e-02f,-2.04608887e-01f,-8.11697636e-03f,+7.97987282e-02f,
+2.23684341e-01f,+8.72372910e-02f,+1.02335304e-01f,+1.78295463e-01f,-2.90430754e-01f,
+1.20016709e-01f,+1.33848965e-01f,-2.14083597e-01f,-9.11826044e-02f,+1.20209336e-01f,
+2.19817430e-01f,+3.71445641e-02f,-1.55760646e-01f,+1.52130574e-01f,-8.33737478e-02f,
-1.93728551e-01f,+8.06840509e-02f,-3.64736430e-02f,+1.90638732e-02f,+1.18919700e-01f,
+1.43027842e-01f,-4.51693460e-02f,-1.86905876e-01f,+1.37925103e-01f,+1.91033676e-01f,
-1.44766718e-02f,+3.81965935e-01f,-6.28400594e-02f,-1.32027520e-02f,+1.82277188e-01f,
+2.85327882e-01f,+1.85781285e-01f,+9.27675664e-02f,+1.63674638e-01f,-1.56528935e-01f,
+1.44906461e-01f,-1.64122894e-01f,+2.36516092e-02f,+9.79971737e-02f,+4.42302346e-01f,
+2.22125407e-02f,+2.96576954e-02f,+9.63235721e-02f,+1.51866496e-01f,+1.25143990e-01f,
+2.14927062e-01f,+6.75003827e-02f,-1.16741411e-01f,-3.80276628e-02f,-9.20010954e-02f,
+5.16764671e-02f,+1.96473122e-01f,+1.36413258e-02f,+5.71990237e-02f,+1.93286911e-01f,
+9.77593884e-02f,-2.82765310e-02f,+7.79126137e-02f,+6.41952679e-02f,+7.87800178e-03f,
-1.19191170e-01f,-1.85535058e-01f,-7.86294192e-02f,+1.24098863e-02f,+2.30312601e-01f,
+1.76563486e-01f,+9.40508693e-02f,+3.70157748e-01f,-7.77142644e-02f,+1.01057038e-01f,
+1.41339228e-01f,+1.53476715e-01f,+3.00726533e-01f,+3.44280638e-02f,-3.14215779e-01f,
-5.13007827e-02f,-2.01228097e-01f,-4.76391613e-02f,-6.83104545e-02f,-2.94919968e-01f,
+4.14610058e-02f,-1.33690938e-01f,+8.13534297e-03f,-2.18109369e-01f,+3.88206840e-02f,
+1.29791200e-01f,-4.72861864e-02f,-2.29344979e-01f,+7.62922242e-02f,+4.22862135e-02f,
+5.94594106e-02f,+1.69917271e-01f,-4.26173478e-01f,+1.73871592e-01f,+2.02733353e-01f,
+1.69523228e-02f,-1.54760376e-01f,+3.41991067e-01f,+2.55639348e-02f,+3.04433852e-01f,
-6.05565570e-02f,-8.90790746e-02f,-1.59157902e-01f,+1.93543270e-01f,+2.85232067e-01f,
-1.81757584e-02f,-1.02786914e-01f,-3.55642974e-01f,+5.01472317e-03f,+1.24652594e-01f,
-6.41244575e-02f,+1.81781918e-01f,+1.84933506e-02f,+1.37729540e-01f,+1.68324649e-01f,
-1.65810555e-01f,-5.35851531e-02f,+2.08492391e-02f,-2.28945594e-02f,+3.87622893e-01f,
-1.46450922e-01f,+3.15131664e-01f,+2.18190148e-01f,-9.04056355e-02f,+3.42500210e-02f,
-6.35890197e-03f,+4.31997962e-02f,+8.82120878e-02f,-8.22153836e-02f,-6.62332326e-02f,
-7.93856308e-02f,+7.31013790e-02f,-2.35820971e-02f,-1.64547890e-01f,+9.40965489e-02f,
+1.30879477e-01f,+7.75781497e-02f,-1.27410844e-01f,+4.31357771e-01f,+3.32679391e-01f,
+4.40777689e-02f,-2.19911695e-01f,-3.51057231e-01f,-1.23237260e-01f,+2.31696609e-02f,
+1.33767337e-01f,-1.03599101e-01f,+3.04771751e-01f,+1.60430223e-01f,+1.48655340e-01f,
-4.09013391e-01f,-1.59669206e-01f,-1.59047976e-01f,+2.12696433e-01f,+1.28875878e-02f,
-6.54704077e-03f,-2.37465218e-01f,-9.57655832e-02f,-4.41729307e-01f,+4.71007645e-01f,
-9.75352973e-02f,-2.67443031e-01f,+2.61546433e-01f,+4.95111570e-03f,-2.92425692e-01f,
+4.09341082e-02f,+7.68795162e-02f,+2.28459165e-01f,+9.12096649e-02f,-7.04491884e-02f,
-1.47149265e-01f,+7.17574805e-02f,+7.62637565e-03f,+5.26564717e-02f,-4.19328995e-02f,
-1.10823251e-01f,+1.91408619e-02f,-5.16783930e-02f,-7.50735104e-02f,-1.70603737e-01f,
-1.56425044e-01f,+1.69959173e-01f,+6.57127276e-02f,+3.37683335e-02f,-1.90955356e-01f,
-1.37023956e-01f,+4.71888594e-02f,-1.15609638e-01f,-8.85415897e-02f,+1.24265328e-01f,
-1.15947559e-01f,-5.99791519e-02f,-3.51134449e-01f,-3.19591612e-01f,+1.93025485e-01f,
-3.43961716e-01f,+2.68849045e-01f,-5.38279712e-02f,-2.21854839e-02f,+7.55701065e-02f,
+1.80715099e-01f,+2.14137375e-01f,+1.95560277e-01f,+8.05966929e-03f,-7.17722671e-03f,
+1.58186480e-01f,-1.44850284e-01f,-1.50004387e-01f,+5.25820106e-02f,-1.07273065e-01f,
-4.20131683e-02f,+1.56635083e-02f,+5.59886498e-03f,-1.06811136e-01f,-2.20714211e-01f,
+2.38473490e-01f,-3.36409211e-02f,-2.10821852e-02f,+2.11815443e-02f,+1.02596641e-01f,
-1.69001982e-01f,-5.45317531e-02f,+1.08586386e-01f,-3.10479309e-02f,-4.44860049e-02f,
-3.93800288e-02f,+6.56508207e-02f,-4.07445170e-02f,+1.78258598e-01f,+1.41911551e-01f,
+3.26539755e-01f,-2.73073643e-01f,-2.87217293e-02f,+4.25195210e-02f,+1.64784923e-01f,
-3.59977901e-01f,+1.98067844e-01f,+9.60781202e-02f,+8.31826478e-02f,+4.27742414e-02f,
-1.16014920e-01f,-1.45696834e-01f,-8.68417099e-02f,+1.33620337e-01f,+3.82410362e-02f,
-4.93150912e-02f,-1.42999917e-01f,-1.63223639e-01f,+6.39880300e-02f,+2.61880517e-01f,
+1.09954461e-01f,+2.79337227e-01f,-1.38022795e-01f,-1.65436879e-01f,+2.31161356e-01f,
-6.90192953e-02f,+1.69444472e-01f,-3.58463749e-02f,+1.99806884e-01f,-1.26993775e-01f,
+6.85361475e-02f,+1.44522429e-01f,-3.72756794e-02f,-4.47851457e-02f,+2.05372751e-01f,
+8.58796388e-02f,-1.69347912e-01f,+2.09451304e-03f,-6.94201067e-02f,-1.04394197e-01f,
+2.33401805e-01f,+7.79098049e-02f,+3.67798060e-02f,+2.67703801e-01f,+2.45041609e-01f,
+5.11104912e-02f,+5.14264554e-02f,+1.36339426e-01f,+3.21080863e-01f,+1.30619854e-01f,
+1.03029318e-01f,+1.80494934e-01f,+6.40880608e-04f,+6.06647916e-02f,-5.62434681e-02f,
+3.53040732e-02f,+1.13247801e-02f,+4.25364859e-02f,-1.99913606e-02f,+2.05701530e-01f,
+1.91113919e-01f,+5.51525950e-02f,+3.46466787e-02f,+2.09593967e-01f,+2.06644773e-01f,
+2.34425869e-02f,-1.37616321e-01f,+4.96467315e-02f,-1.11559503e-01f,+2.26817489e-01f,
+2.53257841e-01f,+7.17625991e-02f,+2.98423588e-01f,-1.76243395e-01f,-7.54645243e-02f,
+1.28685534e-01f,-5.22683747e-02f,-2.07566857e-01f,+2.02691421e-01f,+1.74287230e-01f,
+6.61372468e-02f,+7.76617974e-02f,+6.90871058e-03f,-9.72879082e-02f,-1.68430820e-01f,
+9.55823883e-02f,+1.50820941e-01f,-2.43425146e-01f,+5.13221920e-02f,+1.93864658e-01f,
-5.16532399e-02f,+2.08598197e-01f,-8.77228752e-02f,+1.48941308e-01f,-2.69619614e-01f,
+4.10191029e-01f,+4.27628905e-02f,+2.84247715e-02f,+2.12894335e-01f,+1.01275882e-03f,
-3.71337011e-02f,+7.78006390e-03f,-6.15280047e-02f,-6.87397048e-02f,+3.38118374e-02f,
+4.18237716e-01f,-6.30484968e-02f,+1.91145577e-02f,+2.02464312e-02f,-2.28177145e-01f,
-2.08186597e-01f,+9.30809081e-02f,-2.09557399e-01f,+1.15344986e-01f,+1.35312989e-01f,
-1.47480592e-01f,+2.94481814e-02f,-1.49522290e-01f,-1.44369513e-01f,-1.32991418e-01f,
-7.77445063e-02f,-1.11426331e-01f,+2.31627926e-01f,-2.52004504e-01f,-2.21990095e-03f,
-8.75050649e-02f,-6.84974492e-02f,-3.05331871e-02f,+3.37333947e-01f,+2.52534263e-02f,
-1.40307978e-01f,+1.19616337e-01f,-3.83616686e-01f,-1.52444905e-02f,+1.62032619e-03f,
-2.82534868e-01f,+2.84396201e-01f,+1.86000958e-01f,-1.14062235e-01f,-3.07350382e-02f,
+1.13485061e-01f,+1.53126968e-02f,-3.44341904e-01f,-1.24668881e-01f,+3.30436677e-02f,
-2.27480363e-02f,-4.41024601e-02f,-6.63169324e-02f,+6.92416877e-02f,+4.97962944e-02f,
+2.83241063e-01f,-1.21437311e-01f,+7.88584759e-04f,+1.88283592e-01f,+2.04134598e-01f,
-4.00935896e-02f,-1.97587624e-01f,+3.37131359e-02f,+1.00605316e-01f,-1.89628795e-01f,
-2.71995403e-02f,-2.86862612e-01f,-4.57223095e-02f,+1.52398154e-01f,-1.47918433e-01f,
-1.25910997e-01f,+1.47898018e-01f,+8.08429569e-02f,+7.68011361e-02f,-1.47507176e-01f,
+2.47697771e-01f,+5.10072857e-02f,+3.69680166e-01f,+2.26030648e-01f,+2.40499228e-01f,
+2.09680106e-02f,+3.88428688e-01f,+2.34242693e-01f,-7.56456703e-02f,+2.45837308e-02f,
-3.59920949e-01f,-3.46661247e-02f,-2.23315135e-02f,-8.23375806e-02f,-5.29937260e-02f,
-5.76370358e-02f,+1.90301076e-01f,+3.78214791e-02f,+5.82356565e-02f,-2.57537127e-01f,
+2.47132972e-01f,-2.83444580e-02f,-1.29754901e-01f,-4.66871709e-02f,+1.73353329e-01f,
-4.09902371e-02f,+7.45311845e-03f,-1.13030225e-01f,+9.14231911e-02f,-1.91651762e-01f,
-1.00193910e-01f,+1.29146442e-01f,-6.35783449e-02f,+1.64252326e-01f,+1.72622561e-01f,
+2.36390159e-01f,-1.25400260e-01f,-1.50977343e-01f,+1.24394037e-01f,+3.75636429e-01f,
-1.70908153e-01f,+5.56350946e-02f,+2.42876723e-01f,+1.50466831e-02f,-1.02341296e-02f,
+3.85854751e-01f,+1.86518684e-01f,+1.22117639e-01f,+1.27761349e-01f,+1.28005490e-01f,
+4.37475480e-02f,-8.48601609e-02f,-1.23036198e-01f,-1.05092324e-01f,-7.78084025e-02f,
-1.66898549e-01f,+1.16322346e-01f,-4.57588071e-03f,-2.27463827e-01f,-1.43338755e-01f,
-3.40912908e-01f,+4.68498431e-02f,-4.93896604e-02f,+1.73314646e-01f,+1.77927360e-01f,
+1.45410702e-01f,+2.17217416e-01f,-1.19048534e-02f,+1.33970559e-01f,+1.09237015e-01f,
-1.09762274e-01f,+7.69082829e-02f,+1.85763180e-01f,-1.50868014e-01f,-8.24948996e-02f,
-3.28281661e-03f,+3.78403515e-02f,-1.29897356e-01f,-4.61231777e-03f,-8.93923789e-02f,
-1.13308869e-01f,+2.06773486e-02f,+5.08754611e-01f,+1.86697934e-02f,-9.88451988e-02f,
-7.36127868e-02f,+1.66938037e-01f,-3.46572697e-02f,+7.55558163e-02f,+1.79312482e-01f,
-1.76244184e-01f,-1.07985824e-01f,-1.62029549e-01f,-1.09936066e-01f,+1.91753045e-01f,
-7.33863562e-02f,+5.34868687e-02f,+1.09814085e-01f,-4.07547094e-02f,+1.04572885e-01f,
+6.79249913e-02f,+4.59335804e-01f,-1.44564569e-01f,+2.10299209e-01f,+9.35971215e-02f,
-1.69669032e-01f,-3.33538949e-02f,+1.72704265e-01f,+1.04199454e-01f,+1.16699256e-01f,
-6.36584684e-02f,-1.38270140e-01f,+5.92015050e-02f,+4.25707906e-01f,-9.51278806e-02f,
-3.52635920e-01f,+4.18317877e-02f,+3.07035651e-02f,-3.31698000e-01f,+2.41810203e-01f,
-1.88662708e-01f,+3.88840213e-02f,+1.48039252e-01f,-5.17933033e-02f,+4.88394201e-01f,
-1.30506441e-01f,+9.12769586e-02f,-1.03113046e-02f,+2.19257697e-01f,-6.68110773e-02f,
-1.68286324e-01f,+6.74043447e-02f,+2.21459150e-01f,+9.77390558e-02f,+1.85745537e-01f,
+1.61061566e-02f,+3.70762229e-01f,-1.59300581e-01f,+1.83307022e-01f,-5.97708337e-02f,
+3.30094278e-01f,+2.61554867e-01f,+6.87911436e-02f,+1.30982935e-01f,-6.84603900e-02f,
-5.45828380e-02f,+2.45551363e-01f,-3.08019836e-02f,-1.03290435e-02f,+8.97499993e-02f,
+5.45575209e-02f,+2.72844378e-02f,-2.20406160e-01f,+1.57444552e-01f,+2.03352541e-01f,
+3.37072611e-01f,+3.56128752e-01f,-8.12054053e-02f,-1.03162572e-01f,+1.78684271e-03f,
-4.20737416e-02f,+5.58567122e-02f,+1.23372130e-01f,-1.94331810e-01f,-1.98236369e-02f,
+1.19905271e-01f,-3.88564885e-01f,-1.69987246e-01f,-1.00025639e-01f,-5.49492277e-02f,
-5.30776754e-02f,+2.36108974e-01f,-8.15194696e-02f,-1.84802324e-01f,+2.35100701e-01f,
-3.27576756e-01f,+2.11598516e-01f,+1.07299924e-01f,+2.00962991e-01f,+1.27234161e-01f,
-2.61817157e-01f,+4.61959064e-01f,-1.34055033e-01f,-2.05394864e-01f,+1.45005196e-01f,
-2.80158203e-02f,+4.21344079e-02f,+1.64537445e-01f,-1.27201006e-01f,+4.28523302e-01f,
-6.95226192e-02f,+1.64899901e-01f,-2.33201636e-03f,+1.69530302e-01f,-4.90577556e-02f,
+2.25679934e-01f,-2.99573332e-01f,-4.06149179e-02f,+2.65992377e-02f,-3.49575654e-02f,
-3.75843160e-02f,+5.52673042e-02f,+9.87842903e-02f,+3.35397534e-02f,+5.05598448e-03f,
-1.22683562e-01f,-1.06152594e-02f,-3.76736410e-02f,+8.88590589e-02f,+3.37692313e-02f,
+1.45116553e-01f,-5.56350201e-02f,+4.73836511e-02f,-1.34716675e-01f,+3.12327623e-01f,
-7.97694176e-02f,-1.04847759e-01f,+7.36388862e-02f,-9.70783159e-02f,-5.27689308e-02f,
-1.18822671e-01f,+3.34942192e-01f,+4.67193238e-02f,-1.13626137e-01f,+2.44587719e-01f,
+3.12487274e-01f,+9.20307711e-02f,+1.38277754e-01f,+1.76879957e-01f,+2.66165465e-01f,
+1.10691920e-01f,+1.14654284e-02f,+1.82177767e-01f,-5.23170494e-02f,-3.70774984e-01f,
+1.28864810e-01f,-3.93147171e-02f,+2.22488463e-01f,+1.97949216e-01f,-2.79410742e-02f,
-2.32183218e-01f,-7.69417286e-02f,+3.47129814e-02f,-1.49055421e-01f,+1.77431017e-01f,
+6.34274930e-02f,-1.45682245e-01f,+1.61732420e-01f,-1.25384275e-02f,-3.00773680e-01f,
-1.11191601e-01f,-2.18130946e-01f,+3.80727917e-01f,+1.42111659e-01f,+1.95811436e-01f,
+7.37520605e-02f,-1.64479405e-01f,+1.34581387e-01f,+6.93238527e-03f,-3.80537063e-01f,
+4.42691557e-02f,+3.96443605e-02f,-2.89027728e-02f,-2.81787086e-02f,+1.54898196e-01f,
-1.27863333e-01f,+8.00488666e-02f,+4.98283468e-02f,-2.15489790e-01f,-4.05839235e-02f,
+3.46658349e-01f,-5.30083738e-02f,+3.40431362e-01f,-3.13806981e-01f,+1.73212096e-01f,
-1.82281151e-01f,-4.88375500e-02f,+1.79827675e-01f,-8.64930525e-02f,+8.40804819e-03f,
+1.03992149e-01f,+2.00882599e-01f,+1.72285035e-01f,+2.87967715e-02f,+1.34650320e-01f,
-2.84465343e-01f,+1.90742556e-02f,+1.52695104e-01f,+1.09734327e-01f,+2.27100909e-01f,
+1.13607936e-01f,+7.03283027e-02f,+2.96664145e-02f,-1.01747565e-01f,-1.28408954e-01f,
+1.06269106e-01f,-4.54191156e-02f,-6.66154251e-02f,+8.59332681e-02f,+7.12398440e-02f,
+2.00362787e-01f,+2.32906699e-01f,+5.80370128e-02f,+2.16270611e-01f,-5.96595593e-02f,
+1.99646442e-04f,-1.61233425e-01f,+4.81766760e-02f,-2.69667238e-01f,-2.09962279e-01f,
-7.22539192e-03f,-2.83735007e-01f,-2.58523941e-01f,+5.46926968e-02f,-1.07534461e-01f,
+2.01008543e-01f,-1.36674389e-01f,-8.65795389e-02f,-6.49328902e-02f,-6.80159554e-02f,
-2.60654807e-01f,+1.08226351e-01f,-5.68220057e-02f,+3.55931818e-02f,+4.71277982e-02f,
-7.46733025e-02f,+1.03132673e-01f,-2.06159905e-01f,+4.36531715e-02f,+2.60329127e-01f,
-1.76959559e-01f,+1.62988603e-01f,-1.54635966e-01f,+8.87033418e-02f,+3.14735286e-02f,
-8.18851516e-02f,-2.11659268e-01f,+1.97926000e-01f,+6.94216192e-02f,+2.23783717e-01f,
+6.58418953e-01f,+1.10476330e-01f,+4.81454521e-01f,+1.27257183e-01f,-4.57827523e-02f,
-1.05527632e-01f,+4.08855416e-02f,-2.39068925e-01f,-2.66926646e-01f,-4.29637015e-01f,
+2.21745536e-01f,+9.81993228e-02f,+7.38829672e-02f,-2.40408983e-02f,-3.08256984e-01f,
+3.28858852e-01f,-1.53923556e-01f,-1.42278880e-01f,+5.44828828e-03f,+1.85366627e-02f,
-8.90562087e-02f,+3.40111017e-01f,-7.83798993e-02f,-2.33336374e-01f,+2.42021203e-01f,
+1.31893039e-01f,+1.59661174e-01f,+1.36159807e-01f,-1.90570846e-01f,+2.85226136e-01f,
+1.71883047e-01f,+2.03066960e-01f,-1.05365202e-01f,+3.57621796e-02f,+1.20789096e-01f,
+1.73977762e-01f,-7.57117569e-02f,+2.47461587e-01f,+1.55906692e-01f,-1.16592841e-02f,
+2.27993175e-01f,-5.75851239e-02f,+2.52209514e-01f,-1.78504989e-01f,+1.32962689e-01f,
-1.81606278e-01f,-1.42288953e-01f,-1.55718490e-01f,-2.48943582e-01f,-2.11706623e-01f,
-2.40932733e-01f,-6.99355965e-03f,+7.40934908e-02f,+2.58926526e-02f,-1.61868259e-01f,
-9.94561613e-02f,-2.22236365e-02f,-8.29962790e-02f,-1.07034825e-01f,+5.02367765e-02f,
-8.30782577e-02f,-2.74697468e-02f,+4.51857224e-02f,-1.45195425e-01f,-4.33320589e-02f,
+9.99052078e-02f,-9.64362025e-02f,+6.67186528e-02f,+1.54483378e-01f,+3.91219318e-01f,
+1.95880815e-01f,+3.44820797e-01f,+4.05523986e-01f,+1.15932584e-01f,-3.56766470e-02f,
-4.10760678e-02f,+6.88015372e-02f,-8.59609693e-02f,-2.73943692e-01f,+3.41990709e-01f,
+4.75328416e-02f,-1.07878558e-01f,+2.72302181e-01f,-1.78070396e-01f,+1.46290302e-01f,
-6.09671399e-02f,-2.26033792e-01f,-1.97913244e-01f,+1.75081208e-01f,+5.77157885e-02f,
+6.68547451e-02f,+6.29136562e-02f,+1.66106559e-02f,+3.93880576e-01f,-1.62450522e-01f,
-1.74817160e-01f,+1.27903134e-01f,-1.16910264e-02f,+6.79333359e-02f,+1.07388854e-01f,
+1.18938021e-01f,-7.29774907e-02f,+4.59186658e-02f,+8.02331939e-02f,+2.50127316e-01f,
+3.64623725e-01f,+6.13918062e-03f,+1.60601541e-01f,-1.31382599e-01f,+2.92085797e-01f,
-1.24914229e-01f,-1.73046142e-02f,-1.58946321e-03f,+6.24668300e-02f,+1.64089009e-01f,
+3.48982140e-02f,+2.77372688e-01f,+5.04272580e-01f,+2.58118361e-01f,+1.80306751e-03f,
-3.62066120e-01f,+4.78553057e-01f,-1.14265166e-01f,+5.87103665e-02f,+9.38001424e-02f,
+7.32942596e-02f,+8.79709274e-02f,+5.89951575e-02f,-1.78066567e-02f,-1.52260168e-02f,
+2.91999668e-01f,-2.46126167e-02f,+1.49550095e-01f,-1.91892266e-01f,+2.58573622e-01f,
+7.84513205e-02f,-3.05967540e-01f,+4.25891548e-01f,-3.16003785e-02f,-5.00842631e-01f,
-1.99950755e-01f,+1.87109977e-01f,-3.40118319e-01f,-1.84070453e-01f,-9.99436304e-02f,
-1.45721763e-01f,+8.22741017e-02f,+7.50766546e-02f,-1.60556704e-01f,-2.20213130e-01f,
-5.06865643e-02f,+3.18746269e-01f,+1.92210987e-01f,+1.30186349e-01f,-8.75329152e-02f,
-1.78642511e-01f,-4.99344736e-01f,+9.31249931e-02f,-2.03824356e-01f,+1.89531848e-01f,
+2.85954684e-01f,-1.16906790e-02f,-1.86344702e-02f,+1.57812148e-01f,-2.61228979e-01f,
-1.30910784e-01f,-1.48590267e-01f,-2.13752501e-02f,-1.98405296e-01f,-4.83236283e-01f,
-1.85176775e-01f,+1.33375227e-01f,-8.31935406e-02f,-2.17778802e-01f,+2.88980991e-01f,
+4.16019838e-03f,+3.65025885e-02f,-4.06369776e-01f,-1.17410943e-01f,+1.85127333e-01f,
+8.05382524e-03f,+2.23744050e-01f,-3.20769586e-02f,-1.52448967e-01f,+2.47503638e-01f,
-1.82204381e-01f,+6.55759946e-02f,+2.54049301e-02f,+3.95016558e-02f,-6.77993745e-02f,
+1.77840665e-01f,-1.35800019e-01f,+1.70820147e-01f,-1.08219139e-01f,-2.12349128e-02f,
-2.24922642e-01f,+3.23185951e-01f,-2.67674118e-01f,+9.70602483e-02f,-3.88135128e-02f,
+2.49356136e-01f,-9.57947150e-02f,-9.91697982e-02f,+2.49970302e-01f,-2.34058082e-01f,
-8.04685801e-02f,+2.57598788e-01f,+1.58502609e-02f,+3.88036430e-01f,-1.03824101e-01f,
+2.09827319e-01f,+2.09218472e-01f,-1.59406170e-01f,+6.79224133e-02f,-3.99442501e-02f,
-1.54112410e-02f,-2.56340951e-01f,+2.92045206e-01f,-5.79663403e-02f,-9.79345590e-02f,
+8.91879871e-02f,+1.28097332e-03f,+2.12092400e-01f,-1.93421662e-01f,+1.76263615e-01f,
+1.46596387e-01f,+1.17406294e-01f,+1.97844326e-01f,+1.21555530e-01f,+2.82056369e-02f,
+1.40229940e-01f,-1.91578209e-01f,+3.45264196e-01f,+1.14526168e-01f,+2.58965462e-01f,
-2.52575606e-01f,-2.09806472e-01f,+1.13602310e-01f,-1.20739482e-01f,-7.52358586e-02f,
+2.91900069e-01f,-3.64093892e-02f,+3.36409658e-02f,+3.60232860e-01f,+4.43296492e-01f,
-1.11640468e-01f,-2.73619175e-01f,-3.20767432e-01f,+3.89402844e-02f,-1.35591537e-01f,
+1.16267398e-01f,-1.73984289e-01f,-1.43870831e-01f,-1.44170493e-01f,-3.22232731e-02f,
+1.27406478e-01f,-5.61965909e-03f,-1.56377628e-01f,-5.95651455e-02f,+2.62709022e-01f,
+3.55124362e-02f,-1.40609339e-01f,-1.58643365e-01f,-3.42500508e-01f,+1.28430635e-01f,
-2.18404740e-01f,-5.45242755e-03f,-1.65560082e-01f,+3.22778150e-02f,+2.80429214e-01f,
+2.84546651e-02f,-1.92346960e-01f,+1.17074274e-01f,-5.07949479e-02f,-9.88563821e-02f,
+1.40727118e-01f,+2.14791805e-01f,+9.36037749e-02f,+1.61245778e-01f,-1.90915138e-01f,
+2.89672077e-01f,+2.58724451e-01f,+1.18062250e-01f,+8.58073533e-02f,-2.80542463e-01f,
-3.18578444e-02f,-1.83521643e-01f,+5.72818965e-02f,-4.68548015e-02f,-6.34395033e-02f,
+2.01395512e-01f,-1.78147182e-02f,-2.40757570e-01f,+7.13175116e-03f,+1.77117884e-01f,
-8.87799487e-02f,+9.34170336e-02f,-9.71650053e-03f,+4.45181429e-02f,+8.96847844e-02f,
-2.38792058e-02f,-1.77238863e-02f,-7.28735626e-02f,+3.60094905e-02f,+2.21882790e-01f,
-2.38118339e-02f,+1.53396741e-01f,+5.16395904e-02f,-2.27950856e-01f,-1.39325589e-01f,
-3.11197877e-01f,-2.08319947e-01f,+9.42253768e-02f,-1.61306113e-01f,-9.51318368e-02f,
+2.46143252e-01f,+2.30079070e-01f,+2.74165776e-02f,-3.36135387e-01f,+3.06956023e-01f,
+2.85891235e-01f,+1.26828238e-01f,-1.31805167e-01f,-3.96270901e-01f,+2.42596209e-01f,
-2.33822450e-01f,-1.92672744e-01f,-2.65189916e-01f,+1.77416742e-01f,+6.70744777e-02f,
-2.45494172e-01f,-4.91285443e-01f,+3.76588225e-01f,-3.92986499e-02f,-2.30504677e-01f,
-2.30757281e-01f,+1.61495954e-01f,+3.71450305e-01f,+3.63932811e-02f,+7.31031522e-02f,
+1.50250606e-02f,+5.24904311e-01f,+1.23981349e-01f,+1.54563636e-01f,+4.17236865e-01f,
-9.12318677e-02f,+2.70775437e-01f,+4.77132536e-02f,-7.20309019e-02f,+2.55121946e-01f,
-7.76668042e-02f,+2.68076390e-01f,-3.08776740e-02f,+3.62204611e-01f,-8.44511315e-02f,
-3.20727862e-02f,+1.87100753e-01f,-1.34006470e-01f,+1.36876374e-01f,+9.25647244e-02f,
+7.24140480e-02f,-3.75826657e-02f,+6.55263141e-02f,-7.85793290e-02f,-2.60172766e-02f,
-5.58324344e-02f,-1.73667312e-01f,+7.34033883e-02f,+3.18014920e-01f,+6.35797158e-02f,
+9.10984054e-02f,+2.60957539e-01f,-3.90234329e-02f,+1.44819971e-02f,+1.92606106e-01f,
+1.14748172e-01f,+1.78942248e-01f,-1.27251938e-01f,+1.29928067e-01f,-6.58713803e-02f,
+8.67296979e-02f,-3.18909436e-02f,+2.54407942e-01f,+7.99622536e-02f,-4.89863940e-02f,
-1.26381218e-01f,-2.71519691e-01f,+1.45251557e-01f,+9.44314897e-02f,+1.66786000e-01f,
-1.88844144e-01f,-2.28319746e-02f,+4.57929522e-02f,+5.93483858e-02f,+2.08531003e-02f,
-2.61629581e-01f,-1.05775438e-01f,+4.69620436e-01f,+1.13039866e-01f,+1.23908445e-01f,
-2.07642362e-01f,-4.62613404e-02f,+8.62726942e-02f,+1.25417978e-01f,+1.43793255e-01f,
-7.66060948e-02f,-7.11613074e-02f,-6.70576617e-02f,+1.57125056e-01f,-1.77259594e-01f,
+1.41414642e-01f,+7.74494931e-02f,+1.12979092e-01f,+1.19802661e-01f,-1.07433841e-01f,
-2.56921887e-01f,+3.89586315e-02f,+1.07613683e-01f,-2.14050293e-01f,+1.90606400e-01f,
-6.40685391e-03f,+5.54569848e-02f,+8.82341713e-02f,-1.03019096e-01f,+3.62569362e-01f,
+2.47476622e-01f,+2.52716511e-01f,-5.38313799e-02f,-4.55077961e-02f,-1.36868373e-01f,
+6.09993525e-02f,+5.61763719e-02f,-8.82153306e-03f,-7.61895254e-02f,+3.69988710e-01f,
-9.98894498e-02f,-2.20659196e-01f,+2.95440763e-01f,-1.59715340e-01f,-1.88839212e-02f,
+8.03053230e-02f,+8.97069424e-02f,+4.11654674e-02f,+3.66907269e-01f,+3.92780341e-02f,
+2.47929990e-01f,+2.59692501e-02f,-3.67692746e-02f,+4.91595455e-02f,-1.58110540e-02f,
+1.20893754e-01f,-1.13344349e-01f,+2.02670634e-01f,+2.96250414e-02f,-3.73156667e-02f,
+2.04213664e-01f,-7.10393563e-02f,-2.86961393e-03f,+6.67183101e-02f,-1.73468336e-01f,
+9.81335565e-02f,-2.11940885e-01f,+3.13246459e-01f,-3.62218529e-01f,-1.88008532e-01f,
-1.44131288e-01f,+1.77724808e-01f,+3.98327440e-01f,+2.26643562e-01f,-1.40094072e-01f,
+4.25365940e-02f,+1.06696948e-01f,+3.18021476e-01f,-1.73659027e-02f,+3.35280687e-01f,
-1.05372183e-01f,+2.55872101e-01f,-9.12564993e-02f,-2.49332324e-01f,+1.48715422e-01f,
+1.91706717e-01f,+3.24240685e-01f,-5.66111207e-02f,+3.36889446e-01f,+1.44358235e-03f,
+3.42341773e-02f,+3.38338226e-01f,+3.18303332e-02f,-6.28765151e-02f,+1.12154476e-01f,
+3.24767455e-02f,+1.62714273e-02f,-3.62685956e-02f,-1.41991943e-01f,+1.23454452e-01f,
-7.88731426e-02f,+1.44339934e-01f,+1.37972221e-01f,-1.11671343e-01f,+9.83644426e-02f,
-2.22061202e-01f,+3.36589456e-01f,+1.65719748e-01f,+2.05559328e-01f,+1.09653533e-01f,
+2.33973905e-01f,-5.28936014e-02f,+2.14609236e-01f,+2.42969334e-01f,+1.65161967e-01f,
+1.75184652e-01f,-2.60134395e-02f,-1.09094635e-01f,-7.98673034e-02f,+1.31016791e-01f,
+5.15782870e-02f,-6.36387616e-02f,+4.54122536e-02f,-3.23640615e-01f,+1.91281751e-01f,
-7.42239356e-02f,-1.55730993e-01f,+3.06542814e-01f,+1.45488575e-01f,-9.84832644e-02f,
+2.34761789e-01f,-2.69959807e-01f,+1.76983401e-01f,-1.02437697e-01f,+1.99083731e-01f,
-1.77585021e-01f,-1.82790041e-01f,+3.47495079e-02f,+1.31896585e-01f,+2.64540464e-01f,
-2.86659840e-02f,-1.64721861e-01f,+1.97745431e-02f,-1.32856257e-02f,-2.09990498e-02f,
+9.33473781e-02f,+2.25144774e-01f,-7.21578896e-02f,-5.61059304e-02f,-2.27995701e-02f,
+1.14365138e-01f,-3.64487134e-02f,+2.57454962e-01f,+1.28102049e-01f,-1.42157733e-01f,
+1.23730458e-01f,+4.38145399e-02f,-5.18983193e-02f,+1.00869127e-02f,-5.01697026e-02f,
+1.06442750e-01f,+1.19459428e-01f,+4.20158543e-03f,+1.70774702e-02f,+1.17510289e-01f,
+1.47438809e-01f,+5.67801073e-02f,-5.96627593e-03f,-1.02182195e-01f,+1.35960042e-01f,
+1.52753323e-01f,+1.94617644e-01f,-1.90442115e-01f,-2.90950954e-01f,-1.14283033e-01f,
+1.39499709e-01f,-1.56059131e-01f,+3.94865721e-01f,-7.42119253e-02f,+1.52853891e-01f,
-5.83516546e-02f,+8.63826349e-02f,-2.24627465e-01f,-2.67245919e-01f,+1.80097938e-01f,
+1.76796868e-01f,-6.53290330e-03f,+4.00971800e-01f,-1.91959321e-01f,-1.84896275e-01f,
+3.57105136e-02f,-3.94272447e-01f,+3.64020728e-02f,-6.80546314e-02f,-1.20722152e-01f,
+7.55558386e-02f,-2.59515375e-01f,-8.08900669e-02f,-4.61227000e-02f,+1.09257936e-01f,
-9.19540878e-03f,+4.42007706e-02f,-1.42156720e-01f,+1.68751732e-01f,+1.53805912e-01f,
-1.12792082e-01f,-1.24069355e-01f,+2.03790501e-01f,+1.50993377e-01f,+1.47313222e-01f,
-2.59904176e-01f,+1.37049491e-02f,+4.90119541e-03f,+2.28016019e-01f,+3.91191959e-01f,
+1.83569282e-01f,-8.01546127e-03f,+1.24287819e-02f,-1.27773404e-01f,-3.14739227e-01f,
-7.46896341e-02f,-7.75282755e-02f,+1.51807263e-01f,+7.77486414e-02f,+4.64756548e-01f,
+1.31530747e-01f,-2.83264279e-01f,-7.70748481e-02f,+1.23024814e-01f,-1.47540541e-02f,
-5.49398828e-03f,-1.29949138e-01f,+5.99182136e-02f,-7.52138942e-02f,-9.56917331e-02f,
+2.35660881e-01f,-3.05725969e-02f,-1.30830765e-01f,+1.88115209e-01f,-1.63727224e-01f,
+9.85718369e-02f,-5.03443219e-02f,-8.91961977e-02f,-1.82664052e-01f,-1.67202935e-01f,
-1.63452685e-01f,-3.16816002e-01f,+1.65958658e-01f,+4.99398354e-03f,-3.24752986e-01f,
-3.63056101e-02f,+2.76672095e-01f,-1.09032437e-01f,-2.22910717e-01f,+1.00439355e-01f,
-2.63361242e-02f,-6.31344616e-02f,+6.49611875e-02f,+1.93877861e-01f,+4.69995439e-01f,
-4.49558422e-02f,+3.73216197e-02f,+2.72592276e-01f,+9.65152457e-02f,-5.17201684e-02f,
-3.03870719e-03f,-1.76390365e-01f,+4.57559265e-02f,-1.78680733e-01f,-1.36207104e-01f,
-1.63674891e-01f,+2.59737968e-01f,-7.93901309e-02f,-2.38852367e-01f,+2.88069785e-01f,
-2.06463277e-01f,+2.86208004e-01f,-4.42468226e-02f,+2.05335557e-01f,+1.24987476e-01f,
+6.30788924e-03f,-6.21819235e-02f,+8.99430364e-02f,-2.65046924e-01f,+3.20985168e-01f,
-2.46222734e-01f,+1.97185688e-02f,+1.53408974e-01f,-3.66528071e-02f,+3.24190468e-01f,
+1.37043223e-01f,+2.48722538e-01f,+4.13743360e-03f,+5.92156835e-02f,+6.04268312e-02f,
-3.37327048e-02f,-1.91050708e-01f,-1.04122914e-01f,+3.54742378e-01f,-8.59890208e-02f,
-2.93858528e-01f,+4.72586378e-02f,+1.27832249e-01f,+4.16665040e-02f,+1.92664310e-01f,
+2.97791585e-02f,-1.71672955e-01f,-5.62413223e-02f,-1.26342833e-01f,-3.75347659e-02f,
+4.93509360e-02f,-3.57039869e-02f,+2.04066753e-01f,+2.11475268e-01f,-2.69069821e-01f,
-7.27284029e-02f,+8.17105323e-02f,+2.06809521e-01f,+3.88416238e-02f,+1.85258523e-01f,
+1.23597145e-01f,-1.78328723e-01f,+2.00198397e-01f,-2.84963492e-02f,-7.88900331e-02f,
-2.26924494e-02f,-3.27488184e-02f,-6.41623586e-02f,+3.96074764e-02f,-7.06520528e-02f,
-4.70074229e-02f,-1.01487823e-02f,-1.08772956e-01f,-3.02682817e-02f,+5.57326712e-02f,
-2.93632805e-01f,+1.01293474e-01f,-3.05557102e-01f,+8.68017897e-02f,+8.97807032e-02f,
+2.65997887e-01f,+8.06224793e-02f,+4.87553149e-01f,+1.77575469e-01f,-9.99408439e-02f,
+1.95130050e-01f,+2.77217086e-02f,+1.84877977e-01f,-2.02040568e-01f,+2.05226779e-01f,
-7.47221708e-02f,+7.48582464e-03f,+1.72364235e-01f,+1.67724445e-01f,-1.22568808e-01f,
+5.30749410e-02f,+1.56182855e-01f,+1.29474282e-01f,-1.79819331e-01f,+1.15887158e-01f,
-9.08566173e-03f,-5.12914173e-02f,+5.66905439e-02f,-1.21601105e-01f,-1.92967609e-01f,
-2.33370215e-01f,+5.94070926e-02f,-1.96069758e-02f,+2.00866655e-01f,+1.04115345e-01f,
-4.07127663e-02f,+6.40270412e-02f,-6.36104075e-03f,-1.26248017e-01f,-9.58023518e-02f,
-4.57054675e-02f,+3.31850559e-01f,+1.98742673e-01f,-1.16248325e-01f,+5.76296113e-02f,
+1.81426808e-01f,+1.81996688e-01f,+4.12930697e-02f,-8.43873993e-02f,-1.36936605e-01f,
+2.06536110e-02f,+1.74463242e-02f,-1.34031430e-01f,+6.78249374e-02f,+5.87446652e-02f,
-6.28261492e-02f,-2.27571085e-01f,+5.98795414e-02f,+1.36796713e-01f,-8.79166722e-02f,
+2.41530873e-03f,+2.42440961e-02f,-1.21279977e-01f,+4.72867824e-02f,+7.12465495e-02f,
+3.52464467e-02f,-4.86873239e-02f,+2.11172804e-01f,-2.02527031e-01f,+4.75682914e-02f,
+1.97951570e-01f,-2.01415177e-03f,-4.28914092e-02f,+1.58242479e-01f,+5.84192434e-03f,
+1.75134242e-01f,+7.84179270e-02f,+1.00914881e-01f,-1.22848645e-01f,-2.39065632e-01f,
+3.95920463e-02f,-1.22093268e-01f,-2.47574076e-02f,-2.57065415e-01f,+1.20419905e-01f,
-4.02791686e-02f,+1.21302187e-01f,+5.66308992e-03f,+6.30709976e-02f,-6.08880185e-02f,
+2.03817606e-01f,+6.58293255e-03f,-1.82741706e-03f,+1.67530775e-01f,+1.33965001e-01f,
+2.45045987e-03f,-1.68181881e-02f,-4.54614311e-02f,-1.22307837e-01f,-2.45606415e-02f,
+1.69061199e-02f,+4.18907404e-02f,+8.97256061e-02f,-5.32741770e-02f,-3.28670405e-02f,
+5.41623309e-02f,+6.16897754e-02f,-4.31605466e-02f,-1.94911480e-01f,+8.07328150e-02f,
-1.39846414e-01f,-3.82243171e-02f,+1.89376295e-01f,-1.91526473e-01f,+1.77786902e-01f,
+4.15227562e-02f,+4.44889292e-02f,-9.76044461e-02f,+7.95171969e-03f,-7.47805368e-03f,
+2.31560066e-01f,-9.93520021e-02f,+4.17152420e-03f,+1.94115430e-01f,+1.38378108e-03f,
-5.60306758e-03f,+6.98000044e-02f,+2.14302484e-02f,-1.55928612e-01f,+4.37595211e-02f,
-4.97135818e-02f,+1.46417618e-01f,-3.32961674e-03f,-2.93567955e-01f,+3.65968123e-02f,
-7.55040050e-02f,-1.98742136e-01f,-4.31963056e-02f,+3.42074297e-02f,-1.73459330e-03f,
+5.39265685e-02f,-1.19006500e-01f,+7.20054805e-02f,+1.49786752e-03f,+7.58830011e-02f,
-1.18788049e-01f,-1.03250425e-02f,-1.21494085e-01f,+4.90288660e-02f,+2.25656614e-01f,
-2.40608230e-01f,-8.95955935e-02f,-1.19063318e-01f,+4.01063412e-02f,+5.21777831e-02f,
+1.20729707e-01f,-5.83674423e-02f,-1.39242962e-01f,+1.45287260e-01f,-1.59720987e-01f,
+1.36275783e-01f,+1.22409567e-01f,-7.60441720e-02f,-6.71156123e-02f,+5.61578311e-02f,
-1.66177168e-01f,+2.39458591e-01f,-2.80879121e-02f,-1.15433112e-01f,-5.44740632e-02f,
-6.39929548e-02f,-1.53373197e-01f,+1.54025897e-01f,+1.07154161e-01f,-1.25762433e-01f,
-1.76191792e-01f,-1.14132529e-02f,-5.40000647e-02f,+1.00498006e-01f,+1.25816479e-01f,
-7.79506564e-02f,-2.10358024e-01f,+4.78223190e-02f,+4.43661362e-02f,+6.92689838e-03f,
+2.52452880e-01f,+4.59627584e-02f,-1.13460563e-01f,+9.76807624e-02f,-1.44163892e-02f,
+5.77840172e-02f,+5.55632040e-02f,-1.47283571e-02f,-5.85842319e-02f,+2.50772629e-02f,
+6.17916286e-02f,-2.44097915e-02f,+1.16823487e-01f,+2.32949667e-02f,-2.87710857e-02f,
-6.28766119e-02f,-5.03177121e-02f,+8.66821930e-02f,-3.42821442e-02f,+1.04394078e-01f,
+1.00482758e-02f,+1.95319071e-01f,+2.23214969e-01f,+5.95350228e-02f,-1.75076965e-02f,
+2.96062441e-03f,-2.14962512e-01f,-6.63492382e-02f,+6.07478656e-02f,-3.06916833e-02f,
-1.82277024e-01f,-1.78386986e-01f,+8.44567567e-02f,+1.83420449e-01f,-1.30128330e-02f,
-2.05251083e-01f,-7.48131871e-02f,-1.37882419e-02f,+6.46479130e-02f,+9.17026699e-02f,
+2.28908643e-01f,+1.55989096e-01f,-1.58351332e-01f,-3.66981588e-02f,+2.04429463e-01f,
-1.05990162e-02f,-9.78118181e-02f,+1.15260623e-01f,+5.50911948e-02f,+5.31834131e-03f,
-3.14906314e-02f,+5.31348586e-02f,+2.41574608e-02f,+6.73777284e-03f,+6.39207736e-02f,
-2.67279476e-01f,-6.15890883e-02f,-5.78555129e-02f,-1.16509072e-01f,-5.96256554e-02f,
-1.57944784e-02f,+6.65143877e-02f,-3.47848312e-04f,-1.45224229e-01f,+2.82665491e-01f,
-3.72915412e-03f,+2.88475398e-02f,-1.44425839e-01f,+3.91756557e-02f,+2.42425650e-02f,
-8.67966004e-03f,-5.44275567e-02f,-9.97688845e-02f,-2.80784607e-01f,+1.19067207e-01f,
-7.08047971e-02f,-4.76420037e-02f,+8.13203603e-02f,+2.17532724e-01f,-9.41963308e-03f,
+9.59334746e-02f,-2.75930855e-02f,+4.57942970e-02f,+8.72136652e-02f,+1.01287756e-02f,
-1.19363993e-01f,-1.46169364e-01f,-1.65321566e-02f,+1.94238812e-01f,+2.44207755e-02f,
-1.43041596e-01f,-1.65050820e-01f,-1.89041078e-01f,+1.11240804e-01f,-6.42624944e-02f,
+1.25418633e-01f,-2.57431772e-02f,-2.83616092e-02f,-1.66911975e-01f,-3.23973373e-02f,
-6.10793382e-02f,-2.66794860e-01f,-6.42487779e-02f,-9.18468162e-02f,-1.45941541e-01f,
+2.38043480e-02f,+1.51795670e-01f,-6.44688681e-02f,+1.90271348e-01f,-1.15975909e-01f,
+1.71005409e-02f,-3.56918797e-02f,-1.17031671e-01f,+2.16230765e-01f,+1.12339891e-01f,
-1.78909779e-01f,+6.12646863e-02f,+2.06136361e-01f,-1.21026523e-01f,+1.14516549e-01f,
+1.05705380e-01f,+2.96161752e-02f,-8.32967684e-02f,+7.05645680e-02f,+1.27611130e-01f,
-2.63279248e-02f,-9.50263590e-02f,-8.90704338e-03f,-1.98801741e-01f,-5.13614081e-02f,
+8.52458701e-02f,-7.03300023e-03f,+1.15189843e-01f,+1.48241669e-01f,-1.88811824e-01f,
-7.21534789e-02f,-2.80927103e-02f,-7.01415911e-02f,+2.07367539e-01f,+1.65504858e-01f,
+4.41020541e-02f,-2.04799145e-01f,-2.25127582e-02f,+1.46150008e-01f,+6.34111241e-02f,
+2.06059545e-01f,+8.08830112e-02f,+3.99717875e-02f,-3.26078087e-02f,-1.55387342e-01f,
+2.23513767e-02f,+1.07335560e-01f,+2.32806310e-01f,+2.53493302e-02f,-1.40766427e-02f,
-1.78158376e-02f,-1.41031876e-01f,-1.51952714e-01f,+1.47422105e-01f,-1.41536951e-01f,
-4.84665297e-02f,-1.07603595e-01f,+2.33423665e-01f,+5.48548996e-02f,-1.21151477e-01f,
-3.13706622e-02f,-1.57486081e-01f,-1.52186558e-01f,+1.56844601e-01f,+2.73092479e-01f,
+2.46855065e-01f,+3.08435559e-01f,+6.15338385e-02f,-1.57640666e-01f,-3.29496980e-01f,
-2.63394564e-02f,+3.30902450e-02f,+1.85200125e-01f,-3.86343747e-02f,+2.20127225e-01f,
-3.24690759e-01f,-3.50490175e-02f,+8.47957470e-03f,-6.91233799e-02f,-1.95889086e-01f,
-2.13909656e-01f,-1.36370778e-01f,+2.32572034e-01f,-2.39703003e-02f,+3.63917276e-02f,
-5.44771436e-04f,+6.81935474e-02f,-6.43412862e-03f,+3.19488943e-01f,-3.97536643e-02f,
+2.96924293e-01f,-2.04757810e-01f,-3.29429358e-01f,-8.07571635e-02f,+7.95593336e-02f,
-6.79795071e-02f,+3.25355753e-02f,+9.58554596e-02f,-2.32744530e-01f,+1.78513288e-01f,
+1.69854105e-01f,+2.15265423e-01f,-8.96427929e-02f,+1.58675149e-01f,-5.16613573e-02f,
+8.35216567e-02f,-1.17073841e-01f,-3.48209254e-02f,-1.55119777e-01f,+2.65621573e-01f,
+2.47543082e-01f,+2.45632976e-01f,+7.27742910e-02f,-6.18005022e-02f,+4.30108830e-02f,
+1.08058169e-01f,-1.10566139e-01f,-7.82655999e-02f,-2.83300310e-01f,+6.60873875e-02f,
-2.29394287e-01f,+2.83242702e-01f,-8.32464099e-02f,-1.80761755e-01f,-4.97529320e-02f,
-1.02275036e-01f,-7.12967440e-02f,-8.54017138e-02f,-6.94023520e-02f,-1.00614820e-02f,
+1.47959128e-01f,+1.25042886e-01f,+1.49572015e-01f,+9.47639793e-02f,+8.19672421e-02f,
+3.12380176e-02f,+8.68874341e-02f,-3.02594870e-01f,-5.17650954e-02f,-3.12840581e-01f,
-9.72545799e-03f,-1.81169629e-01f,+2.18998305e-02f,-1.51978895e-01f,+2.95171291e-01f,
-1.66869462e-01f,-4.74945083e-02f,+1.89580530e-01f,-1.44789040e-01f,+4.42947410e-02f,
+1.84850529e-01f,+7.03539476e-02f,-1.46450311e-01f,+1.54764988e-02f,-1.51547045e-01f,
+7.49496371e-02f,-4.27061580e-02f,-1.14519097e-01f,+2.02983335e-01f,+5.27604409e-02f,
-1.51903674e-01f,-6.67646602e-02f,-2.58670658e-01f,+1.41504228e-01f,-7.72688463e-02f,
+7.23207965e-02f,+7.62217194e-02f,+9.01791006e-02f,-1.47499993e-01f,+2.94656694e-01f,
+6.18764013e-02f,-4.80498560e-02f,-2.62327820e-01f,+5.83471879e-02f,-5.54355159e-02f,
+4.83562976e-01f,+1.36375040e-01f,+1.13892406e-01f,-1.68514941e-02f,+1.13032244e-01f,
+1.99314073e-01f,+1.49712369e-01f,-3.41888070e-01f,-1.10717513e-01f,+3.53920013e-01f,
+3.52069288e-01f,-2.05722660e-01f,+3.59127261e-02f,-3.13769966e-01f,-1.85734257e-01f,
+2.38420591e-01f,+2.42887631e-01f,-7.25002810e-02f,+8.48055035e-02f,+2.59096622e-02f,
-5.06800525e-02f,-2.85562444e-02f,+3.30673367e-01f,+1.26162559e-01f,+1.24248587e-01f,
-6.90987110e-02f,+1.79889441e-01f,+2.06129905e-02f,+3.81259799e-01f,-1.39263362e-01f,
+2.51085579e-01f,-6.82647200e-03f,-1.41130298e-01f,-2.14363471e-01f,+9.72601324e-02f,
+6.86668092e-03f,+2.58184344e-01f,+2.69349396e-01f,-2.74064511e-01f,+3.22233081e-01f,
+2.66086727e-01f,-1.07670933e-01f,-3.35576177e-01f,-4.45155911e-02f,-5.16481549e-02f,
-8.68324563e-02f,+2.61409134e-01f,-1.26418039e-01f,+2.79045224e-01f,+2.01541305e-01f,
+1.65760532e-01f,-1.64622948e-01f,+5.01347147e-02f,-9.24866796e-02f,+1.08643040e-01f,
+7.56227970e-02f,+8.00259560e-02f,+1.34287730e-01f,-1.53565153e-01f,+3.87832433e-01f,
+1.33806070e-05f,-7.10879627e-04f,+3.98395136e-02f,-3.86745967e-02f,+1.40964851e-01f,
+7.34552369e-02f,-8.61898139e-02f,+5.38196005e-02f,-2.14608654e-01f,+3.07645112e-01f,
+1.38052315e-01f,+4.22260985e-02f,+1.10542916e-01f,+2.48500183e-01f,+6.58966508e-03f,
+4.00260061e-01f,-2.03827843e-02f,-2.95967329e-02f,+6.04547448e-02f,+1.16232364e-02f,
+3.32365036e-01f,+4.30561304e-02f,-3.32423478e-01f,-1.05225243e-01f,-3.89155179e-01f,
-2.86088943e-01f,+6.26402721e-02f,+2.87689571e-03f,-1.21105053e-01f,+8.65536034e-02f,
-2.05453590e-01f,-6.09017350e-02f,+3.12472254e-01f,+1.53713226e-01f,-4.29867432e-02f,
+1.60957813e-01f,-1.38209447e-01f,+1.54485881e-01f,+7.35898316e-02f,+2.46701077e-01f,
+8.42435658e-02f,+1.88131243e-01f,-1.25891760e-01f,+1.46877378e-01f,+1.01663135e-01f,
+4.43985425e-02f,-4.17337298e-01f,+2.10538045e-01f,-3.43948334e-01f,+6.44555762e-02f,
+6.38845414e-02f,+4.47313130e-01f,+2.06885412e-01f,+3.55439812e-01f,+2.64626206e-03f,
+5.20162247e-02f,+1.32173568e-01f,-4.78680730e-02f,-1.64545178e-01f,-4.63115722e-02f,
+1.46836145e-02f,+2.20529065e-01f,-3.64530422e-02f,+3.62826101e-02f,-1.68350816e-01f,
-1.46813601e-01f,-3.68152745e-02f,+1.16005577e-01f,+1.28358960e-01f,+3.17230284e-01f,
+1.20374613e-01f,+1.98298872e-01f,+1.99420124e-01f,-3.67593110e-01f,+2.78508693e-01f,
-1.25856951e-01f,-2.19352171e-02f,+3.38872634e-02f,-5.77542000e-02f,+7.19355941e-02f,
+6.60029426e-02f,+3.36511701e-01f,+4.04653139e-02f,+2.20263153e-01f,+7.52599686e-02f,
+1.85851127e-01f,+2.82171786e-01f,+1.95112050e-01f,-1.43409800e-02f,+2.03504756e-01f,
-1.34928189e-02f,+1.23978332e-01f,-1.25696525e-01f,+9.93790329e-02f,-2.73965031e-01f,
+2.18210727e-01f,+2.36213624e-01f,-2.54401173e-02f,-1.99014574e-01f,-2.14897543e-01f,
+1.24107815e-01f,-8.30258951e-02f,-1.52522966e-01f,+1.08857393e-01f,+2.77812541e-01f,
+1.45259231e-01f,+2.34844252e-01f,-9.37404260e-02f,+1.84442475e-01f,+3.08565587e-01f,
+7.29419962e-02f,-3.81158926e-02f,+1.40181538e-02f,+1.77715290e-02f,+3.48476052e-01f,
+1.18658744e-01f,-7.31720254e-02f,+7.77708739e-02f,+1.88402772e-01f,+2.11291477e-01f,
+7.62974564e-03f,+9.84210223e-02f,-2.36147448e-01f,+2.34484881e-01f,+2.21108615e-01f,
-1.55929595e-01f,+1.72104597e-01f,-1.15877829e-01f,-5.97242825e-02f,-6.39497489e-02f,
+9.03910771e-02f,-1.82074130e-01f,+3.54408510e-02f,+1.00146674e-01f,+4.37688112e-01f,
+8.64891112e-02f,-5.36480956e-02f,-1.15827188e-01f,+7.57815093e-02f,-1.52198702e-01f,
-1.59240663e-01f,-4.36760746e-02f,-5.76523580e-02f,+1.07968301e-02f,-4.62830216e-02f,
+3.00442427e-01f,+1.61992326e-01f,-1.98333234e-01f,-6.46354333e-02f,+2.52781752e-02f,
+9.71433222e-02f,+2.17084542e-01f,+1.57037973e-01f,+3.92383942e-03f,+1.13857441e-01f,
-1.94701537e-01f,+1.03255250e-01f,+1.29850551e-01f,+6.97412342e-02f,+1.50696868e-02f,
+3.36854488e-01f,+4.62318398e-03f,-1.71473011e-01f,+5.91275357e-02f,+1.46434605e-01f,
+7.72892609e-02f,+4.89345938e-02f,+1.49700582e-01f,+1.98825791e-01f,+3.84386778e-01f,
-6.07631430e-02f,+5.37765920e-02f,+1.73481256e-01f,-4.18061065e-03f,+4.28121686e-02f,
-1.95632547e-01f,-2.47035157e-02f,+9.32123289e-02f,+2.88471550e-01f,+1.13952756e-01f,
-3.26043703e-02f,+3.50321084e-02f,-7.83775821e-02f,-1.62687480e-01f,-1.20913582e-02f,
-4.38054763e-02f,-5.15952893e-02f,+2.88105428e-01f,-1.66792795e-01f,+1.83243724e-03f,
-1.53202876e-01f,+5.77721000e-02f,+1.46799954e-02f,+2.14308128e-01f,+1.11452229e-01f,
-1.86745122e-01f,-9.99919847e-02f,+2.25946289e-02f,-2.10223258e-01f,+6.40687793e-02f,
-9.78685766e-02f,+3.75966996e-01f,+1.14061244e-01f,-1.40920281e-01f,+1.26191512e-01f,
+1.69651181e-01f,+8.04836899e-02f,-5.37179112e-02f,+5.03306240e-02f,+3.59073520e-01f,
+1.57758817e-01f,+2.75782943e-01f,-7.52604082e-02f,+6.03335202e-02f,-5.22770435e-02f,
+2.64357738e-02f,-1.39164135e-01f,-1.58971116e-01f,-5.35913184e-02f,+2.51587451e-01f,
+5.30267879e-03f,+7.25926310e-02f,+4.20918614e-02f,+2.48308510e-01f,-8.13393146e-02f,
-6.71990663e-02f,+2.05594078e-01f,-1.23333417e-01f,+3.44738454e-01f,+9.36825648e-02f,
+7.59093910e-02f,+2.90787369e-02f,-1.38524920e-01f,-1.00162543e-01f,+9.99267399e-02f,
+4.19474274e-01f,-1.55602796e-02f,+6.08842541e-03f,+6.39116764e-02f,+1.64185449e-01f,
+2.80677140e-01f,+1.86173975e-01f,-1.74748838e-01f,-2.94869673e-03f,-7.05610812e-02f,
-9.37068611e-02f,-8.25816840e-02f,+4.46019247e-02f,+4.02469095e-03f,-1.20079136e-02f,
+1.23200491e-01f,-2.88364619e-01f,-9.30468738e-02f,-6.64895475e-02f,+3.00123066e-01f,
-8.18292871e-02f,-6.12934530e-02f,-5.76879270e-02f,+1.45438254e-01f,-1.94431409e-01f,
+6.68172836e-02f,+3.41108352e-01f,+2.99501359e-01f,+1.61832348e-01f,+8.20055753e-02f,
-2.87336320e-01f,-1.48668110e-01f,+5.05672395e-02f,-1.14398450e-01f,+7.46557042e-02f,
+2.75728643e-01f,+7.54124001e-02f,+9.79368612e-02f,+1.18878543e-01f,-5.86360656e-02f,
-9.88785177e-02f,+5.81486104e-03f,+2.31728092e-01f,-1.52810901e-01f,-3.46819878e-01f,
-1.46596022e-02f,+2.14311227e-01f,-1.46058187e-01f,-1.04020327e-01f,+1.62184119e-01f,
+4.22048494e-02f,-1.06465392e-01f,-1.70272291e-01f,-1.21633492e-01f,-1.16464007e-03f,
-1.72891282e-02f,+4.11428139e-03f,-7.18080029e-02f,+2.76341856e-01f,+5.34390621e-02f,
+8.02502111e-02f,+2.24514619e-01f,+2.06579208e-01f,-1.84762433e-01f,-1.53213561e-01f,
+7.62921199e-02f,-1.12468630e-01f,-9.64156836e-02f,-4.45447564e-02f,-1.74611017e-01f,
-1.27930101e-02f,+3.44453543e-01f,-3.70713845e-02f,-4.82253507e-02f,+3.31304908e-01f,
-3.95562239e-02f,+3.99642959e-02f,-1.81902736e-01f,+1.47291869e-01f,-4.03502882e-02f,
-1.24750473e-02f,-2.85465330e-01f,+4.37515140e-01f,+4.75692749e-03f,+1.10211328e-01f,
+5.91347553e-03f,-9.98939425e-02f,+2.14091875e-02f,+7.28033707e-02f,-1.39886349e-01f,
-1.02325164e-01f,-2.82344609e-01f,-8.18310753e-02f,+2.95909196e-01f,+5.85408807e-02f,
+2.12916434e-01f,-2.43971601e-01f,-1.84154615e-01f,-8.92070085e-02f,-1.14267834e-01f,
-4.43879247e-01f,-2.82240510e-01f,+1.03537090e-01f,-2.19006404e-01f,-1.41028063e-02f,
+2.58553267e-01f,+2.69217372e-01f,+4.62934375e-02f,-3.25333551e-02f,+8.53055343e-02f,
-2.74313986e-01f,+1.69622347e-01f,+3.83927196e-01f,+4.23190475e-01f,-1.19973332e-01f,
-8.83792043e-02f,-1.53116688e-01f,+6.81911483e-02f,-6.27421290e-02f,+1.76916316e-01f,
-4.75235507e-02f,+3.45600545e-02f,+9.26903635e-02f,+1.24843836e-01f,-1.58764333e-01f,
-2.10543022e-01f,-1.80204690e-01f,-4.66969937e-01f,+6.35237843e-02f,-6.16985112e-02f,
+9.17303711e-02f,+1.67344764e-01f,+2.72648409e-02f,-2.68012196e-01f,-1.17889091e-01f,
-1.33365631e-01f,-1.88429117e-01f,-2.80684948e-01f,+1.46255553e-01f,+1.55972794e-01f,
-2.03562513e-01f,-2.00784743e-01f,-4.25255984e-01f,+4.72820960e-02f,-1.35994926e-01f,
-4.57466841e-02f,-1.48506865e-01f,+3.58454823e-01f,+9.12078694e-02f,-5.02272882e-02f,
+1.53558508e-01f,-8.94560367e-02f,-9.83245112e-03f,+1.96824566e-01f,+1.64197057e-01f,
+2.67264210e-02f,-6.01307973e-02f,+1.11184224e-01f,-6.01049140e-02f,+1.00921430e-01f,
-3.57055902e-01f,+1.12890869e-01f,+4.05697972e-01f,+4.54441682e-02f,-1.93280980e-01f,
+1.49989873e-01f,-2.07342170e-02f,+5.00774346e-02f,+1.10808522e-01f,-5.35950810e-03f,
+1.08938769e-01f,+1.61695350e-02f,-1.74437851e-01f,+5.14007360e-02f,-2.46770680e-01f,
+1.90473124e-01f,+5.50417937e-02f,-9.33768302e-02f,-3.46863002e-01f,-1.73786759e-01f,
-2.97134109e-02f,+8.99317414e-02f,+1.86388269e-01f,-4.34010886e-02f,-1.06767789e-01f,
-3.24473143e-01f,-2.26765990e-01f,-1.91078722e-01f,+4.49062347e-01f,+2.14980304e-01f,
+1.22680657e-01f,-3.68110657e-01f,-2.53776371e-01f,+5.58799803e-02f,+1.88443705e-01f,
-1.50195494e-01f,+1.00122236e-01f,-2.34503761e-01f,+2.25649446e-01f,+1.51952937e-01f,
+1.16962008e-01f,+8.49340707e-02f,+4.42927629e-01f,+1.60332128e-01f,-8.65904838e-02f,
-1.56566441e-01f,-2.28497371e-01f,-2.46421918e-01f,-2.88911849e-01f,-1.35120347e-01f,
-1.49696097e-01f,+9.41215754e-02f,+8.10034052e-02f,-2.45063320e-01f,+3.13129872e-01f,
-8.54565874e-02f,+9.11855176e-02f,+1.64035216e-01f,+2.71168709e-01f,+1.03866041e-01f,
+1.69186033e-02f,-2.47046053e-01f,-7.90842548e-02f,+1.32801309e-02f,+2.33695567e-01f,
+4.67510462e-01f,+6.38285652e-02f,+8.41173381e-02f,+8.32277313e-02f,-7.11568967e-02f,
+3.63809526e-01f,+6.11474505e-03f,-1.58738822e-01f,+1.02452554e-01f,-2.40394026e-02f,
+1.58882856e-01f,+2.90690929e-01f,-1.28207043e-01f,-1.22351356e-01f,+1.95863489e-02f,
-3.95924561e-02f,+7.02466294e-02f,+4.46843892e-01f,+6.46007732e-02f,+1.27664089e-01f,
-3.65787506e-01f,+4.56475280e-02f,-5.58169410e-02f,-3.42317186e-02f,-4.66409661e-02f,
+1.30988024e-02f,+3.78038138e-01f,-1.83708474e-01f,-7.86209181e-02f,-1.17785195e-02f,
+1.08112231e-01f,-2.37771466e-01f,-2.05007344e-01f,-1.13045231e-01f,+9.46864951e-03f,
-1.68059394e-02f,-1.31974936e-01f,-7.81320559e-04f,+1.57796413e-01f,+2.02533454e-01f,
-2.41198868e-01f,-1.92722663e-01f,-8.09552819e-02f,-5.99737652e-03f,-2.43089780e-01f,
-4.41420302e-02f,-3.79076712e-02f,+1.44905940e-01f,+7.48021230e-02f,+1.49232283e-01f,
+3.53740901e-01f,+4.58163261e-01f,-8.60812515e-02f,+2.72800118e-01f,+6.51047304e-02f,
+3.62120628e-01f,-1.97602585e-02f,-3.23360533e-01f,-1.08309969e-01f,+2.45346844e-01f,
+3.62490833e-01f,+8.66028443e-02f,+1.03689902e-01f,-7.37063512e-02f,+1.24458492e-01f,
+6.80384561e-02f,-1.87401593e-01f,-5.79186790e-02f,+2.02829689e-01f,-7.97855332e-02f,
-5.16321212e-02f,+1.80955529e-01f,+3.61443341e-01f,+2.71532059e-01f,-2.41671205e-01f,
+8.93162265e-02f,+1.71783552e-01f,-2.28285342e-01f,+3.37741494e-01f,-8.15128982e-02f,
-1.65488034e-01f,+2.61575788e-01f,-1.48651181e-02f,-4.84200241e-03f,-3.03200865e-03f,
-2.87165083e-02f,-4.81879972e-02f,+2.09198073e-01f,-8.57414752e-02f,+3.42730969e-01f,
+9.62864086e-02f,+1.03118280e-02f,-1.00586914e-01f,-4.07137796e-02f,+5.42344376e-02f,
+1.43915772e-01f,-3.75092141e-02f,+1.74641684e-01f,+1.24725257e-03f,-4.44523357e-02f,
+4.04093452e-02f,+4.25222456e-01f,-9.13229734e-02f,+3.03168476e-01f,+1.09058887e-01f,
-2.49367226e-02f,-7.04377741e-02f,+3.48235279e-01f,+1.49657577e-01f,-1.77217275e-02f,
+2.04641730e-01f,-1.95221439e-01f,-2.01466188e-01f,-1.67182133e-01f,+3.25204022e-02f,
+1.55081749e-01f,-1.85183048e-01f,-1.68681934e-01f,-1.17199145e-01f,+4.08453614e-01f,
+1.91086724e-01f,+1.86557621e-02f,-1.74260601e-01f,+1.24022305e-01f,-1.67774558e-01f,
+1.10418402e-01f,-2.00451985e-01f,-3.70569713e-02f,-4.42450419e-02f,-5.44532016e-02f,
+2.37901717e-01f,+1.44658713e-02f,+1.16755225e-01f,+6.55226111e-02f,-5.11027090e-02f,
+2.76921600e-01f,+2.26009250e-01f,-1.61793858e-01f,-4.17806625e-01f,+1.36283830e-01f,
+2.60816664e-01f,-2.21702203e-01f,+1.55971674e-02f,-1.34795057e-02f,+1.84355170e-01f,
+2.31484503e-01f,-5.66705316e-03f,-1.80534452e-01f,-1.79832354e-01f,+2.29095042e-01f,
-4.95985709e-03f,+1.30749017e-01f,-7.15023205e-02f,+1.64634913e-01f,+2.20529791e-02f,
+1.66486114e-01f,+6.57796860e-02f,-1.10158570e-01f,-1.42020449e-01f,+9.26663205e-02f,
+5.98323718e-02f,-7.61058256e-02f,+6.91512309e-04f,+4.33408283e-02f,+5.18735945e-02f,
-2.33709291e-01f,+1.27263546e-01f,-3.15592527e-01f,+1.07807197e-01f,+9.64508802e-02f,
-2.04878002e-01f,-2.32581213e-01f,+2.04263359e-01f,-2.75118083e-01f,-2.50511885e-01f,
-3.33563536e-02f,-1.86393976e-01f,-4.27009612e-01f,-2.19178736e-01f,-2.61167824e-01f,
+1.57879457e-01f,-3.50846142e-01f,-1.64271563e-01f,+4.41976264e-03f,-1.49562180e-01f,
+1.30843222e-01f,+4.84317821e-03f,+1.99318677e-01f,+2.59621024e-01f,+2.27996051e-01f,
-2.29700848e-01f,-4.04744931e-02f,+2.15178624e-01f,+2.87660182e-01f,+1.55368954e-01f,
+2.07713209e-02f,-1.60328045e-01f,+7.88830668e-02f,+1.21605128e-01f,+7.99330622e-02f,
+2.65869647e-01f,-5.34311272e-02f,+3.78320843e-01f,-9.74157676e-02f,-1.45690069e-01f,
+2.43958324e-01f,-5.22922724e-03f,-1.93197280e-01f,-2.13184074e-01f,+3.11107412e-02f,
-1.02204969e-02f,-1.04067221e-01f,-2.93315738e-01f,-1.63496323e-02f,+4.82679754e-01f,
+1.25254914e-01f,+6.55957833e-02f,+5.81499236e-03f,-1.00750871e-01f,+3.12090870e-02f,
+4.63955477e-03f,+5.17668612e-02f,-2.16258332e-01f,+4.46387529e-01f,+2.79366109e-03f,
+1.76709980e-01f,-5.60824312e-02f,-1.13024220e-01f,+1.68903898e-02f,+1.52161926e-01f,
-1.90687209e-01f,-1.51016429e-01f,-3.80593576e-02f,+2.13674624e-02f,-1.47395089e-01f,
+3.27514201e-01f,+5.75013161e-01f,-9.56490561e-02f,+1.27087489e-01f,+3.17897171e-01f,
+1.56916291e-01f,+2.53547758e-01f,+1.92081243e-01f,+5.59158266e-01f,+2.94280499e-01f,
+1.36631876e-01f,-1.58765808e-01f,+1.20914541e-01f,-1.24411009e-01f,-6.99298009e-02f,
+2.67956883e-01f,-3.01906299e-02f,+1.25914454e-01f,+3.41348946e-01f,+3.25982362e-01f,
-3.20423007e-01f,-2.05618978e-01f,+7.97364712e-02f,-4.04972248e-02f,+9.04485583e-02f,
-4.48769815e-02f,+7.91554675e-02f,+2.62798951e-03f,-1.82697132e-01f,-1.44244671e-01f,
+2.24334508e-01f,+1.40377015e-01f,+4.87582572e-02f,+9.19469073e-02f,-4.81973290e-02f,
-8.09756853e-03f,+9.85701084e-02f,-1.29725933e-01f,-2.84779280e-01f,+3.23681295e-01f,
+9.15717781e-02f,+1.80300906e-01f,+3.62810284e-01f,-3.39588858e-02f,-2.91031264e-02f,
-1.18849263e-01f,+7.64859691e-02f,-2.49353841e-01f,+2.44380310e-01f,+2.09251374e-01f,
+2.30289564e-01f,+6.77736402e-02f,-3.85949790e-01f,-2.16345638e-01f,+6.47505820e-02f,
+2.13234290e-01f,+5.78308776e-02f,+2.87019551e-01f,-4.88754846e-02f,-1.09329604e-01f,
-2.34324997e-03f,+1.36035029e-02f,+1.22757323e-01f,-2.25136891e-01f,-5.43935709e-02f,
-1.43356815e-01f,+1.19654365e-01f,-1.11344628e-01f,-2.03704506e-01f,+1.70494720e-01f,
+2.33214840e-01f,-1.44092347e-02f,+1.04121327e-01f,+2.07234532e-01f,+3.58143091e-01f,
+1.72028288e-01f,+1.16828466e-02f,-6.75831139e-02f,-1.14852125e-02f,-2.96401739e-01f,
-4.56706733e-02f,+1.37650430e-01f,-9.29129198e-02f,+2.92956978e-01f,-2.81658977e-01f,
-9.92130488e-02f,+9.80003700e-02f,+4.46581841e-03f,-1.05641760e-01f,+3.34336549e-01f,
-3.24773937e-02f,-5.59095025e-01f,+1.49057247e-02f,+3.34884614e-01f,+8.02648813e-02f,
+1.09571196e-01f,-1.73780024e-02f,+2.07120366e-02f,-4.40836877e-01f,-1.88521385e-01f,
-3.45344186e-01f,-3.42240483e-01f,-2.59895325e-01f,+1.70740057e-02f,+1.42207369e-01f,
+1.04223363e-01f,-4.21494037e-01f,-1.14333309e-01f,-9.96317994e-03f,-8.84468704e-02f,
-5.07317930e-02f,-2.01166019e-01f,-1.55614227e-01f,-2.02020910e-02f,+1.37023374e-01f,
-1.14164323e-01f,-2.07332984e-01f,-3.18892419e-01f,+9.59429145e-02f,-1.00240678e-01f,
-2.35486388e-01f,-9.06607509e-02f,+1.23236515e-01f,+3.30924839e-02f,+2.66694818e-02f,
-2.05003083e-01f,+4.48132008e-02f,+5.40323136e-03f,+1.29995316e-01f,+1.92031562e-01f,
-1.73637420e-01f,+5.70186451e-02f,+3.41000073e-02f,-3.12394351e-02f,+1.93576932e-01f,
+3.23232426e-03f,+8.52082446e-02f,+1.36612743e-01f,-8.69991183e-02f,+4.89564985e-02f,
-2.06895828e-01f,-4.17755917e-02f,-1.29905254e-01f,-1.19352430e-01f,-1.99146762e-01f,
+8.45983475e-02f,-3.24017964e-02f,-2.81934023e-01f,-1.64495945e-01f,-1.36271670e-01f,
+8.31759125e-02f,+2.24777479e-02f,+2.47754619e-01f,-1.36592433e-01f,+5.42913526e-02f,
-7.90664926e-02f,-1.16401399e-02f,+2.03418657e-01f,+2.71915197e-01f,-1.61127269e-01f,
-1.98067084e-01f,-1.20049894e-01f,-1.41698614e-01f,+3.02957773e-01f,-1.33667424e-01f,
-3.33444387e-01f,+2.04260588e-01f,-3.12222671e-02f,-6.03230149e-02f,-8.99379402e-02f,
+1.54072523e-01f,-4.99827191e-02f,+2.06250936e-01f,+7.70379007e-02f,-6.28539249e-02f,
+2.46600911e-01f,+1.97177697e-02f,+1.57426327e-01f,+2.69222617e-01f,-5.96358441e-02f,
-9.73175764e-02f,+4.86013927e-02f,+1.69106677e-01f,-2.81130001e-02f,+2.11612836e-01f,
-3.69156927e-01f,+5.39778247e-02f,+1.05341069e-01f,-6.52454272e-02f,+2.78794289e-01f,
+1.88660443e-01f,+7.91410580e-02f,-3.49638969e-01f,+6.39790520e-02f,+1.69477582e-01f,
-9.55848843e-02f,-1.38585307e-02f,+1.28759727e-01f,+3.13241929e-01f,+1.44585475e-01f,
+8.44513848e-02f,-1.52829885e-01f,-3.50547396e-02f,-9.89261270e-02f,+1.26760900e-01f,
+1.15495995e-02f,-1.89513057e-01f,+1.07683763e-01f,-3.11287731e-01f,+3.61455083e-01f,
-1.15942853e-02f,-9.62940883e-03f,-1.83838367e-01f,-2.11055517e-01f,-7.60438591e-02f,
+1.09513544e-01f,-1.60044283e-01f,+2.42479965e-01f,+1.49565563e-01f,+1.17845796e-01f,
-9.79576260e-02f,+4.38618585e-02f,-4.69557308e-02f,-3.09698850e-01f,-2.76184767e-01f,
-2.10309997e-01f,+6.72580972e-02f,-6.45095482e-03f,-1.06596328e-01f,+1.85759872e-01f,
+9.72340554e-02f,-1.47302687e-01f,-2.81873524e-01f,+5.66344410e-02f,+1.87996373e-01f,
+1.82156906e-01f,-2.70675063e-01f,+1.87879264e-01f,-2.45788693e-02f,-1.09359324e-01f,
-7.76960328e-02f,+1.97380246e-03f,+1.96551234e-01f,+1.39019445e-01f,+1.53862461e-01f,
+2.27624536e-01f,-6.21526595e-03f,+1.26318350e-01f,+5.58627062e-02f,-1.12821730e-02f,
+1.17578365e-01f,+2.66019136e-01f,+1.95517510e-01f,+3.20433855e-01f,+2.48794824e-01f,
+1.69649050e-01f,+3.87459085e-03f,-1.02056719e-01f,+2.48340949e-01f,-2.01756936e-02f,
-6.92742094e-02f,-3.31894696e-01f,-3.50987047e-01f,+8.36374089e-02f,+2.61719406e-01f,
+4.11127239e-01f,+7.80724213e-02f,+1.44329369e-01f,-9.44272056e-02f,+1.84484217e-02f,
+1.76321045e-01f,+1.60310164e-01f,+5.93246482e-02f,-7.04210550e-02f,+1.82036594e-01f,
+1.04843847e-01f,+1.17900580e-01f,+5.01931384e-02f,-9.40127969e-02f,-3.02861154e-01f,
-1.20303676e-01f,-3.18045318e-02f,+2.88226455e-01f,+1.79177865e-01f,+1.38297498e-01f,
+8.37914471e-04f,+2.11062506e-01f,+2.05831274e-01f,+3.91961217e-01f,+1.38651207e-01f,
-3.65346931e-02f,-6.85180128e-02f,+1.25706315e-01f,+7.06551298e-02f,+2.34937489e-01f,
+1.01127177e-01f,+7.65895471e-02f,+2.95159519e-01f,-1.36774421e-01f,+8.50356519e-02f,
+2.03729823e-01f,+1.78197086e-01f,-1.22895122e-01f,-9.08155069e-02f,-9.96227488e-02f,
-1.65506065e-01f,-1.82062283e-01f,+7.75250345e-02f,-9.15598199e-02f,-1.39549971e-01f,
+1.49603069e-01f,-8.17189515e-02f,+1.55312911e-01f,-1.41006753e-01f,-1.71300843e-01f,
+7.88876414e-02f,+1.75817043e-01f,-1.57618597e-01f,-2.66329139e-01f,+1.33763775e-01f,
+7.76181743e-02f,+1.93617776e-01f,-3.49831171e-02f,+6.61759228e-02f,-1.79867893e-01f,
-2.22834170e-01f,-5.50316311e-02f,+4.46692184e-02f,-7.73002580e-02f,+2.29487270e-01f,
+3.97592895e-02f,-2.34478116e-01f,-1.16645418e-01f,-2.76149720e-01f,+1.68138996e-01f,
-8.11535493e-02f,-4.27672744e-01f,+2.84289401e-02f,+3.17061484e-01f,-7.86778778e-02f,
+8.27125311e-02f,-8.38160440e-02f,-1.78170169e-03f,+4.33796085e-02f,+2.79219057e-02f,
-3.32678780e-02f,+1.22682452e-01f,-9.16489288e-02f,-1.03801931e-03f,+1.81656659e-01f,
-2.71184087e-01f,-2.17022642e-01f,+9.88610387e-02f,-3.27733830e-02f,-2.67988741e-02f,
-9.28762276e-03f,-2.29477063e-02f,+1.90447435e-01f,+1.56141877e-01f,-1.01306457e-02f,
-1.18018158e-01f,+1.70590818e-01f,-2.06723168e-01f,-7.62619004e-02f,-2.75222640e-02f,
+2.51872897e-01f,-7.32798874e-02f,+1.70140237e-01f,+9.01274085e-02f,+4.19121794e-02f,
-8.33947212e-02f,-1.23465369e-02f,-1.67717755e-01f,+1.24947532e-04f,+1.23508453e-01f,
+1.69407874e-01f,-1.90342903e-01f,-4.60711718e-02f,+8.62569362e-02f,-7.37910941e-02f,
+5.27122058e-03f,-5.63085854e-01f,+1.38907611e-01f,-3.43837105e-02f,-2.24617854e-01f,
+8.58883411e-02f,+2.24320754e-01f,+9.87139791e-02f,+1.10161051e-01f,+1.37235627e-01f,
-2.18930036e-01f,+1.33694485e-01f,-6.16546161e-02f,-1.08029004e-02f,-3.40032429e-01f,
+3.81999642e-01f,+6.43117055e-02f,-5.34760430e-02f,+1.10046037e-01f,+2.25885466e-01f,
-2.78140008e-01f,-1.16362693e-02f,+1.91516966e-01f,+2.20929876e-01f,+8.97046253e-02f,
-1.28830776e-01f,-2.64926672e-01f,+1.07379921e-01f,-1.86047003e-01f,+7.84114078e-02f,
+2.79932052e-01f,-7.43002966e-02f,+5.61084092e-01f,-9.55001041e-02f,+2.18944296e-01f,
+1.42132863e-01f,-1.43908411e-01f,+1.91707820e-01f,+1.41748175e-01f,+6.12299815e-02f,
+7.61587098e-02f,-2.98753589e-01f,-1.45289645e-01f,+5.46183810e-02f,+1.39542133e-01f,
-1.29210263e-01f,+8.79544243e-02f,-1.58343866e-01f,+3.52066495e-02f,+1.36700436e-01f,
+1.14920825e-01f,+1.61244288e-01f,+4.34958816e-01f,-6.62609786e-02f,-1.36313364e-02f,
-3.36534679e-02f,+2.11236045e-01f,+2.66020671e-02f,+1.07177004e-01f,+2.16110766e-01f,
-1.97796464e-01f,+3.70487347e-02f,-3.03879440e-01f,+4.12581163e-03f,-1.50382221e-01f,
+2.17783794e-01f,+6.11191951e-02f,-9.61519852e-02f,+1.89124539e-01f,+3.46867114e-01f,
+2.24143311e-01f,+5.75583838e-02f,+2.09730461e-01f,-2.58794069e-01f,+3.10934246e-01f,
+2.42871642e-01f,+8.42952803e-02f,-3.25249135e-02f,+2.85160169e-03f,-1.18357614e-01f,
+2.03821942e-01f,+2.49808114e-02f,+9.26522538e-02f,-1.25161767e-01f,+1.66524634e-01f,
+2.00656191e-01f,+2.81844974e-01f,+2.27903932e-01f,+4.25329059e-01f,+4.07135719e-03f,
-3.00878912e-01f,+2.53059417e-01f,+4.43571955e-01f,+2.59450048e-01f,-4.61467681e-03f,
+6.99458495e-02f,-1.12216607e-01f,-3.73106524e-02f,+2.56470740e-01f,+1.85705692e-01f,
-2.11816460e-01f,-2.77220041e-01f,+5.02257533e-02f,+2.05733970e-01f,+1.80119962e-01f,
-8.31938535e-03f,+9.86969098e-02f,+1.43029839e-01f,-4.43718471e-02f,-2.56198764e-01f,
-1.76242784e-01f,+1.25729546e-01f,+1.92940697e-01f,-4.68626842e-02f,-2.56692231e-01f,
+2.73632348e-01f,+1.29188642e-01f,+3.80468257e-02f,-3.79716195e-02f,+1.41698807e-01f,
+1.54001951e-01f,+2.07748741e-01f,+2.41823047e-01f,-3.73495147e-02f,+5.70815317e-02f,
-2.87322719e-02f,+6.82848841e-02f,+2.43875161e-01f,+7.51559883e-02f,+1.29472941e-01f,
+1.86579332e-01f,+2.69891500e-01f,-4.73699979e-02f,+7.02236742e-02f,-1.47958547e-01f,
+7.63883889e-02f,-7.58245587e-02f,+2.36037791e-01f,-1.51435792e-01f,+7.40457773e-02f,
-1.84969231e-01f,+1.16433643e-01f,+6.84566721e-02f,-4.59043011e-02f,-4.02545244e-01f,
+1.12347662e-01f,-1.04310118e-01f,-4.78763506e-02f,-1.44358709e-01f,-2.05486551e-01f,
+2.18304679e-01f,+2.19397992e-01f,+2.57548869e-01f,-1.04410335e-01f,-3.07967603e-01f,
+5.80659732e-02f,+1.70489028e-01f,+2.68886179e-01f,+1.03985019e-01f,-2.45233297e-01f,
-3.23722929e-01f,+1.09846197e-01f,+1.20105958e-02f,+2.53899217e-01f,-6.42318428e-02f,
+1.54675946e-01f,-1.18940219e-01f,-3.07163820e-02f,+1.00474194e-01f,+1.68730125e-01f,
+1.22583851e-01f,+2.66904794e-02f,+4.57429979e-03f,+1.16648287e-01f,+1.70540839e-01f,
+7.56874084e-02f,+5.67015540e-03f,+9.55497921e-02f,+6.35173544e-02f,-1.05079345e-01f,
+4.29503500e-01f,-3.28053087e-01f,-1.02123238e-01f,+1.97400853e-01f,+3.91335279e-01f,
-3.63364629e-02f,-5.79878874e-02f,-1.70460001e-01f,+5.96451689e-04f,-1.46316484e-01f,
+1.97868854e-01f,+2.97340870e-01f,+4.31277901e-02f,+2.66071856e-01f,-6.18394800e-02f,
-2.37322718e-01f,-3.20271961e-02f,-1.49521217e-01f,+2.43402585e-01f,-1.28173724e-01f,
+4.68585432e-01f,+5.53078614e-02f,-8.00133422e-02f,+2.94498384e-01f,-7.43140951e-02f,
-9.92643535e-02f,+1.84921250e-01f,+2.31689424e-03f,-4.65770990e-01f,+2.54033595e-01f,
-3.56330201e-02f,+2.21920460e-01f,-9.33479816e-02f,-9.70639214e-02f,-7.91001916e-02f,
-2.24813074e-01f,+1.31626561e-01f,+1.43453956e-01f,-1.76342353e-01f,+2.82443641e-03f,
+1.26147673e-01f,+1.70352057e-01f,+1.12561904e-01f,-2.78043509e-01f,+1.89819753e-01f,
+1.19591467e-01f,-1.10452168e-01f,+9.31281969e-02f,-8.73184204e-02f,+2.45863467e-01f,
+6.40045181e-02f,+2.75437050e-02f,-2.20975220e-01f,-1.58616140e-01f,+1.20101564e-01f,
-4.69600074e-02f,-5.15645593e-02f,+7.59124979e-02f,+1.69373885e-01f,-1.63739815e-01f,
-1.74931630e-01f,-4.27076295e-02f,+5.09422049e-02f,+9.33763459e-02f,+1.37008831e-01f,
-4.23694514e-02f,+3.18855375e-01f,+4.02600437e-01f,-1.25947118e-01f,+7.07374886e-02f,
+2.77540952e-01f,-1.91598788e-01f,+4.52930599e-01f,+2.09887981e-01f,+2.54645616e-01f,
+2.01788709e-01f,+3.06820512e-01f,-3.62272114e-01f,+1.46909311e-01f,-1.40053853e-01f,
+1.33564726e-01f,+9.15885568e-02f,-9.41971689e-02f,+5.52719794e-02f,-1.19100280e-01f,
+3.56663167e-01f,+1.22174285e-01f,+5.54344654e-02f,+2.35205248e-01f,+4.12437439e-01f,
-1.09848067e-01f,+7.68787190e-02f,+1.52687579e-01f,+1.35862201e-01f,-2.34191999e-01f,
-1.40688896e-01f,-4.25537825e-02f,+5.53196780e-02f,+3.66607793e-02f,+3.34109992e-01f,
-1.43428579e-01f,-2.03711271e-01f,+8.24517608e-02f,+2.25663155e-01f,-3.86328213e-02f,
+2.22941175e-01f,-9.99026373e-02f,+9.63166058e-02f,-5.86782210e-02f,-2.34176561e-01f,
+2.26481259e-01f,-2.71253318e-01f,+9.11534205e-02f,+9.14484784e-02f,+8.26524124e-02f,
+7.72710368e-02f,-2.44622871e-01f,+3.64152104e-01f,-4.54818547e-01f,+2.00966477e-01f,
-9.57663879e-02f,+1.87258035e-01f,-2.77096033e-02f,+2.30661362e-01f,+2.03234226e-01f,
+1.37510017e-01f,-1.81230605e-01f,+3.45237483e-03f,+2.56154058e-03f,-1.84842795e-02f,
+8.91132131e-02f,-7.89112821e-02f,+1.66370049e-02f,-7.35236555e-02f,-1.60869300e-01f,
+1.80880159e-01f,+1.81980118e-01f,+2.87487745e-01f,+6.51335418e-02f,+9.23525356e-03f,
+1.04129948e-01f,+2.62827110e-02f,+1.02288276e-01f,+2.19759747e-01f,+1.56309038e-01f,
+5.59863374e-02f,-8.79687220e-02f,+3.65578175e-01f,+2.17480421e-01f,-5.29859960e-02f,
-1.66958228e-01f,-2.95515567e-01f,+1.08726412e-01f,+1.99434981e-01f,+3.97373997e-02f,
-1.17641009e-01f,-1.09778270e-01f,-5.61323240e-02f,+1.25854656e-01f,+7.72631243e-02f,
+3.05032343e-01f,+1.51415870e-01f,-5.66982254e-02f,-1.56961262e-01f,+2.88860977e-01f,
-8.42627510e-02f,-5.00584900e-01f,-2.06589982e-01f,-1.71080351e-01f,-1.47857536e-02f,
-2.23207295e-01f,-7.33678788e-02f,+1.38026148e-01f,+2.27176622e-01f,-3.20363015e-01f,
+4.26992103e-02f,-2.20353473e-02f,-4.36123610e-01f,+1.03529483e-01f,-1.52254939e-01f,
+2.16275737e-01f,-2.36733109e-02f,-1.02188818e-01f,-3.40708584e-01f,-2.25909397e-01f,
+5.62807135e-02f,+2.00406220e-02f,+3.98624577e-02f,-7.03229979e-02f,-2.18538139e-02f,
-2.16236666e-01f,+2.96943611e-03f,-3.41352001e-02f,+7.28208944e-02f,+1.88071772e-01f,
-8.07457343e-02f,+1.60789773e-01f,-3.21768150e-02f,-2.32177034e-01f,+8.85277316e-02f,
-4.87869442e-01f,-1.60346389e-01f,+1.66418001e-01f,-2.91740913e-02f,+1.05150737e-01f,
+1.93487823e-01f,+1.05067022e-01f,+1.03914425e-01f,-6.77298475e-03f,+1.50683343e-01f,
+1.24098219e-01f,-1.59181565e-01f,+2.32748076e-01f,-2.26860270e-01f,-5.12060374e-02f,
-3.06113154e-01f,+1.19259013e-02f,+1.32071614e-01f,+3.52454884e-03f,-2.33973593e-01f,
-1.52529866e-01f,-5.74011281e-02f,-1.85953513e-01f,+3.26117352e-02f,-4.68496203e-01f,
-1.90789133e-01f,-1.96428105e-01f,-1.11436225e-01f,+7.24614114e-02f,-3.38956773e-01f,
+4.53239009e-02f,-1.53048644e-02f,+6.01140037e-02f,+5.01707289e-03f,+1.97000593e-01f,
+1.99891478e-01f,+1.88207075e-01f,+9.34672281e-02f,+3.41767102e-01f,+7.03126006e-03f,
-4.83942702e-02f,+1.26368418e-01f,-1.95185408e-01f,-3.60246330e-01f,-4.31503616e-02f,
-1.14507452e-02f,-5.13246283e-02f,+2.00014897e-02f,-1.45313129e-01f,+9.05973166e-02f,
-6.60517365e-02f,+5.89849986e-03f,-8.96982756e-03f,-1.13247395e-01f,+3.27744395e-01f,
+1.02184052e-02f,-1.98024720e-01f,-6.29853830e-02f,-1.51804825e-02f,-2.84757614e-01f,
-2.47099735e-02f,+4.58735451e-02f,-1.24915972e-01f,+6.23951033e-02f,+1.72322735e-01f,
+1.01009302e-01f,-4.76381481e-02f,+2.42034703e-01f,-3.36170942e-02f,+2.58683741e-01f,
-1.13141708e-01f,-3.25179808e-02f,-1.24669917e-01f,-1.14231586e-01f,-6.49223924e-02f,
-6.18486200e-03f,-1.39800265e-01f,+1.01481982e-01f,-1.35813221e-01f,+1.34467438e-01f,
-1.48072494e-02f,+3.17219526e-01f,+6.20919503e-02f,+9.30176452e-02f,+1.73762143e-02f,
-1.13361314e-01f,+4.41441536e-01f,-1.74987927e-01f,+2.42139444e-01f,+3.72967303e-01f,
-1.02360137e-02f,+1.79877728e-01f,+2.22167328e-01f,-2.12388635e-01f,-7.18202814e-02f,
+1.42650530e-01f,-1.94246590e-01f,+1.05591193e-01f,+3.66735011e-01f,-2.46741951e-01f,
+5.47744893e-02f,-9.14874300e-02f,+1.47917837e-01f,+8.66694897e-02f,+1.37694284e-01f,
-1.77329108e-01f,+5.05374884e-03f,-2.39064544e-01f,+2.67353412e-02f,+7.31719062e-02f,
+1.33280322e-01f,-1.70869112e-01f,+1.93552583e-01f,-1.82265446e-01f,+6.93079680e-02f,
+1.98319349e-02f,+2.33870670e-01f,+2.48470813e-01f,-5.16582020e-02f,-3.10797077e-02f,
+1.34345800e-01f,+1.85456023e-01f,+2.65045345e-01f,-3.54998261e-02f,-6.33698627e-02f,
+1.28832459e-01f,-1.85417965e-01f,+1.55904591e-01f,-1.15538485e-01f,+7.73032755e-02f,
-2.18811810e-01f,-5.51232658e-02f,+3.05389203e-02f,+2.15499759e-01f,-1.46341594e-02f,
+8.77016634e-02f,-9.59344059e-02f,-1.01840617e-02f,+7.89225847e-02f,+1.76035807e-01f,
-1.04124874e-01f,+3.11635491e-02f,+1.70628145e-01f,+1.40234530e-01f,+1.15516901e-01f,
+1.64573025e-02f,+2.04461738e-01f,+3.20773870e-01f,+1.73179328e-01f,-6.17868751e-02f,
+3.16823900e-01f,-1.66106015e-01f,+2.85224885e-01f,+2.06152815e-02f,+1.64939135e-01f,
+5.07525802e-02f,-4.10547443e-02f,+2.10691139e-01f,+5.84485903e-02f,+8.44074339e-02f,
-1.39075860e-01f,+9.40657482e-02f,-1.50100589e-01f,+5.26410937e-02f,-2.99221516e-01f,
+1.01371489e-01f,-9.60966870e-02f,+3.48850965e-01f,+2.79381305e-01f,+1.00126840e-01f,
+2.58410007e-01f,-4.35667969e-02f,-1.00007504e-01f,-1.75809562e-01f,+3.61680865e-01f,
-1.03135958e-01f,+4.25277166e-02f,-2.01052338e-01f,+8.12676549e-02f,+2.92227596e-01f,
+2.99823374e-01f,-3.28311503e-01f,-1.15031473e-01f,+2.99097947e-03f,-1.34673148e-01f,
-5.24593778e-02f,-5.72449341e-02f,+5.09813987e-02f,-2.39193416e-03f,+1.16139844e-01f,
+2.78163552e-01f,+2.58497983e-01f,+7.11531267e-02f,+6.59149736e-02f,+1.71531171e-01f,
+1.14688843e-01f,+1.32963881e-01f,+2.11445659e-01f,+2.40877233e-02f,+3.20244044e-01f,
+3.34484220e-01f,+3.61465842e-01f,-6.83965683e-02f,-1.70737773e-01f,+5.79566918e-02f,
+3.21913958e-02f,+3.96285579e-02f,+8.41805711e-02f,-2.93531328e-01f,+1.63968608e-01f,
+9.98631641e-02f,+1.07107945e-01f,-9.96102020e-03f,+1.83352083e-02f,+1.63506269e-01f,
-6.71474561e-02f,+1.84815273e-01f,-2.34460294e-01f,-2.28559837e-01f,+7.46017173e-02f,
+1.57964468e-01f,+4.71195914e-02f,+3.01650852e-01f,-1.56332344e-01f,-7.93799385e-02f,
+4.43995558e-03f,-9.14724171e-02f,-4.23543528e-02f,+4.66989167e-02f,+8.04638118e-02f,
+3.07910830e-01f,-1.61023855e-01f,-1.84080467e-01f,+3.52940381e-01f,+4.67859805e-02f,
+8.87011737e-02f,+1.41974747e-01f,+2.48418048e-01f,-1.08127058e-01f,+2.10461289e-01f,
+6.02088112e-04f,-9.19267908e-02f,-3.09568252e-02f,+2.93180078e-01f,-1.47839636e-01f,
+9.48053226e-02f,+1.01503089e-01f,+3.20605606e-01f,-1.32462800e-01f,+1.17536917e-01f,
+2.48770583e-02f,-1.75582558e-01f,-6.97706565e-02f,+1.39665812e-01f,-2.31372014e-01f,
+5.57296909e-02f,-4.28791903e-02f,-7.81658590e-02f,+3.11625540e-01f,+3.52184951e-01f,
-1.37566170e-02f,-2.52288561e-02f,+7.16492385e-02f,+2.28647083e-01f,+2.87873894e-01f,
-2.16580078e-01f,+2.49522761e-01f,-1.97567474e-02f,+1.53026298e-01f,-7.07155913e-02f,
+1.16776444e-01f,-1.90440472e-02f,+1.36253918e-02f,-1.04468822e-01f,+2.01435983e-01f,
+7.12067410e-02f,+2.86582932e-02f,+1.85338184e-02f,-6.79966733e-02f,+1.01042278e-02f,
+2.50225961e-01f,-1.10602602e-01f,-1.70816928e-02f,-2.06782073e-01f,+1.81207314e-01f,
-3.46665755e-02f,-4.46871966e-02f,+1.09431133e-01f,+6.99579343e-02f,-1.02825746e-01f,
+8.10189247e-02f,+4.14409526e-02f,-3.87871899e-02f,+8.67752135e-02f,+4.04136628e-01f,
-7.28887469e-02f,-1.91562384e-01f,-2.30833694e-01f,+1.93103915e-03f,+6.80681467e-02f,
+1.33221358e-01f,+3.14835459e-01f,-1.10451378e-01f,+8.77470747e-02f,-2.05815703e-01f,
-2.04026676e-03f,+1.12791747e-01f,+1.31220948e-02f,+1.33546039e-01f,+4.56462324e-01f,
+7.84199536e-02f,+2.34772055e-03f,+2.63351291e-01f,-3.15690115e-02f,+8.15427583e-03f,
+1.74030513e-01f,-1.84354447e-02f,+2.26150051e-01f,+1.08866431e-01f,+1.59760743e-01f,
-8.76956284e-02f,-1.70928061e-01f,+1.32068083e-01f,+2.75528934e-02f,+4.93671484e-02f,
-9.61246863e-02f,-6.29237592e-02f,+2.27452964e-01f,+3.04555207e-01f,+3.08105033e-02f,
+2.79475972e-02f,+9.44596455e-02f,-9.39381076e-04f,-1.72856197e-01f,+1.55555338e-01f,
+1.61587536e-01f,+7.45727122e-02f,+1.26726165e-01f,-1.68056995e-01f,+1.88449919e-01f,
+4.81297135e-01f,+1.42964110e-01f,+2.59840954e-02f,+2.29461953e-01f,-1.16728038e-01f,
-1.71279177e-01f,+4.81950253e-01f,+4.47885275e-01f,-1.11240312e-01f,+1.47187682e-02f,
+1.48352664e-02f,+9.41507220e-02f,+3.46711695e-01f,+5.96351586e-02f,-2.17792392e-01f,
-1.01468377e-01f,+3.62347722e-01f,-6.24429099e-02f,+1.81643665e-01f,-1.04633765e-02f,
+2.82447040e-02f,+6.56480119e-02f,+7.80810881e-03f,-1.63484618e-01f,-7.18707219e-02f,
+2.60550201e-01f,+3.26169953e-02f,+1.76156193e-01f,-6.49717599e-02f,+4.33838088e-03f,
+1.64975286e-01f,+1.71075031e-01f,+7.55078942e-02f,+2.82866150e-01f,-1.36272416e-01f,
+9.61504038e-03f,-1.20360978e-01f,-1.22570798e-01f,+1.77731559e-01f,+4.22968566e-02f,
-1.08159155e-01f,-7.49470219e-02f,+6.45986944e-02f,+3.58705312e-01f,-7.64591694e-02f,
-1.01806987e-02f,+1.62242457e-01f,+3.52406740e-01f,+9.51457024e-02f,-3.05765569e-01f,
+7.29863420e-02f,+1.90091684e-01f,+5.53971715e-02f,+4.90581803e-02f,+2.18022555e-01f,
+5.31083681e-02f,+2.70549029e-01f,+1.91838697e-01f,-1.06775142e-01f,-1.74186274e-01f,
-1.37874633e-01f,-9.53302011e-02f,-6.72714561e-02f,+1.27906188e-01f,+9.83248129e-02f,
+3.32749277e-01f,+3.01174939e-01f,+2.32188821e-01f,-2.29785040e-01f,-1.61839481e-02f,
+7.05253258e-02f,+1.63656652e-01f,-6.94032237e-02f,+1.60359293e-01f,+3.15675326e-02f,
+1.37634743e-02f,+2.60564297e-01f,-1.99238792e-01f,+2.88113743e-01f,-1.27128065e-01f,
+3.22092742e-01f,+2.63389587e-01f,-7.71931037e-02f,+2.68114414e-02f,-2.49676369e-02f,
-1.67733710e-02f,+2.23756105e-01f,-1.02542184e-01f,-3.99468020e-02f,+1.79159820e-01f,
-1.96669623e-01f,+7.19463602e-02f,-4.48770970e-02f,+2.50286251e-01f,-1.02672987e-01f,
-6.27806857e-02f,+2.85622030e-01f,-7.04091713e-02f,+1.61454275e-01f,+9.35519580e-03f,
+1.73034109e-02f,+1.33241359e-02f,+2.39378810e-01f,+2.75629431e-01f,-2.12313816e-01f,
+1.52987838e-02f,+1.47564784e-01f,-4.08488587e-02f,+1.79742947e-01f,-5.57521507e-02f,
+2.00970471e-01f,+5.35668544e-02f,-1.88542567e-02f,+1.79078028e-01f,+2.41217628e-01f,
-6.12596460e-02f,+3.81703645e-01f,-1.42444134e-01f,-4.75321561e-02f,-8.74254154e-04f,
+1.02292277e-01f,+4.27788645e-02f,+2.86537617e-01f,+1.87458321e-01f,+2.88311988e-01f,
-1.30216762e-01f,+8.00029561e-03f,+1.51466087e-01f,+7.65113682e-02f,+1.85549594e-02f,
-9.16228816e-02f,+6.62664324e-02f,+3.61978337e-02f,-4.84758541e-02f,+2.45514542e-01f,
+1.09622404e-01f,+1.95342988e-01f,+8.00200701e-02f,-2.65561100e-02f,+7.99113959e-02f,
+2.48968396e-02f,+9.77112800e-02f,+1.86389089e-01f,+3.19826543e-01f,-6.99971169e-02f,
-7.30077475e-02f,-1.11833155e-01f,-5.87396324e-02f,+1.67532429e-01f,-1.99635848e-01f,
-3.80778551e-01f,+2.55471706e-01f,-2.68835723e-01f,+1.83570415e-01f,-5.52046895e-02f,
+1.87719315e-01f,+3.22242733e-03f,+8.00424591e-02f,-9.35321674e-02f,+4.95263308e-01f,
+1.85616642e-01f,+4.53767143e-02f,-5.46495654e-02f,+1.78250402e-01f,-6.70649931e-02f,
+5.57392091e-02f,-7.74188638e-02f,+1.12403743e-01f,+1.38485119e-01f,-1.21459290e-01f,
+1.42499562e-02f,+3.51053715e-01f,+3.26962352e-01f,-1.14894129e-01f,+4.80699800e-02f,
+2.05567062e-01f,+6.74665421e-02f,-1.65048987e-02f,+2.53186166e-01f,+1.59893837e-02f,
-3.04672979e-02f,+1.99583799e-01f,-2.02804357e-01f,+5.78046888e-02f,+6.63809478e-02f,
+8.92238840e-02f,+1.78428516e-01f,+2.93014407e-01f,+1.63546816e-01f,-1.12420164e-01f,
-2.56561190e-01f,-1.35749262e-02f,+1.05187826e-01f,+4.71302979e-02f,-1.01200946e-01f,
+7.28579611e-02f,+3.36110711e-01f,+1.94889620e-01f,-7.55451545e-02f,+9.03128609e-02f,
-1.13421725e-02f,-2.84916341e-01f,+7.84591734e-02f,+1.30130067e-01f,+1.43086761e-01f,
-2.93524772e-01f,+7.05760121e-02f,+8.95616710e-02f,-1.61447302e-02f,-5.26504740e-02f,
+1.09703220e-01f,-2.54909173e-02f,-3.16107459e-02f,+2.66919155e-02f,+2.89681251e-04f,
+1.48129314e-01f,+1.71219811e-01f,+4.94886413e-02f,-1.96593851e-02f,-3.48490439e-02f,
-1.73690066e-01f,-1.51631907e-01f,+1.69446900e-01f,+1.10231079e-01f,+2.08059326e-02f,
+7.99696296e-02f,+1.18801586e-01f,+4.02342975e-02f,-3.23914081e-01f,+2.74083018e-01f,
-1.22858183e-02f,+2.23196387e-01f,+5.18297218e-02f,+1.98756307e-02f,+5.70640638e-02f,
-3.35839272e-01f,-1.64720997e-01f,+2.81926155e-01f,-3.73674966e-02f,+1.30749345e-01f,
+3.13802898e-01f,+1.47240922e-01f,+4.80722636e-02f,+1.89593226e-01f,+4.29361425e-02f,
-3.45614888e-02f,+4.96949162e-03f,+2.18144879e-01f,+1.44246683e-01f,+1.02431513e-01f,
+1.05905116e-01f,+2.46958025e-02f,+7.86198154e-02f,-3.93131375e-01f,+2.40624890e-01f,
-5.96795976e-02f,-4.74287430e-03f,-3.08398604e-01f,-3.11683211e-02f,+1.22191384e-01f,
+6.21195845e-02f,-1.62698314e-01f,+1.07276909e-01f,+5.04241213e-02f,-8.54113102e-02f,
+1.82389587e-01f,+4.62112464e-02f,+5.93229616e-03f,+1.59011900e-01f,+2.27444977e-01f,
-2.17960924e-01f,+2.76694655e-01f,-1.23063736e-01f,+4.86918446e-03f,+3.94144922e-01f,
+8.82032141e-02f,-7.26122186e-02f,+2.69963332e-02f,-1.83009252e-01f,+1.36524409e-01f,
-9.55076590e-02f,+1.28747910e-01f,-1.68969318e-01f,-2.43340269e-01f,-8.28700215e-02f,
-2.61533380e-01f,+2.04882156e-02f,-4.94911522e-02f,-8.56713355e-02f,-2.74853017e-02f,
+1.37924757e-02f,+9.95817035e-02f,-2.89461970e-01f,-7.26158693e-02f,-2.08690390e-01f,
-2.35241145e-01f,-1.35987684e-01f,+5.14210612e-02f,-3.00521702e-01f,-3.61396402e-01f,
-1.88491922e-02f,+9.10474220e-04f,+5.84369972e-02f,-3.91613925e-03f,+1.52460873e-01f,
+3.76913846e-01f,-2.47244596e-01f,+1.91980273e-01f,+9.60639566e-02f,-2.96750907e-02f,
-1.38145626e-01f,-9.29648280e-02f,-1.24571033e-01f,+7.35253766e-02f,+1.36267945e-01f,
+1.26808673e-01f,+1.89692706e-01f,-4.80509028e-02f,-3.10445815e-01f,+3.69920790e-01f,
-2.59778742e-02f,-2.51578409e-02f,-1.01975881e-01f,+8.77050012e-02f,-2.24257726e-02f,
+1.95671335e-01f,+1.10494964e-01f,+4.24142927e-02f,-1.86187223e-01f,-1.29366498e-02f,
+2.15550289e-02f,-6.38192296e-02f,-8.82870983e-03f,-2.78044820e-01f,+1.07591517e-01f,
+1.04033634e-01f,-2.23849773e-01f,-1.18251368e-02f,-4.38148305e-02f,+2.12863669e-01f,
-2.47081250e-01f,+1.26749977e-01f,+1.97349533e-01f,-3.78045402e-02f,-1.01008015e-02f,
-4.49806591e-03f,+2.18160659e-01f,+4.49048690e-02f,+1.41929597e-01f,+6.41930625e-02f,
-4.97366935e-01f,-2.20674098e-01f,+2.06938460e-01f,+3.09785813e-01f,-2.53107138e-02f,
-1.00024506e-01f,-1.69141054e-01f,-1.57194242e-01f,+7.30336905e-02f,-3.21208499e-02f,
-2.21260533e-01f,+2.18666315e-01f,-5.35738580e-02f,-1.99822441e-01f,+8.26865435e-02f,
+6.09247461e-02f,+8.97374749e-03f,-4.73275185e-02f,-3.69315152e-03f,-8.47193822e-02f,
+4.91889417e-02f,+1.14062913e-01f,+1.09328099e-01f,+2.46815845e-01f,+9.57832411e-02f,
+1.49500698e-01f,-3.02537368e-03f,+1.72023959e-02f,-7.11961836e-02f,-1.09561563e-01f,
-1.76893637e-01f,+4.03434560e-02f,-2.20101699e-02f,+1.99851722e-01f,-8.76081511e-02f,
+2.62996614e-01f,+5.86952269e-02f,-3.39553878e-02f,-1.48725241e-01f,-3.43522280e-01f,
-1.62943274e-01f,+1.68363094e-01f,-2.21247636e-02f,-1.11043274e-01f,+3.67876962e-02f,
-8.25496167e-02f,-2.03846037e-01f,+2.83174179e-02f,+2.95953229e-02f,+3.01431388e-01f,
+2.04707280e-01f,+6.20287769e-02f,-5.13742045e-02f,+4.83174808e-02f,-1.52621001e-01f,
+1.81905031e-02f,-4.23429012e-02f,+1.26316115e-01f,+1.41126215e-01f,-8.68383721e-02f,
-2.77972430e-01f,-1.55211613e-01f,+8.93734470e-02f,-3.40400308e-01f,+2.06069201e-02f,
+7.77734295e-02f,+4.52102115e-03f,-2.33951122e-01f,-1.10202372e-01f,-1.68112949e-01f,
+2.30616760e-02f,-2.48989258e-02f,-1.02444492e-01f,+1.07006095e-01f,+3.22952539e-01f,
+1.63914084e-01f,+1.20560311e-01f,+4.34146486e-02f,+2.93914173e-02f,-2.35109970e-01f,
-4.47459780e-02f,+1.19607866e-01f,+4.63279970e-02f,+2.36673038e-02f,-8.76043364e-02f,
-4.88045551e-02f,+5.77913458e-03f,-1.62245095e-01f,-1.29994631e-01f,-4.61667217e-03f,
+8.38822126e-02f,+9.83991548e-02f,+4.05211113e-02f,+1.91669956e-01f,+2.73776986e-02f,
-1.92604110e-01f,+1.39769092e-02f,-1.09302737e-01f,-7.30577437e-03f,+1.09853940e-02f,
+7.63357431e-02f,+1.34171978e-01f,-5.90160675e-02f,+1.64452326e-02f,+2.27504060e-01f,
+2.77400184e-02f,-4.90985028e-02f,+2.54956305e-01f,+1.97290257e-01f,+3.55211258e-01f,
+2.29353040e-01f,+3.32301378e-01f,+1.13540828e-01f,-1.29690468e-02f,-1.67702958e-01f,
+5.23829572e-02f,-1.18826844e-01f,-2.82246172e-01f,+1.31205037e-01f,-2.07091570e-02f,
+9.50047001e-02f,-4.27339822e-02f,+3.92075516e-02f,+3.49741936e-01f,+1.01032674e-01f,
+9.90840569e-02f,+1.86684817e-01f,-5.79434447e-04f,-2.51161642e-02f,-8.77532735e-02f,
+6.93364888e-02f,+1.19927779e-01f,+3.64674687e-01f,-1.03559807e-01f,+1.97518423e-01f,
-3.46755475e-01f,+7.33575895e-02f,+1.24848738e-01f,+3.19200188e-01f,-1.79920226e-01f,
-2.29952950e-02f,-1.20849535e-01f,+7.80504867e-02f,+1.40688065e-02f,+3.30912471e-01f,
-1.28098801e-01f,-1.05616875e-01f,+1.35472402e-01f,+2.95905590e-01f,+4.81648706e-02f,
+6.70766681e-02f,-1.47076890e-01f,+4.90900695e-01f,+1.23418160e-01f,+9.77979228e-02f,
-6.93903089e-01f,-1.29745275e-01f,-6.41847029e-02f,-3.08254242e-01f,+5.64711690e-02f,
+2.20680274e-02f,-3.33308168e-02f,+6.24067411e-02f,-7.03825206e-02f,-1.24137048e-02f,
-1.99132323e-01f,-3.21390592e-02f,-3.48686427e-02f,-2.21835990e-02f,+7.92819262e-02f,
-2.04055220e-01f,+3.02829117e-01f,-1.51431277e-01f,-1.23001508e-01f,+2.35460967e-01f,
+1.37601763e-01f,+1.34582266e-01f,+5.49836047e-02f,+4.80479710e-02f,-2.78812021e-01f,
-1.95693672e-01f,+6.65931869e-03f,+1.42895669e-01f,+9.70620066e-02f,+1.25180010e-03f,
-2.06953719e-01f,-9.62866098e-02f,+1.25953421e-01f,-3.57415639e-02f,-2.15723962e-01f,
-9.40728467e-03f,+1.36340350e-01f,+3.85835648e-01f,-4.47362615e-03f,+4.06517908e-02f,
-1.77785605e-01f,+5.58817610e-02f,-9.89121422e-02f,+5.46049438e-02f,+3.55024375e-02f,
+4.69537266e-02f,-2.00394019e-01f,+2.52156228e-01f,-1.54083043e-01f,-2.01327309e-01f,
-1.42146841e-01f,+4.56804693e-01f,+1.95502236e-01f,-2.11576104e-01f,+7.64288381e-02f,
-5.33420593e-02f,+1.39785931e-01f,+2.09222600e-01f,+2.58772075e-03f,-2.35415712e-01f,
+4.51013714e-01f,-1.60615101e-01f,-1.65882975e-01f,-1.57254264e-01f,+1.47651106e-01f,
+1.81062669e-01f,+7.99825713e-02f,+5.81451245e-02f,-2.63830394e-01f,+8.18262771e-02f,
-2.83280641e-01f,+1.56199172e-01f,+1.83302969e-01f,-1.12207130e-01f,+5.22337621e-03f,
-2.31160700e-01f,+7.66809136e-02f,-4.59123682e-03f,-1.01862773e-02f,-2.11668417e-01f,
-2.10173160e-01f,-1.19290389e-01f,+2.08776183e-02f,-1.10806637e-01f,+1.62072003e-01f,
-3.29745039e-02f,+3.18358503e-02f,+1.28579766e-01f,+9.06907469e-02f,-2.72952557e-01f,
+1.72980234e-01f,-8.42436925e-02f,+2.28590637e-01f,-3.80032174e-02f,-9.58682969e-02f,
+1.01497201e-02f,+8.16875771e-02f,+1.62502095e-01f,-3.04781854e-01f,+1.91094086e-01f,
-3.71460207e-02f,+4.27792296e-02f,+7.12953359e-02f,-3.19939941e-01f,+1.88369021e-01f,
+1.96356177e-01f,-1.62313804e-01f,-7.72663653e-02f,+1.58584908e-01f,-6.69161454e-02f,
+7.60120945e-03f,+3.63317207e-02f,-2.72046831e-02f,+1.15540437e-01f,-1.55836018e-02f,
-8.65912139e-02f,-1.03792667e-01f,+1.17262140e-01f,+7.17754841e-01f,-9.87745672e-02f,
-4.43960316e-02f,-1.21331625e-01f,-4.26752381e-02f,-2.02418029e-01f,-4.12893921e-01f,
+2.48349290e-02f,-2.08410114e-01f,+2.17051804e-01f,+1.41263902e-01f,+2.76161551e-01f,
-1.49014354e-01f,+2.38169536e-01f,-5.05619161e-02f,+3.95769365e-02f,-6.03513829e-02f,
+2.26425752e-01f,+2.74073929e-01f,+5.03488891e-02f,-3.13462690e-02f,-5.76918982e-02f,
-3.02150715e-02f,+3.04115862e-01f,+8.01287740e-02f,-4.16344553e-02f,+9.22432244e-02f,
-2.41437964e-02f,+7.99234882e-02f,+4.86653522e-02f,+1.04347700e-02f,-6.34483770e-02f,
-1.28548995e-01f,+1.75925680e-02f,+1.74699157e-01f,+2.38804054e-02f,-1.17342226e-01f,
-3.45603585e-01f,-2.70101111e-02f,+7.07399398e-02f,+2.73526069e-02f,+8.64530131e-02f,
+2.46903211e-01f,+3.67488891e-01f,-1.72244757e-02f,-2.09844336e-01f,-8.84728059e-02f,
-2.05491960e-01f,-9.37116146e-02f,-2.00818747e-01f,-4.71254103e-02f,+3.14727873e-01f,
-4.67713699e-02f,+2.30627865e-01f,+2.16834873e-01f,-7.73427114e-02f,-1.72794625e-01f,
-2.55113980e-03f,-1.01014443e-01f,-2.25877851e-01f,+2.37026602e-01f,-1.10531859e-01f,
-5.20464838e-01f,-1.28449619e-01f,-8.59790444e-02f,-3.90102901e-03f,-3.29264224e-01f,
-3.31275426e-02f,+4.46693860e-02f,+8.55682194e-02f,+3.85215700e-01f,-1.86672190e-03f,
-6.26320913e-02f,-1.47256196e-01f,-1.00127742e-01f,-2.79790372e-01f,+4.46583070e-02f,
+2.61660933e-01f,-8.52048919e-02f,-1.79787865e-03f,+1.29773840e-01f,-3.35313976e-01f,
+6.11228170e-03f,+4.47197497e-01f,+2.94326514e-01f,+2.49469951e-02f,+3.88688850e-03f,
-4.59595434e-02f,-5.91746829e-02f,-2.59673625e-01f,+8.95103160e-03f,-4.65022661e-02f,
+2.19768435e-01f,+1.34895548e-01f,-2.16444209e-01f,-5.22686876e-02f,-5.73024489e-02f,
+3.14116538e-01f,-1.31157115e-01f,+5.27406186e-02f,+8.65334570e-02f,+7.27714077e-02f,
+1.54046342e-01f,+8.89609754e-02f,+1.10793903e-01f,+9.50365514e-03f,-1.25622913e-01f,
+3.14297885e-01f,-2.53225982e-01f,-7.33281970e-02f,+2.76395559e-01f,-8.18186402e-02f,
-4.60481316e-01f,+1.07440129e-01f,+1.45757496e-01f,+1.79480180e-01f,+5.91996685e-02f,
-8.04623067e-02f,+2.50269417e-02f,+7.11609572e-02f,+9.07330364e-02f,+2.01420337e-01f,
+1.98791265e-01f,+9.49270502e-02f,-5.60597852e-02f,-2.59172052e-01f,-1.31965250e-01f,
+6.58334643e-02f,-5.38280867e-02f,+2.20455721e-01f,+2.41276368e-01f,-9.48554203e-02f,
+2.12611660e-01f,-3.80438939e-02f,-2.11806640e-01f,-1.18453547e-01f,-1.84697397e-02f,
-4.88350056e-02f,+7.96752870e-02f,-9.74563509e-02f,-2.57439107e-01f,+2.02000380e-01f,
-1.36461109e-01f,-1.34127930e-01f,-9.50658321e-02f,+2.83815652e-01f,+2.00126886e-01f,
+3.31086099e-01f,-2.28561163e-01f,-1.77874640e-01f,+9.40101966e-02f,+2.68621922e-01f,
-4.11500260e-02f,+2.39597201e-01f,+1.22223757e-01f,+2.88703106e-03f,+1.22812025e-01f,
+6.03314750e-02f,-3.46287966e-01f,+1.09105874e-02f,-1.64138332e-01f,+9.97680873e-02f,
+8.46992582e-02f,+2.24473998e-01f,+2.31317520e-01f,+8.85832906e-02f,+2.66317409e-02f,
-1.84735909e-01f,-9.54255555e-03f,-2.47287542e-01f,-1.06099911e-01f,-1.07296482e-01f,
+4.68548909e-02f,+2.67013103e-01f,+7.16208294e-02f,+1.20052800e-01f,+4.73603327e-03f,
-5.05980700e-02f,-3.44574362e-01f,-1.97262004e-01f,+1.75227672e-01f,+8.70410576e-02f,
+1.91207483e-01f,-4.29291204e-02f,+4.34349209e-01f,+3.30509618e-03f,+1.14974223e-01f,
-3.15069780e-02f,+6.92477729e-03f,+8.50887969e-02f,-1.17448695e-01f,+9.56481397e-02f,
+1.28744841e-01f,+5.14087267e-02f,+9.23126787e-02f,-2.28910565e-01f,+2.97779381e-01f,
-2.37370208e-01f,+9.16995555e-02f,-7.32940733e-02f,+3.78780961e-01f,-1.35385394e-01f,
-3.46194863e-01f,+1.37536556e-01f,+1.31722214e-02f,-5.15696704e-02f,+2.43454546e-01f,
+1.48876265e-01f,+3.38136464e-01f,+4.25745957e-02f,+1.32895395e-01f,-1.09634936e-01f,
+1.81477144e-01f,-2.09905431e-01f,+2.11420402e-01f,+1.74952839e-02f,+1.68104142e-01f,
+4.56340723e-02f,+1.29675910e-01f,+3.42492014e-02f,+2.80809879e-01f,-3.77664901e-02f,
-1.23120900e-02f,+1.41313270e-01f,+1.56906713e-02f,+2.96355449e-02f,-1.07795075e-02f,
-4.66571609e-03f,+5.75163625e-02f,-7.47344717e-02f,+2.66111970e-01f,+5.25618605e-02f,
+2.65401676e-02f,+1.56641886e-01f,-2.33026206e-01f,+2.90406376e-01f,-9.28132702e-03f,
+1.77856907e-01f,-1.36133999e-01f,-8.98386165e-03f,+4.87752743e-02f,+6.26090318e-02f,
+3.55708927e-01f,+1.23175941e-01f,+1.83822066e-01f,-4.74055372e-02f,+1.03128236e-02f,
+4.68481630e-02f,+3.36610824e-01f,-2.09672123e-01f,+6.93502948e-02f,-1.93429485e-01f,
+3.78451496e-02f,-1.24039777e-01f,-1.16169311e-01f,+1.74415205e-02f,+3.55560407e-02f,
-9.77688003e-03f,-3.20469677e-01f,+1.47212088e-01f,-2.05940567e-02f,+3.15136433e-01f,
-1.96247786e-01f,-2.01610789e-01f,-1.08687557e-01f,+3.61665875e-01f,-1.29141778e-01f,
+7.53494119e-03f,+1.65563121e-01f,-1.19926907e-01f,+1.20503172e-01f,+1.98910996e-01f,
+1.93991885e-01f,+1.41553104e-01f,+3.41020226e-01f,-1.77264646e-01f,-2.70719767e-01f,
+6.72166124e-02f,-1.87664956e-01f,-7.32395947e-02f,-2.76074231e-01f,+1.31890908e-01f,
-6.11812156e-03f,-9.47950501e-03f,+2.92981565e-01f,+8.29690993e-02f,+1.67417064e-01f,
+7.92119931e-03f,+2.23581582e-01f,+1.77110389e-01f,+1.26045421e-01f,-1.05862074e-01f,
+1.96570382e-01f,-1.47592708e-01f,-1.24715835e-01f,-8.45364109e-02f,-9.03874338e-02f,
+2.90024668e-01f,-7.61934817e-02f,-6.16402850e-02f,-1.25863284e-01f,-2.14662686e-01f,
-5.73486201e-02f,+1.20521642e-01f,-9.00324620e-03f,-3.56425159e-02f,+1.80670574e-01f,
+1.13925189e-01f,+2.12507159e-01f,+2.42723897e-01f,-4.91411649e-02f,+2.98923135e-01f,
+1.15990467e-01f,-5.42413533e-01f,-2.16094360e-01f,-9.15396512e-02f,-1.55206636e-01f,
-6.71453848e-02f,+2.43577763e-01f,+2.63028234e-01f,+5.95003227e-03f,+3.77037674e-01f,
+2.07815915e-01f,+1.20064244e-01f,+7.54007474e-02f,+1.91848963e-01f,+5.79569712e-02f,
+2.44031131e-01f,+2.47147053e-01f,-1.54309124e-01f,+4.42404419e-01f,+1.21010415e-01f,
+5.30836880e-02f,-3.29259276e-01f,-5.88325560e-02f,-8.96516442e-02f,+2.15034619e-01f,
+2.18354210e-01f,+2.03375518e-01f,+3.31851747e-03f,-1.55879498e-01f,-1.00779064e-01f,
+6.19460493e-02f,-4.31446210e-02f,+9.15704109e-03f,-8.35254416e-02f,-5.36551699e-02f,
+1.66043699e-01f,-1.34376779e-01f,-3.97728896e-03f,+2.18796894e-01f,-3.54662514e-03f,
+4.90725666e-01f,-1.46230131e-01f,+5.98159097e-02f,+2.11757928e-01f,+1.12974383e-01f,
+4.40831594e-02f,+1.51998758e-01f,+2.21041813e-02f,-2.38617525e-01f,+2.72463381e-01f,
+4.61656898e-02f,+7.25473687e-02f,+8.58294889e-02f,-1.41353160e-03f,-1.07742347e-01f,
+1.60313204e-01f,+1.67096958e-01f,+4.40964028e-02f,+1.71341151e-01f,-7.07815737e-02f,
+3.26434255e-01f,-1.23136677e-01f,+2.80242592e-01f,-2.38677442e-01f,+2.45432500e-02f,
-2.30294749e-01f,-9.94276404e-02f,-8.77981484e-02f,-1.74699619e-01f,-2.04744026e-01f,
+5.29848114e-02f,+2.91165262e-01f,-3.65162338e-03f,-9.13832560e-02f,+2.80567795e-01f,
+1.70944348e-01f,+1.43525928e-01f,-9.73738655e-02f,+4.73273724e-01f,-3.62849563e-01f,
+1.81268081e-02f,-1.95841834e-01f,+5.34398146e-02f,-2.28894949e-02f,-1.77756503e-01f,
-3.23959261e-01f,-9.94706675e-02f,+4.48449671e-01f,+1.52065560e-01f,-1.43753052e-01f,
+2.60284822e-02f,-1.02347657e-01f,-1.47001923e-03f,-1.51058599e-01f,-1.48056909e-01f,
-7.42042139e-02f,+7.65931904e-02f,-2.39439514e-02f,-1.53823212e-01f,+1.25902772e-01f,
-5.91631718e-02f,+4.40524429e-01f,+5.69498241e-01f,-2.92080700e-01f,+1.64841771e-01f,
+1.03425838e-01f,-9.86939371e-02f,-2.56704111e-02f,+2.73214251e-01f,+6.04389459e-02f,
-1.76788136e-01f,-1.25527024e-01f,+2.03993902e-01f,+7.98714012e-02f,-1.03866883e-01f,
-1.52792081e-01f,-8.07975307e-02f,-7.56071359e-02f,+1.13748414e-02f,+1.06430808e-02f,
+1.41433284e-01f,+7.78438970e-02f,+1.11626208e-01f,-4.67696525e-02f,+7.49708191e-02f,
-1.69185296e-01f,-2.30385050e-01f,-1.98319599e-01f,-3.04706901e-01f,+6.62616417e-02f,
+8.63744766e-02f,+5.92304841e-02f,+1.42790258e-01f,-5.84790111e-02f,+2.11007427e-02f,
-1.79089028e-02f,+1.64484993e-01f,-7.27313086e-02f,-1.46444276e-01f,+3.68766524e-02f,
+3.31800361e-03f,+1.28266379e-01f,+9.44909900e-02f,-1.16191484e-01f,-1.83264300e-01f,
+5.17858490e-02f,-4.17715870e-02f,-4.25778069e-02f,+2.93709129e-01f,-1.38906881e-01f,
-5.28935790e-02f,+2.06330046e-02f,-3.67260724e-02f,-1.43600162e-02f,-6.35759532e-02f,
+7.73029998e-02f,-1.77626118e-01f,+3.03104240e-02f,-7.96484724e-02f,-4.32711607e-03f,
-7.00360388e-02f,+1.13082901e-01f,-2.25965872e-01f,-2.78241038e-02f,-1.23203360e-01f,
-1.35589465e-01f,+7.60655701e-02f,+7.03353062e-02f,-1.00889197e-02f,-1.29500702e-01f,
-1.04515068e-01f,+3.29831839e-01f,+1.22679882e-01f,-4.74687554e-02f,-1.07076392e-02f,
-2.13917658e-01f,-3.22754562e-01f,+2.46790633e-01f,+6.75975829e-02f,-8.57755393e-02f,
+4.87815309e-03f,+8.01549642e-04f,+8.54022279e-02f,-1.73501089e-01f,-1.74171533e-02f,
+1.36975780e-01f,-7.09990188e-02f,+4.71628644e-02f,+3.70730996e-01f,+1.60593376e-01f,
+1.80953011e-01f,-1.56359673e-01f,-3.47724736e-01f,-6.35491237e-02f,+3.13362852e-02f,
-3.35778035e-02f,-2.72980928e-01f,+1.28404081e-01f,-2.93293148e-01f,-2.32987776e-02f,
+5.08232951e-01f,+1.37118936e-01f,+1.21400803e-01f,-1.13813803e-02f,-4.55832221e-02f,
+4.29715104e-02f,+1.56495199e-01f,+4.11430411e-02f,-9.86734554e-02f,-4.88680936e-02f,
+1.26250282e-01f,+3.97568733e-01f,-1.43929437e-01f,+2.39452526e-01f,+3.06993812e-01f,
+2.97625214e-01f,+2.15939712e-02f,-1.69091582e-01f,-1.16270974e-01f,-2.17629105e-01f,
+8.21210369e-02f,-6.72211125e-02f,+1.09712362e-01f,-2.13056058e-01f,+1.39438823e-01f,
+8.89641121e-02f,-1.59197718e-01f,+1.80097923e-01f,+1.84816942e-01f,-2.50286877e-01f,
-2.34610632e-01f,-1.27084464e-01f,-5.26602119e-02f,+3.17792505e-01f,-1.90365396e-03f,
-1.83561042e-01f,+6.53178319e-02f,-4.82270047e-02f,-2.33030632e-01f,+1.04072332e-01f,
+1.52040645e-01f,-3.53881478e-01f,-1.30416498e-01f,+1.29129335e-01f,+7.81057775e-02f,
+2.74168402e-01f,+2.00284630e-01f,-1.22724466e-01f,-2.38031596e-01f,-1.29687980e-01f,
+1.37367666e-01f,+3.66831213e-01f,-1.94003016e-01f,+1.09091729e-01f,-2.26608157e-01f,
-2.18182772e-01f,-1.13290243e-01f,+8.23949352e-02f,-1.64132416e-01f,-2.10081533e-01f,
+1.12657145e-01f,-6.20818026e-02f,+2.90839635e-02f,+8.54752064e-02f,+2.05640599e-01f,
+7.84602463e-02f,+1.00033544e-01f,+1.30680919e-01f,-5.96304797e-02f,+2.41965041e-01f,
+1.65765762e-01f,+1.21649042e-01f,+5.99534400e-02f,-3.27210546e-01f,-9.32681188e-03f,
+9.88894999e-02f,+2.49693125e-01f,-1.88206732e-01f,-3.31755914e-02f,-3.84289622e-02f,
-1.15847714e-01f,+1.25022605e-02f,-3.85543779e-02f,+2.23486990e-01f,+2.47812778e-01f,
+3.99817139e-01f,-1.06504820e-01f,-1.98871037e-03f,+2.38908827e-01f,-2.34084073e-02f,
+6.15075463e-03f,-1.56435706e-02f,-1.16516605e-01f,+2.46703401e-01f,+3.94640639e-02f,
+4.07391153e-02f,+2.93859877e-02f,-1.71380237e-01f,-1.08989060e-01f,+1.61281839e-01f,
+1.28045127e-01f,-4.13335338e-02f,-1.56864505e-02f,-8.21089745e-02f,-4.94251251e-02f,
+6.13433756e-02f,+1.05371460e-01f,+1.99722149e-03f,-1.15563162e-01f,+9.90479253e-03f,
+3.47863361e-02f,+6.83212951e-02f,-1.56531949e-02f,+2.86575764e-01f,+9.99683663e-02f,
+2.42939442e-01f,+1.67901635e-01f,-9.34577957e-02f,+2.55490690e-01f,+8.08217600e-02f,
+6.30106777e-02f,+1.77415654e-01f,-1.90169469e-01f,-3.42331439e-01f,+5.75110652e-02f,
+4.34841722e-01f,-6.97038844e-02f,+9.62432846e-02f,-3.95081230e-02f,+1.99588940e-01f,
-1.75566763e-01f,+1.51383117e-01f,+2.17145771e-01f,-2.99557686e-01f,+1.35730311e-01f,
+2.98613071e-01f,+2.53683385e-02f,-4.75044362e-02f,+1.25910506e-01f,+2.45138705e-02f,
-1.87331885e-01f,-6.46922886e-02f,-4.11786139e-02f,+1.19242601e-01f,+7.20889308e-03f,
+1.23156331e-01f,+1.73295200e-01f,-2.16663554e-01f,-1.02396056e-01f,+9.02831033e-02f,
-5.04990295e-02f,+2.69707292e-01f,-1.04699761e-01f,+8.60446170e-02f,+2.53407151e-01f,
+1.42754391e-01f,+1.60552919e-01f,-8.86133611e-02f,-1.29295886e-01f,+2.64272839e-02f,
+1.42847979e-02f,+2.25771815e-02f,-6.66480362e-02f,-1.56562716e-01f,-1.20435074e-01f,
-1.70678478e-02f,-3.23744752e-02f,-4.07269299e-01f,+7.71687478e-02f,+1.46796048e-01f,
+1.10194765e-01f,-1.26966015e-02f,-1.36440217e-01f,+5.55694848e-02f,-1.29308432e-01f,
+1.87047258e-01f,-2.44288489e-01f,-1.65822327e-01f,-2.74625942e-02f,+1.82805091e-01f,
-3.76324177e-01f,-1.61752462e-01f,-8.31315368e-02f,-2.34056655e-02f,+6.11131229e-02f,
+9.88181308e-02f,+9.99813899e-02f,+5.24880067e-02f,-1.66413069e-01f,+6.67295530e-02f,
+3.68090346e-02f,-8.44765175e-03f,+4.12959186e-03f,+1.79570481e-01f,-1.72674164e-01f,
-3.58121693e-01f,-8.25832859e-02f,+9.92970169e-02f,-4.21835557e-02f,-2.34320730e-01f,
-2.53747046e-01f,+8.01366493e-02f,-2.58362204e-01f,-3.85235064e-02f,+9.09646377e-02f,
-1.23510078e-01f,+1.24752052e-01f,+3.64612080e-02f,-2.48167738e-01f,+9.45611522e-02f,
+4.53268830e-03f,-1.16664074e-01f,-8.85788649e-02f,+1.20534047e-01f,-1.56285495e-01f,
+1.34287193e-01f,+9.51882750e-02f,-1.41470313e-01f,-2.26148620e-01f,-7.00356886e-02f,
-1.76208869e-01f,+1.81702182e-01f,-2.98286751e-02f,+7.55652636e-02f,-1.89119726e-01f,
-1.19215824e-01f,-1.31821305e-01f,+2.73897558e-01f,+1.41772166e-01f,+1.28830686e-01f,
-2.45045070e-02f,-1.18306279e-01f,+1.33706525e-01f,-2.18349129e-01f,-5.62965497e-02f,
+1.88372493e-01f,-1.95946991e-01f,+1.66039303e-01f,+2.17178270e-01f,+2.91688945e-02f,
-8.21525231e-03f,+4.63790400e-03f,+1.26459345e-01f,+8.13496783e-02f,-8.85096937e-02f,
-3.17840017e-02f,-1.42387420e-01f,+5.66691719e-02f,-9.72990617e-02f,+2.37243056e-01f,
-1.14933826e-01f,+2.10987106e-01f,+1.96904957e-01f,+2.17590287e-01f,+8.99276286e-02f,
+2.38634590e-02f,-1.94201916e-01f,-1.93124607e-01f,-4.93420139e-02f,+9.35093686e-02f,
-4.07791466e-01f,+3.76216769e-02f,+1.23915941e-01f,+1.67905256e-01f,+6.81836009e-02f,
-6.20569140e-02f,+7.15083256e-02f,+3.46669964e-02f,+1.62723735e-01f,-1.09101105e-02f,
+8.09270218e-02f,+1.11264750e-01f,+1.22522824e-01f,-1.17710261e-02f,+2.54592188e-02f,
+3.50923166e-02f,-1.81544706e-01f,-6.36929125e-02f,-1.81743920e-01f,+3.02726543e-03f,
-1.30236847e-02f,-1.96170941e-01f,-4.33269851e-02f,+1.24094754e-01f,-5.47907017e-02f,
-6.06389977e-02f,+5.93334548e-02f,-2.92016774e-01f,+6.40530959e-02f,-2.85574257e-01f,
-4.24408987e-02f,-3.75862122e-02f,+7.98375681e-02f,-1.31308734e-01f,+1.37093082e-01f,
-3.26674402e-01f,-1.52703017e-01f,+6.58756793e-02f,-1.20152310e-01f,+4.84170876e-02f,
+2.06114352e-01f,+2.91362684e-03f,-3.61746430e-01f,-4.77394648e-02f,+3.48359309e-02f,
-2.35997483e-01f,-2.14999527e-01f,-4.15731743e-02f,-6.03998601e-02f,+2.02549305e-02f,
+2.30978191e-01f,-8.22887868e-02f,-5.17226458e-02f,-4.40859459e-02f,+3.88889946e-02f,
+1.22135505e-01f,-6.68136775e-02f,-2.15454847e-02f,-2.73116857e-01f,-2.10511699e-01f,
+5.05568050e-02f,-1.42857313e-01f,+2.39440754e-01f,-8.64533931e-02f,+4.27086325e-03f,
+7.42833540e-02f,+1.96899772e-01f,+8.42668265e-02f,-4.09724489e-02f,+2.62609988e-01f,
+3.86956759e-04f,+4.46435735e-02f,-3.81892920e-02f,+2.02554494e-01f,-9.30772200e-02f,
-8.42561647e-02f,+3.75148840e-03f,+2.12574422e-01f,+5.85613102e-02f,-2.36236706e-01f,
-8.74250978e-02f,+6.90325424e-02f,-2.77005527e-02f,-3.94792994e-03f,-6.31058440e-02f,
+1.96524575e-01f,-1.80663288e-01f,+4.94656898e-03f,+1.90830618e-01f,-2.55383044e-01f,
+1.04468346e-01f,-5.05146384e-02f,+1.19275833e-02f,+3.76008600e-02f,-1.78650111e-01f,
+7.66406506e-02f,+2.00462863e-01f,-1.93159714e-01f,-2.90937364e-01f,+1.24430217e-01f,
-3.14089842e-02f,-9.55884233e-02f,+2.80553289e-03f,+1.69946820e-01f,+2.26998478e-02f,
+2.46431589e-01f,-1.04198053e-01f,+3.04153487e-02f,+2.03722134e-01f,+3.25679064e-01f,
+9.60786939e-02f,+3.19925934e-01f,+7.43942186e-02f,+2.34550595e-01f,-2.44507212e-02f,
-5.38229235e-02f,+1.02454536e-01f,-1.31860942e-01f,+4.13207524e-02f,+2.21236069e-02f,
+1.54097900e-01f,-1.55662641e-01f,+2.41245590e-02f,+3.71291578e-01f,-9.43648294e-02f,
+1.10583045e-01f,+1.04494274e-01f,+7.48906424e-03f,-3.03591162e-01f,-4.96947393e-03f,
+2.35825777e-02f,+2.86460724e-02f,-1.76108852e-01f,+1.79845784e-02f,-1.46257952e-01f,
+4.25636359e-02f,+3.07647381e-02f,+2.08659440e-01f,-1.60264060e-01f,-1.51574165e-01f,
-3.48064303e-02f,-1.41143560e-01f,+1.78390425e-02f,-1.41649588e-03f,+1.63184226e-01f,
-5.79249486e-02f,+1.16400942e-01f,+3.06806061e-02f,-2.73393929e-01f,-9.53710899e-02f,
-7.60663599e-02f,-2.08807230e-01f,-4.19508457e-01f,+9.72209573e-02f,-1.43313423e-01f,
-2.03935690e-02f,-7.02562034e-02f,+3.11268922e-02f,+7.22348318e-02f,-7.24916756e-02f,
+4.91895340e-02f,+5.37356036e-03f,-2.57933497e-01f,-1.73015073e-01f,+7.00726584e-02f,
+9.70702246e-02f,-1.50105907e-02f,-7.35451877e-02f,+2.01888174e-01f,-1.66630626e-01f,
-5.77431880e-02f,-7.27478229e-03f,-5.03667556e-02f,-1.46191657e-01f,+2.61613280e-01f,
+5.60909733e-02f,-9.92153808e-02f,-4.47385423e-02f,-3.60383689e-02f,+2.11547967e-02f,
+3.30730975e-02f,+1.17455401e-01f,+6.77419379e-02f,+1.87455654e-01f,+1.34099662e-01f,
-1.03962596e-03f,+1.12804629e-01f,+9.61967036e-02f,+5.89881688e-02f,+1.65637154e-02f,
+8.05338752e-03f,-1.37505084e-01f,+2.47941494e-01f,-4.19704132e-02f,-1.41983852e-01f,
+1.76497959e-02f,-2.26783514e-01f,-1.20798916e-01f,+1.67997442e-02f,-3.37233879e-02f,
-2.39512280e-01f,-2.80608207e-01f,+2.35398591e-01f,-2.06711248e-01f,-1.73538238e-01f,
-9.28714424e-02f,-3.33881825e-02f,-6.70854673e-02f,+2.03701958e-01f,-2.88404942e-01f,
+5.71578182e-03f,+3.12122971e-01f,-1.03521541e-01f,-5.63001633e-02f,-9.77952480e-02f,
+2.13519810e-03f,+8.29252601e-02f,-1.82772279e-01f,+4.77463976e-02f,+2.67492719e-02f,
-1.15357004e-01f,+1.01134576e-01f,-7.46830627e-02f,+1.26551948e-02f,-8.88757557e-02f,
+3.74439619e-02f,-9.02012065e-02f,+1.52670875e-01f,+9.24651846e-02f,+2.00568125e-01f,
+3.89018714e-01f,-5.33582866e-02f,+1.21192984e-01f,-2.94898544e-03f,+1.87241316e-01f,
+1.04132019e-01f,+4.43714142e-01f,-1.20428383e-01f,-3.84106115e-02f,+3.60008001e-01f,
+3.39075148e-01f,+4.82466966e-02f,+1.54095724e-01f,+6.68204874e-02f,-1.47967031e-02f,
+2.04436928e-01f,-3.01599447e-02f,-1.45189211e-01f,-7.08036870e-02f,+3.81940119e-02f,
-3.06134205e-02f,+2.76541650e-01f,+1.14166439e-02f,+8.05849582e-02f,+5.44352345e-02f,
-1.04878694e-01f,+7.75946900e-02f,+8.84786844e-02f,-6.63771406e-02f,+1.67737603e-01f,
+7.09953904e-02f,-1.07709393e-02f,+3.19178812e-02f,+4.31417786e-02f,+3.86544168e-02f,
-6.73734397e-02f,-2.29373500e-01f,+1.88587099e-01f,-1.60239965e-01f,+3.63156497e-01f,
+3.31835866e-01f,-3.16484332e-01f,+1.03945084e-01f,+3.46454717e-02f,+3.38066518e-01f,
+1.31857991e-01f,-6.66172802e-02f,+3.24669272e-01f,-1.21566720e-01f,+6.45774929e-03f,
-7.51469210e-02f,+1.12086730e-02f,+2.65233457e-01f,+3.79956484e-01f,+1.63579397e-02f,
-4.92718853e-02f,-1.56577066e-01f,+2.96569198e-01f,-7.09974617e-02f,-8.27128813e-02f,
+6.73542768e-02f,+1.08369358e-01f,-2.56556451e-01f,+1.48930177e-01f,-1.66454837e-01f,
-3.55668589e-02f,-1.10991605e-01f,+1.92098305e-01f,-2.32848078e-01f,-7.05292225e-02f,
+8.59994516e-02f,+4.51298431e-02f,+1.77652776e-01f,-3.60137433e-01f,-1.71415642e-01f,
-9.70703140e-02f,-5.77288270e-02f,+1.17160849e-01f,-3.44899267e-01f,+3.21882255e-02f,
-2.59214878e-01f,+2.20796242e-01f,+9.65728685e-02f,+5.69954813e-02f,+3.96379560e-01f,
-1.40880169e-02f,-1.62226632e-01f,+8.99130628e-02f,+2.87239432e-01f,+1.23537607e-01f,
+3.15902159e-02f,+3.39998142e-03f,-1.53230935e-01f,-2.37808421e-01f,+7.22002685e-02f,
-1.34572402e-01f,+4.37427461e-02f,-4.74869721e-02f,-1.88668653e-01f,+4.87319753e-02f,
+9.68828518e-03f,-4.79485095e-02f,+1.67404115e-01f,+2.42475078e-01f,+3.62423509e-02f,
-1.43454317e-02f,-1.29202381e-02f,+6.16761530e-03f,+2.15790361e-01f,-9.05401632e-02f,
-7.88607225e-02f,-7.36636594e-02f,+2.12226957e-01f,-2.21390605e-01f,+1.49466917e-01f,
+1.84723083e-02f,+1.09807536e-01f,-3.52583379e-02f,-2.35670745e-01f,-4.50553373e-02f,
-1.17656462e-01f,+6.12933338e-02f,-8.82438198e-02f,+9.28900763e-02f,-4.80584055e-02f,
+5.34717850e-02f,-1.30981416e-01f,+2.97817320e-01f,-1.24687843e-01f,-1.05593741e-01f,
+2.47681164e-03f,+4.36283508e-03f,-2.33246274e-02f,+2.06745148e-01f,+1.18309617e-01f,
-2.77862281e-01f,+1.80586085e-01f,-2.01224033e-02f,+1.02564096e-01f,-5.85591458e-02f,
+8.29418600e-02f,+3.87294412e-01f,+2.03382656e-01f,-1.49843857e-01f,+1.74076781e-01f,
+7.41831362e-02f,-3.06609303e-01f,+1.03067338e-01f,+1.02200337e-01f,-3.41661006e-01f,
-4.57521230e-02f,+2.23322347e-01f,-3.98511261e-01f,+5.94755337e-02f,+3.80089357e-02f,
-3.03376168e-02f,-1.04859419e-01f,-2.20263302e-01f,-1.53911278e-01f,-8.52164701e-02f,
+8.11599195e-02f,+1.16899416e-01f,-2.03896329e-01f,+9.51752886e-02f,-1.52690977e-01f,
-1.64912745e-01f,-8.24746788e-02f,+6.63997307e-02f,+1.69634938e-01f,+1.62900448e-01f,
+1.02454662e-01f,-3.32946144e-02f,+7.54479244e-02f,+5.62369265e-03f,+3.06898877e-02f,
-1.09721109e-01f,+1.24223731e-01f,+2.95046061e-01f,-2.62654096e-01f,+1.79634005e-01f,
+1.13161393e-01f,-4.71568815e-02f,-1.32317081e-01f,+4.26706532e-03f,-9.67484713e-02f,
+2.29072079e-01f,+5.31172790e-02f,-4.48938198e-02f,-1.01733111e-01f,+1.74814582e-01f,
-1.35090664e-01f,+1.98821165e-02f,-3.59503269e-01f,+1.69530809e-01f,-2.23792475e-02f,
+1.82911754e-01f,+1.24054275e-01f,-1.34186789e-01f,+5.98845854e-02f,-1.87667608e-02f,
+6.59215599e-02f,+5.02774194e-02f,+5.39990626e-02f,+8.89598578e-02f,-6.07772060e-02f,
-4.99586388e-02f,+1.81160614e-01f,-9.25682113e-02f,+1.38049170e-01f,+1.88015282e-01f,
+1.32039100e-01f,-6.06031790e-02f,-4.81573902e-02f,-8.83249566e-03f,+1.39652163e-01f,
-1.94143709e-02f,+5.93674509e-03f,+3.93365249e-02f,-7.20638484e-02f,-1.20913364e-01f,
+6.17285743e-02f,-1.90239511e-02f,+2.13387594e-01f,+1.80211201e-01f,-2.66678154e-01f,
+2.09578574e-01f,-1.36127204e-01f,-1.29779488e-01f,+1.13975577e-01f,-1.11915141e-01f,
-1.55585766e-01f,-8.13023448e-02f,+6.47350028e-03f,-3.22130322e-02f,-1.87572107e-01f,
-2.72466183e-01f,-1.15969494e-01f,-1.24867007e-01f,+3.49418446e-02f,-1.87474266e-01f,
-2.46978085e-03f,+1.51211172e-01f,-1.97619155e-01f,+8.55016112e-02f,-4.57805321e-02f,
+1.55471954e-02f,+1.83601856e-01f,+2.81657502e-02f,-1.15878526e-02f,+1.00234121e-01f,
+1.50772482e-01f,+1.44260572e-02f,-2.03349471e-01f,-1.82094604e-01f,-1.06519617e-01f,
-7.12120980e-02f,+1.60099670e-01f,+2.81133652e-01f,+1.48122280e-03f,+2.40555912e-01f,
+1.34713039e-01f,+1.23658411e-01f,-3.00800204e-02f,-1.58545107e-01f,-1.24680996e-01f,
-7.39631578e-02f,+5.06031960e-02f,+4.61361185e-02f,-2.92252809e-01f,+6.26888126e-02f,
-1.60438046e-01f,+3.01517248e-01f,-2.28800058e-01f,+2.53577501e-01f,+1.73326984e-01f,
+1.29751745e-03f,+8.93156976e-02f,+6.99311048e-02f,-2.58589461e-02f,-1.39838215e-02f,
+6.19001279e-04f,-7.76198432e-02f,-2.48970781e-02f,+1.18733935e-01f,+1.38380721e-01f,
+1.29708230e-01f,-2.63117492e-01f,+1.07629918e-01f,-2.59153575e-01f,+2.18102455e-01f,
+4.06421244e-01f,+2.86120862e-01f,-1.66157871e-01f,-8.52310583e-02f,+1.27224162e-01f,
-1.28227416e-02f,+4.05099452e-01f,+1.04394719e-01f,+1.41986698e-01f,+2.16112643e-01f,
+8.51199925e-02f,-6.27598688e-02f,+1.21805761e-02f,-6.73848316e-02f,-1.97566338e-02f,
+6.19272403e-02f,+1.94859788e-01f,-6.79244995e-02f,-1.57957792e-01f,+3.08197606e-02f,
+2.11288363e-01f,-1.41635630e-02f,-2.35869214e-01f,-5.80680445e-02f,+5.26906699e-02f,
-3.30504254e-02f,-1.59720406e-02f,-7.24284258e-03f,-2.68561542e-01f,-3.71413641e-02f,
+1.17524579e-01f,-1.04656808e-01f,-1.70171157e-01f,-9.58264172e-02f,-9.15689468e-02f,
+2.10251138e-01f,+7.59735107e-02f,+1.12478279e-01f,+1.58966348e-01f,+4.22991998e-02f,
-2.89363116e-01f,+1.27699345e-01f,-3.81577760e-02f,-1.08424900e-02f,-4.36657101e-01f,
-1.09505624e-01f,-1.60149932e-01f,-5.62513387e-03f,+7.07157254e-02f,-6.86856806e-02f,
-6.93082139e-02f,+9.86073241e-02f,-1.85200423e-02f,-8.61500204e-03f,+4.39591557e-02f,
-4.09932911e-01f,-9.86658633e-02f,-1.98044218e-02f,-1.21858902e-01f,-1.34474739e-01f,
+3.87695998e-01f,+6.24151481e-03f,+2.01444641e-01f,+2.97791660e-01f,-4.47412580e-02f,
+7.27969483e-02f,+2.44124070e-01f,+1.20196685e-01f,+6.39211461e-02f,+7.92266279e-02f,
-2.42948070e-01f,+5.71149327e-02f,+2.91603357e-02f,+5.18320827e-04f,+4.60971473e-03f,
+1.21434517e-01f,-2.92416406e-03f,-5.82771227e-02f,+7.77621716e-02f,+8.88872966e-02f,
-1.37053505e-01f,-3.43845487e-02f,+6.81890454e-03f,-3.16685975e-01f,+3.28269862e-02f,
-8.98405686e-02f,-1.53593734e-01f,-2.68164445e-02f,+3.81003261e-01f,-1.47174135e-01f,
+2.62597669e-02f,-1.23067610e-01f,+6.46000868e-03f,-2.25040033e-01f,-5.19856699e-02f,
+9.61207077e-02f,+2.48231669e-03f,-1.04712330e-01f,-4.31212932e-02f,+1.76084146e-01f,
+1.54286936e-01f,+8.28479901e-02f,+5.05726114e-02f,+2.51174551e-02f,+1.49066299e-01f,
+2.54248947e-01f,+9.90153998e-02f,+3.98678556e-02f,+1.36522859e-01f,+1.31426498e-01f,
-1.38010979e-02f,-2.64400598e-02f,+8.27258900e-02f,-6.53731301e-02f,+8.63690376e-02f,
+3.01372588e-01f,+1.42181009e-01f,-1.81312859e-01f,-1.94051161e-01f,-3.53221856e-02f,
-1.39804184e-01f,+5.35866134e-02f,-7.10982010e-02f,+1.45290410e-02f,-1.34341851e-01f,
-2.28394017e-01f,-2.32740734e-02f,+3.12832385e-01f,+9.57091376e-02f,+1.40994946e-02f,
+1.74033731e-01f,+6.95004761e-02f,+2.02801466e-01f,-5.04066497e-02f,+2.02400744e-01f,
+1.55754000e-01f,+4.36095819e-02f,-1.96567684e-01f,+3.64915282e-02f,-1.30973294e-01f,
-4.95654938e-04f,+1.09174430e-01f,-5.10093533e-02f,-5.83209321e-02f,+1.59712031e-01f,
+1.47856306e-03f,+1.06068060e-01f,-2.14006469e-01f,-4.89588201e-01f,-3.22395474e-01f,
-4.08475921e-02f,+2.56387681e-01f,+1.03422165e-01f,+2.58909971e-01f,+3.00872207e-01f,
-2.68605631e-02f,-1.10842556e-01f,-1.46489322e-01f,+1.28200203e-01f,+1.38052151e-01f,
+2.08152220e-01f,-1.56337783e-01f,+1.65862411e-01f,-2.48877499e-02f,-6.06630556e-02f,
-1.09098636e-01f,-2.30885431e-01f,-8.02763253e-02f,+1.04046576e-01f,-2.35950842e-01f,
+2.39295080e-01f,+2.20782265e-01f,+9.07238275e-02f,-7.21554533e-02f,-3.21057811e-02f,
-2.47959793e-01f,-2.17682660e-01f,-2.43481360e-02f,-5.74480295e-02f,+5.54399826e-02f,
-4.37965095e-02f,+5.91757335e-02f,+1.05253436e-01f,+2.86626071e-01f,-3.01986009e-01f,
+2.53528096e-02f,+2.75150776e-01f,-9.66339558e-02f,-8.81870985e-02f,-1.12483084e-01f,
+3.21072549e-01f,+1.41830415e-01f,-1.38770223e-01f,+6.45040348e-02f,+1.97533995e-01f,
+3.29928905e-01f,+3.65675911e-02f,-8.83977041e-02f,+2.71869689e-01f,+1.13210054e-02f,
-1.28653899e-01f,-8.23816657e-02f,+1.62548020e-01f,+1.55467242e-02f,-3.20942104e-01f,
+1.09970152e-01f,+5.06541729e-01f,-4.09032881e-01f,-1.22113071e-01f,-1.43358842e-01f,
+6.53199628e-02f,+1.12720825e-01f,+1.71616018e-01f,-3.00620973e-01f,+1.98975965e-01f,
-1.77865115e-03f,-2.43150373e-03f,-2.45012969e-01f,-1.10016391e-01f,-1.77811116e-01f,
-8.17564577e-02f,-9.77838635e-02f,+2.51585454e-01f,+3.45018119e-01f,+2.49138132e-01f,
+8.19924474e-02f,-1.73436195e-01f,+8.12424868e-02f,+2.50001162e-01f,-5.76170906e-02f,
+9.27682668e-02f,+2.65616357e-01f,+8.60294029e-02f,-1.14470050e-01f,+1.54518932e-01f,
-2.27661073e-01f,+3.79235864e-01f,-2.75066942e-01f,+8.43122154e-02f,+1.09494328e-01f,
-8.10296014e-02f,+8.34562108e-02f,+6.94075823e-02f,+7.57639259e-02f,-1.87795074e-03f,
-2.06361145e-01f,-1.43260993e-02f,-2.33710743e-02f,-1.77806124e-01f,+2.37841263e-01f,
+2.93471426e-01f,-4.82247919e-02f,-8.79309475e-02f,+2.62191176e-01f,-5.94817102e-03f,
-8.52501392e-02f,+3.16863865e-01f,-1.39847115e-01f,+2.26179212e-01f,-1.88213184e-01f,
+2.31038094e-01f,+9.89118218e-03f,-2.67471254e-01f,+2.49393731e-01f,+3.69719177e-01f,
+7.35005438e-02f,+1.67237386e-01f,+9.12119895e-02f,+2.52310514e-01f,+1.21372243e-04f,
+2.28683501e-01f,+2.30652001e-02f,-2.32570723e-01f,-1.65405765e-01f,-1.74280211e-01f,
-3.45900771e-04f,+2.83304346e-03f,-3.14021230e-01f,+1.83687732e-02f,-1.60300434e-01f,
+1.53572589e-01f,+8.26508105e-02f,-3.73212434e-02f,+7.88145810e-02f,-3.39589491e-02f,
-2.14525424e-02f,+2.26589635e-01f,-1.64469250e-03f,+2.96262000e-02f,-1.87837228e-01f,
+8.91426057e-02f,+2.01484054e-01f,-1.05004646e-01f,+2.12831080e-01f,+2.44358703e-01f,
-1.42623112e-01f,-1.59015115e-02f,+4.85430807e-02f,-1.72421902e-01f,+2.03090683e-01f,
+4.49107252e-02f,+1.65260598e-01f,+2.24464640e-01f,-9.60375145e-02f,+8.74864459e-02f,
-1.29653275e-01f,+1.76930204e-01f,-7.02713355e-02f,+3.33261758e-01f,+1.78849161e-01f,
-5.61734661e-03f,+1.46467671e-01f,-1.81318402e-01f,+1.77504182e-01f,+2.80191340e-02f,
-1.48307607e-02f,+1.26009643e-01f,-1.58900857e-01f,+4.05247614e-04f,+2.16010362e-01f,
+4.56626490e-02f,-1.30632490e-01f,-6.75022900e-02f,-5.49698295e-03f,-2.04114929e-01f,
-9.05489624e-02f,-8.10010061e-02f,+5.40386699e-02f,-7.64529407e-02f,-1.86649397e-01f,
+5.46422079e-02f,-5.00332331e-03f,-3.95149708e-01f,+4.51783016e-02f,-8.35389718e-02f,
+2.48080902e-02f,-1.06037758e-01f,-1.35800064e-01f,-1.79450676e-01f,-1.54845163e-01f,
+3.58055532e-02f,-7.01088756e-02f,+4.15597588e-01f,+3.92058820e-01f,-1.09881731e-02f,
-1.89176992e-01f,+1.12653129e-01f,+1.40806004e-01f,+1.09838650e-01f,+1.52836978e-01f,
-3.99993733e-02f,-1.17372550e-01f,+1.69606552e-01f,+5.86958118e-02f,-4.51344326e-02f,
+2.08182618e-01f,+2.12504625e-01f,+3.88047583e-02f,-2.79309903e-03f,+8.70594680e-02f,
+1.16614856e-01f,-8.63768533e-02f,+1.35095809e-02f,-8.82263556e-02f,-1.95926234e-01f,
+3.19526136e-01f,-1.20596029e-01f,+1.45293260e-02f,+1.43941179e-01f,+1.33986935e-01f,
+1.85977966e-01f,+3.81270051e-02f,+1.79303363e-02f,+2.24924967e-01f,-7.99182579e-02f,
+1.08383298e-01f,+2.65203774e-01f,+3.09272349e-01f,-1.37100697e-01f,+1.16562486e-01f,
-3.06003183e-01f,-3.85643132e-02f,-4.04436439e-01f,-6.45410456e-03f,-6.33270666e-02f,
+4.60697897e-02f,-1.32843986e-01f,-1.01850897e-01f,+6.45766258e-02f,+2.30644733e-01f,
+1.59358621e-01f,+7.09393770e-02f,+7.43253082e-02f,-1.50001287e-01f,-2.56908208e-01f,
+6.39292076e-02f,+2.19116926e-01f,-8.81677121e-02f,-1.02823507e-02f,+1.09642304e-01f,
+1.09736562e-01f,-2.44708806e-01f,+1.44341066e-01f,-8.13096948e-03f,+1.19064942e-01f,
-1.09998412e-01f,-7.55500570e-02f,-2.50203192e-01f,+1.33984774e-01f,+3.66512537e-01f,
-2.28308747e-03f,+2.19916448e-01f,-3.00691277e-01f,-1.53804235e-02f,+2.32745577e-02f,
+7.09165111e-02f,-7.99042732e-02f,+2.24569857e-01f,+3.17748755e-01f,+2.92861871e-02f,
-5.87331019e-02f,-4.20260131e-02f,+7.60589913e-02f,+3.71405423e-01f,+1.61828715e-02f,
+4.42668162e-02f,+2.21868336e-01f,+1.24996789e-01f,-9.54706445e-02f,-1.02125481e-01f,
-1.45035326e-01f,+9.68776420e-02f,-5.32131754e-02f,+1.26772150e-01f,+1.13796823e-01f,
-5.49669862e-02f,+1.07862659e-01f,+2.37059593e-02f,-1.92384906e-02f,-2.03054145e-01f,
-2.56969687e-03f,+2.97371894e-01f,-7.42103383e-02f,-6.17909953e-02f,-8.75167921e-02f,
-4.81740721e-02f,+9.83779356e-02f,+1.30383059e-01f,+6.53493330e-02f,-7.85323903e-02f,
-6.60526508e-04f,+5.75199649e-02f,+1.25203103e-01f,-1.61059067e-01f,+6.62598107e-03f,
-6.18786514e-02f,-1.04107276e-01f,-2.71415472e-01f,-2.59440929e-01f,+1.57208413e-01f,
+4.83382232e-02f,-2.31974885e-01f,+2.99217124e-02f,+7.08598942e-02f,+1.89956859e-01f,
+6.34210631e-02f,+4.18637656e-02f,+3.54321182e-01f,-2.05370352e-01f,+7.39547610e-02f,
+2.87855361e-02f,+1.35249674e-01f,-4.43659313e-02f,-2.86725722e-02f,+1.36528546e-02f,
-2.68085778e-01f,-4.05548178e-02f,-9.22267139e-02f,-5.10957763e-02f,-1.90718517e-01f,
+2.96271946e-02f,+2.17820197e-01f,+3.00554428e-02f,+1.68965191e-01f,-2.68253926e-02f,
-4.97403033e-02f,-4.28464543e-03f,-2.94668019e-01f,+7.33486414e-02f,+6.01716526e-02f,
+1.55126169e-01f,+6.14459142e-02f,+2.41792545e-01f,-2.65032679e-01f,-2.05488056e-01f,
+2.95186847e-01f,-9.80877653e-02f,-8.75307769e-02f,+1.17792241e-01f,-4.82280739e-02f,
+2.53343791e-01f,-1.46400794e-01f,-1.99661240e-01f,+2.43922487e-01f,-1.74656868e-01f,
-9.30669755e-02f,+2.45996520e-01f,+1.58325851e-01f,+2.07547083e-01f,+1.67637080e-01f,
-2.81760931e-01f,+4.76423725e-02f,-4.65164408e-02f,+5.30965440e-02f,-6.15572371e-02f,
-2.44433388e-01f,-1.70966849e-01f,-1.69174716e-01f,+7.09710419e-02f,+2.91956607e-02f,
-1.41433984e-01f,+2.20353872e-01f,-1.07557498e-01f,-2.82690395e-03f,+1.55555651e-01f,
-5.00846142e-03f,-3.83197337e-01f,+8.91481936e-02f,-1.72778741e-01f,+2.40269616e-01f,
-1.13936558e-01f,-3.11641753e-01f,+1.19871274e-01f,-1.35274664e-01f,+2.53687471e-01f,
-1.52251244e-01f,+2.84911245e-01f,+3.60161155e-01f,+9.50818807e-02f,-8.53060707e-02f,
-1.49036974e-01f,+2.78032869e-01f,-1.55910850e-01f,-1.48376495e-01f,+1.00901395e-01f,
+3.91607195e-01f,-8.92550424e-02f,-1.50658458e-01f,-3.11218679e-01f,-1.17872253e-01f,
-1.73161939e-01f,-4.68418375e-02f,-2.21947283e-01f,+2.59161025e-01f,-2.09441587e-01f,
+1.30595505e-01f,+2.07497492e-01f,+1.42535359e-01f,-1.54854357e-01f,+1.59995317e-01f,
-2.92254984e-01f,-4.51954193e-02f,+2.35538810e-01f,+4.55026701e-02f,+2.08343819e-01f,
+1.18764974e-01f,-4.56024632e-02f,-2.23961398e-01f,-1.42968684e-01f,+1.44639194e-01f,
-7.41920620e-02f,+2.48157308e-01f,-2.73885310e-01f,-1.49057526e-02f,+9.80692208e-02f,
-9.15427506e-02f,-2.26521298e-01f,-5.37824869e-01f,+2.89417692e-02f,-2.13630162e-02f,
+1.95562989e-01f,+1.27849393e-02f,+2.75980085e-01f,-3.42938781e-01f,-2.45570332e-01f,
-2.64638573e-01f,+2.47207940e-01f,-2.49084877e-03f,-5.16377926e-01f,-2.13632166e-01f,
-1.80609301e-01f,-1.26767844e-01f,-3.13438833e-01f,+1.29776627e-01f,-4.91128378e-02f,
-3.27923387e-01f,+3.17000270e-01f,+4.48197424e-02f,-1.49005473e-01f,+8.25473592e-02f,
+2.61161566e-01f,-2.78023452e-01f,-2.57526606e-01f,+3.39853466e-01f,+1.97070494e-01f,
-1.06088720e-01f,-3.27211916e-02f,-4.76783663e-02f,+2.69817710e-01f,-8.21826421e-03f,
+3.09257749e-02f,+2.16363668e-01f,+1.13536634e-01f,-8.51031840e-02f,+1.69194296e-01f,
-4.19073313e-01f,+1.22202635e-01f,-3.30163240e-02f,-2.70805568e-01f,-3.36233318e-01f,
-7.68106133e-02f,-2.06549630e-01f,+4.91055707e-03f,-2.06177860e-01f,-8.90557002e-03f,
+4.61435951e-02f,-4.25090194e-02f,-3.65519464e-01f,-3.16021532e-01f,+3.38778421e-02f,
+5.07578142e-02f,-1.48705333e-01f,-2.05377176e-01f,+2.01958388e-01f,-8.49672332e-02f,
-4.32489403e-02f,+7.63739496e-02f,-2.67744899e-01f,+4.91199084e-02f,+1.45897001e-01f,
+1.66800275e-01f,+3.21011424e-01f,-1.62070885e-01f,+1.28362134e-01f,+1.36165962e-01f,
+1.43142819e-01f,-2.41227284e-01f,-5.27952914e-04f,+2.71195203e-01f,+1.49490565e-01f,
+2.37476025e-02f,+8.49258825e-02f,-3.38694334e-01f,-9.04491022e-02f,-7.84366056e-02f,
-1.03952512e-01f,+2.03009799e-01f,+2.49563605e-01f,-2.32142493e-01f,+5.46941794e-02f,
-1.16836078e-01f,+4.37357165e-02f,+1.83470678e-02f,+2.69377679e-01f,-4.07313406e-02f,
-3.25413756e-02f,+2.58257985e-01f,-6.47411123e-02f,-1.98853880e-01f,+3.96773607e-01f,
+2.20913813e-01f,-1.70255303e-02f,-1.26467600e-01f,-1.23583367e-02f,-1.40285224e-01f,
+1.33591503e-01f,-1.42776072e-01f,-1.94388609e-02f,-4.97172661e-02f,+5.01221865e-02f,
-4.67012972e-01f,+1.05135158e-01f,-1.60873178e-02f,+6.89723045e-02f,-1.55245766e-01f,
+1.42682344e-01f,+1.67192891e-02f,+8.30426216e-02f,+2.13520795e-01f,-2.20928919e-02f,
-3.65404710e-02f,+9.51307267e-02f,-1.91535994e-01f,+8.89608860e-02f,-2.79237963e-02f,
-4.32362743e-02f,+1.77945793e-01f,-2.85548046e-02f,+2.55991250e-01f,-1.31368935e-01f,
-1.76104262e-01f,+4.57987413e-02f,-3.00689284e-02f,+2.29051076e-02f,+2.29360566e-01f,
+3.21760811e-02f,-1.03926789e-02f,+2.82090336e-01f,-1.04104958e-01f,-1.75556988e-02f,
+1.15448087e-01f,+4.36321422e-02f,-4.29731682e-02f,+1.56912394e-03f,-2.68782973e-01f,
-6.39605988e-03f,+7.47633725e-02f,+2.57324785e-01f,-1.04422435e-01f,+1.64144188e-01f,
-6.72498271e-02f,+1.85623974e-01f,-1.41415283e-01f,+1.83790728e-01f,+2.16922864e-01f,
+2.67888248e-01f,+2.22944900e-01f,-4.81519703e-04f,+3.17678824e-02f,-2.57252187e-01f,
-1.51889578e-01f,+2.34806985e-01f,-2.87561547e-02f,+1.76903442e-01f,-8.27791542e-03f,
-1.56545117e-02f,+2.21937567e-01f,+4.79788780e-02f,+1.70977011e-01f,-1.81690708e-01f,
+2.46451035e-01f,-2.06831098e-02f,-3.06328505e-01f,+1.88424721e-01f,+4.93184850e-02f,
-4.81498055e-02f,+1.49317518e-01f,+1.42169772e-02f,-1.00101374e-01f,+5.67865893e-02f,
+1.18371114e-01f,-1.21090136e-01f,+3.84282321e-02f,+1.48506075e-01f,+7.38383085e-02f,
-1.78694174e-01f,-1.02632254e-01f,-2.21504662e-02f,+3.24645758e-01f,-6.71802787e-03f,
+9.17664617e-02f,+8.80558416e-03f,+1.83815472e-02f,+9.55692958e-03f,-2.61232674e-01f,
+1.57223672e-01f,+2.24140659e-01f,-1.86427385e-02f,+9.02670920e-02f,+1.10180810e-01f,
+1.61569923e-01f,-8.13797954e-03f,+9.80796143e-02f,+3.83130647e-02f,-2.13262457e-02f,
+2.63686255e-02f,+5.18386140e-02f,-9.61352363e-02f,+4.03801166e-02f,-1.88320994e-01f,
-4.55922596e-02f,-9.85253900e-02f,+7.98193514e-02f,+4.98066992e-02f,+1.09131508e-01f,
+2.39337400e-01f,+1.85878724e-01f,+1.55914500e-01f,+8.89723450e-02f,-1.83142379e-01f,
-9.90403295e-02f,-9.79828760e-02f,+7.32367709e-02f,-7.96456337e-02f,+2.07069859e-01f,
+9.55489054e-02f,+2.15482637e-01f,-1.54315792e-02f,+6.54554591e-02f,+6.46858737e-02f,
+3.25649858e-01f,+7.17496648e-02f,+8.69152769e-02f,+1.19255692e-01f,+1.79564282e-01f,
+3.28098014e-02f,-2.17816293e-01f,+4.23923768e-02f,+3.01948674e-02f,+1.54531211e-01f,
+3.98342162e-02f,-1.06178857e-01f,-4.64683473e-02f,+9.37062055e-02f,-1.01973355e-01f,
+1.40858144e-01f,+1.75211802e-01f,-1.34429425e-01f,+3.54562253e-01f,+2.45911460e-02f,
+9.54938754e-02f,+2.20318288e-01f,+1.96119696e-01f,+3.95076796e-02f,+1.62422354e-03f,
+1.27970695e-01f,+1.82354063e-01f,-1.02542877e-01f,-1.50893614e-01f,+5.26198596e-02f,
+2.96660736e-02f,-1.09291719e-02f,-2.26545870e-01f,+7.48957470e-02f,-3.06337386e-01f,
+2.82237411e-01f,+7.71658719e-02f,+1.16148598e-01f,+1.46556258e-01f,+1.71807691e-01f,
-1.97367501e-02f,+2.62993664e-01f,-2.73193535e-03f,+1.74449869e-02f,+8.33449811e-02f,
-2.48871505e-01f,-8.12715515e-02f,-1.22340485e-01f,-5.15484624e-02f,+4.93729413e-02f,
+1.68828949e-01f,+4.58206683e-02f,-7.20709115e-02f,-2.19726697e-01f,-1.06429555e-01f,
-7.08740279e-02f,+2.13532865e-01f,+1.41329378e-01f,+3.59851532e-02f,+9.60848257e-02f,
-2.14754239e-01f,+1.48104966e-01f,+2.53810316e-01f,+3.83177757e-01f,+1.42360941e-01f,
+4.34778184e-02f,-1.52224332e-01f,-2.24629655e-01f,+4.97630872e-02f,-2.77709849e-02f,
+2.88162351e-01f,+1.33073181e-01f,-2.05819204e-01f,+1.27666995e-01f,+2.40259856e-01f,
+4.30778228e-02f,-3.73301655e-02f,+1.83319822e-01f,+8.46571401e-02f,+1.28489817e-02f,
+1.36855826e-01f,-8.77199471e-02f,+1.87732458e-01f,-3.69691968e-01f,+1.59408689e-01f,
-7.49848932e-02f,-5.39541282e-02f,-1.05284296e-01f,-1.44006297e-01f,+4.29000612e-03f,
+1.13816068e-01f,+7.55155981e-02f,+4.02114928e-01f,+4.26586717e-02f,+1.20106295e-01f,
+6.21855929e-02f,+2.92663872e-01f,+2.05293551e-01f,+1.94022298e-01f,+1.37767166e-01f,
+1.17489524e-01f,+1.32843733e-01f,+7.05644488e-02f,+1.83559105e-01f,-1.36926234e-01f,
+3.86348576e-03f,-1.03381500e-01f,+2.63994038e-01f,+4.84630615e-01f,+2.44432315e-01f,
+1.18821345e-01f,+8.83297622e-02f,+6.16867207e-02f,+2.77692556e-01f,+2.02218935e-01f,
-7.33814389e-02f,-7.23739117e-02f,+2.05783010e-01f,+8.17873552e-02f,+3.21489185e-01f,
+2.85129528e-02f,-1.47711962e-01f,+9.73138511e-02f,+7.21727014e-02f,+1.40788138e-01f,
-2.22573459e-01f,+7.91828483e-02f,-1.14284523e-01f,-5.14341928e-02f,-1.46577777e-02f,
+1.45140469e-01f,+1.32965669e-01f,-1.09043762e-01f,-4.14660275e-01f,+1.82804957e-01f,
+1.21082608e-02f,-6.12978227e-02f,+1.23182580e-01f,+3.53055522e-02f,+1.01672851e-01f,
-8.93001631e-02f,-7.84610808e-02f,-4.52673063e-02f,+2.61523306e-01f,+7.26142600e-02f,
+2.54941911e-01f,-2.77452879e-02f,+2.32604429e-01f,+5.05486093e-02f,+1.11683264e-01f,
-9.93524641e-02f,+3.75939906e-01f,+1.47461658e-02f,+1.95374608e-01f,+1.86919346e-02f,
-1.83466077e-02f,-2.29797974e-01f,-1.27546921e-01f,-1.26061752e-01f,-1.45442411e-01f,
+1.14181958e-01f,-5.41748572e-03f,+1.36623070e-01f,-1.67975333e-02f,-2.64088750e-01f,
+1.64329290e-01f,-9.92926303e-04f,-6.18872866e-02f,+2.33274363e-02f,-7.80482516e-02f,
+6.02222160e-02f,-7.02678692e-03f,+1.13403410e-01f,+2.07359642e-01f,+4.82839756e-02f,
-7.15977550e-02f,+1.37462512e-01f,+3.03935915e-01f,-2.48173494e-02f,+6.39686808e-02f,
+1.55620009e-01f,+1.74050435e-01f,+1.15501262e-01f,+4.13600318e-02f,-1.57379076e-01f,
+2.82400191e-01f,-9.33654457e-02f,-6.98994398e-02f,+1.58294350e-01f,+1.93826646e-01f,
+7.75042176e-02f,+8.35611150e-02f,+6.61406107e-03f,+1.68768704e-01f,+1.18396193e-01f,
+4.41527814e-02f,+1.34590149e-01f,-1.22275546e-01f,+4.88207974e-02f,+1.52174547e-01f,
+1.26281634e-01f,+7.37765804e-02f,+1.13566920e-01f,+3.45050357e-02f,+2.16531381e-01f,
-2.27284133e-01f,-8.13819692e-02f,+7.84146041e-02f,-2.22719401e-01f,-3.34984437e-02f,
-7.97587484e-02f,-1.32854298e-01f,+4.26046252e-02f,+1.39528230e-01f,+8.34437460e-02f,
-1.87506780e-01f,-3.12780321e-01f,+1.52859017e-01f,+8.34170207e-02f,-1.95312470e-01f,
-6.85053738e-03f,+7.65852258e-02f,+1.45889744e-01f,+1.64214358e-01f,+3.15329176e-03f,
+5.57091907e-02f,+2.00705707e-01f,-2.05144268e-02f,-3.06567885e-02f,-3.24027956e-01f,
+2.06944630e-01f,+5.92504889e-02f,-1.20729089e-01f,+1.54534250e-01f,-5.17289117e-02f,
+2.31324375e-01f,+8.85469764e-02f,+8.43170211e-02f,-1.11735836e-01f,-5.26088476e-02f,
+1.03028350e-01f,-2.33401451e-02f,+1.73528686e-01f,-9.44403280e-03f,-5.94963767e-02f,
-3.80891450e-02f,-3.63251150e-01f,-3.03092729e-02f,-5.74294664e-02f,+6.67737201e-02f,
-2.80318141e-01f,+1.41288906e-01f,+4.96099964e-02f,-1.23125531e-01f,-9.76962596e-03f,
-1.04364930e-02f,+4.12755728e-01f,+1.35804906e-01f,+1.10092625e-01f,-1.36845976e-01f,
+1.18179776e-01f,-4.03104238e-02f,+1.10339321e-01f,-2.85636038e-02f,+6.06248640e-02f,
-1.46154135e-01f,-1.48645729e-01f,-2.47573145e-02f,+1.36844948e-01f,+1.94812283e-01f,
-7.67064467e-02f,+1.22269809e-01f,-7.94623345e-02f,+4.13144864e-02f,-8.43408778e-02f,
+1.27851725e-01f,+1.13459103e-01f,-2.46199101e-01f,-1.51630193e-01f,-1.03306599e-01f,
-3.25100273e-02f,+8.04459397e-03f,+2.56994456e-01f,+1.37853101e-01f,+2.28689313e-01f,
-1.28890306e-01f,-7.98329338e-03f,-2.77690627e-02f,+1.59024298e-02f,-4.81285341e-02f,
-7.87319690e-02f,+3.84917676e-01f,+4.67602387e-02f,+3.65889296e-02f,-2.05928441e-02f,
+4.03785557e-02f,+6.84530998e-04f,+1.93307295e-01f,+1.27503440e-01f,-8.08081552e-02f,
-8.93939361e-02f,-8.57186094e-02f,-1.19160227e-02f,+6.95553795e-02f,-3.91230211e-02f,
+2.22737685e-01f,+3.66176665e-02f,+4.41692211e-02f,-3.32542285e-02f,+5.73723055e-02f,
+1.99237186e-02f,+1.87728658e-01f,+5.48557080e-02f,+6.93744654e-03f,-1.02198310e-01f,
+4.66646291e-02f,+2.73752362e-01f,+7.83327967e-02f,-1.93145737e-01f,+1.10438168e-01f,
-6.59057274e-02f,+4.30723280e-01f,+1.49636671e-01f,+8.80885422e-02f,+9.96047780e-02f,
-3.41795087e-02f,+5.83817400e-02f,-1.50045299e-03f,+1.88609529e-02f,-2.65527904e-01f,
+1.04620621e-01f,+8.00248012e-02f,-2.49405280e-02f,+1.72479442e-04f,+1.02428481e-01f,
+8.16930309e-02f,+1.86165974e-01f,+8.95554498e-02f,-1.55646494e-02f,-5.84637560e-02f,
-2.03765761e-02f,-4.26638685e-02f,-1.36605054e-01f,+2.83736855e-01f,-1.02135345e-01f,
+8.17462802e-02f,-2.44508326e-01f,+3.36295459e-03f,+9.38845500e-02f,+1.66577891e-01f,
-1.17615744e-01f,-4.44410779e-02f,-4.52117957e-02f,-7.51993731e-02f,+1.18292369e-01f,
+3.19208577e-02f,+4.24438678e-02f,-2.39453670e-02f,-1.82921097e-01f,+1.04846306e-01f,
-1.15849167e-01f,+1.72267348e-01f,+5.53662255e-02f,+1.59601327e-02f,+1.60802230e-01f,
-1.28881529e-01f,+1.48586854e-02f,+3.60124670e-02f,+3.60652711e-03f,+1.08548112e-01f,
+2.73067147e-01f,+4.02333438e-02f,+4.65475135e-02f,+9.73900631e-02f,+9.49703753e-02f,
+1.55962199e-01f,+1.01039879e-01f,+2.95562018e-02f,-2.79382378e-01f,-7.15356544e-02f,
-1.01460302e-02f,+3.22857983e-02f,-2.00347394e-01f,-1.47707686e-01f,+8.08341336e-03f,
-1.65358156e-01f,+2.86749631e-01f,-6.41787127e-02f,+3.00154425e-02f,+2.57610053e-01f,
+8.69655609e-02f,-1.15739547e-01f,-3.66227441e-02f,+1.06386147e-01f,-8.15199092e-02f,
-4.02142368e-02f,-1.01114854e-01f,-1.07160211e-01f,+1.66514426e-01f,+2.45382637e-01f,
+6.27146363e-02f,-1.92645594e-01f,-1.94697544e-01f,+3.16142142e-01f,-7.44036064e-02f,
+3.27409096e-02f,-2.59133220e-01f,-1.72804251e-01f,+3.52795422e-02f,+1.71751887e-01f,
-1.02996781e-01f,+4.74831581e-01f,-1.95862353e-01f,+1.28500670e-01f,-7.65167223e-03f,
+1.71446130e-01f,+1.82934061e-01f,-1.90465093e-01f,-9.40505136e-03f,+6.08412586e-02f,
+2.59476066e-01f,-1.21427469e-01f,-4.32963632e-02f,+2.67516002e-02f,+1.25655830e-01f,
+2.13856801e-01f,+3.88698936e-01f,+8.37780833e-02f,-1.26055256e-01f,+4.73566279e-02f,
+1.87778130e-01f,-4.59679849e-02f,+1.97301671e-01f,-1.53211549e-01f,-8.76001716e-02f,
+1.85564667e-01f,+4.17021178e-02f,-2.62859091e-02f,-2.67071128e-01f,+8.79345089e-02f,
+2.82393675e-02f,+1.60370693e-01f,+5.98927140e-02f,+1.82720482e-01f,+3.80745274e-03f,
+1.49368882e-01f,-5.76035567e-02f,-2.81848103e-01f,-7.22047165e-02f,-1.41348410e-02f,
+1.73200488e-01f,+1.57769009e-01f,+1.21671322e-03f,+1.30878359e-01f,-3.95171233e-02f,
-1.19238883e-01f,+1.47271529e-01f,+2.17292495e-02f,+3.81099880e-02f,-1.86912790e-01f,
-8.23448822e-02f,-2.14278504e-01f,+2.77762506e-02f,-1.48417056e-01f,+1.01429179e-01f,
-3.19368169e-02f,+1.09891016e-02f,-3.59078571e-02f,-8.54960531e-02f,+1.20330267e-01f,
-1.26466662e-01f,+1.18739039e-01f,-3.72623019e-02f,+1.01093449e-01f,+1.31446704e-01f,
+1.69562191e-01f,+1.11057185e-01f,-1.59928814e-01f,+2.44642779e-01f,+2.06358477e-01f,
-6.27258942e-02f,+6.36910796e-02f,-3.01920265e-01f,-7.40248039e-02f,+1.31050602e-01f,
+8.46657157e-02f,+6.13882542e-02f,+5.49880601e-02f,+3.08724027e-02f,-1.19655296e-01f,
-2.59913623e-01f,+1.30512893e-01f,-7.25887865e-02f,-4.20595556e-02f,-1.72505468e-01f,
+2.44130671e-01f,-7.00314566e-02f,-9.80402529e-02f,+1.97558150e-01f,+4.13738072e-01f,
-9.97997746e-02f,+9.25924107e-02f,-4.41654846e-02f,+1.09920055e-02f,-3.46865356e-01f,
-5.64136580e-02f,+1.04108248e-02f,-1.02959491e-01f,+2.86942035e-01f,+1.25602007e-01f,
+4.13776368e-01f,+1.12862229e-01f,-1.92401364e-01f,+2.28199109e-01f,+2.38507390e-01f,
-2.39374861e-01f,+9.77873057e-02f,+1.14987819e-02f,+8.90959054e-02f,-2.37692427e-02f,
-3.07215732e-02f,+1.31069645e-01f,-5.60903922e-02f,+3.38154510e-02f,-6.70453114e-03f,
+2.69545894e-02f,-8.05852935e-03f,+1.21201396e-01f,-1.14451259e-01f,+1.10200852e-01f,
-2.18150079e-01f,+1.19625889e-02f,+1.55363306e-01f,+7.28348121e-02f,+5.97947836e-02f,
+4.95316498e-02f,-1.48486525e-01f,+2.63192713e-01f,-1.46250173e-01f,-2.32783929e-01f,
+8.37248489e-02f,+2.13464901e-01f,-3.62601988e-02f,+3.85331869e-01f,+1.27868289e-02f,
-1.99148268e-01f,-1.45566866e-01f,-4.06129569e-01f,+2.69707799e-01f,+1.57717317e-01f,
+2.42407229e-02f,-1.90423336e-02f,+2.51116101e-02f,+2.80636519e-01f,-1.36105374e-01f,
-2.18149483e-01f,+3.18152942e-02f,-6.82891309e-02f,+6.09725378e-02f,+5.04819537e-03f,
+4.79129069e-02f,-1.76336154e-01f,-5.77190053e-03f,+3.47875625e-01f,-2.83660484e-03f,
+2.58907024e-02f,+1.54290080e-01f,+1.00341395e-01f,+1.07273683e-02f,-1.94038272e-01f,
+2.21054316e-01f,+8.83624703e-02f,-8.31435472e-02f,+2.56739467e-01f,+3.65296975e-02f,
+5.68707986e-03f,-4.45199832e-02f,+4.46010157e-02f,+1.70640871e-01f,-9.13906842e-03f,
-3.77367288e-01f,+4.75688800e-02f,-9.73931029e-02f,-1.07005551e-01f,-1.13170199e-01f,
+1.24960199e-01f,+1.86453730e-01f,+2.79904157e-01f,+3.79237495e-02f,+1.36176005e-01f,
+4.15499834e-03f,-6.65998980e-02f,+1.47807881e-01f,-1.80687830e-01f,+6.71951622e-02f,
+1.60607934e-01f,-1.09793425e-01f,-9.41913947e-03f,-1.23987831e-01f,-6.04406744e-02f,
-9.81597006e-02f,+1.80368442e-02f,+1.76165283e-01f,+2.75168359e-01f,+1.63216010e-01f,
+6.18478693e-02f,-1.22823134e-01f,-2.19192594e-01f,-2.59705372e-02f,+4.20443080e-02f,
-4.20688391e-02f,-1.09933592e-01f,-1.59296185e-01f,+1.40369236e-01f,+2.03242123e-01f,
-3.07849944e-02f,+9.78364274e-02f,-1.46346495e-01f,-2.60336716e-02f,+2.41398569e-02f,
+1.65711224e-01f,-7.43771493e-02f,+2.34911311e-02f,+1.78082034e-01f,+1.62120610e-01f,
+7.56560490e-02f,+4.43790592e-02f,-1.35802239e-01f,-1.33859053e-01f,-1.99814558e-01f,
-4.63806977e-03f,+2.29002297e-01f,+3.45836356e-02f,-6.68967143e-02f,-6.13291711e-02f,
+1.94981933e-01f,+1.70918629e-01f,-1.88940123e-01f,+2.32644733e-02f,+1.88853964e-01f,
-6.48365021e-02f,-4.22094353e-02f,+2.04536080e-01f,-1.15777273e-02f,+1.91548839e-01f,
-3.72538179e-01f,+4.03034203e-02f,+4.86512482e-02f,+1.87490508e-02f,+1.73154920e-02f,
+5.24340495e-02f,+2.64961440e-02f,-1.67573169e-01f,+1.31641164e-01f,-9.77661908e-02f,
+4.72065881e-02f,-7.80752152e-02f,+1.79831311e-02f,-1.84241503e-01f,+2.07943674e-02f,
-3.19819450e-01f,+1.12090841e-01f,+2.46443868e-01f,+2.95223981e-01f,-4.79313172e-02f,
+1.73496373e-03f,-1.43150389e-01f,-2.99415290e-01f,-1.25989756e-02f,+2.72075921e-01f,
+7.83467367e-02f,-3.52606952e-01f,+2.09841222e-01f,+2.12678254e-01f,+2.17123240e-01f,
+1.24925926e-01f,+1.30660743e-01f,+1.53055107e-02f,+7.07515776e-02f,+1.31018519e-01f,
-2.23658085e-01f,-2.66140793e-02f,+9.19987187e-02f,-4.35107807e-03f,+2.29455456e-01f,
+1.92195922e-01f,-1.19552195e-01f,+1.19521832e-02f,-8.13792944e-02f,-9.53193679e-02f,
-1.02334790e-01f,-1.72638819e-01f,+1.28449216e-01f,-5.82592264e-02f,+3.58691602e-03f,
-2.79848397e-01f,+3.64855468e-01f,+1.77393317e-01f,-1.56242907e-01f,-1.21558331e-01f,
-2.23363012e-01f,+1.54353440e-01f,-3.71479355e-02f,+2.99496561e-01f,+2.18731925e-01f,
+1.60294399e-01f,-1.43831065e-02f,-1.62053719e-01f,+1.59028798e-01f,+2.50122637e-01f,
-1.82696342e-01f,+1.29737094e-01f,+2.02266067e-01f,-2.41915822e-01f,+5.88034615e-02f,
+2.03616604e-01f,+4.55657579e-02f,-2.59986103e-01f,+6.82795271e-02f,-4.36000451e-02f,
+7.13612288e-02f,-3.60807143e-02f,+1.53814957e-01f,-2.73607850e-01f,-8.09617341e-02f,
+1.48505494e-01f,+1.35257483e-01f,-2.23311380e-01f,+5.44613041e-02f,+2.86079317e-01f,
+4.63983454e-02f,-2.08385708e-03f,-2.73969416e-02f,-1.61049575e-01f,+1.46102132e-02f,
-1.37792602e-01f,+1.99277163e-01f,-1.11450173e-01f,+2.24439338e-01f,-1.17563136e-01f,
-1.25844166e-01f,+3.56305242e-01f,+1.84280686e-02f,-1.41217530e-01f,-1.90447956e-01f,
-1.84797496e-02f,+1.60650402e-01f,+4.68604006e-02f,-1.87630758e-01f,-1.95981681e-01f,
-3.91624093e-01f,+9.88910496e-02f,-1.97492316e-01f,+8.22307989e-02f,-6.65240809e-02f,
-9.06716008e-03f,-1.56396609e-02f,+1.88803509e-01f,+1.71539187e-01f,-4.42455746e-02f,
+4.85830866e-02f,+1.12815261e-01f,-4.81413119e-02f,-1.48274317e-01f,+5.27025312e-02f,
-3.74476284e-01f,+7.07241334e-03f,+1.50807530e-01f,-9.70375463e-02f,-1.40537009e-01f,
+1.96697265e-01f,+2.15019479e-01f,+2.14967459e-01f,+2.54271645e-02f,+5.12069929e-03f,
-3.19610327e-01f,+5.28292209e-02f,+1.48927897e-01f,-2.73690950e-02f,+2.25873694e-01f,
-1.48625061e-01f,-1.88872546e-01f,-1.89406916e-01f,+3.03685576e-01f,+3.26695945e-03f,
+2.94041514e-01f,-6.39047474e-02f,+7.23730400e-02f,+1.11979865e-01f,-2.47002482e-01f,
-4.56501264e-03f,+2.08391950e-01f,+2.99719144e-02f,+1.41378239e-01f,+1.84153751e-01f,
-2.07440257e-01f,-8.88181292e-03f,+1.14499785e-01f,-3.27608377e-01f,-3.15460786e-02f,
-7.73140639e-02f,+3.48338306e-01f,-6.08572662e-02f,-1.03119612e-01f,+5.17274737e-02f,
+1.66560188e-02f,-2.67703295e-01f,+1.32947952e-01f,+2.01220378e-01f,-1.31588101e-01f,
+1.09437376e-01f,-3.14452779e-03f,-6.60007074e-02f,-6.49011508e-02f,+8.70005265e-02f,
-7.73345679e-02f,+1.95223819e-02f,+1.63941860e-01f,+1.68799207e-01f,-2.56164491e-01f,
-5.30107468e-02f,+2.42186114e-02f,-6.41342904e-03f,-1.47623392e-02f,+7.50291646e-02f,
+2.11212233e-01f,+1.85971692e-01f,+6.02454282e-02f,+7.07315728e-02f,+1.06975228e-01f,
+1.30347192e-01f,+2.22335950e-01f,-5.07364087e-02f,+2.47347862e-01f,-2.09268108e-01f,
-6.30312413e-02f,+2.39511803e-01f,+1.26970842e-01f,-2.88775831e-01f,+4.44948077e-02f,
+6.84253573e-02f,+2.63249964e-01f,-2.46629026e-02f,+6.97925165e-02f,+6.14761412e-02f,
-1.41978532e-01f,+1.26112476e-01f,+1.19281068e-01f,+1.24002829e-01f,+1.65322527e-01f,
+1.03943154e-01f,-2.26620734e-01f,+1.68722421e-01f,-4.22800966e-02f,+3.13754618e-01f,
+1.46278560e-01f,-1.11290991e-01f,-3.35628092e-02f,+3.08692962e-01f,+4.53766920e-02f,
+2.38412302e-02f,-4.13629599e-02f,-7.53466710e-02f,+1.39925122e-01f,-3.34562927e-01f,
-2.16594383e-01f,-7.99054373e-03f,-1.04366191e-01f,+1.93187594e-01f,+6.74210265e-02f,
+3.57867926e-01f,+2.36642119e-02f,+1.90794729e-02f,-1.73619881e-01f,-5.97993061e-02f,
-2.31707096e-02f,+2.02683523e-01f,-1.02269001e-01f,+2.39377394e-01f,+1.72532737e-01f,
+6.09438159e-02f,-8.48288685e-02f,+6.24070363e-03f,+3.34854275e-01f,+1.09804131e-01f,
-1.01566486e-01f,+2.44161546e-01f,-2.68776976e-02f,-1.39997885e-01f,-1.01674318e-01f,
+1.25113294e-01f,+1.88907415e-01f,-1.64194673e-01f,+7.69335255e-02f,+1.89436339e-02f,
-2.16773264e-02f,+7.62057751e-02f,+1.09257475e-01f,-7.51702935e-02f,+2.20588103e-01f,
+2.96448916e-01f,+5.99994324e-02f,+1.37638867e-01f,+2.13742271e-01f,+3.38795185e-01f,
-1.21980958e-01f,+1.36719853e-01f,-2.54530050e-02f,+2.94817716e-01f,-3.44284512e-02f,
+5.62131181e-02f,-1.36780098e-01f,+2.37991735e-01f,-3.70341167e-02f,-1.89480990e-01f,
-9.78676230e-02f,-2.18343623e-02f,+1.54256597e-01f,-3.31800520e-01f,-2.26737723e-01f,
+1.91527009e-01f,+1.30920306e-01f,+7.61514828e-02f,-1.59356907e-01f,+6.79839402e-02f,
+2.58154869e-02f,-7.17455670e-02f,+8.24059919e-02f,-1.31202668e-01f,-1.19569130e-01f,
+2.13275447e-01f,+3.31269294e-01f,-4.78710514e-03f,-2.20080968e-02f,+2.14053944e-01f,
+1.73087537e-01f,+2.31889769e-01f,-2.13605762e-02f,-3.07011306e-02f,+3.19824070e-02f,
-1.11386754e-01f,+1.97925657e-01f,+5.66357225e-02f,+4.46703173e-02f,+4.49163020e-02f,
+1.44629441e-02f,+9.41755548e-02f,-1.50734380e-01f,-1.14134207e-01f,+7.54529089e-02f,
+2.06407368e-01f,+3.21001530e-01f,+2.53422678e-01f,+5.79221696e-02f,+2.55063027e-02f,
-2.66283974e-02f,+1.13017045e-01f,+1.17165849e-01f,+1.03981599e-01f,-1.58723965e-01f,
-8.92338678e-02f,+1.63599640e-01f,-3.23055759e-02f,+1.86217085e-01f,+4.73916605e-02f,
-1.38054058e-01f,+7.05601722e-02f,+2.31004491e-01f,-1.36153951e-01f,+2.63516873e-01f,
-1.30868062e-01f,+2.26552054e-01f,-9.90478247e-02f,-1.35803857e-04f,-2.17475623e-01f,
-5.98976202e-02f,-3.97017486e-02f,+2.12744787e-01f,-1.70644030e-01f,-2.89619993e-02f,
+7.47141913e-02f,+4.56582569e-02f,+1.97840884e-01f,+2.24312142e-01f,+1.99211746e-01f,
-1.73431709e-01f,-8.84022657e-03f,-1.39051944e-01f,-3.10377628e-02f,+3.78957331e-01f,
+4.62399051e-02f,+1.99359030e-01f,+2.04527557e-01f,-5.28940484e-02f,-1.84069782e-01f,
+5.47118187e-02f,-1.50447696e-01f,+1.60402626e-01f,+2.05990389e-01f,-5.74580720e-03f,
+1.00555822e-01f,-2.29183361e-02f,-1.24156505e-01f,-3.33191417e-02f,-8.52569714e-02f,
-9.54786465e-02f,+2.26413667e-01f,-3.70080248e-02f,+1.11774439e-02f,-7.99585730e-02f,
-1.06022358e-01f,+1.88948810e-01f,+2.15458825e-01f,+6.44199252e-02f,+8.48115757e-02f,
+1.69882730e-01f,-3.87319061e-03f,+1.79323167e-01f,+2.31968667e-02f,-7.65963942e-02f,
-3.72800261e-01f,-1.05214119e-01f,+1.73696145e-01f,-6.66736066e-02f,+4.08291191e-01f,
-1.31840318e-01f,-2.69430399e-01f,-1.24652788e-01f,-2.49251793e-03f,+5.42524643e-02f,
-1.80781458e-03f,+3.38455081e-01f,-9.36476737e-02f,-1.05671220e-01f,-4.02500898e-01f,
+1.59012601e-01f,+1.35291621e-01f,-7.27373138e-02f,+1.28222272e-01f,-5.03279530e-02f,
-1.03430636e-01f,-6.41971901e-02f,+8.54561031e-02f,+6.24689981e-02f,-5.56255551e-03f,
+1.07435107e-01f,+2.45278701e-01f,-1.06438790e-02f,+7.67061487e-04f,-1.60675824e-01f,
-1.66236877e-03f,+4.15422134e-02f,+1.28699895e-02f,-1.90533966e-01f,-9.05942321e-02f,
+1.96504872e-02f,-1.66445132e-02f,-7.56736845e-02f,+6.37431368e-02f,+2.02248245e-01f,
-1.53718337e-01f,-1.20308265e-01f,+1.06967941e-01f,+1.91150367e-01f,+2.33518988e-01f,
-9.52555984e-02f,+2.69831764e-03f,-3.53359729e-02f,+3.80071729e-01f,-9.37294364e-02f,
-3.22389752e-02f,+1.49168611e-01f,+6.83528110e-02f,+4.59909141e-01f,+1.69571847e-01f,
-5.25236689e-02f,-7.34529495e-02f,+4.88748439e-02f,-4.11953926e-02f,+3.18004429e-01f,
-9.03505161e-02f,+1.37245849e-01f,-2.46391043e-01f,-4.26731817e-02f,+2.03455448e-01f,
-6.21752441e-02f,-2.23771520e-02f,+1.27708554e-01f,-9.00678933e-02f,-9.29629579e-02f,
+7.89997876e-02f,-1.79044139e-02f,+9.73871052e-02f,-7.70356739e-03f,-5.70850484e-02f,
+1.78676993e-01f,-3.85536328e-02f,+1.43651500e-01f,+3.96469096e-03f,+2.37265825e-01f,
+5.98632847e-04f,-3.08612823e-01f,-2.12298661e-01f,+1.91192627e-01f,+1.11930974e-01f,
+3.26727390e-01f,+1.16487797e-02f,+6.29796907e-02f,-1.81489766e-01f,+7.18024597e-02f,
-6.73890710e-02f,+1.78316996e-01f,+2.30188608e-01f,+1.79796889e-01f,+1.51756361e-01f,
-1.67366657e-02f,-5.30857109e-02f,-4.60927896e-02f,+3.09316397e-01f,-9.80480313e-02f,
-2.10121907e-02f,+7.02606793e-03f,+2.20326111e-01f,+1.85955435e-01f,+1.49398729e-01f,
-1.93260729e-01f,+5.35194091e-02f,-1.11970745e-01f,+1.78502109e-02f,-1.00867048e-01f,
+1.55781701e-01f,+7.06872866e-02f,+5.63285165e-02f,+1.19210169e-01f,+1.38212830e-01f,
+3.08382045e-02f,+1.35718629e-01f,-3.41846347e-02f,+1.81404784e-01f,+9.51120779e-02f,
+2.29468737e-02f,-9.90760326e-02f,+9.88486130e-03f,+1.80965483e-01f,-1.09733932e-01f,
+1.39225289e-01f,-1.66155189e-01f,-2.73575969e-02f,-1.09067872e-01f,+5.22170812e-02f,
-1.82797059e-01f,+5.67958653e-02f,-1.79384038e-01f,+1.18439019e-01f,-8.30455124e-02f,
+7.04794601e-02f,-1.98207095e-01f,-2.15470996e-02f,+3.19454044e-01f,-2.47918740e-01f,
+9.37787816e-02f,+3.39817375e-01f,-3.05433691e-01f,-1.35754019e-01f,-2.29168653e-01f,
+2.56430320e-02f,+1.56085566e-01f,-6.52417168e-02f,+1.55952916e-01f,-2.23343447e-01f,
-2.25192055e-01f,-2.03847826e-01f,+2.35457402e-02f,-2.33349502e-02f,-1.68378800e-02f,
-4.04776111e-02f,+1.13970384e-01f,+1.51658997e-01f,+1.00884894e-02f,-9.98831689e-02f,
-2.50614703e-01f,+2.58925240e-02f,+5.06169535e-02f,+3.14879268e-02f,+9.11260024e-02f,
-2.89281458e-02f,+1.96253322e-02f,+2.27605611e-01f,+7.41882250e-02f,+2.90861130e-01f,
+1.25068858e-01f,+3.44635323e-02f,+1.14877664e-01f,+1.89621776e-01f,+2.24367648e-01f,
-1.12039365e-01f,+1.78438440e-01f,-1.24962270e-01f,+4.14319821e-02f,+6.48737326e-03f,
-1.58822432e-01f,-4.19938341e-02f,+2.50242148e-02f,-2.35796869e-01f,-1.71139613e-01f,
+1.26603410e-01f,-1.67735144e-01f,+7.61078447e-02f,-1.96317051e-04f,-6.15448281e-02f,
-2.13557370e-02f,+1.50490910e-01f,-2.41099223e-02f,-7.06526339e-02f,-1.70903668e-01f,
+2.11689174e-01f,+5.20569645e-02f,-1.60444975e-01f,+5.94964176e-02f,+3.27372521e-01f,
-9.91398469e-02f,-5.07070497e-02f,-2.01013148e-01f,+2.33124159e-02f,+1.09391071e-01f,
+5.14860414e-02f,+3.34369361e-01f,+1.68649942e-01f,-3.67228746e-01f,-3.03032082e-02f,
-2.02817116e-02f,+7.47004226e-02f,+1.86923072e-01f,+8.25033262e-02f,-1.00243285e-01f,
-3.26700807e-02f,+1.82735808e-02f,-3.00753731e-02f,-6.77547827e-02f,-2.07151875e-01f,
+1.65319100e-01f,-6.26575053e-02f,+3.42047602e-01f,-2.44169850e-02f,+2.32170820e-01f,
+2.26332080e-02f,-5.65886237e-02f,-1.00665931e-02f,+7.09033906e-02f,+4.17692453e-01f,
+2.14572892e-01f,+1.71600729e-01f,+3.40287723e-02f,+6.01587705e-02f,+2.05806375e-01f,
-4.90937531e-02f,-9.81653109e-02f,+6.57466725e-02f,+1.74675304e-02f,-7.69242346e-02f,
-1.02864549e-01f,+1.15469052e-02f,-1.61600098e-01f,+3.01727444e-01f,+2.07074970e-01f,
-1.72908649e-01f,+4.69371974e-02f,+3.58394273e-02f,-3.66844445e-01f,-6.49787784e-02f,
+7.74038956e-02f,+2.18070194e-01f,-1.33741111e-01f,+7.51425773e-02f,+9.42082480e-02f,
-5.49382567e-02f,+2.88251750e-02f,+1.86395362e-01f,+5.06852306e-02f,+3.95297399e-03f,
+1.87859088e-01f,+8.39711726e-02f,-5.56632429e-02f,+3.75281632e-01f,-2.28081755e-02f,
-3.70299555e-02f,-5.81385009e-02f,+7.77544081e-02f,+1.72705501e-01f,+7.34028523e-04f,
-2.63198633e-02f,-6.55468404e-02f,-5.25197275e-02f,-1.13443226e-01f,+2.65113831e-01f,
+9.84212682e-02f,-1.45302773e-01f,+1.72478147e-02f,-7.47183189e-02f,+8.35467204e-02f,
-2.62618791e-02f,+2.68588722e-01f,+6.88612983e-02f,-2.47320235e-01f,+6.43910691e-02f,
+1.71211675e-01f,+1.15358405e-01f,-2.12125301e-01f,-1.83827013e-01f,+4.36557531e-02f,
-9.71687362e-02f,-1.14291489e-01f,-1.18866690e-01f,-2.89428607e-02f,+1.65688083e-01f,
-2.71399282e-02f,-7.53202960e-02f,+1.22638397e-01f,+9.27823409e-02f,-6.70922324e-02f,
+9.67786238e-02f,+4.63961139e-02f,+1.17008509e-02f,+1.98989883e-01f,-2.70984530e-01f,
-5.12416027e-02f,+3.83585617e-02f,+6.38314337e-02f,-1.40517294e-01f,+2.30422392e-01f,
-1.03794351e-01f,-1.90543562e-01f,+6.70388564e-02f,-9.43594724e-02f,+2.81225264e-01f,
+1.24205593e-02f,-3.77018861e-02f,+6.95351809e-02f,+9.60413590e-02f,-4.25749384e-02f,
+4.57341559e-02f,+3.52047645e-02f,+8.61870423e-02f,+1.01889022e-01f,-1.96469724e-01f,
-1.97505593e-01f,+1.26781359e-01f,+9.26317051e-02f,-8.35433081e-02f,+4.22615036e-02f,
-2.06921592e-01f,-4.63981740e-02f,+3.32322866e-02f,+2.41949707e-01f,-1.47293493e-01f,
+1.68740619e-02f,+1.60880461e-01f,+1.63044900e-01f,+1.75276175e-01f,+5.12260832e-02f,
+1.57426640e-01f,-1.64958909e-01f,+1.34694487e-01f,-2.34451741e-02f,+1.22117274e-01f,
+3.55025321e-01f,+1.60362292e-02f,+1.77001297e-01f,-1.44777566e-01f,+1.56516358e-01f,
-1.54537171e-01f,+1.23804577e-01f,-3.93269919e-02f,+1.03866667e-01f,+1.76150143e-01f,
-4.38495427e-02f,+2.92422622e-01f,+1.79551598e-02f,+1.89870417e-01f,-2.61773854e-01f,
+1.24743599e-02f,+1.00871660e-01f,-6.61384389e-02f,-6.49882630e-02f,+4.21020575e-02f,
+1.45462394e-01f,-7.69131631e-02f,+3.30233276e-01f,+1.49201363e-01f,-8.37715417e-02f,
+1.85692366e-02f,-1.09516107e-01f,+4.86792475e-02f,+8.56917277e-02f,+1.50859892e-01f,
+2.35648096e-01f,-4.13474441e-03f,-1.60709862e-02f,+1.50821716e-01f,+2.02964306e-01f,
-3.90189476e-02f,+1.10133611e-01f,-2.96970233e-02f,+7.95410872e-02f,+2.41117235e-02f,
+3.04563791e-02f,+4.96517727e-03f,+3.76003608e-02f,+1.13914654e-01f,-6.26487955e-02f,
-2.36413181e-01f,-1.84438080e-02f,+8.66078734e-02f,-1.26127601e-01f,+7.60191306e-02f,
+5.44208754e-03f,+7.27066025e-02f,+6.75471574e-02f,-1.97692439e-01f,-4.40995172e-02f,
+1.71721891e-01f,+1.47008255e-01f,+4.43113744e-02f,+1.55166566e-01f,+8.56207833e-02f,
+6.44991845e-02f,-9.09316447e-03f,+1.13834538e-01f,-6.04943149e-02f,+1.43009812e-01f,
+1.25829130e-01f,+6.85350690e-03f,-1.23971224e-01f,+3.17165181e-02f,+1.26759589e-01f,
+2.76908223e-02f,-2.85197403e-02f,+6.74529150e-02f,-2.15865046e-01f,-3.22399825e-01f,
+1.10126816e-01f,+3.64175960e-02f,-7.31351003e-02f,-4.05828133e-02f,-6.80786669e-02f,
+1.08833998e-01f,+1.55782193e-01f,+3.66688743e-02f,+8.38572718e-03f,-2.65272520e-03f,
+1.57607198e-01f,-1.11488230e-03f,+2.09676335e-03f,+6.60159439e-02f,+5.97829968e-02f,
+1.22511983e-01f,-1.29813790e-01f,-8.53314623e-02f,+1.23602143e-02f,+1.26922816e-01f,
-2.43021116e-01f,+1.26049012e-01f,-2.00521544e-01f,-3.73713300e-02f,-1.85047969e-01f,
+8.25017616e-02f,-6.69128671e-02f,-1.53750163e-02f,+1.34531289e-01f,+2.17696965e-01f,
+3.56735438e-01f,-4.24686447e-02f,+1.22108102e-01f,+3.03264591e-03f,-2.36197133e-02f,
+2.22159899e-03f,+1.25636265e-01f,-1.61565486e-02f,+2.63618976e-01f,+7.16064051e-02f,
+1.60317626e-02f,+6.44486248e-02f,+9.18689147e-02f,+1.53517798e-01f,-3.43396403e-02f,
-1.07769936e-01f,+1.10913217e-01f,+2.68798858e-01f,-2.70764649e-01f,-7.69981518e-02f,
-8.62386301e-02f,+2.09059864e-01f,-9.06600952e-02f,+4.43932600e-02f,+8.22571144e-02f,
+3.89186554e-02f,+6.73309192e-02f,-7.22254515e-02f,-1.10985108e-01f,+1.35683119e-01f,
+5.90139581e-03f,-7.95696378e-02f,+1.71449900e-01f,-9.37149823e-02f,+2.26827040e-01f,
+1.08412556e-01f,-4.63125370e-02f,+3.66638042e-02f,+9.86181274e-02f,+8.68674070e-02f,
-7.32858628e-02f,-4.10274751e-02f,+1.82759508e-01f,-4.03385460e-02f,-1.07043974e-01f,
+1.32127866e-01f,-2.16614932e-01f,-2.01449454e-01f,-1.92296505e-01f,+3.75239807e-03f,
-7.32699782e-02f,-1.65859520e-01f,+7.07781315e-03f,-4.98523898e-02f,+1.18117206e-01f,
+1.58038512e-01f,+3.28886747e-01f,-1.12320118e-01f,-5.67744160e-03f,+1.53790608e-01f,
+1.12777211e-01f,+1.47934929e-01f,-1.96899801e-01f,+3.25042233e-02f,-8.46915320e-02f,
+1.73981488e-01f,+9.90980491e-02f,-8.02963451e-02f,-2.08426919e-03f,+1.17419735e-01f,
+1.64518028e-01f,-6.85221851e-02f,+1.14508227e-01f,-1.81017369e-01f,+2.79375851e-01f,
+4.86130528e-02f,-1.25541329e-01f,+1.86677173e-01f,+1.18293174e-01f,+6.45626858e-02f,
-3.28315049e-02f,-8.71647149e-02f,+1.33057564e-01f,-2.44490668e-01f,-2.18681544e-01f,
-8.58908240e-03f,+1.02910675e-01f,-7.26864859e-02f,+1.54124543e-01f,+3.41301002e-02f,
-7.48638362e-02f,-9.86471698e-02f,+4.26142663e-02f,+1.74738675e-01f,-1.59152433e-01f,
-6.56408118e-03f,+1.47427060e-02f,+7.15033635e-02f,+1.50447667e-01f,-1.33963302e-02f,
-1.27628431e-01f,+2.66675919e-01f,-3.80120985e-02f,+2.69856546e-02f,-1.26422659e-01f,
-6.83079362e-02f,+2.20404677e-02f,+3.24598908e-01f,-9.39524099e-02f,+1.91177875e-01f,
-2.10787989e-02f,-3.41767251e-01f,+1.26215041e-01f,+1.39354706e-01f,-3.81271280e-02f,
+3.06406487e-02f,-3.52757759e-02f,-9.19263139e-02f,+3.13826241e-02f,+2.15046555e-01f,
-2.03881245e-02f,+1.08168930e-01f,-4.38041240e-02f,-6.03235103e-02f,-2.12777838e-01f,
-1.04880370e-01f,-2.40848839e-01f,-2.61948537e-02f,+1.23773269e-01f,-5.13402820e-02f,
+1.34120554e-01f,-8.40546712e-02f,+2.41373256e-02f,+1.69537127e-01f,-1.31802931e-01f,
-4.09514084e-02f,+5.96425571e-02f,-2.46744215e-01f,+1.31006822e-01f,+1.85542747e-01f,
+1.04047857e-01f,+1.47256956e-01f,+7.98356012e-02f,+1.36202037e-01f,+1.57183275e-01f,
-9.55243185e-02f,+8.84218588e-02f,+5.39059937e-02f,-5.97728938e-02f,+9.05456487e-03f,
-1.99688211e-01f,+1.12798229e-01f,-2.52431235e-03f,-8.96416679e-02f,+9.56187546e-02f,
+1.00784346e-01f,-9.93864704e-03f,+4.15615365e-02f,+1.94133162e-01f,+3.69931124e-02f,
-1.11538522e-01f,+8.00076649e-02f,+2.57746670e-02f,+9.36470926e-02f,+1.30354673e-01f,
+9.50311869e-02f,-7.99366087e-02f,+1.01614363e-01f,+1.17986895e-01f,+1.54239655e-01f,
-1.48973241e-02f,-1.74080342e-01f,-1.37232140e-01f,-4.75423932e-02f,-1.38364881e-02f,
-8.52205604e-02f,+1.46340013e-01f,-1.01692928e-02f,-7.77659342e-02f,-1.22147888e-01f,
-1.31586984e-01f,+4.17838812e-01f,-1.33115062e-02f,+1.01257317e-01f,+9.04233679e-02f,
+1.85644120e-01f,-9.43015143e-02f,+1.26752764e-01f,-4.80071455e-02f,+1.25963971e-01f,
+1.34815931e-01f,-3.07670198e-02f,+6.24195263e-02f,+1.08573981e-01f,+9.56937149e-02f,
-1.06641553e-01f,-1.65084422e-01f,+8.78334045e-02f,+1.61589131e-01f,+3.99473011e-02f,
+6.00434467e-02f,+1.33416340e-01f,+2.43124813e-02f,+2.55966902e-01f,+2.81238735e-01f,
+2.61565298e-03f,-1.62977606e-01f,+8.39863420e-02f,+8.95431265e-02f,+4.55594324e-02f,
-1.06748454e-01f,+6.43615723e-02f,-3.63259651e-02f,-2.29187042e-01f,-1.86113000e-01f,
-3.63194868e-02f,-9.41378400e-02f,+1.31201455e-02f,+5.00944667e-02f,-1.45897657e-01f,
+2.91571822e-02f,+3.30959931e-02f,+1.46531453e-03f,+1.43363342e-01f,+5.45789562e-02f,
+1.60645813e-01f,+1.60038143e-01f,-4.20448110e-02f,+2.73222744e-01f,-2.52240971e-02f,
-1.23089515e-01f,-3.91741730e-02f,-2.51319725e-02f,+1.23112261e-01f,+7.21070915e-02f,
-1.10344673e-02f,-8.75755250e-02f,+1.06122270e-02f,+3.46799865e-02f,-4.84986939e-02f,
+1.85074016e-01f,-6.40086159e-02f,-3.74552310e-02f,+4.08218279e-02f,-1.25663474e-01f,
+1.51152894e-01f,+1.51387438e-01f,-2.00237423e-01f,+1.30552039e-01f,-1.17960602e-01f,
+1.25157401e-01f,+1.18528433e-01f,-9.16107818e-02f,-1.60407037e-01f,+5.30860238e-02f,
-2.59950068e-02f,+1.21820524e-01f,+1.96679085e-01f,+3.27898841e-03f,-1.35234475e-01f,
+1.31971762e-01f,-5.23713864e-02f,-1.61522567e-01f,-5.99854849e-02f,+8.35890509e-03f,
+7.16180727e-02f,-1.95189357e-01f,-1.33616358e-01f,+1.25252595e-02f,-2.01620832e-01f,
-1.91210434e-01f,-1.81606114e-01f,+2.08592549e-01f,+9.33552533e-02f,+1.75650045e-02f,
-4.11905974e-01f,+5.16023580e-03f,-4.64179516e-02f,-1.42796963e-01f,+2.39003330e-01f,
-1.29649878e-01f,+1.15026936e-01f,+2.14228742e-02f,-1.82864279e-01f,+3.27668115e-02f,
-5.05054407e-02f,-8.55285823e-02f,+4.21348095e-01f,-9.00255889e-02f,+4.81299162e-02f,
-2.98013333e-02f,+9.13001895e-02f,+1.65308699e-01f,+9.59468484e-02f,+9.21699852e-02f,
-2.53394134e-02f,+3.80294472e-01f,+7.81702474e-02f,+3.47940587e-02f,-7.51207396e-02f,
+4.14356962e-02f,-1.07937887e-01f,-1.64133951e-01f,+1.43376008e-01f,-2.99271960e-02f,
-2.48598903e-02f,+8.59678760e-02f,-3.08568683e-02f,+3.11825052e-02f,+5.95102832e-02f,
-1.78255513e-02f,-3.26173604e-01f,-2.84764208e-02f,+7.42876306e-02f,-1.70976788e-01f,
+1.00791447e-01f,+2.57872269e-02f,-8.89605433e-02f,+6.09882884e-02f,+1.63828984e-01f,
-1.42211631e-01f,+7.61648491e-02f,+2.58645743e-01f,+1.45932227e-01f,-1.38978645e-01f,
-1.21288421e-02f,+1.14855818e-01f,+2.13272378e-01f,+1.27444074e-01f,+8.62363651e-02f,
+2.13542357e-01f,-7.12180836e-03f,+2.58440286e-01f,-5.06788611e-01f,+9.63507071e-02f,
+6.06688065e-03f,-6.73979819e-02f,-6.44883886e-02f,+2.72735596e-01f,-4.07758057e-01f,
-3.90941277e-02f,+1.11734696e-01f,+4.05829102e-01f,-1.25891631e-04f,+9.06758979e-02f,
+8.48170146e-02f,-6.47755414e-02f,+4.17749941e-01f,+1.28919631e-01f,+5.27972937e-01f,
-3.06134410e-02f,+3.89002822e-02f,+3.90615404e-01f,+2.07279772e-01f,+1.07915895e-02f,
+2.89813191e-01f,-1.94080949e-01f,+7.81237110e-02f,-1.01528928e-01f,-1.29113913e-01f,
+2.77659625e-01f,+5.09308726e-02f,-1.00837648e-02f,+1.89727306e-01f,-2.01518372e-01f,
+1.61064178e-01f,+6.82395622e-02f,+9.71805900e-02f,-7.49304742e-02f,-1.75076753e-01f,
-3.08547821e-02f,+2.28478566e-01f,+1.04398325e-01f,+1.33012965e-01f,+3.64038604e-03f,
+2.05803484e-01f,+2.42045522e-02f,+1.00598959e-02f,+1.10058852e-01f,-3.07505708e-02f,
+9.69044566e-02f,+2.54137129e-01f,+1.16215900e-01f,-9.49584842e-02f,+2.94327140e-01f,
-3.95296440e-02f,+2.63669193e-01f,+1.09696604e-01f,+2.75523335e-01f,-1.42504290e-01f,
+1.09348841e-01f,+1.02014512e-01f,+8.66812915e-02f,-1.37964785e-02f,-1.18229814e-01f,
+2.14360341e-01f,+9.27902684e-02f,-2.56297678e-01f,-7.03046098e-02f,+9.45405588e-02f,
+2.30659023e-01f,+9.31027159e-02f,-5.01993820e-02f,-4.46682908e-02f,-1.62876859e-01f,
-5.68854548e-02f,+2.39784360e-01f,+4.91792232e-01f,+1.83055192e-01f,+1.85246885e-01f,
+2.65318826e-02f,-5.08639403e-02f,-2.04468034e-02f,+9.71684679e-02f,+9.32420138e-03f,
-1.44640431e-01f,+1.74609751e-01f,-7.87825361e-02f,+4.43744473e-02f,+6.96157739e-02f,
-1.32380575e-01f,+2.84831077e-01f,-2.92559844e-02f,+3.39052007e-02f,+7.20093176e-02f,
+2.83376455e-01f,+2.22177684e-01f,-2.96811853e-02f,+8.40029567e-02f,-2.90458053e-02f,
-9.12933350e-02f,-8.63363519e-02f,+7.13821948e-02f,-6.61379620e-02f,+3.49491239e-01f,
+2.58296967e-01f,-2.29320824e-01f,+4.44406837e-01f,-9.41737220e-02f,+2.52552688e-01f,
-1.49663627e-01f,+5.25582209e-02f,+1.77434534e-01f,-1.30400553e-01f,+1.36372894e-01f,
-8.75287279e-02f,+3.37455124e-01f,-2.28021257e-02f,+1.80965811e-01f,-1.36413619e-01f,
+2.89669931e-01f,+5.62991686e-02f,+1.15581974e-01f,+7.46899424e-03f,+1.33220643e-01f,
+5.72289936e-02f,+1.11531489e-01f,+9.25432816e-02f,-5.65145686e-02f,-3.85993682e-02f,
+1.70678705e-01f,-1.76923662e-01f,-1.21266618e-01f,+3.56796622e-01f,+2.62554646e-01f,
-2.35858232e-01f,+7.97461066e-03f,-1.45010808e-02f,-4.63644639e-02f,-1.04379311e-01f,
+5.66813126e-02f,+1.21021979e-01f,-6.51560128e-02f,+2.77827591e-01f,-1.03096738e-01f,
-2.97673270e-02f,-3.14765990e-01f,+1.30204752e-01f,+3.02015662e-01f,-1.29479453e-01f,
+8.16663727e-02f,+2.52688617e-01f,-4.96914238e-02f,-1.34214452e-02f,-3.49303521e-02f,
-1.57903582e-02f,+1.09559320e-01f,+2.61107534e-01f,+1.11365035e-01f,-4.65903096e-02f,
+1.75476715e-01f,+1.83560401e-01f,-1.36198327e-01f,-8.88801441e-02f,+2.61537973e-02f,
+5.84341474e-02f,-4.36696894e-02f,+2.39402071e-01f,-2.68836319e-01f,-4.79186885e-02f,
+1.43678397e-01f,-2.12316737e-01f,-7.44191417e-03f,-2.86266338e-02f,+2.51098275e-01f,
+1.42278876e-02f,+2.26294309e-01f,-5.20221181e-02f,-1.07718900e-01f,+3.63694251e-01f,
+1.90743148e-01f,+1.00864485e-01f,-9.88628119e-02f,-5.51856086e-02f,+9.39511657e-02f,
+2.34647304e-01f,+5.23524359e-02f,-1.89842477e-01f,+6.57455474e-02f,+2.50599355e-01f,
-1.05114490e-01f,+3.75143498e-01f,-1.56414732e-01f,+1.10312298e-01f,+1.79141790e-01f,
-1.79614171e-01f,+2.52061307e-01f,-5.83930500e-02f,-7.13338405e-02f,-1.48226649e-01f,
+4.55985516e-02f,-1.62800297e-01f,+1.80124074e-01f,+7.19628856e-02f,-2.75740325e-01f,
-2.12640256e-01f,+2.33258568e-02f,+2.56369133e-02f,-1.29623577e-01f,+2.43229091e-01f,
-5.67325912e-02f,+1.15917772e-01f,+6.82043284e-02f,-1.11857601e-01f,-2.05195218e-01f,
+7.08031133e-02f,-3.49345207e-02f,+1.86765879e-01f,+2.62090355e-01f,+1.44831643e-01f,
+1.55011803e-01f,+3.50157619e-01f,+2.05921102e-02f,-9.09594744e-02f,-3.08032155e-01f,
+1.16051875e-01f,+2.14340597e-01f,+1.06121063e-01f,+1.35930941e-01f,+2.12194756e-01f,
-1.74966782e-01f,+9.42986831e-02f,-2.48574719e-01f,+5.14506847e-02f,+2.08544016e-01f,
-2.36743078e-01f,+8.44580531e-02f,+3.51554826e-02f,+1.29519314e-01f,+2.14912131e-01f,
-1.11476690e-01f,-6.63537905e-02f,+1.62735805e-01f,-2.73768872e-01f,-1.23327397e-01f,
-1.53043821e-01f,+2.99804896e-01f,+8.81717578e-02f,+2.61092871e-01f,+1.22949239e-02f,
-1.45837188e-01f,-1.75813466e-01f,+2.22103104e-01f,-7.43498728e-02f,-4.67365235e-02f,
+1.57498300e-01f,+2.39196554e-01f,-4.24383245e-02f,+5.83743639e-02f,+4.03605811e-02f,
-2.15634093e-01f,+4.26158346e-02f,+3.70693170e-02f,+1.35015801e-01f,+6.13441281e-02f,
-1.25853777e-01f,+3.50209475e-02f,+3.06289107e-01f,+8.58697593e-02f,+2.09725574e-01f,
+1.72124416e-01f,-3.77391666e-01f,+3.51347089e-01f,+2.44127333e-01f,+1.21734940e-01f,
+2.25817375e-02f,+2.13923603e-02f,-1.23913668e-01f,+1.23901211e-01f,-1.64172888e-01f,
-6.66075125e-02f,-1.16217658e-01f,+1.90990984e-01f,+5.73434681e-02f,+1.07350193e-01f,
+3.66855979e-01f,-1.34696467e-02f,-2.12789163e-01f,+2.37736080e-04f,+5.29562943e-02f,
-1.19529076e-01f,+5.14338678e-03f,+4.29857895e-02f,+3.14338104e-04f,-7.52680376e-02f,
+1.75768137e-01f,+2.17215016e-01f,+1.78136751e-01f,-9.19229835e-02f,-4.16477174e-02f,
-1.92411631e-01f,+1.23522304e-01f,-2.62569815e-01f,+1.85552582e-01f,+3.57089698e-01f,
+4.59284812e-01f,-4.48973961e-02f,-8.45038593e-02f,+1.50594160e-01f,+1.93195105e-01f,
+1.78492859e-01f,-2.65721023e-01f,-7.90735185e-02f,+9.09515750e-03f,-6.33079465e-03f,
-3.64385962e-01f,+1.34898603e-01f,-8.35293159e-02f,+8.82721096e-02f,-2.61593983e-02f,
+9.04040784e-02f,-1.30196795e-01f,+1.97826073e-01f,+1.15338773e-01f,+7.14871213e-02f,
-6.27790168e-02f,-1.43126830e-01f,+1.86788157e-01f,-2.01600119e-02f,-1.07263951e-02f,
-2.03627154e-01f,-1.41327634e-01f,-4.44741081e-03f,-9.79805216e-02f,-9.03519765e-02f,
+9.71033052e-03f,+1.43151239e-01f,-4.11507003e-02f,+2.09849868e-02f,+9.28363055e-02f,
+3.02661568e-01f,-2.11953416e-01f,+1.34717941e-01f,+2.05223206e-02f,+2.90362954e-01f,
+5.16747236e-01f,+2.06370011e-01f,-1.44220650e-01f,+1.23738758e-01f,-2.11643934e-01f,
+4.47031915e-01f,-1.27263740e-01f,+2.76794344e-01f,-2.78926864e-02f,+1.51934654e-01f,
-3.82372551e-02f,-2.89839268e-01f,+1.41833916e-01f,+1.14424214e-01f,+4.27436922e-03f,
-7.54180253e-02f,-1.97213233e-01f,+1.20253719e-01f,+7.20650926e-02f,+1.83323011e-01f,
+2.45629713e-01f,+9.95588079e-02f,+9.93833169e-02f,+1.89844713e-01f,+1.16212279e-01f,
-1.17950432e-01f,+2.26023138e-01f,-5.11258133e-02f,-3.41370374e-01f,-2.53226131e-01f,
+2.27775216e-01f,+7.86923096e-02f,-6.56450167e-02f,-1.00307122e-01f,-2.14346424e-01f,
+1.83498695e-01f,+1.07070968e-01f,-1.90618947e-01f,+2.07511589e-01f,-3.12606484e-01f,
+5.11094816e-02f,+3.75536233e-01f,+1.64067782e-02f,+1.53509125e-01f,-4.44817916e-02f,
+9.10077021e-02f,-1.01179555e-01f,+1.05149066e-03f,-3.54730606e-01f,+2.51834691e-01f,
-2.88684100e-01f,-2.88446277e-01f,-7.44451955e-02f,-2.00450093e-01f,+1.12955600e-01f,
+2.51751035e-01f,+3.28846365e-01f,+1.98509485e-01f,+1.43702328e-01f,+1.53037667e-01f,
+7.31304958e-02f,+2.69679576e-02f,+2.93154866e-02f,+2.16831818e-01f,+1.09489886e-02f,
+4.78366688e-02f,+2.29076684e-01f,+7.64988810e-02f,-4.04218659e-02f,+1.72206685e-02f,
-5.11052981e-02f,+2.10145026e-01f,+1.05395801e-01f,+4.92116576e-03f,-4.90017354e-01f,
-5.27956821e-02f,-1.13023199e-01f,-2.10889056e-02f,-8.53860006e-02f,+3.83746058e-01f,
+1.36000272e-02f,+8.89848024e-02f,-3.19096208e-01f,+6.80673346e-02f,+1.84630170e-01f,
-4.57577817e-02f,-3.69865149e-01f,+1.14712715e-01f,-6.40623197e-02f,-2.00917423e-02f,
-2.84259785e-02f,-1.33792600e-02f,+1.20730132e-01f,+7.73051977e-02f,+1.68260727e-02f,
+8.96412432e-02f,+1.53888732e-01f,-1.84018344e-01f,+1.12115458e-01f,+1.41625270e-01f,
-6.74864128e-02f,-2.28956193e-01f,+1.47477880e-01f,-2.15027913e-01f,-2.18399331e-01f,
+1.29200704e-02f,+1.09102562e-01f,+9.41550732e-02f,-1.27529308e-01f,-2.12255046e-01f,
+2.48579368e-01f,+2.31420547e-01f,-1.30169079e-01f,-1.66397646e-01f,-1.29714921e-01f,
-6.14329353e-02f,-1.52834907e-01f,+8.03702138e-03f,+5.45289218e-02f,+9.42309871e-02f,
-1.32636294e-01f,+1.82236597e-01f,-2.59940058e-01f,+1.37534812e-01f,-7.45541677e-02f,
-4.52832431e-02f,-6.88676685e-02f,-1.40931550e-03f,-8.14845338e-02f,-2.14731231e-01f,
+4.68200035e-02f,-1.46791860e-01f,-1.47409469e-01f,+1.48800999e-01f,+4.21102285e-01f,
+1.49700895e-01f,-1.55180022e-01f,-2.27327608e-02f,+7.67780393e-02f,-5.46265021e-02f,
-5.67552894e-02f,-2.28286296e-01f,-4.39730007e-03f,-5.50564528e-02f,+6.10826798e-02f,
+2.17748716e-01f,+6.77526742e-02f,-2.03620060e-03f,-1.39269978e-01f,+1.89430699e-01f,
+1.72148898e-01f,+4.61651802e-01f,+5.68511747e-02f,-5.00263125e-02f,-2.39992961e-01f,
-5.22953011e-02f,+2.44433712e-02f,+1.58455931e-02f,-3.64451617e-01f,+1.99980270e-02f,
+1.80070579e-01f,+2.73495436e-01f,+9.10793617e-02f,+5.39370738e-02f,+1.33575588e-01f,
+1.12123057e-01f,+2.77174003e-02f,-4.66596186e-02f,+3.13906431e-01f,+2.79702954e-02f,
-1.64551839e-01f,+1.94232345e-01f,+7.66199157e-02f,-1.57469094e-01f,+2.99663275e-01f,
+9.89143625e-02f,-1.02907322e-01f,+7.36859143e-02f,+1.83888540e-01f,+5.73153198e-02f,
+2.54070878e-01f,-7.86728188e-02f,+6.95032552e-02f,+3.01032979e-02f,+2.03521028e-01f,
-6.73372447e-02f,-2.50611473e-02f,+4.73378003e-02f,+1.82034597e-01f,-1.11785308e-01f,
-1.49269491e-01f,-1.08984336e-01f,+2.04440996e-01f,+2.75275223e-02f,+6.19562343e-02f,
+8.52185637e-02f,-1.61888972e-01f,+9.95626599e-02f,-1.48698822e-01f,+9.32612494e-02f,
+8.72113779e-02f,-3.72027010e-01f,+9.30103958e-02f,+9.43576470e-02f,+2.42188588e-01f,
-7.26010203e-02f,-2.81540072e-03f,+5.40899694e-01f,+1.50120020e-01f,+2.67935663e-01f,
-1.31828738e-02f,-1.74813807e-01f,-9.88807008e-02f,-6.55069798e-02f,+1.71041004e-02f,
-4.10262942e-01f,-9.33184773e-02f,+1.67745799e-01f,-3.71702909e-02f,-4.38693494e-01f,
+1.45404637e-01f,-8.09616074e-02f,-3.73213664e-02f,+1.74296409e-01f,-8.69780481e-02f,
+1.33101776e-01f,+1.07597232e-01f,+9.47472453e-02f,-1.28399655e-01f,+1.86658487e-01f,
-4.55333143e-02f,+2.07287341e-01f,-1.83195665e-01f,+1.08850025e-01f,+2.08328113e-01f,
-7.58282766e-02f,-3.23773734e-02f,-3.02375630e-02f,+6.12965301e-02f,+4.04427350e-01f,
-4.33582813e-02f,+2.54618973e-01f,+1.95215434e-01f,+4.44980487e-02f,+2.43617762e-02f,
+1.21290267e-01f,-1.95344374e-01f,-1.90809667e-01f,+1.82649761e-01f,+1.98198035e-02f,
-4.60815206e-02f,+1.89855143e-01f,-1.89064994e-01f,-8.38580728e-02f,-5.91646358e-02f,
+2.92127244e-02f,+2.00200379e-01f,-3.50408345e-01f,+1.03828795e-01f,-9.81501713e-02f,
-3.66659276e-02f,-2.48174995e-01f,-4.97375429e-02f,+1.09345622e-01f,+2.53102295e-02f,
+1.28119305e-01f,+2.36924231e-01f,+2.36573011e-01f,+1.88307151e-01f,-2.18731463e-01f,
+8.61613676e-02f,+6.19880185e-02f,+2.47895151e-01f,+1.31756306e-01f,+1.46244466e-01f,
+1.42978892e-01f,-1.36747658e-01f,-8.06411803e-02f,+8.86748661e-04f,-5.21208569e-02f,
-3.70318107e-02f,+4.19898480e-02f,-1.90815955e-01f,+9.31817740e-02f,-2.89047539e-01f,
+8.07471499e-02f,+2.95654297e-01f,-8.12074393e-02f,-3.95985208e-02f,-2.24631615e-02f,
+2.05204915e-02f,+1.81650370e-01f,-2.92930931e-01f,-5.41446581e-02f,+3.80863110e-03f,
-1.81731537e-01f,-5.15576266e-02f,+3.88208516e-02f,-9.05181691e-02f,+1.30395338e-01f,
-2.10600346e-01f,+6.29083663e-02f,+1.01167023e-01f,-3.02237626e-02f,-1.53474296e-02f,
-6.73608184e-02f,+1.21503256e-01f,+7.09857326e-03f,+2.05664411e-01f,-5.57543598e-02f,
+1.20341621e-01f,-2.19994962e-01f,+1.58335805e-01f,+2.98045278e-01f,+1.32441118e-01f,
-2.22879127e-02f,+2.90225856e-02f,-1.83673158e-01f,+6.03654841e-03f,-2.45147631e-01f,
-9.57964137e-02f,-3.85165960e-02f,-1.52407840e-01f,+1.16839148e-01f,+9.39418599e-02f,
-4.65525724e-02f,+1.43113723e-02f,-2.52213050e-02f,-1.36332124e-01f,-1.76845327e-01f,
+1.19722947e-01f,+5.03340038e-04f,-1.14108495e-01f,+6.51821718e-02f,-1.39909774e-01f,
+3.72176051e-01f,+1.41710505e-01f,+2.43054792e-01f,-1.15000539e-01f,+3.37274671e-02f,
-1.42980844e-01f,-1.39555752e-01f,+1.09495640e-01f,-8.37984681e-02f,+1.78102180e-02f,
+3.77954659e-03f,-9.40098241e-02f,-3.47872138e-01f,+1.07452139e-01f,+1.93401724e-01f,
-8.40008855e-02f,-1.62031189e-01f,-4.33285721e-02f,+9.62788984e-02f,+3.76874469e-02f,
+4.62351367e-02f,-1.56271130e-01f,+9.90070179e-02f,+1.63535625e-01f,-2.52218604e-01f,
-1.01445295e-01f,-4.96265776e-02f,+1.90661073e-01f,+2.12978467e-01f,+1.31164759e-01f,
-9.16215330e-02f,+2.90577799e-01f,+1.64544910e-01f,+1.27821565e-01f,+1.28946483e-01f,
+5.13440333e-02f,+7.56366774e-02f,+9.64837223e-02f,-5.44241853e-02f,-1.04584508e-01f,
+3.80935706e-02f,-9.12278369e-02f,-6.24315254e-02f,-4.54080179e-02f,+7.89423436e-02f,
+2.77364324e-03f,-1.24479815e-01f,-7.32443109e-02f,+1.61388606e-01f,-1.46050379e-01f,
+6.23444766e-02f,+1.25059970e-02f,-3.70410621e-01f,-1.68488070e-01f,+8.21085274e-02f,
+7.39912912e-02f,+1.49519727e-01f,-9.57576185e-02f,+1.64210603e-01f,+2.37488627e-01f,
-2.17931733e-01f,+8.28781500e-02f,+8.61135647e-02f,+3.85549851e-02f,+5.98735139e-02f,
+8.59489515e-02f,+4.40498181e-02f,-1.59790218e-02f,-1.62402660e-01f,+1.62833840e-01f,
-8.68269056e-02f,+1.44671708e-01f,-7.17739239e-02f,-2.89420169e-02f,+5.37963072e-03f,
+8.83940142e-03f,-4.70947437e-02f,-7.44004771e-02f,+2.42006004e-01f,+7.37331212e-02f,
-8.57640356e-02f,+9.59930494e-02f,-1.06470309e-01f,-1.75837815e-01f,+1.17902063e-01f,
-1.09190740e-01f,-3.13398451e-01f,+9.92388725e-02f,+7.27412552e-02f,-9.43822637e-02f,
+1.09338090e-01f,-9.80353430e-02f,-2.06982240e-01f,-2.45765448e-01f,-1.71265557e-01f,
+5.19524999e-02f,+1.66275188e-01f,+2.44897410e-01f,-2.35389188e-01f,+1.40728876e-01f,
+2.09932867e-02f,-1.77616343e-01f,-7.98039213e-02f,+3.84389102e-01f,-9.35788825e-02f,
+1.71937153e-01f,+7.36160250e-03f,-5.10558560e-02f,+2.80021876e-02f,+1.75774843e-01f,
+2.43620530e-01f,+2.57663935e-01f,+2.23589525e-01f,-4.69193375e-03f,+3.10554244e-02f,
-2.90162385e-01f,-1.19496591e-01f,+3.35290395e-02f,-1.63495079e-01f,+8.41888189e-02f,
-5.20627610e-02f,+1.55848831e-01f,-6.74314201e-02f,-1.03059739e-01f,-1.06300019e-01f,
-3.95746119e-02f,-1.62754342e-01f,-5.47539908e-03f,+1.44689083e-01f,-1.01302013e-01f,
+3.04493546e-01f,-1.06029242e-01f,+5.45810163e-03f,-2.70499545e-03f,+1.56228811e-01f,
+6.84895217e-02f,-1.38904393e-01f,+2.46252701e-01f,+3.32103595e-02f,+1.44551517e-02f,
-1.05112508e-01f,+1.55013010e-01f,+2.63712257e-01f,+1.41493510e-02f,+1.14244588e-01f,
+8.39550942e-02f,+3.01388621e-01f,-1.09008417e-01f,-1.07443601e-01f,-2.74858791e-02f,
+3.37310791e-01f,+1.18270673e-01f,-1.19378187e-01f,-2.02867270e-01f,-5.53749725e-02f,
+1.22691818e-01f,-9.67111290e-02f,+8.53211656e-02f,-6.95330501e-02f,-3.30769509e-01f,
+2.63167560e-01f,+2.22109091e-02f,+2.06565067e-01f,-2.25989949e-02f,-6.65159971e-02f,
-1.24960979e-02f,-7.16168955e-02f,-9.84274298e-02f,+3.76708135e-02f,+3.00442219e-01f,
+1.65609390e-01f,-9.81182326e-03f,+4.25990634e-02f,+3.13266248e-01f,-6.05230369e-02f,
+2.19109461e-01f,+4.18964550e-02f,-7.97758438e-03f,-6.32337620e-03f,-7.20091164e-02f,
-3.24875973e-02f,-1.13966748e-01f,-1.24356952e-02f,-6.56737387e-02f,+3.54338996e-02f,
-2.48140231e-01f,+9.77115929e-02f,+4.67782244e-02f,+5.80962785e-02f,-1.32359182e-02f,
-1.03328694e-02f,+1.17540494e-01f,+1.84551805e-01f,-2.82350123e-01f,-2.12271437e-01f,
+3.32032621e-01f,+6.88558221e-02f,+3.86336781e-02f,-6.07193895e-02f,-4.91281338e-02f,
-4.38223444e-02f,-2.76624948e-01f,-5.74987605e-02f,+6.74660131e-02f,-1.91107556e-01f,
-2.07599550e-01f,-2.36401893e-02f,-1.62949070e-01f,+2.93874647e-02f,-4.82239500e-02f,
-1.32456481e-01f,+1.22479200e-01f,-4.24236953e-02f,-1.15739750e-02f,-8.68827403e-02f,
+1.15568444e-01f,+8.38151276e-02f,-2.23039553e-01f,+2.45430842e-01f,+3.57082665e-01f,
-2.12166365e-02f,+2.83667743e-01f,-1.14099765e-02f,+1.42922327e-01f,-2.80779988e-01f,
+1.46338046e-01f,-2.21305847e-01f,-4.48357826e-03f,-1.58294693e-01f,+1.70879915e-01f,
-1.85332432e-01f,+9.43718031e-02f,-2.75697075e-02f,+8.59075692e-03f,+1.25014573e-01f,
+4.05592978e-01f,-7.25831538e-02f,-1.20401964e-01f,-3.23417574e-01f,+6.37441874e-02f,
+8.20304677e-02f,-1.95538193e-01f,-2.19009027e-01f,-4.03794050e-02f,+1.97414130e-01f,
-1.30748063e-01f,-9.83411223e-02f,-2.11680949e-01f,-4.35523735e-03f,-3.00125778e-02f,
-1.17971204e-01f,-2.49429625e-02f,+2.73723394e-01f,+2.17351858e-02f,-1.43413022e-01f,
+1.94170207e-01f,-1.01162322e-01f,-1.58984791e-02f,+1.37207538e-01f,-9.26622897e-02f,
-8.12751651e-02f,+4.07520413e-01f,+1.31615056e-02f,+1.89912766e-02f,+2.37025350e-01f,
-1.47229299e-01f,+1.47116497e-01f,+2.05128789e-01f,+1.73577860e-01f,-2.64001768e-02f,
-2.72144526e-02f,-1.85417295e-01f,-1.49829179e-01f,+1.13097452e-01f,+2.83257991e-01f,
-2.25572333e-01f,+1.38073787e-01f,-3.65003459e-02f,-1.90975353e-01f,+1.68166786e-01f,
-1.69454888e-01f,-3.27894896e-01f,-3.56233604e-02f,+2.57947028e-01f,+1.41238630e-01f,
-1.05713651e-01f,+1.42082244e-01f,-2.01040208e-02f,+3.05763274e-01f,+1.76229194e-01f,
-1.36279464e-01f,+7.85787329e-02f,-2.73435593e-01f,+7.20811337e-02f,+2.45278105e-01f,
+2.25015804e-01f,-2.90990509e-02f,-1.46295235e-01f,-8.48437771e-02f,+1.07513756e-01f,
+7.76270777e-02f,+3.95940214e-01f,+1.40207008e-01f,-1.14986934e-02f,-9.30330530e-02f,
-1.80184647e-01f,-1.01903729e-01f,+7.14735985e-02f,+1.04042962e-01f,+2.76150331e-02f,
+1.30768865e-01f,-1.89729929e-01f,+1.05577126e-01f,+5.17562665e-02f,-2.20596969e-01f,
+1.03153162e-01f,+3.16856295e-01f,+3.19082588e-01f,-7.58387661e-03f,+2.38342270e-01f,
-2.85446525e-01f,-3.84248160e-02f,+1.20751082e-03f,+2.92128861e-01f,-1.09194532e-01f,
-1.27664119e-01f,-9.55393910e-02f,+7.39902183e-02f,-1.10202506e-02f,-1.89276889e-01f,
-4.57201116e-02f,+4.19798717e-02f,+1.51546434e-01f,-2.82525085e-02f,-2.01119959e-01f,
+3.15093189e-01f,+2.08624318e-01f,+1.94430202e-02f,+1.64819807e-02f,-1.52931303e-01f,
-2.05521941e-01f,+3.18447083e-01f,+1.42775506e-01f,-1.30000487e-01f,-3.46416146e-01f,
-9.56342444e-02f,+6.99313655e-02f,+2.56261438e-01f,+2.35310137e-01f,-7.91431442e-02f,
+3.85263205e-01f,+4.34412882e-02f,-1.49087921e-01f,-1.48071900e-01f,+5.24286181e-02f,
-1.61627918e-01f,-3.03926226e-02f,-2.87993342e-01f,-2.10391179e-01f,-2.76502334e-02f,
+2.63662487e-01f,+3.55732113e-01f,-1.16014574e-02f,-4.32092175e-02f,-3.20503831e-01f,
-7.41159245e-02f,-1.29546672e-01f,+3.55265975e-01f,-2.10640882e-03f,-3.53807956e-02f,
+2.65613437e-01f,+2.20145285e-01f,-1.07079456e-02f,+1.13723293e-01f,-8.65612030e-02f,
+1.99673742e-01f,+1.55567184e-01f,-1.13245875e-01f,+2.32523993e-01f,-1.67468041e-01f,
-1.27336264e-01f,-6.25242293e-02f,-1.60612807e-01f,-2.61576742e-01f,+9.26984008e-03f,
-1.07743584e-01f,+6.16426207e-02f,+1.21772297e-01f,+1.65700346e-01f,+5.86015992e-02f,
+1.97986644e-02f,-2.04405680e-01f,+5.24083599e-02f,+2.28742197e-01f,-1.06566302e-01f,
-2.32920162e-02f,-9.46123991e-03f,-1.10800222e-01f,+6.12734184e-02f,+1.50241077e-01f,
+3.36726159e-01f,+1.91924527e-01f,+7.30382651e-02f,+1.13445312e-01f,-3.31940889e-01f,
-8.74823541e-04f,-6.15288727e-02f,+8.53996649e-02f,+1.69768780e-01f,-3.99272859e-01f,
-3.94389093e-01f,+2.46730939e-01f,+6.03993535e-02f,-6.50953799e-02f,-8.40352848e-02f,
+5.25347888e-02f,+1.60943463e-01f,+9.88616422e-02f,+1.51466325e-01f,+5.02936915e-02f,
-1.48344278e-01f,-2.37738281e-01f,+1.46218121e-01f,+6.55480102e-02f,-1.88773990e-01f,
-2.83308446e-01f,+1.83258474e-01f,-7.17508197e-02f,+1.36689857e-01f,+1.09808631e-01f,
-2.93108225e-02f,-3.75304371e-02f,-1.81038797e-01f,+1.44433230e-01f,-1.51973337e-01f,
+1.77508771e-01f,-3.63521539e-02f,-3.10802609e-02f,+5.96078098e-01f,+1.45241439e-01f,
-1.59795374e-01f,-1.32890597e-01f,+8.88597891e-02f,-1.43376797e-01f,-1.67479679e-01f,
+1.60027385e-01f,-5.97679466e-02f,+6.13879114e-02f,-2.31387511e-01f,+2.99252927e-01f,
+2.23394752e-01f,+9.61296409e-02f,+5.90383820e-02f,-2.16855496e-01f,+1.91735432e-01f,
+1.80118069e-01f,+1.34728076e-02f,+6.75144270e-02f,+4.37141247e-02f,+1.85121968e-01f,
+8.48349370e-03f,+2.90729180e-02f,-1.24626741e-01f,-7.20382808e-03f,-1.52657136e-01f,
-6.94136992e-02f,+6.27073795e-02f,-2.80546434e-02f,+1.28321394e-01f,-9.37974155e-02f,
+1.95250437e-01f,+3.36171150e-01f,+1.58488862e-02f,-9.59241241e-02f,+4.83668782e-02f,
+1.33399859e-01f,-5.69839068e-02f,+7.85491988e-02f,+5.94176315e-02f,+4.07047987e-01f,
+3.42253566e-01f,+1.35936618e-01f,+2.59734988e-01f,-4.47492838e-01f,+9.85311419e-02f,
-3.25069070e-01f,-7.30628595e-02f,-7.84059688e-02f,+2.23194342e-02f,+6.89600483e-02f,
+1.07211128e-01f,+1.95768043e-01f,+1.77454591e-01f,-1.49345830e-01f,+2.40636095e-01f,
-4.88530323e-02f,+2.40874186e-01f,-6.20378293e-02f,+2.26807490e-01f,+3.70220095e-01f,
-1.71405431e-02f,+1.78967476e-01f,+2.03014016e-01f,-7.38056377e-02f,-3.66665840e-01f,
-3.75609621e-02f,-1.19292229e-01f,+6.39036521e-02f,-4.88415062e-02f,+2.79268503e-01f,
+7.49371573e-02f,+7.53169274e-03f,-7.72100757e-04f,+2.07145512e-01f,+6.38901815e-02f,
-2.47264523e-02f,+8.93218666e-02f,+1.04059048e-01f,+1.62564814e-01f,-9.82089620e-03f,
-1.31501645e-01f,-1.99208543e-01f,+1.22995220e-01f,+4.33494270e-01f,+2.15087816e-01f,
-6.05080947e-02f,-1.00764439e-01f,-1.06756851e-01f,+6.52355179e-02f,+2.78703392e-01f,
+1.79125085e-01f,+1.86602473e-01f,+3.32308441e-01f,-4.42324430e-02f,+2.68407792e-01f,
+2.70307899e-01f,+3.67305845e-01f,+2.83213466e-01f,-1.38036668e-01f,+6.67789504e-02f,
+3.74071807e-01f,+3.78728524e-04f,-5.94331957e-02f,+3.00221980e-01f,-3.30434591e-02f,
-8.11768621e-02f,+4.22005132e-02f,+1.69847280e-01f,+4.55502793e-02f,+2.05295563e-01f,
+2.45035976e-01f,-1.07957236e-01f,+1.13958297e-02f,-4.67847198e-01f,+5.54298684e-02f,
-7.02618212e-02f,-7.81648979e-02f,-4.76391874e-02f,-1.03476159e-01f,-9.81503725e-02f,
+4.33350801e-02f,+1.97374612e-01f,-1.13359299e-02f,-3.68265733e-02f,+2.38706805e-02f,
+4.34053749e-01f,-1.86242238e-01f,+2.01360866e-01f,+9.57983583e-02f,-1.38853177e-01f,
+4.15498376e-01f,+2.04404425e-02f,-1.15098329e-02f,-5.57991974e-02f,+3.11635877e-03f,
+1.50988817e-01f,+1.25546962e-01f,+3.39507967e-01f,-9.86281782e-02f,+1.71517536e-01f,
-7.56001845e-02f,+8.41719955e-02f,+1.87307417e-01f,-4.29529957e-02f,+8.94744098e-02f,
+9.23697874e-02f,+2.93366402e-01f,-3.13522965e-01f,+1.36227190e-01f,+1.74787641e-01f,
+4.89575453e-02f,-3.66125882e-01f,-5.85483313e-02f,-2.38624752e-01f,+1.11551220e-02f,
+1.72511831e-01f,+5.72579801e-02f,-8.59312043e-02f,+3.95724326e-02f,+9.28972214e-02f,
+1.05296433e-01f,+1.91004183e-02f,+2.24349722e-01f,+3.52523088e-01f,-2.15011258e-02f,
+1.35139331e-01f,-1.36263251e-01f,-1.45867243e-01f,+1.07275501e-01f,+1.11274309e-01f,
-2.20273569e-01f,+8.63391906e-02f,-1.56727895e-01f,+7.27117285e-02f,-1.70488119e-01f,
-4.05952893e-02f,-1.60601839e-01f,+3.02066654e-01f,-1.48226291e-01f,+1.16582789e-01f,
-3.81049253e-02f,+4.21011820e-02f,+4.27042730e-02f,+3.89028370e-01f,+1.72972232e-01f,
+9.51953754e-02f,+1.39999419e-01f,-5.66233993e-02f,+4.01230395e-01f,+2.17272505e-01f,
+4.77992184e-02f,-1.82685792e-01f,-1.79939762e-01f,-2.78116643e-01f,-8.12870711e-02f,
+1.23861760e-01f,+1.33933812e-01f,-6.03968576e-02f,+2.78500855e-01f,+1.39670700e-01f,
-1.90862343e-01f,-1.83248371e-01f,-2.04774439e-02f,+6.07147180e-02f,+2.16510609e-01f,
+1.65492252e-01f,+3.42523098e-01f,-4.21625115e-02f,+3.05178314e-01f,-1.08686805e-01f,
-1.09588176e-01f,+2.40032360e-01f,-9.93785188e-02f,+2.91253865e-01f,+1.25010565e-01f,
+7.14413673e-02f,+1.82729080e-01f,-2.11627483e-02f,+2.95836002e-01f,-8.69775936e-02f,
-1.73223436e-01f,-2.74931431e-01f,+6.22473396e-02f,-1.60569757e-01f,-1.16244955e-02f,
+1.77578181e-02f,-7.06015155e-02f,+3.96256000e-02f,+1.51286125e-01f,+1.15493387e-01f,
+9.84808803e-02f,-1.22493111e-01f,-3.05417832e-02f,+3.11501827e-02f,-1.58412233e-01f,
+1.20725885e-01f,-1.42707586e-01f,+9.32014138e-02f,-1.23351991e-01f,-5.27583212e-02f,
+1.15061976e-01f,+1.60325225e-02f,-2.25859247e-02f,-9.37004983e-02f,+8.81761685e-02f,
-1.34769417e-02f,+1.29491761e-01f,+1.95523411e-01f,-5.04892841e-02f,+1.54171707e-02f,
-1.26176467e-02f,-8.36220384e-02f,+3.92099053e-01f,+3.22217494e-01f,+7.48495981e-02f,
-1.73268709e-02f,+3.60120460e-02f,-1.32529765e-01f,+1.61173493e-01f,-5.72800636e-02f,
-8.73839036e-02f,+1.14811048e-01f,-1.77540198e-01f,+1.02667063e-01f,+1.44085558e-02f,
+2.09830269e-01f,-7.80816898e-02f,+1.21071383e-01f,+7.98286498e-02f,-2.67540425e-01f,
-5.07657230e-02f,-1.67250887e-01f,+6.29737899e-02f,-1.71567112e-01f,+8.99989903e-02f,
+9.45440903e-02f,+2.54349001e-02f,-9.77085680e-02f,+1.67998701e-01f,+4.47461121e-02f,
+1.76207535e-02f,-1.08729199e-01f,+1.18661053e-01f,+1.71012178e-01f,-2.74362057e-01f,
-7.86269605e-02f,+2.32559349e-02f,+6.10234737e-02f,+4.29306291e-02f,-1.34116560e-01f,
-2.03446835e-01f,+7.41673559e-02f,-4.14954156e-01f,+1.75603032e-01f,-1.06392905e-01f,
-5.65468594e-02f,+7.95126408e-02f,-2.26487815e-01f,+3.16461921e-01f,+2.70743966e-01f,
+2.98608869e-01f,-1.24370471e-01f,-1.39585249e-02f,+5.77017404e-02f,+2.03501657e-01f,
+8.14952552e-02f,-1.45396981e-02f,+2.42979848e-03f,+1.43130496e-01f,-1.76018700e-02f,
+1.52374640e-01f,+1.19774811e-01f,-4.15446199e-02f,-3.48590240e-02f,+1.85182825e-01f,
+7.87978768e-02f,-1.51370307e-02f,+1.81489930e-01f,-1.96537659e-01f,-7.02177510e-02f,
-2.11626679e-01f,-1.75233617e-01f,+8.75554830e-02f,-3.47118944e-01f,-1.62443653e-01f,
-6.15617121e-03f,-1.17421009e-01f,-8.96949172e-02f,+1.17415898e-01f,+2.30733678e-02f,
-8.20713416e-02f,+8.64047781e-02f,-5.15219085e-02f,-2.62744188e-01f,-1.42278448e-01f,
-2.89348334e-01f,+3.29576731e-02f,+2.74377093e-02f,-2.52615716e-02f,-2.07987100e-01f,
+1.63320415e-02f,-2.02786028e-01f,+6.11332618e-02f,+2.43814196e-02f,-1.54469684e-01f,
-1.44748256e-01f,-1.31357521e-01f,+1.06296577e-01f,+3.38817149e-01f,+3.30097347e-01f,
+2.17085153e-01f,-8.10932219e-02f,-2.77099401e-01f,-8.14978182e-02f,-3.48060355e-02f,
+5.64867109e-02f,+1.39815614e-01f,-1.17159873e-01f,-3.11605811e-01f,+5.00319302e-02f,
+3.17299426e-01f,-9.87222046e-03f,-1.98226288e-01f,-8.49245116e-02f,-1.21640436e-01f,
-1.27198070e-01f,-2.21934050e-01f,+3.17286462e-01f,-2.47731924e-01f,+1.31630227e-01f,
-6.21898286e-02f,+1.56586930e-01f,+2.87801415e-01f,+1.07383786e-03f,-3.03631186e-01f,
-3.56975794e-01f,-3.33678462e-02f,-7.16252699e-02f,-2.08504140e-01f,-1.63694233e-01f,
+2.71662533e-01f,+1.07987178e-03f,+3.50367799e-02f,-7.99375996e-02f,+1.27985492e-01f,
+6.26840666e-02f,-7.18478188e-02f,+5.09885311e-01f,-4.11290023e-03f,+3.75478603e-02f,
-3.37355822e-01f,-5.77401444e-02f,-4.76668365e-02f,+1.13432623e-01f,+3.62301059e-02f,
+4.74951565e-02f,-2.16068685e-01f,+5.16627021e-02f,+1.74926799e-02f,-1.18419141e-01f,
+4.02007848e-02f,+1.17939480e-01f,-2.00155854e-01f,-4.26694490e-02f,+9.16458443e-02f,
+1.28173744e-02f,-8.48489180e-02f,+1.58316836e-01f,-7.00846538e-02f,+1.01364478e-01f,
+1.68547079e-01f,+7.74669647e-02f,+2.75069833e-01f,-1.91997439e-01f,+1.60884902e-01f,
+2.03805998e-01f,+2.70709366e-01f,-1.30349562e-01f,+5.04165189e-03f,-1.34698048e-01f,
-1.72869816e-01f,-1.42457694e-01f,+1.86940387e-01f,-1.82730451e-01f,-5.37082776e-02f,
-4.50717993e-02f,-2.77569354e-01f,+4.83121425e-02f,+1.44243971e-01f,+1.37245715e-01f,
-1.35347933e-01f,+1.94374204e-01f,-2.86879689e-01f,-3.29182178e-01f,-2.15861067e-01f,
+9.27024707e-02f,+1.08635500e-01f,+1.14521019e-01f,+1.67966157e-01f,-8.32713023e-02f,
-1.12370495e-02f,+1.18101373e-01f,-3.88783067e-02f,-1.27023667e-01f,+2.14790300e-01f,
+6.42653257e-02f,-9.93675068e-02f,-1.62103727e-01f,-2.52153724e-02f,-2.70010471e-01f,
-6.59336895e-02f,-1.84635431e-01f,+2.30281964e-01f,+7.71178752e-02f,-2.22234353e-01f,
+1.61084309e-01f,-4.92471568e-02f,+6.42991392e-03f,+3.65559869e-02f,+5.04129753e-02f,
+9.11717117e-02f,-2.42417771e-02f,+1.15945846e-01f,-3.45024496e-01f,-1.30858356e-02f,
+4.03777510e-02f,-1.56145021e-01f,+3.45399857e-01f,-2.90455639e-01f,+6.90064579e-02f,
-3.13152790e-01f,+5.39000481e-02f,-1.04756005e-01f,+1.52050465e-01f,+4.02261578e-02f,
+2.70802587e-01f,+6.19252175e-02f,+2.71992069e-02f,+2.28731185e-02f,-6.59455508e-02f,
-4.68557291e-02f,-1.67784706e-01f,+1.23106480e-01f,+1.19212054e-01f,-8.81102979e-02f,
-9.09713730e-02f,+2.48359427e-01f,+5.21643423e-02f,-1.17045775e-01f,+3.16905528e-01f,
-1.04947458e-03f,+1.90079764e-01f,+7.36683309e-02f,+1.16882190e-01f,-1.88032418e-01f,
-9.84036401e-02f,+6.51682466e-02f,+9.21828765e-03f,+1.09456919e-01f,+6.63914084e-02f,
+2.74710417e-01f,-1.46120697e-01f,+6.05536588e-02f,+4.42629158e-02f,+1.46615401e-01f,
+1.01013705e-01f,-3.34766328e-01f,-3.86404358e-02f,+1.23799995e-01f,+4.43590432e-03f,
+1.96766600e-01f,+7.17538744e-02f,-2.16137528e-01f,-7.95968622e-02f,-8.21140334e-02f,
+1.75624341e-01f,-1.67131111e-01f,+1.34439645e-02f,-7.08509162e-02f,-1.66511387e-01f,
-2.15277240e-01f,-6.85961023e-02f,+7.35244080e-02f,+8.75241980e-02f,-1.79318767e-02f,
-1.31623566e-01f,-8.80704522e-02f,-3.43353808e-01f,+3.64059433e-02f,+8.75531882e-02f,
-1.52157217e-01f,+9.31890160e-02f,+1.48645442e-04f,+2.10502699e-01f,-1.94354534e-01f,
-1.63716897e-02f,+1.93870112e-01f,-6.08826838e-02f,+1.76364169e-01f,+1.67722453e-03f,
+8.61042887e-02f,-3.67785580e-02f,+1.46355957e-01f,+2.43096873e-01f,+2.81891763e-01f,
-1.71399757e-01f,+1.39980331e-01f,+1.35260507e-01f,+1.39823034e-01f,+2.61783570e-01f,
-7.79519528e-02f,+1.04480095e-01f,-2.67084628e-01f,-2.46783823e-01f,-1.34802610e-01f,
-1.34611204e-01f,+1.23019487e-01f,-4.62953374e-03f,-7.09673986e-02f,-6.51906505e-02f,
-1.63147599e-02f,-7.64095336e-02f,-6.92085698e-02f,-2.83918142e-01f,+2.96788752e-01f,
-1.74623847e-01f,-1.25006102e-02f,+1.66922994e-03f,+1.04596965e-01f,+6.26805872e-02f,
+5.69706596e-02f,+2.45751739e-02f,-6.22755736e-02f,-3.40033434e-02f,+7.48721734e-02f,
+7.19598606e-02f,-4.57237773e-02f,-2.57828563e-01f,+1.75329335e-02f,+2.16936111e-01f,
-1.39421105e-01f,-2.57628918e-01f,+5.45870811e-02f,+1.22268619e-02f,+4.25555944e-01f,
-1.15050366e-02f,+3.78215104e-01f,+3.14886957e-01f,+8.58542882e-03f,+3.96722332e-02f,
+1.57040711e-02f,+5.53001724e-02f,+1.26014903e-01f,-4.72408626e-03f,+2.15820018e-02f,
-5.14202677e-02f,-5.70928492e-02f,+1.87653080e-01f,-1.43690929e-01f,+9.61619020e-02f,
+1.28322855e-01f,+1.91002741e-01f,+3.93346548e-02f,+4.60242219e-02f,+3.26280594e-02f,
-1.43951595e-01f,-2.36567855e-01f,-2.26653591e-02f,+2.09306031e-01f,-1.18698165e-01f,
-1.48187727e-01f,-1.39892340e-01f,-8.28778148e-02f,+1.86572328e-01f,+3.82250369e-01f,
-1.08827241e-01f,+9.91409048e-02f,-3.37948382e-01f,-8.78247321e-02f,+5.10064252e-02f,
-1.41875342e-01f,+9.09159482e-02f,-1.33651957e-01f,-2.01534376e-01f,-3.50317925e-01f,
+5.31945229e-02f,+1.71620145e-01f,+1.65544264e-02f,-1.01655737e-01f,+1.19046390e-01f,
+6.91995844e-02f,-7.19956309e-02f,+9.13850144e-02f,+2.21504003e-01f,+6.19932190e-02f,
-1.08436951e-02f,+2.77317941e-01f,-3.52420956e-01f,+1.90542743e-01f,+2.20807925e-01f,
-9.52680930e-02f,-3.46787572e-01f,+1.54967859e-01f,+2.29345441e-01f,+1.82002354e-02f,
+9.00309682e-02f,+3.58566493e-01f,+1.12475403e-01f,+5.17481193e-02f,+3.03391311e-02f,
+5.14031909e-02f,+8.07690341e-03f,-1.82555355e-02f,+2.56884843e-01f,+6.57387376e-02f,
+1.96024626e-01f,-1.52825981e-01f,-7.56191164e-02f,+6.00796044e-02f,+3.78377259e-01f,
+3.27942640e-01f,+1.06360391e-01f,+1.70597613e-01f,+3.43271494e-01f,-1.04311138e-01f,
+8.33394751e-02f,+1.93424433e-01f,-2.74122488e-02f,-9.64862853e-03f,+3.91221233e-02f,
+3.64646196e-01f,-2.55650356e-02f,-3.42358425e-02f,-2.88329739e-02f,-2.20642030e-01f,
-5.74426353e-02f,+3.58632393e-02f,-6.23433031e-02f,+7.67563805e-02f,-3.45809874e-03f,
-1.46642014e-01f,-2.06144243e-01f,+2.29129747e-01f,-7.45666102e-02f,-2.55627453e-01f,
+6.54747635e-02f,+1.00295804e-02f,+1.08840585e-01f,+1.48835033e-03f,+3.43461434e-04f,
+5.32008894e-02f,-4.62245308e-02f,+1.70355260e-01f,-4.91346493e-02f,-4.22240905e-02f,
+6.53439760e-02f,+5.38845137e-02f,-2.32638121e-01f,+2.34842271e-01f,+1.99196726e-01f,
+2.95667723e-02f,-7.06145167e-02f,-2.84837246e-01f,+4.83046360e-02f,-7.02844337e-02f,
+2.81528812e-02f,-7.67006055e-02f,-3.22421640e-01f,+6.47814572e-02f,+1.04806162e-01f,
-1.05219945e-01f,-1.14533433e-03f,-2.06384864e-02f,+9.26071480e-02f,+3.79306823e-01f,
+1.79214582e-01f,+1.08477339e-01f,-1.02417164e-01f,+1.73860386e-01f,+2.19790548e-01f,
+7.88003877e-02f,+2.19943881e-01f,-1.75113514e-01f,+9.16942861e-03f,-3.78346652e-01f,
+8.75489786e-03f,+1.43247738e-01f,-1.02474041e-01f,-1.14306517e-01f,-1.69419855e-01f,
-1.88790441e-01f,+2.75893211e-01f,+2.48248771e-01f,+1.31163657e-01f,+1.02725364e-01f,
+1.54368818e-01f,+1.81519464e-01f,+1.30563796e-01f,+5.14002703e-02f,-2.32604727e-01f,
-5.33690691e-01f,-8.73520318e-03f,+9.75271091e-02f,+1.82755530e-01f,-8.09402764e-02f,
+8.11400041e-02f,-8.28637630e-02f,+1.21624023e-01f,+3.87767851e-01f,-1.08351491e-01f,
+4.64709461e-01f,+2.19151936e-02f,+3.48214316e-03f,-4.85587865e-01f,+2.54468113e-01f,
+2.11342230e-01f,-8.53358209e-02f,+3.28199595e-01f,+2.03717098e-01f,-5.41027300e-02f,
+4.00050431e-02f,-1.53493553e-01f,-1.49088606e-01f,-2.10623696e-01f,-1.22195981e-01f,
-2.59264372e-02f,-6.05388060e-02f,+8.55901912e-02f,-2.80200928e-01f,-1.18519299e-01f,
-7.25710243e-02f,-5.18280491e-02f,-1.86017156e-02f,-1.90960653e-02f,-1.62577868e-01f,
+1.18590966e-01f,-3.06235462e-01f,+1.09888211e-01f,+7.68903121e-02f,-2.17333823e-01f,
-2.07566768e-01f,+9.05938223e-02f,+7.32840924e-03f,-1.14511892e-01f,-2.42055297e-01f,
-5.27176261e-02f,+2.72394437e-02f,+1.03872910e-01f,-1.25649534e-02f,+8.45173672e-02f,
+2.29620561e-01f,+6.46689534e-02f,+6.02182113e-02f,+2.20765304e-02f,+2.02460125e-01f,
-1.04546182e-01f,+6.23149648e-02f,+1.77896529e-01f,+3.05557072e-01f,-1.98189378e-01f,
-2.30680153e-01f,+5.49247973e-02f,+4.06148657e-02f,-1.54537573e-01f,+1.44704014e-01f,
+2.36092322e-02f,+7.23912846e-03f,+4.71542291e-02f,-3.07258461e-02f,+2.33200803e-01f,
-9.71845239e-02f,+1.27524257e-01f,+6.09757043e-02f,+2.27406640e-02f,+4.88211885e-02f,
+1.71084002e-01f,+2.14117076e-02f,-8.12574178e-02f,+1.94990188e-01f,+5.34773394e-02f,
+6.54865503e-02f,+1.34780988e-01f,+1.98138133e-02f,+5.02427034e-02f,+2.50586003e-01f,
-6.18948080e-02f,+4.44944911e-02f,+2.36432269e-01f,+2.83046782e-01f,-5.14271632e-02f,
+3.21787566e-01f,-2.27935929e-02f,+6.35480061e-02f,-1.42277136e-01f,-1.48431361e-01f,
-2.60483343e-02f,-8.83725882e-02f,+2.16703683e-01f,+3.40738967e-02f,+9.61611494e-02f,
+1.46994904e-01f,+1.58798262e-01f,+2.44487077e-02f,-7.28142960e-03f,+1.69498771e-01f,
+5.33387884e-02f,-2.36132946e-02f,-1.65225968e-01f,+1.11971140e-01f,+8.05059373e-02f,
+1.17051102e-01f,+2.18534887e-01f,-1.94738321e-02f,-6.71892688e-02f,+2.05257639e-01f,
-4.75849956e-02f,-6.14186004e-02f,+1.39227919e-02f,+9.35833529e-03f,-1.09422833e-01f,
+4.48822975e-02f,-1.15331076e-02f,-2.20620800e-02f,+1.23430744e-01f,-2.27531046e-02f,
-8.57909918e-02f,-2.48647220e-02f,-1.84545398e-01f,+1.36897475e-01f,+2.11444780e-01f,
+1.66420951e-01f,+5.93384355e-02f,-1.46671519e-01f,+8.97289962e-02f,+7.68359601e-02f,
+1.13849431e-01f,+5.15655540e-02f,+1.14642367e-01f,-1.03419602e-01f,+2.22632229e-01f,
-1.01920057e-04f,-1.40865043e-01f,-2.70219028e-01f,+3.91437747e-02f,-2.07528789e-02f,
+5.84751368e-02f,+8.49137008e-02f,+3.33361179e-01f,+4.99241799e-02f,-6.20317794e-02f,
+1.97423816e-01f,+1.87392950e-01f,+4.24973816e-02f,+2.61818409e-01f,-1.44754261e-01f,
+6.83421567e-02f,+2.01072901e-01f,+1.90698609e-01f,+3.94996181e-02f,+2.21685832e-03f,
-1.54152140e-01f,+2.49144420e-01f,-1.20966002e-01f,-8.41338336e-02f,+3.81640285e-01f,
+1.11017160e-01f,-9.28947181e-02f,+3.45508680e-02f,-3.53379771e-02f,+1.06558912e-02f,
+6.19547209e-03f,-1.80755556e-01f,+6.20481744e-02f,-4.77292128e-02f,-1.77160010e-01f,
+1.61226138e-01f,-1.33873731e-01f,+1.95076510e-01f,-1.84488222e-01f,+4.59762961e-02f,
-1.06898971e-01f,-3.60584781e-02f,+9.44494233e-02f,+1.20451964e-01f,+1.77442916e-02f,
-4.61790971e-02f,-1.75005421e-01f,+1.58950344e-01f,+8.71602446e-02f,-7.89710581e-02f,
+8.58656242e-02f,+3.00161466e-02f,+8.68818685e-02f,+1.18665971e-01f,+1.68069169e-01f,
+4.19823341e-02f,-1.06342658e-01f,+8.55693128e-03f,-1.27320543e-01f,+2.22787000e-02f,
-2.90145010e-01f,+1.83937773e-02f,+8.41885507e-02f,+5.53699471e-02f,-6.35147393e-02f,
-3.76490168e-02f,+3.44451442e-02f,+7.22218230e-02f,+1.75189093e-01f,+2.07479179e-01f,
+5.41145308e-03f,+1.87004045e-01f,+1.94218412e-01f,-4.52453317e-03f,+1.77252870e-02f,
-6.53431518e-03f,+1.56060264e-01f,-1.10039338e-01f,-2.45818317e-01f,+1.93708643e-01f,
+2.40677550e-01f,+2.18953311e-01f,+5.29709645e-02f,-1.15608469e-01f,-6.27755299e-02f,
+3.46403927e-01f,+1.49277940e-01f,-1.83779858e-02f,+2.73129672e-01f,+3.08232922e-02f,
+1.61438510e-02f,-1.39576450e-01f,-1.30173609e-01f,-1.20448940e-01f,+5.45190684e-02f,
-6.69749454e-02f,-6.18347526e-02f,-3.49375069e-01f,-3.47372256e-02f,+1.75406765e-02f,
+2.52554536e-01f,-5.46443127e-02f,-1.29232109e-01f,+1.17925154e-02f,-1.60927325e-01f,
-9.26120281e-02f,-9.28931609e-02f,-1.51951149e-01f,+4.39478867e-02f,-7.48708192e-03f,
-2.75035203e-02f,-1.30267262e-01f,+1.31034791e-01f,+1.79883555e-01f,+8.15073773e-02f,
+6.28183261e-02f,-2.86486357e-01f,-3.17016896e-03f,+1.55991748e-01f,+7.74979964e-02f,
+1.50243923e-01f,+2.89169718e-02f,+1.23738691e-01f,+8.37672800e-02f,+6.72722161e-02f,
+2.40070045e-01f,-8.51408765e-02f,-3.51954028e-02f,+1.89739004e-01f,-4.67935856e-03f,
+1.28531247e-01f,-4.64090295e-02f,+1.05018303e-01f,+3.88098285e-02f,-8.87984410e-03f,
+1.03566758e-01f,+1.37985661e-03f,-8.03962946e-02f,+2.93330222e-01f,+1.26087032e-02f,
+5.19342795e-02f,+1.21603064e-01f,-1.29494637e-01f,+2.59309844e-03f,-9.24866050e-02f,
-1.78921461e-01f,+1.93203464e-01f,+3.37549001e-02f,-1.59179032e-01f,+1.54534966e-01f,
+9.33073647e-03f,+1.28181443e-01f,+1.61261961e-01f,+7.25133494e-02f,-1.63811799e-02f,
+7.84053877e-02f,+2.07586989e-01f,-2.20129952e-01f,-1.07925370e-01f,+4.94145043e-02f,
-2.91423742e-02f,+2.94945061e-01f,-1.41567379e-01f,-5.22286166e-03f,+5.84722832e-02f,
-3.09373289e-01f,-1.92347181e-03f,+9.33766961e-02f,+4.66568545e-02f,+4.83644679e-02f,
-3.79504561e-01f,+2.65597440e-02f,+1.68161646e-01f,+1.83398992e-01f,+1.10875987e-01f,
-1.77993149e-01f,-1.56177292e-02f,-9.50701162e-03f,-1.74269956e-02f,-1.74471624e-02f,
+1.65720224e-01f,-6.15704581e-02f,+1.01680554e-01f,-2.07321253e-02f,+3.18513721e-01f,
-5.42176552e-02f,+2.15054944e-01f,-7.70509616e-02f,+5.24744317e-02f,-9.33032036e-02f,
+1.33174673e-01f,+1.11999758e-01f,-6.60945550e-02f,+1.26657393e-02f,-4.18323949e-02f,
+1.24410756e-01f,-4.03773692e-03f,+1.88456312e-01f,+1.87002923e-04f,+9.02523249e-02f,
+1.54863283e-01f,-1.82804614e-01f,+6.79337829e-02f,+1.68108493e-01f,+7.39125311e-02f,
+1.70675069e-01f,+3.05731148e-02f,+2.71124691e-01f,+1.03490703e-01f,-6.60031140e-02f,
-1.23346448e-02f,-4.97134440e-02f,+1.71384066e-01f,+1.91041455e-01f,-3.66229601e-02f,
+4.00983453e-01f,-2.10393846e-01f,-4.70278487e-02f,+1.27548883e-02f,+3.30059111e-01f,
+9.84481722e-02f,-1.10975891e-01f,-1.91561162e-01f,+1.34056985e-01f,+3.13732207e-01f,
+2.15005055e-02f,+4.84521911e-02f,+7.74906278e-02f,+1.83211844e-02f,-1.57480896e-01f,
-4.14273255e-02f,-3.91370356e-02f,+1.43723369e-01f,+5.41583747e-02f,-3.40508297e-02f,
-1.22470662e-01f,-6.79611787e-02f,+2.27847360e-02f,+3.96455675e-02f,+1.86419949e-01f,
-1.25627443e-01f,-1.67156771e-01f,+1.69081524e-01f,+7.84822777e-02f,+1.34697467e-01f,
+8.53709877e-02f,+1.17919095e-01f,+4.07014713e-02f,-1.59654412e-02f,+1.58887014e-01f,
+1.67080402e-01f,+1.35576844e-01f,-1.38239190e-02f,+4.50283987e-03f,+2.31195409e-02f,
-1.16393805e-01f,+5.89469001e-02f,-6.81806281e-02f,+7.60132745e-02f,-1.54208377e-01f,
-2.97481120e-02f,+2.24715203e-01f,-4.94924366e-01f,+3.10108781e-01f,-1.51929157e-02f,
+1.65421858e-01f,-1.21886931e-01f,+4.05306637e-01f,-7.72105949e-03f,+9.26189125e-02f,
-1.33497328e-01f,+2.74942845e-01f,-1.90517783e-01f,-1.69183444e-02f,+9.43279117e-02f,
+2.04946294e-01f,-2.18691826e-01f,+5.14624156e-02f,+2.63213664e-01f,-1.26589149e-01f,
+1.66266505e-02f,-2.08525956e-01f,+1.14444166e-01f,+2.93417647e-03f,+1.10266626e-01f,
+6.66132867e-02f,+3.46985370e-01f,+1.38887718e-01f,-1.93874180e-01f,-2.71271449e-02f,
-7.09747598e-02f,-2.83806205e-01f,+4.40313593e-02f,+1.12219229e-02f,-3.46514434e-02f,
-1.00326240e-01f,+6.57605231e-02f,-4.12077829e-02f,-3.28289680e-02f,-2.28133768e-01f,
+4.07542754e-03f,+2.27171004e-01f,-1.02050416e-01f,+1.64844573e-01f,-8.73927698e-02f,
-1.45604655e-01f,+1.76741667e-02f,+6.65893825e-03f,+5.37148416e-02f,-1.04096748e-01f,
+2.90119767e-01f,+3.62380147e-02f,+2.31912240e-01f,-5.58534302e-02f,+4.98097837e-02f,
+1.68074206e-01f,+1.92263871e-01f,-1.98344395e-01f,-1.00614145e-01f,-5.28313071e-02f,
-5.47701232e-02f,+2.62720764e-01f,+4.53755818e-02f,+1.92408875e-01f,-8.10522959e-02f,
+1.43478066e-01f,+3.06565851e-01f,+1.73769757e-01f,-5.51771335e-02f,+4.51333262e-02f,
+1.21740818e-01f,-3.86640728e-01f,-2.74573147e-01f,+8.18042159e-02f,-2.06620358e-02f,
+1.42771617e-01f,+2.18852878e-01f,-2.72069946e-02f,+2.98892140e-01f,+2.90910393e-01f,
+4.13260572e-02f,-9.39524248e-02f,-1.56673893e-01f,-1.00381330e-01f,-7.28715211e-03f,
+1.62027299e-01f,-7.00686574e-02f,-2.75221895e-02f,-1.19395263e-01f,-1.40363462e-02f,
-7.15205818e-02f,-1.00653350e-01f,+1.94041058e-01f,+5.60080037e-02f,+1.47000954e-01f,
+6.56927228e-02f,-3.39978822e-02f,-1.64262295e-01f,-4.13671508e-03f,+9.42569226e-02f,
+3.80644381e-01f,-2.08939135e-01f,-3.26186395e-03f,+3.83976363e-02f,-3.79232138e-01f,
-1.58404991e-01f,-9.45328921e-02f,+2.31912687e-01f,+1.73665822e-01f,-1.75361838e-02f,
-3.51667516e-02f,-2.75669485e-01f,+2.81706631e-01f,+3.03775191e-01f,-2.04348505e-01f,
+3.03571403e-01f,+5.56848757e-02f,+1.73598737e-01f,+8.67501348e-02f,-4.72037010e-02f,
-4.65476289e-02f,-2.44790763e-02f,+2.35668138e-01f,-2.08033815e-01f,+2.23334566e-01f,
+1.22537069e-01f,+6.59384057e-02f,+3.97057123e-02f,-1.38683110e-01f,+5.01918010e-02f,
-3.73599529e-02f,+1.52827561e-01f,+2.39008904e-01f,-2.37322273e-03f,+1.23876840e-01f,
+2.39373416e-01f,+2.70077765e-01f,+1.22606732e-01f,-1.26714408e-01f,+5.36819249e-02f,
-8.56569782e-02f,+1.30870387e-01f,-2.59848267e-01f,+7.88326040e-02f,+6.25682324e-02f,
-1.61758938e-03f,+1.33960890e-02f,+1.43972501e-01f,+3.72282974e-02f,+2.26905838e-01f,
+7.26397559e-02f,+4.66036834e-02f,+3.64923105e-02f,+2.99216993e-02f,-1.73876941e-01f,
+1.25242561e-01f,-8.31018984e-02f,-1.28103048e-01f,+3.44160944e-03f,-8.04168135e-02f,
-1.30682126e-01f,-1.74821585e-01f,-9.50736105e-02f,+1.87194094e-01f,-1.11060061e-01f,
-1.72913641e-01f,-3.24596278e-02f,-6.53187409e-02f,+1.57012865e-01f,-1.02437727e-01f,
+1.85398072e-01f,+2.02910945e-01f,-3.17540735e-01f,-3.48644286e-01f,-8.29532966e-02f,
-3.95023003e-02f,+2.35859200e-01f,+2.45619495e-03f,-2.91853007e-02f,-7.47511834e-02f,
-5.52424155e-02f,-1.19028307e-01f,-2.44271591e-01f,+1.25612795e-01f,+1.16521947e-01f,
-1.29752532e-01f,-2.73235321e-01f,+4.97099906e-02f,+1.76573977e-01f,-2.19212681e-01f,
-1.10191159e-01f,-1.04321457e-01f,-1.28060311e-01f,+2.53969487e-02f,+1.52759001e-01f,
-1.15003735e-01f,+2.22541079e-01f,+1.13012195e-01f,-8.26878771e-02f,+1.41087964e-01f,
-1.17819898e-01f,+2.02231571e-01f,-3.53555053e-01f,+1.19689435e-01f,-4.49763499e-02f,
-2.10492462e-01f,-4.91108261e-02f,-2.83901244e-01f,-2.24936046e-02f,+2.68173605e-01f,
+1.71911538e-01f,-8.71707872e-02f,+3.49004239e-01f,-2.78666597e-02f,+6.18007444e-02f,
+5.28229587e-02f,+7.28402566e-03f,+3.99872869e-01f,-1.11699618e-01f,+2.98346579e-01f,
+2.46974468e-01f,+1.36019796e-01f,-1.31969348e-01f,-2.17481181e-01f,-6.38548881e-02f,
+9.12972987e-02f,-2.33651251e-02f,+3.94213609e-02f,+3.72953899e-02f,+1.04264468e-01f,
-3.82097661e-02f,+1.56221971e-01f,-7.16110505e-03f,+1.40321508e-01f,-2.24421173e-02f,
+8.23686868e-02f,+2.68979549e-01f,-1.41482338e-01f,-1.78598955e-01f,-8.27686787e-02f,
+1.10148430e-01f,+1.98050812e-01f,+7.94238597e-03f,+2.38734916e-01f,+2.43533999e-01f,
+1.78533979e-03f,-3.03627010e-02f,+3.72795053e-02f,+2.83386949e-02f,+3.15905623e-02f,
+1.18135121e-02f,+1.64366756e-02f,-8.83769318e-02f,+2.38283470e-01f,-2.19116330e-01f,
-2.99250595e-02f,-1.77828539e-02f,+1.73871100e-01f,-3.59473675e-01f,-1.04514711e-01f,
-2.95966893e-01f,-3.27421099e-01f,-9.23167169e-02f,+1.76630422e-01f,+1.22878574e-01f,
+2.31956467e-02f,+7.66513422e-02f,+1.01203524e-01f,+1.13299280e-01f,-1.12664722e-01f,
-3.25848423e-02f,+1.79186791e-01f,+1.32810101e-01f,-2.34203726e-01f,+1.52735546e-01f,
-7.60531723e-02f,-5.21019101e-02f,-2.67359793e-01f,+2.83836514e-01f,-4.44999598e-02f,
+1.71130449e-01f,+3.18632632e-01f,+1.14424609e-01f,-1.05208054e-01f,+6.86943233e-02f,
-6.19058032e-03f,-1.91950016e-02f,-1.08316131e-01f,+1.91104084e-01f,-1.52680688e-02f,
-4.45751986e-03f,+2.90402889e-01f,-3.28006923e-01f,+3.57500240e-02f,-2.74368554e-01f,
-1.79864898e-01f,-1.19852903e-03f,+7.05733448e-02f,+2.04014167e-01f,-1.87120214e-01f,
+1.65133789e-01f,+1.71974272e-01f,-2.07057625e-01f,+4.24854159e-01f,-8.25820342e-02f,
-4.51594703e-02f,+1.12204306e-01f,+1.81101993e-01f,+1.78634778e-01f,+3.10763359e-01f,
+2.01103851e-01f,+2.23461792e-01f,+3.01200897e-01f,-1.62567094e-01f,-2.33991116e-01f,
+1.93126485e-01f,+9.44674388e-03f,+2.74552852e-01f,-1.46993980e-01f,+1.27937883e-01f,
+1.24058925e-01f,+1.59837008e-01f,+2.85834789e-01f,+2.35297352e-01f,+6.24370063e-03f,
-3.32172155e-01f,+3.41621906e-01f,-5.48566692e-02f,-4.87082064e-01f,-2.87789166e-01f,
+9.51365083e-02f,+1.01169832e-01f,+1.13883540e-01f,-1.80040300e-02f,+2.79521257e-01f,
+9.98456478e-02f,-6.84383586e-02f,+8.86069536e-02f,-2.94490959e-02f,+7.74758309e-02f,
+2.85617948e-01f,+3.42227906e-01f,+3.04350276e-02f,+3.37131083e-01f,+2.23046750e-01f,
+2.09359065e-01f,+6.50434867e-02f,+1.51656002e-01f,-1.88067574e-02f,-2.56621819e-02f,
-1.05879873e-01f,+1.57147333e-01f,+1.74168851e-02f,-5.68911992e-02f,+1.48831710e-01f,
-1.50259823e-01f,-1.64781839e-01f,-5.78644611e-02f,-3.78270820e-02f,+3.15590173e-01f,
+2.43815482e-01f,+1.30789131e-01f,+1.24043837e-01f,+1.64927706e-01f,+4.03093308e-01f,
-2.27866527e-02f,-5.32078706e-02f,-1.05007663e-01f,+1.54640809e-01f,-1.35598555e-01f,
+1.46313161e-01f,-4.32995968e-02f,-2.36473337e-01f,+1.04437605e-01f,+8.95588323e-02f,
-8.41009542e-02f,-2.41118401e-01f,-7.91938752e-02f,+9.11860317e-02f,+5.58540411e-03f,
+9.61199626e-02f,-3.06815714e-01f,+2.33530462e-01f,-4.00609057e-03f,+1.48996010e-01f,
+4.20318879e-02f,-1.01244813e-02f,-4.44409773e-02f,-5.39446771e-02f,+2.72915900e-01f,
-3.11760247e-01f,-7.09169134e-02f,+2.87776440e-01f,+2.53056437e-01f,-5.41819446e-02f,
+7.16714188e-02f,+3.29670519e-01f,-1.32364258e-01f,+6.58118352e-02f,-1.56040341e-01f,
-1.80602580e-01f,-1.45822912e-01f,-2.91309416e-01f,+5.61177433e-02f,+8.09370279e-02f,
-1.32011294e-01f,+2.22213998e-01f,-2.51349032e-01f,-1.98293522e-01f,+1.67363480e-01f,
-2.32100889e-01f,-8.04032013e-02f,+8.61809030e-02f,+3.02371532e-01f,+1.97364450e-01f,
-1.02174193e-01f,+5.54804839e-02f,-1.12233870e-02f,-2.33403146e-01f,+2.97608912e-01f,
-3.01433772e-01f,-1.86267912e-01f,-3.64339799e-02f,+3.86733525e-02f,-9.10099447e-02f,
-7.02603161e-02f,-2.67334163e-01f,-4.34020273e-02f,-5.62079512e-02f,-7.17802867e-02f,
+2.38103747e-01f,+9.70823988e-02f,+1.69636652e-01f,-1.30444858e-02f,+3.75734530e-02f,
+3.16462249e-01f,+1.61230177e-01f,-1.12740442e-01f,+1.79902986e-01f,-2.99160182e-01f,
+2.38230363e-01f,+9.86835361e-02f,-3.77691127e-02f,+2.40495712e-01f,+1.51351154e-01f,
+9.17323977e-02f,+3.26998681e-02f,+3.12184393e-01f,+1.86824948e-01f,-4.04223502e-02f,
+3.88928987e-02f,+1.31692454e-01f,+3.73742759e-01f,-7.79488310e-02f,+2.32959896e-01f,
-3.64581198e-01f,+1.51087523e-01f,-1.10131435e-01f,+2.23831870e-04f,-1.43461630e-01f,
+8.39017481e-02f,-1.21272042e-01f,-1.00186355e-01f,-2.01596752e-01f,-1.01309694e-01f,
+1.38209974e-02f,+2.90367573e-01f,+5.97840026e-02f,-1.69541240e-01f,-9.89414677e-02f,
+3.34623046e-02f,-9.00187790e-02f,+1.75926924e-01f,+1.99003726e-01f,+1.75002337e-01f,
+1.19003028e-01f,-7.71851465e-02f,+7.44011104e-02f,-2.72359639e-01f,+4.46664914e-02f,
-1.10621288e-01f,-1.96935833e-02f,-2.18328148e-01f,+2.38091826e-01f,+1.73609301e-01f,
-4.11004812e-01f,+2.42658302e-01f,-8.00079852e-02f,+4.73802797e-02f,+4.72302511e-02f,
+1.40199617e-01f,+9.21466574e-02f,-4.66099661e-03f,+3.35235298e-01f,+1.93940871e-03f,
+9.81967747e-02f,+1.36005118e-01f,+2.53104866e-01f,-2.07140580e-01f,+1.54162981e-02f,
-1.79768592e-01f,+1.82425126e-01f,+8.98677781e-02f,+5.34737185e-02f,+1.50617257e-01f,
+2.16519639e-01f,+4.72951494e-02f,+1.56424746e-01f,+2.32239246e-01f,+2.75328040e-01f,
+5.04513551e-03f,-2.03676932e-02f,+1.37059644e-01f,+4.72228587e-01f,+1.08371139e-01f,
+5.23586050e-02f,-1.76008806e-01f,+1.36090040e-01f,-8.31240714e-02f,-1.07891448e-01f,
-3.70901860e-02f,-3.99414524e-02f,-3.72203402e-02f,+1.68659329e-01f,-3.17812227e-02f,
+5.03672287e-02f,+6.35926053e-02f,-4.68743518e-02f,-5.12811057e-02f,+2.81198591e-01f,
+3.89390796e-01f,+9.04367343e-02f,-1.99299544e-01f,+2.18604416e-01f,-1.13302626e-01f,
+4.45569754e-02f,+2.62407333e-01f,+3.27043205e-01f,+9.86314565e-02f,-8.79390314e-02f,
+1.22218102e-01f,+1.85091365e-02f,-2.41083831e-01f,+1.78567067e-01f,-3.72693501e-03f,
+4.23751138e-02f,+2.75121748e-01f,+1.83135435e-01f,+9.16424990e-02f,-1.32325858e-01f,
-3.21768969e-01f,+2.59007066e-01f,+1.23343609e-01f,+2.69281209e-01f,-2.31494736e-02f,
+3.13823402e-01f,-3.67811248e-02f,-2.44262815e-03f,-5.60612418e-02f,-9.79151875e-02f,
-3.59449953e-01f,-1.45459712e-01f,+1.71235889e-01f,-2.05986172e-01f,-1.65656179e-01f,
-7.98349269e-03f,+1.63246989e-01f,+1.90894425e-01f,-1.02281354e-01f,-7.90210590e-02f,
+1.75870940e-01f,+1.00568287e-01f,+1.63773578e-02f,+2.76542425e-01f,+7.70809948e-02f,
+1.84715122e-01f,-9.69559252e-02f,-2.88054228e-01f,+1.37634456e-01f,+1.01909101e-01f,
+1.44773543e-01f,-1.09577946e-01f,+1.42694175e-01f,+3.65598828e-01f,+1.34489506e-01f,
-8.47899914e-02f,+1.51107073e-01f,+1.51317909e-01f,+1.99981496e-01f,-7.22030625e-02f,
-2.09389880e-01f,+2.25532874e-01f,-1.10104389e-01f,+2.87670851e-01f,+4.86347452e-02f,
+2.48508543e-01f,-4.29289117e-02f,+5.69642112e-02f,+1.22453906e-01f,+2.86599528e-02f,
+1.50320649e-01f,+1.75791919e-01f,+2.28380471e-01f,+1.14275210e-01f,-7.76100680e-02f,
+1.28091827e-01f,-2.57940963e-03f,+1.32740676e-01f,+1.61554292e-01f,+1.79581776e-01f,
-2.81229336e-02f,+1.17020607e-01f,+4.44097295e-02f,+2.18150899e-01f,+1.23574443e-01f,
-2.00992584e-01f,-2.81430334e-01f,+1.61927074e-01f,+1.57829970e-01f,+1.23154253e-01f,
-2.00012282e-01f,+1.75821438e-01f,-2.57474691e-01f,-9.18301940e-02f,+1.27153754e-01f,
+5.32465661e-03f,-7.04813004e-02f,+2.40915105e-01f,+3.72137487e-01f,-3.15291733e-02f,
+1.18972421e-01f,-6.78494796e-02f,+3.81663650e-01f,+3.20348829e-01f,+6.22535907e-02f,
+1.26935586e-01f,-1.63526293e-02f,+2.54347082e-02f,-8.65079835e-03f,+1.64188817e-02f,
-7.40290806e-02f,-7.33555034e-02f,+1.88257113e-01f,+1.92989662e-01f,+4.75482196e-02f,
+6.34324625e-02f,-6.14603274e-02f,-3.44987154e-01f,+2.65380114e-01f,+2.02934325e-01f,
-8.44320953e-02f,-1.29749030e-01f,-9.45600793e-02f,-1.23367207e-02f,+1.65145442e-01f,
-8.48063082e-02f,+1.71293110e-01f,-1.67914152e-01f,+1.78073287e-01f,-3.01528927e-02f,
-1.95886176e-02f,-2.72393167e-01f,-2.13011026e-01f,-5.74764729e-01f,-1.80576026e-01f,
+1.66530222e-01f,-2.56403804e-01f,-1.51095420e-01f,+3.56568664e-01f,-1.03581525e-01f,
-9.78841335e-02f,+6.21150546e-02f,+4.56193686e-02f,+5.24707921e-02f,-6.41133636e-02f,
+1.48613274e-01f,+2.69831866e-01f,-4.03311886e-02f,-1.32381558e-01f,-8.99339542e-02f,
-2.48731319e-02f,-5.30569255e-02f,-1.27001464e-01f,+6.04091063e-02f,-2.96221882e-01f,
-5.48680536e-02f,+3.10896903e-01f,+2.36320943e-02f,+6.90278783e-02f,+1.57054752e-01f,
+2.93849498e-01f,+8.49886760e-02f,+4.06436585e-02f,+1.06084673e-03f,-2.06830159e-01f,
-3.24943103e-02f,+2.01632261e-01f,+3.25001404e-03f,+1.48541734e-01f,+2.88259506e-01f,
+2.32906148e-01f,+6.34486675e-02f,-1.46691361e-02f,+1.66345581e-01f,+9.73979533e-02f,
-2.24160343e-01f,-2.09848776e-01f,+9.12552178e-02f,+2.23394670e-02f,-7.32732415e-02f,
+2.49570444e-01f,+4.92826462e-01f,-4.88265045e-02f,+1.17333487e-01f,+1.69280190e-02f,
+5.40707223e-02f,+2.35132828e-01f,-2.46578157e-01f,+2.59110361e-01f,+5.39301217e-01f,
-1.10663973e-01f,+3.15286145e-02f,+6.68135583e-02f,-2.24109441e-01f,+5.21314479e-02f,
+1.16533466e-01f,+2.53305733e-01f,-1.44260108e-01f,-1.20057777e-01f,+1.43121690e-01f,
-1.25878945e-01f,+1.81852153e-03f,-2.22358882e-01f,+4.82576862e-02f,+1.28299385e-01f,
+7.14541832e-03f,+3.13159893e-04f,-1.07034624e-01f,-1.25878990e-01f,+1.47206590e-01f,
-8.73609856e-02f,-4.63757247e-01f,-1.97216034e-01f,-3.01008653e-02f,+1.29342869e-01f,
+2.37361621e-02f,+5.12827467e-03f,-2.70588964e-01f,+2.91939259e-01f,-5.97739033e-02f,
+4.99273926e-01f,+8.77013709e-03f,+2.65844502e-02f,+2.56408448e-03f,-1.00895494e-01f,
-1.01982906e-01f,+3.29220414e-01f,+2.66495019e-01f,-1.46915898e-01f,-1.07761491e-02f,
+4.45794553e-01f,+3.27319741e-01f,+3.17009807e-01f,+4.20992747e-02f,+2.14930609e-01f,
+2.01305166e-01f,+1.50652537e-02f,+1.02582090e-01f,+2.34801054e-01f,+1.44217536e-01f,
+1.56491965e-01f,-8.49102959e-02f,-1.53811142e-01f,-1.57262832e-01f,+2.02936888e-01f,
+6.54152185e-02f,-1.20524526e-01f,-3.29592079e-01f,-2.62899458e-01f,+5.06125093e-01f,
+7.90879950e-02f,-1.01991892e-01f,-1.34296760e-01f,+1.87654123e-01f,+5.02193999e-03f,
-5.50244860e-02f,-6.36881590e-02f,-6.63767233e-02f,-1.31801635e-01f,-1.42576516e-01f,
-1.60733834e-01f,-1.96101367e-01f,-1.09392807e-01f,+8.29903260e-02f,-3.93947586e-02f,
+5.28932288e-02f,-3.66732627e-02f,+1.72114149e-01f,-6.21677972e-02f,-2.19708547e-01f,
+2.59645015e-01f,+1.97763205e-01f,-1.39708027e-01f,+9.31923389e-02f,+7.25051388e-02f,
+3.32837552e-01f,+1.71165988e-01f,+3.11670542e-01f,-5.38967490e-01f,-8.08565971e-03f,
-2.01135412e-01f,-4.47411388e-02f,+1.37251601e-01f,-7.31908977e-02f,+2.41919863e-03f,
-7.69621208e-02f,+1.00891024e-01f,-5.08241177e-01f,+1.36051685e-01f,-1.06532313e-01f,
+1.01554334e-01f,+1.75795987e-01f,+1.81127533e-01f,+7.62752891e-02f,-1.56277418e-01f,
-1.64629593e-01f,+3.32091004e-01f,+1.78092599e-01f,+5.97556978e-02f,-1.22693352e-01f,
-2.30641872e-01f,-3.58474143e-02f,+7.75688514e-02f,+3.51055264e-01f,+1.34355143e-01f,
-1.82089046e-01f,-1.47868589e-01f,-1.01762325e-01f,-3.73910815e-02f,+8.84282216e-02f,
-1.16747238e-01f,-1.11783750e-01f,+2.29425013e-01f,+5.97474352e-02f,+1.91512898e-01f,
+1.47900656e-01f,+3.61841545e-02f,+7.94875100e-02f,+3.24362397e-01f,+2.84989420e-02f,
-2.54217714e-01f,-1.20575532e-01f,+8.10700953e-02f,+2.11964339e-01f,-7.96627328e-02f,
+2.29784042e-01f,-9.81155224e-03f,+6.05828501e-02f,-1.03606895e-01f,+2.24511683e-01f,
-4.99166399e-01f,-7.19232932e-02f,-1.54495627e-01f,+2.03113109e-01f,-6.96823075e-02f,
+7.88981989e-02f,+1.47700727e-01f,-3.01771313e-01f,+1.89577296e-01f,-4.69768457e-02f,
+9.14572328e-02f,+3.47644873e-02f,-1.48885921e-01f,-2.38261260e-02f,+2.11671486e-01f,
-2.32220247e-01f,+1.39464378e-01f,-1.14684030e-01f,+4.19143885e-02f,-1.03343658e-01f,
-1.88854504e-02f,-2.77087808e-01f,-1.97509900e-01f,+1.00473128e-01f,+3.34612429e-01f,
+2.12615579e-01f,-9.26768780e-02f,-8.70557725e-02f,+7.22034797e-02f,-1.11592978e-01f,
+9.59243029e-02f,+8.84766653e-02f,+1.47575259e-01f,+1.73925444e-01f,-2.23637432e-01f,
+6.56726286e-02f,-1.18096076e-01f,+7.26928562e-02f,+4.56456661e-01f,-2.49369308e-01f,
-1.13523789e-02f,-2.09023729e-01f,+7.51124695e-02f,-2.03082770e-01f,+5.00889234e-02f,
-2.96667963e-02f,+1.13211282e-01f,-1.46329865e-01f,-3.08128148e-01f,-2.51796961e-01f,
-1.03887931e-01f,+4.56563830e-01f,-2.37577688e-02f,+1.09184258e-01f,-1.09450659e-02f,
-1.61291957e-01f,-2.14938059e-01f,-6.10780865e-02f,-1.70411035e-01f,+2.69078970e-01f,
+9.77688953e-02f,-1.97366439e-02f,+2.58006960e-01f,+1.76634207e-01f,+1.72695249e-01f,
-1.83434889e-01f,-1.37023367e-02f,+4.81681377e-02f,+2.69062251e-01f,+1.12442762e-01f,
-6.73526898e-02f,-1.13285288e-01f,+1.42045245e-01f,-1.42858967e-01f,-4.11667302e-02f,
-2.71530747e-01f,-1.02810092e-01f,-1.59204587e-01f,-1.50272083e-02f,-4.29592095e-03f,
+1.09655023e-01f,-1.96566642e-03f,-4.00355272e-02f,+1.64205670e-01f,+2.82575423e-03f,
-1.21836632e-01f,+7.58488476e-02f,-1.28568873e-01f,+1.40314683e-01f,+1.99538618e-01f,
+4.01624769e-01f,-1.53061852e-01f,-1.97978780e-01f,-1.30294174e-01f,-3.27109903e-01f,
-1.43280029e-01f,-1.50155604e-01f,-2.01631084e-01f,-2.70961791e-01f,-4.56952751e-02f,
+7.35915378e-02f,+2.23924622e-01f,+1.64818004e-01f,-7.08884522e-02f,+3.81425053e-01f,
-1.10915959e-01f,-1.55841768e-01f,-1.10597499e-02f,+8.68500471e-02f,-2.52286464e-01f,
+2.67705731e-02f,-1.92827284e-01f,-1.54761925e-01f,+2.57736474e-01f,+8.46196339e-02f,
-5.93692204e-03f,-2.21918836e-01f,-5.69732301e-02f,+1.17172375e-01f,+2.91308552e-01f,
+3.13468814e-01f,+1.71347171e-01f,+1.67707726e-01f,+1.68412879e-01f,+2.37093549e-02f,
-1.79893613e-01f,+9.06691849e-02f,+3.78145605e-01f,+2.66498595e-01f,-7.55418763e-02f,
+1.57506466e-01f,-1.23149633e-01f,+2.02443317e-01f,+1.52067512e-01f,+1.83499396e-01f,
-3.15309386e-03f,-1.39212877e-01f,-4.62837424e-03f,+1.86204612e-01f,+7.62288198e-02f,
+2.93019544e-02f,+2.45672520e-02f,+1.92868754e-01f,+2.96611667e-01f,+2.12154046e-01f,
+1.56913668e-01f,+5.35650402e-02f,+3.51972617e-02f,+4.54713963e-02f,+3.44140865e-02f,
-6.31067902e-02f,-1.28964424e-01f,+4.27485108e-01f,-4.81301434e-02f,+6.20359592e-02f,
-1.10656403e-01f,+3.58344875e-02f,-2.29633942e-01f,-1.41737327e-01f,-2.21526101e-02f,
-1.72384828e-02f,+7.59107098e-02f,-1.49795309e-01f,+4.79117036e-02f,-2.96522260e-01f,
-1.76584899e-01f,+3.16781521e-01f,-1.82029352e-01f,-3.34660448e-02f,+2.21753612e-01f,
+1.44531652e-01f,+1.47639707e-01f,+4.69330847e-02f,+4.05975692e-02f,-1.55354828e-01f,
-2.09067151e-01f,+4.06161457e-01f,+1.83910832e-01f,+2.43191034e-01f,-1.22785242e-02f,
+3.36293250e-01f,-8.67692679e-02f,+4.16836527e-04f,+1.88724771e-02f,+2.60065585e-01f,
+3.35578591e-01f,+2.05176160e-01f,+1.83051109e-01f,+3.59219313e-02f,+1.95050519e-02f,
+2.00701803e-01f,+1.87547766e-02f,-2.98475586e-02f,+2.70472430e-02f,-5.64367436e-02f,
-2.63005733e-01f,+3.64730448e-01f,+4.02560458e-02f,-1.53975293e-01f,-4.06750403e-02f,
-1.09797202e-01f,+9.33638811e-02f,+2.96568274e-01f,-2.38313694e-02f,-1.23233788e-01f,
-5.86466379e-02f,+1.52447864e-01f,-1.76376358e-01f,-8.33299831e-02f,+2.73710527e-02f,
+1.67758930e-02f,+3.77168834e-01f,+5.35365976e-02f,-1.69028938e-01f,-1.37862757e-01f,
-5.04895188e-02f,+2.31095105e-01f,-2.92348832e-01f,+1.82838291e-01f,-3.39154415e-02f,
-8.80711898e-02f,-3.34436372e-02f,+3.62534970e-02f,-2.02660225e-02f,-2.51607180e-01f,
-4.63552736e-02f,+1.90413281e-01f,+6.60793781e-02f,-8.36253762e-02f,+1.46504939e-02f,
+2.82687712e-02f,+2.62850404e-01f,-2.92956263e-01f,-1.22617863e-01f,-3.94809060e-02f,
-4.25301231e-02f,+4.59066898e-01f,-1.24330051e-01f,-1.71759687e-02f,-9.36611742e-02f,
+2.35469609e-01f,+9.75707918e-02f,-1.16227688e-02f,-2.23353822e-02f,+1.04580440e-01f,
+2.00058982e-01f,-9.38118473e-02f,-6.24220148e-02f,+6.65819049e-02f,-9.49414298e-02f,
-1.24842353e-01f,+2.22158864e-01f,+1.19696237e-01f,-1.20771073e-01f,+1.57364592e-01f,
+6.73003346e-02f,-4.00576219e-02f,+1.29495636e-02f,-1.77264735e-01f,-1.17995478e-01f,
+1.60762072e-01f,+3.65156792e-02f,-8.62952205e-04f,-3.26045364e-01f,-2.58145239e-02f,
+2.26340648e-02f,-4.00039583e-01f,+1.12200662e-01f,+2.33277723e-01f,+5.26776165e-02f,
-1.76507369e-01f,-8.88267159e-02f,+1.54887542e-01f,+1.21116862e-01f,+4.91667017e-02f,
+2.79728949e-01f,-6.26838729e-02f,-2.59286687e-02f,+3.88153866e-02f,+1.38831064e-01f,
-2.11915568e-01f,+1.54785933e-02f,-1.16165444e-01f,-1.27707496e-01f,-2.44158417e-01f,
-2.03239441e-01f,-4.55921106e-02f,+2.02038780e-01f,+2.56701082e-01f,+1.08476244e-01f,
+1.65596560e-01f,+1.76052570e-01f,+6.18126035e-01f,+1.09697968e-01f,+4.04367357e-01f,
-1.56298243e-02f,+2.09017217e-01f,+3.72677185e-02f,-2.96456754e-01f,+8.86155888e-02f,
+5.42389043e-02f,-5.55953607e-02f,-1.44708619e-01f,-2.70189524e-01f,-1.80862874e-01f,
+3.19960922e-01f,-1.12119941e-02f,-1.77262172e-01f,-1.55527249e-01f,-5.34254964e-03f,
+1.93826512e-01f,-1.66011415e-02f,+2.33193159e-01f,-1.31435841e-01f,-5.63331172e-02f,
+2.59299040e-01f,-3.94651704e-02f,-8.67183204e-04f,-1.22801121e-02f,+1.26304537e-01f,
+1.99101329e-01f,+4.72495317e-01f,+5.55638112e-02f,+1.55277669e-01f,+5.00190377e-01f,
-3.07175428e-01f,-9.16583538e-02f,+6.33892720e-04f,-1.86907127e-01f,+1.26998797e-01f,
-2.51427982e-02f,-6.81819990e-02f,-4.38243121e-01f,-5.53046316e-02f,+7.06159770e-02f,
+3.09061855e-01f,-2.93671247e-02f,+1.01311661e-01f,+7.76963979e-02f,+2.29266420e-01f,
-1.51561290e-01f,+3.73492718e-01f,-2.77834624e-01f,-2.69346714e-01f,+2.12972343e-01f,
+1.11138508e-01f,+3.11185211e-01f,-7.58472085e-02f,-1.17838597e-02f,+6.59067407e-02f,
+1.98341876e-01f,-2.00711980e-01f,+1.51042007e-02f,-1.74988940e-01f,-3.12396549e-02f,
-1.25614181e-01f,-2.49426007e-01f,-1.95224926e-01f,-8.57511088e-02f,+4.90914285e-03f,
+5.40469922e-02f,-1.29150689e-01f,-2.23704025e-01f,+7.18201026e-02f,+1.58386260e-01f,
-1.17382240e-02f,+1.54795229e-01f,+1.74785540e-01f,-1.78899571e-01f,+1.24254741e-01f,
+2.28930358e-02f,+8.99089947e-02f,+3.17020237e-01f,+7.89986029e-02f,-4.93226051e-02f,
-6.92969859e-02f,-1.43010795e-01f,+8.15738365e-02f,-2.44040098e-02f,-1.18493751e-01f,
+3.74697633e-02f,+9.18161422e-02f,+9.15770233e-02f,+3.02464783e-01f,-2.01137811e-02f,
+1.39708415e-01f,-1.75615877e-01f,+6.53318502e-03f,+1.38838574e-01f,+2.13247221e-02f,
+8.40888470e-02f,+1.60408914e-01f,-6.00541867e-02f,-2.85709668e-02f,+1.08509667e-01f,
-4.81531434e-02f,-3.18670571e-02f,+2.49302626e-01f,-3.11455484e-02f,+8.17812905e-02f,
-2.39206180e-02f,-1.48569196e-02f,-8.43220204e-02f,+8.82693157e-02f,+1.60363734e-01f,
-2.37822421e-02f,-1.45057961e-01f,+5.67957051e-02f,-7.04152510e-02f,-9.60053951e-02f,
-3.97558481e-01f,+1.50572527e-02f,+3.47890466e-01f,-5.69621846e-02f,-3.79152549e-03f,
-1.70102984e-01f,+3.51761699e-01f,+7.87203014e-02f,-9.23207477e-02f,+2.36262187e-01f,
+3.98191363e-02f,+2.25216106e-01f,+1.29766122e-01f,+1.41545758e-01f,+1.19238101e-01f,
+1.92542411e-02f,-2.59486228e-01f,+1.82118207e-01f,-1.19271595e-02f,+4.49836515e-02f,
+1.46801889e-01f,-4.36155051e-01f,-1.31299525e-01f,-1.06576495e-01f,+2.60601901e-02f,
-1.88183948e-01f,+3.69825144e-03f,+7.39745125e-02f,-1.77062422e-01f,-9.36638862e-02f,
+2.76499003e-01f,-2.20371410e-01f,+4.86813579e-03f,-1.32585168e-01f,-2.83839673e-01f,
+8.23508129e-02f,+3.14173460e-01f,-1.71611875e-01f,-1.75539464e-01f,-1.45617370e-02f,
+2.90610306e-02f,-8.18360224e-02f,-3.17786559e-02f,+1.83342546e-01f,+1.92042417e-03f,
+8.16493183e-02f,-1.76310673e-01f,-5.88671826e-02f,+2.77060241e-01f,+1.44075751e-02f,
+1.76173262e-02f,+1.32399937e-02f,+3.79265659e-02f,+3.08825076e-01f,+2.23021843e-02f,
+1.17255524e-01f,+2.08548710e-01f,-2.65453216e-02f,+2.51248360e-01f,-7.26409405e-02f,
-1.20938130e-01f,-2.04135906e-02f,+2.46455520e-01f,+2.45522693e-01f,-8.36903453e-02f,
-1.16284393e-01f,+1.81909546e-01f,-4.25150394e-02f,-1.39515415e-01f,+2.37382576e-01f,
-7.42358565e-02f,-5.69424294e-02f,+9.67050344e-02f,+2.65345126e-01f,+3.95645089e-02f,
+1.33614898e-01f,+1.43890306e-01f,-7.26941694e-03f,-9.22928900e-02f,+1.59080215e-02f,
-1.70407057e-01f,-2.17096090e-01f,+2.33928055e-01f,-2.27070227e-01f,+7.46556818e-02f,
+2.78378129e-01f,+3.75548601e-01f,-1.92105427e-01f,+2.45226070e-01f,-9.91416052e-02f,
-7.13552162e-02f,+9.91102383e-02f,-3.20727713e-02f,+1.59352049e-01f,+6.79395767e-03f,
-1.05149008e-01f,-7.04375952e-02f,-1.22431047e-01f,-2.28567645e-02f,+1.29532516e-01f,
-1.36524454e-01f,-1.62692398e-01f,-1.09233156e-01f,-2.01869130e-01f,-2.54955050e-02f,
+3.88344266e-02f,+2.74908151e-02f,-1.78579330e-01f,+6.06193654e-02f,+7.24488720e-02f,
+4.29219827e-02f,+2.23665386e-02f,+9.21941027e-02f,+1.98493391e-01f,-1.23639330e-01f,
+2.30218545e-02f,-2.95425896e-02f,-1.04886927e-01f,+4.40491177e-02f,+1.21694237e-01f,
-2.26495206e-01f,+2.93403029e-01f,+4.62287031e-02f,+1.16665982e-01f,+2.20833048e-01f,
+1.09867133e-01f,+3.53691995e-01f,-2.08167151e-01f,+2.03207701e-01f,+9.47765708e-02f,
+1.49491325e-01f,+1.79031696e-02f,-2.18963489e-01f,-9.09642652e-02f,+6.56095147e-02f,
+1.79336622e-01f,+8.98045674e-02f,-6.22210233e-03f,+2.10837990e-01f,+5.33621162e-02f,
-2.37467617e-01f,+7.58122578e-02f,-1.24568358e-01f,-2.39840269e-01f,-5.67512512e-02f,
-1.02502100e-01f,-6.63470104e-02f,+1.14275694e-01f,-2.58021168e-02f,+1.59713984e-01f,
-1.12608060e-01f,+2.82552540e-01f,-1.03471100e-01f,+3.20746034e-01f,+5.69509482e-03f,
-1.14993840e-01f,+3.42918456e-01f,+2.85952538e-01f,-5.29936142e-02f,-3.06471765e-01f,
+1.88699186e-01f,+3.41157727e-02f,-1.19479030e-01f,+1.22811772e-01f,+1.42768413e-01f,
-1.75632581e-01f,+1.62303045e-01f,+1.61188170e-01f,+1.50635123e-01f,-1.56464562e-01f,
-4.48334143e-02f,-7.00817704e-02f,-2.18705591e-02f,-1.80815049e-02f,+1.11892760e-01f,
-3.83566134e-02f,-1.28477842e-01f,+2.00460911e-01f,-2.94044226e-01f,-1.38090318e-02f,
+5.91551028e-02f,+2.49876916e-01f,-2.07883045e-02f,+1.01515748e-01f,+4.46447022e-02f,
+9.24436003e-02f,-2.10579246e-01f,+9.05437246e-02f,-2.64723927e-01f,-1.52749345e-01f,
-1.16911910e-01f,+1.33646503e-02f,+1.26527771e-01f,+4.86077182e-02f,+8.76890793e-02f,
+3.89478624e-01f,+1.93568364e-01f,+2.03908607e-01f,+6.18363656e-02f,+1.17696442e-01f,
-1.03082314e-01f,+2.60086800e-03f,+8.92442185e-03f,-8.45587254e-02f,-1.31506857e-03f,
-2.69473106e-01f,-2.51289517e-01f,+1.20889783e-01f,-6.62424341e-02f,-3.06002889e-03f,
-3.54326904e-01f,-3.27967405e-02f,+1.16801701e-01f,+4.95169535e-02f,+1.36395162e-02f,
-4.52660304e-03f,+4.75266539e-02f,+3.82402539e-01f,+1.56105712e-01f,-2.52732635e-01f,
-1.93286389e-02f,+1.17927723e-01f,-2.17876986e-01f,-8.41030627e-02f,-8.27935152e-03f,
+8.72643571e-03f,-6.21410608e-02f,+1.65998265e-01f,+5.30432574e-02f,-1.32093564e-01f,
-2.33015627e-01f,+9.98802632e-02f,+1.92248866e-01f,-1.87841535e-01f,-1.05427630e-01f,
-1.01991026e-02f,-8.11506510e-02f,+9.73637328e-02f,-5.00369631e-02f,+6.71056733e-02f,
+5.82259223e-02f,+2.65014410e-01f,-3.21054101e-01f,+4.93851863e-02f,+9.41355526e-02f,
+2.34575972e-01f,-3.54618058e-02f,+2.99718499e-01f,+3.12630758e-02f,-1.02765024e-01f,
+4.08797376e-02f,-4.46524084e-01f,+6.99647237e-03f,-3.21206488e-02f,-2.03526407e-01f,
+8.75087902e-02f,+1.50890410e-01f,+1.51214138e-01f,+1.69665497e-02f,-7.98047259e-02f,
+1.00209989e-01f,+4.87769507e-02f,+1.93961993e-01f,-1.26682580e-01f,-2.20969856e-01f,
+4.56135392e-01f,-4.02683765e-02f,+1.79844618e-01f,+6.99857771e-02f,+3.38159412e-01f,
-1.29749849e-01f,+3.09499890e-01f,-1.43192813e-01f,+8.11815485e-02f,-1.15530983e-01f,
-7.11017400e-02f,+3.59349400e-01f,+3.40793356e-02f,-1.12580441e-01f,-5.25706820e-02f,
-2.79929917e-02f,-3.28182578e-02f,-2.87744075e-01f,+1.60750598e-01f,-1.60553813e-01f,
-4.24939655e-02f,-2.58371122e-02f,+1.31254092e-01f,-2.87961768e-04f,+4.12550010e-02f,
+4.21778411e-02f,+2.67319649e-01f,-1.43673226e-01f,-8.85595605e-02f,-1.48726538e-01f,
-1.82471201e-01f,+9.20482278e-02f,-3.20466310e-02f,+7.86969811e-02f,+1.79107338e-01f,
+1.58425808e-01f,+1.34265125e-01f,+1.84899822e-01f,+3.73995490e-02f,-1.40370086e-01f,
-1.70095816e-01f,+2.30223313e-01f,+1.11275069e-01f,-1.54751807e-01f,-1.36346743e-01f,
+1.71152838e-02f,-2.40028482e-02f,-1.06909022e-01f,+1.53443292e-02f,-1.82841703e-01f,
-1.44593388e-01f,-1.61200091e-02f,+2.39989877e-01f,+2.09390432e-01f,+1.60655946e-01f,
+1.51676819e-01f,-1.72308370e-01f,+3.46590951e-02f,+8.37734863e-02f,-1.08183600e-01f,
+1.85573056e-01f,-1.08748823e-01f,+1.37106150e-01f,-3.34267348e-01f,-9.71609876e-02f,
-7.14305490e-02f,+2.45255694e-01f,-1.41737759e-01f,+4.32444513e-02f,+1.35951072e-01f,
-1.63627163e-01f,-2.20871836e-01f,-9.57339481e-02f,-4.48407941e-02f,+1.71741068e-01f,
+8.66806060e-02f,-1.55842612e-02f,-4.35065068e-02f,+1.81774363e-01f,-5.89326657e-02f,
+2.52550513e-01f,-1.95547402e-01f,-5.19393310e-02f,-1.64470747e-01f,+5.47388755e-02f,
-6.63027316e-02f,+3.94395776e-02f,-1.54326279e-02f,-2.66782999e-01f,+1.12876594e-01f,
-4.62101102e-01f,-5.26580736e-02f,-2.27660045e-01f,+1.88635960e-01f,+1.94336236e-01f,
-3.31795156e-01f,+7.38002509e-02f,-1.51040137e-01f,-1.89141080e-01f,-1.35175958e-01f,
-2.59172004e-02f,+1.17867805e-01f,+1.83438912e-01f,+5.12606502e-01f,+1.79372340e-01f,
+2.43546948e-01f,-3.10713857e-01f,-1.09609157e-01f,-6.35259748e-02f,+3.18163484e-01f,
+4.65054959e-02f,+5.00172451e-02f,-4.14473489e-02f,+2.37387940e-02f,+4.90424782e-02f,
+1.60430521e-01f,+4.23483759e-01f,-1.20191075e-01f,-1.71397626e-01f,+2.78730382e-04f,
+8.64667073e-02f,+9.52234864e-02f,+1.49957359e-01f,+2.09354728e-01f,+2.68130153e-01f,
+8.21636617e-02f,-7.06621706e-02f,+8.75459388e-02f,-8.93599167e-02f,+1.19770393e-01f,
-2.50625581e-01f,+1.53027505e-01f,+1.65638864e-01f,+1.19427249e-01f,+6.08489178e-02f,
+1.39653161e-01f,+1.12621132e-02f,-2.62400955e-02f,-1.78241491e-01f,+2.36278772e-01f,
+1.10958377e-03f,-1.25332385e-01f,+3.24914783e-01f,-1.85423195e-02f,-1.43807516e-01f,
-1.16900519e-01f,+4.22521159e-02f,+3.53463322e-01f,+4.86345589e-02f,+2.09921286e-01f,
-5.00839911e-02f,-7.84535334e-02f,-1.45519331e-01f,-1.22731581e-01f,+6.74721524e-02f,
-1.61547244e-01f,-3.74001116e-02f,-6.52432889e-02f,-1.47651494e-01f,-3.99788991e-02f,
-1.88176986e-02f,+1.00980952e-01f,+4.18073274e-02f,+3.46940339e-01f,+1.56191329e-03f,
-1.02128141e-01f,+2.49380283e-02f,-3.74089219e-02f,+1.27367541e-01f,+3.24974246e-02f,
+8.68418887e-02f,-1.27845660e-01f,+8.91703144e-02f,-7.28252977e-02f,-1.08078942e-01f,
-5.95965311e-02f,+1.02031253e-01f,-1.21315166e-01f,-2.92818397e-01f,+6.28537685e-02f,
+2.24620067e-02f,+1.02259018e-01f,-9.56177935e-02f,+4.01488803e-02f,-1.42430188e-02f,
-9.99352410e-02f,+1.87222630e-01f,-4.05199118e-02f,-6.89095557e-02f,+3.65649819e-01f,
+1.68737292e-01f,+2.39558637e-01f,+2.88940053e-02f,+3.54276076e-02f,-8.24882090e-02f,
-1.28404960e-01f,+2.66962886e-01f,+1.61223412e-01f,-1.41474381e-01f,-2.39283331e-02f,
-1.54935598e-01f,+1.91181883e-01f,-1.66604176e-01f,-1.84831023e-02f,-4.70928522e-03f,
+2.55369823e-02f,+1.53578132e-01f,+1.04359455e-01f,+6.87288791e-02f,+1.12347230e-01f,
-1.33843273e-01f,-8.16075206e-02f,-1.79319903e-01f,+1.22504286e-01f,-2.46890411e-01f,
+1.06333956e-01f,+1.98034465e-01f,+4.92159054e-02f,-1.68528348e-01f,+9.81745962e-03f,
-7.51954466e-02f,-1.19645379e-01f,-4.51217592e-02f,-2.19464481e-01f,+4.86475192e-02f,
-1.32252472e-02f,-1.34827048e-01f,+7.83439130e-02f,+9.31655467e-02f,+1.39904991e-01f,
+1.48181722e-01f,-8.49034563e-02f,-6.72672540e-02f,+1.05149828e-01f,+3.49864773e-02f,
-1.54570803e-01f,-2.89872847e-03f,+5.57831302e-02f,+1.90388903e-01f,-1.62080210e-02f,
+6.45437688e-02f,-1.78844869e-01f,-3.57119329e-02f,-1.16503492e-01f,+2.47341767e-01f,
-1.25323772e-01f,+2.11422160e-01f,-8.65769908e-02f,+1.39443576e-01f,+3.81424353e-02f,
-2.24335074e-01f,-6.32762834e-02f,-2.60410905e-01f,-2.45934531e-01f,-1.67899951e-01f,
+1.03537783e-01f,+2.65346207e-02f,-1.08362213e-01f,+2.24835090e-02f,+2.08553478e-01f,
-1.67641062e-02f,-3.84657495e-02f,+1.46572471e-01f,+9.79715213e-02f,-6.41455203e-02f,
+3.80406857e-01f,+3.42358463e-02f,+2.59547174e-01f,+6.19420223e-02f,-7.00095221e-02f,
+1.30017765e-03f,+7.02836737e-02f,-5.56259900e-02f,-1.25093968e-03f,+2.32585713e-01f,
+1.12571716e-01f,-5.38852662e-02f,+2.86475495e-02f,+8.11262876e-02f,-1.07989170e-01f,
+1.53007448e-01f,-2.74963498e-01f,+2.46171683e-01f,-1.49677381e-01f,-8.89692083e-02f,
+2.63808966e-01f,-2.12275218e-02f,+2.00677231e-01f,+3.15820873e-01f,+1.40279923e-02f,
-5.59985563e-02f,+2.78228611e-01f,+2.16924906e-01f,+1.84574455e-01f,-9.56217721e-02f,
+1.43944576e-01f,+1.67953983e-01f,+1.13796562e-01f,+4.46585029e-01f,-1.67155132e-01f,
-2.69119442e-01f,+7.49011859e-02f,+3.04823339e-01f,-5.05283214e-02f,-2.66332943e-02f,
+6.36377409e-02f,-8.54126364e-02f,+2.86611706e-01f,+3.11192442e-02f,-2.64677316e-01f,
+9.09035951e-02f,-1.14951944e-02f,-5.82664609e-02f,-5.94539233e-02f,+1.17103592e-01f,
+1.86378583e-02f,-3.67447175e-02f,-2.98525900e-01f,-1.95412457e-01f,+1.52702555e-01f,
-2.60023594e-01f,-2.36713625e-02f,+2.72384703e-01f,-2.84610212e-01f,+1.50427431e-01f,
+2.01334909e-01f,-2.79020220e-01f,-5.96279912e-02f,+1.37302682e-01f,+1.39064103e-01f,
-6.52890950e-02f,-3.06806155e-02f,+3.49592090e-01f,-1.10868268e-01f,+6.25241026e-02f,
+3.71044844e-01f,+2.00569779e-01f,+6.87231869e-02f,-8.60425830e-02f,+2.40394697e-01f,
+1.60406545e-01f,+2.35915512e-01f,-8.01452043e-05f,+2.31451750e-01f,-2.51417249e-01f,
+1.95252709e-02f,+2.09965855e-01f,+8.47663358e-03f,+2.35345155e-01f,-2.03797445e-01f,
-2.27520540e-02f,+9.42250714e-02f,+9.28324759e-02f,+3.73386562e-01f,+9.56911296e-02f,
+1.87107548e-01f,+1.96657255e-01f,-1.92422643e-01f,-6.61020577e-02f,+4.05903003e-04f,
+2.76419610e-01f,+3.29210937e-01f,+2.11220115e-01f,-1.21595137e-01f,+3.43126594e-03f,
-5.73475994e-02f,+1.41407236e-01f,+4.69045946e-03f,+3.32810640e-01f,-1.96513738e-02f,
+8.56410433e-03f,+1.18142225e-01f,+1.12433350e-02f,+4.58259787e-03f,+2.48533398e-01f,
-9.51339751e-02f,+1.34185299e-01f,+1.53283060e-01f,+2.63094902e-01f,+4.18551117e-02f,
+1.43146574e-01f,+3.65820974e-01f,+5.37972860e-02f,-1.20432101e-01f,+1.58317327e-01f,
+1.41501322e-01f,+3.45301509e-01f,-2.22158674e-02f,-4.16935682e-01f,+7.39814434e-03f,
+2.08706424e-01f,-1.24490419e-02f,-7.06904605e-02f,+1.82553604e-01f,-2.32487991e-01f,
-3.28633249e-01f,-1.82032511e-02f,+1.01456441e-01f,-4.06450003e-01f,+7.72784501e-02f,
-1.25619590e-01f,+1.19476300e-02f,-6.83368668e-02f,+4.43043970e-02f,+1.57875776e-01f,
-6.34670332e-02f,-1.85011998e-01f,+7.83426166e-02f,-1.09366164e-01f,-6.77506858e-03f,
+1.08801506e-01f,+3.55401672e-02f,-3.83191258e-02f,+3.94661963e-01f,+2.98142076e-01f,
+1.93934172e-01f,-1.38570294e-01f,-7.99778402e-02f,+3.21840435e-01f,+3.35054487e-01f,
-1.02392659e-01f,+1.60486266e-01f,-1.84853636e-02f,+8.57504010e-02f,+1.25863738e-02f,
+2.53897253e-02f,+6.88749850e-02f,+2.62046847e-02f,-2.45128050e-01f,+8.47017989e-02f,
-2.99918968e-02f,-1.30806416e-01f,-5.31056011e-03f,+2.53822729e-02f,-1.91522930e-02f,
+8.96754935e-02f,+1.75397143e-01f,-3.38319689e-01f,+1.48118287e-01f,+1.40312374e-01f,
-3.00726690e-03f,+4.30035330e-02f,-4.43237089e-02f,+1.94068730e-01f,+2.67305784e-02f,
-1.43061623e-01f,-7.72087127e-02f,+3.32715511e-01f,-7.60745853e-02f,+1.60241902e-01f,
+1.45085782e-01f,-2.47430112e-02f,+1.04891203e-01f,+7.66802877e-02f,+2.39995226e-01f,
-5.56504019e-02f,-2.50603985e-02f,+2.35572711e-01f,-4.44071107e-02f,-1.04110219e-01f,
-3.81662771e-02f,+7.09493011e-02f,+8.15397650e-02f,+1.35069773e-01f,-1.81591034e-01f,
-1.42685816e-01f,+2.92635597e-02f,+1.27301425e-01f,-3.28661710e-01f,+2.31099986e-02f,
-1.04257101e-02f,+1.65628061e-01f,+3.34616303e-02f,+3.08487147e-01f,-2.48558849e-01f,
-1.51485324e-01f,+1.47715257e-02f,-2.54386485e-01f,-7.79430121e-02f,-1.05002327e-02f,
+1.00242555e-01f,+1.94158152e-01f,-1.80765486e-03f,+3.52577828e-02f,+1.65246740e-01f,
+1.89646930e-01f,-2.26271432e-02f,+2.10148394e-01f,+3.09965968e-01f,+6.67222217e-02f,
-2.84991801e-01f,-1.26132146e-01f,+3.21607925e-02f,+1.77133262e-01f,-1.19106404e-01f,
-1.45486668e-01f,+4.99995984e-02f,-6.01539910e-02f,-3.61019000e-02f,+2.04218581e-01f,
-7.44364560e-02f,-9.90953892e-02f,+1.07648306e-01f,-2.64706522e-01f,-2.34463830e-02f,
+6.17494136e-02f,+2.18127072e-02f,-2.21053556e-01f,-4.89988029e-02f,-1.22038744e-01f,
+2.49070320e-02f,+6.82051703e-02f,-5.06159198e-03f,-7.09367320e-02f,-6.60367012e-02f,
+4.50206473e-02f,+1.44790187e-01f,-3.30523610e-01f,+1.56797692e-01f,+9.11522936e-03f,
-3.91996354e-01f,-9.21136960e-02f,-9.98269245e-02f,+2.57229716e-01f,+2.17868924e-01f,
+3.61840069e-01f,+2.26048246e-01f,+1.56615734e-01f,+2.15614229e-01f,-4.10940610e-02f,
-1.41556621e-01f,-8.38358924e-02f,-2.03172356e-01f,-1.59238771e-01f,-8.00071582e-02f,
+5.16525097e-02f,+2.15207562e-02f,-2.27589965e-01f,-5.02943516e-01f,-1.85970843e-01f,
-9.03017446e-02f,+3.27875644e-01f,+7.26356283e-02f,-4.12999205e-02f,+6.71648458e-02f,
-9.81894135e-02f,+9.98050049e-02f,+1.16440825e-01f,+2.06048653e-01f,+1.70911569e-02f,
-4.13238071e-02f,+2.27379516e-01f,+1.41786173e-01f,-4.64724116e-02f,-1.19743302e-01f,
+5.87905012e-02f,+1.19059950e-01f,-1.28721073e-01f,+6.79145381e-02f,+1.51163265e-01f,
+1.57793239e-01f,-2.00648725e-01f,-2.73036599e-01f,-1.60728231e-01f,-4.05419618e-02f,
+9.44937319e-02f,-7.41027296e-02f,+2.41321579e-01f,-2.95666844e-01f,+2.65797507e-02f,
+9.81343091e-02f,+1.96153149e-02f,+1.72247544e-01f,-2.84425199e-01f,+3.32991928e-01f,
-1.30044967e-01f,-7.62301162e-02f,-4.31379825e-02f,-1.78961530e-01f,-1.52808905e-03f,
+1.39856368e-01f,-1.69484377e-01f,-2.05559924e-01f,+9.61185917e-02f,+4.00926262e-01f,
+6.26720935e-02f,+6.05139807e-02f,-9.96866375e-02f,+9.03580636e-02f,+2.06471264e-01f,
-3.38902801e-01f,+1.63026214e-01f,-1.31795585e-01f,-1.54026434e-01f,-1.52700320e-01f,
-2.28300188e-02f,-8.92384946e-02f,+1.71219379e-01f,-8.43145326e-02f,-2.36603227e-02f,
+4.51635830e-02f,+2.25539789e-01f,+9.83368605e-02f,+3.32753211e-01f,+5.93498014e-02f,
-1.18557230e-01f,+8.87368247e-02f,-3.90744619e-02f,-1.07356638e-01f,-3.60019863e-01f,
-3.21779013e-01f,+2.00954512e-01f,-2.09493488e-02f,-9.48741958e-02f,+1.45087376e-01f,
-1.92263290e-01f,-1.02666415e-01f,+7.37501606e-02f,+1.06855147e-01f,-7.12858289e-02f,
+1.22293547e-01f,-1.48528799e-01f,-1.10907957e-01f,-4.41530980e-02f,+3.28552663e-01f,
+1.29887983e-01f,-2.52378255e-01f,+2.80593872e-01f,+1.53650835e-01f,-5.64239733e-02f,
-1.34579495e-01f,+5.22822253e-02f,+1.49481654e-01f,+1.95386022e-01f,-2.84176990e-02f,
-1.11556828e-01f,+1.41277239e-01f,+2.49317586e-02f,+1.27866983e-01f,-2.66996533e-01f,
-3.66919547e-01f,+3.53083611e-01f,+6.58093542e-02f,-2.96600722e-02f,-2.41444372e-02f,
+4.28353529e-03f,-1.68214347e-02f,+1.59294158e-01f,+4.99628305e-01f,-1.16563506e-01f,
-5.51609360e-02f,+4.62392457e-02f,+6.30541369e-02f,-2.15850011e-01f,-6.37883469e-02f,
-1.27649963e-01f,+1.10792547e-01f,-2.21744373e-01f,-2.05728725e-01f,-2.70289809e-01f,
+2.12477162e-01f,+6.64587393e-02f,+4.49195616e-02f,+1.79381698e-01f,+1.82469994e-01f,
+1.93277329e-01f,+4.76487353e-02f,-2.29377836e-01f,-1.29753664e-01f,-2.27093026e-02f,
-3.74163799e-02f,-6.66960701e-02f,+2.95849055e-01f,-1.50896370e-01f,-2.74702162e-01f,
-2.65725464e-01f,+3.01265448e-01f,+6.58299252e-02f,-8.77752528e-02f,+2.89124966e-01f,
-2.11267412e-01f,-2.41155654e-01f,-2.63446551e-02f,-3.86276275e-01f,-1.57328188e-01f,
-2.26416752e-01f,+2.77882040e-01f,+3.41438018e-02f,+8.42619315e-03f,+3.33924383e-01f,
-8.89308006e-02f,-2.01339081e-01f,-1.06001429e-01f,-1.62336856e-01f,+7.70357344e-03f,
-1.76170141e-01f,+1.08301222e-01f,-2.38147065e-01f,-1.83524624e-01f,-1.10412613e-01f,
-1.15978964e-01f,-3.46877649e-02f,+3.13393444e-01f,-1.41308621e-01f,-2.54062831e-01f,
+1.97232530e-01f,-1.33493338e-02f,+2.82168895e-01f,-1.41376033e-01f,-3.81034911e-01f,
-1.01474173e-01f,+1.56306252e-01f,+1.76133081e-01f,-1.52431250e-01f,-2.12628528e-01f,
+3.14352065e-02f,+3.48853022e-02f,-1.82323381e-01f,+1.87255591e-02f,+3.40577811e-02f,
-1.44261882e-01f,+7.99055845e-02f,+4.42548335e-01f,-4.43321913e-02f,-1.57200415e-02f,
-1.11380272e-01f,+2.94884413e-01f,+6.76265210e-02f,-3.02815497e-01f,-6.19843379e-02f,
+9.21788886e-02f,+5.78632951e-02f,+2.41412491e-01f,-2.67384380e-01f,+6.68019652e-02f,
+2.21422404e-01f,-1.02889039e-01f,+1.70344278e-01f,-8.60696882e-02f,+2.28608489e-01f,
+2.15181023e-01f,-3.65179479e-02f,-1.83809742e-01f,+1.74381465e-01f,-2.59965718e-01f,
+7.46403411e-02f,+4.00661707e-01f,+1.50989190e-01f,-2.02859238e-01f,-4.36452597e-01f,
+2.16533765e-01f,+2.81133473e-01f,+9.52169299e-02f,-3.40146869e-01f,+2.84514427e-01f,
+3.02064102e-02f,+1.89875290e-01f,+1.03231341e-01f,-1.93416059e-01f,+2.62368005e-03f,
+7.09715560e-02f,+4.46357764e-02f,-1.40264139e-01f,-5.49368449e-02f,+2.10334912e-01f,
-1.59148723e-02f,-4.61039953e-02f,+1.14624828e-01f,-2.25864545e-01f,-1.02456301e-01f,
+5.42387366e-02f,-1.03328504e-01f,-7.33061284e-02f,+3.06368649e-01f,-3.70112658e-01f,
-1.64660230e-01f,+3.81516308e-01f,-2.14217484e-01f,+1.54683501e-01f,+1.05010509e-01f,
+4.89362657e-01f,+4.54025082e-02f,+1.67731151e-01f,-2.47998491e-01f,+1.09948935e-02f,
+2.02564970e-01f,-3.22555572e-01f,-1.86548501e-01f,+3.68450116e-03f,-1.73888013e-01f,
-2.25146469e-02f,+1.00337163e-01f,+1.17789246e-01f,-5.90513051e-02f,+1.41518623e-01f,
+3.73301178e-01f,+2.31878042e-01f,-1.62786111e-01f,+4.03116532e-02f,-1.26503006e-01f,
+5.18767647e-02f,-2.35970020e-01f,+4.54499535e-02f,-3.66206397e-03f,-3.58715922e-01f,
-2.91239917e-01f,-1.77443817e-01f,-2.24648237e-01f,-1.80448741e-02f,-2.28709057e-02f,
-1.63649082e-01f,+1.05680339e-01f,-1.17113724e-01f,+1.14927553e-01f,+1.98812500e-01f,
-9.21790525e-02f,+2.51814008e-01f,+3.61933373e-02f,+2.15909243e-01f,+1.37929142e-01f,
-1.86877195e-02f,+6.73960941e-03f,-9.74435136e-02f,-1.48285687e-01f,-2.05896437e-01f,
+1.84248716e-01f,-2.88109649e-02f,+1.86559469e-01f,+2.67438263e-01f,+1.94317505e-01f,
+1.77529659e-02f,+6.92039281e-02f,-8.15925226e-02f,+2.05833480e-01f,+2.79276997e-01f,
-2.23241553e-01f,-9.17890146e-02f,-2.46512517e-01f,+1.53872341e-01f,-6.78810466e-05f,
+1.02807790e-01f,+1.71165854e-01f,-2.36149002e-02f,+4.57678288e-01f,+2.65848547e-01f,
+9.81371626e-02f,+2.17021063e-01f,-4.70122010e-01f,+3.89648713e-02f,+6.06079958e-02f,
-1.10245593e-01f,+2.58730114e-01f,-2.38577574e-01f,-1.32474393e-01f,+2.50151336e-01f,
-8.08488280e-02f,+2.95060594e-02f,-1.28016785e-01f,+2.09694147e-01f,-6.75143898e-02f,
+1.05179377e-01f,-7.05203786e-03f,+2.94404685e-01f,+1.92972794e-01f,+1.69860888e-02f,
-2.72882402e-01f,-3.24175470e-02f,+2.39454195e-01f,+7.10568428e-02f,+4.45430912e-02f,
+2.69581199e-01f,-3.88893150e-02f,+7.96247348e-02f,+4.22699973e-02f,+7.20381141e-02f,
+1.88112650e-02f,-1.53407484e-01f,+1.93788245e-01f,-1.83353305e-01f,+3.34635079e-01f,
-1.36351287e-01f,+1.82722315e-01f,+8.60159323e-02f,-5.47448285e-02f,+2.04322293e-01f,
+6.09347150e-02f,+2.46462137e-01f,+2.45523408e-01f,-2.51368172e-02f,+3.02466098e-02f,
+8.72262195e-02f,-9.31798145e-02f,+6.13202006e-02f,+1.17212206e-01f,-2.32592613e-01f,
-6.90701231e-02f,+6.88583404e-02f,+2.04964370e-01f,-7.22690076e-02f,-2.23073468e-01f,
+1.30170584e-01f,-2.84428865e-01f,+1.38817474e-01f,-5.54507300e-02f,+1.39821157e-01f,
-3.86534929e-02f,-5.71711808e-02f,-1.11812644e-01f,-2.37308547e-01f,-3.73298512e-03f,
+2.42262986e-03f,+4.94440734e-01f,-2.00634480e-01f,-2.24459574e-01f,+4.11204919e-02f,
-1.66498259e-01f,-1.25092179e-01f,-2.03766063e-01f,+5.37871234e-02f,-1.41678691e-01f,
+1.22161228e-02f,-9.88149922e-03f,-1.45756081e-01f,+3.13279144e-02f,+3.34254444e-01f,
+2.30160337e-02f,-1.12561323e-01f,+1.61560535e-01f,+6.66420236e-02f,+2.33371809e-01f,
+6.60334751e-02f,+1.43967390e-01f,-1.30411819e-01f,+1.42023429e-01f,+1.43641368e-01f,
+8.45935419e-02f,+3.74454319e-01f,-8.51355419e-02f,+2.34215911e-02f,-9.59178284e-02f,
+4.02746439e-01f,-9.16368738e-02f,-2.17365012e-01f,-6.39427602e-02f,+1.13468513e-01f,
+5.02179675e-02f,+1.34109437e-01f,+2.80352659e-03f,+6.38867989e-02f,-5.75325079e-02f,
+2.94495076e-01f,-1.21699097e-02f,-3.15317452e-01f,+4.81159508e-01f,-2.20074162e-01f,
-2.77449071e-01f,-2.60170311e-01f,+2.10130781e-01f,-2.46370867e-01f,+3.60790610e-01f,
-1.64077841e-02f,+2.89217800e-01f,-9.92144942e-02f,+2.89216548e-01f,+2.56350935e-01f,
+1.03979386e-01f,-1.73407733e-01f,+2.68817022e-02f,+5.81057295e-02f,+3.43836322e-02f,
+1.44666210e-01f,-3.53406936e-01f,+1.14276968e-01f,-6.19311966e-02f,+2.29489505e-01f,
+2.49829069e-02f,-1.78540409e-01f,-1.59987748e-01f,-4.13943548e-03f,+9.54983104e-03f,
-2.14853650e-03f,+2.06948202e-02f,-5.11036851e-02f,-2.28837177e-01f,-1.39837712e-01f,
+2.61869550e-01f,+2.90026546e-01f,-1.70298815e-01f,+8.97221863e-02f,-5.44347614e-02f,
-4.36389856e-02f,+2.22272336e-01f,+1.52758643e-01f,-1.18453518e-01f,+2.49234334e-01f,
+3.27315032e-01f,+1.12384781e-01f,-1.02733448e-01f,-2.19309162e-02f,-1.38552282e-02f,
-1.94653973e-01f,+4.44091886e-01f,-5.03184460e-02f,-4.98779267e-01f,-8.20450112e-03f,
+1.72275111e-01f,+7.58299651e-03f,+3.93391728e-01f,+2.00327948e-01f,+1.36080682e-01f,
-1.54802680e-03f,-1.19895982e-02f,-4.82582301e-02f,+2.47805312e-01f,-2.50872612e-01f,
+1.89670399e-01f,-4.60812151e-02f,-1.71085998e-01f,-2.29131013e-01f,+2.38514781e-01f,
+1.01092815e-01f,+5.45959882e-02f,-2.33069789e-02f,-1.09084643e-01f,+1.36189520e-01f,
+1.12625726e-01f,+3.32262218e-01f,+6.86572641e-02f,-3.39801729e-01f,+2.68167734e-01f,
+3.76804709e-01f,+9.27869454e-02f,-1.68070178e-02f,-1.14143759e-01f,+1.94850657e-02f,
+1.07380740e-01f,+3.94189209e-02f,+9.35621560e-02f,+7.15070367e-02f,+1.90928057e-01f,
+2.57178228e-02f,+8.94223824e-02f,-8.70433524e-02f,-1.68806799e-02f,+5.72425947e-02f,
+1.19635440e-01f,-5.64147085e-02f,+2.66646266e-01f,+1.57203510e-01f,-7.73210451e-02f,
-1.11583941e-01f,-1.66624472e-01f,+9.43359286e-02f,-1.48042962e-01f,+5.73133752e-02f,
+2.13538170e-01f,+4.07791436e-02f,-1.37983039e-01f,-1.35839686e-01f,-4.69601043e-02f,
+5.56338802e-02f,+8.06995183e-02f,+8.75333790e-04f,+1.03814416e-01f,+1.56117575e-02f,
-2.25456268e-01f,+6.05882891e-02f,-1.08162835e-02f,-1.03651829e-01f,-2.53959507e-01f,
-6.38217255e-02f,-1.70645952e-01f,+2.32203260e-01f,+5.30746244e-02f,-1.46083400e-01f,
+4.56893332e-02f,+8.53342116e-02f,-5.20473346e-02f,-1.70498610e-01f,+5.42745441e-02f,
-2.44157910e-01f,+1.81450829e-01f,-2.33252138e-01f,+2.42131371e-02f,-2.80105532e-03f,
-1.27280101e-01f,+2.99184114e-01f,-9.04587433e-02f,+1.05534397e-01f,-4.41753149e-01f,
-2.55858209e-02f,+2.32923165e-01f,+1.08565032e-01f,+1.43391967e-01f,-5.57842432e-04f,
-6.51817024e-02f,-2.82660931e-01f,+1.15579881e-01f,+5.93735762e-02f,-1.80801854e-01f,
-2.99437810e-02f,+2.96290647e-02f,-3.07935942e-03f,+1.16850771e-02f,-2.41579160e-01f,
-3.88234019e-01f,+6.58128038e-02f,+5.78380786e-02f,+2.74942219e-01f,+3.99850696e-01f,
+2.25879401e-01f,+1.77382261e-01f,+2.31378712e-02f,-4.22839940e-01f,-2.37924188e-01f,
-2.07969025e-01f,+2.51850277e-01f,-3.81536990e-01f,+2.24924698e-01f,-2.87424386e-01f,
-2.53392786e-01f,-1.62067011e-01f,+1.59132406e-02f,+1.25041187e-01f,-8.43927413e-02f,
-1.00808524e-01f,-7.40179867e-02f,-1.41758412e-01f,-4.76628020e-02f,+1.26425520e-01f,
-1.82015032e-01f,+3.75473797e-02f,+2.13334382e-01f,-1.35804519e-01f,+7.55658001e-02f,
-1.49002224e-01f,-5.99733889e-02f,-8.08363631e-02f,-2.67502874e-01f,-4.13187355e-01f,
+1.09275850e-02f,+2.03364179e-01f,-2.07615286e-01f,-1.38743058e-01f,-1.59711570e-01f,
+9.61683411e-03f,-1.72517344e-01f,-1.84275091e-01f,-1.28853964e-02f,+7.05818608e-02f,
-1.57411978e-01f,+5.49057014e-02f,+2.97588222e-02f,+3.45829315e-02f,-1.90977246e-01f,
-3.27545926e-02f,+6.92635551e-02f,+6.80225119e-02f,+2.32801706e-01f,-1.24867242e-02f,
-2.69252777e-01f,+7.43325055e-02f,+2.14852750e-01f,-1.68783531e-01f,-1.76264063e-01f,
+2.19732579e-02f,-2.87414491e-01f,-9.60213020e-02f,+2.18531772e-01f,-3.17105711e-01f,
-2.74551630e-01f,+1.41552433e-01f,-3.32457796e-02f,-7.07964227e-02f,-4.61152732e-01f,
-2.26424053e-01f,-1.70417204e-01f,+2.07711801e-01f,+3.23839970e-02f,-3.56294483e-01f,
-1.59388572e-01f,+2.47883484e-01f,+1.23566501e-02f,-1.65739372e-01f,-2.55791396e-02f,
+1.29745662e-01f,-1.83219060e-01f,+1.18090354e-01f,-2.01662973e-01f,+1.55244544e-01f,
+2.95281056e-02f,+1.53055675e-02f,+2.86953058e-02f,-3.33049707e-02f,-2.21756902e-02f,
+8.15316439e-02f,-4.53349888e-01f,+1.96492836e-01f,+2.31569514e-01f,+3.01734388e-01f,
+2.24825457e-01f,+5.66651262e-02f,+1.39557436e-01f,+5.90165183e-02f,-1.53903976e-01f,
-5.69801815e-02f,-3.62196952e-01f,-1.37627413e-02f,-1.26367956e-01f,+2.44047314e-01f,
-1.81227133e-01f,-8.37030411e-02f,-2.51038104e-01f,+7.20904171e-02f,-1.36386380e-02f,
+2.74258643e-01f,+9.50375125e-02f,-6.72078459e-03f,-1.14444084e-01f,+1.84766963e-01f,
+1.33383349e-01f,-2.14088261e-02f,+1.16714485e-01f,+1.00604817e-01f,-1.33491412e-01f,
-3.09891533e-02f,+8.43595937e-02f,+9.49311703e-02f,-7.33330175e-02f,-9.62537676e-02f,
+8.21534730e-03f,+1.97650746e-01f,+1.35078996e-01f,-5.27099013e-01f,-6.98149204e-02f,
-9.87048298e-02f,-6.16776720e-02f,-2.13366579e-02f,-8.39883164e-02f,+2.09612288e-02f,
+2.19317749e-01f,-1.84257045e-01f,+2.14045838e-01f,-6.52813315e-02f,+6.28267825e-02f,
-3.23226959e-01f,+1.45037696e-01f,+1.19993715e-02f,+7.95062333e-02f,+3.85803521e-01f,
-3.94989774e-02f,+5.21191806e-02f,+4.56289314e-02f,+3.96989398e-02f,-3.29438865e-01f,
-7.03250766e-02f,-2.13916332e-01f,-1.85695186e-01f,-1.29411733e-02f,-1.90056354e-01f,
-2.90861279e-01f,+1.34336293e-01f,+1.31840304e-01f,+3.36974442e-01f,-2.47753784e-01f,
+2.21223846e-01f,-2.41319880e-01f,+1.04963176e-01f,-4.79118735e-01f,-3.77350599e-02f,
+2.13976979e-01f,-3.33711505e-01f,-1.48199245e-01f,+2.35463843e-01f,-7.54166543e-02f,
+3.07110982e-04f,+5.05844429e-02f,-1.31907448e-01f,+6.37211353e-02f,+6.15039691e-02f,
-2.60777503e-01f,-6.81138933e-02f,+2.03213319e-01f,+6.05799898e-04f,-2.59453684e-01f,
+9.68191102e-02f,+2.19726071e-01f,-1.47915974e-01f,+4.02902812e-02f,-4.63962674e-01f,
-8.43736082e-02f,-3.69397372e-01f,+2.58450419e-01f,-1.84978217e-01f,-2.10032731e-01f,
+2.94412076e-01f,-3.18810135e-01f,+5.13711981e-02f,-3.13603967e-01f,+1.65765896e-01f,
+4.70517099e-01f,+3.77158344e-01f,-1.33189365e-01f,-1.30860388e-01f,-1.91833988e-01f,
-7.87196010e-02f,-2.06845044e-03f,-7.33385421e-03f,+4.07086551e-01f,+1.26550365e-02f,
-2.72268414e-01f,-2.23743580e-02f,+1.68499619e-01f,-4.57394347e-02f,-1.52428731e-01f,
-3.20669472e-01f,+3.77738215e-02f,-1.24189921e-01f,+2.51824796e-01f,+6.14475459e-02f,
-1.83285490e-01f,+9.77189168e-02f,+8.21530670e-02f,-1.11524463e-01f,+5.37052043e-02f,
-1.73981003e-02f,-8.52191150e-02f,+1.45104140e-01f,-2.40988955e-01f,+3.08575444e-02f,
-8.85235220e-02f,-1.32715449e-01f,+1.56818658e-01f,-1.10385165e-01f,+2.61981040e-01f,
-2.68868268e-01f,+1.19304582e-01f,-2.01511890e-01f,-3.37795354e-02f,-2.46453628e-01f,
-6.60128519e-02f,+4.23768070e-03f,+1.19248651e-01f,+6.95247715e-03f,+2.52018392e-01f,
-5.85014336e-02f,-2.96765774e-01f,-1.38734011e-02f,-5.26187159e-02f,-3.36153626e-01f,
+1.60439044e-01f,+1.92677062e-02f,+6.84790164e-02f,-1.13771625e-01f,-9.52525586e-02f,
-3.33050072e-01f,+2.11132511e-01f,-3.41259181e-01f,+5.42959757e-02f,+7.31150731e-02f,
+6.16019443e-02f,-2.80554265e-01f,-2.67473813e-02f,+5.34077212e-02f,+3.73424813e-02f,
-1.45164907e-01f,+6.78349137e-02f,+3.05667728e-01f,-6.76143244e-02f,-1.85800388e-01f,
+1.85799643e-01f,+3.66746299e-02f,-1.78823918e-01f,-1.13530606e-01f,+9.12717879e-02f,
+1.22287452e-01f,+2.52691567e-01f,-2.99335063e-01f,+3.84378769e-02f,-1.09111890e-01f,
+3.35192710e-01f,+1.28852591e-01f,+1.35270506e-01f,+2.40906961e-02f,+3.62154841e-01f,
-6.04514889e-02f,-1.11420318e-01f,+1.52978316e-01f,+1.89035237e-01f,+2.21901059e-01f,
+1.48054557e-02f,-2.42401153e-01f,+2.80187558e-02f,+4.08161916e-02f,-1.16985753e-01f,
-1.66897267e-01f,+1.09895453e-01f,-3.81926090e-01f,+2.95214429e-02f,+9.52772796e-02f,
+1.08530030e-01f,+9.48437527e-02f,+7.69187789e-03f,-1.88562885e-01f,+1.47259489e-01f,
+1.27659533e-02f,+6.17583878e-02f,-8.63482524e-03f,+1.53148826e-02f,+1.24273829e-01f,
+3.20170783e-02f,-2.62158439e-02f,+1.72738463e-01f,+8.23786631e-02f,+1.09754138e-01f,
+3.74147967e-02f,+1.54962122e-01f,+2.38197818e-02f,-5.79048842e-02f,-2.46820208e-02f,
+3.10818076e-01f,-1.67554587e-01f,+1.94717333e-01f,-8.67484584e-02f,+9.71161947e-02f,
-9.02065039e-02f,-9.03726742e-02f,-2.92729568e-02f,-1.61692008e-01f,-1.38655091e-02f,
+1.14064001e-01f,+2.21790835e-01f,-1.22852750e-01f,+1.73122928e-01f,+2.81456292e-01f,
+5.06811030e-02f,+1.69068485e-01f,-2.83081029e-02f,+1.27655203e-02f,-8.86078328e-02f,
-2.47953311e-01f,-4.97670174e-02f,-3.61066908e-02f,-7.69099742e-02f,+2.09042668e-01f,
+1.32496521e-01f,+1.96825084e-03f,-5.28913997e-02f,+1.78463235e-01f,+5.41158915e-02f,
+1.15304410e-01f,-1.39838129e-01f,+5.47152795e-02f,+1.17134511e-01f,-3.38781737e-02f,
-1.05436854e-01f,+2.04815418e-01f,-2.26757571e-01f,+1.40169850e-02f,+2.74064422e-01f,
+1.01011872e-01f,-6.87622577e-02f,+3.90615761e-02f,-3.60295475e-02f,+2.88150124e-02f,
+4.82650250e-02f,-3.57948929e-01f,+3.03748529e-02f,-2.29676571e-02f,+5.92807420e-02f,
+1.01813391e-01f,-2.10586980e-01f,+2.26118684e-01f,-7.47106783e-03f,+1.64323971e-01f,
+3.53138566e-01f,-1.30848482e-01f,+4.13705548e-03f,+9.14775804e-02f,-1.37411788e-01f,
-3.87398094e-01f,-7.25505352e-02f,+6.35238960e-02f,-1.90914527e-01f,+4.10921946e-02f,
-2.18748331e-01f,+6.98426962e-02f,+3.31488371e-01f,+2.57477820e-01f,+1.06767677e-01f,
+1.30269885e-01f,+2.40275487e-01f,-1.14580594e-01f,+7.43114725e-02f,+5.97542152e-02f,
+1.86387822e-01f,+2.09256202e-01f,-5.21010160e-02f,+3.61287683e-01f,+1.10246174e-01f,
+1.41747192e-01f,-9.52071995e-02f,-6.66068047e-02f,+1.87535629e-01f,-1.34843532e-02f,
-8.17701891e-02f,-2.22582579e-01f,-1.34369791e-01f,-8.14540237e-02f,-2.50944495e-01f,
+4.15501092e-03f,+2.84387078e-02f,-6.58523291e-02f,+1.56352326e-01f,-6.59670448e-04f,
+3.03365123e-02f,-3.23915929e-02f,-1.41984373e-01f,+9.74351261e-03f,+1.98561087e-01f,
+3.49729657e-01f,-1.00792028e-01f,-1.08244225e-01f,+8.38736445e-02f,+1.49317374e-02f,
+7.20252320e-02f,-1.89285457e-01f,+2.57668257e-01f,+3.16474140e-01f,+3.49214822e-02f,
+8.82110000e-02f,+1.41213432e-01f,+8.74186605e-02f,-1.53892152e-02f,-1.06982365e-01f,
+1.75770923e-01f,+2.85578836e-02f,-1.16507821e-01f,-3.32552381e-02f,-2.19572335e-01f,
-9.97377113e-02f,+2.86980774e-02f,+2.47748625e-02f,+9.24061332e-03f,+1.25686526e-01f,
+2.33539622e-02f,-2.01366559e-01f,-3.73798683e-02f,-7.18662341e-05f,+1.06446348e-01f,
-2.49878243e-01f,-1.80644065e-01f,+1.10880891e-02f,+1.61751896e-01f,-3.59784141e-02f,
-7.38844201e-02f,-1.18108742e-01f,+1.77201107e-01f,+1.09746747e-01f,+9.13336352e-02f,
+8.13486874e-02f,-1.06202653e-02f,-1.83491111e-02f,+3.56704891e-02f,+2.00514160e-02f,
+6.46911114e-02f,-1.57150224e-01f,+3.65837254e-02f,-1.14853010e-01f,+1.36182800e-01f,
-1.73601266e-02f,-1.89667661e-02f,-2.69342154e-01f,-1.27019405e-01f,+5.42648882e-02f,
-1.14684418e-01f,-6.51800111e-02f,-2.09776923e-01f,+3.49214643e-01f,-3.74181308e-02f,
-3.82021815e-03f,+1.83715671e-01f,-3.43206167e-01f,+5.80544919e-02f,+2.99023747e-01f,
+5.26161268e-02f,+7.06155375e-02f,-2.26050526e-01f,+2.32842997e-01f,+1.37806237e-01f,
+3.03633064e-01f,+1.13295324e-01f,+3.68140072e-01f,+5.50662242e-02f,+2.10665792e-01f,
+1.31019028e-02f,-5.80496304e-02f,+2.39383742e-01f,+9.56708714e-02f,+1.58196867e-01f,
+2.04339072e-01f,-1.81846336e-01f,-7.14846700e-02f,+8.94945711e-02f,+6.75334111e-02f,
-8.41863975e-02f,+1.19090058e-01f,+2.23680854e-01f,-1.04727171e-01f,-1.64104447e-01f,
-3.19842666e-01f,+8.49970579e-02f,+1.11328363e-02f,+3.65092568e-02f,+1.43698603e-01f,
-9.04798061e-02f,-4.18269746e-02f,+8.65491480e-02f,+1.62928879e-01f,+1.70982808e-01f,
+7.52660260e-02f,+1.12342447e-01f,+6.84856400e-02f,-2.41510466e-01f,-1.52450964e-01f,
-2.36090515e-02f,-1.61696047e-01f,-4.86421660e-02f,+1.04345672e-01f,-3.98597047e-02f,
+2.45538533e-01f,-4.59414087e-02f,-8.95082578e-03f,+2.75833742e-03f,+1.79096520e-01f,
+3.84391695e-02f,-1.73249975e-01f,+3.03713411e-01f,-4.40734267e-01f,+3.60966057e-01f,
+9.56457779e-02f,-8.09355304e-02f,-1.05591841e-01f,-1.04046658e-01f,+1.00183778e-01f,
-2.04862535e-01f,-4.47795242e-02f,+5.57825118e-02f,+1.15291253e-01f,+1.68599978e-01f,
+4.98946421e-02f,+2.87098694e-03f,-5.13463393e-02f,+6.14455231e-02f,+1.81067690e-01f,
+1.37902111e-01f,+8.42079744e-02f,-1.61657020e-01f,+8.19286034e-02f,+2.18701869e-01f,
-4.63879593e-02f,+1.34239823e-01f,+2.75681436e-01f,-1.49326041e-01f,+2.95907371e-02f,
+1.78617630e-02f,-6.48381514e-03f,-1.11694112e-02f,+1.00342305e-02f,-2.68735588e-02f,
+2.95487434e-01f,+1.73439026e-01f,-2.01431029e-02f,-1.01783015e-01f,+2.16702566e-01f,
-8.89079571e-02f,+1.21547729e-01f,+6.41188547e-02f,-8.79465342e-02f,+1.50525749e-01f,
-3.90141398e-01f,-1.00228973e-02f,+1.27823278e-01f,+1.68535292e-01f,+1.46509007e-01f,
+1.55633956e-01f,-3.10673624e-01f,-9.41657797e-02f,-7.46449921e-03f,-3.61682028e-02f,
+3.53834003e-01f,+2.61124194e-01f,+9.44769382e-02f,-9.81876925e-02f,+4.97654974e-02f,
-1.69754460e-01f,+6.32497668e-02f,+2.30385223e-03f,-1.43079892e-01f,+4.13483858e-01f,
-1.95408687e-01f,+2.90834337e-01f,-3.62922028e-02f,+1.11799031e-01f,+1.67971775e-01f,
-8.13983157e-02f,-2.44996473e-01f,+1.40665188e-01f,+2.42332309e-01f,-1.60657823e-01f,
+2.66657591e-01f,+1.82487562e-01f,+3.72261077e-01f,-3.64879966e-02f,+2.59286892e-02f,
+4.49576974e-01f,+5.00232130e-02f,+4.25309129e-02f,-1.54789180e-01f,-4.36517239e-01f,
-5.05073778e-02f,-5.97544461e-02f,+8.35155621e-02f,+2.27034334e-02f,-4.18170169e-02f,
-6.39572041e-03f,+4.83359732e-02f,+1.66103855e-01f,-2.38856956e-01f,-1.66242316e-01f,
-1.89893488e-02f,+2.27431264e-02f,+2.16908544e-01f,-3.92094627e-02f,+1.72895342e-01f,
+9.58470106e-02f,-8.61021131e-02f,-1.64411455e-01f,-1.90630496e-01f,-2.89535493e-01f,
-2.50778466e-01f,+2.45352030e-01f,-8.60287920e-02f,+2.39545360e-01f,-2.70549178e-01f,
+1.59420639e-01f,-2.31957123e-01f,-1.27014190e-01f,-2.14036942e-01f,-3.45629871e-01f,
+1.41839519e-01f,-1.11116484e-01f,+2.26935789e-01f,-3.42900902e-01f,-8.90597254e-02f,
+3.68519604e-01f,-1.32028162e-01f,-1.33508310e-01f,+6.47462308e-02f,-3.26359496e-02f,
+1.33248299e-01f,-2.23909304e-01f,-4.99844216e-02f,+4.64922003e-02f,+1.92359716e-01f,
+1.56813085e-01f,+2.15210631e-01f,-8.62060040e-02f,-1.95184425e-02f,-7.58571848e-02f,
-5.24327755e-02f,+5.57959020e-01f,+1.63686901e-01f,+2.24123910e-01f,+4.49696556e-02f,
-2.15553716e-01f,+1.08777098e-01f,-1.32227466e-01f,-1.87759727e-01f,-4.54323739e-01f,
+2.83647746e-01f,+2.94125248e-02f,-7.94152543e-02f,-3.11972380e-01f,+1.23275541e-01f,
-1.64105967e-02f,+1.97470352e-01f,-9.81379747e-02f,-1.52029485e-01f,+1.77526340e-01f,
+2.13009924e-01f,-8.39595795e-02f,-1.86290130e-01f,-9.91065353e-02f,+5.44494167e-02f,
-4.58627790e-01f,+3.18009816e-02f,+6.86444789e-02f,-7.68919941e-03f,+1.79517299e-01f,
-6.15463443e-02f,+1.07520567e-02f,+9.47059840e-02f,-5.22511154e-02f,-6.42807037e-02f,
+2.37257570e-01f,-1.58901274e-01f,-1.00078985e-01f,+3.84280011e-02f,-5.04776165e-02f,
-1.84822798e-01f,+9.05581787e-02f,+3.18017453e-01f,+1.28122140e-02f,+4.91247475e-02f,
+1.11046545e-01f,+8.03857744e-02f,-1.40066206e-01f,-9.42866132e-02f,-2.30989978e-02f,
+1.47738978e-01f,-1.93165988e-01f,-2.32873205e-02f,+9.69842896e-02f,+3.45106035e-01f,
+9.68913436e-02f,-4.35940698e-02f,+7.93547332e-02f,-2.39273325e-01f,-1.37356445e-01f,
+2.04846233e-01f,+7.30289593e-02f,-3.03899616e-01f,-1.46471327e-02f,-2.09164605e-01f,
+1.23440854e-01f,+9.30991173e-02f,+2.19598830e-01f,+1.05013512e-01f,+1.73169017e-01f,
+1.66775182e-01f,+1.14246175e-01f,+1.65429130e-01f,+1.10288471e-01f,+7.91055486e-02f,
-2.72139311e-01f,+5.21427810e-01f,+7.72215128e-02f,+2.06663877e-01f,+1.12750374e-01f,
+8.22539732e-04f,-2.72036735e-02f,-5.42112626e-02f,-1.70238569e-01f,+3.51695009e-02f,
-5.73653392e-02f,+1.85960844e-01f,+8.28931108e-02f,-6.84091598e-02f,-2.85969794e-01f,
+1.91638336e-01f,+4.11070324e-02f,+8.72989744e-02f,+2.50458177e-02f,-6.73873499e-02f,
+1.11428179e-01f,-1.56799145e-02f,-7.47579634e-02f,-1.93222374e-01f,-3.30926090e-01f,
+2.26720408e-01f,-1.38601497e-01f,+1.23711206e-01f,+1.92997098e-01f,+1.61052167e-01f,
+3.31285372e-02f,+1.95134893e-01f,-1.76709130e-01f,-4.19649035e-02f,-9.09306109e-02f,
+3.19272757e-01f,-2.44681314e-02f,-2.65469432e-01f,-5.67691354e-03f,-1.45611510e-01f,
-1.49405852e-01f,-9.11893547e-02f,-2.37627272e-02f,-1.52093515e-01f,-3.45160402e-02f,
+5.00452034e-02f,-1.82120234e-01f,+2.98855845e-02f,-5.08760288e-02f,+2.14001715e-01f,
+2.30320230e-01f,-1.02787808e-01f,-4.44555022e-02f,+2.19950125e-01f,-6.45846128e-02f,
-2.92893171e-01f,+2.11989105e-01f,+1.34365901e-01f,+2.76146591e-01f,-2.07371376e-02f,
+3.03624541e-01f,-1.31486192e-01f,+1.92603320e-01f,+3.18166345e-01f,-3.97816487e-02f,
-9.83583033e-02f,-1.04178742e-01f,-1.82217769e-02f,-9.74844098e-02f,+3.51003022e-03f,
+9.20312330e-02f,-5.39024659e-02f,+1.01286888e-01f,+1.17682897e-01f,+2.17944294e-01f,
-5.33963032e-02f,+1.41894847e-01f,+6.26696795e-02f,-6.89579993e-02f,+1.20150976e-01f,
-7.94585273e-02f,+1.31173292e-02f,+1.76410303e-02f,-9.30524841e-02f,+1.82479829e-01f,
+3.13945919e-01f,-7.73358345e-02f,+1.40615001e-01f,-1.14493482e-01f,+5.45374043e-02f,
+2.82081336e-01f,+3.78003448e-01f,+8.19786265e-02f,-4.23779815e-01f,-7.82683119e-02f,
+4.48746800e-01f,-1.32222831e-01f,-4.46619987e-01f,+1.41937658e-01f,-2.64093578e-01f,
+1.67406335e-01f,+1.80521861e-01f,+1.05040118e-01f,-2.23997384e-01f,+7.03575909e-02f,
+2.15564847e-01f,+1.50626302e-01f,+8.09704810e-02f,+1.94601379e-02f,+2.06964493e-01f,
+2.30757579e-01f,-1.04795881e-02f,-3.21339965e-02f,+8.32379535e-02f,+7.10383281e-02f,
-1.54069075e-02f,-1.90266371e-01f,+3.28158826e-01f,+7.08342567e-02f,-6.94280863e-02f,
+8.42990950e-02f,-2.45187715e-01f,-9.12325904e-02f,+1.69797093e-01f,-2.58991390e-01f,
+2.16375571e-03f,+1.44466132e-01f,-2.62172729e-01f,-1.34799063e-01f,+3.40086162e-01f,
-3.95772338e-01f,+2.80058742e-01f,+3.14513505e-01f,-2.23878741e-01f,+1.26383364e-01f,
+4.85298187e-02f,+1.80523887e-01f,+1.30733252e-02f,-3.36431637e-02f,+2.18877211e-01f,
+4.44800317e-01f,+1.91257685e-01f,-2.62271821e-01f,-1.34584039e-01f,-1.32091671e-01f,
+2.72382230e-01f,-3.74583453e-02f,-6.53683320e-02f,-1.77207261e-01f,-3.23311448e-01f,
-5.87257966e-02f,+2.94477511e-02f,-2.02770993e-01f,+1.23852380e-01f,-4.71341715e-04f,
+1.97510108e-01f,-1.39151728e-02f,+2.63372995e-02f,+1.09618895e-01f,-1.00193106e-01f,
+2.21544672e-02f,-1.38847336e-01f,-1.04159176e-01f,-2.99827512e-02f,+1.53855013e-03f,
+1.26968175e-01f,+4.06026021e-02f,-3.39141369e-01f,-1.26862615e-01f,+1.60807639e-01f,
+1.88769653e-01f,-1.11437425e-01f,+3.88566684e-03f,+3.18688393e-01f,-1.52945831e-01f,
+1.67750835e-01f,+2.26347268e-01f,+4.12257791e-01f,-1.60660982e-01f,+4.31486202e-04f,
-8.73335525e-02f,+1.29620999e-01f,-3.68131965e-01f,+8.46363679e-02f,-1.56844378e-01f,
+1.52695552e-01f,+1.12158306e-01f,+1.88013062e-01f,+2.03702867e-01f,-7.51943961e-02f,
-9.19404477e-02f,-8.23351368e-03f,+9.23730806e-02f,+6.67368546e-02f,+2.12599263e-01f,
+1.07719533e-01f,+4.51372340e-02f,-5.54994121e-02f,-1.37418643e-01f,+1.33056700e-01f,
+1.36820614e-01f,+1.93735197e-01f,-1.03900634e-01f,+2.35398605e-01f,+2.62909561e-01f,
+1.78790092e-01f,+1.64628904e-02f,-2.86340535e-01f,-7.81261772e-02f,-2.11475626e-01f,
-1.26595441e-02f,-2.30826586e-01f,+1.26877502e-01f,+2.98456281e-01f,-6.06402569e-02f,
-5.89838158e-03f,-1.32880196e-01f,-5.48974331e-03f,+2.36603126e-01f,+2.07351055e-02f,
+4.58850056e-01f,-9.60036889e-02f,+2.27535039e-01f,-2.33351678e-01f,+4.09249395e-01f,
-7.30133876e-02f,+2.65297219e-02f,+1.38765141e-01f,+1.22000487e-03f,-2.12631851e-01f,
-1.85382724e-01f,+6.05017990e-02f,+2.76809633e-01f,-1.22916207e-01f,+9.19298753e-02f,
+2.30874270e-01f,+3.94550562e-02f,-7.53980353e-02f,-8.45426600e-03f,+2.05788746e-01f,
+1.27218738e-02f,-1.56481788e-01f,+4.33533676e-02f,-3.39708090e-01f,-6.30953023e-03f,
-1.20163091e-01f,-1.16652912e-02f,-3.22762057e-02f,-6.42278120e-02f,+1.75621912e-01f,
+3.75328124e-01f,+8.21251571e-02f,+9.29469913e-02f,-5.02016246e-02f,+2.22471550e-01f,
-1.02031574e-01f,+2.18169034e-01f,-7.29098395e-02f,+2.51920193e-01f,-1.33483052e-01f,
+8.76399577e-02f,+2.25338683e-01f,+2.02022836e-01f,-1.72823653e-01f,-1.30195364e-01f,
-2.00282604e-01f,-2.07020506e-01f,-1.99741870e-01f,+6.45861179e-02f,+6.19264133e-02f,
+1.75501034e-01f,+7.00199082e-02f,-2.51352459e-01f,+5.86830340e-02f,+2.54114717e-01f,
-3.74815971e-01f,+2.87706405e-01f,+5.08252829e-02f,+1.44011393e-01f,+1.74508244e-02f,
+3.40209454e-01f,-5.47247052e-01f,-1.15072876e-01f,-3.00070625e-02f,-6.40411675e-02f,
+1.06677078e-01f,+4.63295542e-02f,+3.45630981e-02f,-2.47395173e-01f,+1.03150807e-01f,
-2.35781036e-02f,-1.49530441e-01f,+2.66626120e-01f,+5.78899533e-02f,-5.08907624e-03f,
-1.75210744e-01f,+1.52797028e-01f,+2.80898213e-01f,-1.31758049e-01f,+3.98333604e-03f,
+2.50966609e-01f,+6.64611682e-02f,+2.50313189e-02f,+1.15806554e-02f,+5.65981567e-02f,
+1.38026819e-01f,-1.30666330e-01f,-6.01447113e-02f,+3.75260822e-02f,+2.70053327e-01f,
-6.02742694e-02f,+2.24879175e-01f,+2.32315153e-01f,+1.21944077e-01f,+2.93035265e-02f,
-1.45844668e-01f,+4.36545730e-01f,-8.01316947e-02f,-2.66600132e-01f,+4.49133813e-02f,
-5.47214895e-02f,+1.15285188e-01f,-2.11136028e-01f,-4.07439470e-01f,-1.33385301e-01f,
-2.08550572e-01f,-2.19619041e-03f,-1.85633320e-02f,+2.97769308e-02f,+6.64971024e-02f,
-1.89224750e-01f,-1.41455218e-01f,+1.02097258e-01f,-2.28128806e-01f,+4.38564837e-01f,
+4.90420088e-02f,-7.27124289e-02f,-6.32277355e-02f,+1.52732670e-01f,+9.23609808e-02f,
-1.62071027e-02f,-7.85040203e-03f,-1.49442077e-01f,+2.58460075e-01f,+5.66675887e-02f,
-2.35349461e-01f,-1.08537666e-01f,+3.28704976e-02f,+3.22676152e-01f,-1.73007935e-01f,
+7.59928375e-02f,+8.22822154e-02f,+3.12238783e-01f,-2.06293575e-02f,-1.65415779e-01f,
+3.86475511e-02f,+1.12056531e-01f,+2.13223666e-01f,+6.32473454e-02f,-1.08715400e-01f,
-1.95167750e-01f,-5.58548085e-02f,-4.51291390e-02f,+9.55314040e-02f,+2.43295897e-02f,
+2.51531124e-01f,-1.82742864e-01f,-6.98105916e-02f,-8.08283240e-02f,+2.00507328e-01f,
+8.94083604e-02f,-1.42350018e-01f,+4.50683534e-02f,+5.37721254e-02f,-1.08836591e-01f,
+2.14839548e-01f,-1.54608458e-01f,-1.53294638e-01f,-3.20566967e-02f,-3.10225427e-01f,
-6.88395873e-02f,+5.61845601e-01f,+2.43829507e-02f,+1.49434775e-01f,+3.72538492e-02f,
+3.55741888e-01f,-6.60804361e-02f,-7.04301745e-02f,-1.39563784e-01f,-8.30004662e-02f,
-4.82094176e-02f,-4.94950861e-02f,-2.56178975e-01f,+1.98765114e-01f,+1.80981606e-02f,
-1.68222651e-01f,+4.80732590e-01f,-1.44142523e-01f,+8.98133814e-02f,+8.05971622e-02f,
-5.46665713e-02f,+1.48987964e-01f,-2.28258714e-01f,-1.38380527e-01f,-2.63634235e-01f,
+4.40948717e-02f,+1.15442626e-01f,+4.23730612e-01f,-1.88342139e-01f,-5.65506816e-02f,
-2.45799962e-02f,-4.72883657e-02f,+2.76717842e-01f,+1.71190202e-01f,+4.42451686e-02f,
-5.01099648e-03f,+2.69853085e-01f,+3.17755312e-01f,-5.36836386e-02f,+8.36099461e-02f,
+3.32998246e-01f,+1.81901067e-01f,-1.27043590e-01f,-3.88577245e-02f,-2.11878896e-01f,
-2.70193052e-02f,-2.83725653e-02f,-1.37771159e-01f,+1.89140245e-01f,-9.62501435e-05f,
-1.61834016e-01f,+1.55783787e-01f,-2.09764123e-01f,-1.03762001e-01f,+1.17914990e-01f,
-7.96317607e-02f,-2.16748983e-01f,+9.09677893e-02f,+2.21711382e-01f,-1.49579793e-01f,
-3.59993428e-03f,-1.54390708e-01f,-7.10768327e-02f,-8.22183266e-02f,-2.27812544e-01f,
+2.21265461e-02f,+1.75309598e-01f,+2.11512342e-01f,+1.42104834e-01f,-2.85008401e-02f,
-1.03351347e-01f,+1.08513352e-03f,-3.84081453e-02f,+1.21901043e-01f,+3.00221533e-01f,
+1.53061926e-01f,+3.44340473e-01f,+2.27699935e-01f,+8.07055831e-03f,+2.07120955e-01f,
+1.14496976e-01f,+1.85108304e-01f,-2.08974034e-01f,+1.42887935e-01f,-1.27409562e-01f,
+5.52449450e-02f,-9.05978400e-03f,+8.13061893e-02f,+2.61696577e-01f,-1.87079430e-01f,
-3.74935977e-02f,-1.23093940e-01f,+2.49379948e-01f,-1.90916672e-01f,+8.51213560e-02f,
-1.31113827e-01f,+1.29765153e-01f,+2.97580153e-01f,+1.29368201e-01f,+1.33438334e-01f,
-4.66161128e-03f,+1.90177746e-02f,-1.18169390e-01f,-1.44152984e-01f,+4.75212298e-02f,
+1.90265700e-02f,+1.79091468e-01f,+6.47120131e-03f,+1.16178229e-01f,+2.17613772e-01f,
-9.45264772e-02f,+5.03879189e-02f,-4.07307036e-02f,+1.51514217e-01f,-8.36466178e-02f,
+3.30135286e-01f,-9.32403132e-02f,+1.72450259e-01f,-7.18814656e-02f,-1.58266932e-01f,
+3.53699684e-01f,+1.31266996e-01f,+7.47232810e-02f,-8.36500973e-02f,-3.99655923e-02f,
+2.75254279e-01f,-3.12208049e-02f,-5.05441241e-02f,-1.33842498e-01f,+6.65701330e-02f,
-1.03723526e-01f,+2.64804251e-02f,-2.87489802e-01f,-2.78790414e-01f,+8.52017105e-02f,
+4.76241447e-02f,+1.46620125e-01f,+1.32226408e-01f,-1.00248232e-01f,+2.13800102e-01f,
+6.37750328e-02f,+3.73007730e-02f,-7.15058967e-02f,+4.01943289e-02f,+3.21628898e-01f,
+8.70458484e-02f,+2.07367092e-01f,-2.64108796e-02f,+1.89503714e-01f,+1.36183441e-01f,
+2.29975522e-01f,+1.09968685e-01f,+8.06011781e-02f,+2.64397621e-01f,+3.37043442e-02f,
+4.77491878e-02f,+1.56941667e-01f,-2.16887474e-01f,-4.84086052e-02f,+1.27556458e-01f,
-3.42705548e-02f,+5.78264073e-02f,-8.43791217e-02f,+1.26986802e-01f,-1.37485087e-01f,
-2.49586895e-01f,+1.42404616e-01f,+1.87462345e-02f,-7.91728869e-02f,+2.35340431e-01f,
+3.85734290e-02f,+4.24943082e-02f,+1.47420198e-01f,+1.50301442e-01f,-7.58558586e-02f,
+1.90868437e-01f,+5.50772734e-02f,-4.35158722e-02f,+3.34986091e-01f,-1.34771287e-01f,
-2.63902009e-01f,+1.50092885e-01f,+3.18149537e-01f,-3.43556792e-01f,+6.33919761e-02f,
+3.17069620e-01f,-2.99989074e-01f,+5.49260303e-02f,+1.08050518e-01f,+2.07170341e-02f,
-2.20646203e-01f,+1.30805865e-01f,-1.50723219e-01f,+1.95245191e-01f,-4.66320179e-02f,
-1.38080409e-02f,-3.08880024e-02f,+3.67956012e-01f,-2.34209865e-01f,+2.31285155e-01f,
+2.34997004e-01f,+1.89827025e-01f,-1.70424022e-03f,-1.32048532e-01f,+2.42173392e-03f,
+6.98077679e-02f,-1.33777827e-01f,-2.08730295e-01f,+9.60683823e-02f,+1.31136507e-01f,
+2.70435601e-01f,-1.08212113e-01f,+2.67477393e-01f,-8.10916200e-02f,+1.63273335e-01f,
+2.48605311e-02f,+3.15325916e-01f,+1.44576252e-01f,-5.53917401e-02f,+1.46271825e-01f,
-4.18117121e-02f,+2.98264883e-02f,-9.20108557e-02f,-3.21319140e-02f,+9.54594240e-02f,
+1.58189565e-01f,+1.02910198e-01f,+3.77454162e-02f,-4.74541336e-02f,-1.64054126e-01f,
+2.43746832e-01f,+3.88234258e-01f,+2.35307902e-01f,+1.01901859e-01f,-3.89159769e-02f,
+9.05634537e-02f,+1.25158187e-02f,+1.42219409e-01f,-2.03397602e-01f,+2.42636371e-02f,
+4.46722507e-01f,-1.11020477e-02f,-1.38444290e-01f,+1.93812370e-01f,-2.06560299e-01f,
+7.39614293e-02f,-2.36169934e-01f,+8.43979940e-02f,+1.32931128e-01f,-2.11343110e-01f,
+2.22372040e-01f,+6.19828366e-02f,+6.66966215e-02f,+5.41883474e-03f,+2.46254057e-02f,
-3.66985649e-02f,-8.76161642e-03f,+1.27263412e-01f,+1.30746499e-01f,+9.42654014e-02f,
-8.72544479e-03f,+4.80718650e-02f,-1.14486538e-01f,+2.40547508e-01f,+7.20159709e-02f,
-1.86301932e-01f,+1.94867119e-01f,+2.90972382e-01f,+9.13573802e-02f,+6.15468137e-02f,
+1.13111734e-01f,+1.87836245e-01f,-1.84425145e-01f,+1.96290389e-01f,-2.13213056e-01f,
+2.32198194e-01f,+1.33233741e-01f,+4.78836196e-03f,-1.91603731e-02f,-6.79292008e-02f,
+2.46533453e-01f,-1.95180804e-01f,-3.22392583e-01f,+1.78348124e-01f,-6.86520562e-02f,
-5.51977344e-02f,-4.22169380e-02f,-6.42198250e-02f,-1.15566216e-01f,+1.14393130e-01f,
+2.76263624e-01f,+2.53325582e-01f,-1.12839833e-01f,+1.44861937e-01f,-3.71306121e-01f,
+3.79716456e-01f,-1.11238889e-01f,+8.35338235e-02f,-3.41485776e-02f,+1.74843162e-01f,
+1.04899392e-01f,-1.30847488e-02f,-2.16325372e-01f,+3.77819575e-02f,+1.67404532e-01f,
-1.22242801e-01f,-1.77100778e-01f,+8.70827492e-03f,+1.75570905e-01f,+9.80950519e-02f,
+8.53992701e-02f,+1.03248343e-01f,+5.99867804e-03f,-1.48234293e-01f,+5.00102825e-02f,
+3.09929907e-01f,+9.06010997e-03f,-5.38908951e-02f,+9.96604189e-02f,-1.38676584e-01f,
-1.53868616e-01f,+3.00036132e-01f,-2.55709261e-01f,+5.63650653e-02f,-2.30699107e-01f,
-7.92507529e-02f,+4.11199369e-02f,+3.77157390e-01f,-5.04201800e-02f,-1.20990664e-01f,
-1.02679275e-01f,-2.30507791e-01f,-1.78906649e-01f,-1.00766897e-01f,+1.76351927e-02f,
-1.58514813e-01f,+1.98230118e-01f,+4.56344374e-02f,-2.33677983e-01f,+2.03522056e-01f,
+2.21908271e-01f,+1.66488841e-01f,+1.28550142e-01f,-9.75409150e-02f,+3.92274223e-02f,
-7.82507956e-02f,+1.82039253e-02f,-1.25815138e-01f,-3.92205030e-01f,-6.48745522e-02f,
-3.58422063e-02f,-1.02873454e-02f,+6.82928413e-02f,+1.99546352e-01f,-1.62334114e-01f,
+3.15318704e-01f,+8.28943923e-02f,+3.53832021e-02f,-2.41438791e-01f,-1.89393044e-01f,
-7.78082088e-02f,+4.81276393e-01f,+1.34122208e-01f,+1.27964169e-01f,+1.74938187e-01f,
+1.36841863e-01f,+1.08879991e-01f,-2.04314575e-01f,+4.47223196e-03f,+2.48336960e-02f,
-1.83854979e-02f,+2.00178355e-01f,+6.54109865e-02f,-3.11314315e-02f,+1.62044987e-01f,
+3.09860893e-02f,-6.51174486e-02f,-5.41279465e-02f,+1.22635767e-01f,+1.20768651e-01f,
+1.58295944e-01f,-3.88297923e-02f,-6.19355123e-03f,+1.52303457e-01f,-1.62648603e-01f,
+8.58749077e-02f,-2.81012982e-01f,-8.00568089e-02f,+3.16105336e-01f,-5.98043166e-02f,
-4.96667586e-02f,-1.27725884e-01f,-2.94922113e-01f,+6.48519099e-02f,+1.51546299e-03f,
+3.60760838e-02f,+2.44649556e-02f,-1.47683337e-01f,+8.16294253e-02f,+1.59204751e-01f,
+3.47512662e-02f,+5.94671518e-02f,-2.03259274e-01f,-1.25450775e-01f,+1.61028922e-01f,
+6.38745949e-02f,+2.97361761e-01f,-3.48410532e-02f,+1.07859291e-01f,-4.90069166e-02f,
+1.25226468e-01f,+1.04055308e-01f,-1.23548999e-01f,+3.17131072e-01f,+4.97092195e-02f,
+5.82599416e-02f,-8.38685334e-02f,-8.79485607e-02f,+2.30924170e-02f,+1.93019390e-01f,
-1.83900848e-01f,+8.23060051e-02f,+2.04218000e-01f,+1.42452091e-01f,-3.27623308e-01f,
-1.95270389e-01f,-2.32349895e-02f,-2.11258143e-01f,+1.01629615e-01f,+1.88274700e-02f,
-1.01699168e-02f,+1.05413161e-01f,+5.05943671e-02f,+1.24243073e-01f,+7.80668631e-02f,
+2.63941530e-02f,+7.41484612e-02f,+4.53926563e-01f,-1.37106657e-01f,-3.25947136e-01f,
+4.54834290e-02f,-2.32034281e-01f,+3.39000016e-01f,-4.81361412e-02f,+9.98950154e-02f,
+2.17307940e-01f,-2.10887268e-01f,+1.00982487e-01f,-4.45810929e-02f,-3.31197113e-01f,
+1.01684548e-01f,-1.73004344e-02f,+1.55884236e-01f,+1.62056878e-01f,+1.58028409e-01f,
+3.85553353e-02f,+1.70430139e-01f,+2.62507379e-01f,+1.07190117e-01f,-8.99727121e-02f,
+6.74598888e-02f,+8.84304103e-03f,+1.06812634e-01f,+1.23896778e-01f,-3.10137607e-02f,
-3.43403339e-01f,-1.09619267e-01f,+1.23529896e-01f,-2.94225544e-01f,+1.79808050e-01f,
-2.69248486e-02f,+2.92464614e-01f,+1.94976673e-01f,+7.30030611e-02f,-5.27262427e-02f,
-9.31578502e-02f,-6.70113862e-02f,-2.33072981e-01f,-2.18033753e-02f,-1.57019839e-01f,
-1.33854926e-01f,+2.30399728e-01f,-2.09321715e-02f,+1.74010441e-01f,-1.23635814e-01f,
+2.13067591e-01f,-1.47325128e-01f,-1.02252170e-01f,+1.44143656e-01f,+1.50297359e-01f,
-1.48973325e-02f,+3.37657779e-01f,+9.74581987e-02f,-8.26601014e-02f,-5.83460927e-02f,
-4.26379591e-02f,+4.40414920e-02f,-1.35397483e-02f,+1.05142385e-01f,+1.66808724e-01f,
+4.62099016e-02f,-2.64421791e-01f,+2.21936300e-01f,+1.55613050e-01f,+9.59055349e-02f,
-8.03519506e-03f,+1.77846104e-01f,-4.99682501e-02f,-7.56436661e-02f,+2.00276062e-01f,
+1.37741521e-01f,-2.35377297e-01f,-3.71690020e-02f,-1.24994010e-01f,+9.97800678e-02f,
+9.38434079e-02f,+2.78011769e-01f,-1.65388599e-01f,+1.58291504e-01f,+3.85322392e-01f,
+8.34095106e-02f,-3.67483884e-01f,-3.99741046e-02f,+2.70320833e-01f,-6.23550229e-02f,
+1.97590962e-01f,-1.38568938e-01f,+3.74795765e-01f,+1.33220613e-01f,-1.62192926e-01f,
+2.19724014e-01f,+5.28096408e-02f,-5.98295853e-02f,-3.16690683e-01f,-5.97589351e-02f,
+8.86572003e-02f,-1.91576391e-01f,+2.25185037e-01f,+3.26717764e-01f,+2.11561248e-01f,
+4.06484008e-02f,-2.38447756e-01f,+5.93826957e-02f,-1.67782336e-01f,+1.16455518e-01f,
+5.41742221e-02f,+6.65006563e-02f,-5.77454641e-02f,-1.48600057e-01f,+2.60965437e-01f,
-1.69427618e-01f,+8.19725823e-03f,+9.31487158e-02f,-4.29827198e-02f,-1.15947522e-01f,
-3.04628044e-01f,+3.52965593e-02f,+4.79330309e-02f,-5.66350706e-02f,+1.99609086e-01f,
-2.59860277e-01f,+1.30599499e-01f,-1.20607458e-01f,+2.84120321e-01f,-8.35506469e-02f,
+3.79018486e-02f,+2.09701762e-01f,-1.00793287e-01f,-9.59626585e-02f,+2.21344888e-01f,
+2.13059962e-01f,+1.95486486e-01f,-5.51148355e-01f,+1.56275369e-02f,-3.35326456e-02f,
+5.54860272e-02f,+2.51243472e-01f,+1.63089052e-01f,+6.30393922e-02f,-1.41425610e-01f,
+1.14298411e-01f,-1.71229005e-01f,+7.38822147e-02f,-1.64861590e-01f,-6.38658777e-02f,
-2.57585081e-03f,+1.21977344e-01f,+2.56648082e-02f,-6.66854084e-02f,+4.55250405e-02f,
-4.12311032e-02f,+7.19497949e-02f,-1.50379315e-01f,+1.19388355e-02f,+2.15810508e-01f,
-4.35952358e-02f,-1.38524145e-01f,+4.22986746e-02f,+3.63394231e-01f,-1.31489262e-02f,
-2.83693343e-01f,+3.52837294e-02f,+6.05408698e-02f,+7.92828649e-02f,-2.35432416e-01f,
+1.93675712e-01f,+1.15627803e-01f,+1.00824170e-01f,-1.01687692e-01f,-1.18944794e-01f,
+2.07139894e-01f,-7.49750882e-02f,-8.81743431e-02f,+2.12505385e-01f,+2.28190213e-01f,
-9.26076397e-02f,+8.08807909e-02f,+2.61888676e-03f,-2.77049150e-02f,-4.03508730e-02f,
+3.57303321e-02f,+1.07399173e-01f,+3.30854118e-01f,+6.70584664e-02f,+9.79819596e-02f,
+1.45082250e-01f,+2.26800367e-01f,+2.29337707e-01f,-1.61518797e-01f,+1.18318126e-01f,
+8.83393437e-02f,+6.88641071e-02f,+2.35221889e-02f,-1.46858571e-02f,+9.64313932e-03f,
-8.12719762e-03f,-6.76424205e-02f,+1.50534511e-01f,-2.06872951e-02f,+6.06739074e-02f,
+1.09152481e-01f,-8.00460279e-02f,+1.82878360e-01f,+6.01659827e-02f,-1.03594707e-02f,
+4.56130914e-02f,+2.52026170e-02f,-2.83290237e-01f,+2.04390153e-01f,+1.15528293e-01f,
-1.32062644e-01f,-3.08650076e-01f,+1.10804737e-01f,-2.54052073e-01f,+2.50998810e-02f,
+6.64165914e-02f,+1.17322706e-01f,+6.95184916e-02f,+9.31039453e-02f,+1.50005609e-01f,
-9.54287797e-02f,+2.19808340e-01f,+1.05177835e-01f,+3.36502329e-03f,+9.80227888e-02f,
-1.18410990e-01f,+1.93416044e-01f,+3.06025982e-01f,-5.83294168e-05f,+5.97009212e-02f,
+1.09041192e-01f,+2.07298063e-02f,-8.13752934e-02f,+1.96110785e-01f,+1.01795241e-01f,
+1.64377093e-01f,+7.07386881e-02f,+8.31885189e-02f,+1.21769927e-01f,-6.18937723e-02f,
-1.85197249e-01f,+1.65138006e-01f,+2.82920033e-01f,+1.69758767e-01f,+2.31125191e-01f,
-5.78775220e-02f,+2.50400841e-01f,-1.74003243e-01f,-1.19587108e-01f,+1.02391981e-01f,
+9.21403170e-02f,+1.01919465e-01f,-1.34175062e-01f,-3.24303985e-01f,-2.42483951e-02f,
-2.01272830e-01f,-1.58585533e-01f,-5.79505004e-02f,+1.25847431e-02f,-1.06207952e-01f,
+5.71132153e-02f,+1.12692982e-01f,+2.16180816e-01f,+5.54606095e-02f,+1.20790131e-01f,
+1.55481398e-01f,-1.75471514e-01f,+1.39809608e-01f,+3.40640396e-01f,-3.77286784e-02f,
+2.61945456e-01f,-8.44831839e-02f,-7.02170804e-02f,-1.00306571e-01f,+3.10971178e-02f,
+1.32227838e-02f,+1.69718623e-01f,-2.01398201e-04f,-1.20425047e-02f,+1.98634099e-02f,
-9.83884335e-02f,+2.80767024e-01f,+1.85864478e-01f,-7.94392778e-04f,+8.64100293e-04f,
+2.03265920e-01f,+2.28387956e-02f,+4.76153754e-02f,-2.05698490e-01f,-1.31256685e-01f,
+1.93289176e-01f,+5.28220693e-03f,+5.98893538e-02f,+8.32690075e-02f,-2.80970484e-02f,
-9.48981121e-02f,+1.20226264e-01f,-4.30715904e-02f,+7.18201371e-03f,-2.87023008e-01f,
-1.31381331e-02f,+1.10873252e-01f,+6.28039762e-02f,+1.51800796e-01f,+2.52071708e-01f,
+2.58211076e-01f,+1.97671622e-01f,-6.70280904e-02f,+4.43937480e-02f,+1.17431767e-01f,
+7.18935207e-02f,-1.32212102e-01f,+3.65085125e-01f,-2.39124466e-02f,-1.96488068e-01f,
+1.20727949e-01f,+2.48020098e-01f,-2.36412361e-01f,-9.90365073e-02f,+1.91540942e-01f,
-1.45235568e-01f,-1.92063544e-02f,-1.58616215e-01f,+2.65977848e-02f,+1.43203989e-01f,
+1.44733444e-01f,+5.43970391e-02f,+5.69879897e-02f,+6.40762970e-02f,+2.07891758e-03f,
+2.02425927e-01f,-3.27024847e-01f,+3.43852490e-01f,+7.48990476e-02f,+1.00510158e-01f,
-6.83745667e-02f,-7.19432756e-02f,+5.80350868e-02f,-8.93562846e-03f,-7.39109293e-02f,
+5.38863167e-02f,+1.15976565e-01f,-7.60919675e-02f,-9.92985722e-03f,+7.65358284e-02f,
-6.32097125e-02f,+1.51345000e-01f,+1.92518532e-01f,-1.16360694e-01f,+3.89527798e-01f,
+2.63018668e-01f,-1.42967209e-01f,+2.49170899e-01f,-2.40242742e-02f,-8.64510797e-03f,
-7.67176598e-02f,-2.20582440e-01f,+2.18519747e-01f,+2.67865479e-01f,+1.54039050e-02f,
+1.13809571e-01f,+1.15423828e-01f,+2.42002308e-02f,+1.06063031e-01f,+6.29764795e-02f,
-3.86908278e-02f,+3.04095924e-01f,-1.98619872e-01f,+1.42388955e-01f,-5.46998568e-02f,
+1.62146121e-01f,+3.09369057e-01f,-7.57445469e-02f,+2.00192899e-01f,+3.47312279e-02f,
-2.27867737e-02f,+3.36969674e-01f,+9.04843062e-02f,-7.13776611e-03f,-4.11884189e-02f,
+1.47564471e-01f,-2.03468293e-01f,+1.08424023e-01f,+1.13167420e-01f,+3.63893844e-02f,
+1.24438003e-01f,-1.35905087e-01f,-1.73450992e-01f,-3.89928997e-01f,-4.47141305e-02f,
-7.34506845e-02f,+1.67205390e-02f,+2.62378305e-01f,+7.86776543e-02f,+8.53477269e-02f,
+6.62267879e-02f,+7.39165694e-02f,+1.88436463e-01f,+2.35446230e-01f,+2.71471977e-01f,
+7.61297764e-03f,+5.45234140e-03f,+1.54962884e-02f,-2.18978927e-01f,+1.10825554e-01f,
+1.63441181e-01f,+2.05821410e-01f,+2.36448389e-03f,-1.81288999e-02f,-3.52191180e-02f,
+2.19940796e-01f,-2.40279347e-01f,+2.16337085e-01f,+2.59739701e-02f,-2.23827004e-01f,
+1.18460231e-01f,+3.56071768e-03f,+9.59952772e-02f,+3.34949382e-02f,+5.37062213e-02f,
+1.47330478e-01f,+1.76049143e-01f,-2.14035269e-02f,+8.25050101e-02f,+7.62962212e-04f,
+3.47249895e-01f,+1.66539297e-01f,+4.68158945e-02f,+2.11719468e-01f,+1.25522837e-01f,
-1.25967056e-01f,+1.59514040e-01f,+9.27213654e-02f,-9.30625051e-02f,-7.63644874e-02f,
+1.28265575e-01f,+9.04762000e-02f,+3.45676430e-02f,+1.38714621e-02f,+2.58509427e-01f,
+1.83482051e-01f,-1.01533644e-01f,+8.06468353e-02f,-2.67488044e-02f,+7.48380506e-03f,
+3.87832262e-02f,+1.98110584e-02f,-6.70415461e-02f,+2.23086625e-01f,+6.52997866e-02f,
-5.66947684e-02f,+4.22755443e-02f,-1.88765377e-02f,-8.47197138e-04f,+1.22465402e-01f,
-4.82876366e-03f,+3.99244577e-01f,+9.07723084e-02f,-1.11446969e-01f,-1.36054009e-02f,
+1.26383072e-02f,-2.54379939e-02f,+2.88579851e-01f,+1.97337151e-01f,+2.55419146e-02f,
-4.96644974e-02f,-1.03577957e-01f,+2.32654929e-01f,+4.96308394e-02f,+1.19573519e-01f,
-6.39461428e-02f,-1.05800100e-01f,+1.82137966e-01f,-1.20460726e-01f,+3.12364288e-02f,
+6.44042268e-02f,+3.69288065e-02f,+1.85151920e-01f,-1.80912673e-01f,+8.90973210e-02f,
-1.53847821e-02f,-3.64185311e-02f,-1.61784604e-01f,-1.66196451e-02f,+1.63169429e-01f,
+2.89904356e-01f,-8.04168060e-02f,+8.10366496e-02f,+4.68873084e-02f,+9.12015140e-02f,
-1.33148327e-01f,+1.08866416e-01f,+1.38900047e-02f,+5.08169308e-02f,-8.91800895e-02f,
+9.12332907e-02f,-1.53034613e-01f,-8.15382972e-02f,-1.04814805e-01f,-5.44054247e-02f,
+2.89040525e-03f,+7.71160424e-02f,-6.48463443e-02f,-4.95485216e-02f,+2.20744242e-03f,
+4.61807325e-02f,-1.29047155e-01f,+4.52863835e-02f,-2.51114685e-02f,-7.80208036e-02f,
-1.59867182e-01f,-8.06393772e-02f,+1.24820888e-01f,+1.82522580e-01f,-8.19081962e-02f,
-1.91243589e-02f,-2.71823525e-01f,-1.12059712e-01f,+1.32717714e-01f,-9.57522839e-02f,
+8.02705437e-02f,+1.93275943e-01f,+2.09902987e-01f,-3.13311405e-02f,+3.12096663e-02f,
-3.18462104e-02f,+1.00415610e-01f,+1.33149505e-01f,-6.96350709e-02f,-8.98472518e-02f,
+1.44142464e-01f,+1.79363459e-01f,+2.46079430e-01f,+4.54136580e-02f,+2.10905001e-01f,
+3.32162678e-01f,+2.69317608e-02f,+1.55129626e-01f,+7.35972822e-02f,-9.32861492e-02f,
-1.09773390e-01f,-7.18412623e-02f,-1.00661486e-01f,-4.10692170e-02f,+2.89502963e-02f,
-3.17634493e-01f,-3.53323929e-02f,-2.81688143e-02f,+4.69267252e-04f,-3.07739973e-01f,
-3.10776774e-02f,-7.91241005e-02f,+1.84175119e-01f,-5.55314422e-02f,-4.44464982e-02f,
+1.65051758e-01f,+2.63099462e-01f,+7.71148354e-02f,-8.65916815e-03f,-1.90836340e-01f,
-9.44875032e-02f,-1.41961843e-01f,-8.71422663e-02f,+1.42563894e-01f,+1.57127574e-01f,
-2.33580023e-02f,+7.61715090e-03f,+1.54612750e-01f,+1.62136644e-01f,-5.87880705e-03f,
+8.43732134e-02f,-7.26858750e-02f,+2.14747310e-01f,-5.18380329e-02f,-4.42018546e-03f,
+1.29479706e-01f,-1.60583798e-02f,+7.86033794e-02f,+1.08794950e-01f,+1.61233872e-01f,
+1.71247125e-01f,+2.55102038e-01f,-1.56226099e-01f,+5.67925423e-02f,+1.66808233e-01f,
-6.80488646e-02f,-1.57531202e-02f,-9.31546986e-02f,+2.93167140e-02f,-1.66795868e-02f,
-4.44913842e-02f,+1.71525646e-02f,-2.27561519e-01f,+3.20746303e-01f,-4.20488477e-01f,
+3.06746010e-02f,-3.45349498e-02f,+2.03859046e-01f,+1.73346877e-01f,+3.46908867e-02f,
+9.17403996e-02f,+1.39134035e-01f,-3.91180217e-02f,+1.69829309e-01f,-1.66524068e-01f,
-8.24844167e-02f,+8.05553049e-02f,-3.70379314e-02f,-1.46520093e-01f,-2.00710028e-01f,
+5.47319241e-02f,+1.16450700e-03f,+2.88765758e-01f,-2.50701874e-01f,-8.36992785e-02f,
-1.36583880e-01f,+1.20044008e-01f,-1.36928305e-01f,+3.64356518e-01f,+2.07200414e-03f,
+1.70483142e-02f,-2.77449965e-01f,+7.45891258e-02f,+1.21978581e-01f,+2.27828845e-02f,
-2.85613120e-01f,-1.23520181e-01f,+1.53095797e-01f,+1.40098304e-01f,-2.90256619e-01f,
+4.63382937e-02f,+7.21370056e-02f,+2.05022633e-01f,+9.68586579e-02f,+1.70213312e-01f,
+1.31422594e-01f,-2.04498619e-01f,+1.19686835e-01f,+5.24497628e-02f,+1.26069188e-01f,
-1.15516298e-01f,+3.53009552e-01f,+8.52443948e-02f,-1.99113727e-01f,+2.13232368e-01f,
-9.42011699e-02f,-8.28181952e-03f,+2.00956836e-02f,+1.18952662e-01f,-2.38340516e-02f,
+2.58444101e-02f,+3.36224623e-02f,+3.60667616e-01f,+4.99793559e-01f,-1.43587992e-01f,
+1.59355462e-01f,-1.72643468e-01f,+1.18447766e-02f,-1.01933785e-01f,-1.49240017e-01f,
+3.11834682e-02f,+1.34788737e-01f,-1.68502808e-01f,+1.14240125e-01f,+9.08341706e-02f,
+8.43135417e-02f,+6.24370538e-02f,-6.80279508e-02f,-4.75106090e-02f,+3.16884607e-01f,
-3.94004546e-02f,+3.65170240e-02f,+5.22765033e-02f,+1.00205414e-01f,+1.28235836e-02f,
+1.15567982e-01f,+9.71437097e-02f,-3.03712580e-02f,+1.55903958e-03f,-7.14538395e-02f,
+2.03756317e-01f,+1.49013564e-01f,+3.11418653e-01f,+9.65481997e-02f,+1.43402398e-01f,
+7.65029266e-02f,-9.21059400e-02f,+1.48059636e-01f,+1.68213814e-01f,+9.23862010e-02f,
+2.13322207e-01f,-8.15855488e-02f,-1.77052245e-02f,+2.53304839e-01f,+2.73424119e-01f,
-1.74144447e-01f,+4.48445082e-02f,+1.83880210e-01f,+9.30321068e-02f,+4.69879620e-03f,
+6.54638931e-02f,+1.87698230e-01f,-1.30639285e-01f,+1.74239576e-01f,-5.89560866e-02f,
+8.62350911e-02f,-5.98153733e-02f,-2.29358636e-02f,+7.29508772e-02f,-9.01511759e-02f,
+1.22708179e-01f,+1.65132508e-01f,+2.22142652e-01f,-4.42502201e-02f,-4.22558337e-02f,
-5.62032014e-02f,+9.17220190e-02f,-6.16270676e-03f,-7.79491151e-04f,-1.35164678e-01f,
+2.00374145e-02f,+6.81053251e-02f,-1.79979548e-01f,+7.05443546e-02f,+3.15066986e-02f,
+2.91707158e-01f,+1.83999807e-01f,+1.00617565e-01f,+9.91879329e-02f,-4.45949435e-02f,
+8.03352296e-02f,+2.16613766e-02f,-3.85643877e-02f,-7.24490061e-02f,+1.65735230e-01f,
-5.26439063e-02f,-2.19725780e-02f,+4.35664713e-01f,-3.36723775e-02f,+6.54782429e-02f,
+5.80621809e-02f,-1.21877693e-01f,+1.79211497e-01f,-2.71426529e-01f,+8.64799842e-02f,
+7.77461566e-03f,-5.88050038e-02f,+2.00926363e-01f,+3.29547018e-01f,-5.15663847e-02f,
+7.26324990e-02f,+7.38120526e-02f,+6.64115101e-02f,-1.77665249e-01f,+9.54002589e-02f,
-8.14683810e-02f,+5.44127934e-02f,+6.67759925e-02f,-1.56545013e-01f,-8.88746828e-02f,
+2.89872512e-02f,-1.32801995e-01f,-3.66429910e-02f,+2.72336036e-01f,-1.12320893e-01f,
+1.60736546e-01f,+7.57340640e-02f,+5.39641939e-02f,+2.99281448e-01f,-3.24462578e-02f,
-6.24086969e-02f,-2.31204256e-02f,+1.91749871e-01f,+5.55945374e-02f,+2.65243530e-01f,
-1.11693278e-01f,-4.79747355e-02f,+1.68317720e-01f,-1.38058454e-01f,+9.50475410e-02f,
+1.93115786e-01f,+3.27248126e-02f,+1.23649694e-01f,+6.71947151e-02f,-1.32189915e-01f,
+5.05821332e-02f,-7.24944752e-04f,+9.16413665e-02f,-1.61364645e-01f,-3.86073031e-02f,
+5.52981868e-02f,+8.45723897e-02f,-1.64448589e-01f,+7.70701319e-02f,+1.10385127e-01f,
+1.51451632e-01f,+1.58643350e-01f,-2.61729419e-01f,-9.99472439e-02f,+4.23877463e-02f,
+1.90997589e-02f,-8.06105360e-02f,+9.40099061e-02f,+9.47638154e-02f,+5.78045137e-02f,
-7.51922876e-02f,+5.61889596e-02f,+2.27411702e-01f,-1.23322375e-01f,+3.39295305e-02f,
+1.29034340e-01f,-2.25662231e-01f,-3.24965268e-02f,-1.51190341e-01f,+7.33983368e-02f,
+1.55333906e-01f,-1.09541513e-01f,-3.10365200e-01f,+1.89426705e-01f,+2.07000241e-01f,
-3.57065722e-02f,-2.31458433e-02f,+1.09897498e-02f,+4.86252122e-02f,-2.22346913e-02f,
+5.15153445e-02f,-1.34006262e-01f,-9.74602476e-02f,+8.29983428e-02f,-2.53144979e-01f,
-2.82411333e-02f,-8.21619034e-02f,-1.10995211e-01f,+2.89427377e-02f,-2.82746796e-02f,
-3.65985781e-01f,+8.61094892e-02f,+3.19547892e-01f,+2.15244964e-01f,+1.10366240e-01f,
-1.88579429e-02f,+7.24559873e-02f,+6.59924969e-02f,+3.24974746e-01f,+2.02243682e-02f,
+1.24286428e-01f,+3.01771402e-01f,-6.74588680e-02f,-4.74834777e-02f,-2.83442680e-02f,
-1.15429290e-01f,-2.25907594e-01f,+3.10523748e-01f,-9.97627378e-02f,-1.95970938e-01f,
+2.46383045e-02f,-5.42176552e-02f,-1.45488298e-02f,-1.53653756e-01f,+4.79105534e-03f,
-1.97927635e-02f,-1.99708000e-01f,-9.56904665e-02f,-4.44566682e-02f,+2.05512479e-01f,
+6.43719956e-02f,+2.61399578e-02f,-8.98660421e-02f,+1.37023836e-01f,+2.31459692e-01f,
-4.81215790e-02f,+7.25729689e-02f,+2.33343065e-01f,-7.43772537e-02f,+2.13435516e-01f,
-1.82654038e-02f,+1.07265495e-01f,-2.14012876e-01f,-6.25501797e-02f,+1.04698874e-01f,
+1.57539189e-01f,-4.51522954e-02f,-2.20025536e-02f,+1.32231070e-02f,+2.95506939e-02f,
-3.93839814e-02f,+1.10075369e-01f,+1.05582485e-02f,-9.52209160e-02f,-4.01559733e-02f,
-1.14615463e-01f,-1.90019682e-02f,+2.20305115e-01f,+6.98471516e-02f,+4.16823141e-02f,
+4.54890169e-02f,+3.56168672e-02f,+2.28245273e-01f,+1.95188731e-01f,+1.62513778e-01f,
+5.68346344e-02f,+1.98615000e-01f,+8.66258815e-02f,+3.12805504e-01f,+7.33089224e-02f,
-2.14943931e-01f,+2.81102639e-02f,-6.15706220e-02f,-2.89524943e-01f,+8.42924267e-02f,
+3.39648724e-01f,-2.35939082e-02f,+4.22729738e-02f,+2.10298225e-01f,+1.47491500e-01f,
+4.27075736e-02f,+7.44437128e-02f,+1.63922496e-02f,+4.91717421e-02f,+2.95747161e-01f,
+4.08662902e-03f,+8.70309323e-02f,-6.24391623e-02f,+5.84642217e-02f,+4.28630114e-02f,
+2.40859866e-01f,-2.88671613e-01f,+1.31021783e-01f,-1.73105486e-02f,-1.94860712e-01f,
-5.22171073e-02f,-2.88033068e-01f,+7.87016302e-02f,+1.69308126e-01f,+1.75795272e-01f,
-1.91528164e-02f,+9.40564647e-02f,-1.07013643e-01f,+2.35660672e-02f,-2.35951409e-01f,
-2.93692574e-03f,-2.00433776e-01f,+1.46434814e-01f,+1.13364987e-01f,-1.07407771e-01f,
+2.63047349e-02f,+6.85588345e-02f,+1.36396110e-01f,-1.34008095e-01f,+9.31497887e-02f,
+2.08361253e-01f,+4.53360751e-03f,-1.42633557e-01f,+1.49948284e-01f,+1.71817735e-01f,
-2.99913306e-02f,+2.46122688e-01f,+1.29601225e-01f,+5.41464239e-02f,+3.42342407e-02f,
-2.76260041e-02f,+5.28869629e-02f,+1.83865264e-01f,+1.17994443e-01f,+2.25208909e-03f,
-5.44186793e-02f,+6.29510432e-02f,+2.11991057e-01f,-4.42439020e-01f,+2.15168551e-01f,
+1.24850661e-01f,+1.51033282e-01f,+2.93736964e-01f,+4.88277562e-02f,+2.76921272e-01f,
+6.70710653e-02f,-1.95146948e-01f,-1.64130792e-01f,+1.94550052e-01f,+8.30720291e-02f,
-1.82882294e-01f,+1.08958736e-01f,+2.42093336e-02f,+8.08142051e-02f,+1.07567020e-01f,
+5.97739266e-03f,+1.45917526e-02f,+1.99603647e-01f,+1.88771531e-01f,+1.60576180e-01f,
-1.70654848e-01f,-2.27537557e-01f,-6.38962835e-02f,+6.04680181e-03f,-5.49125560e-02f,
+2.83646211e-02f,-4.39361304e-01f,-1.04361989e-01f,+1.38724046e-02f,+9.72110927e-02f,
+2.36131772e-01f,+1.19105093e-01f,+4.04707296e-03f,+1.39410377e-01f,-2.49112323e-01f,
+1.01140961e-01f,+1.21698506e-01f,+1.75252989e-01f,-8.94012675e-02f,+7.79307820e-03f,
+1.68918937e-01f,+1.19988389e-01f,+3.19804698e-02f,+8.95113349e-02f,+1.76948354e-01f,
-1.07873321e-01f,+7.56589249e-02f,+1.48352921e-01f,+4.33652624e-02f,+3.50513570e-02f,
-3.06424022e-01f,-1.21421687e-01f,-5.96987754e-02f,+7.13262558e-02f,-1.41215310e-01f,
+3.72591287e-01f,-9.75653380e-02f,+4.37815599e-02f,+2.36361101e-01f,-1.88128650e-01f,
-1.16068840e-01f,-9.99254957e-02f,+1.09653110e-02f,+2.35862672e-01f,+7.78701082e-02f,
-1.62684634e-01f,+1.86006892e-02f,-1.09289661e-01f,-5.77717833e-02f,+1.77523181e-01f,
+3.59787829e-02f,-1.08272344e-01f,-3.15821201e-01f,+9.21380669e-02f,-3.63060981e-02f,
-1.52146205e-01f,+1.71020299e-01f,+2.34186321e-01f,-3.99432257e-02f,-5.24954908e-02f,
-3.00732642e-01f,-1.25543894e-02f,-2.08027974e-01f,+2.26606667e-01f,+5.86346865e-01f,
+2.61650324e-01f,+9.39014331e-02f,-1.23792589e-01f,+1.41921893e-01f,-9.89844054e-02f,
-5.52249812e-02f,-4.66055781e-01f,-7.36322850e-02f,+3.63901705e-01f,-1.78538427e-01f,
-1.19675577e-01f,+8.11094865e-02f,+2.70406336e-01f,+2.12264806e-02f,+1.73334584e-01f,
+2.21942082e-01f,+7.89789855e-02f,-4.94888872e-02f,+1.06424876e-01f,-4.27774563e-02f,
+5.36252782e-02f,-1.69756096e-02f,+1.06447101e-01f,-1.02928877e-01f,+2.31865257e-01f,
-8.49995464e-02f,+7.39973933e-02f,+3.83171946e-01f,+1.95428878e-01f,+5.93985170e-02f,
+1.68597162e-01f,-7.57181421e-02f,-7.13761300e-02f,-2.49244437e-01f,+1.68861389e-01f,
+3.21083106e-02f,-2.52199084e-01f,-2.81839460e-01f,+7.33526200e-02f,+2.61652172e-01f,
+1.97502241e-01f,+2.00000748e-01f,+5.62207252e-02f,-1.60924420e-01f,+3.39423642e-02f,
+2.85221964e-01f,-6.80726543e-02f,+1.90163888e-02f,+1.90457582e-01f,-4.83646750e-01f,
+6.88872263e-02f,-6.66039903e-03f,-1.63080931e-01f,+2.89166242e-01f,-3.85669917e-01f,
-1.18921436e-01f,+1.68283865e-01f,+1.36997148e-01f,-5.52367270e-02f,-6.56080320e-02f,
+6.25256225e-02f,+2.40124330e-01f,+3.70483369e-01f,-1.26207367e-01f,-8.62777531e-02f,
-2.76539009e-02f,-1.03558172e-02f,+1.78313911e-01f,+4.37341124e-01f,+2.74037540e-01f,
-1.13763593e-01f,+1.71310201e-01f,+1.23914376e-01f,+1.71090104e-02f,+4.03787345e-02f,
+7.46210758e-03f,-3.76409143e-02f,+2.83568591e-01f,-2.02514052e-01f,-5.23117967e-02f,
+1.76620588e-01f,+3.61144006e-01f,+3.62947434e-01f,-5.94648048e-02f,-1.40085518e-01f,
+8.11679736e-02f,-8.43356326e-02f,-2.69488096e-01f,+2.10225731e-02f,+1.74651220e-01f,
+1.38125550e-02f,-4.15398134e-03f,-6.56921640e-02f,-1.08526215e-01f,-3.19801867e-01f,
-8.55946466e-02f,+2.31291220e-01f,-2.70760387e-01f,+3.08018625e-01f,-1.21576384e-01f,
+4.31647561e-02f,+4.88672525e-01f,+4.44180071e-01f,+9.92322862e-02f,+5.70368111e-01f,
-1.66633073e-02f,-3.73994708e-02f,-1.09132074e-01f,+1.46195352e-01f,-1.40456632e-01f,
+7.69089023e-03f,-1.24097452e-01f,-7.46627301e-02f,-6.58013076e-02f,-4.23546284e-02f,
-5.20736337e-01f,-9.03960988e-02f,-5.46954274e-02f,-2.76944458e-01f,+3.51130813e-01f,
+2.17103109e-01f,-1.60657272e-01f,-8.59844983e-02f,+4.32287186e-01f,-2.18925536e-01f,
-2.44509816e-01f,-1.68656871e-01f,-2.15650767e-01f,+1.31449148e-01f,-2.19282489e-02f,
+6.69267029e-02f,-1.68589741e-01f,-6.87912554e-02f,-8.44829157e-02f,-6.38852939e-02f,
+1.26045555e-01f,-1.38197497e-01f,+6.24315813e-02f,-1.38495415e-02f,+4.35472419e-03f,
+1.40195444e-01f,-4.20580879e-02f,+5.56591272e-01f,-2.32865974e-01f,+4.06179756e-01f,
+2.76013017e-01f,-1.21805690e-01f,-3.59916477e-03f,+8.10832307e-02f,-6.35759085e-02f,
+5.11442646e-02f,+1.51432157e-01f,+7.31750876e-02f,-1.07072845e-01f,-7.02616433e-03f,
+2.38797531e-01f,+3.56122442e-02f,+4.91823442e-02f,+5.54262176e-02f,-3.84503454e-01f,
-1.62278354e-01f,-1.34234697e-01f,-8.70419741e-02f,-5.90923168e-02f,+8.42552930e-02f,
+1.34726077e-01f,+2.96827972e-01f,+3.32689025e-02f,+2.13341907e-01f,-1.06435433e-01f,
-3.00951838e-01f,-1.57549590e-01f,+5.06176427e-02f,-2.55325902e-02f,+6.19930169e-03f,
-2.09771246e-01f,+1.43148690e-01f,+2.54208863e-01f,-3.39050204e-01f,-2.87277997e-01f,
-3.26725990e-02f,+9.11127403e-02f,+5.48232608e-02f,-5.10984994e-02f,+1.43883437e-01f,
+1.06876463e-01f,-1.61460582e-02f,-2.12858781e-01f,+1.50435511e-02f,+3.16222496e-02f,
+3.44558768e-02f,-4.97706942e-02f,-9.11874548e-02f,-2.41365150e-01f,-2.41516709e-01f,
-8.64621997e-02f,-1.67187080e-01f,+1.49835628e-02f,-2.16372952e-01f,+9.17970911e-02f,
+1.04423590e-01f,-1.75423786e-01f,+9.20186937e-02f,-1.73828945e-01f,+4.02049124e-02f,
+8.40871558e-02f,+1.00304715e-01f,-4.21788953e-02f,+4.13099796e-01f,+4.57983643e-01f,
-2.20439851e-01f,-1.89957723e-01f,-2.69087881e-01f,+4.38363224e-01f,-6.74812272e-02f,
+1.59011260e-01f,-1.38603285e-01f,+1.01768561e-01f,-1.75849870e-01f,+4.88048457e-02f,
+2.05930054e-01f,+1.92224711e-01f,-1.93132281e-01f,-1.25074819e-01f,-6.44726157e-02f,
+1.43702468e-02f,-1.22831166e-01f,-7.43462965e-02f,+2.27100700e-01f,-1.48414105e-01f,
+1.29682019e-01f,-1.59631833e-01f,+3.22760105e-01f,+1.97709918e-01f,-7.61621520e-02f,
-2.83694059e-01f,+3.79687063e-02f,-1.14587598e-01f,-2.98202604e-01f,-6.48227483e-02f,
-2.17611432e-01f,-2.76653729e-02f,-7.15660527e-02f,+6.55161515e-02f,-3.33666772e-01f,
-1.91158652e-01f,-3.37389149e-02f,-1.30141675e-01f,+1.21526532e-02f,-1.43389218e-02f,
-1.12036832e-01f,+1.12245463e-01f,-5.63483126e-02f,+1.83970198e-01f,-6.21796511e-02f,
-2.31036395e-01f,-1.08713441e-01f,-1.85297430e-01f,+1.00561813e-01f,+2.61892259e-01f,
+9.84021500e-02f,-1.03579670e-01f,+3.03860102e-02f,+2.92807549e-01f,-5.29898852e-02f,
+2.50525773e-01f,+1.47281498e-01f,-2.20833898e-01f,+7.60780787e-03f,+1.03817657e-02f,
-9.13189724e-02f,+9.91875902e-02f,-1.98610947e-01f,-4.23006453e-02f,-2.21443489e-01f,
-3.27371806e-01f,+3.03626508e-01f,-4.51715589e-02f,-1.06810719e-01f,+4.64602076e-02f,
-7.46236369e-02f,-1.90649822e-01f,-8.91703963e-02f,+2.91842818e-02f,+2.31577203e-01f,
-2.88409352e-01f,-3.61977108e-02f,-1.89085305e-01f,-5.28771207e-02f,-1.43060103e-01f,
+3.10924590e-01f,-2.16232717e-01f,-4.19766121e-02f,-3.07253208e-02f,+3.87867019e-02f,
-1.30109504e-01f,+4.95994799e-02f,+6.24126056e-03f,-5.28131090e-02f,-1.39495149e-01f,
-2.90555179e-01f,+5.07560782e-02f,+5.01085026e-03f,+1.80672973e-01f,+6.79844841e-02f,
+4.20546681e-01f,+1.01934426e-01f,+8.08137730e-02f,+2.55053014e-01f,+1.74179189e-02f,
+1.85333448e-03f,-1.00575201e-01f,+6.16054833e-02f,+1.07315741e-01f,+1.47453114e-01f,
+1.70809373e-01f,-1.76078230e-01f,+1.17751941e-01f,+5.39475903e-02f,+6.22646958e-02f,
+1.70675486e-01f,-1.17359966e-01f,-2.45294914e-01f,-3.09785865e-02f,-6.65540919e-02f,
-2.18048751e-01f,-3.20844427e-02f,-7.80922174e-02f,+2.45926958e-02f,+1.17605217e-01f,
+2.52416581e-01f,-1.07938953e-01f,+1.41389638e-01f,-1.36110246e-01f,+1.61649987e-01f,
-1.51779294e-01f,-1.93004888e-02f,-9.74851623e-02f,-4.17384394e-02f,+4.44740616e-02f,
-8.71424004e-02f,-2.68202662e-01f,+2.98656207e-02f,+1.16809621e-01f,+2.10677356e-01f,
+4.55184951e-02f,+1.38565913e-01f,-5.86272925e-02f,+1.46716610e-01f,-2.00727567e-01f,
+4.47132997e-02f,+2.25952446e-01f,-6.36826223e-03f,+1.26130432e-01f,-7.29877129e-02f,
+3.33665172e-03f,-1.34344622e-01f,+7.08847716e-02f,-6.67847991e-02f,+3.45860302e-01f,
+1.42329231e-01f,+1.49049118e-01f,+1.24028802e-01f,-7.29486868e-02f,+1.60805523e-01f,
+4.24932651e-02f,-1.34446129e-01f,+2.09252596e-01f,+1.98736966e-01f,+2.01088876e-01f,
-8.61273110e-02f,+2.33465806e-01f,-8.88624936e-02f,+2.07116500e-01f,+3.30071270e-01f,
+9.56370160e-02f,+1.08966678e-01f,-4.36075889e-02f,-2.50767708e-01f,-4.36553359e-01f,
+5.53961750e-03f,-2.86728181e-02f,+2.66318947e-01f,+1.44610241e-01f,+5.78027405e-02f,
-2.00123265e-01f,-4.99436893e-02f,+7.33713508e-02f,+2.16335952e-01f,-8.11716840e-02f,
+8.90560448e-02f,+9.73966122e-02f,-1.06995039e-01f,+1.37810051e-01f,+2.18658403e-01f,
-8.44541192e-02f,+1.79989934e-02f,+2.59246737e-01f,-5.73545396e-01f,+3.00487369e-01f,
-1.25332057e-01f,-6.18498847e-02f,-9.84912440e-02f,-2.12338895e-01f,+1.61089571e-04f,
+2.06824273e-01f,+1.37122869e-01f,-1.23200603e-02f,+1.08676314e-01f,-1.15336619e-01f,
+1.74675152e-01f,-3.49421091e-02f,-1.80685312e-01f,-5.48403673e-02f,+5.11346817e-01f,
-5.43491468e-02f,+1.61485791e-01f,-1.24038048e-02f,-1.42960206e-01f,+1.12602964e-01f,
-3.11824530e-02f,+1.36456117e-01f,-1.74573451e-01f,+5.91832437e-02f,-6.73327670e-02f,
-6.87332153e-02f,-3.36838096e-01f,+2.39088848e-01f,-3.31770591e-02f,-6.55866787e-02f,
-1.39617184e-02f,+3.94486576e-01f,-4.38169613e-02f,+1.51649684e-01f,-1.65479869e-01f,
+3.71666819e-01f,+3.00116956e-01f,-3.95625055e-01f,-2.40371600e-01f,+1.87537462e-01f,
-2.75788963e-01f,+1.65122241e-01f,-1.02410816e-01f,-1.29176870e-01f,-2.45655654e-03f,
-1.44743219e-01f,-1.69177711e-01f,+1.06953740e-01f,+8.12365785e-02f,+2.90772229e-01f,
-1.26657382e-01f,+4.13009748e-02f,-7.10380599e-02f,-8.81653279e-02f,-3.71380113e-02f,
+7.26974085e-02f,+2.49445617e-01f,+1.87717214e-01f,+2.67704993e-01f,+1.45265058e-01f,
-1.05206765e-01f,+7.82781690e-02f,+3.15785915e-01f,+1.85130924e-01f,+1.34742498e-01f,
-4.08787355e-02f,+1.47426128e-01f,-3.47292572e-01f,+4.51145284e-02f,+8.82141218e-02f,
+3.81909639e-01f,+1.83707565e-01f,+3.12946625e-02f,+1.63548142e-01f,-3.22230980e-02f,
+4.02596220e-02f,+9.78984311e-02f,+8.77383873e-02f,-2.76460439e-01f,+1.22923218e-01f,
+8.51491913e-02f,-1.08799070e-01f,-3.63052428e-01f,-6.84489831e-02f,+9.94149223e-02f,
-1.93059579e-01f,-5.71528785e-02f,+7.98347294e-02f,-4.27261554e-02f,-3.01509677e-03f,
-4.97626215e-01f,-2.23323423e-02f,-2.68915258e-02f,+4.71285358e-02f,-5.66126965e-03f,
+2.93089777e-01f,+2.49730404e-02f,+7.30138347e-02f,+1.11526266e-01f,-2.18592480e-01f,
-2.74604931e-03f,+1.26696035e-01f,+2.13379651e-01f,+1.10346615e-01f,+1.32414490e-01f,
-1.45680889e-01f,+2.30429038e-01f,-3.22913118e-02f,-1.02690399e-01f,-8.89757823e-04f,
-1.62382945e-01f,+2.60380745e-01f,+2.54876055e-02f,-6.62675351e-02f,-7.71320844e-03f,
+6.33640736e-02f,+2.68526018e-01f,+1.96528025e-02f,+8.42300579e-02f,-7.81353191e-02f,
+5.99567294e-02f,+2.90672686e-02f,-1.27770007e-01f,-4.83860411e-02f,-5.50197177e-02f,
-2.22682834e-01f,+9.83648375e-02f,-2.10246388e-02f,-3.52955535e-02f,+2.80358810e-02f,
-3.19610298e-01f,+2.64667541e-01f,-5.11934385e-02f,-1.42829508e-01f,+2.59385765e-01f,
-4.95296381e-02f,+1.11586928e-01f,+6.81027621e-02f,-2.43097842e-01f,+8.60071406e-02f,
+1.61744863e-01f,-2.30212748e-01f,+2.22385332e-01f,+6.94705322e-02f,-5.75041659e-02f,
+1.57751396e-01f,+1.94098845e-01f,+1.97384208e-02f,+2.16815561e-01f,-4.25232537e-02f,
+2.19355792e-01f,+3.84738505e-01f,-6.26201034e-02f,+1.97632268e-01f,+3.21913481e-01f,
-1.74628362e-01f,-2.34243169e-01f,+1.71188444e-01f,+8.85009840e-02f,+2.03587994e-01f,
-1.93355635e-01f,+6.21155882e-03f,-2.38863118e-02f,+9.80253052e-03f,-1.11066639e-01f,
-2.15511054e-01f,+2.63868004e-01f,-1.63503900e-01f,+2.29226220e-02f,-2.29827642e-01f,
-2.20267192e-01f,+7.31155574e-02f,+6.51464164e-02f,+7.68303871e-02f,-1.12552255e-01f,
+7.45455176e-02f,-5.51338233e-02f,-4.26879786e-02f,-1.57601088e-01f,+1.72062278e-01f,
+9.76888277e-03f,+2.99469113e-01f,+2.35072412e-02f,-7.70391722e-04f,+1.93505794e-01f,
-4.43558507e-02f,+6.13524690e-02f,+1.03113949e-01f,+5.90781216e-03f,-4.18237150e-02f,
-7.55740190e-03f,+1.00914352e-01f,-8.19042847e-02f,+7.64517337e-02f,-1.04885794e-01f,
+1.65734887e-01f,+1.43770471e-01f,-2.56629378e-01f,+1.67809635e-01f,-1.27886936e-01f,
+3.24037895e-02f,+1.62659921e-02f,+6.44352287e-02f,-4.87615056e-02f,+9.51769650e-02f,
-5.20801134e-02f,+3.20240073e-02f,-5.98959625e-02f,-1.15841351e-01f,+2.81442434e-01f,
-2.54680682e-02f,-2.41927624e-01f,-6.39683604e-02f,-1.67758197e-01f,-9.58519280e-02f,
-8.45458508e-02f,+6.17282838e-03f,-3.04772586e-01f,-1.20089062e-01f,-2.63810419e-02f,
-1.33330539e-01f,-1.22499101e-01f,-2.79093057e-01f,-7.91630894e-02f,+9.17608365e-02f,
+1.27059221e-01f,-3.12995389e-02f,+1.32761762e-01f,+7.95792639e-02f,-3.50711793e-02f,
-2.51304787e-02f,-1.33315668e-01f,-1.25091329e-01f,+2.61826199e-02f,-7.05532953e-02f,
+5.13949431e-02f,+9.11964923e-02f,+1.91467125e-02f,-6.33657202e-02f,-6.07928447e-03f,
+4.59164791e-02f,-1.64950162e-01f,-1.99149564e-01f,+1.64329354e-02f,+5.22476584e-02f,
-7.68896416e-02f,+3.10827084e-02f,+2.52393894e-02f,+7.17026517e-02f,-7.05820397e-02f,
+4.36494239e-02f,-1.53288215e-01f,+9.93233919e-02f,+1.28869787e-01f,-2.19837949e-01f,
+1.76508427e-01f,-5.97122833e-02f,-1.04833879e-01f,+1.65203676e-01f,-8.94129556e-03f,
+1.42680719e-01f,+1.22689091e-01f,+1.44545063e-01f,-1.44474447e-01f,-9.93674472e-02f,
+3.50299068e-02f,+5.10968342e-02f,+9.32533965e-02f,-3.19057256e-01f,+9.44282562e-02f,
+2.79986650e-01f,-4.66888910e-03f,+2.40133461e-02f,+1.84472203e-02f,-2.27175653e-01f,
+3.77799533e-02f,-2.77948603e-02f,-2.26441436e-02f,-2.52448786e-02f,+2.58580536e-01f,
+1.62752066e-02f,+6.07500598e-03f,-2.34387070e-02f,+2.34774477e-03f,+9.58384201e-02f,
-4.59843278e-02f,+3.76257896e-02f,-3.05925701e-02f,+2.41157368e-01f,-3.89457643e-02f,
+1.12671308e-01f,-7.90516213e-02f,+2.93365091e-01f,-1.55835487e-02f,-7.82771260e-02f,
-1.26640841e-01f,+2.82008573e-02f,+5.94411679e-02f,+9.02787074e-02f,-2.55256742e-01f,
+1.71246067e-01f,+1.01087697e-01f,-4.22554687e-02f,+1.43172562e-01f,+5.23180999e-02f,
-1.09949298e-01f,+1.24185570e-01f,+1.92323089e-01f,+3.06169689e-02f,+2.03117445e-01f,
-1.04159340e-01f,-1.23232128e-02f,-4.64263447e-02f,-1.44607082e-01f,+2.77086180e-02f,
+1.63755164e-01f,-8.69058296e-02f,-8.78885686e-02f,+1.04235530e-01f,-2.64351219e-01f,
+3.33237052e-02f,-1.01543188e-01f,+1.90352683e-03f,+7.39765540e-03f,-1.56930014e-01f,
-4.31343690e-02f,+1.01678245e-01f,+6.79064468e-02f,+1.38144955e-01f,-1.39001563e-01f,
+5.87216504e-02f,+1.10408058e-02f,-1.92371517e-01f,-1.58207938e-01f,+2.53617257e-01f,
-8.02871361e-02f,-7.25708231e-02f,+1.10947140e-01f,-2.04344448e-02f,+8.21581036e-02f,
+2.20120847e-02f,-1.87254861e-01f,-6.28450587e-02f,+2.61788279e-01f,-7.69110210e-03f,
-7.21575543e-02f,+1.43798351e-01f,+2.46182028e-02f,+1.67418718e-01f,-3.01684812e-02f,
-4.46013287e-02f,+1.75311521e-01f,+1.06091313e-01f,-3.69527712e-02f,-2.36380711e-01f,
+9.22302976e-02f,+1.28469527e-01f,-4.83337492e-02f,+2.00888529e-01f,+9.58339274e-02f,
+1.16637625e-01f,-7.28317052e-02f,-3.84702273e-02f,+1.42334640e-01f,+9.16267000e-03f,
-6.13542199e-02f,-2.52821922e-01f,+4.62588016e-03f,+3.11004341e-01f,-1.26474738e-01f,
+1.21372402e-01f,+6.32688180e-02f,+1.07389055e-01f,+2.59925336e-01f,-1.25643820e-01f,
+2.75594980e-01f,+1.85178012e-01f,+2.03290999e-01f,-9.82598215e-02f,+9.27322805e-02f,
-9.91160050e-02f,-6.85637370e-02f,+1.30138516e-01f,-1.32203534e-01f,+1.13136552e-01f,
-8.67096111e-02f,+9.87379439e-03f,+1.32009806e-02f,-1.12680689e-01f,+8.24681967e-02f,
+6.38556331e-02f,-7.02351555e-02f,+4.70178872e-02f,+2.89154351e-02f,-1.71248227e-01f,
+6.44770041e-02f,-1.01877041e-01f,-1.97031736e-01f,-2.09489018e-02f,+1.93341777e-01f,
+1.57254964e-01f,+2.42282450e-01f,+1.25765579e-03f,+1.29398936e-02f,-7.45603070e-02f,
+1.90100655e-01f,-1.61051780e-01f,+2.94135839e-01f,-3.96004878e-02f,-3.38891931e-02f,
+3.78523357e-02f,+2.24233568e-01f,-2.35087518e-02f,-1.40848299e-02f,+2.27162708e-02f,
-6.72238991e-02f,+8.46343413e-02f,-2.37408523e-02f,+8.43603909e-02f,+1.56776920e-01f,
-5.46092652e-02f,-1.02939844e-01f,+3.89796168e-01f,+1.56508148e-01f,-1.16866373e-01f,
+7.16658160e-02f,+2.74406582e-01f,-2.41621062e-02f,+2.13799253e-01f,+8.78000632e-02f,
-2.98086647e-02f,-3.09498519e-01f,-2.73883432e-01f,+1.09184742e-01f,+2.31972605e-01f,
+9.65986475e-02f,-2.25013942e-01f,-9.34617817e-02f,+9.22820047e-02f,+3.90013196e-02f,
-8.43948200e-02f,+1.65794328e-01f,+3.01233772e-03f,+3.40911746e-01f,-5.37712984e-02f,
+1.20773636e-01f,+2.99688458e-01f,+2.07935408e-01f,+2.53292203e-01f,-1.83050931e-01f,
+7.46852756e-02f,-1.33581415e-01f,+3.54424953e-01f,+6.62282631e-02f,-3.56140211e-02f,
-5.48145287e-02f,+2.89218314e-02f,-1.39636412e-01f,-1.50865763e-01f,+1.55392572e-01f,
+1.02712000e-02f,-2.85478551e-02f,+1.92188665e-01f,+1.80983841e-01f,+2.04591155e-01f,
+1.40090287e-01f,+1.80149317e-01f,-9.00123417e-02f,-5.65660419e-03f,+2.24569917e-01f,
-1.12467222e-01f,-3.03326994e-01f,-1.88488513e-01f,-6.46742061e-02f,+9.32082161e-03f,
+2.07237661e-01f,+6.32778332e-02f,-1.96923777e-01f,+6.24773242e-02f,-2.52476521e-02f,
+4.20714132e-02f,-1.99080501e-02f,-5.90509176e-02f,-2.52141897e-02f,-2.51214623e-01f,
+6.36934340e-02f,+1.05577268e-01f,-8.22640210e-02f,+8.38816911e-02f,-4.88643870e-02f,
+9.82995182e-02f,-1.05656713e-01f,+2.17588305e-01f,+2.42462963e-01f,+6.63676113e-02f,
-1.39905959e-01f,+3.04566920e-02f,+1.19183041e-01f,+1.59037888e-01f,-6.01328304e-03f,
+1.84322178e-01f,+9.49249417e-02f,+2.67675966e-01f,+1.87112123e-01f,-7.59057924e-02f,
-2.28495568e-01f,-1.62527353e-01f,-5.69431297e-02f,-7.67928436e-02f,+4.18683201e-01f,
-6.01284690e-02f,-1.52429659e-02f,+1.85344815e-01f,+1.16471872e-01f,-1.54478431e-01f,
-3.25267166e-01f,-3.86052504e-02f,-5.99334426e-02f,+2.91620884e-02f,+5.39159402e-02f,
+1.01618618e-01f,+9.17345509e-02f,-5.06703000e-05f,+7.68747777e-02f,+8.79884288e-02f,
-1.48074627e-01f,+3.31120752e-02f,-1.91371426e-01f,+1.30473077e-01f,+7.64321014e-02f,
-6.14624880e-02f,-8.40249658e-02f,+9.06601697e-02f,-3.53009313e-01f,+1.06831223e-01f,
-7.42373019e-02f,+1.23006620e-01f,+4.22017947e-02f,+1.36260688e-01f,+2.84237146e-01f,
+5.58410697e-02f,+5.17474234e-01f,-5.56835309e-02f,+2.59465367e-01f,+4.19493467e-01f,
+9.70989466e-02f,+3.90743047e-01f,+2.06187144e-01f,-3.27196904e-02f,+1.22287549e-01f,
+1.74858391e-01f,+2.16558561e-01f,+5.90822920e-02f,+1.18111745e-01f,+7.23975524e-02f,
+3.75582784e-01f,+1.87607899e-01f,-1.68648377e-01f,+1.40833795e-01f,+5.81998564e-03f,
+1.37978241e-01f,-3.25662017e-01f,+1.48268729e-01f,+1.50822271e-02f,-2.36315578e-01f,
+5.96972853e-02f,+1.32472083e-01f,-3.68854925e-02f,-1.70968957e-02f,+2.43200615e-01f,
-7.86725059e-02f,-1.11341923e-01f,-2.41079390e-01f,+3.56350988e-01f,+6.78207129e-02f,
+1.57256909e-02f,-1.05429869e-02f,-2.16488056e-02f,-4.84459698e-02f,+3.09097111e-01f,
+1.55434951e-01f,+2.34050408e-01f,-2.35829949e-01f,-2.32631415e-01f,+4.00293283e-02f,
-6.31691217e-02f,-2.49279872e-01f,-1.75991908e-01f,+9.86127555e-03f,-6.44154102e-02f,
-1.37905031e-02f,-1.73213128e-02f,-3.98841128e-03f,-1.05851121e-01f,+2.03889519e-01f,
+3.52782547e-01f,-1.52986661e-01f,+5.93212880e-02f,+2.66086310e-01f,-1.32531330e-01f,
-1.12332337e-01f,+2.27901965e-01f,-2.31347978e-01f,-2.93969456e-02f,+1.80955634e-01f,
-5.03257327e-02f,-7.53111169e-02f,-4.67001535e-02f,+8.02769139e-02f,+3.61644387e-01f,
+9.91068482e-02f,+1.10826027e-02f,-1.37595996e-01f,+1.86408266e-01f,-2.09877774e-01f,
+1.39107838e-01f,-2.27437511e-01f,-1.94776282e-01f,-1.42535716e-02f,+1.48435861e-01f,
+1.20465763e-01f,+1.92889079e-01f,+5.97975738e-02f,+2.26733163e-01f,-1.06654860e-01f,
-1.41874149e-01f,+8.77571255e-02f,-3.04543167e-01f,-5.93136996e-02f,+5.70257604e-02f,
+8.03440809e-02f,-1.76975742e-01f,+5.96200414e-02f,-1.90345068e-02f,-1.86224684e-01f,
+1.28785238e-01f,+2.05108505e-02f,+1.71360150e-02f,+3.03407848e-01f,-2.81594694e-01f,
-1.14188924e-01f,+1.38976574e-01f,-5.69390245e-02f,+2.34248579e-01f,+1.58399701e-01f,
-2.15475172e-01f,+1.89315468e-01f,-1.85156927e-01f,+1.76558405e-01f,+8.65924507e-02f,
+3.73733416e-02f,-4.57531027e-02f,-1.36975914e-01f,-1.45088330e-01f,-1.84586614e-01f,
+5.41562103e-02f,+3.66911441e-01f,+2.63300180e-01f,-7.71332458e-02f,+3.47641222e-02f,
-6.43568859e-03f,-3.06915939e-01f,+6.00187331e-02f,-1.04253389e-01f,-1.94470301e-01f,
+1.37207597e-01f,+1.19772084e-01f,-7.57438317e-02f,-2.79319268e-02f,+1.50385976e-01f,
+1.96951523e-01f,-5.68601191e-02f,-1.82036892e-01f,-9.05713066e-02f,-1.91317677e-01f,
-6.10059388e-02f,-1.01959128e-02f,-8.07230622e-02f,+1.13475263e-01f,-2.26521790e-02f,
-9.79003385e-02f,+2.83132702e-01f,-2.51439884e-02f,-1.75824650e-02f,+4.19306941e-02f,
+9.21351388e-02f,-1.48313746e-01f,-6.01109080e-02f,-1.45087224e-02f,+5.87304542e-03f,
+2.93609593e-02f,+2.23891400e-02f,-1.28522888e-01f,-3.79670151e-02f,+7.57326707e-02f,
-8.03774595e-02f,-5.61597161e-02f,-6.82107285e-02f,-2.96175312e-02f,-2.08657488e-01f,
-8.80409032e-02f,-3.20601255e-01f,-3.50188650e-02f,+1.25756755e-01f,+8.14838409e-02f,
+2.94638008e-01f,-1.14384115e-01f,+1.68473855e-01f,+6.19304590e-02f,+5.65693043e-02f,
+2.10757405e-01f,+3.66188526e-01f,+2.96648413e-01f,-2.39367713e-03f,-5.48568107e-02f,
-1.83797136e-01f,-6.92817122e-02f,+9.95570645e-02f,+6.34183705e-01f,+1.60794392e-01f,
+1.51182055e-01f,+6.32161573e-02f,+1.41157806e-02f,-9.54752713e-02f,-1.45436063e-01f,
-6.96125031e-02f,+1.83951527e-01f,+8.39761645e-02f,+1.92730188e-01f,-1.72670275e-01f,
+1.64213419e-01f,-1.16377451e-01f,+2.14174226e-01f,-1.22339159e-01f,-2.29053751e-01f,
+7.83723444e-02f,+2.55131632e-01f,+2.75473118e-01f,-1.49088651e-01f,-8.32551531e-03f,
-1.15473635e-01f,+8.40968862e-02f,-9.28462744e-02f,-1.59468472e-01f,+3.96890119e-02f,
+1.16967112e-01f,-3.76325905e-01f,-1.70080453e-01f,+1.93995565e-01f,+6.75237626e-02f,
+8.75047967e-02f,+1.16179973e-01f,-2.42097974e-01f,+3.26450877e-02f,-1.23576470e-01f,
+3.27695072e-01f,+3.09582531e-01f,+9.99228731e-02f,-2.35093266e-01f,-1.24097876e-01f,
+1.06875889e-01f,+1.26566976e-01f,-1.01374336e-01f,+1.69657871e-01f,+1.21322706e-01f,
-2.04063892e-01f,+2.11641327e-01f,-2.64577806e-01f,+1.54027209e-01f,+6.02871887e-02f,
+3.50654066e-01f,-1.23037137e-01f,-1.70534514e-02f,+5.05762041e-01f,+2.04126164e-01f,
+1.07952043e-01f,-1.44146800e-01f,+2.27489062e-02f,+3.98457497e-01f,+1.95030048e-01f,
-2.31312052e-03f,-1.45051017e-01f,+6.79724216e-02f,-8.42813924e-02f,-3.27925086e-02f,
-1.40949562e-01f,-8.08779225e-02f,+2.18266565e-02f,+1.40748605e-01f,-4.44390811e-02f,
-1.16736189e-01f,+1.11473516e-01f,+1.29838988e-01f,-9.90434438e-02f,+3.12652081e-01f,
+1.21298069e-02f,+1.25254810e-01f,+1.15415022e-01f,-2.57457923e-02f,-4.87483442e-02f,
-1.66549236e-01f,-8.92020315e-02f,+6.24245144e-02f,+1.65730745e-01f,-6.88510165e-02f,
+5.03550172e-02f,+8.57354701e-02f,+6.89026266e-02f,+1.51235312e-01f,+7.30134547e-02f,
-2.24369377e-01f,+6.82793111e-02f,-7.00177848e-02f,+1.91322923e-01f,+3.84663790e-01f,
-9.41862119e-04f,+1.04928434e-01f,+2.45141983e-01f,+1.25470415e-01f,+2.42339686e-01f,
-2.73461789e-01f,+1.71719849e-01f,-7.97725916e-02f,+1.02314636e-01f,-7.21470788e-02f,
+3.23378085e-03f,-5.78441247e-02f,+9.94569361e-02f,+7.89595395e-02f,+3.46584290e-01f,
+1.58894569e-01f,+5.98788820e-02f,+8.29838291e-02f,+6.43676668e-02f,+5.98021224e-02f,
-7.49236643e-02f,-4.58940677e-02f,+5.75473383e-02f,-1.12794802e-01f,+3.72880280e-01f,
+2.57109217e-02f,-4.92275916e-02f,+3.64932232e-02f,-1.79034263e-01f,-3.27714011e-02f,
+8.24900046e-02f,+7.39800110e-02f,+2.03821640e-02f,-1.03775650e-01f,+1.59660548e-01f,
+2.68443614e-01f,+9.04389657e-03f,+5.58605529e-02f,+2.92667538e-01f,+2.14963168e-01f,
+7.88048953e-02f,-8.30545276e-02f,+2.83535182e-01f,+1.13092214e-02f,+9.89366770e-02f,
-1.92198277e-01f,+1.69102073e-01f,-1.07388496e-01f,-1.75419912e-01f,-4.60782088e-02f,
+1.30714878e-01f,-7.53503144e-02f,+1.08564369e-01f,+3.35938483e-02f,+1.24820627e-01f,
+1.33965954e-01f,+5.75079918e-02f,+1.86203077e-01f,-1.56305417e-01f,-4.00057770e-02f,
-2.09408790e-01f,-2.79355911e-03f,-4.27910805e-01f,-1.37916416e-01f,+1.25447839e-01f,
-2.33395278e-01f,+4.99013402e-02f,-1.62825100e-02f,+2.64024079e-01f,-2.84907997e-01f,
+1.29383311e-01f,+5.93315698e-02f,-8.04086402e-02f,+2.48832524e-01f,-2.01360788e-02f,
-6.97454810e-02f,+3.38207893e-02f,-2.60530729e-02f,+7.69242942e-02f,+1.67126864e-01f,
+1.34476423e-01f,+1.43194273e-01f,-1.50365278e-01f,+1.56580508e-01f,+5.33982851e-02f,
-1.90434083e-01f,+1.03505261e-01f,+2.59377450e-01f,+2.28779521e-02f,-1.65505424e-01f,
-1.71974361e-01f,+3.00967902e-01f,+1.44910276e-01f,+7.72067234e-02f,+4.08594636e-03f,
+1.44999996e-01f,+1.53444260e-01f,-2.21153684e-02f,+1.64121225e-01f,+8.50577280e-02f,
-2.48960294e-02f,+1.83186412e-01f,+3.53668369e-02f,+6.07008860e-02f,+2.23645568e-01f,
+1.86623544e-01f,-5.49147055e-02f,-6.71534464e-02f,+7.82735571e-02f,-4.64892276e-02f,
-2.47013811e-02f,-5.60107306e-02f,-9.39882360e-03f,+8.13938454e-02f,+5.71655035e-02f,
+1.05573824e-02f,-2.61732221e-01f,-2.69514080e-02f,+7.07482547e-02f,-4.99486318e-03f,
-1.62388161e-01f,+2.37074196e-01f,-4.61976044e-02f,+5.68710528e-02f,-1.25965536e-01f,
+2.04621211e-01f,+2.10865751e-01f,+9.13275555e-02f,-1.18292607e-01f,+6.60915673e-02f,
-2.92831641e-02f,-1.79541200e-01f,-8.34785178e-02f,+1.50917023e-01f,-9.21406448e-02f,
+2.56863743e-01f,+3.15291047e-01f,+1.44418284e-01f,-8.39775652e-02f,+4.66603786e-03f,
-1.60654751e-03f,-4.28855158e-02f,+2.30300903e-01f,+2.03683361e-01f,+1.70190968e-02f,
-4.45504151e-02f,-3.99571843e-02f,-6.81461692e-02f,+2.10087046e-01f,+5.18815517e-02f,
-1.70086831e-01f,+1.30417168e-01f,+7.24238977e-02f,-3.01166356e-01f,+7.16933683e-02f,
+4.04837370e-01f,-1.14082113e-01f,-4.26621810e-02f,+1.67424381e-01f,+1.13080636e-01f,
+2.34758854e-01f,+4.50776108e-02f,-5.17568961e-02f,+8.46569613e-02f,-8.60515237e-02f,
-2.21728422e-02f,-7.27924099e-03f,-1.56825587e-01f,+7.97271430e-02f,+1.34186298e-02f,
+1.90360725e-01f,-1.56909227e-01f,-2.96052415e-02f,+2.99875945e-01f,+2.56765005e-03f,
+6.46811575e-02f,-4.34171930e-02f,+1.28913417e-01f,-1.38209984e-01f,-1.36789441e-01f,
+1.86266795e-01f,+2.18370438e-01f,-8.83801356e-02f,+6.95537329e-02f,-1.34707287e-01f,
-2.94992682e-02f,+1.38320088e-01f,-1.37212530e-01f,+4.10343446e-02f,-1.14074424e-01f,
-2.35761151e-01f,+9.09220427e-02f,+1.52292356e-01f,-7.38316476e-02f,+3.28943789e-01f,
+9.14755911e-02f,+1.39274821e-01f,+1.98466092e-01f,-2.36812737e-02f,-1.51327804e-01f,
+6.91981986e-02f,+1.06375657e-01f,+1.26689523e-01f,-5.99314226e-03f,-1.83436852e-02f,
-4.18201163e-02f,+6.76556081e-02f,-1.54407054e-01f,-6.61132857e-02f,+3.93698931e-01f,
+3.76446426e-01f,+1.06065325e-01f,+3.63239571e-02f,+4.56231833e-02f,+6.39029965e-02f,
+2.06169467e-02f,-5.86082824e-02f,+2.57287860e-01f,-1.46998003e-01f,-1.03159301e-01f,
-1.62887394e-01f,-1.43739879e-01f,-8.90727714e-02f,-1.49961397e-01f,+2.75025368e-01f,
-1.03220262e-01f,-1.54491886e-01f,-2.63467401e-01f,-5.64223863e-02f,+1.35962188e-01f,
+2.96454262e-02f,+7.62476549e-02f,+1.87359974e-02f,-6.28133491e-02f,+1.18012920e-01f,
+1.32762387e-01f,-7.21442476e-02f,+1.89447343e-01f,+1.34114355e-01f,+2.67034932e-03f,
+2.88473994e-01f,-1.51879236e-01f,-2.72951238e-02f,+4.41254795e-01f,-6.30487800e-02f,
+7.33399987e-02f,-1.44793289e-02f,+4.24683779e-01f,-1.07630968e-01f,+2.80139297e-01f,
-3.84928630e-04f,+2.07963556e-01f,+5.14138043e-02f,+8.48747268e-02f,-7.80676529e-02f,
+5.59676662e-02f,+2.36582562e-01f,-2.12410286e-01f,-9.03711542e-02f,+1.32255360e-01f,
+1.30080208e-01f,+8.38177577e-02f,+2.13366702e-01f,-1.37796858e-03f,+8.89206603e-02f,
-4.73901927e-02f,+1.96572945e-01f,+2.64455676e-01f,-1.70360923e-01f,-1.92161947e-02f,
+9.24969390e-02f,+1.18612058e-01f,+4.29992974e-02f,-1.28488719e-01f,+7.47105181e-02f,
-1.03881247e-02f,+4.29824769e-01f,+6.42903000e-02f,+2.08109260e-01f,-1.52853638e-01f,
+1.06563950e-02f,+6.01599552e-02f,-2.18955562e-01f,+1.59545019e-01f,+1.48549199e-01f,
-3.71593833e-02f,-2.62939841e-01f,+8.02938417e-02f,-2.60539837e-02f,-2.91146278e-01f,
+3.48259509e-02f,+1.28441793e-03f,+3.24554682e-01f,+1.28964400e-02f,-6.21985353e-04f,
+5.71992062e-02f,-1.29014134e-01f,-2.67977655e-01f,+1.18845201e-03f,+9.92862061e-02f,
-1.17532693e-01f,+1.55077502e-01f,-1.02039792e-01f,-1.42215535e-01f,+6.12619072e-02f,
-4.52641547e-02f,+1.01885773e-01f,+2.00028092e-01f,-1.23912454e-01f,+9.68442857e-02f,
-7.92991668e-02f,-1.25229806e-01f,-1.18561007e-01f,+4.11056221e-01f,-1.04254246e-01f,
+2.26961207e-02f,-5.73360063e-02f,-6.43470287e-02f,+1.22688420e-01f,+2.01094419e-01f,
+7.35633969e-02f,+2.89495382e-02f,+2.64144361e-01f,+1.04367971e-01f,-2.36510113e-01f,
+2.63987482e-02f,-1.20659851e-01f,+1.62649274e-01f,+4.91953902e-02f,-2.33948193e-02f,
-1.67902373e-02f,-1.89717203e-01f,-6.57625273e-02f,+1.18454129e-01f,-1.90362215e-01f,
-6.98266253e-02f,+1.46167859e-01f,+1.55090123e-01f,+8.17201510e-02f,-1.14922516e-01f,
+2.28254423e-01f,+6.53013587e-02f,-7.54277408e-02f,+1.47299409e-01f,-7.52954930e-02f,
-4.36722208e-03f,+5.84363975e-02f,+1.33096367e-01f,-1.41669199e-01f,+3.20950806e-01f,
-6.92460462e-02f,+1.49758279e-01f,+2.95397043e-01f,-4.95618768e-02f,-5.79095073e-02f,
+2.59883050e-02f,+9.11133215e-02f,+2.84166690e-02f,-3.63665074e-03f,+1.81865096e-01f,
+1.95022583e-01f,-3.51742352e-03f,-2.51253489e-02f,+9.11002159e-02f,-1.03522636e-01f,
-3.90813619e-01f,-2.33371228e-01f,-9.96372104e-02f,-9.71376523e-02f,+2.28156731e-01f,
+2.45851919e-01f,+6.63200393e-02f,-1.65291280e-01f,+1.81063801e-01f,-6.99686036e-02f,
+1.15820065e-01f,-4.76913573e-03f,+7.17676356e-02f,-8.58321711e-02f,-3.60800959e-02f,
+1.55975416e-01f,+8.56403187e-02f,+9.02800411e-02f,+7.09877610e-02f,-4.36319858e-02f,
+1.16846235e-02f,-5.02222404e-02f,-4.13574576e-02f,+1.20346598e-01f,-2.57598817e-01f,
+7.03082699e-03f,+8.30160975e-02f,+2.08552256e-02f,+1.55034079e-03f,+7.88553953e-02f,
+1.18106715e-01f,-1.64026633e-01f,+1.40805021e-01f,-1.31021589e-01f,-8.58082622e-03f,
-2.56790549e-01f,+3.12509574e-02f,+3.75883728e-02f,+1.48759395e-01f,+5.57630733e-02f,
-1.28813595e-01f,-1.09115273e-01f,+1.15296811e-01f,-8.93091112e-02f,+4.08727154e-02f,
+4.18436714e-02f,-1.18755415e-01f,+1.43987089e-01f,+2.08175704e-01f,+1.34774782e-02f,
+5.97112440e-02f,+1.00650229e-02f,-1.00731418e-01f,+8.08457881e-02f,-8.44630077e-02f,
-3.14485021e-02f,-2.94302367e-02f,-5.20596467e-03f,+1.77961186e-01f,-2.77010500e-01f,
-1.01511307e-01f,+1.00432321e-01f,+2.00922847e-01f,+7.18121976e-02f,+2.48623446e-01f,
-1.98201641e-01f,+3.85494414e-03f,-5.86498417e-02f,+4.58026193e-02f,+9.75408629e-02f,
+1.07427590e-01f,-5.58930300e-02f,+6.28697649e-02f,-4.63886820e-02f,-1.15704082e-01f,
-2.62041062e-01f,+1.76154792e-01f,+1.70290574e-01f,+8.12691748e-02f,+1.40055209e-01f,
+5.11331894e-02f,-2.36388482e-02f,-6.50623664e-02f,+7.92205408e-02f,+4.52991053e-02f,
-8.06693584e-02f,-7.16034919e-02f,+1.03979647e-01f,+1.38452590e-01f,+1.34598121e-01f,
+2.42126837e-01f,+4.53807935e-02f,+2.97850579e-01f,+9.25604254e-03f,-1.48462793e-02f,
-1.91070423e-01f,+2.18365833e-01f,-3.21299553e-01f,-2.23305196e-01f,-7.32432455e-02f,
+3.38018797e-02f,+1.00818291e-01f,-4.75511029e-02f,-4.62224223e-02f,+8.57101306e-02f,
+4.53904904e-02f,+5.16465269e-02f,-4.03939784e-02f,-6.49671033e-02f,-1.62771214e-02f,
-2.64976006e-02f,-6.46285806e-03f,-7.49706253e-02f,+6.88222796e-02f,+1.15713201e-01f,
-9.42274258e-02f,-1.84684053e-01f,-2.48180255e-02f,-1.10196613e-01f,-2.43515670e-01f,
+1.44219816e-01f,-5.69715258e-03f,+8.32928643e-02f,-1.35133341e-01f,+2.05694363e-01f,
-9.76776406e-02f,-4.10157368e-02f,-2.14745402e-01f,+6.84925541e-02f,-9.54475068e-03f,
+7.67046958e-02f,+1.50305510e-01f,+3.38737100e-01f,-8.18758309e-02f,+3.43246050e-02f,
-7.09624216e-02f,+9.44215134e-02f,-5.38829016e-03f,-2.11620599e-01f,-8.46054256e-02f,
+8.52667391e-02f,+4.10065055e-02f,+3.85915558e-03f,-2.75516324e-02f,+3.90505567e-02f,
+1.58098981e-01f,-1.20608993e-01f,+1.69476688e-01f,+2.13659465e-01f,+1.23697862e-01f,
+7.80969043e-04f,-5.09415977e-02f,+5.29818702e-03f,-8.20226371e-02f,-2.37148814e-02f,
+9.52378213e-02f,+6.07904159e-02f,-1.26645891e-02f,-1.20438427e-01f,-1.09948158e-01f,
+3.09031326e-02f,+1.77378338e-02f,+1.31605268e-01f,+5.53069301e-02f,-5.94906509e-03f,
-1.70247838e-01f,-3.07404220e-01f,-7.55671859e-02f,-4.89050001e-02f,+1.56780660e-01f,
+5.34886159e-02f,-2.17856959e-01f,+2.38114610e-01f,+1.10553369e-01f,-1.06170829e-02f,
+1.85343847e-01f,+6.14486188e-02f,+4.53392835e-03f,-2.18329489e-01f,+5.41354977e-02f,
+1.70888692e-01f,-5.25515119e-04f,-6.05320781e-02f,+4.07118239e-02f,-2.17681397e-02f,
+1.58763438e-01f,+2.51007050e-01f,+1.13359042e-01f,-5.15301973e-02f,+3.84193659e-02f,
+3.65330502e-02f,+1.68262318e-01f,-6.41470850e-02f,+2.58749157e-01f,-1.17893972e-01f,
-2.04162404e-01f,-5.33928722e-02f,+1.05754815e-01f,-3.41406345e-01f,-3.01879402e-02f,
+8.66990983e-02f,+3.82708013e-02f,-4.49698418e-02f,-8.12804401e-02f,-6.59978241e-02f,
-8.36849809e-02f,-2.02480018e-01f,-8.62887973e-05f,+8.51301253e-02f,+1.56740457e-01f,
+1.88380271e-01f,+3.07919178e-02f,+1.89463794e-01f,+6.98458701e-02f,-2.94749171e-01f,
-1.19781224e-02f,-5.21975867e-02f,+1.51694000e-01f,+1.54054940e-01f,+7.24418759e-02f,
+1.62311420e-01f,-3.58589999e-02f,+2.32182622e-01f,-1.81933269e-01f,+1.07637327e-02f,
-5.27870432e-02f,+5.22076488e-02f,-1.24716595e-01f,+1.16276644e-01f,-8.81938413e-02f,
-1.86527160e-03f,+5.71274711e-03f,-3.44356358e-01f,-2.18706340e-01f,+1.73187047e-01f,
+4.35164012e-02f,-8.02970007e-02f,+1.37765095e-01f,-8.12281147e-02f,+2.37706490e-02f,
-1.92478657e-01f,+8.78492817e-02f,-5.36621502e-03f,+2.91304570e-02f,-1.04622781e-01f,
-7.58153871e-02f,-5.95684610e-02f,-3.63738537e-02f,+7.16563761e-02f,-2.23317370e-01f,
-1.34773165e-01f,+7.69768953e-02f,-2.99604982e-01f,+1.82766184e-01f,-2.02200171e-02f,
+1.44500732e-01f,+1.13520727e-01f,-7.66285788e-03f,-2.31833994e-01f,-8.31510350e-02f,
-1.10961217e-02f,+1.26689866e-01f,-1.31284386e-01f,+6.04731180e-02f,+3.32286321e-02f,
-1.27611116e-01f,-6.49724677e-02f,+1.07188851e-01f,+1.33959442e-01f,-7.33016133e-02f,
-9.33245718e-02f,-4.51421440e-02f,-6.63123205e-02f,-1.35476619e-01f,+1.25543162e-01f,
+3.03628948e-02f,+5.29157110e-02f,+1.84484094e-01f,+1.35164475e-02f,+2.69704789e-01f,
+4.07597162e-02f,-1.67681858e-01f,+2.90843189e-01f,+1.06828466e-01f,+1.07188925e-01f,
+4.57551032e-02f,-9.10285860e-02f,-2.12522149e-01f,+1.49743319e-01f,+1.04412839e-01f,
-7.75303915e-02f,+2.15412214e-01f,+1.45064026e-01f,-6.02413565e-02f,-3.64955552e-02f,
-1.50552407e-01f,+3.53623807e-01f,+6.97618574e-02f,+1.21762216e-01f,+8.02377015e-02f,
-1.03754699e-01f,+2.08819628e-01f,+1.37436464e-01f,+2.63925698e-02f,+2.65612960e-01f,
-6.93904683e-02f,-1.06377164e-02f,+3.55781950e-02f,+4.93252091e-02f,+1.36117395e-02f,
-6.50722720e-03f,+1.11921646e-01f,+1.80396825e-01f,+5.09572066e-02f,+3.10697079e-01f,
+1.88363209e-01f,+4.83432561e-02f,-9.45259482e-02f,+3.68122607e-02f,-2.03438118e-01f,
+1.43149763e-01f,+1.09173842e-01f,+2.40077730e-02f,+1.15624279e-01f,+8.41371194e-02f,
+2.95596384e-02f,+1.81186512e-01f,-3.29484969e-01f,+2.07052305e-02f,-7.96823353e-02f,
+5.90588599e-02f,+3.20942104e-02f,-1.43893674e-01f,+5.36137745e-02f,-1.05301831e-02f,
+7.10414872e-02f,+1.69587761e-01f,-1.58625975e-01f,-4.01949920e-02f,+1.81251675e-01f,
+1.19942077e-01f,+5.52245765e-04f,-1.53104737e-01f,+3.56575549e-02f,+2.76673548e-02f,
+6.56534210e-02f,+3.16402875e-02f,+2.26014093e-01f,+2.61374056e-01f,+9.30072442e-02f,
+1.55115515e-01f,-3.16401385e-03f,+3.30156274e-02f,-5.64457439e-02f,-1.36889040e-01f,
+6.15459159e-02f,+3.51273343e-02f,-1.02612711e-01f,-6.55734017e-02f,-2.89323270e-01f,
-3.00680518e-01f,+1.67017907e-03f,+1.23270221e-01f,-6.10915804e-03f,-7.83055499e-02f,
-1.22681208e-01f,+4.62480728e-03f,+1.24012165e-01f,+1.67986602e-01f,+3.63591686e-02f,
+3.90522152e-01f,-4.34138328e-02f,+5.26318997e-02f,+2.22586602e-01f,-3.74275818e-02f,
+4.42474112e-02f,+2.06648298e-02f,-3.85424197e-01f,+1.50120324e-02f,-2.10531041e-01f,
+9.91473049e-02f,+8.45192224e-02f,+3.93695980e-02f,+2.02937663e-01f,+1.03970714e-01f,
+2.44953278e-02f,+1.36756778e-01f,+1.23573549e-01f,-6.30193483e-03f,+1.67638928e-01f,
+1.79332122e-01f,-3.27961147e-01f,-6.17941581e-02f,-1.49130225e-01f,+2.13526972e-02f,
+1.40031427e-01f,+4.59963754e-02f,-2.10559387e-02f,+5.05323559e-02f,+7.10373223e-02f,
-1.19572468e-01f,-2.07445189e-01f,-1.12222068e-01f,+6.61518276e-02f,+1.73273563e-01f,
+6.21277876e-02f,+6.42934591e-02f,-1.27283677e-01f,+7.49021247e-02f,+5.12035238e-03f,
+6.92671863e-03f,+1.14393115e-01f,-3.71848303e-03f,-1.67494133e-01f,-1.96765050e-01f,
+1.53326616e-01f,-2.64433235e-01f,+5.56974448e-02f,-3.56307738e-02f,+1.52069449e-01f,
-1.42374545e-01f,-5.63780889e-02f,+3.22554529e-01f,+1.17053218e-01f,+2.76998915e-02f,
-7.20455218e-03f,+1.42744854e-01f,+1.93238720e-01f,+6.44446611e-02f,-3.68937291e-02f,
+1.80935442e-01f,+1.24592356e-01f,+5.22691337e-03f,-1.43659875e-01f,+7.27071092e-02f,
-1.34348780e-01f,+7.89505690e-02f,-9.76192355e-02f,-3.21484134e-02f,+2.79260427e-02f,
+3.59526843e-01f,-8.99993069e-03f,+2.45048851e-01f,+8.80530551e-02f,-1.56237856e-01f,
+9.58450809e-02f,+7.09844846e-03f,+1.72944382e-01f,-2.07748935e-02f,-1.08493015e-01f,
+8.82626474e-02f,+1.79975212e-01f,-7.08764344e-02f,+2.37014651e-01f,+4.91529964e-02f,
-1.76931322e-02f,-3.76174271e-01f,-5.79195619e-02f,+5.74075095e-02f,+2.09721714e-01f,
-4.08284403e-02f,+4.88312691e-02f,+1.57618284e-01f,-1.20373882e-01f,+1.25240088e-01f,
+1.62793279e-01f,-7.79789910e-02f,-8.17928985e-02f,-1.39394462e-01f,-1.71188675e-02f,
+3.67371351e-01f,+1.52931750e-01f,+1.58570275e-01f,-2.18406633e-01f,+1.24915443e-01f,
-5.31567335e-02f,-3.34326737e-02f,-1.31619945e-01f,-5.99091165e-02f,+2.17780322e-01f,
-1.24865234e-01f,+7.57712424e-02f,-2.00102851e-01f,-2.36115456e-01f,+9.54984277e-02f,
+8.41352530e-03f,-1.04404569e-01f,+1.03903748e-01f,-1.23954844e-02f,+2.59629101e-01f,
-2.12940782e-01f,+2.84938753e-01f,+3.36872078e-02f,-1.86012629e-02f,-1.85894221e-01f,
+6.99199457e-03f,-1.79071307e-01f,-5.40475771e-02f,+1.36346538e-02f,-1.50269255e-01f,
+4.99079004e-02f,+4.77418303e-02f,-9.43531375e-03f,+2.28438526e-02f,+5.57394363e-02f,
+9.95088294e-02f,+2.34658971e-01f,-1.23004951e-02f,+3.42703134e-01f,+3.62269022e-02f,
-2.77372241e-01f,+1.70274824e-01f,+2.77527690e-01f,-4.62255031e-02f,-5.02641760e-02f,
+2.81008165e-02f,+1.90034527e-02f,+7.53491791e-03f,-1.39233088e-02f,+5.18080518e-02f,
+1.45437598e-01f,-2.20475778e-01f,-1.21125989e-01f,+1.49316639e-01f,+2.61174291e-01f,
+3.41001123e-01f,+3.48547585e-02f,-4.62353416e-02f,-1.00492984e-01f,+8.85186419e-02f,
-7.92937875e-02f,+1.83276050e-02f,+1.21483870e-01f,+3.38425450e-02f,-6.50975481e-02f,
-1.47143349e-01f,+2.29173958e-01f,+2.18747273e-01f,+2.15597197e-01f,+1.53286019e-02f,
+7.57630542e-02f,+7.34851509e-02f,-1.12521788e-03f,+2.02645674e-01f,+1.18403442e-01f,
+2.34028548e-02f,-8.22678208e-02f,+6.10720403e-02f,-2.58309692e-02f,+3.96292061e-02f,
+3.52533534e-02f,+1.13663681e-01f,-1.23689927e-01f,-2.60104500e-02f,+2.17001721e-01f,
-2.23015279e-01f,-1.54494911e-01f,+1.46983624e-01f,+1.29954025e-01f,+3.30699235e-02f,
+8.28948990e-03f,-7.66130313e-02f,+1.72950372e-01f,-3.99361663e-02f,+4.78538051e-02f,
+1.70057952e-01f,+7.37872273e-02f,+1.21342756e-01f,+1.18443154e-01f,+1.43655881e-01f,
+1.70867518e-01f,-4.09041968e-04f,+3.61906171e-01f,-1.44092798e-01f,+1.49579048e-01f,
+1.29610986e-01f,-6.75101057e-02f,+3.40383942e-03f,+1.24971613e-01f,+1.61655977e-01f,
+6.71996251e-02f,+2.20757023e-01f,-5.86989475e-03f,+1.74055517e-01f,+3.22484672e-01f,
-1.24995261e-02f,+9.80079919e-02f,+9.83377099e-02f,+1.72132924e-02f,+8.41746926e-02f,
+5.19013777e-02f,+1.50448710e-01f,-1.43320709e-01f,-7.37539530e-02f,+6.62561134e-03f,
+3.22716869e-02f,+3.43315512e-01f,+1.06295245e-02f,-6.82991147e-02f,+5.55205643e-02f,
+2.51102373e-02f,-1.17786758e-01f,+1.08366579e-01f,+2.29601916e-02f,-1.79422256e-02f,
+1.98794216e-01f,+1.48474947e-01f,+1.14689387e-01f,-2.79784743e-02f,+2.51198262e-01f,
+3.12121655e-03f,+2.05938533e-01f,+2.00177357e-01f,-1.01641394e-01f,+2.98261374e-01f,
+1.56567574e-01f,-7.44226575e-02f,+6.94763884e-02f,+2.54411966e-01f,+2.29590103e-01f,
+1.41217321e-01f,-4.69782911e-02f,+3.02012730e-02f,-3.95333804e-02f,+1.47957027e-01f,
+1.52062163e-01f,-1.08416930e-01f,-1.04294851e-01f,-7.28725269e-02f,-1.84595212e-02f,
-4.26043384e-02f,-7.87127838e-02f,-3.53475034e-01f,-8.24892372e-02f,-1.82934836e-01f,
-1.17014624e-01f,-1.43982038e-01f,+4.51137275e-02f,+4.47836787e-01f,-8.20197761e-02f,
+1.56805784e-01f,-9.78132710e-02f,+5.23702204e-02f,-2.45672047e-01f,-5.00447638e-02f,
+1.33835122e-01f,+1.51458591e-01f,+4.61865924e-02f,+2.45163590e-01f,+1.04951285e-01f,
+1.77804399e-02f,-7.77199417e-02f,-2.48696342e-01f,-9.85621214e-02f,+1.16704501e-01f,
+1.57858938e-01f,+2.66924389e-02f,+2.36072056e-02f,-6.90173777e-03f,-2.03287616e-01f,
-9.39965621e-03f,+2.78937995e-01f,+1.96634859e-01f,+4.41804156e-02f,+1.52760550e-01f,
+1.03487320e-01f,+1.37662098e-01f,+9.24439281e-02f,+2.67576188e-01f,+2.26658806e-01f,
-3.53040025e-02f,-2.28647172e-01f,+1.29303932e-01f,+7.51529783e-02f,-2.28439346e-02f,
+9.28022116e-02f,+4.20894846e-02f,+5.09478785e-02f,+1.05538331e-01f,+1.02487631e-01f,
+1.58653900e-01f,+2.16394275e-01f,+2.54923463e-01f,+4.35287178e-01f,+9.30404942e-03f,
-2.05872402e-01f,-3.60734880e-01f,-1.69373497e-01f,+7.87778050e-02f,+4.20325756e-01f,
-6.45561900e-04f,+7.36004114e-02f,-1.00651057e-02f,+1.30856916e-01f,-5.09924674e-03f,
-2.71595687e-01f,+2.39656623e-02f,+8.65529403e-02f,+1.06842585e-01f,+1.24224141e-01f,
-5.25740944e-02f,+2.78590638e-02f,-2.68776000e-01f,-1.22087911e-01f,-6.33722395e-02f,
-1.12623639e-01f,-2.00661227e-01f,+2.21924722e-01f,-7.77957886e-02f,+9.89040658e-02f,
+1.45576924e-01f,-1.53835773e-01f,-4.49751457e-03f,+1.34824485e-01f,+1.11831874e-01f,
+1.33952498e-01f,-2.50343204e-01f,+2.69577086e-01f,-4.01564240e-02f,-8.43456089e-02f,
-2.10609049e-01f,+9.32740122e-02f,+2.20713452e-01f,+1.38797939e-01f,-8.38216841e-02f,
-2.84310989e-03f,-2.10917547e-01f,+2.28706926e-01f,+2.85233706e-02f,-1.29910648e-01f,
-2.96201743e-02f,+5.64616127e-03f,-2.12960467e-01f,-1.43659875e-01f,+1.15642615e-03f,
-2.35108763e-01f,-7.08797500e-02f,-3.30497660e-02f,-3.57843935e-02f,-2.32479554e-02f,
+1.47537142e-01f,-1.15199462e-01f,+1.59820229e-01f,+3.79062653e-01f,-1.30599618e-01f,
-1.29261672e-01f,+9.61693004e-02f,+2.78937310e-01f,+2.21223459e-01f,+1.51003137e-01f,
+2.15095371e-01f,+1.76593363e-02f,-2.26711243e-01f,-2.52539963e-01f,-1.17170960e-02f,
+1.12279996e-01f,-2.85622347e-02f,+1.92236662e-01f,+3.52763943e-02f,+2.29706258e-01f,
+1.49196818e-01f,-2.31093541e-02f,-9.05190781e-02f,+1.03683405e-01f,+2.99192131e-01f,
+1.56000052e-02f,+2.56551616e-02f,+2.00235933e-01f,+9.21106786e-02f,+6.85415119e-02f,
-8.67464952e-03f,+6.09764233e-02f,-2.79483534e-02f,-9.79160443e-02f,+7.40924850e-02f,
+3.27801675e-01f,-4.57871407e-02f,-2.82946080e-02f,-1.85768813e-01f,-1.03514954e-01f,
+1.07994720e-01f,+1.66128248e-01f,-1.26164392e-01f,-7.27198496e-02f,+1.99153751e-01f,
-1.93713292e-01f,+1.77254200e-01f,-1.18272752e-01f,+1.28402591e-01f,+2.56948799e-01f,
+1.44925773e-01f,+1.24803029e-01f,+1.46244943e-01f,-1.42955417e-02f,-2.16819607e-02f,
-2.26596102e-01f,-2.00824827e-01f,-8.81574079e-02f,+9.32195112e-02f,+1.45253345e-01f,
+1.69063658e-01f,-1.80045739e-01f,-9.39583033e-02f,-1.84932798e-01f,-4.69825380e-02f,
-1.20375656e-01f,+3.30749631e-01f,+7.20101234e-05f,-2.88189156e-03f,-8.55803024e-03f,
+2.61421409e-02f,+1.24345295e-01f,+1.26067281e-01f,+1.83494851e-01f,+1.25794001e-02f,
+1.60880506e-01f,+2.54486114e-01f,-1.19887523e-01f,+5.07490486e-02f,+5.69770783e-02f,
+1.63999379e-01f,+1.39983326e-01f,+7.19110668e-02f,-1.35270387e-01f,+1.03275254e-01f,
-6.09112345e-02f,+1.41442325e-02f,+1.59424827e-01f,-1.26629815e-01f,+1.51995420e-01f,
+2.04380780e-01f,-1.56838581e-01f,-1.24202162e-01f,+1.37558067e-02f,-9.90958884e-02f,
-1.41624853e-01f,-6.43358827e-02f,-2.10351944e-01f,+8.55011120e-02f,+4.28197496e-02f,
+1.78625405e-01f,-2.02702135e-01f,+1.55775875e-01f,+6.83320016e-02f,+8.26987550e-02f,
+1.23155238e-02f,+1.44907877e-01f,+6.35092482e-02f,-1.26533568e-01f,-4.78193723e-02f,
+7.81568214e-02f,+3.98803130e-02f,-2.17051268e-01f,+8.51306319e-03f,+2.42632225e-01f,
+7.40339607e-02f,-6.85622841e-02f,-1.01596499e-02f,+9.43012983e-02f,+1.91098332e-01f,
-7.96571076e-02f,+8.64033997e-02f,+1.35267735e-01f,-3.29182036e-02f,+8.17369595e-02f,
+7.07808658e-02f,+1.11346491e-01f,+1.00524053e-01f,+1.28727749e-01f,+1.56709671e-01f,
-3.51029009e-01f,+3.61140907e-01f,-2.31634423e-01f,+1.43260792e-01f,-2.57699937e-03f,
+1.10078551e-01f,-2.10323408e-01f,+2.96369553e-01f,-5.40066548e-02f,+2.20287994e-01f,
-1.16374493e-01f,+2.15161130e-01f,-7.64942691e-02f,-9.61171836e-02f,+2.86753863e-01f,
+8.51456076e-02f,-4.19374816e-02f,-5.86473802e-03f,+4.73568030e-02f,-3.50204669e-03f,
+2.06441015e-01f,-1.21829391e-01f,+9.63744074e-02f,+2.50630707e-01f,+1.52942808e-02f,
+1.69167921e-01f,+1.69339925e-01f,+6.21039644e-02f,+6.28350675e-02f,+4.90862727e-02f,
+8.57217461e-02f,-1.31497681e-01f,-4.96561192e-02f,+2.84608062e-02f,+7.43206739e-02f,
-2.63415650e-03f,+1.31334975e-01f,+1.22940093e-01f,-2.60249302e-02f,-1.39138296e-01f,
+1.38288319e-01f,+1.39930934e-01f,-2.52103880e-02f,+1.23843305e-01f,+4.42821570e-02f,
-1.68565810e-01f,-1.89698517e-01f,+5.21468483e-02f,-2.80539542e-01f,+2.10429002e-02f,
-2.08548635e-01f,+1.88247133e-02f,-4.49559391e-02f,-2.26840824e-02f,+4.73005250e-02f,
-6.15397766e-02f,+7.47721046e-02f,+1.68570019e-02f,-2.11524189e-01f,+4.51879911e-02f,
-5.37607633e-02f,-1.57441959e-01f,-5.61304167e-02f,+2.44534642e-01f,-1.51366219e-01f,
+1.95194200e-01f,+7.88679495e-02f,+1.10353164e-01f,+2.47019172e-01f,-2.67336935e-01f,
+4.11296077e-02f,-2.99257301e-02f,+1.02775730e-01f,-4.50688824e-02f,-3.88542354e-01f,
+1.22235306e-01f,+1.81906864e-01f,-1.91499274e-02f,-1.94645658e-01f,-2.35829085e-01f,
+2.26794675e-01f,+9.96149182e-02f,-1.44891620e-01f,+8.38502496e-02f,-4.12046127e-02f,
-5.61896786e-02f,-2.70343006e-01f,+5.57384714e-02f,+6.43592328e-02f,-1.63111642e-01f,
-8.27726945e-02f,+1.74275652e-01f,-2.61695772e-01f,+6.62397817e-02f,-9.81312245e-02f,
+1.19192764e-01f,-1.45536900e-01f,+2.56020069e-01f,+1.06138010e-02f,-1.47168696e-01f,
-2.96414018e-01f,-3.09586316e-01f,+3.67812850e-02f,+2.55545489e-02f,+9.21144783e-02f,
+2.88550913e-01f,-2.81339228e-01f,-1.07483184e-02f,+4.49380688e-02f,-5.91642186e-02f,
-9.43319649e-02f,-1.25011932e-02f,+1.35362118e-01f,-1.84413925e-01f,+2.04115197e-01f,
+1.96807370e-01f,+1.70511395e-01f,-1.29518718e-01f,+4.24482534e-03f,-3.01209927e-01f,
-1.02351598e-01f,-5.70309795e-02f,-1.30633399e-01f,+1.72297060e-02f,-1.55968100e-01f,
-3.57470214e-02f,-1.05494663e-01f,-2.23048776e-01f,+3.44146118e-02f,-1.23050831e-01f,
-6.68798089e-02f,+2.65064955e-01f,+1.57087445e-01f,+5.05445227e-02f,-2.09468260e-01f,
+2.34229654e-01f,-1.79587558e-01f,-7.63682649e-02f,+1.67056337e-01f,+1.85494453e-01f,
-7.58638754e-02f,-2.12133229e-01f,+1.33100390e-01f,+1.34338990e-01f,+1.21437646e-01f,
-1.85671315e-01f,+2.29246430e-02f,-9.15099904e-02f,-2.55474031e-01f,+3.71647388e-01f,
+3.09976339e-01f,+5.36230467e-02f,-9.82896909e-02f,-1.26335949e-01f,+1.20421305e-01f,
+4.69840243e-02f,+1.10103630e-01f,+9.09913853e-02f,+1.78628620e-02f,-1.43509051e-02f,
-1.40774965e-01f,-2.35312834e-01f,-9.82429460e-02f,+1.14748992e-01f,-1.00339606e-01f,
+8.59543830e-02f,-9.56696793e-02f,+9.58339572e-02f,-2.56995261e-01f,+8.85182843e-02f,
+9.70229432e-02f,+7.00434158e-03f,+1.36757419e-01f,+9.14891139e-02f,+2.06615165e-01f,
+7.38828108e-02f,-8.22854713e-02f,+3.36805508e-02f,+3.52032900e-01f,+1.03387982e-01f,
+1.09584428e-01f,-1.87147669e-02f,+1.84840918e-01f,+9.01438892e-02f,-1.68481156e-01f,
+6.38106614e-02f,+2.10515797e-01f,+3.55359495e-01f,+1.57917410e-01f,+1.16636217e-01f,
+1.61063615e-02f,+3.67612571e-01f,+2.46710747e-01f,+7.24214017e-02f,-1.22686680e-02f,
-1.61781803e-01f,+2.36951441e-01f,-5.84585068e-04f,+1.32782429e-01f,+7.02587143e-02f,
-1.38736844e-01f,-1.75112441e-01f,-4.62219026e-03f,-7.13216588e-02f,+7.45537737e-03f,
-7.94014558e-02f,+2.95575798e-01f,+3.77795070e-01f,-4.65461239e-02f,+7.86824431e-03f,
-5.07963561e-02f,+9.17430520e-02f,+4.60897908e-02f,+3.54947895e-02f,+1.22348741e-01f,
+3.48535836e-01f,+1.33038521e-01f,+1.48497194e-01f,-2.86157966e-01f,-5.72435278e-03f,
-1.41692847e-01f,+1.30356178e-01f,+2.54345220e-02f,-1.27436534e-01f,-8.37364513e-03f,
-1.44634992e-01f,+2.41921440e-01f,+8.16829056e-02f,+7.68197998e-02f,-1.88653603e-01f,
+1.01486117e-01f,+2.97811180e-01f,+9.46406722e-02f,-5.02474681e-02f,-9.63245258e-02f,
+2.22574733e-02f,+7.62050971e-02f,-4.44088094e-02f,-1.56095520e-01f,+8.57740045e-02f,
-2.18567997e-02f,+3.47433329e-01f,+9.92145017e-02f,-2.95076281e-01f,-1.82061851e-01f,
+1.58176571e-01f,-1.06312566e-01f,+3.24296835e-03f,+1.33741656e-02f,+2.10452199e-01f,
-1.09996259e-01f,+1.26568988e-01f,-1.04200602e-01f,+2.66689092e-01f,+2.89960559e-02f,
+1.40222788e-01f,+2.18138531e-01f,-1.56888291e-02f,+1.90322772e-01f,+1.31753013e-01f,
+3.43966596e-02f,-7.25585828e-03f,-2.86731243e-01f,+3.67053002e-02f,+1.80262789e-01f,
-3.59750725e-02f,-2.29477644e-01f,-3.74197870e-01f,-3.92035730e-02f,-2.28918076e-01f,
+1.55322328e-01f,+5.63552268e-02f,-5.41640148e-02f,+1.43927753e-01f,+5.40836714e-03f,
-1.50751024e-01f,+6.62972704e-02f,-8.22034553e-02f,-1.21563666e-01f,-2.18698829e-02f,
-3.68646495e-02f,-3.70439142e-01f,+2.70447850e-01f,-2.34580010e-01f,-7.31141493e-02f,
-1.31475165e-01f,-2.81762898e-01f,-1.64960742e-01f,-1.20414972e-01f,-6.30847514e-02f,
-7.23001137e-02f,+3.22056800e-01f,-7.68869743e-02f,+1.39067620e-01f,-3.76667385e-03f,
-1.75448224e-01f,+6.52249828e-02f,-2.14659469e-03f,-2.02627882e-01f,+3.45344432e-02f,
+1.26843423e-01f,+9.47975554e-03f,-2.19222561e-01f,-1.15161113e-01f,-6.34978488e-02f,
-9.22881514e-02f,+2.30163172e-01f,-9.89209414e-02f,+1.46165997e-01f,-9.44624469e-02f,
+1.93385091e-02f,+2.34139748e-02f,+2.53139921e-02f,+3.69562134e-02f,+2.35960376e-03f,
+1.17695043e-02f,+5.51995775e-03f,-3.43790919e-01f,-8.97369683e-02f,-2.19419435e-01f,
+6.25316352e-02f,-1.31784042e-03f,-2.99965497e-02f,-1.08953044e-01f,+2.81862259e-01f,
+1.91972077e-01f,-3.24077681e-02f,-2.41297886e-01f,-4.01874594e-02f,+9.07928869e-02f,
+8.23453143e-02f,-1.71956629e-01f,+6.56073168e-02f,+2.70773116e-02f,+4.51930106e-01f,
-7.99019337e-02f,-7.54783154e-02f,+1.67481005e-01f,+4.67403047e-02f,+4.16509882e-02f,
-4.15552780e-02f,+2.38087893e-01f,+3.33847731e-01f,-1.55352578e-01f,+1.43571541e-01f,
-2.01041028e-01f,+2.00785339e-01f,-3.01694512e-01f,-9.41267610e-02f,-1.32089436e-01f,
-3.86121392e-01f,+4.38753963e-01f,-4.07203548e-02f,-1.68232068e-01f,+1.88445568e-01f,
-2.97871143e-01f,-1.88455775e-01f,-2.07401708e-01f,+1.59364507e-01f,-8.07646960e-02f,
-5.97691834e-02f,-1.75407887e-01f,-1.24382123e-01f,+7.49206096e-02f,-3.24489385e-01f,
+2.29687151e-02f,-1.17392555e-01f,-6.27152696e-02f,-1.26409709e-01f,+1.04896717e-01f,
+3.32722254e-02f,+2.06132859e-01f,+9.34782252e-02f,-1.34798987e-02f,-6.46686926e-02f,
+1.58205912e-01f,+5.11360615e-02f,+1.06593510e-02f,-7.21078599e-03f,+5.58326999e-03f,
-7.22113028e-02f,-2.28448629e-01f,-7.69038424e-02f,+1.67912737e-01f,+6.02330603e-02f,
-2.56315302e-02f,+1.37512058e-01f,-3.69504727e-02f,+8.73916075e-02f,-1.52772099e-01f,
-9.05364454e-02f,+1.01871073e-01f,-1.43376276e-01f,+3.46480399e-01f,+2.53834929e-02f,
-9.31690037e-02f,-5.35802692e-02f,-8.20419639e-02f,+9.91524830e-02f,-9.85222086e-02f,
-1.74103305e-02f,+9.44797173e-02f,+1.34102285e-01f,+9.30468440e-02f,+2.45655894e-01f,
+9.16827694e-02f,-9.37197506e-02f,+8.69457871e-02f,+1.67550202e-02f,+1.32290274e-01f,
+4.10927571e-02f,-8.35649148e-02f,-2.21832961e-01f,+3.33577543e-02f,-3.67035791e-02f,
-2.03120276e-01f,+1.98729470e-01f,-1.11872166e-01f,+5.39013324e-03f,+5.52030466e-02f,
+3.94339830e-01f,-2.13753767e-02f,+3.42024744e-01f,+1.37386218e-01f,+2.34182075e-01f,
+4.95602796e-03f,-2.20990509e-01f,+6.53249472e-02f,+9.40487757e-02f,-8.87551159e-02f,
+1.25309676e-01f,-8.32713842e-02f,-2.55637556e-01f,+6.25812039e-02f,+1.93979785e-01f,
-9.76582244e-02f,-5.96165471e-02f,-1.59975410e-01f,-5.54859601e-02f,-1.16518728e-01f,
-2.09152400e-01f,+6.33159503e-02f,-3.62777933e-02f,-2.87336484e-02f,+3.04216087e-01f,
+1.37706041e-01f,-2.04597369e-01f,-1.01136185e-01f,+1.87427148e-01f,+3.62582535e-01f,
-1.87193960e-01f,-1.04551062e-01f,-1.47338212e-01f,+1.98830426e-01f,+2.04030916e-01f,
+9.07596871e-02f,+6.34143427e-02f,+3.64744142e-02f,+7.42735788e-02f,-1.79052100e-01f,
-4.21995670e-03f,+6.68714941e-02f,+5.85029908e-02f,-1.97565965e-02f,+6.02381751e-02f,
-6.75850585e-02f,-2.12791443e-01f,+1.38444245e-01f,+7.02293962e-02f,+4.80461903e-02f,
+8.44179913e-02f,-6.23590965e-03f,+8.48580822e-02f,-1.97541833e-01f,-1.30445836e-03f,
+2.39691641e-02f,+2.14577556e-01f,+8.71423036e-02f,-1.42715842e-01f,+2.76391134e-02f,
-2.02119187e-01f,-2.12908253e-01f,-2.17347085e-01f,+8.26170370e-02f,+1.63543120e-01f,
-1.86540671e-02f,-1.31670199e-02f,-3.20578456e-01f,+1.82076514e-01f,+6.69638962e-02f,
+1.21583760e-01f,+8.05330426e-02f,+1.12708375e-01f,+3.41515809e-01f,+1.03157938e-01f,
+7.77740777e-02f,+7.98182562e-02f,-4.60466966e-02f,+3.28982949e-01f,+1.93997353e-01f,
+4.28084821e-01f,-1.04712933e-01f,-5.24997525e-02f,-5.41726314e-02f,+5.20163123e-03f,
-1.67288080e-01f,+8.37553665e-02f,-4.60388176e-02f,+1.22308277e-01f,+1.77207232e-01f,
+5.28393965e-03f,-4.21184540e-01f,+3.90241966e-02f,-1.04534082e-01f,-3.17557529e-02f,
-5.26784696e-02f,-4.63289991e-02f,-1.44417778e-01f,-1.54744834e-02f,-8.94894823e-02f,
-6.54769167e-02f,+3.46425833e-04f,+1.45421460e-01f,-1.94172457e-01f,+1.67361632e-01f,
+1.42575830e-01f,-6.16204366e-02f,+1.17673092e-01f,+1.58940628e-01f,-4.37542684e-02f,
-8.10031667e-02f,-1.70673251e-01f,+1.89439774e-01f,+8.07948317e-03f,+1.91033632e-01f,
+1.09036677e-01f,-6.87673464e-02f,-1.46919668e-01f,-2.27004498e-01f,-1.31048471e-01f,
+1.09806314e-01f,+1.55288111e-02f,+9.49157961e-03f,+6.85624629e-02f,+2.05304921e-01f,
+1.47748902e-01f,+1.62711173e-01f,-8.12418982e-02f,+2.62027413e-01f,-2.10916966e-01f,
+1.65940210e-01f,+3.59736495e-02f,-9.53180343e-02f,+1.10106118e-01f,+1.65185630e-01f,
-2.13294253e-01f,-1.53726473e-01f,+8.46976191e-02f,+4.15895097e-02f,+1.43340737e-01f,
+6.23020083e-02f,+1.00419052e-01f,+3.42974007e-01f,-1.28808737e-01f,-8.49080384e-02f,
-8.37544128e-02f,-7.67954588e-02f,-3.00859679e-02f,+7.78724328e-02f,-3.83718967e-01f,
+4.09177728e-02f,+9.28033292e-02f,+2.41929129e-01f,-1.47568965e-02f,+1.16448142e-02f,
-3.36561292e-01f,-1.56543031e-01f,+1.85381904e-01f,+2.03348204e-01f,+2.44974997e-02f,
-1.86528470e-02f,-3.56977940e-01f,+1.89432964e-01f,+5.41428216e-02f,+7.76513964e-02f,
+1.98686302e-01f,+2.02039286e-01f,-4.12367359e-02f,+4.43302132e-02f,+1.54859900e-01f,
-1.93747934e-02f,-1.75178364e-01f,-9.70295444e-02f,+3.14114876e-02f,-1.22054793e-01f,
+2.17984747e-02f,+1.92121923e-01f,+8.55244920e-02f,+4.99680676e-02f,-2.29229704e-01f,
+2.48803243e-01f,-3.91790494e-02f,+1.73704967e-01f,-9.96153355e-02f,-7.79210478e-02f,
+2.97698468e-01f,-2.76220702e-02f,-1.54859751e-01f,+7.95004964e-02f,+1.61792755e-01f,
+1.33724034e-01f,+1.78111698e-02f,+2.82546103e-01f,+1.92361563e-01f,-1.33225083e-01f,
-1.09866396e-01f,-6.78466782e-02f,+1.31277844e-01f,-1.64694618e-02f,+5.85012231e-03f,
-4.56909053e-02f,-2.31731296e-01f,+3.98928300e-02f,+1.84752867e-01f,-8.49164352e-02f,
-2.15140339e-02f,+8.35772827e-02f,-4.08796743e-02f,-8.98650289e-02f,+1.82027012e-01f,
+1.35948896e-01f,+1.58594280e-01f,-1.42039225e-01f,+1.52203143e-01f,-1.12332106e-01f,
-7.66498968e-02f,+2.50375837e-01f,+3.66340019e-02f,-5.16650118e-02f,-1.72463223e-01f,
-3.00726414e-01f,-3.26836333e-02f,-2.80555133e-02f,+7.07283467e-02f,+3.97320725e-02f,
+1.35751888e-01f,-1.05181128e-01f,+1.52462870e-01f,-1.96397290e-01f,-4.74400669e-02f,
+2.56007612e-01f,+9.52808037e-02f,+2.86588728e-01f,-2.07086086e-01f,-6.25515208e-02f,
+1.50682747e-01f,+1.60210162e-01f,+1.82763845e-01f,-5.64509451e-01f,+4.58915979e-02f,
+1.10153951e-01f,+8.13526846e-03f,+7.24751800e-02f,+1.38841737e-02f,+1.02608763e-01f,
-3.17958817e-02f,-2.21310407e-01f,-2.71633820e-04f,+8.77130330e-02f,+1.71310261e-01f,
+5.99339232e-02f,+2.48296782e-01f,+7.06641302e-02f,+3.47981602e-01f,+1.78879827e-01f,
-2.85871059e-01f,-4.03081886e-02f,+3.36797714e-01f,+1.78154022e-01f,+8.71901810e-02f,
-1.05595924e-01f,+3.59344542e-01f,-7.61137232e-02f,+6.57833368e-02f,-1.08325318e-01f,
+8.27230662e-02f,-1.15185581e-01f,+6.15800694e-02f,+1.12280222e-02f,-8.27099085e-02f,
-2.18566552e-01f,+6.32191524e-02f,-3.95583280e-04f,+1.10428762e-02f,+2.81402618e-02f,
-8.24184343e-02f,+1.34420842e-01f,+8.12652335e-02f,+1.08852491e-01f,-2.94652611e-01f,
+2.08737738e-02f,-9.86913741e-02f,-8.74726474e-02f,+2.69856572e-01f,+2.21779630e-01f,
+2.40011677e-01f,+2.84768902e-02f,-2.22765490e-01f,+7.92873204e-02f,+3.96343395e-02f,
+9.22119692e-02f,-1.61789525e-02f,-9.73771363e-02f,-1.71039939e-01f,-7.04596490e-02f,
-1.26125917e-01f,-7.62128644e-03f,+1.31463557e-01f,+2.19574869e-01f,+9.85224992e-02f,
-1.45537242e-01f,+9.73025262e-02f,+8.01726654e-02f,+1.82712227e-01f,+2.08676562e-01f,
+4.18251865e-02f,-1.52570037e-02f,+1.38421983e-01f,+1.87768683e-01f,+2.53457814e-01f,
-1.45853817e-01f,+6.65711239e-02f,+1.47550523e-01f,+2.38960441e-02f,+2.32187912e-01f,
+3.03156018e-01f,+1.73463196e-01f,-7.33457282e-02f,+1.73629910e-01f,-8.54378939e-02f,
+7.26675764e-02f,+1.27315551e-01f,-9.02172402e-02f,+2.41476521e-01f,-1.89115945e-02f,
-1.03684433e-01f,+1.33004025e-01f,+1.90027282e-01f,+1.49212331e-01f,+1.88483089e-01f,
+6.35137409e-02f,+1.33415386e-02f,+3.38144422e-01f,+4.62305658e-02f,+1.34726718e-01f,
+4.78546210e-02f,+5.71940765e-02f,+1.39589220e-01f,+8.87206346e-02f,-6.77971095e-02f,
-3.49132299e-01f,-5.02471440e-02f,+2.05779374e-01f,-1.29755706e-01f,+1.47404701e-01f,
+1.46876022e-01f,+3.92640494e-02f,+5.13762943e-02f,+4.50166650e-02f,-6.56586513e-02f,
-1.81113377e-01f,+3.84663083e-02f,+9.35989246e-02f,-3.09673119e-02f,-5.40900007e-02f,
+2.27709999e-03f,+1.10381052e-01f,+1.37418360e-01f,-6.68429509e-02f,-1.79109052e-01f,
-5.70861027e-02f,-2.46624529e-01f,+1.15439100e-02f,-1.90078378e-01f,-2.18921274e-01f,
-4.13446903e-01f,-4.86449944e-03f,-3.86191718e-02f,+4.16561216e-02f,+3.17786723e-01f,
+2.55015586e-02f,-4.35250811e-02f,+2.00770810e-01f,+1.23416938e-01f,-6.66091740e-02f,
+2.47920398e-02f,+6.30393922e-02f,-7.53251240e-02f,+1.12025045e-01f,+1.35376751e-01f,
-4.28481326e-02f,-3.99772897e-02f,+5.12165166e-02f,-1.18419506e-01f,-2.86152642e-02f,
-2.10850269e-01f,+1.47640333e-01f,+2.13210762e-01f,+1.87059730e-01f,-1.33473873e-01f,
+4.88708578e-02f,+9.94687676e-02f,-1.40411496e-01f,+1.21561229e-01f,+1.26296943e-02f,
+1.32864282e-01f,+1.45136371e-01f,+1.34118527e-01f,+1.71970293e-01f,-1.60765678e-01f,
+1.17252685e-01f,+2.90866867e-02f,+1.11702316e-01f,-5.06712170e-03f,-3.84761170e-02f,
-1.86165646e-01f,-1.40990153e-01f,+3.07344913e-01f,+6.27223924e-02f,-2.72523798e-03f,
+4.43400070e-03f,+1.06896333e-01f,+1.19868085e-01f,+4.06762183e-01f,+6.66515678e-02f,
-1.17046025e-03f,+4.42518815e-02f,-1.74769044e-01f,+4.78572398e-02f,-1.37880132e-01f,
-9.80884135e-02f,-7.80050829e-02f,-1.71603784e-01f,-3.12993795e-01f,-4.82707508e-02f,
-2.40117103e-01f,+1.53833106e-01f,-3.64533402e-02f,-7.08763674e-02f,+4.52496000e-02f,
-1.26158759e-01f,-6.40169531e-02f,-5.14519066e-02f,+1.00078344e-01f,+1.23680264e-01f,
-3.32184993e-02f,+8.65944698e-02f,+1.37386443e-02f,-6.39322102e-02f,+7.30014965e-02f,
+7.51445368e-02f,-7.13111237e-02f,-8.27909708e-02f,-1.11882454e-02f,-5.39777242e-02f,
+1.00845620e-01f,-2.55976468e-01f,-6.44154986e-03f,-1.12695962e-01f,-1.36217743e-01f,
+2.35042632e-01f,-5.53302057e-02f,-2.33035744e-03f,+1.97871134e-01f,+2.48940930e-01f,
+1.79955661e-01f,-1.99618101e-01f,-9.57865790e-02f,-9.34336334e-03f,-2.69594222e-01f,
+3.82903516e-02f,+1.04802534e-01f,-1.35545656e-01f,-3.55055332e-02f,+5.59888221e-03f,
+2.91691989e-01f,+1.45870462e-01f,-2.58049548e-01f,+7.22238645e-02f,-4.65171561e-02f,
+9.14753526e-02f,+8.34684819e-02f,+1.85890347e-01f,-3.00179571e-01f,-1.32371977e-01f,
-1.72490001e-01f,+5.59292026e-02f,+2.37601027e-01f,+3.58876586e-01f,+7.17240721e-02f,
-5.91945648e-02f,-1.54359400e-01f,-4.78469618e-02f,-5.79384752e-02f,-1.49156256e-02f,
+1.23859078e-01f,-3.03173028e-02f,-1.76592097e-01f,-1.76107332e-01f,-7.90687744e-03f,
+1.90593272e-01f,+2.91229963e-01f,+4.05599587e-02f,-1.47392064e-01f,+3.65092933e-01f,
+3.05018649e-02f,-2.64550865e-01f,+4.96458150e-02f,-2.28167504e-01f,-3.02602202e-02f,
-5.79822361e-02f,-1.18264638e-01f,-2.32473001e-01f,+1.60129741e-01f,+3.72819230e-02f,
-6.43018335e-02f,+5.57601936e-02f,+1.72680557e-01f,+5.88695221e-02f,-2.05435887e-01f,
+1.55261934e-01f,-3.25631022e-01f,-1.01586156e-01f,+2.44841471e-01f,-1.49145806e-02f,
-1.04033560e-01f,-1.49586290e-01f,+2.03720048e-01f,+9.14377272e-02f,-1.83854271e-02f,
+1.20217256e-01f,+8.41930658e-02f,-5.37605397e-02f,+1.74504340e-01f,-1.95850238e-01f,
+2.02167690e-01f,+7.95074701e-02f,+8.83675665e-02f,-1.00922137e-01f,+8.85233507e-02f,
+1.06978983e-01f,+1.59175806e-02f,+3.59613299e-02f,+1.75828248e-01f,-2.09492505e-01f,
+1.10521624e-02f,-6.06190488e-02f,+8.81397799e-02f,+3.08181643e-01f,+3.25893275e-02f,
+5.08222058e-02f,+6.29609004e-02f,+6.92296997e-02f,+1.22885503e-01f,+2.41640694e-02f,
+1.26919866e-01f,+4.24363166e-02f,+6.85292333e-02f,-1.44023061e-01f,-9.95783880e-02f,
-3.00477982e-01f,+1.82834454e-02f,-1.23081550e-01f,-1.11956730e-01f,+2.54216753e-02f,
-7.70619437e-02f,+5.09599708e-02f,-8.44443962e-02f,-1.41121045e-01f,+3.87172922e-02f,
+2.84327626e-01f,-3.08442295e-01f,-4.13219109e-02f,+8.97695571e-02f,-2.15076283e-02f,
-5.15960902e-02f,-2.39277512e-01f,+1.59121275e-01f,+2.89038252e-02f,+2.00923190e-01f,
-2.97664791e-01f,-4.41605300e-02f,+9.89996940e-02f,+1.57496810e-01f,-1.64746821e-01f,
-2.25344840e-02f,+2.07305653e-03f,-1.55882642e-01f,+3.75384092e-02f,-1.23440340e-01f,
-9.62983370e-02f,+2.58308560e-01f,-5.99843711e-02f,-9.84018445e-02f,+1.58158481e-01f,
+3.91815901e-02f,+1.22662388e-01f,-1.81471780e-01f,-1.26532480e-01f,+2.83844583e-02f,
+2.16654286e-01f,+2.04517215e-01f,-1.74658298e-01f,+8.15454498e-02f,-8.70934129e-02f,
+1.94856673e-01f,-1.58700310e-02f,+2.70232875e-02f,+2.87549138e-01f,-1.45980924e-01f,
+6.38919547e-02f,+1.03743978e-01f,+2.34021783e-01f,-8.20092112e-02f,+1.63511876e-02f,
+1.56822596e-02f,+9.85073745e-02f,-2.22175613e-01f,+2.50699231e-03f,-3.27201128e-01f,
-2.00629584e-04f,-1.45111889e-01f,+3.67029041e-01f,-5.23615368e-02f,-3.39877084e-02f,
-4.67996337e-02f,+1.96603566e-01f,-1.09489255e-01f,-2.33710349e-01f,+3.26015651e-02f,
-1.02089429e-02f,-2.24547803e-01f,-2.22220585e-01f,+3.13437954e-02f,+3.03607076e-01f,
-2.91067451e-01f,+2.48776659e-01f,-4.72852178e-02f,-1.54489622e-01f,+2.31965989e-01f,
-7.01920167e-02f,+4.82970513e-02f,+4.37588152e-03f,-5.18302992e-02f,+1.20045424e-01f,
+3.83848287e-02f,-5.21556213e-02f,-1.60072833e-01f,+1.23523273e-01f,-8.10152292e-02f,
-2.15280622e-01f,+8.43074024e-02f,-6.63430095e-02f,-2.80903041e-01f,+5.25017269e-03f,
+2.73559868e-01f,+1.06128544e-01f,-1.04405373e-01f,-1.61482528e-01f,+3.36470380e-02f,
-2.23724887e-01f,-1.76261485e-01f,+8.10437426e-02f,+4.63699512e-02f,-3.89592513e-03f,
-1.43710271e-01f,-1.54755950e-01f,-4.82786335e-02f,+5.04075252e-02f,+8.20363462e-02f,
+2.66157925e-01f,-9.27275270e-02f,-7.52938539e-02f,+1.30273685e-01f,+2.44655043e-01f,
+8.35497677e-02f,-6.62362203e-02f,+4.16173264e-02f,+2.49878049e-01f,+6.37788847e-02f,
+2.14745253e-01f,+1.75195575e-01f,-3.25154573e-01f,-1.43963424e-02f,-6.83770031e-02f,
-1.07497744e-01f,+1.12985797e-01f,+2.70819902e-01f,+8.64088237e-02f,+2.74890155e-01f,
+2.29997382e-01f,+3.40839177e-02f,+3.43936868e-03f,-7.77007192e-02f,-3.82171512e-01f,
+2.75673643e-02f,-1.81500912e-01f,-1.79416299e-01f,+9.30492580e-02f,-4.03315611e-02f,
+3.91625799e-02f,+2.40443721e-02f,-7.93649778e-02f,-6.97852075e-02f,+1.93709090e-01f,
-1.12304300e-01f,-2.03703314e-01f,-1.15636982e-01f,+2.56504774e-01f,+1.28756615e-03f,
+2.24936619e-01f,-2.71431841e-02f,-3.73000116e-03f,-8.22664872e-02f,+2.98211783e-01f,
-4.15837654e-04f,+8.64907056e-02f,+2.59250879e-01f,+1.61028147e-01f,+2.72697839e-03f,
+4.45825249e-01f,+1.50734633e-01f,+1.46298483e-01f,+1.71143189e-01f,+2.09241390e-01f,
+1.39085101e-02f,+7.74865896e-02f,+2.70601958e-01f,+1.09896563e-01f,+2.23930791e-01f,
+1.35650381e-01f,-2.85670668e-01f,-1.25488147e-01f,+1.53661802e-01f,+1.24235652e-01f,
+3.38696726e-02f,+1.49735108e-01f,+4.96643819e-02f,+7.71621689e-02f,+2.34069616e-01f,
-9.12407264e-02f,-3.11467111e-01f,+1.75927773e-01f,+1.71507075e-01f,+3.11651081e-02f,
+5.35608754e-02f,+6.58191890e-02f,-2.68193007e-01f,+1.24916449e-01f,-1.98968902e-01f,
-3.22550893e-01f,-1.94171458e-01f,+2.59850830e-01f,+1.23840021e-02f,-1.35725409e-01f,
+2.46920258e-01f,+3.39612842e-01f,-5.82604557e-02f,+1.37534291e-01f,+1.64407715e-01f,
-2.46735856e-01f,-8.94640759e-02f,+1.09219737e-01f,+8.36593658e-02f,+1.28753139e-02f,
-1.20235808e-01f,+6.48426861e-02f,-9.01769847e-03f,+2.63091046e-02f,+6.89433515e-02f,
-1.43436074e-01f,+1.95937660e-02f,+1.45125151e-01f,+2.51279697e-02f,+2.02541187e-01f,
+8.59719440e-02f,+1.30922183e-01f,+6.49966896e-02f,+2.49091852e-02f,+5.09748831e-02f,
+2.45412394e-01f,-1.13492772e-01f,+9.42992978e-03f,+1.03180110e-01f,-3.26392919e-01f,
-1.54255271e-01f,+1.20522603e-01f,-1.23438694e-01f,+5.43051064e-02f,+2.07560569e-01f,
+1.02218457e-01f,+1.20684423e-01f,+2.40599379e-01f,+1.42023653e-01f,+2.70608723e-01f,
+1.70301646e-01f,+1.02087893e-01f,-7.10533187e-02f,+1.71211407e-01f,+3.15153599e-02f,
+8.26386735e-02f,-3.21568549e-02f,+1.52008578e-01f,-4.92063046e-01f,-4.56525125e-02f,
+7.93150216e-02f,-3.93520921e-01f,-4.08529937e-02f,-1.86453313e-01f,+1.37564957e-01f,
-9.46993306e-02f,+4.97387759e-02f,-1.17873266e-01f,-2.06367388e-01f,+1.17209770e-01f,
+1.16392653e-02f,+1.15420885e-01f,-5.68188354e-02f,-6.14409819e-02f,-1.92699224e-01f,
-1.26326710e-01f,-1.24894150e-01f,-1.62826240e-01f,-1.97623461e-01f,+4.83734459e-02f,
-6.24672286e-02f,-2.01762229e-01f,+6.13894546e-03f,-2.15966180e-01f,+4.62547630e-01f,
+7.31513128e-02f,+1.05817884e-01f,+2.83495873e-01f,+2.66003937e-01f,+8.61648023e-02f,
+4.51737158e-02f,+6.58408627e-02f,+4.49641228e-01f,+9.40780267e-02f,-1.79189190e-01f,
+2.75638342e-01f,+1.02843061e-01f,-5.14262468e-02f,+1.34860158e-01f,+1.28674537e-01f,
-7.37809576e-03f,-2.92066038e-02f,-9.46042836e-02f,+1.05679408e-01f,+5.82985103e-01f,
+2.15907738e-01f,+5.91254607e-02f,-4.97973636e-02f,+4.68776882e-01f,-1.38325542e-01f,
-1.13833353e-01f,+8.77041928e-03f,+2.09051907e-01f,+2.41913646e-01f,+1.31359607e-01f,
-1.48842350e-01f,-5.48438653e-02f,-2.10694671e-01f,+1.68966934e-01f,+1.76373690e-01f,
+5.91194555e-02f,-5.97693808e-02f,-1.32881925e-02f,+1.55775994e-01f,+2.72963673e-01f,
+1.20307624e-01f,-8.68725851e-02f,-2.35061236e-02f,+8.57731029e-02f,-1.02995083e-01f,
+2.07379311e-01f,+2.32204065e-01f,+1.65482745e-01f,-2.82039255e-01f,-6.94070905e-02f,
-8.16867650e-02f,-1.46645024e-01f,-4.33265828e-02f,+2.37992123e-01f,+3.51970285e-01f,
+1.51708722e-01f,+7.02880844e-02f,-7.74767995e-02f,+3.31432551e-01f,+1.25927746e-01f,
+1.46430925e-01f,+2.17824057e-01f,-5.27894735e-01f,+1.64741650e-02f,+6.09408272e-03f,
+2.63306051e-01f,+2.52096746e-02f,-1.85901046e-01f,+7.48423263e-02f,-9.36400741e-02f,
-1.85778141e-01f,+1.90697797e-02f,+6.37155473e-02f,-3.08119148e-01f,+3.47351991e-02f,
-6.43832162e-02f,-3.84760462e-02f,-4.23916150e-03f,+5.87010756e-02f,+1.44001454e-01f,
+1.83405787e-01f,+9.34751481e-02f,+1.99252777e-02f,-7.24347830e-02f,-2.10044831e-01f,
-3.34692180e-01f,+2.85712816e-02f,-6.26484677e-02f,-8.34418982e-02f,-1.83103196e-02f,
-2.39543334e-01f,+2.24072993e-01f,-4.60471734e-02f,-1.55027509e-01f,+1.44006073e-01f,
+1.73812464e-01f,+2.94746250e-01f,+2.35216059e-02f,+1.74705405e-02f,+2.36076787e-01f,
-8.42621252e-02f,+1.31282389e-01f,+3.03279221e-01f,-1.85113158e-02f,+2.74019599e-01f,
+2.82208566e-02f,+3.75465631e-01f,+6.36093169e-02f,+6.32452825e-03f,-1.23877704e-01f,
+2.81590167e-02f,+3.67542766e-02f,-4.45037298e-02f,+4.89472955e-01f,+1.84101071e-02f,
+3.21324393e-02f,+4.78062369e-02f,+5.11484891e-02f,+5.33273164e-03f,+3.87252830e-02f,
-5.80225661e-02f,-1.28729463e-01f,+4.40835617e-02f,-2.01342642e-01f,-5.10415807e-02f,
-9.52674672e-02f,+2.40110621e-01f,-5.14894947e-02f,-1.91896204e-02f,+4.72016931e-01f,
+1.37916073e-01f,+4.25094426e-01f,-9.54567418e-02f,-4.74415086e-02f,+2.67660737e-01f,
+9.19270143e-02f,-4.31242973e-01f,+4.52801250e-02f,+4.11362983e-02f,-1.54257342e-01f,
+1.80973839e-02f,-7.04561844e-02f,+1.10848807e-01f,+1.38899773e-01f,-2.20718443e-01f,
+5.05348556e-02f,+4.07416433e-01f,-8.98068324e-02f,+4.07606065e-02f,+1.60149679e-01f,
+1.85183529e-02f,+6.85152188e-02f,+1.31887302e-01f,+5.24274679e-03f,-1.26401037e-01f,
+9.74940360e-02f,+1.39345422e-01f,+1.05706573e-01f,+2.76624471e-01f,+3.15450653e-02f,
+1.66867465e-01f,-5.13290837e-02f,-1.22043520e-01f,+1.93240643e-01f,+1.77200228e-01f,
-2.93931700e-02f,+3.97222489e-03f,-1.25798866e-01f,+6.19940162e-02f,+8.31100494e-02f,
+7.62052983e-02f,+1.74567878e-01f,+3.97253260e-02f,-9.39154178e-02f,+1.29475802e-01f,
-1.16206147e-01f,-7.29960278e-02f,+3.55702519e-01f,+1.93060011e-01f,+8.39180723e-02f,
+4.67094816e-02f,-1.79202244e-01f,-1.27828289e-02f,+1.37065709e-01f,-8.29377621e-02f,
-1.30686626e-01f,-3.08651924e-01f,-1.63125709e-01f,+1.74812973e-01f,-2.33312517e-01f,
+2.13009626e-01f,+1.47165596e-01f,+5.54046826e-03f,+2.04023123e-01f,+5.03752492e-02f,
-2.64553785e-01f,-4.53850552e-02f,+1.70507655e-01f,-6.17081113e-02f,+1.60422206e-01f,
+5.83728433e-01f,+1.74605310e-01f,+1.60486072e-01f,+1.61347553e-01f,-2.24370137e-01f,
+7.29083344e-02f,+1.28922358e-01f,+3.00757259e-01f,-2.20360652e-01f,-1.28822878e-01f,
+3.63097601e-02f,+1.06039874e-01f,-1.91777170e-01f,-6.82102814e-02f,+4.71561588e-02f,
+1.35052055e-01f,-4.10732888e-02f,-8.48922506e-02f,-6.09742701e-02f,+4.37060535e-01f,
+2.62690544e-01f,+6.46646023e-02f,-8.98778141e-02f,+1.41063798e-02f,-3.55582312e-02f,
+5.47008254e-02f,+3.26707542e-01f,-1.07415877e-01f,-2.71363892e-02f,-2.81820506e-01f,
-3.05052280e-01f,-8.88242200e-02f,+1.29406631e-01f,-2.56357819e-01f,+3.93980965e-02f,
+2.32042387e-01f,-1.17470333e-02f,-1.49001658e-01f,-3.86949554e-02f,+2.52788782e-01f,
-1.32621437e-01f,-7.48898834e-02f,-1.38799116e-01f,-1.28540426e-01f,-2.27751061e-02f,
+4.22558933e-01f,-2.18525454e-01f,-6.23967461e-02f,+2.96360403e-02f,+3.02043743e-02f,
-1.01228088e-01f,+1.25907823e-01f,-1.34917945e-01f,-7.98202679e-02f,+3.39110345e-01f,
+1.39256164e-01f,+1.92346498e-01f,+1.99337170e-01f,-7.26590604e-02f,-9.47143696e-03f,
-1.20777138e-01f,+1.94332808e-01f,+2.14257091e-01f,+5.92181720e-02f,+9.83297825e-02f,
+1.48848034e-02f,-1.75300062e-01f,+1.89959958e-01f,+5.82803488e-02f,+1.26394376e-01f,
+1.74726993e-01f,-1.88668847e-01f,-1.36233509e-01f,-9.64113474e-02f,-1.23612136e-01f,
+6.85687959e-02f,-1.34535700e-01f,-2.93023854e-01f,+9.12649855e-02f,+1.51804164e-01f,
-1.83957070e-01f,+3.77629638e-01f,-1.33642077e-01f,-2.52236724e-01f,+4.77534980e-02f,
-8.25857297e-02f,-2.62355655e-01f,-1.18081652e-01f,+7.76802748e-02f,-1.83061082e-02f,
+1.50816768e-01f,-1.39127731e-01f,-8.51011500e-02f,+5.79333678e-02f,+6.37488149e-04f,
-6.16280288e-02f,+3.04461211e-01f,+8.19994584e-02f,+1.17560942e-02f,+1.15669638e-01f,
+2.77264208e-01f,+1.77416224e-02f,-3.65327269e-01f,-6.75049052e-02f,+1.65581028e-03f,
+3.26108262e-02f,+1.49884701e-01f,+2.25176960e-01f,-1.40732020e-01f,+1.42655924e-01f,
-1.08408466e-01f,-2.07624137e-01f,-2.10827395e-01f,+2.97657251e-01f,+2.39652372e-03f,
+9.42590311e-02f,-2.58112289e-02f,+1.45751713e-02f,-1.60054641e-03f,+1.83802515e-01f,
+1.23109832e-01f,-3.51696834e-02f,+1.17430076e-01f,+9.31071490e-02f,-1.03386648e-01f,
-5.38999364e-02f,+2.04276100e-01f,-1.29266024e-01f,-5.73477820e-02f,+1.63567156e-01f,
+1.41764864e-01f,-7.87336603e-02f,-2.14446276e-01f,+1.96776941e-01f,-2.24012822e-01f,
+2.16326848e-01f,+2.88174808e-01f,+2.76050478e-01f,+3.55727039e-02f,+3.48496437e-01f,
-9.32589769e-02f,-1.53355524e-01f,-1.77635238e-01f,-1.39767423e-01f,+1.34194016e-01f,
-9.36668888e-02f,+3.03996682e-01f,-1.48950815e-01f,+4.67409492e-01f,+7.94403628e-02f,
+1.27162173e-01f,+1.27369359e-01f,+6.74840882e-02f,+1.24770105e-01f,+9.77602899e-02f,
+6.88489154e-02f,+1.87779099e-01f,+7.62264803e-02f,+2.32994571e-01f,-9.70400944e-02f,
+2.26076052e-01f,+2.49797538e-01f,-1.58349738e-01f,+1.79049298e-02f,+2.18683958e-01f,
-3.77485156e-02f,+2.64375180e-01f,+1.35872066e-01f,-1.50432214e-01f,-6.55934662e-02f,
+8.35319534e-02f,+6.90061748e-02f,+2.57367134e-01f,+2.48399228e-01f,-6.95641190e-02f,
-6.76883534e-02f,+2.49150366e-01f,-2.76836932e-01f,+2.67953854e-02f,-6.35082694e-03f,
+1.27818957e-01f,+1.74275991e-02f,-9.72839445e-02f,+2.03575697e-02f,-4.71086130e-02f,
-2.05494523e-01f,+1.54702857e-01f,+2.31046882e-02f,+7.13283345e-02f,-2.49882296e-01f,
-1.30353972e-01f,+2.50150532e-01f,-1.21899493e-01f,+1.21916287e-01f,+7.74165243e-02f,
-1.12470761e-02f,+7.79542550e-02f,+7.25439787e-02f,-2.81864963e-03f,+1.39156103e-01f,
-3.81372347e-02f,+1.86470582e-03f,+9.25238186e-04f,-1.05460986e-01f,-3.23460996e-01f,
-1.65888086e-01f,+3.22102639e-03f,+2.36464348e-02f,+1.31340250e-01f,+2.74444699e-01f,
-6.56517819e-02f,+9.09590721e-03f,+1.77311048e-01f,+6.65643811e-02f,+2.47704282e-01f,
-1.52271435e-01f,+3.29694182e-01f,+8.29094499e-02f,+2.91817009e-01f,-6.15353435e-02f,
+4.54066172e-02f,+1.77691549e-01f,+2.65000075e-01f,+1.16328999e-01f,+2.59071559e-01f,
+5.80491684e-02f,-2.58761078e-01f,+4.58321236e-02f,-2.68425405e-01f,-3.28616649e-01f,
-7.86857083e-02f,+7.01915100e-02f,-3.68576054e-03f,+2.81750679e-01f,+1.86582059e-01f,
-3.60830431e-03f,+1.37394354e-01f,-3.04694444e-01f,-7.21111298e-02f,+6.56762049e-02f,
+5.92100359e-02f,-6.77601993e-02f,-2.50766426e-01f,+1.52325882e-02f,+2.47378588e-01f,
-1.61810070e-01f,+7.97543973e-02f,+1.07441701e-01f,-6.70350390e-03f,-1.08548775e-01f,
+5.69525622e-02f,+1.59422066e-02f,-5.03379032e-02f,+9.79600921e-02f,+4.93063815e-02f,
+1.78343225e-02f,+4.23601329e-01f,+6.60943463e-02f,-1.26308158e-01f,-1.97507143e-01f,
+1.25999436e-01f,-3.00807655e-01f,+9.22160521e-02f,+4.83415388e-02f,+2.25583851e-01f,
+3.92463029e-04f,-3.91904898e-02f,-7.03598857e-02f,+3.31901580e-01f,+6.46107867e-02f,
+1.81841895e-01f,+2.61381805e-01f,+6.22637533e-02f,+1.08105808e-01f,+1.17027350e-01f,
+1.76175073e-01f,-2.20944330e-01f,-9.73078981e-02f,+6.55022934e-02f,-9.04983059e-02f,
+6.81806952e-02f,-9.92534384e-02f,-2.23798364e-01f,-8.54832679e-03f,+1.09150387e-01f,
-1.13401890e-01f,-7.01497123e-03f,-2.06944808e-01f,-5.79263307e-02f,-1.29944384e-01f,
+2.07509235e-01f,-2.53668845e-01f,-7.88923204e-02f,+1.98992770e-02f,+7.34737962e-02f,
+8.50909874e-02f,+7.38731921e-02f,+7.26212142e-03f,+1.39013648e-01f,+4.77154739e-02f,
-2.25524575e-01f,-9.44808945e-02f,-2.29072481e-01f,+1.44053221e-01f,-1.61610160e-03f,
-1.99729308e-01f,+1.34522349e-01f,-1.94476739e-01f,+6.90508410e-02f,-1.55694839e-02f,
-3.25128853e-01f,-2.54498869e-02f,+1.12744704e-01f,+1.07237451e-01f,-2.16212243e-01f,
+2.80965865e-02f,-1.74593940e-01f,+3.66880983e-01f,-1.06759090e-03f,+1.28602013e-01f,
+3.11772019e-01f,-5.32375602e-03f,-2.05016527e-02f,-3.63697916e-01f,-2.40605563e-01f,
-1.46765023e-01f,-2.96449792e-02f,+5.75985983e-02f,-7.24406093e-02f,-1.39137194e-01f,
+1.03701375e-01f,-1.40593722e-01f,-5.20316772e-02f,-4.87475749e-03f,+2.49323562e-01f,
-1.96310766e-02f,+1.83991820e-01f,+1.02307431e-01f,+4.61267941e-02f,+1.54792517e-01f,
+3.46550457e-02f,-2.37104646e-03f,+2.23021135e-02f,-1.04778692e-01f,-9.30651650e-03f,
-7.12888166e-02f,-1.39774412e-01f,+1.96198419e-01f,-2.91835442e-02f,-2.81050980e-01f,
-4.17372435e-01f,+4.91608642e-02f,+2.89441556e-01f,+2.20265850e-01f,+1.58538550e-01f,
-6.29902408e-02f,+1.05261557e-01f,+9.70567912e-02f,+1.36133924e-01f,-3.13556977e-02f,
-9.33665410e-02f,+1.40731484e-01f,+1.10843055e-01f,-5.92956096e-02f,+6.50997683e-02f,
-2.75891423e-02f,+6.44171014e-02f,+1.20367467e-01f,+1.09668724e-01f,-1.17276451e-02f,
+2.63276130e-01f,+3.84262711e-01f,+2.04834267e-01f,+1.28528411e-02f,+3.18541820e-03f,
+1.18274793e-01f,+1.89688250e-01f,+1.76845044e-01f,-4.15885001e-01f,-1.02427020e-03f,
-1.62510991e-01f,+1.31268620e-01f,-8.88617430e-03f,+3.96416448e-02f,+1.64436698e-01f,
-4.47660945e-02f,-4.25573550e-02f,+7.25544617e-02f,-1.59586295e-01f,-2.63375845e-02f,
+9.17983875e-02f,-1.86657459e-01f,+1.35895297e-01f,-8.97805542e-02f,-9.93672460e-02f,
+8.51085037e-03f,+1.07403837e-01f,+1.67421952e-01f,+1.43194031e-02f,-1.25322267e-01f,
+5.64711653e-02f,+1.29755810e-01f,-4.62790057e-02f,+2.63305791e-02f,-2.12557688e-02f,
-2.64950506e-02f,+5.41464835e-02f,+3.64021733e-02f,-2.73697197e-01f,-7.39840418e-02f,
+1.66644100e-02f,+2.61391759e-01f,+3.99240851e-03f,+9.92592126e-02f,-1.44093603e-01f,
+5.83139285e-02f,+1.53163239e-01f,-1.20662495e-01f,-2.22081378e-01f,+1.61715541e-02f,
-1.09369457e-02f,-2.08681449e-03f,-1.00453451e-01f,+1.70372590e-01f,-5.22465631e-02f,
+2.25369349e-01f,+1.53169349e-01f,-3.87991592e-02f,-1.76310707e-02f,-2.24817932e-01f,
-7.69633725e-02f,-1.72347263e-01f,+5.22801355e-02f,-6.74789622e-02f,+3.50487113e-01f,
-4.91764396e-03f,+5.90213723e-02f,+1.36755154e-01f,-1.79551065e-01f,+1.00306973e-01f,
+3.84515300e-02f,+1.12716578e-01f,+1.23283722e-01f,+1.95015892e-02f,+1.34778842e-01f,
+1.27652407e-01f,+1.21743008e-01f,+3.33621651e-01f,+1.97993726e-01f,+1.21159427e-01f,
-3.56107065e-03f,-1.60998762e-01f,-1.41432369e-02f,-1.72990635e-01f,-1.08983375e-01f,
+1.54318392e-01f,-6.33463413e-02f,+7.98622519e-02f,+9.21609029e-02f,-1.31458461e-01f,
-3.97693962e-02f,+5.66631258e-02f,+6.46558776e-02f,+8.62143189e-02f,+2.83147931e-01f,
+4.10810381e-01f,+1.70114353e-01f,+2.72235721e-01f,-2.33395278e-01f,+2.62815859e-02f,
-7.71311969e-02f,-1.37611330e-02f,-1.44500405e-01f,-2.79779434e-01f,-1.09278120e-01f,
+5.49389459e-02f,+1.33515969e-01f,-6.02128915e-02f,-1.22485124e-01f,+1.16064318e-01f,
-1.24334112e-01f,+2.43353531e-01f,+1.10277668e-01f,+3.92023504e-01f,+1.95950624e-02f,
-1.24914557e-01f,+2.08059866e-02f,+3.71728651e-02f,+1.78434793e-02f,+8.99684057e-02f,
-6.03923015e-02f,-7.57424161e-02f,-2.14202181e-01f,+1.06079817e-01f,+2.23798715e-02f,
+1.08266316e-01f,+1.17305994e-01f,-2.98915599e-02f,+1.99192211e-01f,+1.67963341e-01f,
+1.33799791e-01f,+1.64010376e-01f,+1.03162080e-02f,+1.23758316e-01f,+1.33964047e-01f,
-2.41587654e-01f,-1.08217657e-01f,+1.78436607e-01f,-2.44861528e-01f,+2.00996518e-01f,
-1.87710419e-01f,+4.83881645e-02f,-2.27229409e-02f,+1.73878502e-02f,+7.54172802e-02f,
-7.43332431e-02f,-1.73513934e-01f,-1.83822047e-02f,-8.12206697e-03f,-4.44862917e-02f,
-1.34968713e-01f,+3.31896663e-01f,+6.30945638e-02f,+2.66697817e-02f,-8.62945095e-02f,
-2.87401341e-02f,+1.43594295e-01f,+5.63978441e-02f,+3.50684434e-01f,+1.87925115e-01f,
+9.01123956e-02f,+1.15230061e-01f,+5.53947799e-02f,-1.99264497e-01f,-1.21133000e-01f,
+7.39013925e-02f,-1.64454788e-01f,+4.41354811e-02f,-6.81113824e-03f,+2.35196874e-01f,
-1.79954782e-01f,+6.61165267e-02f,+1.65875241e-01f,+1.39208212e-01f,+1.37092695e-01f,
+9.81001630e-02f,-6.79785311e-02f,+7.49215484e-02f,-8.47125128e-02f,+2.41607368e-01f,
-4.23711985e-02f,-2.65849959e-02f,+2.63515897e-02f,+2.78299630e-01f,+1.60535306e-01f,
+6.99458569e-02f,+7.35288933e-02f,-8.60316381e-02f,+1.43495217e-01f,+2.68652216e-02f,
-1.98140919e-01f,+1.26370862e-01f,-1.68378741e-01f,+3.28054368e-01f,+6.19221367e-02f,
-1.55700549e-01f,-5.27182035e-02f,+3.00603151e-01f,-4.20379877e-01f,+8.12194794e-02f,
+1.84134692e-01f,+2.23373413e-01f,+6.20631389e-02f,-2.12687766e-03f,-4.60797921e-02f,
-1.79674610e-01f,+7.82819390e-02f,-4.09979187e-02f,+2.96877444e-01f,-1.34668007e-01f,
-6.20447434e-02f,+2.10377783e-01f,-4.57218513e-02f,+4.23926115e-03f,-4.28543948e-02f,
+1.49875730e-01f,+1.44677654e-01f,+6.59429505e-02f,-1.37155429e-01f,+7.42183253e-02f,
-2.18589023e-01f,-1.66595522e-02f,-3.36239129e-01f,-2.86567003e-01f,+1.19160928e-01f,
-2.86105238e-02f,+1.49449170e-01f,+2.13961855e-01f,+1.36045530e-01f,-1.11624084e-01f,
+2.89341897e-01f,-2.14774311e-01f,+2.01621965e-01f,+7.30469152e-02f,+1.14194974e-01f,
+3.13114487e-02f,-3.38431358e-01f,+1.04001969e-01f,-2.90289745e-02f,-5.79266883e-02f,
+4.24735732e-02f,-1.56616326e-02f,-2.44595230e-01f,-1.37275532e-01f,+1.32372364e-01f,
+8.31250697e-02f,+2.71489978e-01f,-7.01456219e-02f,+5.62229492e-02f,+8.09327662e-02f,
+4.10054289e-02f,-1.85653031e-01f,-1.35271652e-02f,-1.22504689e-01f,+1.83718488e-01f,
+1.38212303e-02f,+2.75151700e-01f,+3.96512859e-02f,-9.76020750e-03f,-1.04954895e-02f,
-2.54979223e-01f,-5.21774665e-02f,-2.30621070e-01f,-5.41096926e-02f,-1.25761300e-01f,
+3.14004332e-01f,+3.05948947e-02f,+9.24150348e-02f,-1.54550552e-01f,+2.18013246e-02f,
+1.04931615e-01f,+2.73645902e-03f,+1.10904835e-01f,-2.19224375e-02f,+7.65282288e-02f,
-1.72335356e-01f,+9.32578593e-02f,-3.61460596e-02f,+9.84866917e-02f,+3.21462035e-01f,
-7.03825802e-02f,+1.28792048e-01f,+9.30079892e-02f,-1.04757845e-01f,+4.50250413e-03f,
-1.36603862e-01f,+8.74128044e-02f,-9.80701968e-02f,+1.57364964e-01f,+2.36024082e-01f,
-8.21000040e-02f,+8.10403451e-02f,+6.77418485e-02f,+9.56482217e-02f,-2.15328425e-01f,
+2.14157104e-02f,+8.30643699e-02f,-4.77016009e-02f,+2.87801564e-01f,-8.30404386e-02f,
+1.07665032e-01f,-1.35697067e-01f,+1.95147753e-01f,-4.12665829e-02f,-1.75185092e-02f,
-1.71422809e-01f,-1.71859533e-01f,+8.54634196e-02f,+4.71114852e-02f,+1.49333656e-01f,
+1.78243175e-01f,-7.50294551e-02f,-1.67207539e-01f,+8.06798339e-02f,-5.89836240e-02f,
+9.79760885e-02f,-7.07036853e-02f,-2.18978673e-01f,-3.52530852e-02f,-2.91815847e-01f,
-3.05316504e-02f,-1.31037414e-01f,-3.39909084e-02f,+1.89796299e-01f,-4.53853607e-02f,
+2.49661237e-01f,+2.18738288e-01f,+1.17170520e-01f,+8.51702765e-02f,+1.23347037e-01f,
-3.40307429e-02f,+1.02045856e-01f,+2.95588613e-01f,-8.78437236e-02f,+1.98571995e-01f,
+1.50430515e-01f,+5.44498898e-02f,+7.16524944e-02f,+2.29704916e-01f,+9.73831397e-03f,
+2.03704819e-01f,-1.09949060e-01f,+5.47117405e-02f,+1.83523014e-01f,+1.98905230e-01f,
+1.18755899e-01f,-1.47360086e-01f,+5.82969747e-02f,-1.49875209e-01f,+1.85320541e-01f,
-1.26119340e-02f,-2.09187696e-04f,-4.29034010e-02f,+1.24055438e-01f,+1.06541164e-01f,
+9.27436054e-02f,-7.39651099e-02f,+1.71619400e-01f,+9.08418279e-03f,-1.11432537e-01f,
+6.92351311e-02f,-3.13686073e-01f,+3.57984275e-01f,+1.26329705e-01f,+1.86713725e-01f,
-8.44900459e-02f,+3.75484750e-02f,-6.70578107e-02f,-4.25001932e-03f,+1.17157817e-01f,
+1.18308544e-01f,+4.15645726e-02f,+7.88244009e-02f,+7.17129260e-02f,+5.01120202e-02f,
+1.88637540e-01f,-1.54281214e-01f,+2.16583565e-01f,+5.57430983e-02f,+7.23298341e-02f,
+7.35307932e-02f,+8.13743845e-02f,-1.80352200e-02f,-9.56040062e-03f,+5.75579554e-02f,
-1.44842550e-01f,-3.38688456e-02f,+1.90193400e-01f,+1.20974906e-01f,+1.13691047e-01f,
-5.00409678e-03f,+1.73169822e-01f,+8.66840333e-02f,+2.11773381e-01f,+6.97548538e-02f,
-9.15856436e-02f,+5.92876319e-03f,-7.65407458e-02f,+6.16889708e-02f,+1.36421859e-01f,
-1.17445633e-01f,+1.71898643e-03f,-1.81017056e-01f,+5.91799319e-02f,+1.28486365e-01f,
+2.05409825e-01f,+4.85649705e-02f,+2.18291283e-01f,+2.11662158e-01f,+2.78764479e-02f,
+2.98328940e-02f,-2.71701664e-02f,+1.37522984e-02f,-2.84016550e-01f,+4.29982357e-02f,
+3.49406004e-02f,+1.41545990e-03f,+2.94102039e-02f,-1.58061147e-01f,-4.19482887e-02f,
+1.86385155e-01f,-4.24402691e-02f,+2.35894695e-02f,-8.95156804e-03f,-1.17120340e-01f,
-1.72372116e-03f,+7.28376657e-02f,-2.03901634e-01f,+3.84344339e-01f,+2.68386640e-02f,
-6.57201884e-03f,+3.15382890e-02f,+2.13131040e-01f,-1.63943484e-01f,-3.01636696e-01f,
-1.83350861e-01f,+6.99682906e-02f,+2.57787436e-01f,+5.58531061e-02f,+6.50559217e-02f,
-1.21183909e-01f,+7.39193410e-02f,+4.34704013e-02f,+5.33685368e-03f,+5.96847758e-02f,
-3.82226817e-02f,+1.39532894e-01f,+1.91303287e-02f,+1.13191225e-01f,+1.56702027e-01f,
-5.62220700e-02f,-2.00594644e-04f,-1.19311707e-02f,+8.83471407e-03f,+4.13902216e-02f,
+2.85387427e-01f,-6.76215068e-02f,+3.01877707e-02f,+1.50591925e-01f,+9.69616324e-02f,
+1.28497258e-01f,+3.48685794e-02f,+9.76510718e-02f,+1.52830169e-01f,+3.15494716e-01f,
-8.24257359e-02f,-2.65950322e-01f,+9.50387716e-02f,-2.70540446e-01f,+1.80583820e-01f,
+4.52008136e-02f,+7.89004341e-02f,+1.02529123e-01f,-2.23469362e-01f,-1.48861200e-01f,
+9.09821317e-03f,+5.21337762e-02f,+1.66175485e-01f,+1.96919098e-01f,-9.99455005e-02f,
+8.10064226e-02f,+2.50099171e-02f,+2.06556574e-01f,+2.33196318e-02f,-2.52753012e-02f,
-6.58767298e-02f,-3.60935298e-03f,+1.15001082e-01f,-1.01996154e-01f,+1.34683922e-01f,
-8.02164301e-02f,+2.78640926e-01f,+2.45765716e-01f,+5.50901704e-02f,-1.09502673e-01f,
-3.22322361e-02f,-1.51825190e-01f,+5.75332791e-02f,-8.38781521e-02f,+1.70646593e-01f,
+1.26211718e-01f,-2.39389285e-01f,+1.66931942e-01f,-5.82466982e-02f,-9.18771699e-02f,
-2.41116568e-01f,-1.35059580e-01f,+1.13046817e-01f,-1.27873108e-01f,+8.31812695e-02f,
-9.89098996e-02f,-3.11186872e-02f,-1.89437810e-02f,+3.01494986e-01f,+1.20377563e-01f,
+5.99662125e-01f,-2.54909515e-01f,+5.55055104e-02f,+4.12318930e-02f,+1.04149505e-01f,
-9.59355235e-02f,-9.29824337e-02f,-6.38823910e-03f,+2.23976463e-01f,+5.09178964e-04f,
+3.81798781e-02f,-1.95917681e-01f,+3.42444807e-01f,-8.57378468e-02f,+6.02521189e-02f,
-1.13355485e-03f,-1.22994982e-01f,-3.27643186e-01f,+1.76732317e-01f,+3.22078407e-01f,
+2.29182765e-01f,+2.34671831e-01f,-4.69391271e-02f,-1.43403441e-01f,-1.47430794e-02f,
+1.39491692e-01f,-1.32403791e-01f,+2.00116470e-01f,-1.63481340e-01f,-1.10410072e-01f,
+7.37627894e-02f,+2.11779550e-01f,+3.82592715e-02f,-1.94269180e-01f,+2.07991436e-01f,
+3.90465319e-01f,-3.28737557e-01f,-1.08927257e-01f,+1.33340545e-02f,+5.79404756e-02f,
+8.79280269e-02f,+8.07974786e-02f,+2.78313071e-01f,+2.23158970e-01f,-2.55610764e-01f,
+1.90220505e-01f,-9.98270363e-02f,-2.32441239e-02f,-5.38859665e-02f,-4.27869409e-02f,
+5.14674447e-02f,+1.57012269e-01f,+1.01799048e-01f,+2.64793653e-02f,+7.64248744e-02f,
-1.03975065e-01f,-1.78186387e-01f,+3.06714922e-01f,-1.59767464e-01f,+1.91638038e-01f,
+9.71774235e-02f,-1.68342963e-01f,+1.80598781e-01f,+2.18347814e-02f,+2.89884269e-01f,
-9.90943760e-02f,+1.17947355e-01f,-1.08233392e-01f,+3.00187618e-01f,+3.52466583e-01f,
-2.34946877e-01f,+1.75005510e-01f,-1.43533781e-01f,+2.51317471e-01f,+1.18667364e-01f,
+7.41681680e-02f,-4.71127406e-02f,-2.04073682e-01f,+1.48797080e-01f,+5.01715168e-02f,
-2.25839242e-02f,-2.87995487e-01f,+1.50660560e-01f,+1.29185706e-01f,-8.90856981e-02f,
+9.48191446e-04f,-9.24139395e-02f,+1.94584310e-01f,+4.89681512e-02f,-3.83225322e-01f,
-1.54775027e-02f,-5.56670576e-02f,-1.03856929e-01f,-1.50069937e-01f,-1.77622020e-01f,
-1.26835692e-03f,+9.07308236e-02f,-1.00096770e-01f,-7.51256421e-02f,-5.73074305e-03f,
+3.11881751e-01f,-1.94843307e-01f,+9.91915390e-02f,-1.27189517e-01f,-1.97354645e-01f,
-3.25106196e-02f,+6.86436966e-02f,-1.03159994e-02f,+2.43989423e-01f,-1.02988362e-01f,
-7.61152804e-02f,+3.85842472e-01f,+2.72792965e-01f,+9.03488174e-02f,+1.04175225e-01f,
+5.91051206e-02f,-2.02050228e-02f,+1.88715443e-01f,+7.91009888e-02f,+2.58443087e-01f,
+6.07955530e-02f,+3.42072964e-01f,+1.45152003e-01f,+6.22071400e-02f,+1.23272471e-01f,
+1.46505073e-01f,-2.06699744e-02f,-9.08019468e-02f,+4.66173559e-01f,+8.08593929e-02f,
+1.01297595e-01f,+1.98491246e-01f,+1.30849496e-01f,-1.31401792e-01f,-1.19834989e-01f,
-1.00636303e-01f,-2.06195503e-01f,+5.17331325e-02f,+3.16922396e-01f,+2.43094042e-01f,
-2.27786884e-01f,+5.71453311e-02f,+7.14161918e-02f,-1.50649861e-01f,-9.66110379e-02f,
+5.86184077e-02f,-1.10370018e-01f,+5.06649551e-04f,+1.02433339e-01f,+1.50791019e-01f,
+1.81659609e-01f,-1.43795824e-02f,-1.24046363e-01f,+3.47247086e-02f,+3.93267758e-02f,
+7.13176876e-02f,-1.46452621e-01f,+1.47638723e-01f,-1.29597336e-01f,+2.26590797e-01f,
+1.11289896e-01f,+2.09770411e-01f,+6.20309338e-02f,-1.02836244e-01f,+6.90609366e-02f,
+2.64821082e-01f,+1.64481513e-02f,+1.58668667e-01f,+2.17845187e-01f,-2.08383799e-01f,
+7.15941656e-03f,-1.28857955e-01f,-2.25323010e-02f,-2.14043230e-01f,+3.42334449e-01f,
+1.53793320e-01f,-1.22408137e-01f,+6.76240921e-02f,+9.73603651e-02f,-1.17563553e-01f,
+2.44716536e-02f,+5.27872480e-02f,+3.07960480e-01f,-3.57446283e-01f,+3.27328235e-01f,
-2.11037338e-01f,-8.01330730e-02f,+1.20095931e-01f,+1.33148044e-01f,+3.67434710e-01f,
-1.13848150e-01f,+1.75104752e-01f,+3.70812178e-01f,+6.55577555e-02f,-5.63619956e-02f,
+1.61894932e-01f,-2.98903249e-02f,+7.08351806e-02f,-1.00143343e-01f,+2.24073842e-01f,
+1.26037851e-01f,+2.47944780e-02f,+4.81539182e-02f,-2.35355683e-02f,+1.50353193e-01f,
+3.50481160e-02f,+7.44869187e-02f,+1.37138903e-01f,+2.77571291e-01f,-8.67441669e-02f,
-1.19670354e-01f,-1.65647805e-01f,-3.79337519e-02f,-9.59262773e-02f,+2.06102222e-01f,
-6.74219895e-03f,-1.51311353e-01f,-1.73005477e-01f,-4.36034240e-02f,-8.12969580e-02f,
+8.61760974e-02f,-1.59534663e-02f,-4.60421592e-02f,+8.29489306e-02f,+2.19405577e-01f,
-1.55799463e-01f,+9.28668305e-02f,+1.21758528e-01f,+3.60605717e-01f,-1.03338487e-01f,
-5.41525520e-03f,-1.06208168e-01f,-9.69969034e-02f,-1.75890923e-01f,-5.04594922e-01f,
+4.16353904e-02f,-2.37264968e-02f,-3.69231291e-02f,-7.22838119e-02f,-2.45880678e-01f,
+1.29525766e-01f,-3.36380154e-01f,+6.02009706e-02f,+3.87777120e-01f,+1.56081514e-02f,
+7.64503283e-03f,-1.16843574e-01f,+8.09725374e-02f,-1.26449354e-02f,+3.50839078e-01f,
-7.16323480e-02f,-1.38823375e-01f,+2.96046257e-01f,+7.73441195e-02f,-1.55799970e-01f,
-4.18648235e-02f,-1.71147704e-01f,-6.54671118e-02f,-6.35928214e-02f,+2.20311522e-01f,
-1.99639618e-01f,-9.17436033e-02f,+3.34958404e-01f,-1.38804972e-01f,-1.71767682e-01f,
-6.52176067e-02f,+4.84526008e-02f,+7.64627978e-02f,+5.26455343e-02f,-8.68781283e-02f,
-7.37200677e-02f,-3.04129601e-01f,-1.04873814e-01f,+3.12346458e-01f,+2.16694236e-01f,
+1.43827379e-01f,+1.40683264e-01f,-2.07002446e-01f,+1.79605648e-01f,+2.87469029e-01f,
+2.01416627e-01f,+1.00725085e-01f,+5.69043383e-02f,-1.39061958e-02f,+1.31307915e-01f,
+9.96314082e-03f,+2.08381906e-01f,-4.74578477e-02f,+2.10757822e-01f,+1.45269766e-01f,
+1.84746131e-01f,-1.39665440e-01f,+4.21557091e-02f,+1.22935265e-01f,-2.56208152e-01f,
+9.36328322e-02f,-9.35571790e-02f,-1.86519546e-03f,+6.99688718e-02f,+1.84936076e-01f,
+8.23538601e-02f,+6.84566125e-02f,+8.85549262e-02f,-2.56196499e-01f,+2.05733687e-01f,
+4.69553061e-02f,+4.31082733e-02f,-1.08415298e-01f,-1.06961243e-01f,+2.26983562e-01f,
-6.08593635e-02f,+2.89724804e-02f,+1.28842056e-01f,-3.43725011e-02f,+2.33771056e-01f,
+4.35510539e-02f,-1.87068760e-01f,-3.65386233e-02f,+1.66631326e-01f,+1.44985497e-01f,
+3.28617126e-01f,+3.58128571e-03f,-1.24958865e-01f,+7.08373189e-02f,-2.75671542e-01f,
-6.50253668e-02f,-1.31682575e-01f,+1.15815729e-01f,-9.87202153e-02f,+8.09579194e-02f,
+1.60762802e-01f,-3.93758751e-02f,+1.11343078e-01f,+1.32160172e-01f,+4.87466604e-02f,
+3.53004262e-02f,+1.26917930e-02f,+3.09478462e-01f,+3.38128775e-01f,-1.16772011e-01f,
-8.18922073e-02f,+2.92844683e-01f,-2.49944001e-01f,-2.95191561e-03f,-7.31042996e-02f,
-1.22230113e-01f,+1.22244716e-01f,+4.26522553e-01f,-3.24400142e-02f,+3.19261461e-01f,
+1.47804588e-01f,-3.07931215e-01f,+5.13807945e-02f,+7.25487471e-02f,+5.86750433e-02f,
+6.76950663e-02f,+9.40177068e-02f,+2.30439566e-02f,-2.43209273e-01f,-7.73211345e-02f,
+1.88117027e-01f,-1.43735418e-02f,+5.41615859e-03f,+2.00246647e-01f,-1.36702418e-01f,
+1.78584773e-02f,-1.42901117e-04f,-1.20581791e-01f,+1.25701874e-01f,-3.78306031e-01f,
+3.35207462e-01f,+2.14595739e-02f,-5.33953421e-02f,-4.31254245e-02f,-2.20793057e-02f,
-7.82506615e-02f,-9.14763510e-02f,-1.24753505e-01f,+6.83225915e-02f,+1.09144203e-01f,
-7.97810480e-02f,-2.43151024e-01f,-1.64358597e-02f,-1.67400107e-01f,+1.23670630e-01f,
-5.09133972e-02f,-1.35020157e-02f,+1.64937541e-01f,+7.08872685e-04f,-6.78124130e-02f,
-4.75965105e-02f,+2.01268017e-01f,+9.05960500e-02f,-2.45703951e-01f,+7.97369257e-02f,
+1.20770305e-01f,-1.61604941e-01f,+2.19592586e-01f,+1.24984957e-01f,-3.57892434e-03f,
+1.43132433e-01f,+6.70351535e-02f,+7.57118734e-03f,-1.80894837e-01f,-2.12148979e-01f,
+2.75146514e-01f,+1.12808287e-01f,+1.85899571e-01f,+7.72671923e-02f,+2.13834066e-02f,
+9.66213346e-02f,-1.23488739e-01f,+2.80221016e-03f,+2.14515347e-02f,-3.86694819e-02f,
+2.65427947e-01f,+1.37639195e-01f,+2.44151533e-01f,+2.55946361e-04f,-1.78703204e-01f,
-1.25329820e-02f,+3.11850361e-03f,+7.96377584e-02f,-7.42785633e-02f,-2.90179551e-01f,
-2.06930730e-02f,-1.02571785e-01f,+1.60415530e-01f,+1.08004518e-01f,+1.67283118e-01f,
-2.85759419e-01f,+1.93599761e-01f,+2.92648017e-01f,+1.75082814e-02f,-1.16529197e-01f,
-1.89497441e-01f,-1.37798339e-02f,-1.05524674e-01f,-4.18435335e-02f,-1.55314609e-01f,
+1.11921266e-01f,-2.23575100e-01f,+1.95304491e-02f,+8.85489862e-03f,+1.31301820e-01f,
-2.40633816e-01f,-1.18137203e-01f,-4.93618697e-02f,-3.71740237e-02f,-3.24730463e-02f,
-6.44436106e-02f,-3.96970175e-02f,-1.14439212e-01f,+1.81104809e-01f,+6.90274015e-02f,
+4.21923138e-02f,-2.10176840e-01f,+2.02126160e-01f,-1.05912626e-01f,-2.87672132e-02f,
+1.78645700e-01f,-2.76944816e-01f,-6.58408627e-02f,-7.98223019e-02f,-1.62685197e-02f,
+3.33485939e-02f,-6.42867899e-03f,+2.11580962e-01f,-9.65229347e-02f,+9.60764587e-02f,
+2.00863659e-01f,+1.82817444e-01f,-9.95585173e-02f,-1.54791474e-01f,-3.40875685e-01f,
+2.54202113e-02f,+3.24157268e-01f,-5.32164797e-02f,-3.16279195e-02f,+9.37965661e-02f,
-1.76860318e-02f,-3.23224887e-02f,+1.60177071e-02f,-6.55444115e-02f,-6.05077296e-02f,
-2.12035105e-01f,+4.84013110e-02f,+1.47908926e-01f,+1.13489054e-01f,+1.61087975e-01f,
-1.44153014e-01f,+6.52849376e-02f,-2.47494847e-01f,+1.65523335e-01f,+5.20729041e-03f,
-1.75524339e-01f,-7.13063255e-02f,+3.75602469e-02f,+3.60508487e-02f,-5.53693585e-02f,
-1.82430819e-01f,-1.21365078e-01f,+8.62023309e-02f,-5.82383052e-02f,-1.76477768e-02f,
+1.86677411e-01f,+3.21507841e-01f,-4.26262803e-02f,+3.52517702e-02f,+1.64201647e-01f,
+4.41051349e-02f,-9.53666791e-02f,-6.77088350e-02f,-2.18241662e-02f,+1.70107856e-01f,
+1.14857294e-01f,+7.73731386e-03f,-1.09405212e-01f,+2.71135010e-02f,-8.74055736e-03f,
-1.77980810e-01f,-1.16534740e-01f,+1.27510339e-01f,+8.68816972e-02f,-5.48887216e-02f,
+1.54249147e-01f,+6.36269376e-02f,-5.08888811e-02f,+2.31628537e-01f,-9.99869555e-02f,
-6.42372370e-02f,+6.62208945e-02f,-4.93343510e-02f,-8.66076872e-02f,-2.30510175e-01f,
+6.72788545e-02f,-3.94575521e-02f,-3.42805125e-02f,-8.62158686e-02f,-4.44106460e-02f,
+1.19630031e-01f,+1.59744933e-01f,+3.05249263e-02f,-6.25186116e-02f,-3.41671519e-02f,
-2.99484611e-01f,-1.14469364e-01f,-7.57327750e-02f,-8.36397521e-03f,-4.76834550e-02f,
+3.18938047e-01f,+1.50557473e-01f,-2.06130043e-01f,+2.31747687e-01f,-1.45507812e-01f,
-1.12204753e-01f,+1.06524490e-01f,+2.12185159e-01f,-3.10666431e-02f,-1.14209801e-01f,
+4.46588583e-02f,-5.78086376e-02f,-1.61943018e-01f,+2.75022566e-01f,-4.73118573e-02f,
+3.93608451e-01f,-2.84399956e-01f,-2.88867980e-01f,-7.48971924e-02f,-1.48348540e-01f,
+1.11211598e-01f,+3.20964307e-02f,-3.62717025e-02f,-2.48153806e-01f,+1.27714321e-01f,
-1.80277079e-01f,+1.57438844e-01f,-3.67189586e-01f,+2.30312794e-01f,-8.09945092e-02f,
+1.05738848e-01f,+1.17216870e-01f,+1.69797659e-01f,-1.19566239e-01f,+1.44991577e-01f,
+3.27272043e-02f,+2.83207595e-01f,+1.95414722e-01f,+5.98660409e-01f,+1.11099176e-01f,
-1.89945877e-01f,+4.10543643e-02f,+3.27865146e-02f,-4.61837240e-02f,+1.15034720e-02f,
+1.50860965e-01f,+2.47725829e-01f,-3.51243801e-02f,-7.58204833e-02f,-4.26646881e-02f,
-4.72485349e-02f,-6.83204532e-02f,-1.03385180e-01f,+6.13326021e-02f,+1.50519893e-01f,
-2.18348149e-02f,-3.23267356e-02f,-5.54923937e-02f,+8.45392644e-02f,-1.18394092e-01f,
-1.35126412e-01f,+2.64905363e-01f,-7.91930333e-02f,-3.39624703e-01f,-1.22802481e-01f,
+7.40625784e-02f,-3.06148976e-02f,+3.86562198e-02f,-1.64495632e-01f,+2.01089010e-01f,
+8.28374550e-02f,+1.64376974e-01f,+3.25670600e-01f,+8.90499279e-02f,+5.10030575e-02f,
+1.11565299e-01f,+5.04478738e-02f,+1.21816978e-01f,-4.92007062e-02f,+3.15022245e-02f,
+1.68759674e-02f,-1.21439815e-01f,+1.50023028e-02f,+1.48111939e-01f,+9.95645672e-03f,
-1.11386254e-01f,-2.32731596e-01f,+1.98357373e-01f,-1.94471359e-01f,-8.60428363e-02f,
+1.32563353e-01f,-1.89694792e-01f,-1.37221709e-01f,+9.49419588e-02f,-1.24608941e-01f,
+7.86697045e-02f,+3.07288885e-01f,-1.70175657e-01f,+1.00518152e-01f,-8.93122107e-02f,
+7.20266923e-02f,-5.67777269e-02f,-8.82542208e-02f,+2.58952826e-01f,+8.09979662e-02f,
-1.20423369e-01f,+7.32174143e-02f,-2.81557571e-02f,+1.78603277e-01f,+1.75091475e-01f,
+9.99913141e-02f,-7.07339570e-02f,+3.66377458e-02f,+7.98600446e-03f,-1.71118274e-01f,
-1.82313681e-01f,+1.92593142e-01f,-6.22679992e-03f,-3.02319992e-02f,-1.10510569e-02f,
+6.11986630e-02f,+1.30523205e-01f,+1.97327718e-01f,-2.09303811e-01f,+1.57602802e-01f,
+3.98549363e-02f,-2.92115379e-02f,+1.41023640e-02f,+8.86782631e-02f,-2.27702409e-01f,
-1.07289329e-01f,-1.40657306e-01f,-6.53389841e-02f,+8.66541266e-02f,-2.51950830e-01f,
+1.94110528e-01f,-9.88423899e-02f,+5.54604903e-02f,+7.53528103e-02f,+1.29779682e-01f,
+1.90186620e-01f,+2.82638818e-02f,+6.79963455e-02f,+7.47162625e-02f,+8.22979882e-02f,
-2.00907633e-01f,+7.98620135e-02f,+1.33068174e-01f,+1.11594483e-01f,+3.51420827e-02f,
+3.47093582e-01f,-3.90972337e-03f,-6.04578443e-02f,-2.69974377e-02f,+5.36518171e-02f,
+1.67724907e-01f,+2.06391290e-02f,+3.65643620e-01f,-5.63033111e-02f,+8.47876146e-02f,
+1.05593823e-01f,-6.48395494e-02f,+9.02167037e-02f,-3.08273360e-02f,-1.15253761e-01f,
-1.42453656e-01f,+9.58567783e-02f,+1.24844059e-01f,+1.07572779e-01f,-1.93373293e-01f,
+1.75764486e-01f,+1.07850879e-01f,+2.14339405e-01f,-4.54129539e-02f,-6.44961745e-02f,
+8.64493474e-02f,-2.69098449e-02f,+2.35675439e-01f,-2.19635040e-01f,-1.22614130e-01f,
-8.38899463e-02f,-2.13421345e-01f,+6.53176382e-02f,+1.25248745e-01f,+1.67481333e-01f,
-6.65560830e-03f,+1.09416455e-01f,-8.33932459e-02f,+3.21149260e-01f,+2.39444345e-01f,
+9.62116867e-02f,+1.41658396e-01f,+2.39278227e-01f,+4.31301743e-01f,+7.17850998e-02f,
-1.49969652e-01f,-2.33493090e-01f,+2.34931856e-01f,-1.64349005e-02f,+1.14292651e-01f,
+8.12144354e-02f,+4.54381518e-02f,+6.55259639e-02f,+1.11371465e-01f,+3.14271897e-02f,
-6.36583865e-02f,-3.65564637e-02f,+1.83883995e-01f,+6.72014207e-02f,+2.97324687e-01f,
+9.60596949e-02f,+2.07791105e-01f,+3.42126517e-03f,-1.38423234e-01f,+3.45691643e-03f,
+1.51329562e-01f,+2.02185363e-01f,-1.38365716e-01f,+1.53002590e-01f,+7.98903480e-02f,
+2.39767984e-01f,+2.84503967e-01f,-5.59777319e-02f,+8.24345462e-03f,-5.35141816e-03f,
+5.45977056e-02f,+3.37687545e-02f,+1.91423632e-02f,+9.15248767e-02f,+3.27941626e-02f,
+1.22491993e-01f,+8.46158937e-02f,+5.51678762e-02f,-4.80976030e-02f,+1.38612956e-01f,
+2.54835010e-01f,-4.65928048e-01f,-8.78453441e-03f,-6.35094494e-02f,+3.61761034e-01f,
-1.15068190e-01f,+1.25017473e-02f,-1.31421447e-01f,+6.80258349e-02f,-1.47226200e-01f,
-1.17323019e-01f,+1.10506110e-01f,+1.57421470e-01f,+1.69795558e-01f,+1.12723589e-01f,
-4.63742614e-02f,+2.92845182e-02f,+1.26431316e-01f,-3.08718264e-01f,-1.54196545e-01f,
+1.77696735e-01f,+8.09296519e-02f,-3.01690567e-02f,-5.26090562e-02f,+1.46800712e-01f,
+3.51692550e-03f,+1.20412700e-01f,+9.02919993e-02f,+6.06377088e-02f,+8.66618473e-03f,
+1.04823269e-01f,+8.46323967e-02f,+1.26016513e-01f,+1.06614083e-02f,+1.79990768e-01f,
+1.24580212e-01f,+2.07339659e-01f,-4.17474620e-02f,+5.59733063e-02f,-4.35747206e-02f,
+1.51733920e-01f,-6.74871653e-02f,+8.74427706e-02f,+1.99637383e-01f,-2.24941447e-02f,
-9.26091447e-02f,+6.47597238e-02f,-1.25289494e-02f,+4.25995886e-02f,-5.91918863e-02f,
-1.38042530e-03f,-1.37502879e-01f,-1.55256152e-01f,+2.84740608e-02f,+8.76469687e-02f,
+1.74056306e-01f,+2.92866379e-01f,-1.69184029e-01f,+6.75311089e-02f,+2.72065997e-01f,
+4.27895635e-02f,+3.72329690e-02f,-1.53394535e-01f,+1.00522883e-01f,+8.39974582e-02f,
+7.71835074e-02f,+4.08134982e-02f,-3.31611603e-01f,+9.41024534e-03f,-1.36040136e-01f,
-3.70874442e-02f,+1.18407771e-01f,+4.89517972e-02f,-9.51912105e-02f,-2.52901539e-02f,
-8.24228954e-03f,+2.58028269e-01f,+2.28729084e-01f,+1.64117500e-01f,+1.19822852e-01f,
+2.14570239e-01f,+1.34245217e-01f,+3.80167812e-02f,-2.08714068e-01f,+1.26959309e-01f,
+4.09680195e-02f,+5.37092984e-02f,-4.23327126e-02f,+2.22793579e-01f,-2.26053491e-01f,
-1.52673125e-01f,+1.30569905e-01f,-1.28211742e-02f,+4.96808626e-02f,+4.08640020e-02f,
+7.30333701e-02f,-3.03994305e-02f,+4.39613461e-01f,-6.42725900e-02f,+2.41891414e-01f,
+3.87850285e-01f,+1.62004068e-01f,-1.28548101e-01f,-8.55586380e-02f,+6.86171055e-02f,
+1.47295684e-01f,-6.36202171e-02f,-6.31036311e-02f,+3.52518596e-02f,-2.76355725e-03f,
+2.74368860e-02f,+1.69384509e-01f,+1.24307759e-01f,-1.02162668e-02f,+5.13808616e-02f,
-1.68486848e-01f,+4.80408400e-01f,-6.38721287e-02f,+4.53807861e-01f,+1.35504380e-01f,
-1.38610592e-02f,-1.24204792e-01f,+2.37668324e-02f,+1.50297299e-01f,+1.14185512e-01f,
-3.56289856e-02f,-3.76561061e-02f,-1.23912297e-01f,+6.25117496e-02f,+7.92354494e-02f,
-1.87600657e-01f,+4.61422563e-01f,+8.02494958e-02f,-9.64784697e-02f,+2.40357116e-01f,
-1.23075284e-01f,+1.40299812e-01f,+1.69275761e-01f,+4.06622014e-04f,+6.61098659e-02f,
+1.43543258e-01f,+8.81315619e-02f,+1.50596008e-01f,+1.52475297e-01f,+2.07717076e-01f,
+5.55766113e-02f,-5.85692562e-03f,-1.35996222e-01f,+1.56356215e-01f,-1.39242470e-01f,
-1.16919942e-01f,+5.42996861e-02f,+1.96398199e-01f,+1.89701915e-01f,-6.91925809e-02f,
-2.18534488e-02f,-6.45999826e-05f,-1.58561356e-02f,-1.36073530e-01f,-6.72986731e-02f,
+2.86433935e-01f,-3.78092438e-01f,-2.48293087e-01f,+1.14793964e-01f,-4.19115499e-02f,
+6.86938614e-02f,+3.65151539e-02f,-1.12834513e-01f,-8.66832361e-02f,+1.80479944e-01f,
-1.79770410e-01f,+1.33439386e-02f,-1.25955909e-01f,+1.32199928e-01f,+9.09768716e-02f,
+2.18321443e-01f,-1.15993228e-02f,+5.57058305e-02f,+1.88598976e-01f,-5.79884760e-02f,
+2.16457248e-01f,+5.28541394e-02f,+1.14651099e-01f,+1.78027630e-01f,-3.28699261e-01f,
-4.56938036e-02f,+1.01802886e-01f,-5.90899736e-02f,+4.82666083e-02f,-2.07410846e-02f,
+4.60231714e-02f,+5.64731061e-02f,+2.59105593e-01f,+5.56881726e-02f,+3.07323992e-01f,
-2.83952594e-01f,-3.72431315e-02f,-1.87215328e-01f,+8.25154334e-02f,-8.94257501e-02f,
+5.94887845e-02f,+8.88446644e-02f,+2.56290548e-02f,+4.43224944e-02f,-1.40059024e-01f,
+1.90396726e-01f,-1.77948296e-01f,-1.00128420e-01f,+7.58939013e-02f,+1.23307511e-01f,
+1.10489108e-01f,-7.34069210e-04f,+2.26961970e-02f,+1.48865893e-01f,+2.59583443e-01f,
+6.41816035e-02f,+2.35568248e-02f,-1.59733072e-01f,-8.64562299e-03f,+2.38141477e-01f,
+8.52833912e-02f,-1.71986833e-01f,+1.13969687e-02f,+9.16892290e-02f,+2.30903804e-01f,
+6.37836233e-02f,-9.11348686e-02f,-2.25346051e-02f,-1.25927582e-01f,+1.05661027e-01f,
-1.96533427e-01f,+4.93079983e-02f,+1.72122523e-01f,-7.26100476e-03f,+1.29154444e-01f,
+1.83835328e-01f,+4.29644845e-02f,-1.02899358e-01f,+1.91358060e-01f,-1.69894174e-01f,
-1.45333469e-01f,-1.16431937e-02f,+1.04501314e-01f,+3.63474824e-02f,+2.85868272e-02f,
+1.29984334e-01f,+5.44958897e-02f,+9.35591087e-02f,-1.30615830e-01f,+2.11221546e-01f,
-4.93446775e-02f,-8.17285627e-02f,-5.26378788e-02f,+1.20562062e-01f,+1.09992892e-01f,
+2.13390321e-01f,-6.22147843e-02f,+1.01692587e-01f,+9.45531279e-02f,-9.47200283e-02f,
+1.66360721e-01f,-2.73612827e-01f,-6.46290109e-02f,+1.47026218e-03f,+2.34363526e-01f,
-1.34166569e-01f,-9.47969556e-02f,+1.05264775e-01f,-5.65456711e-02f,-9.50205512e-03f,
-5.69030270e-02f,+2.23884687e-01f,+1.10555455e-01f,+2.62630492e-01f,+2.38712400e-01f,
-6.96661249e-02f,-1.92296714e-01f,+1.14200935e-01f,-1.88571498e-01f,+2.73751825e-01f,
+3.85114402e-02f,+1.78124338e-01f,-1.70668997e-02f,-1.73496664e-01f,+1.20090008e-01f,
-2.25332722e-01f,+6.86472878e-02f,+4.65649925e-02f,+2.00324833e-01f,+7.08359554e-02f,
+2.57017612e-01f,+3.55758011e-01f,+3.10140669e-01f,+1.06981918e-02f,-8.25814754e-02f,
+1.06466174e-01f,+6.58893064e-02f,+1.38446569e-01f,+1.60516035e-02f,-3.62499646e-04f,
+1.29374906e-01f,+3.75312209e-01f,+2.17918724e-01f,+3.03603560e-02f,-2.51998335e-01f,
-5.18406229e-03f,+2.19702780e-01f,+1.95750147e-01f,-3.76635194e-02f,-1.05796002e-01f,
+1.77924022e-01f,-1.82145640e-01f,+3.18092644e-01f,+2.38629520e-01f,+1.35945171e-01f,
-1.35826662e-01f,+5.15927412e-02f,-1.64291009e-01f,+9.22050029e-02f,-2.30979845e-01f,
-4.06466145e-03f,-1.24343216e-01f,-1.30486265e-01f,+5.71121313e-02f,+2.35332981e-01f,
-3.76435697e-01f,+1.11754946e-01f,-5.60493246e-02f,+1.64454430e-01f,-2.02062018e-02f,
+1.45734146e-01f,-1.68464348e-01f,-5.84076084e-02f,-2.24730611e-01f,-1.02811709e-01f,
-1.41520917e-01f,-1.13019213e-01f,-2.64398335e-03f,+1.81951761e-01f,-7.84392282e-02f,
-1.22109979e-01f,+3.16616558e-02f,-7.40457773e-02f,+5.95931560e-02f,+8.35405737e-02f,
-2.69157559e-01f,+1.36447717e-02f,+1.19745016e-01f,-7.84622580e-02f,-7.14131445e-02f,
+1.10486597e-01f,+1.52975366e-01f,+7.79450610e-02f,-2.32738718e-01f,-2.80308127e-02f,
-1.19774781e-01f,+2.10398324e-02f,+3.04954767e-01f,-2.76054174e-01f,+5.20883463e-02f,
-1.12768069e-01f,-3.43905129e-02f,-1.88035607e-01f,+1.10069543e-01f,+1.83144927e-01f,
-9.26604792e-02f,-1.76484939e-02f,-1.33377925e-01f,+3.44451815e-01f,+7.38330483e-02f,
-1.18852802e-01f,-6.00408427e-02f,+1.49067685e-01f,-5.45450896e-02f,-2.95428872e-01f,
-2.03532025e-01f,-2.98395634e-01f,+1.29532591e-02f,+8.33247155e-02f,+7.97530040e-02f,
+1.72402605e-01f,+7.77751920e-05f,+2.56698489e-01f,+3.30889113e-02f,+1.16569474e-02f,
+1.22602712e-02f,+9.34872627e-02f,-8.18154886e-02f,+1.57555938e-01f,+2.82534398e-02f,
-3.66453826e-01f,-7.83508420e-02f,-9.14434642e-02f,-1.75198838e-01f,-9.71046165e-02f,
-2.28342906e-01f,+1.53819546e-01f,-1.05791520e-02f,-1.17810786e-01f,-3.91333960e-02f,
+3.88245173e-02f,-3.52787644e-01f,+1.29635677e-01f,-1.12993613e-01f,-4.98780571e-02f,
+3.29576284e-01f,+8.11747462e-02f,+5.55673279e-02f,+1.90680221e-01f,+2.08833665e-01f,
-1.38002798e-01f,+1.13398366e-01f,+5.20637333e-02f,-8.36783871e-02f,+1.49596289e-01f,
-3.15078087e-02f,+1.23353414e-01f,+2.75398996e-02f,+3.54256667e-02f,-8.94620791e-02f,
+1.89653933e-01f,+2.21789092e-01f,+7.33229369e-02f,+1.63739458e-01f,-1.69345036e-01f,
+2.02586770e-01f,+8.55251029e-02f,+2.31686551e-02f,+1.81129232e-01f,+2.01520488e-01f,
+1.10242113e-01f,+4.81103696e-02f,-3.23112398e-01f,-2.35957295e-01f,+1.51002467e-01f,
+1.53198108e-01f,+8.33008215e-02f,-2.01603398e-02f,-1.09979939e-02f,-8.42389837e-02f,
-1.31921068e-01f,+6.97211269e-03f,-2.21974701e-02f,+2.85647213e-01f,-4.13063262e-03f,
-3.35200012e-01f,-2.59327963e-02f,-3.29417549e-02f,-7.83865079e-02f,-6.11190498e-03f,
+1.38953835e-01f,-2.51093537e-01f,+1.08793296e-01f,+1.16400681e-01f,-2.18791589e-01f,
-1.89628765e-01f,-3.17129225e-01f,+1.98211551e-01f,-2.11572006e-01f,+8.31957385e-02f,
-6.57762140e-02f,+7.92333558e-02f,+1.27860293e-01f,+2.93823987e-01f,+5.78836873e-02f,
-5.68115078e-02f,-1.52411744e-01f,+4.52233292e-02f,+1.49181083e-01f,+1.69593468e-01f,
-1.74371933e-03f,+2.70345986e-01f,-3.29830766e-01f,-1.20551072e-01f,+1.28321558e-01f,
+9.42025706e-02f,+6.57431558e-02f,-1.50532991e-01f,-1.91010430e-01f,+3.26267213e-01f,
-2.17483804e-01f,-8.15280015e-04f,-7.64189288e-02f,+9.12510604e-02f,+9.36814174e-02f,
+7.85598829e-02f,-2.03865424e-01f,-9.70455334e-02f,+5.25141396e-02f,+9.02870521e-02f,
+1.75245464e-01f,+1.33633018e-01f,+1.11771576e-01f,+2.68247332e-02f,-4.56445515e-02f,
+2.08276004e-01f,-1.61293611e-01f,-1.38767302e-01f,+1.60243101e-02f,+6.85711205e-02f,
-1.82224158e-02f,+7.19287172e-02f,+2.31068581e-02f,-1.72117606e-01f,+2.51962334e-01f,
-1.83672979e-01f,-2.77376194e-02f,-4.38400656e-02f,+1.13149010e-01f,+2.33750522e-01f,
+3.48376762e-03f,-4.22074199e-01f,-2.25166053e-01f,+1.30040735e-01f,+2.67987307e-02f,
+1.06964909e-01f,+2.06171587e-01f,-4.90824552e-03f,-2.32880086e-01f,-8.70536715e-02f,
+1.19561441e-01f,+1.20893709e-01f,-8.85508955e-02f,-4.70949598e-02f,+7.62597751e-03f,
-6.11683121e-03f,+4.28600833e-02f,-9.88089666e-02f,+1.48313940e-01f,-5.61346300e-02f,
+1.12550206e-01f,-1.22103870e-01f,-6.87399954e-02f,-2.35218294e-02f,+1.33484975e-01f,
-1.81717992e-01f,-2.11260065e-01f,-1.03026457e-01f,-1.15035281e-01f,+7.14748725e-02f,
+4.89363559e-02f,-7.08432272e-02f,-2.30747297e-01f,-1.36331573e-01f,+6.33077994e-02f,
+1.05699375e-02f,+1.21496059e-02f,+1.08246438e-01f,+1.52653977e-01f,+7.39145372e-03f,
+1.15390860e-01f,+4.15019765e-02f,+2.20442474e-01f,+4.66987938e-02f,+2.37374306e-02f,
+1.56642660e-01f,-1.88580453e-01f,+1.64567888e-01f,+1.96434751e-01f,-8.59561861e-02f,
+9.29165706e-02f,-1.31208330e-01f,-2.03785971e-02f,+2.34335214e-02f,+2.25108087e-01f,
-1.53828949e-01f,+2.91623808e-02f,-1.19637810e-01f,-9.15701035e-03f,+7.75050074e-02f,
-9.52236578e-02f,+1.50245830e-01f,+3.37464929e-01f,-2.73951530e-01f,+1.27510414e-01f,
-2.49566644e-01f,-1.11754045e-01f,-1.82560027e-01f,+3.81204635e-02f,-1.38938904e-01f,
+6.68601505e-03f,+1.98670357e-01f,-9.93989408e-02f,+1.97084412e-01f,-2.16818340e-02f,
-7.76904374e-02f,+1.08549230e-01f,-1.08109988e-01f,-8.35235044e-02f,-5.61975725e-02f,
-4.97917272e-02f,-3.05497423e-02f,+1.23825945e-01f,+8.14281218e-03f,-1.21336006e-01f,
-5.26650548e-02f,-9.31789912e-03f,+1.74833298e-01f,+1.17157921e-01f,+3.05694900e-02f,
+4.53307301e-01f,-5.67250773e-02f,-1.59570426e-01f,+2.84585613e-03f,+3.28131735e-01f,
+5.58159985e-02f,+2.83564050e-02f,-1.17491551e-01f,+1.75383657e-01f,-7.88399726e-02f,
-4.76254821e-02f,-4.94916350e-01f,+1.49108283e-02f,+3.02528977e-01f,-1.62907429e-02f,
+6.19727597e-02f,-1.59315705e-01f,+7.29565695e-02f,-5.53544203e-04f,+9.29595008e-02f,
+7.89559558e-02f,-1.76305827e-02f,-2.48489723e-01f,-6.61459044e-02f,+7.55929854e-03f,
-2.59864002e-01f,-1.41729822e-03f,+1.15911193e-01f,+3.03067625e-01f,+1.64221033e-01f,
-2.10873574e-01f,-2.26535648e-01f,+7.90159777e-03f,+4.83772792e-02f,-1.19536467e-01f,
+1.72394693e-01f,+3.84929776e-02f,+7.97185153e-02f,-1.44323315e-02f,+1.81541711e-01f,
-2.45215297e-01f,-3.12508166e-01f,+9.50101987e-02f,-6.59103692e-03f,+1.01551741e-01f,
+2.00905293e-01f,+1.40967309e-01f,+1.82044972e-02f,-3.25757004e-02f,+1.24425208e-02f,
-2.49306664e-01f,+1.09584451e-01f,+2.85838433e-02f,-6.37952909e-02f,+3.83815430e-02f,
+2.86301494e-01f,+2.10728616e-01f,-6.75563440e-02f,+3.42240855e-02f,+1.06351845e-01f,
-1.80406347e-02f,+2.11206794e-01f,+1.23814791e-02f,+1.23740189e-01f,+2.92795245e-02f,
-4.67898138e-02f,+1.02390647e-02f,+4.58125696e-02f,-1.81716494e-02f,-1.80936754e-01f,
+3.97515558e-02f,+3.45053487e-02f,+3.60417105e-02f,-2.90211923e-02f,+1.35941520e-01f,
-3.64229828e-01f,-1.60348758e-01f,-8.16765521e-03f,+2.54434645e-02f,+1.76968053e-01f,
-3.60847153e-02f,+8.37415904e-02f,+2.15981916e-01f,+9.03426930e-02f,+1.80882588e-01f,
-3.09898823e-01f,-1.92590132e-02f,+9.63050053e-02f,-7.82575607e-02f,-1.45462099e-02f,
+1.10869661e-01f,+2.68638730e-01f,-2.20212162e-01f,-2.66575575e-01f,+3.22772861e-01f,
-1.21682569e-01f,+7.94023648e-02f,+6.75660297e-02f,+1.33373007e-01f,+9.73725989e-02f,
-3.13270628e-01f,-5.64692318e-02f,+8.57513919e-02f,-8.09873417e-02f,-1.13382146e-01f,
-7.83609003e-02f,+3.11192293e-02f,+3.45035225e-01f,+2.22062558e-01f,+2.37395808e-01f,
-1.66144446e-01f,+5.08435396e-03f,+1.74739398e-02f,-1.67230755e-01f,-2.31803786e-02f,
+6.40025586e-02f,+8.28597620e-02f,+2.34798923e-01f,+2.77443579e-03f,-1.03364646e-01f,
+2.96595961e-01f,+2.43023664e-01f,-4.04856443e-01f,+9.97916684e-02f,-5.52647151e-02f,
+7.27358684e-02f,-9.32014063e-02f,+1.65070146e-02f,-9.75465029e-02f,+5.22357710e-02f,
-3.57979462e-02f,+6.57534897e-02f,+1.38699144e-01f,+1.16062015e-01f,+5.80787510e-02f,
-1.68235172e-02f,+2.60403991e-01f,-2.31576502e-01f,+2.52344776e-02f,+2.60935836e-02f,
-7.28866532e-02f,+2.29042426e-01f,+1.05316162e-01f,+8.98985565e-02f,+1.72907531e-01f,
+4.04987037e-01f,+3.64961177e-02f,-3.35918069e-02f,-1.25989944e-01f,+3.16703990e-02f,
+1.24665365e-01f,+2.31618851e-01f,-1.79986790e-01f,-1.04981221e-01f,-5.30208386e-02f,
+1.44607171e-01f,+3.56813878e-01f,+9.06414464e-02f,-3.24854553e-01f,-1.05373748e-01f,
-1.09807730e-01f,+1.97485611e-01f,+2.74599820e-01f,-2.07670853e-02f,+4.73048300e-01f,
+2.75105417e-01f,+1.88189015e-01f,+4.38973270e-02f,+3.60350728e-01f,+1.76284835e-01f,
-1.73951775e-01f,+1.62116781e-01f,+5.33085987e-02f,+5.14136590e-02f,+1.94487333e-01f,
+7.49343708e-02f,+1.07144058e-01f,+1.82890132e-01f,-1.42669845e-02f,-2.83678584e-02f,
+1.42388627e-01f,+1.70043468e-01f,+1.77810431e-01f,-6.01407560e-03f,+1.88220635e-01f,
+5.18461093e-02f,+1.43998578e-01f,-3.06558937e-01f,+8.05504397e-02f,-1.97945070e-02f,
+1.46381050e-01f,-8.77009332e-02f,-1.18413515e-01f,-2.97097582e-02f,+7.13014081e-02f,
-5.94855212e-02f,+1.42097980e-01f,-9.49708521e-02f,-1.30449265e-01f,-4.63095792e-02f,
+9.74173993e-02f,+1.57966211e-01f,+2.77539015e-01f,-1.89500898e-01f,-1.42148808e-01f,
+1.41037047e-01f,-3.12398840e-02f,+1.91301871e-02f,+5.70170488e-03f,-1.97863042e-01f,
-1.71503603e-01f,+3.32944617e-02f,-1.72028486e-02f,-9.33964923e-02f,-8.50570388e-03f,
-1.04872279e-01f,+1.77974060e-01f,+1.37575746e-01f,-2.30197430e-01f,-1.48304254e-01f,
-3.44267875e-01f,+3.63298804e-01f,-8.74991622e-03f,+6.13668971e-02f,+3.99347469e-02f,
-2.96874586e-02f,+1.72857150e-01f,+1.95798263e-01f,+2.21503839e-01f,+4.05776873e-02f,
-1.65096536e-01f,-2.73310512e-01f,+1.34102717e-01f,-2.87036151e-01f,+1.84057525e-03f,
+2.50467837e-01f,+1.03600837e-01f,+6.09183647e-02f,+1.00581683e-01f,-2.24279940e-01f,
-3.20052087e-01f,+7.64814541e-02f,+8.38896856e-02f,+7.44873807e-02f,+1.96939260e-01f,
+1.01507217e-01f,+3.00238635e-02f,+7.31047615e-02f,+8.69200379e-02f,-1.80294327e-02f,
+1.97231889e-01f,+4.12065573e-02f,+5.60689904e-02f,-9.09535959e-02f,+3.37582938e-02f,
+2.41138294e-01f,+5.08188531e-02f,+2.56871805e-02f,+4.09693159e-02f,+9.73867178e-02f,
+1.69086710e-01f,+9.03124572e-04f,+4.54922840e-02f,+1.12298913e-01f,+8.17649066e-02f,
+4.17115651e-02f,+7.24745542e-02f,+7.96125233e-02f,+1.78110734e-01f,+1.65786326e-01f,
+6.11242801e-02f,+8.37265998e-02f,-1.37067452e-01f,+8.65182504e-02f,-6.22697435e-02f,
-7.26903602e-02f,-1.59972996e-01f,-7.72835836e-02f,+1.61986858e-01f,-2.56411470e-02f,
+1.06206797e-01f,+2.75363773e-01f,-1.70985907e-01f,-1.31632209e-01f,+2.54386932e-01f,
+8.50271732e-02f,+1.83319598e-01f,+9.46647003e-02f,+1.37151018e-01f,-8.89362395e-02f,
-1.34198844e-01f,+2.25655790e-02f,+1.24423452e-01f,-1.08560346e-01f,+2.09978297e-01f,
+1.32665470e-01f,+2.63889730e-01f,-4.44202609e-02f,+2.12860443e-02f,-5.81791773e-02f,
-7.74183348e-02f,+9.20791179e-02f,-1.50460348e-01f,-2.07827184e-02f,-2.69207925e-01f,
+2.98688356e-02f,+1.07863329e-01f,+2.17760950e-01f,+1.56347193e-02f,+1.24034762e-01f,
+3.43066570e-03f,-1.38283893e-01f,+1.34043977e-01f,+1.53507695e-01f,+2.81068659e-03f,
-3.69928449e-01f,+1.92177761e-02f,+6.06205426e-02f,-8.54636822e-03f,-2.20087945e-01f,
-1.07025161e-01f,-2.04578966e-01f,+1.27860337e-01f,+1.39528766e-01f,-1.97412143e-03f,
+2.09106635e-02f,+2.81229138e-01f,-1.30579442e-01f,-7.76825249e-02f,+1.01350158e-01f,
+3.89697030e-02f,+9.32565704e-02f,-7.61359930e-02f,+1.86449170e-01f,-1.31751329e-01f,
+3.03384718e-02f,-7.11163357e-02f,+1.26168206e-01f,-1.90973639e-01f,-6.28333315e-02f,
-1.42638803e-01f,+1.02608606e-01f,-8.01942274e-02f,-1.28751442e-01f,+2.24215593e-02f,
+2.30135471e-01f,+1.64828390e-01f,-3.18728119e-01f,+1.61821678e-01f,-1.17275633e-01f,
+9.63376090e-03f,-1.22627854e-01f,+1.12810232e-01f,+2.07665846e-01f,-1.86578318e-01f,
-8.01023096e-02f,-2.38137264e-02f,+8.77650008e-02f,-8.83674249e-02f,+2.85211563e-01f,
-1.52770475e-01f,-1.58376262e-01f,+8.57917592e-03f,+1.07187144e-01f,+1.45718828e-01f,
+6.13731742e-02f,-5.13620526e-02f,+2.40958393e-01f,-9.91358701e-03f,+1.11716971e-01f,
-1.58580653e-02f,+5.33032492e-02f,+1.34239987e-01f,+8.71834904e-02f,+2.25754753e-01f,
+2.22192183e-01f,-7.23502636e-02f,+2.95780785e-02f,-1.66360617e-01f,+7.44834766e-02f,
-4.02861983e-02f,+6.41914038e-03f,-1.05516739e-01f,+2.12754756e-01f,+2.44800389e-01f,
-7.64561743e-02f,-7.06157908e-02f,+7.05899447e-02f,-2.42974199e-02f,+1.40180245e-01f,
+9.44977552e-02f,-5.77449426e-02f,+4.42115217e-02f,+1.17766090e-01f,-9.72093865e-02f,
+1.08651266e-01f,+7.05361515e-02f,+3.10009606e-02f,+1.40721828e-01f,+4.29569185e-02f,
+5.57827540e-02f,-1.11349477e-02f,+2.18526740e-02f,+1.63644329e-01f,+1.86357513e-01f,
-2.66863704e-01f,+2.15907693e-01f,+3.10889818e-02f,+1.19591005e-01f,+5.41508533e-02f,
+1.55005381e-01f,-4.58723903e-02f,+9.30274650e-02f,+1.39896199e-01f,+1.27646849e-01f,
+8.71111900e-02f,+2.05861460e-02f,+5.45079075e-02f,-2.80269142e-02f,+2.14507073e-01f,
-5.53971231e-02f,+5.58125414e-02f,+3.92073914e-02f,-7.13803545e-02f,-1.34142950e-01f,
+7.07362294e-02f,+7.30120316e-02f,+1.34007707e-01f,+3.23843360e-02f,+3.39883566e-02f,
-1.75783440e-01f,-8.66592526e-02f,-1.60386324e-01f,-9.40598547e-02f,+1.42104298e-01f,
+1.55409798e-01f,+1.74286291e-01f,+8.27982798e-02f,+3.56015176e-01f,-5.69764562e-02f,
+4.90542240e-02f,+1.27756655e-01f,+1.49175227e-01f,+2.27523312e-01f,+8.25638101e-02f,
-9.91002172e-02f,+2.39249915e-01f,+2.42949143e-01f,+9.06326994e-02f,+1.37648821e-01f,
+6.19034423e-03f,+1.34390950e-01f,+2.00753976e-02f,-9.10031497e-02f,+5.79382367e-02f,
-3.40706289e-01f,-5.98641336e-02f,+7.43552111e-03f,+7.55653232e-02f,-8.22856128e-02f,
-1.12452708e-01f,+4.49316204e-02f,-2.20453382e-01f,+1.07592538e-01f,-1.20990850e-01f,
-2.08312362e-01f,-1.40528888e-01f,+1.56270280e-01f,-2.67691880e-01f,-1.69612944e-01f,
-1.45170346e-01f,-1.27534270e-01f,+1.22871824e-01f,-1.04546063e-02f,+8.13868865e-02f,
-6.83843419e-02f,-1.53619811e-01f,+9.52853709e-02f,-3.76461111e-02f,+1.33485049e-01f,
+1.68837234e-01f,+1.41692296e-01f,+1.84923187e-01f,+8.33762065e-02f,-3.01770836e-01f,
-1.82301775e-01f,-1.00973353e-01f,+1.80024356e-01f,+1.20396204e-01f,+8.38065073e-02f,
-7.13937357e-02f,+1.84955809e-03f,+5.74300718e-03f,+1.34858355e-01f,+9.30353254e-02f,
+1.35453388e-01f,-2.42366716e-01f,+3.31539102e-02f,-1.25102192e-01f,+2.93496132e-01f,
+8.15035701e-02f,-1.84684414e-02f,+2.15325989e-02f,+2.38338694e-01f,+2.82786667e-01f,
-1.86480075e-01f,+3.68625820e-02f,+2.70219371e-02f,+7.47308740e-03f,-3.58605236e-02f,
+8.47514644e-02f,-8.16033408e-03f,-1.29689723e-01f,+2.36889035e-01f,+6.45801425e-02f,
+1.60096511e-01f,+1.28045902e-01f,-4.83481474e-02f,-1.36211552e-02f,+5.77303953e-02f,
+1.08880937e-01f,+5.66330366e-02f,-1.36775807e-01f,+4.64685522e-02f,-3.13678719e-02f,
+1.52584240e-01f,+1.29994256e-02f,-1.38509855e-01f,+1.21794462e-01f,-3.06161970e-01f,
+1.24503337e-01f,-6.37557954e-02f,+1.44271582e-01f,-1.58233359e-01f,+3.43983173e-01f,
+2.95117367e-02f,+9.60895941e-02f,-1.43089490e-02f,+6.01024888e-02f,-2.89215714e-01f,
-1.09731667e-01f,-8.60898718e-02f,-1.59637295e-02f,+3.22581902e-02f,+1.09817430e-01f,
+1.62723914e-01f,+5.44078834e-02f,+1.18280733e-02f,+1.50302008e-01f,+6.76074624e-02f,
-8.07269886e-02f,+9.12079886e-02f,-1.02316141e-01f,-2.12225392e-01f,+2.06081450e-01f,
+3.42146784e-01f,-2.28237696e-02f,+8.26401114e-02f,+1.65438950e-01f,+1.03968002e-01f,
+3.37219127e-02f,}; 
k2c_tensor l5_kernel = {&l5_kernel_array[0],2,104976,{324,324,  1,  1,  1}}; 
float l5_bias_array[324] = {
-9.35461342e-01f,-1.61275983e+00f,-1.19448030e+00f,-1.15409613e+00f,-1.75555086e+00f,
-1.03001070e+00f,-1.69558835e+00f,-1.35337782e+00f,-1.76944101e+00f,-1.23495519e+00f,
-1.81694341e+00f,-1.82011259e+00f,-1.87758422e+00f,-1.51203394e+00f,-1.24998319e+00f,
-1.85577381e+00f,-1.48596358e+00f,-1.71062171e+00f,-8.33897412e-01f,-1.11466837e+00f,
-1.56524122e+00f,-1.38910639e+00f,-1.41840279e+00f,-9.67532933e-01f,-1.82665992e+00f,
-1.50011957e+00f,-2.50563383e+00f,-1.44130611e+00f,-1.42313528e+00f,-1.14308774e+00f,
-6.47827506e-01f,-1.61771500e+00f,-7.41089702e-01f,-1.49407542e+00f,-1.55299973e+00f,
-2.19127131e+00f,-1.59042025e+00f,-1.98996258e+00f,-1.24985635e+00f,-1.26273882e+00f,
-1.76618040e+00f,-2.90754676e-01f,-1.53109777e+00f,-8.20562124e-01f,-1.16263652e+00f,
-1.70856595e+00f,-1.67146921e+00f,-9.39718783e-01f,-1.35891211e+00f,-1.23253560e+00f,
-1.42068720e+00f,-1.71886826e+00f,-1.75209606e+00f,-9.06113267e-01f,-1.70405042e+00f,
-1.15756869e+00f,-9.56199110e-01f,-1.18255794e+00f,-1.40686607e+00f,-9.89588916e-01f,
-2.07858682e+00f,-1.64228511e+00f,-1.37614965e+00f,-1.17398143e+00f,-1.23341668e+00f,
-1.76279092e+00f,-1.33449423e+00f,-1.50676858e+00f,-1.03561032e+00f,-9.68854368e-01f,
-1.66066360e+00f,-9.92326438e-01f,-1.56910992e+00f,-1.59027398e+00f,-2.07163429e+00f,
-1.78304458e+00f,-8.53163362e-01f,-1.17261434e+00f,-1.38834345e+00f,-1.64555097e+00f,
-2.05847287e+00f,-1.68008518e+00f,-1.19765508e+00f,-1.35050464e+00f,-1.18616843e+00f,
-1.37541854e+00f,-1.14346087e+00f,-1.98950493e+00f,-1.65358341e+00f,-1.06744301e+00f,
-1.38500464e+00f,-1.58093452e+00f,-1.20043838e+00f,-1.75419688e+00f,-2.04167008e+00f,
-2.16220593e+00f,-1.40379500e+00f,-1.34009910e+00f,-1.58145344e+00f,-1.41234839e+00f,
-1.29908514e+00f,-1.47202766e+00f,-1.08833647e+00f,-7.53179491e-01f,-1.69354343e+00f,
-1.94184899e+00f,-1.45052028e+00f,-1.63181603e+00f,-7.86131680e-01f,-1.55168390e+00f,
-1.26099253e+00f,-1.13906980e+00f,-1.03678012e+00f,-1.11755383e+00f,-6.85371816e-01f,
-1.34112096e+00f,-1.51321781e+00f,-1.67429495e+00f,-1.04818523e+00f,-1.69431555e+00f,
-1.38003814e+00f,-1.50598478e+00f,-1.08896065e+00f,-1.27856541e+00f,-1.55514288e+00f,
-5.55470526e-01f,-1.59962094e+00f,-2.69870830e+00f,-1.98152268e+00f,-1.28062892e+00f,
-1.78489649e+00f,-1.72750139e+00f,-1.47930002e+00f,-2.05557084e+00f,-1.43208420e+00f,
-1.91492367e+00f,-1.37340641e+00f,-1.77772546e+00f,-1.17294991e+00f,-1.85351586e+00f,
-1.10086942e+00f,-1.37521458e+00f,-3.93074363e-01f,-1.24324417e+00f,-2.08545566e+00f,
-1.78781915e+00f,-2.27088547e+00f,-1.97241223e+00f,+4.19870764e-02f,-1.56237090e+00f,
-1.52329636e+00f,-1.08103037e+00f,-1.50085580e+00f,-2.01814294e+00f,-9.27202642e-01f,
-1.62243485e+00f,-1.83385897e+00f,-1.45882690e+00f,-8.21729004e-01f,-1.36290109e+00f,
-1.21548605e+00f,-1.33298707e+00f,-1.28908396e+00f,-2.09597826e+00f,-1.74431622e+00f,
-9.72892761e-01f,-1.32045579e+00f,-8.49729955e-01f,-1.52965260e+00f,-1.17065716e+00f,
-1.01196289e+00f,-9.54948604e-01f,-8.57810020e-01f,-1.44952393e+00f,-1.35733771e+00f,
-9.02387500e-01f,-1.42110133e+00f,-2.01748061e+00f,-1.21793604e+00f,-1.82382560e+00f,
-9.79968250e-01f,-1.34976733e+00f,-1.49486721e+00f,-1.53785169e+00f,-2.39140368e+00f,
-1.04354131e+00f,-1.07908678e+00f,-1.27362335e+00f,-1.84955561e+00f,-1.52780938e+00f,
-1.75411975e+00f,-1.16745353e+00f,-1.82832646e+00f,-1.67129135e+00f,-6.90935910e-01f,
-8.12702417e-01f,-1.66944826e+00f,-1.63875377e+00f,-1.54367554e+00f,-2.15346885e+00f,
-8.13753068e-01f,-1.33348119e+00f,-1.08957326e+00f,-7.02805579e-01f,-1.11784804e+00f,
-1.32471812e+00f,-1.46998000e+00f,-1.47245812e+00f,-1.14453077e+00f,-1.52128589e+00f,
-9.84914780e-01f,-1.85963368e+00f,-1.51539791e+00f,-5.46878874e-01f,-1.83808672e+00f,
-1.90812778e+00f,-1.52428663e+00f,-1.37740135e+00f,-7.44052529e-01f,-7.54480779e-01f,
-1.48829615e+00f,-1.61084175e+00f,-1.93582714e+00f,-2.05674791e+00f,-1.44823205e+00f,
-1.55885756e+00f,-1.50154841e+00f,-5.50150692e-01f,-2.06365037e+00f,-8.76412809e-01f,
-9.48469460e-01f,-1.25564873e+00f,-1.70533991e+00f,-1.62345469e+00f,-1.02837920e+00f,
-1.06077373e+00f,-1.37868130e+00f,-1.38406289e+00f,-1.10403657e+00f,-1.95471561e+00f,
-7.33425796e-01f,-1.39119852e+00f,-1.54281223e+00f,-1.40782070e+00f,-2.13396263e+00f,
-1.93336308e+00f,-1.01122487e+00f,-7.18662620e-01f,-1.46244287e+00f,-1.64121711e+00f,
-1.50805128e+00f,-6.24488831e-01f,-1.87886786e+00f,-1.62780488e+00f,-1.42718709e+00f,
-1.50499737e+00f,-6.71082258e-01f,-5.90977252e-01f,-1.34186125e+00f,-1.50096071e+00f,
-1.28060019e+00f,-9.44318950e-01f,-1.64652443e+00f,-1.32524717e+00f,-1.45163667e+00f,
-9.60639715e-01f,-8.07812333e-01f,-1.58036625e+00f,-1.65460384e+00f,-1.74854362e+00f,
-1.64286518e+00f,-1.09381795e+00f,-1.74552858e+00f,-2.71533996e-01f,-9.64849055e-01f,
-1.55850148e+00f,-1.78675389e+00f,-1.42671764e+00f,-6.77924037e-01f,-1.40077829e+00f,
-1.14629197e+00f,-1.85201049e+00f,-1.29384506e+00f,-2.49866891e+00f,-1.39508832e+00f,
-1.03996599e+00f,-1.45525348e+00f,-1.10481071e+00f,-1.29113460e+00f,-1.13573349e+00f,
-1.91691375e+00f,-1.87208724e+00f,-1.57835126e+00f,-1.23394525e+00f,-1.77916741e+00f,
-1.19065237e+00f,-1.47639167e+00f,-1.25871253e+00f,-1.99774766e+00f,-1.02237380e+00f,
-1.68786788e+00f,-1.52618849e+00f,-1.59857106e+00f,-1.90250540e+00f,-1.37050664e+00f,
-1.26219392e+00f,-8.72053742e-01f,-1.28781950e+00f,-1.86725724e+00f,-2.00060034e+00f,
-1.15298462e+00f,-1.49938166e+00f,-1.48207760e+00f,-1.46315229e+00f,-1.35824025e+00f,
-1.39094353e+00f,-1.22087896e+00f,-1.66069674e+00f,-1.85204327e+00f,-1.38144267e+00f,
-1.48786473e+00f,-1.68276012e+00f,-1.43522501e+00f,-2.22584820e+00f,}; 
k2c_tensor l5_bias = {&l5_bias_array[0],1,324,{324,  1,  1,  1,  1}}; 
float l5_fwork[105300] = {0}; 

 
float l7_kernel_array[6480] = {
-1.19086705e-01f,-2.48354211e-01f,-6.45632148e-01f,-5.62272742e-02f,-7.55286694e-01f,
-2.73305029e-01f,-2.56189167e-01f,-2.15607733e-01f,+1.19932108e-02f,-1.45118952e-01f,
-2.87495498e-02f,-6.11009121e-01f,-1.44023597e-01f,-3.55250448e-01f,-8.71508539e-01f,
-2.80868739e-01f,-9.34009254e-02f,-1.62888765e-01f,-3.82485896e-01f,-3.54440331e-01f,
-1.02771592e+00f,-2.28780675e+00f,-3.11840266e-01f,-3.51329863e-01f,-4.55514222e-01f,
-1.13752091e+00f,+3.88399720e-01f,-1.80188850e-01f,-2.71296918e-01f,-4.03970212e-01f,
-1.44529849e-01f,+3.52363974e-01f,+1.06515296e-01f,-2.65457630e-01f,-2.77189046e-01f,
-4.26375389e-01f,-8.62430036e-02f,-5.65311849e-01f,+3.29707980e-01f,-2.36096278e-01f,
-2.10039631e-01f,-9.68582690e-01f,-5.87029517e-01f,-3.08658974e-03f,-2.39869922e-01f,
-6.04387999e-01f,-3.15060117e-03f,+3.85058671e-02f,-2.86182780e-02f,-3.44830692e-01f,
-8.38798061e-02f,-5.48537970e-01f,-6.27319235e-03f,-9.32661965e-02f,-1.31228578e+00f,
-7.39702731e-02f,+4.45692614e-02f,-8.12682867e-01f,-4.13543321e-02f,-2.52619982e-01f,
-1.96682274e-01f,-6.79005012e-02f,+5.13647404e-03f,-1.73535138e-01f,-2.35083327e-02f,
-3.05722691e-02f,-1.57578051e+00f,-1.31872714e+00f,-1.01729643e+00f,-8.68951231e-02f,
-4.49561536e-01f,-2.43443385e-01f,-2.48404026e-01f,-1.01371318e-01f,-8.58966447e-03f,
-6.68739751e-02f,-5.76231219e-02f,-1.20915927e-01f,-4.44086164e-01f,-2.64498647e-02f,
-2.15992227e-01f,-6.75458685e-02f,+1.19826309e-01f,-6.08831383e-02f,-1.38653326e+00f,
-5.08003831e-02f,-4.00695235e-01f,-6.44290209e-01f,+1.49139106e-01f,-3.61645490e-01f,
+8.70384946e-02f,-1.23558867e+00f,-1.05661440e+00f,+2.45685413e-01f,-1.39261997e+00f,
+1.32048309e-01f,-3.24169666e-01f,+8.98741633e-02f,-2.28153408e-01f,-1.54724047e-01f,
+2.52995700e-01f,-4.17018145e-01f,-6.56854570e-01f,-2.73494154e-01f,-3.07186563e-02f,
-2.10241246e+00f,+2.19574094e-01f,-9.76464897e-02f,+2.44715251e-02f,-3.07870265e-02f,
-1.19996719e-01f,-4.89873469e-01f,+4.21224907e-03f,-5.05000591e-01f,-9.69316214e-02f,
-2.03026503e-01f,-2.67684668e-01f,-1.14183985e-01f,-1.44068968e+00f,-2.18387827e-01f,
+6.01552315e-02f,-1.13900459e+00f,-4.74252731e-01f,+3.43265161e-02f,-1.58704579e-01f,
-4.14316595e-01f,-1.15684068e+00f,+9.69640017e-02f,+2.53082681e-02f,-7.28606582e-02f,
+1.35703191e-01f,-2.13648260e-01f,-1.60205215e-01f,-4.45053458e-01f,-1.30096480e-01f,
-9.74141777e-01f,+2.13907454e-02f,-6.14216104e-02f,-1.73274457e+00f,-1.58506513e-01f,
-1.71300435e+00f,+2.77206842e-02f,-8.50238800e-01f,-1.55610800e-01f,-3.28418404e-01f,
+3.70571502e-02f,+3.32053527e-02f,-2.80875236e-01f,-5.55943966e-01f,-1.62757427e-01f,
-2.14394242e-01f,-3.66852880e-01f,+1.96602002e-01f,-1.93287700e-01f,-4.78627801e-01f,
+1.06293842e-01f,-2.31127337e-01f,-8.14801306e-02f,-7.05308974e-01f,+6.94428980e-02f,
+1.18639998e-01f,+1.69804390e-03f,-8.51881087e-01f,-3.34698200e-01f,-3.89377445e-01f,
+4.55913357e-02f,-1.01860397e-01f,-1.43482998e-01f,+9.33786668e-03f,-4.02419090e-01f,
-2.17013970e-01f,-3.39389831e-01f,+6.20157644e-03f,-5.17450571e-01f,-1.34577346e+00f,
+1.56095088e-01f,-3.05234313e-01f,-3.13155234e-01f,-4.07230169e-01f,+3.99664007e-02f,
-2.10654303e-01f,-1.37253678e+00f,-2.71897048e-01f,-2.47433763e-02f,-2.31365785e-02f,
-5.39168477e-01f,+2.72853881e-01f,-4.00410682e-01f,+2.61607636e-02f,-4.71941940e-02f,
+5.11224754e-02f,-3.90901566e-01f,-3.03350061e-01f,-4.83489007e-01f,-1.71149135e-01f,
+3.44442017e-02f,-7.52555281e-02f,-1.00701801e-01f,-5.06921411e-01f,-4.44498301e-01f,
+1.85123444e-01f,-2.71826088e-02f,+1.69824138e-01f,-5.36812663e-01f,+1.11499876e-01f,
-2.98356086e-01f,-1.90995085e+00f,-8.83192718e-01f,-1.91145211e-01f,-1.90046698e-01f,
-7.12719560e-01f,-2.50076383e-01f,-6.88172355e-02f,+6.90501034e-02f,+1.74894720e-01f,
-1.13220119e+00f,-1.02066004e+00f,+7.11325482e-02f,-5.72865307e-01f,+2.02722773e-02f,
-1.38842344e+00f,-1.13368824e-01f,+9.39903110e-02f,-3.52686197e-02f,-6.04938809e-03f,
-5.51897772e-02f,-1.21868443e+00f,-1.90867141e-01f,-4.52818453e-01f,-1.25361890e-01f,
-2.36705348e-01f,-2.08323747e-01f,-4.44185436e-01f,-1.18538998e-01f,+2.78031640e-02f,
-1.50371933e+00f,+4.97975983e-02f,-6.64277226e-02f,-2.34375477e-01f,-4.45278771e-02f,
-3.27586949e-01f,-6.48397282e-02f,+8.73749331e-02f,-4.56234246e-01f,+6.32532090e-02f,
-3.64259370e-02f,-1.27462161e+00f,-1.59373569e+00f,-1.02623320e+00f,+1.98903121e-02f,
-1.73147702e+00f,-5.55957258e-01f,-1.86026931e-01f,+4.36893525e-03f,+4.86879759e-02f,
+1.86496526e-02f,-2.27665320e-01f,-9.47816595e-02f,-3.11834306e-01f,-1.38981611e-01f,
+9.15528275e-03f,-6.01823330e-01f,-7.71425247e-01f,+8.31267703e-03f,-2.58914262e-01f,
-3.82304192e-01f,+1.38929844e-01f,-7.89615661e-02f,+3.73863354e-02f,-1.58315094e-03f,
+5.86950481e-02f,-4.47467655e-01f,-1.37317395e+00f,-8.35020840e-01f,-4.09238100e-01f,
-3.73019606e-01f,+5.35465665e-02f,-1.07916668e-01f,-4.22948182e-01f,-5.34699738e-01f,
+9.23453122e-02f,+4.02548816e-03f,-9.49307740e-01f,+4.38965596e-02f,-1.69818088e-01f,
-6.74501061e-01f,-2.07852054e+00f,-3.85770828e-01f,+9.78056863e-02f,-8.27235952e-02f,
-7.47103617e-02f,-5.51427424e-01f,-7.75507540e-02f,+6.18785173e-02f,-6.32427782e-02f,
-5.95665097e-01f,-2.09175441e-02f,-5.37995510e-02f,-5.16915321e-01f,-7.02209890e-01f,
-1.23856798e-01f,-1.39040306e-01f,-7.29199946e-02f,-4.85773496e-02f,-6.58216421e-03f,
-1.01229645e-01f,-1.93720412e+00f,-8.07053223e-02f,-2.58995950e-01f,-2.87629012e-02f,
-5.48022836e-02f,-1.16144359e+00f,-1.34753788e+00f,-1.04907908e-01f,-7.06020445e-02f,
-1.19964905e-01f,-5.12294210e-02f,-6.57186359e-02f,-1.43199599e+00f,-6.14171214e-02f,
-2.13905811e-01f,-5.18127792e-02f,-8.22409749e-01f,-1.85131151e-02f,-3.58992100e-01f,
-1.30719319e-01f,-6.92235351e-01f,+1.62870605e-02f,-1.34771345e-02f,-1.75880894e-01f,
+1.16655082e-02f,-1.19721758e+00f,-1.18230522e+00f,-2.97145754e-01f,-6.57885969e-01f,
-6.33550957e-02f,-5.46716377e-02f,-4.91881855e-02f,-3.94786656e-01f,-1.26477808e-01f,
-6.77143216e-01f,-2.26347402e-01f,+6.91464543e-02f,-2.67085414e-02f,+7.45771974e-02f,
-1.73388228e-01f,-8.18665445e-01f,+2.90529225e-02f,-4.23615873e-01f,+6.26441017e-02f,
-2.51054835e+00f,-1.80838510e-01f,-2.47577861e-01f,-1.42470405e-01f,-3.09216492e-02f,
-2.48630017e-01f,-2.05288962e-01f,-1.45939440e-01f,-2.31237009e-01f,-1.23859361e-01f,
-1.49750069e-01f,-1.21016249e-01f,-1.05868176e-01f,-1.37157664e-01f,-1.02026813e-01f,
-1.00124530e-01f,-1.35372818e-01f,-9.83605459e-02f,-1.19088089e+00f,-1.08854033e-01f,
-1.87358573e-01f,-1.67095333e-01f,-1.44224629e-01f,-1.01856895e-01f,-1.58463359e-01f,
-8.93185809e-02f,-1.31824091e-01f,-1.25381529e-01f,-1.42950013e-01f,-1.14158295e-01f,
-4.14850086e-01f,-1.79380596e-01f,-1.57623267e+00f,-2.17152402e-01f,-8.39569390e-01f,
-9.76927206e-02f,+5.57114519e-02f,-7.45717943e-01f,-4.88665141e-02f,-4.56514359e-01f,
-1.41695768e-01f,+2.01581474e-02f,-6.05354598e-03f,-2.53834724e-01f,-1.61606684e-01f,
-7.17873648e-02f,-1.85453013e-01f,-2.05679059e-01f,+6.29630089e-02f,-2.44662032e-01f,
-1.71613432e-02f,-2.52146184e-01f,+6.54908642e-02f,-3.32767447e-03f,+4.36605103e-02f,
-8.86261106e-01f,+2.92963326e-01f,-4.39583719e-01f,-8.54431033e-01f,-2.82650515e-02f,
-7.91640997e-01f,+2.16054142e-01f,+1.26878127e-01f,-3.93054746e-02f,-1.02452047e-01f,
-1.12478435e+00f,-2.39768222e-01f,-3.34574193e-01f,+1.93124697e-01f,-1.02832210e+00f,
-2.63246536e+00f,-1.43975124e-01f,-2.97949016e-01f,-2.12003723e-01f,-1.76535964e-01f,
-5.40966578e-02f,-1.16473699e+00f,-4.00377661e-02f,-2.93952525e-01f,-5.79327308e-02f,
-8.10910985e-02f,-1.10783719e-01f,-1.38166443e-01f,-2.13741157e-02f,-4.23464537e-01f,
-2.55171269e-01f,-8.73788595e-02f,+5.10160960e-02f,-4.23619628e-01f,-2.43014961e-01f,
-1.22735441e-01f,-9.87729013e-01f,+2.35923175e-02f,-1.42909631e-01f,+1.02346934e-01f,
-1.79160446e-01f,-3.59268710e-02f,+1.53895423e-01f,-5.66662401e-02f,-1.25854775e-01f,
-3.68435904e-02f,-3.35166305e-02f,-1.32674420e+00f,-1.79507926e-01f,-2.48196930e-01f,
-2.51200527e-01f,-5.92542179e-02f,-2.47613892e-01f,+4.45194989e-02f,-2.21544576e+00f,
-2.04731464e+00f,-3.39727908e-01f,-2.56566048e-01f,-3.75665240e-02f,-4.07337457e-01f,
-1.74140707e-02f,-6.84756100e-01f,-8.00243020e-02f,-2.53588021e-01f,-8.99449512e-02f,
-3.38991851e-01f,-9.11110938e-02f,-2.87539303e-01f,-1.24654159e-01f,+4.90908548e-02f,
-2.01474011e-01f,+2.71009915e-02f,-4.28518094e-02f,-7.52848685e-02f,-6.02261275e-02f,
-5.45548217e-04f,-3.01997006e-01f,-8.37290660e-02f,-1.19038546e+00f,-1.39327776e+00f,
-7.98852276e-03f,+4.31376040e-01f,-6.52965754e-02f,-1.05119741e+00f,+2.79678971e-01f,
-3.91024023e-01f,+2.46583849e-01f,+2.44221628e-01f,-4.76444930e-01f,-1.74209341e-01f,
-1.58380330e-01f,-4.43522662e-01f,-6.49328113e-01f,+2.72928327e-01f,-1.90875590e-01f,
-6.39464660e-03f,+4.76458482e-03f,+1.43955439e-01f,-1.19587362e+00f,-1.62317470e-01f,
-3.47065598e-01f,-2.77679235e-01f,-3.65628481e-01f,-1.25500238e+00f,-5.05201928e-02f,
-7.03839302e-01f,-1.71231441e-02f,-9.73447114e-02f,-1.54442549e-01f,+1.61684394e-01f,
-1.29483259e+00f,-3.70579027e-02f,-3.07862222e-01f,-9.66301337e-02f,+7.94243291e-02f,
+3.11572313e-01f,-3.07774633e-01f,+3.30708444e-01f,-4.20151889e-01f,+2.66349852e-01f,
-5.86119413e-01f,-2.02234554e+00f,-7.11394966e-01f,-4.81825739e-01f,+3.13137352e-01f,
-6.15980215e-02f,-2.99144030e-01f,+2.19460707e-02f,+1.64032951e-01f,+4.71399605e-01f,
-2.29882956e+00f,-4.19247180e-01f,+1.25475630e-01f,-1.35653484e+00f,+2.03669682e-01f,
-3.35576683e-02f,-3.50987136e-01f,+6.79739490e-02f,-6.94071949e-02f,-3.71605679e-02f,
-1.12251021e-01f,-7.14106262e-01f,+4.65845689e-03f,-9.49615419e-01f,+7.09054396e-02f,
-1.59937888e-01f,-2.16308284e+00f,-1.66012853e-01f,-9.83049497e-02f,-2.53999740e-01f,
-4.30152193e-02f,-1.06580853e-01f,-6.89862669e-02f,-2.48296723e-01f,-4.26747024e-01f,
-1.66987121e-01f,-7.86449686e-02f,-6.11930080e-02f,-1.72373366e+00f,-1.65620655e-01f,
-1.87692270e-02f,+1.50089562e-01f,-1.92004591e-01f,+1.98447749e-01f,-6.41580343e-01f,
-6.98856175e-01f,+6.69541657e-02f,+8.24728385e-02f,-2.94171065e-01f,-8.41252878e-02f,
+5.67972027e-02f,-1.13285911e+00f,-2.02989936e-01f,+6.29331917e-02f,-8.69371668e-02f,
-4.02944475e-01f,-3.60439122e-01f,-3.82844180e-01f,-1.26545027e-01f,-5.79356313e-01f,
-1.26241609e-01f,-1.77809410e-02f,-7.24320933e-02f,-1.08150534e-01f,-4.71755296e-01f,
-1.43904611e-01f,+2.46765181e-01f,+1.30450726e-01f,+5.63917272e-02f,-5.42140365e-01f,
-1.33952999e+00f,-6.35219738e-02f,-1.37801588e+00f,+6.92787990e-02f,-4.80080009e-01f,
-1.22538173e+00f,-2.67244369e-01f,-2.85696894e-01f,-5.14454283e-02f,-4.64463502e-01f,
-1.66066423e-01f,-4.33945626e-01f,-1.45923093e-01f,+5.87667003e-02f,-6.81886822e-02f,
-2.26369470e-01f,-3.89487237e-01f,-1.64581096e+00f,-4.71419208e-02f,-3.22640806e-01f,
-3.96601558e-01f,-8.71980041e-02f,-2.73133755e-01f,-1.97926596e-01f,-5.61931431e-01f,
-8.82014260e-03f,-1.89701110e-01f,-7.90396273e-01f,-7.33997300e-02f,-4.19321209e-02f,
-1.04535878e-01f,-1.20329984e-01f,+8.67702365e-02f,-1.25033766e-01f,-1.43132776e-01f,
+4.23119143e-02f,-6.24814987e-01f,-1.19825475e-01f,-2.58493423e-01f,-1.29782522e+00f,
-1.87489033e-01f,-1.28103986e-01f,-1.58171833e-01f,-4.05387431e-01f,-1.05126262e+00f,
+3.11562479e-01f,-5.92219830e-01f,+1.07813410e-01f,-1.02114165e+00f,+3.25478435e-01f,
-5.06441534e-01f,-2.17404246e-01f,+9.07074362e-02f,+1.07760534e-01f,+2.71855742e-01f,
-1.39287178e-04f,-7.30409741e-01f,-1.34994447e+00f,-4.18471456e-01f,+1.30002946e-01f,
-9.97370303e-01f,-2.10193872e-01f,-6.11448586e-01f,-9.12117720e-01f,-8.55661333e-01f,
-5.49384095e-02f,-2.84900069e-01f,-9.30827633e-02f,-1.07438073e-01f,+1.38853826e-02f,
-1.06783524e-01f,-7.86412179e-01f,-4.04869944e-01f,-2.79610530e-02f,-5.92304319e-02f,
+1.44582437e-02f,-2.80813026e+00f,-4.69821453e-01f,-1.55406386e-01f,-2.78024860e-02f,
-1.59403980e-01f,-1.09182365e-01f,-1.73463784e-02f,-2.77834624e-01f,-7.71980956e-02f,
-8.80753472e-02f,-3.01277310e-01f,-8.60998034e-02f,-4.22221795e-02f,-2.54577044e-02f,
-1.70977876e-01f,-3.41860723e+00f,-3.29418927e-02f,-4.72427122e-02f,-4.95201573e-02f,
-2.35230271e-02f,-3.25544894e-01f,-6.97930455e-01f,-2.65253395e-01f,-8.72079208e-02f,
-3.65380138e-01f,-5.87875135e-02f,-7.43038729e-02f,-2.92024016e-01f,-1.33001044e-01f,
+2.68321931e-02f,-7.28114769e-02f,+3.69337089e-02f,-7.21299946e-02f,+7.35243484e-02f,
-1.25108898e-01f,-8.98924291e-01f,-3.12437773e-01f,-2.20325351e+00f,+3.95517871e-02f,
-1.90248653e-01f,-1.51689267e+00f,-1.20026994e+00f,+1.79544128e-02f,+5.93004152e-02f,
-1.93457097e-01f,-1.25337154e-01f,-3.86158712e-02f,-1.48098183e+00f,-9.63409618e-02f,
+1.83893368e-02f,-9.59868908e-01f,+2.30682939e-01f,-1.85757443e-01f,+7.48784170e-02f,
-9.00158942e-01f,-1.96093395e-01f,-1.42560393e-01f,-5.67762628e-02f,-1.19477324e-01f,
-3.57298017e-01f,+1.90674379e-01f,-6.01582110e-01f,-3.15712661e-01f,+9.14258584e-02f,
+6.41649604e-01f,-5.91978312e-01f,-1.20213437e+00f,+7.77147710e-02f,-1.03359032e+00f,
-1.71128497e-01f,-1.08289860e-01f,+5.51012643e-02f,-9.09867696e-03f,+9.24491396e-05f,
-1.82963282e-01f,-1.12924659e+00f,+7.73752108e-02f,-8.81810784e-02f,-1.12990044e-01f,
-1.30860299e-01f,-3.64444435e-01f,-3.55281562e-01f,+5.90725942e-03f,+9.70267970e-03f,
-1.89133775e+00f,-1.17605245e-02f,-6.15465306e-02f,-1.56502843e+00f,-1.73316732e-01f,
-8.19937229e-01f,-5.75189032e-02f,+2.36910120e-01f,-8.64778399e-01f,-5.52399933e-01f,
-2.62975961e-01f,-3.87200207e-01f,+1.25574902e-01f,-3.90053958e-01f,-5.42562485e-01f,
-3.99472505e-01f,-1.12515338e-01f,-3.06158606e-02f,-4.64594871e-01f,-1.08678877e-01f,
-6.39405370e-01f,-6.38112128e-01f,+1.08106263e-01f,-2.08971947e-01f,+4.06476527e-01f,
+1.90065697e-01f,-7.53104985e-01f,-6.74625218e-01f,-5.04638493e-01f,+1.06324866e-01f,
-1.89598687e-02f,-1.74073410e+00f,-3.38868648e-01f,-2.83188164e-01f,+1.79586157e-01f,
+2.17684552e-01f,-3.73658142e-04f,-3.08176041e-01f,-9.48721915e-02f,+1.29970327e-01f,
-8.77097905e-01f,-2.40625307e-01f,-6.34124801e-02f,-2.00118765e-01f,+7.52870971e-03f,
-3.20842803e-01f,-1.51802674e-01f,+1.23204179e-01f,-2.48889253e-01f,-3.59999016e-02f,
-9.66909409e-01f,-6.56302094e-01f,-1.08748353e+00f,-1.68107045e+00f,-2.59063542e-02f,
-3.99292886e-01f,+1.30345032e-01f,+6.55075535e-02f,+3.79715785e-02f,+1.43529624e-01f,
-1.30297720e+00f,+1.60106283e-03f,-6.72580749e-02f,-3.74867246e-02f,+6.32494548e-03f,
-1.22383088e-01f,-9.98725891e-02f,-8.83229747e-02f,-1.35318428e-01f,-1.03823453e-01f,
-1.03336975e-01f,-8.35761502e-02f,-8.00675303e-02f,-9.32704568e-01f,-1.10438898e-01f,
-2.15043485e-01f,-9.22281444e-02f,-7.69487992e-02f,-9.62107405e-02f,-1.08828045e-01f,
-1.03918821e-01f,-1.23700775e-01f,-1.15150459e-01f,-8.88106376e-02f,-1.05933063e-01f,
-3.02912802e-01f,-2.99111277e-01f,+4.11676429e-02f,+2.23659892e-02f,-8.32467079e-01f,
-1.41563088e-01f,+2.59882927e-01f,+1.27542675e-01f,+1.44170761e-01f,-9.75120902e-01f,
+1.69442356e-01f,-4.06087518e-01f,-4.58868295e-01f,-9.70541954e-01f,-1.37392366e+00f,
-8.60132277e-02f,-2.22261190e-01f,+3.32810730e-02f,-5.79134881e-01f,-1.21820736e+00f,
-2.92374700e-01f,-1.58503458e-01f,-6.96684420e-01f,+9.00832042e-02f,-4.72098351e-01f,
-1.98084086e-01f,-2.54771680e-01f,-4.11059633e-02f,-1.63522243e-01f,+1.01819292e-01f,
-5.46952903e-01f,-3.06494683e-01f,+3.64191756e-02f,-1.23185731e-01f,-4.49802160e-01f,
-1.53285265e-01f,-9.27179232e-02f,-4.13985759e-01f,-7.89787889e-01f,-6.19692683e-01f,
+1.11640237e-01f,-4.75398928e-01f,-3.50001544e-01f,-8.20548385e-02f,-3.85980636e-01f,
-3.97857428e-01f,-1.26066136e+00f,-6.34766281e-01f,+7.81466216e-02f,-6.65382147e-02f,
-2.19121296e-02f,-3.00906360e-01f,-1.06896257e+00f,-1.04222751e+00f,-2.60264426e-01f,
-1.05488729e+00f,-1.17881633e-01f,-1.21646360e-01f,+1.69757754e-01f,+7.63245448e-02f,
-4.94873285e-01f,-5.74827075e-01f,-7.08897591e-01f,-2.53763139e-01f,-4.97680977e-02f,
-1.79198030e-02f,+2.44833604e-01f,-8.88707116e-02f,-2.54963815e-01f,-3.08575571e-01f,
-2.81408936e-01f,+8.83997530e-02f,+4.99829724e-02f,-1.96464732e-03f,-1.14355981e+00f,
+6.88496903e-02f,-1.62716702e-01f,-1.59839952e+00f,+1.54167458e-01f,-3.10754329e-01f,
+5.43417335e-01f,+5.48728555e-02f,-1.01122007e-01f,-7.88862351e-03f,-2.17722535e-01f,
-3.11815329e-02f,-1.50559202e-01f,+1.03280455e-01f,-5.11438191e-01f,+1.12327188e-01f,
-8.58964860e-01f,-1.36456954e+00f,-5.01599193e-01f,-1.52753830e-01f,+3.48476261e-01f,
-8.96490932e-01f,-4.84838247e-01f,-9.15477499e-02f,-9.33877349e-01f,+9.46530327e-03f,
-1.21279150e-01f,-1.59875646e-01f,-6.34391904e-02f,-1.36597469e-01f,-6.87126741e-02f,
-3.05705756e-01f,-2.39180732e+00f,-2.85557415e-02f,-9.03853029e-02f,-1.21157363e-01f,
-6.44254535e-02f,-2.66097277e-01f,-4.35951173e-01f,-5.67339480e-01f,-1.22826435e-01f,
-3.54640603e-01f,-1.34105891e-01f,-1.77131414e-01f,-5.38362682e-01f,-9.70278457e-02f,
-4.65354949e-01f,+4.78045911e-01f,+1.29254848e-01f,-3.39342237e-01f,+8.52585509e-02f,
-1.12618089e+00f,-8.69834661e-01f,+3.47089535e-03f,-2.59063572e-01f,+7.06356857e-03f,
-5.94915390e-01f,-7.48320043e-01f,+1.68992370e-01f,+8.22227895e-02f,-9.66152430e-01f,
-9.93437111e-01f,-2.01819107e-01f,+4.94159386e-02f,-6.25549614e-01f,+2.74824917e-01f,
-1.36790380e-01f,-7.00921237e-01f,-2.20676631e-01f,-2.55628657e-02f,-6.85984492e-02f,
-1.89095423e-01f,+1.39733031e-01f,+1.60744824e-02f,-2.59761602e-01f,-2.13715788e-02f,
-2.74694841e-02f,-1.34676957e+00f,-1.07324541e-01f,-2.44538262e-01f,-2.80251890e-01f,
-3.48718226e-01f,-8.32031518e-02f,-7.32271731e-01f,-4.20390159e-01f,-6.39165580e-01f,
-7.42186189e-01f,-3.64437997e-01f,-5.16667962e-01f,-9.91157517e-02f,-1.87104738e+00f,
-1.36842489e-01f,+2.76587367e-01f,-2.07860515e-01f,+4.58997153e-02f,-3.78063083e-01f,
-2.66936868e-01f,+2.05457136e-01f,+1.54754622e-02f,-7.28683174e-01f,-1.15359493e-01f,
-1.91525951e-01f,-2.63176978e-01f,-7.42872655e-02f,+2.30651349e-01f,-8.49386096e-01f,
+2.08956134e-02f,-3.84914666e-01f,+7.61560798e-02f,-2.03046545e-01f,+1.05023690e-01f,
-1.13514495e+00f,-1.73021257e-01f,-3.08169723e-01f,-1.21118796e+00f,+1.26202581e-02f,
-4.30208087e-01f,-3.73548090e-01f,-1.03621674e+00f,-1.59350019e-02f,-3.02443691e-02f,
+2.94337302e-01f,-4.08248872e-01f,-3.13662589e-01f,-4.46245074e-01f,-3.90762240e-01f,
-1.93924889e-01f,-4.91231412e-01f,-5.96245050e-01f,-1.49854973e-01f,-1.62620500e-01f,
-2.42857084e-01f,+1.74307391e-01f,-1.10525958e-01f,+1.48793429e-01f,-6.89305812e-02f,
-1.71560168e-01f,+1.79392427e-01f,+2.65292041e-02f,-1.34873903e+00f,-7.65429497e-01f,
-1.09299488e-01f,-1.09285271e+00f,-2.65294290e+00f,+1.91934675e-01f,-1.58089846e-01f,
-1.27968773e-01f,-1.86010480e-01f,-1.18243647e+00f,-8.72975886e-02f,-4.35983151e-01f,
-1.67490274e-01f,-1.57827679e-02f,-9.39158559e-01f,+5.60291670e-02f,-1.75511956e-01f,
-7.52006099e-02f,-1.35035932e-01f,-1.92537501e-01f,-4.59873304e-02f,-5.25003314e-01f,
-1.82929248e-01f,-2.04081491e-01f,-2.71061659e-01f,-2.23933965e-01f,-2.38160342e-01f,
-2.02831835e-01f,-1.75555213e-03f,-8.19262192e-02f,-1.56784505e-01f,-1.03056155e-01f,
-1.27250375e-02f,-1.08540952e+00f,-7.76654661e-01f,-1.57082486e+00f,-2.93569751e-02f,
-3.07696372e-01f,-2.41512358e-01f,-1.31683737e-01f,-4.05914187e-02f,-5.43746166e-02f,
+1.91897829e-03f,-6.76883906e-02f,-1.00929119e-01f,-1.62578523e+00f,-2.98695583e-02f,
-7.05969110e-02f,-1.50907815e-01f,-3.39201957e-01f,-6.59100264e-02f,-1.87382147e-01f,
-1.69094563e-01f,-2.11651534e-01f,-1.05226243e+00f,-4.03423943e-02f,-8.51717666e-02f,
-4.30836715e-03f,-3.93551677e-01f,-1.44700277e+00f,-1.77932069e-01f,-3.95947993e-01f,
-1.04575336e-01f,-1.02695405e-01f,-1.08274281e-01f,-1.13595915e+00f,-1.92354038e-01f,
-9.75287110e-02f,-5.44720948e-01f,-7.24975765e-01f,-3.67101245e-02f,-9.03720558e-01f,
-2.00669542e-01f,-1.77209392e-01f,+6.35048328e-03f,-8.18020850e-02f,-2.23942652e-01f,
-7.68583342e-02f,-2.30615094e-01f,-1.53814629e-01f,-1.49090216e-01f,-9.47189927e-01f,
-1.95605114e-01f,-8.91973376e-02f,-2.24209026e-01f,-3.06179434e-01f,-1.10823482e-01f,
+2.63266802e-01f,+9.05708969e-02f,-6.96824133e-01f,+1.72176480e-01f,-1.04859784e-01f,
-1.07088506e+00f,-4.18873727e-02f,-2.22524792e-01f,+2.16691986e-01f,-1.19221643e-01f,
-4.91760336e-02f,-7.73432702e-02f,-1.43683672e+00f,-2.68177450e-01f,-5.23928285e-01f,
-8.50322604e-01f,+8.08643028e-02f,-3.48816693e-01f,-6.71236992e-01f,+5.24127334e-02f,
+1.81223392e-01f,-1.90990210e-01f,-1.29745853e+00f,+9.64828953e-02f,-9.74331856e-01f,
-1.33488154e+00f,-1.11328267e-01f,-4.63107467e-01f,-1.88637033e-01f,-2.41682559e-01f,
-5.55056334e-03f,-5.40714800e-01f,+1.41635582e-01f,+6.22291602e-02f,-5.69151759e-01f,
-3.03631544e-01f,+1.55468270e-01f,-1.15504637e-01f,+1.69921126e-02f,-9.57837343e-01f,
-4.23158854e-01f,-3.76821041e-01f,+1.29842713e-01f,-2.90329307e-01f,-1.81091294e-01f,
-1.19540080e-01f,-1.15384541e-01f,-1.03437372e-01f,+4.26751710e-02f,-6.21153533e-01f,
-1.20675014e-02f,-2.07361042e-01f,-1.01753294e+00f,-8.35862935e-01f,+1.05169475e-01f,
-1.37993872e-01f,-2.42917269e-01f,-2.02347112e+00f,-2.17486620e-01f,-2.76942611e-01f,
-8.74560237e-01f,-1.63566485e-01f,-8.36307228e-01f,-8.34011316e-01f,+7.51819462e-03f,
-9.75792766e-01f,+7.84383118e-02f,-4.49129224e-01f,-1.22805083e+00f,-4.31332707e-01f,
-2.40633905e-01f,+4.42210048e-01f,+3.92975569e-01f,+9.31996703e-02f,+2.73167372e-01f,
-1.27582681e+00f,-5.89331426e-02f,-9.95323956e-01f,+4.53364104e-01f,+1.25322584e-02f,
+1.59898758e-01f,-1.90413833e-01f,-1.46255538e-01f,+1.88341975e-01f,-1.18486297e+00f,
-7.27495968e-01f,+5.42803928e-02f,-3.62027287e-01f,-8.67888704e-02f,-1.54480943e-02f,
-3.73048693e-01f,-9.91404295e-01f,-1.97932675e-01f,+4.20783162e-01f,+8.55675526e-03f,
-4.80864048e-01f,+4.79020119e-01f,-2.39931792e-01f,-1.29942775e+00f,-1.59206712e+00f,
-2.19609011e-02f,-4.74507287e-02f,-4.83979523e-01f,-4.37854715e-02f,-1.32608637e-01f,
-3.82292390e-01f,-2.98630387e-01f,+2.85280915e-03f,-7.29031339e-02f,-1.28421694e-01f,
+2.31374078e-03f,-7.86195174e-02f,-2.64067054e+00f,-2.69904017e-01f,-6.68567717e-01f,
-2.71253705e-01f,-1.30500585e-01f,-1.93099856e-01f,-7.36789763e-01f,-1.12300515e-01f,
-5.74727431e-02f,-1.11365780e-01f,-8.98851693e-01f,-6.96893334e-01f,-1.88031837e-01f,
-3.19353701e-03f,-1.09397523e-01f,-4.35993880e-01f,-3.01845163e-01f,+1.33979460e-02f,
-5.75242162e-01f,-4.56145138e-01f,-9.96997952e-02f,-5.00375554e-02f,-2.22548991e-01f,
+3.60594206e-02f,-2.59269718e-02f,-2.42848825e-02f,-2.97223240e-01f,-5.55574656e-01f,
-1.43482655e-01f,+1.56123554e-02f,-7.81827629e-01f,-1.32982701e-01f,-5.89496672e-01f,
+4.32720929e-02f,+1.40931249e-01f,-5.00973225e-01f,-2.35525817e-01f,-4.04175147e-02f,
-6.22435868e-01f,+1.66932896e-01f,-1.41759992e-01f,-3.98536056e-01f,-4.32834655e-01f,
+1.27945095e-01f,-1.37770903e+00f,-1.06005684e-01f,+3.73053015e-04f,-2.79156119e-01f,
+4.14763065e-03f,+6.41752034e-02f,-9.09574032e-02f,-3.73212546e-01f,-5.57102919e-01f,
-2.50016097e-02f,-8.15787792e-01f,-1.19437206e+00f,-2.48431206e-01f,-8.68697345e-01f,
-1.69169056e+00f,-1.06409267e-02f,+1.90050676e-02f,-2.21697371e-02f,+1.42493218e-01f,
-2.52285361e-01f,-3.74740839e-01f,-1.61768869e-01f,+1.59334168e-02f,+1.72062814e-01f,
-1.48858392e+00f,-1.35387480e-01f,-4.08898234e-01f,-1.22268302e-02f,-3.45084295e-02f,
-8.61275867e-02f,-2.07493782e+00f,-8.17321762e-02f,-1.25243530e-01f,-3.73319648e-02f,
-4.81584109e-02f,-4.27404970e-01f,-7.84066439e-01f,-2.30029047e-01f,-2.21825510e-01f,
-7.17919171e-02f,-3.82132381e-02f,+2.42123045e-02f,-1.57375789e+00f,-3.10198724e-01f,
-1.05091417e+00f,-1.00427650e-01f,-6.21429205e-01f,-4.93440449e-01f,-1.95798680e-01f,
+5.89771271e-02f,+2.91223109e-01f,-2.52567291e-01f,-3.66374046e-01f,-1.06042814e+00f,
-4.68393981e-01f,+1.07287578e-01f,+3.27182151e-02f,-5.91925010e-02f,-1.24780035e+00f,
+1.66316673e-01f,-5.73074937e-01f,-4.81911212e-01f,-5.06350659e-02f,+1.83864105e-02f,
-1.01210102e-01f,-8.23838785e-02f,-2.90428162e-01f,-7.98774958e-02f,-7.68169999e-01f,
-4.77932125e-01f,-2.06304044e-01f,-1.30532598e+00f,+4.02208827e-02f,-1.71075255e-01f,
-1.20130911e-01f,-3.56982350e-01f,-2.97873408e-01f,-2.15446532e-01f,+1.73987057e-02f,
-3.43107522e-01f,-8.76691863e-02f,-1.36672527e-01f,-7.17086673e-01f,-7.58255050e-02f,
-3.50505948e-01f,-4.09894079e-01f,-2.55495220e-01f,+1.56257674e-01f,-4.60045151e-02f,
-5.61158359e-01f,-1.57009244e-01f,-1.02919650e+00f,+2.00068541e-02f,-4.74341393e-01f,
-7.43299946e-02f,-2.41093218e-01f,-7.15591788e-01f,-1.73123017e-01f,-5.32148123e-01f,
+1.95521146e-01f,-3.88656035e-02f,-1.41346261e-01f,-1.99342623e-01f,-1.71443015e-01f,
-1.39779401e+00f,+3.11004043e-01f,-5.64227700e-01f,-3.02439570e-01f,-9.23048496e-01f,
+4.92359288e-02f,-1.37805891e+00f,+9.02364552e-02f,-2.80289203e-01f,-6.15338624e-01f,
+3.07464361e-01f,-1.29101083e-01f,+3.52926776e-02f,-4.32025611e-01f,+3.73639494e-01f,
-6.16681993e-01f,-5.31870238e-02f,+1.69604234e-02f,-3.84687632e-01f,+2.79495180e-01f,
-2.25665227e-01f,-2.17801437e-01f,-5.00226974e-01f,-4.27040877e-03f,-3.04916620e-01f,
-2.88014442e-01f,-6.02339327e-01f,+5.50755002e-02f,+7.72687122e-02f,-1.84279412e-01f,
-1.07408352e-01f,-1.36686170e+00f,-4.85743791e-01f,-2.58344319e-02f,-1.15517728e-01f,
-1.61249369e-01f,-3.11457948e-03f,-6.43087104e-02f,-1.28312361e+00f,-5.42869747e-01f,
-3.83332729e-01f,-8.16822052e-02f,-4.31563109e-01f,-8.31705987e-01f,-5.67587972e-01f,
-1.86056629e-01f,+1.71152223e-02f,-1.29220927e+00f,-3.91925812e-01f,-9.11688089e-01f,
-6.44991398e-01f,+1.97853497e-03f,+2.55710888e-03f,-5.25630601e-02f,-1.24803903e-02f,
-1.28463641e-01f,-2.55202532e-01f,-2.77477294e-01f,+4.25982885e-02f,-1.09172590e-01f,
-2.26656750e-01f,-1.39963580e-02f,+7.98546746e-02f,-3.42260450e-01f,-5.33000454e-02f,
-2.16343060e-01f,-5.99473417e-01f,-5.42635560e-01f,-6.65415585e-01f,-5.24373472e-01f,
-1.25056371e-01f,+2.35180527e-01f,+3.91855724e-02f,-2.61839926e-01f,+1.83314756e-01f,
-6.13491476e-01f,-5.49861252e-01f,+7.49003142e-02f,-1.55834091e+00f,+1.48989126e-01f,
-2.27713466e-01f,-1.82068899e-01f,-5.93386889e-01f,-1.33069217e+00f,-6.61681652e-01f,
-1.40096322e-01f,+1.14869922e-01f,-5.38237810e-01f,-7.18946874e-01f,-7.33088076e-01f,
-1.09883451e+00f,+6.03435561e-02f,+5.62144890e-02f,-1.57416344e-01f,-1.19124472e-01f,
-1.40091151e-01f,-3.11603785e-01f,-4.31871384e-01f,+8.66039917e-02f,-2.98966169e-01f,
-1.41653288e-02f,+9.76797193e-02f,-2.25661453e-02f,-1.56326666e-01f,+3.75393927e-02f,
+1.51177729e-02f,-2.55240822e+00f,-3.25855553e-01f,-1.36033535e+00f,-4.44287695e-02f,
-1.83821529e-01f,-2.65064035e-02f,-4.22028564e-02f,-2.06513032e-01f,-2.09202729e-02f,
-5.88736415e-01f,-1.86251968e-01f,-2.27149576e-01f,-5.24181187e-01f,-1.24509424e-01f,
-3.65903489e-02f,-2.40198776e-01f,-6.12709761e-01f,+1.12607732e-01f,-8.68708084e-05f,
-2.56664872e-01f,-1.71499646e+00f,+2.60573681e-02f,+2.17372388e-01f,-2.18012240e-02f,
-3.21650147e-01f,-1.11704838e+00f,-3.08352590e-01f,-1.41941339e-01f,-8.72702003e-01f,
-2.59008825e-01f,-8.23476613e-02f,-2.99384207e-01f,-1.13225484e+00f,-4.89551127e-01f,
-8.88370574e-02f,-1.36339024e-01f,+2.78803676e-01f,-3.51902336e-01f,-8.76584947e-02f,
-6.36955202e-01f,+1.21660426e-03f,-5.52797914e-01f,-2.53568470e-01f,-7.28091076e-02f,
-5.01256824e-01f,-2.71809936e-01f,-5.54990590e-01f,+6.62921146e-02f,-1.27946329e+00f,
+3.38692032e-02f,-3.73692475e-02f,-2.53443778e-01f,-9.51204896e-01f,-6.56522274e-01f,
-2.54661679e-01f,-2.87501395e-01f,-1.85292616e-01f,-3.12735923e-02f,+4.31233943e-02f,
-1.04007669e-01f,-2.20532393e+00f,-2.88187414e-01f,-2.38105189e-02f,-2.78237797e-02f,
+1.53330803e-01f,-1.66499510e-01f,-7.77836502e-01f,-5.43957770e-01f,-1.40884593e-01f,
-2.02886462e-01f,+1.57899596e-02f,-9.29382294e-02f,-1.43667424e+00f,-5.16968429e-01f,
-1.88907361e+00f,-9.75765064e-02f,-2.26331934e-01f,+2.69246195e-02f,+3.20191048e-02f,
-1.46504954e-01f,-2.16318369e+00f,-1.47220477e-01f,+1.42502010e-01f,-1.43550441e-03f,
+1.18949905e-01f,-3.36145908e-02f,-3.34082901e-01f,-3.61955076e-01f,-4.24435943e-01f,
-9.43051800e-02f,+8.03117901e-02f,+3.13843712e-02f,-1.07965291e+00f,-1.47542763e+00f,
-4.88992602e-01f,+6.33097673e-03f,+5.28362021e-02f,+1.14807613e-01f,-1.21470630e+00f,
+1.74628615e-01f,+4.43330146e-02f,-4.28466424e-02f,-3.22850019e-01f,-1.35191691e+00f,
-1.70623381e-02f,+2.41261899e-01f,-1.52658597e-01f,-7.67409980e-01f,-5.57433367e-01f,
+2.22088069e-01f,-1.68654001e+00f,-3.76808077e-01f,+2.79091388e-01f,+1.83150619e-01f,
+9.97963548e-02f,-5.61852515e-01f,-2.51709819e-01f,-1.37767205e-02f,+2.80993860e-02f,
-6.08064055e-01f,+1.39187515e-01f,-9.69762206e-01f,+1.42749548e-01f,-8.48814007e-03f,
-4.68714628e-03f,-4.30616111e-01f,+1.24930933e-01f,-7.13693917e-01f,-1.42516339e+00f,
-4.67013806e-01f,-8.69307294e-02f,-6.39362782e-02f,-4.00023669e-01f,-3.25737894e-01f,
-5.18162131e-01f,-1.97509930e-01f,+9.51976608e-03f,-6.38637960e-01f,-2.60336071e-01f,
+8.87667835e-02f,-7.34479070e-01f,-9.92736757e-01f,-5.46992980e-02f,-8.81050289e-01f,
-3.22994515e-02f,+1.82670489e-01f,-3.71199287e-02f,-3.54605466e-01f,+1.70712516e-01f,
-6.92676187e-01f,+2.46738642e-01f,-1.43331721e-01f,-9.50981453e-02f,+8.50553100e-04f,
-6.84089839e-01f,+1.29861936e-01f,+3.62895206e-02f,-1.63482621e-01f,-5.43130577e-01f,
-8.04742649e-02f,-1.37784648e+00f,-1.59813110e-02f,+3.05448100e-02f,+1.27327172e-02f,
+2.80476194e-02f,-6.04402959e-01f,-1.74880898e+00f,-1.42741218e-01f,+9.23480242e-02f,
-7.32499421e-01f,-1.26158059e-01f,-5.54206185e-02f,-5.88617086e-01f,+2.21598819e-01f,
-1.48230410e+00f,+1.25614125e-02f,-1.71563804e-01f,-5.81083298e-02f,-2.60367155e-01f,
-2.42224291e-01f,-9.42408681e-01f,+2.45241113e-02f,-2.54376352e-01f,+1.12536056e-02f,
-1.26614034e-01f,-5.17560244e-01f,-7.88904428e-01f,-2.73668647e-01f,-9.84679163e-01f,
-1.32473543e-01f,-3.79449613e-02f,-5.32520888e-03f,-2.82079339e-01f,+2.16866076e-01f,
+8.57775062e-02f,+6.84842989e-02f,-1.24625421e+00f,-2.60213494e-01f,-4.91429240e-01f,
-2.39708677e-01f,-6.17501251e-02f,-1.44109443e-01f,+1.26241893e-01f,-1.42929161e+00f,
-9.64825898e-02f,-4.71135885e-01f,-1.18572855e+00f,-1.16160142e+00f,-4.12649959e-01f,
+5.16718626e-02f,-2.64950573e-01f,-1.50618002e-01f,-1.54468954e-01f,+1.17175050e-01f,
-8.02570358e-02f,+4.02496457e-02f,+8.34648386e-02f,-1.59024060e-01f,-5.51233053e-01f,
+3.51428911e-02f,-2.05636974e-02f,-9.87357259e-01f,-1.85743645e-01f,-1.90514937e-01f,
-9.50309262e-02f,+1.96413472e-02f,+1.30027533e-01f,+1.21934496e-01f,-3.35587800e-01f,
-7.47958660e-01f,-1.96905378e-02f,-1.21650624e+00f,-9.42813516e-01f,-2.33506396e-01f,
-5.98685265e-01f,+5.07243395e-01f,-4.11646008e-01f,-5.93564212e-01f,-7.77116358e-01f,
-2.32371292e-03f,+5.46587229e-01f,-3.69157702e-01f,-6.62729740e-01f,-1.17246211e+00f,
-3.55173498e-01f,+1.90811977e-01f,+2.94020385e-01f,-9.37658608e-01f,-8.59845638e-01f,
+2.66931832e-01f,-4.98875380e-01f,-4.21457589e-01f,+6.50042146e-02f,+3.92586470e-01f,
+2.68575568e-02f,-6.42465353e-01f,-1.21879242e-01f,-1.06957192e-02f,+1.02776047e-02f,
-2.03132406e-01f,-1.86646163e-01f,-5.56758046e-02f,-1.62097168e+00f,-3.08074187e-02f,
-9.21420939e-03f,-1.21161871e-01f,-5.73739290e-01f,-8.78003761e-02f,-8.16940427e-01f,
-3.61811519e-01f,-9.84550342e-02f,-5.59450574e-02f,-9.57513154e-02f,-1.75471023e-01f,
-6.94270357e-02f,-4.35496181e-01f,-3.16759825e-01f,-6.77005053e-02f,-3.80144194e-02f,
-8.38819921e-01f,-4.81192023e-01f,-7.26692528e-02f,+3.66989672e-02f,-1.24729753e-01f,
+4.28063832e-02f,-7.69444823e-01f,-1.61658525e+00f,+2.42137592e-02f,-3.18198115e-01f,
-2.19085872e-01f,-7.44137317e-02f,-6.71482012e-02f,-6.93787098e-01f,-2.00544193e-01f,
-2.08300757e+00f,-6.56967461e-02f,-2.60186791e-01f,+1.30950272e-01f,-5.99324107e-01f,
-7.70081431e-02f,-1.46919918e+00f,+1.42191842e-01f,-1.13711908e-01f,-9.98342186e-02f,
+7.12583736e-02f,-2.90517420e-01f,-1.72298327e-01f,+2.97610182e-02f,-9.80061218e-02f,
-1.46638274e-01f,+9.03660879e-02f,-4.33664881e-02f,-1.38103604e+00f,-1.40738809e+00f,
-1.62403733e-01f,-2.08517283e-01f,-1.34150311e-01f,-1.06666148e-01f,-1.10309191e-01f,
-1.82516754e-01f,-1.80837899e-01f,-1.02887712e-01f,-2.15320516e+00f,-1.08092509e-01f,
-1.22093141e-01f,-7.46913671e-01f,-1.98495701e-01f,-2.01641783e-01f,-5.48964918e-01f,
-2.19005898e-01f,-2.00940058e-01f,-1.91157043e-01f,-5.06126463e-01f,-1.23438723e-01f,
-1.26403224e+00f,-2.65505672e-01f,+8.98092091e-02f,-4.21016872e-01f,+1.50635540e-02f,
-3.01448673e-01f,+4.22749780e-02f,-1.73194066e-01f,-5.33771038e-01f,-9.70247865e-01f,
+4.89302039e-01f,-2.11459905e-01f,-1.89803734e-01f,-2.45614931e-01f,+5.66960461e-02f,
-2.13530913e-01f,-2.64284790e-01f,-4.71254647e-01f,-6.09431982e-01f,-4.14080136e-02f,
-2.22482845e-01f,+8.22707489e-02f,+3.17793071e-01f,-4.74885821e-01f,-3.96614149e-02f,
-5.16824663e-01f,-3.76674563e-01f,-3.87044460e-01f,-5.48268795e-01f,-1.38302073e-02f,
-7.40421712e-01f,+1.49861649e-01f,-9.12720978e-01f,+3.86186689e-02f,+1.07956275e-01f,
-1.30369532e+00f,-1.12005019e+00f,-3.76561866e-03f,+6.89002052e-02f,+7.99414665e-02f,
-1.01852715e+00f,+3.59957330e-02f,+6.19622022e-02f,-1.17596664e-01f,+3.78660634e-02f,
-1.24881126e-01f,-5.82007945e-01f,+3.17833498e-02f,-1.87014580e+00f,-5.33451438e-02f,
-8.47196653e-02f,-2.94725597e-01f,-2.57370025e-01f,+1.76157877e-01f,+2.10146978e-01f,
-8.80066931e-01f,-6.99599311e-02f,-1.26270011e-01f,-2.03236341e+00f,-5.26627824e-02f,
-2.99790174e-01f,-8.31084475e-02f,-8.82334292e-01f,-8.22703421e-01f,-1.00647557e+00f,
-8.17294195e-02f,+1.83524862e-01f,-7.58160055e-01f,-3.14042091e-01f,-1.31152427e+00f,
-2.93663114e-01f,+1.35929838e-01f,+1.55274108e-01f,-1.52366618e-02f,-2.06405118e-01f,
-7.18545318e-02f,-2.33355910e-01f,-3.76354791e-02f,+1.50360867e-01f,-4.33933526e-01f,
-8.89385194e-02f,-4.88512218e-01f,-1.06140733e+00f,-5.18273950e-01f,-7.49828339e-01f,
+2.87145734e-01f,-1.90358147e-01f,-2.28471711e-01f,+5.89898713e-02f,-3.16741377e-01f,
-4.73778555e-03f,-8.13296959e-02f,-1.20044494e+00f,-3.36948127e-01f,-8.53656352e-01f,
+8.42071697e-02f,-6.22434258e-01f,-2.57182896e-01f,-7.29352459e-02f,+1.33109942e-01f,
-5.17631114e-01f,-2.59757042e-01f,-8.03530753e-01f,-1.10895383e+00f,-4.11739528e-01f,
-2.55836040e-01f,+2.65127361e-01f,-2.33131632e-01f,-2.80488908e-01f,-1.28971708e+00f,
-3.62038970e-01f,+2.00225338e-01f,+1.82804689e-01f,-5.69624960e-01f,-2.08967999e-01f,
-3.39551628e-01f,-5.80868602e-01f,-6.29644394e-02f,+1.57174245e-01f,-1.48181096e-01f,
-2.41338030e-01f,+6.26355484e-02f,+2.16211468e-01f,-4.72066194e-01f,+1.37206465e-01f,
+6.82718679e-02f,-1.54877293e+00f,-7.69590437e-01f,-5.45306325e-01f,-3.87607254e-02f,
-1.54532030e-01f,-9.85627547e-02f,-2.38619253e-01f,-7.25620165e-02f,-5.13731055e-02f,
+1.72975972e-01f,-8.49981129e-01f,+5.30893169e-02f,-1.87759006e+00f,-4.68128622e-02f,
-1.87291324e-01f,-1.61225364e-01f,-2.53154308e-01f,-4.22693253e-01f,-1.77352917e+00f,
-1.25188917e-01f,+1.44104645e-01f,-2.75516987e-01f,-3.48903894e-01f,-3.51720214e-01f,
-3.06237400e-01f,+8.78455266e-02f,+3.61629240e-02f,-1.05777256e-01f,-2.93530405e-01f,
-1.21805444e-01f,-1.07841522e-01f,-2.08249435e-01f,+1.17803305e-01f,-1.84770852e-01f,
-1.53734922e-01f,-2.13166028e-01f,-6.33415997e-01f,-6.21679276e-02f,-1.01560198e-01f,
-3.11275870e-01f,-1.24777985e+00f,+1.21710368e-01f,-4.03240323e-02f,-8.39527249e-02f,
+7.43051944e-03f,-2.03777388e-01f,-1.49522454e-01f,-3.25128347e-01f,-4.75267619e-01f,
-1.41802818e-01f,-6.24485239e-02f,-1.86559826e-01f,-1.46834612e+00f,-7.97489464e-01f,
-2.58542448e-01f,+1.48661509e-01f,+2.33579762e-02f,-7.07608938e-01f,-1.10541070e+00f,
+2.53774971e-02f,-3.41660529e-01f,-2.94901818e-01f,-5.50127029e-02f,-7.23130465e-01f,
+2.28601769e-01f,-2.51464009e-01f,-2.85762668e-01f,-6.05080843e-01f,+1.39937818e-01f,
+7.79148713e-02f,-9.08913791e-01f,-5.42768121e-01f,-7.10491091e-02f,+1.07634403e-01f,
-1.39728868e+00f,-4.95366156e-01f,+2.77984906e-02f,-3.11400872e-02f,-4.94435608e-01f,
-1.46146566e-01f,+2.95211971e-01f,-4.48876396e-02f,-6.64863586e-02f,+1.12640865e-01f,
-3.96292150e-01f,-2.34039258e-02f,+2.22383484e-01f,+3.13258242e-05f,-1.10167146e+00f,
-2.17023596e-01f,-1.78571656e-01f,-2.61843175e-01f,-7.78478324e-01f,-1.71185386e+00f,
-5.37619293e-02f,-5.02158880e-01f,-1.88476890e-01f,-1.14284970e-01f,-1.38172507e-01f,
-1.70157701e-01f,-1.07012928e+00f,-3.64585891e-02f,-1.67209785e-02f,-1.91620201e-01f,
-3.76591273e-02f,-7.16014385e-01f,-1.88702619e+00f,-3.20431203e-01f,-2.96391975e-02f,
-2.90675104e-01f,-1.57238230e-01f,-8.85930359e-02f,-3.32844466e-01f,-1.31701201e-01f,
-1.28693372e-01f,-1.83207188e-02f,+9.94741768e-02f,-2.15828419e-01f,+1.65202692e-02f,
-3.72394025e-02f,-1.45327544e+00f,-2.80430503e-02f,-1.76569700e+00f,+3.00142113e-02f,
-7.96775877e-01f,-2.45375440e-01f,-8.68785083e-02f,+8.78975354e-03f,+1.17169976e-01f,
-1.71158478e-01f,-4.12935495e-01f,-1.38841540e-01f,-9.84256506e-01f,-6.98428322e-03f,
-7.19639599e-01f,-1.06183338e+00f,-1.27098429e+00f,-1.14608014e+00f,-2.92245626e-01f,
-2.81954259e-01f,+2.57479519e-01f,-6.89330757e-01f,+1.36778653e-01f,-1.34267986e+00f,
-1.22979149e-01f,+2.95628607e-01f,+1.01422369e-01f,-1.68028569e+00f,-1.50672242e-01f,
+5.95107898e-02f,-4.66254056e-01f,-7.52499700e-01f,+2.98515767e-01f,-8.84195119e-02f,
+2.29409471e-01f,-4.61488545e-01f,-3.40489626e-01f,+3.78350504e-02f,-3.40743273e-01f,
-9.22118902e-01f,+9.03181806e-02f,-1.25064552e-01f,+1.02774471e-01f,+2.54863650e-01f,
+1.11421831e-01f,-3.18535864e-01f,-9.15443182e-01f,+7.15152100e-02f,+6.39367327e-02f,
-2.12177783e-01f,-2.66730431e-02f,-3.51498872e-01f,-1.00153074e-01f,-2.36717081e+00f,
-5.26611768e-02f,-5.75893223e-01f,-8.91101837e-01f,-1.09481409e-01f,-2.67245114e-01f,
-1.50704190e-01f,+6.18059672e-02f,+8.06121230e-02f,-1.37928784e-01f,-1.14597149e-01f,
+4.16636420e-03f,-5.19729197e-01f,-8.03127512e-03f,-6.87511414e-02f,-1.16792107e+00f,
-2.15911940e-01f,-1.89534679e-01f,-1.10612005e-01f,-5.87751448e-01f,-8.70583430e-02f,
-5.28751850e-01f,-7.17623830e-02f,-1.87168971e-01f,-1.45272925e-01f,-2.75205404e-01f,
-4.03998643e-01f,-1.78778422e+00f,-6.55653775e-01f,+2.38305815e-02f,-6.28855467e-01f,
-4.21734340e-02f,-5.15440886e-04f,+1.15356542e-01f,-4.69049335e-01f,-1.29412010e-01f,
-3.56501967e-01f,-1.23664163e-01f,-3.13454181e-01f,-5.12655318e-01f,-8.64557564e-01f,
-8.31476152e-02f,-2.05635279e-01f,-3.74157541e-02f,-6.26231655e-02f,-4.48830938e-03f,
-1.28904879e-01f,-2.80891180e+00f,+2.34869551e-02f,-1.77464709e-01f,-4.80798930e-02f,
-9.50113609e-02f,-1.42089677e+00f,-4.83932868e-02f,-2.46113211e-01f,-7.08421692e-02f,
-2.11560220e-01f,-1.68382466e-01f,-8.48769173e-02f,-3.10460091e-01f,-1.73122704e-01f,
-3.29969555e-01f,+4.97162156e-02f,-1.26884863e-01f,-1.07075125e-01f,-1.09886348e+00f,
-1.90660194e-01f,-8.80828142e-01f,-8.21357310e-01f,-2.10321203e-01f,-9.44024101e-02f,
+2.00790856e-02f,-4.37288076e-01f,+4.71761785e-02f,+2.66078245e-02f,-5.68048835e-01f,
-2.60406375e-01f,-3.78469005e-02f,-4.07473780e-02f,-6.43117666e-01f,-3.46307486e-01f,
-7.72190019e-02f,-1.06023006e-01f,-3.00415009e-01f,-5.94685562e-02f,-1.89487971e-02f,
-1.44906282e-01f,+4.57109027e-02f,+3.74981314e-02f,-3.00158799e-01f,-8.91498029e-02f,
-1.16173118e-01f,-7.70425081e-01f,-3.70783806e-01f,-2.33472530e-02f,-9.74777639e-01f,
-2.74720877e-01f,-1.68455154e-01f,-5.25366664e-01f,-4.78662103e-01f,+9.25716013e-02f,
-2.18435660e-01f,-1.23548910e-01f,-1.10113716e+00f,-7.20769614e-02f,-4.84245181e-01f,
+1.08021602e-01f,-2.53919899e-01f,-2.47652769e+00f,+2.32023019e-02f,-4.96860176e-01f,
-5.35587333e-02f,-2.85298735e-01f,+2.84526106e-02f,-2.11371213e-01f,-2.77454615e-01f,
-7.48627558e-02f,-1.16135336e-01f,-1.01546854e-01f,-4.66630638e-01f,-2.66919643e-01f,
-4.21016783e-01f,-3.83626781e-02f,-6.42201841e-01f,-1.13335833e-01f,-2.09334850e+00f,
-1.21757284e-01f,-2.43644968e-01f,-4.23430711e-01f,+7.93458000e-02f,-3.07236373e-01f,
-7.33702183e-02f,-3.22597980e-01f,+6.41249865e-02f,-7.57022083e-01f,-6.88075066e-01f,
-1.30081639e-01f,-2.35259831e-01f,-2.17893675e-01f,-3.51386845e-01f,+9.00243595e-03f,
-2.48557925e-01f,-9.79254365e-01f,+2.05128655e-01f,-1.33188993e-01f,-2.92583823e-01f,
-7.77916372e-01f,-9.63985860e-01f,+5.11709601e-02f,-5.17131819e-04f,-3.52548331e-01f,
-1.35333603e-02f,-2.92332739e-01f,-1.87003821e-01f,-3.49843323e-01f,-3.01748812e-01f,
-4.86644149e-01f,-2.34916478e-01f,-3.17197323e-01f,-1.02538514e+00f,-2.37316132e-01f,
-1.56129569e-01f,-3.04339081e-01f,-2.15818211e-01f,-3.58285129e-01f,-2.97644436e-01f,
-1.07657087e+00f,+1.41332030e-01f,+2.48668209e-01f,-3.00226778e-01f,-6.48233771e-01f,
+7.00101182e-02f,+2.91893631e-01f,-4.08650458e-01f,-1.37491262e+00f,-1.68085545e-01f,
-6.05692640e-02f,-8.26624691e-01f,+1.89180672e-01f,+3.04393262e-01f,-3.07257175e-01f,
-2.93056279e-01f,+2.22041532e-02f,-4.82969344e-01f,-6.83984101e-01f,-8.77021313e-01f,
-2.69925386e-01f,+2.52067357e-01f,-1.12119123e-01f,-2.09400535e-01f,-1.05082572e+00f,
-2.58426517e-01f,+1.16092391e-01f,+1.11414641e-01f,-5.56977332e-01f,-3.19679946e-01f,
-7.08613768e-02f,-1.01515865e+00f,-2.81328149e-02f,+6.00193217e-02f,+5.63211739e-02f,
-2.01070833e+00f,+4.47689854e-02f,-1.85632795e-01f,-1.42728075e-01f,-1.40392348e-01f,
-1.72669161e-02f,-2.17550874e+00f,-5.36757588e-01f,-2.88983077e-01f,-1.13442741e-01f,
-2.03820363e-01f,-7.41468251e-01f,-4.30275619e-01f,-5.80921210e-02f,-1.60223484e-01f,
+4.30527180e-02f,-7.96313509e-02f,-3.23030427e-02f,-5.63149869e-01f,-8.48629773e-02f,
-1.60710394e-01f,-5.88454247e-01f,-4.14585114e-01f,-2.34794706e-01f,-3.36528212e-01f,
-1.22486317e+00f,+4.18756977e-02f,+2.37518898e-03f,+4.76592220e-03f,+3.10508255e-03f,
-2.19105840e-01f,+3.48939560e-02f,-1.04804002e-01f,-6.32558584e-01f,-6.53459072e-01f,
-4.37754959e-01f,-2.15522543e-01f,-2.74397824e-02f,+7.70391226e-02f,-4.90613282e-02f,
-8.97857696e-02f,+1.00106023e-01f,-4.17491831e-02f,-4.93425608e-01f,+2.92947516e-02f,
-2.40018025e-01f,-1.98674285e+00f,+2.99531221e-03f,-1.19687641e+00f,-4.36602235e-01f,
-4.18047249e-01f,-4.24647816e-02f,+2.80984007e-02f,-5.44402301e-02f,+8.73822942e-02f,
-2.36363515e-01f,-6.76397979e-01f,-3.20994973e-01f,-5.99999607e-01f,+2.87469830e-02f,
-2.96704680e-01f,+7.39637529e-03f,-2.56165445e-01f,+2.21523996e-02f,-5.50620317e-01f,
-1.86398521e-01f,-5.47674522e-02f,+3.59440944e-03f,+6.04140796e-02f,-6.38639107e-02f,
+9.93640125e-02f,-7.81756341e-01f,-2.12421966e+00f,-4.51489538e-01f,-6.59066975e-01f,
+1.36991953e-02f,-4.15759422e-02f,-8.02075639e-02f,-6.70040071e-01f,-1.02288496e+00f,
-1.01880781e-01f,-2.77870953e-01f,+2.59010866e-03f,+2.38537770e-02f,+4.71809767e-02f,
-1.34079456e-01f,+3.43607485e-01f,-6.73984766e-01f,-5.30861259e-01f,+6.64575621e-02f,
-6.58278048e-01f,+7.00703859e-02f,-2.27106228e-01f,-1.16739042e-01f,-4.53422993e-01f,
-1.23443000e-01f,-1.27771544e+00f,-1.36180177e-01f,+1.20412052e-01f,-5.08871257e-01f,
-1.08637607e+00f,+2.30150763e-02f,-6.44923627e-01f,+1.88629225e-01f,-2.51706392e-01f,
-1.18944764e-01f,-1.46113682e+00f,-1.65587857e-01f,+2.78866682e-02f,-3.46468627e-01f,
-5.65341890e-01f,-6.73262656e-01f,+4.24384058e-01f,+2.48510391e-01f,-2.16763109e-01f,
-7.04070628e-01f,+6.46754429e-02f,-1.94547772e-01f,-5.14005303e-01f,-9.09179032e-01f,
-2.07328632e-01f,-8.45231675e-03f,-1.15163334e-01f,-1.15640853e-02f,+4.24174294e-02f,
-1.87958241e+00f,-2.26210937e-01f,+7.91444443e-03f,-4.42088664e-01f,-1.21329455e-02f,
+2.00074958e-03f,-6.73467278e-01f,-8.30236971e-02f,-2.11585209e-01f,-2.46852025e-01f,
-3.67851168e-01f,-3.40266198e-01f,-3.70146990e-01f,+1.51184916e-01f,-1.38864445e-03f,
-2.53370050e-02f,-1.69905686e+00f,-1.11681187e+00f,-5.78211881e-02f,-4.03980792e-01f,
-2.63652086e-01f,+2.08496094e-01f,+9.77637023e-02f,-9.97780487e-02f,-7.72275254e-02f,
+5.09617887e-02f,-1.74749028e-02f,-5.67956686e-01f,-7.68060565e-01f,-8.95427942e-01f,
-5.48732951e-02f,-2.41305575e-01f,-2.64398903e-01f,+4.46463898e-02f,-6.61980152e-01f,
-1.18173540e-01f,-7.11936578e-02f,-8.60166177e-02f,-1.95240855e-01f,-9.66406837e-02f,
-1.06694072e-01f,-6.37005046e-02f,-6.57837152e-01f,-7.38075495e-01f,-1.19877405e-01f,
-4.56049889e-01f,-8.33108723e-02f,-6.53137788e-02f,-7.63545781e-02f,-1.00119725e-01f,
-8.96651745e-02f,-1.17317863e-01f,-1.17175326e-01f,-7.16594607e-02f,-8.91197845e-02f,
-6.85847402e-01f,-1.31312897e-02f,-6.91699266e-01f,-2.93573707e-01f,-1.03610194e+00f,
+7.30563104e-02f,+3.05590540e-01f,-3.18639964e-01f,-5.52538270e-03f,-8.58958006e-01f,
-2.76900619e-01f,+3.84178236e-02f,-2.51358926e-01f,-9.26605463e-01f,-1.20248705e-01f,
+2.49514729e-01f,-1.62168193e+00f,-1.68629229e-01f,-2.36142799e-02f,+1.32151037e-01f,
-1.89547002e-01f,+4.43550898e-03f,-1.01314831e+00f,-1.94145501e+00f,-1.26212680e+00f,
-8.85721296e-02f,+2.30659589e-01f,-7.35244751e-01f,-4.90906626e-01f,-1.26014686e+00f,
-1.77562642e+00f,+1.49291217e-01f,+2.18960136e-01f,-2.28389353e-02f,+5.57795912e-02f,
-3.97827709e-03f,-2.36496150e-01f,-3.84687930e-01f,+2.13776112e-01f,-1.66684151e-01f,
-4.48773921e-01f,-1.27120709e+00f,-4.31803674e-01f,-7.34961867e-01f,-5.04987910e-02f,
-7.50193477e-01f,+2.82871544e-01f,-1.50132449e-02f,-5.05854607e-01f,+2.15470847e-02f,
+9.74132419e-02f,+2.80902594e-01f,+2.42516279e-01f,-1.38626993e+00f,-5.41967273e-01f,
-1.35866904e+00f,-8.82915735e-01f,-8.10948387e-02f,+2.48237938e-01f,-1.30223548e+00f,
-1.20011240e-01f,-4.89527583e-01f,-5.10323465e-01f,-1.18891872e-01f,-8.10524821e-02f,
-4.84513789e-01f,+2.16312055e-02f,-5.96998958e-03f,-1.85294002e-01f,+1.11667579e-03f,
-2.21025981e-02f,+5.20745553e-02f,-4.57962215e-01f,-1.00932226e-01f,-2.59354681e-01f,
-1.75213683e+00f,-2.33458608e-01f,-2.25089848e-01f,+8.72753933e-02f,-2.69464284e-01f,
+6.14834391e-03f,+1.59248188e-02f,-3.01783413e-01f,-9.80263770e-01f,-5.11308253e-01f,
-7.79454261e-02f,-1.25482023e+00f,-7.33204246e-01f,-1.20106721e+00f,+2.20865011e-01f,
-8.93736899e-01f,-9.17416513e-01f,-2.49231398e-01f,+2.30546415e-01f,+2.31579036e-01f,
-2.09364910e-02f,-1.77002385e-01f,-1.26854435e-01f,-3.69873524e-01f,+7.16917440e-02f,
-4.72583294e-01f,-5.81693411e-01f,-3.58168662e-01f,+1.17024027e-01f,-4.24476378e-02f,
-6.59450069e-02f,-2.95545793e+00f,+9.32689533e-02f,+8.71529579e-02f,-1.94834232e-01f,
+6.97431862e-02f,-1.98284507e-01f,-2.81677723e-01f,-3.87256891e-01f,-3.55261624e-01f,
-3.56870651e-01f,+5.99690154e-02f,-3.65864672e-02f,-3.98464918e-01f,-3.77727121e-01f,
-6.33625209e-01f,-6.57344237e-02f,+2.12078869e-01f,-7.78031945e-01f,-8.01305845e-02f,
-2.86435902e-01f,-7.50512660e-01f,-1.17497548e-01f,-4.03144449e-01f,-3.46383929e-01f,
-6.17825150e-01f,+2.45131344e-01f,-3.51956517e-01f,-6.64938688e-02f,+1.96128353e-01f,
-9.25546408e-01f,+3.55831891e-01f,-5.90583146e-01f,-5.19553006e-01f,+1.46297485e-01f,
-4.24023747e-01f,-5.90475559e-01f,+3.10227960e-01f,-2.86570013e-01f,+3.21788609e-01f,
-2.47215539e-01f,+5.65118551e-01f,-1.14742351e+00f,-7.85125971e-01f,+2.16643602e-01f,
-3.37502867e-01f,+2.51994599e-02f,-1.87672508e+00f,-1.07051261e-01f,-6.16159022e-01f,
-3.47624540e-01f,+9.88476444e-03f,+5.79776354e-02f,+2.28971280e-02f,-6.85675919e-01f,
-5.98200083e-01f,-4.03040014e-02f,-1.38466641e-01f,-6.48368299e-01f,-4.40023035e-01f,
-6.87446371e-02f,+8.08158368e-02f,-2.35213667e-01f,-5.11282086e-01f,-4.76449937e-01f,
-1.48304963e+00f,+1.31221190e-01f,+3.18613052e-02f,-1.80066541e-01f,-9.21744853e-02f,
-2.81823855e-02f,-5.94897807e-01f,-3.83493990e-01f,+1.09275118e-01f,-2.52295118e-02f,
-8.68229926e-01f,-3.64595950e-01f,-1.66129386e+00f,-3.04677963e-01f,-1.29104161e+00f,
-4.33616489e-02f,+2.31742263e-01f,-8.50540586e-03f,-3.08231980e-01f,-3.31382751e-01f,
-3.17874663e-02f,+2.73410976e-01f,+1.65241838e-01f,-3.37557822e-01f,-4.59614754e-01f,
-1.51646614e-01f,-1.42960668e-01f,-3.58117133e-01f,+2.67517567e-01f,-1.83647960e-01f,
-5.16763069e-02f,-5.03061116e-02f,-4.92412180e-01f,-1.79596111e-01f,-4.14645284e-01f,
+7.17693120e-02f,-2.83471674e-01f,-6.05632305e-01f,-5.38167179e-01f,-1.81443602e-01f,
-5.46104386e-02f,-6.77459002e-01f,+2.21545063e-02f,-1.38676018e-01f,-8.46368313e-01f,
+1.18104249e-01f,-5.95779307e-02f,-4.54412438e-02f,-1.32344499e-01f,-6.19196832e-01f,
-7.69118369e-01f,+1.57379746e-01f,+8.68961215e-02f,-2.11452737e-01f,-6.66343048e-02f,
+3.86538878e-02f,-2.25076985e+00f,+9.67390090e-02f,-1.20555389e+00f,+5.49939368e-03f,
-8.14623117e-01f,-3.62451404e-01f,-1.39044440e+00f,-5.50621331e-01f,+9.08451229e-02f,
+5.28837740e-02f,-8.09556127e-01f,+4.95811962e-02f,-1.74883708e-01f,+2.68721998e-01f,
-4.21080649e-01f,-2.48122245e-01f,+3.15352939e-02f,-3.48705828e-01f,+6.48879725e-03f,
-3.18749845e-01f,+1.95535257e-01f,-2.14735419e-01f,-6.11658767e-02f,-6.13448508e-02f,
-1.44587293e-01f,-3.94996196e-01f,-1.02796137e+00f,-5.77625275e-01f,-1.21848723e-02f,
-1.54917729e+00f,-2.94307172e-01f,-2.17201486e-01f,-3.19745988e-01f,-6.83526322e-02f,
-1.86253697e-01f,-9.98989999e-01f,-7.84255266e-02f,-6.81486949e-02f,+1.54851362e-01f,
-8.49177539e-01f,-6.16660893e-01f,-2.01593354e-01f,-3.36127460e-01f,+1.25939161e-01f,
+7.06460923e-02f,-1.72834665e-01f,-2.51955771e+00f,-4.28006090e-02f,-7.11682975e-01f,
+6.83691651e-02f,+4.07345966e-02f,-1.27887595e-02f,+6.36989027e-02f,-3.82180810e-01f,
+3.74011807e-02f,-2.08019242e-02f,-5.39635956e-01f,-1.57292187e-01f,-5.62434554e-01f,
+2.15842966e-02f,-6.49396777e-02f,-1.21017587e+00f,-1.80050135e-01f,-2.53677458e-01f,
-7.69524038e-01f,-3.20139557e-01f,-1.62679583e-01f,-1.79607019e-01f,-5.09840488e-01f,
+3.98716703e-02f,-2.01827288e-01f,-2.02879027e-01f,-2.82364309e-01f,-2.22036481e-01f,
+1.27134979e-01f,-2.18825042e-01f,-4.55873132e-01f,-3.53046894e-01f,-8.70018974e-02f,
-4.33567315e-02f,-1.20986283e+00f,-4.00930166e-01f,-4.03157473e-01f,+1.10300928e-01f,
-2.11364895e-01f,-1.73115301e+00f,-1.78854978e+00f,-5.61222015e-03f,+2.30402336e-01f,
-4.38963324e-02f,-2.52096411e-02f,-9.42926854e-02f,-5.40621638e-01f,+1.05359472e-01f,
-8.16103518e-02f,-1.02365613e-01f,-8.80381092e-02f,-1.11651920e-01f,-9.95872170e-02f,
-1.06951669e-01f,-5.56864962e-02f,-2.10002589e+00f,-2.30073482e-01f,-1.11339405e-01f,
-1.39090732e-01f,-8.97112712e-02f,-8.08926895e-02f,-9.69171375e-02f,-8.06576312e-02f,
-1.03616849e-01f,-1.13622792e-01f,-1.08725533e-01f,-7.23608807e-02f,-8.19994733e-02f,
-6.90938532e-01f,-2.59534508e-01f,+1.38762906e-01f,-7.34953940e-01f,+2.35627264e-01f,
-8.42742264e-01f,-4.63123292e-01f,+4.47030902e-01f,-2.26698026e-01f,-2.70466447e-01f,
-2.27550820e-01f,-1.30752301e+00f,-1.56670883e-01f,-2.69782484e-01f,-1.61215514e-01f,
+2.51385450e-01f,-2.04346210e-01f,-4.43076283e-01f,-1.92311659e-01f,-1.26991654e-03f,
-4.98718381e-01f,-8.06073323e-02f,-9.25874174e-01f,-8.76372337e-01f,-4.88978058e-01f,
-2.80785328e-03f,+2.40613043e-01f,-5.92868209e-01f,-2.72602171e-01f,-1.73601472e+00f,
-2.62688309e-01f,+1.73258319e-01f,+1.68259308e-01f,-1.99304670e-01f,-1.63598403e-01f,
+5.64403785e-03f,-2.65351504e-01f,-3.31082314e-01f,+1.94281548e-01f,-2.32542679e-01f,
-3.67827147e-01f,-1.00509174e-01f,-9.78753492e-02f,-1.35926819e+00f,-1.15736330e+00f,
-8.07592645e-02f,+1.48932248e-01f,-5.11096179e-01f,+6.03328161e-02f,-2.33168989e-01f,
-6.34396553e-01f,+1.17960453e-01f,+7.20478371e-02f,-4.03461248e-01f,-3.16976272e-02f,
-6.77854717e-02f,-8.23803246e-01f,-5.76314092e-01f,+1.39396057e-01f,-1.01888850e-01f,
-1.74064666e-01f,-4.04943675e-02f,-4.26455289e-01f,-8.59214425e-01f,-1.67739367e+00f,
-6.74519092e-02f,+1.15323901e-01f,-9.83549893e-01f,-5.33376276e-01f,-8.93790066e-01f,
-9.06137049e-01f,+4.90782643e-03f,+5.48053756e-02f,-5.05876727e-02f,-5.56493104e-02f,
-6.28230125e-02f,-1.58144116e-01f,-3.53688151e-01f,+3.20180394e-02f,-1.03828847e-01f,
-1.55197620e-01f,-3.00426304e-01f,-1.53789699e-01f,+9.73297004e-03f,+1.88801978e-02f,
-2.14532480e-01f,-1.91632986e+00f,+1.67531036e-02f,-1.50393903e+00f,+2.06451584e-02f,
+4.09596451e-02f,-2.59516895e-01f,-7.13435829e-01f,-1.96698189e-01f,-6.66788340e-01f,
-2.17892885e-01f,-2.71099731e-02f,-5.07148094e-02f,-3.84818524e-01f,-1.00672626e+00f,
-3.59443188e-01f,-4.82802600e-01f,-1.11032411e-01f,-7.12811112e-01f,+2.35917568e-01f,
-5.59566975e-01f,-1.54283535e+00f,-6.24196231e-01f,-1.78332299e-01f,-1.59897700e-01f,
-6.33080781e-01f,-2.79055357e-01f,-1.06009865e+00f,-5.32351315e-01f,-2.30602935e-01f,
-7.16354907e-01f,-4.61132616e-01f,-4.71213400e-01f,-6.75719619e-01f,-7.23165691e-01f,
-2.06281140e-01f,-1.49333620e+00f,+4.51311581e-02f,-7.30781630e-02f,+1.14178672e-01f,
-1.72028899e-01f,+2.58608103e-01f,+1.53393641e-01f,-6.66993916e-01f,+2.69173458e-02f,
-1.21145859e-01f,-4.47151184e-01f,+2.61310842e-02f,-6.45251125e-02f,-1.74810842e-01f,
-1.52309120e+00f,-9.98059884e-02f,-3.34390402e-01f,-2.96676978e-02f,-1.27811238e-01f,
-2.12226585e-02f,-1.23290069e-01f,+1.69465736e-01f,-6.45974338e-01f,+1.57167271e-01f,
-5.84733307e-01f,-8.37820709e-01f,-3.80981356e-01f,-3.98238096e-03f,+6.53821155e-02f,
-1.99974075e-01f,-7.37238109e-01f,-1.36091292e-01f,-7.66710639e-02f,+6.27005622e-02f,
-8.71375203e-01f,-6.44922972e-01f,-3.76540363e-01f,-1.50196329e-01f,-6.22191072e-01f,
+2.37256408e-01f,-6.33571923e-01f,-9.91652846e-01f,-1.23008676e-01f,+6.87353760e-02f,
-6.75149918e-01f,-5.37419273e-03f,-9.38763022e-02f,+8.79292563e-02f,-1.57574952e-01f,
+4.52789307e-01f,-8.03701058e-02f,-8.53055939e-02f,-1.06402075e+00f,-4.67773825e-01f,
-5.74180782e-01f,-2.16426894e-01f,-3.46565127e-01f,-6.99558556e-02f,-7.40209818e-01f,
-1.58869863e-01f,-2.24615842e-01f,-2.07001995e-03f,-2.58214891e-01f,+5.15632592e-02f,
-5.42568028e-01f,+3.77003625e-02f,-8.96728784e-03f,-2.07860768e-01f,+1.57498717e-02f,
-2.38840833e-01f,-8.73545259e-02f,+1.54234484e-01f,-1.99607119e-01f,-5.20509541e-01f,
-3.07049841e-01f,-2.23012596e-01f,-3.87161434e-01f,-1.01402670e-01f,-2.03396344e+00f,
-5.15200317e-01f,-6.11283723e-03f,+3.19393337e-01f,-3.06962371e-01f,-4.96869572e-02f,
-9.92411673e-01f,-1.54587233e+00f,-6.12110756e-02f,-8.46153617e-01f,+5.53299010e-01f,
-2.68691391e-01f,+2.45193336e-02f,+2.37167929e-03f,-3.59439611e-01f,+2.52306342e-01f,
-1.03114629e+00f,+1.87322408e-01f,-3.53100538e-01f,-1.48041642e+00f,+3.66829067e-01f,
-7.85768777e-02f,-4.78742011e-02f,-3.39645386e-01f,-2.52806932e-01f,-2.63775021e-01f,
-3.70070934e-02f,-1.59782276e-03f,-3.92978005e-02f,-5.82763970e-01f,-2.29719371e-01f,
-8.48729789e-01f,-3.63058969e-02f,-1.13098107e-01f,-6.85364828e-02f,-5.34987211e-01f,
+1.55638186e-02f,-3.09530437e-01f,-1.34322181e-01f,-1.21117361e-01f,-6.85085297e-01f,
-1.09061614e-01f,-2.56533712e-01f,-5.92685640e-01f,-1.95744392e-02f,-2.08986238e-01f,
-3.24051350e-01f,-1.75200731e-01f,-4.48219776e-02f,-4.48051095e-01f,-1.02613240e-01f,
-4.89017926e-02f,-2.50899792e-01f,-1.74738616e-01f,-2.52937317e-01f,-1.62097120e+00f,
-2.94874340e-01f,-6.51200563e-02f,-1.58664852e-01f,-2.63698310e-01f,-1.83286607e-01f,
+2.73871779e-01f,-1.47645339e-01f,+4.87300418e-02f,-2.15026010e-02f,-1.71970725e-02f,
-8.63817096e-01f,-2.63874326e-02f,-6.60579503e-02f,-5.45626283e-01f,-2.77065933e-01f,
-1.28719866e+00f,-1.26138344e-01f,-1.70397848e-01f,-2.20205382e-01f,+1.72872126e-01f,
-1.20177519e+00f,-7.92559445e-01f,-2.33148068e-01f,-1.96753576e-01f,+2.21511632e-01f,
-3.04385483e-01f,-3.50164771e-02f,-1.62619725e-01f,-1.57375777e+00f,-5.30414045e-01f,
-7.49170929e-02f,+5.47173843e-02f,-4.68122631e-01f,-2.14452356e-01f,-9.99038637e-01f,
-4.81381834e-01f,-1.16039580e-03f,-3.50954346e-02f,-1.15251169e-01f,-1.91844732e-01f,
+7.62680965e-03f,-2.35195607e-01f,-4.92715836e-02f,-4.15133275e-02f,-9.75347906e-02f,
-9.10988152e-02f,-2.18430087e-01f,-8.48495603e-01f,-1.82647519e-02f,-7.27892280e-01f,
-1.00902542e-01f,-3.46000195e-02f,+4.08742204e-02f,+5.04635982e-02f,-4.20280874e-01f,
+6.33180439e-02f,-8.35854411e-01f,-3.20031047e-01f,-8.97872150e-01f,-1.73169628e-01f,
-2.00870857e-01f,-1.67630583e-01f,-2.73665458e-01f,-1.99799061e-01f,-1.72037795e-01f,
-7.84304917e-01f,-1.91093341e-01f,-4.08873200e-01f,-8.45446344e-03f,-1.64529991e+00f,
-3.12176049e-01f,+2.68893808e-01f,-8.36986661e-01f,+1.31542441e-02f,-3.49589467e-01f,
-1.13063657e+00f,+2.56343931e-01f,+2.18346611e-01f,-1.82446733e-01f,-4.91947494e-02f,
-1.51611164e-01f,-1.14593971e+00f,+7.08894283e-02f,+1.98670506e-01f,-1.82150543e-01f,
-4.64484960e-01f,-9.37750116e-02f,-4.65300232e-01f,-6.67023838e-01f,-5.67773044e-01f,
-2.60955125e-01f,+1.25891984e-01f,+1.64744109e-02f,-6.98253632e-01f,-5.16414285e-01f,
-6.90882683e-01f,+1.46493122e-01f,+2.92220414e-01f,-2.54090846e-01f,-3.60862762e-01f,
-4.94669676e-01f,-6.04910195e-01f,+6.92267865e-02f,-7.86262304e-02f,-2.52437532e-01f,
-2.11139724e-01f,-7.18055964e-02f,-1.89103242e-02f,-1.55395046e-01f,-5.10177799e-02f,
-1.93402186e-01f,-2.51541877e+00f,-1.32150578e+00f,-7.75882542e-01f,-6.53927475e-02f,
-2.99242109e-01f,-2.94783302e-02f,-9.46357474e-02f,-6.45152479e-02f,+1.29460078e-02f,
-3.85599852e-01f,-1.67230323e-01f,-1.25182062e-01f,-4.34588939e-02f,-2.41637640e-02f,
+3.32044184e-01f,-2.21601784e-01f,-1.42274332e+00f,+1.28918916e-01f,-3.11704129e-01f,
-6.07574508e-02f,-6.17764771e-01f,-1.02975316e-01f,-5.18472791e-02f,-6.49525151e-02f,
-2.43792292e-02f,-6.64316773e-01f,-6.97591007e-01f,-7.07791030e-01f,-8.43410969e-01f,
+8.59063566e-02f,-1.12788923e-01f,-6.35636225e-02f,-1.01742220e+00f,-1.09621003e-01f,
-2.20678180e-01f,-6.78931534e-01f,-1.06498206e+00f,-3.89587611e-01f,-7.54649401e-01f,
-2.39345774e-01f,+2.14043304e-01f,-9.69121218e-01f,-5.17256320e-01f,-1.24624002e+00f,
-1.46093547e+00f,+2.43337497e-01f,+1.64352775e-01f,+2.98375860e-02f,-7.96957389e-02f,
-4.07718927e-01f,+1.14031680e-01f,-3.21528018e-01f,+3.07210416e-01f,-7.05732852e-02f,
-3.28547776e-01f,-5.16617708e-02f,+4.21079919e-02f,-1.26395118e+00f,-9.50844824e-01f,
-2.63704419e-01f,-1.58677563e-01f,-2.04385743e-01f,-6.02894008e-01f,-2.63151795e-01f,
-6.53136253e-01f,-5.25413230e-02f,+6.16553165e-02f,-1.54193565e-02f,+1.16275381e-02f,
-3.25966567e-01f,-7.96855707e-03f,-3.07845473e-01f,+2.61468217e-02f,-2.45735794e-02f,
-6.50514245e-01f,-6.30194545e-02f,-1.30049944e-01f,-7.21705854e-01f,-6.16940320e-01f,
-6.00960292e-02f,-1.84655085e-01f,-5.74849486e-01f,-7.52826557e-02f,-2.69872040e-01f,
+3.49563546e-02f,-9.52628180e-02f,-5.05980030e-02f,-1.27262682e-01f,-2.32205421e-01f,
+2.14571916e-02f,-5.95360339e-01f,-1.34161085e-01f,-2.64450550e-01f,+1.68252643e-02f,
-1.77696705e-01f,-1.20736912e-01f,+5.77988941e-03f,-2.35811070e-01f,-2.18714159e-02f,
-9.81147364e-02f,-2.06164145e+00f,-2.50146270e+00f,-3.52059960e-01f,-5.50726503e-02f,
-1.65540487e-01f,-8.30550611e-01f,-2.30022743e-01f,-1.12372957e-01f,-5.14058024e-02f,
-1.09937444e-01f,-1.01900280e-01f,-8.81165341e-02f,-3.04678231e-01f,-9.28049609e-02f,
-2.09280357e-01f,-2.77835727e-01f,-1.11696208e+00f,-7.23264739e-02f,-3.35619837e-01f,
-1.02345757e-01f,-5.97852878e-02f,-4.28094625e-01f,+4.32459339e-02f,-5.64795911e-01f,
-4.29983158e-03f,-1.36580154e-01f,-1.64224222e-01f,-1.84794202e-01f,-6.58089340e-01f,
-1.92298502e-01f,-5.23164961e-03f,-9.92521867e-02f,-8.65362167e-01f,-1.31221190e-01f,
-1.15021086e+00f,+4.40313779e-02f,+3.37763876e-01f,+1.10457182e-01f,-5.73771417e-01f,
-1.66625269e-02f,+8.79226923e-02f,+2.47372523e-01f,+3.96672124e-03f,+2.35625669e-01f,
-4.34781522e-01f,-1.28721809e+00f,-1.21894658e+00f,+4.88037169e-02f,-4.71395999e-01f,
-6.96337461e-01f,-7.32252048e-03f,-6.80805743e-02f,-1.73142612e+00f,-3.04809306e-02f,
-1.35889065e+00f,-1.44262984e-01f,-1.21464312e+00f,-2.30451018e-01f,-5.19347973e-02f,
-1.02968343e-01f,-3.46957869e-03f,-1.98596761e-01f,-1.75650880e-01f,-6.41012251e-01f,
-3.12573344e-01f,+3.79725685e-03f,-3.55536900e-02f,-1.06135838e-01f,-1.56287581e-01f,
-2.52565648e-02f,-2.31916696e-01f,-3.40396553e-01f,+3.34232524e-02f,-9.33747962e-02f,
-1.41399801e-01f,-7.49311000e-02f,-2.03512251e-01f,-2.76751935e-01f,-5.35940945e-01f,
-7.07311258e-02f,+6.19736779e-03f,-7.25708485e-01f,-1.91129327e-01f,-5.26145697e-01f,
-7.78241694e-01f,-1.43739283e-02f,-1.21600768e-02f,-9.73189473e-02f,-1.11753076e-01f,
-6.00522645e-02f,-2.47988448e-01f,-1.55367926e-01f,+4.99289669e-03f,-7.50009716e-02f,
-1.25598773e-01f,-1.52354598e-01f,-1.04765080e-01f,-1.74010709e-01f,-1.08875073e-01f,
-1.09425843e-01f,-1.10187754e-01f,-1.18897045e+00f,-1.17855740e+00f,-1.40058905e-01f,
-2.14391321e-01f,-1.30878836e-01f,-1.10400856e-01f,-1.25638872e-01f,-1.90281376e-01f,
-1.26191765e-01f,-1.74529135e-01f,-1.52433366e-01f,-1.25543788e-01f,-1.39481097e-01f,
-5.65725505e-01f,-5.12016058e-01f,-5.21368682e-01f,-8.12591836e-02f,-4.04320747e-01f,
+1.95103869e-01f,-9.21219885e-01f,+9.93530080e-02f,+1.06887937e-01f,-3.61678481e-01f,
-5.75410128e-01f,-9.03224587e-01f,-2.31615990e-01f,-1.38632491e-01f,-2.06267551e-01f,
+1.93362627e-02f,-2.06848428e-01f,-2.37651795e-01f,-5.44769801e-02f,-1.67753458e-01f,
+2.67489433e-01f,-1.03246216e-02f,+1.97682921e-02f,-2.77661026e-01f,-6.31660700e-01f,
-4.43029165e-01f,-7.04965532e-01f,-1.03544869e-01f,-1.11051369e+00f,-5.64322829e-01f,
-3.45498532e-01f,+1.99088845e-02f,+1.08251043e-01f,+8.48615915e-03f,+1.28066167e-01f,
-2.62693286e-01f,-6.25851333e-01f,-8.61961603e-01f,+1.86798245e-01f,+6.83359802e-02f,
-5.34223199e-01f,-2.78952271e-01f,-8.09130251e-01f,-4.19772416e-01f,-1.17302549e+00f,
-7.04015017e-01f,+1.75230265e-01f,-3.24046642e-01f,-2.00263396e-01f,-5.74300826e-01f,
-7.50236809e-01f,+1.28773019e-01f,+1.05705000e-01f,-8.27186704e-02f,-2.90111423e-01f,
-4.64136928e-01f,-1.65572315e-01f,-2.00800300e-01f,+1.37246922e-01f,-5.28969169e-01f,
+1.68870110e-02f,-2.81969488e-01f,-2.81125486e-01f,-1.97086856e-01f,-2.37409264e-01f,
-6.78169131e-01f,+2.63213664e-01f,-1.13124400e-01f,-4.99622338e-02f,-3.92274112e-01f,
-7.29607120e-02f,+1.18836954e-01f,+3.08267623e-01f,-3.37477326e-01f,-3.28369915e-01f,
-1.22191668e+00f,-7.57119417e-01f,-5.92502356e-01f,+9.56379697e-02f,-1.39830887e+00f,
+8.17049965e-02f,-5.47882855e-01f,+1.47150263e-01f,-4.85957325e-01f,+2.25207016e-01f,
-1.86114937e-01f,-1.34197044e+00f,-8.04603696e-01f,-6.65418208e-01f,+6.44513294e-02f,
-7.65317798e-01f,-3.68664593e-01f,-2.53053885e-02f,-7.79907927e-02f,-5.17640769e-01f,
-4.75598872e-01f,+3.70662510e-01f,-5.35384655e-01f,+2.71983794e-03f,-4.68600035e-01f,
-3.44092935e-01f,-6.93671703e-02f,-4.11877543e-01f,-9.28559899e-01f,-7.69414604e-01f,
-1.09008901e-01f,-1.27339624e-02f,-7.89309263e-01f,-7.17965782e-01f,-1.19918644e+00f,
-1.42426157e+00f,+2.14909930e-02f,+1.82007421e-02f,-4.63429801e-02f,+8.58770683e-02f,
-9.59897712e-02f,-1.91217288e-01f,-3.88881892e-01f,+4.41297367e-02f,-7.37079456e-02f,
-1.68571100e-01f,-2.99152523e-01f,-2.54705966e-01f,-1.04802378e-01f,-4.97504435e-02f,
-1.44264862e-01f,-1.91940475e+00f,-1.46767700e+00f,+1.48255184e-01f,-2.22788136e-02f,
-1.24517903e-01f,-3.49087298e-01f,-3.50924969e-01f,-1.02515447e+00f,-1.36169240e-01f,
-6.61459446e-01f,-7.52640441e-02f,+4.47172113e-02f,+1.19716175e-01f,-4.37324792e-02f,
-7.38460958e-01f,-1.40577659e-01f,+2.15369225e-01f,-2.00817513e+00f,+1.16594315e-01f,
+1.82628222e-02f,-9.11555231e-01f,-3.56130719e-01f,-1.14131761e+00f,-2.81375170e-01f,
-1.29705340e-01f,-1.12750769e+00f,-4.64381725e-01f,-7.74471983e-02f,+2.07809091e-01f,
-8.40531290e-02f,-2.08762214e-01f,-9.75549743e-02f,-2.93150932e-01f,+6.36220351e-02f,
-4.66447473e-02f,-2.38825023e-01f,-3.90051454e-01f,-2.96618305e-02f,-3.51125896e-01f,
-1.00003347e-01f,-1.73955619e-01f,-9.55757871e-02f,+4.00062799e-02f,-7.34460711e-01f,
-2.89881289e-01f,-7.82234550e-01f,-1.47778675e-01f,+2.04758748e-01f,-4.33730662e-01f,
+1.32798702e-01f,-4.94910121e-01f,-1.13509393e+00f,-9.92905855e-01f,+2.86837935e-01f,
-2.17243505e+00f,+1.06946312e-01f,+9.61093977e-03f,-3.14561218e-01f,-7.54787773e-02f,
-3.83586407e-01f,-8.74572396e-01f,-4.27124232e-01f,-4.54872966e-01f,-4.92631912e-01f,
-1.82821333e-01f,-5.72313488e-01f,-7.07909942e-01f,-1.29366577e-01f,+3.45949978e-01f,
-4.98583943e-01f,+2.64234226e-02f,+2.07080357e-02f,-2.18754023e-01f,+3.44737977e-01f,
-5.62207878e-01f,-4.00723875e-01f,+9.12481397e-02f,-7.87860692e-01f,-1.02415466e+00f,
-8.36915821e-02f,+1.51706442e-01f,-6.40039325e-01f,+1.31045282e-01f,-1.79039037e+00f,
-2.50290900e-01f,+2.70438433e-01f,+2.87915170e-01f,-3.79823714e-01f,-6.64050043e-01f,
-3.91208241e-03f,-2.66502887e-01f,-8.25213194e-01f,+1.13021471e-01f,+1.81716472e-01f,
-1.17989011e-01f,-5.71761727e-01f,+2.31463579e-03f,-2.31359139e-01f,-3.79685462e-02f,
-1.19592577e-01f,-2.56856537e+00f,+1.28714396e-02f,+1.90367289e-02f,-1.00860409e-02f,
-5.16868412e-01f,-4.79310632e-01f,-3.14748317e-01f,-5.36347218e-02f,-9.25250649e-02f,
-4.42891836e-01f,-7.73209259e-02f,-1.11823112e-01f,-3.59402269e-01f,-3.61209840e-01f,
+7.48359263e-02f,-4.45064694e-01f,+1.35479704e-01f,-4.34076414e-02f,+1.82976395e-01f,
-3.82561803e-01f,-1.00403583e+00f,+2.31129929e-01f,-1.22375882e+00f,+1.23149380e-01f,
-3.34600657e-01f,-1.19305038e+00f,-1.18437910e+00f,+5.16487062e-02f,+8.17985237e-02f,
-1.24131024e+00f,-2.05326099e-02f,+1.02383858e-02f,-1.26388240e+00f,-7.52727240e-02f,
+1.74896941e-02f,-7.72974342e-02f,-7.70709991e-01f,-1.83715239e-01f,-6.10470891e-01f,
-4.63043228e-02f,-1.31157804e+00f,-7.31410459e-02f,-5.62274456e-02f,-2.73624539e-01f,
-1.02319919e-01f,-1.28904581e+00f,-2.55558282e-01f,-2.03399912e-01f,-4.17643368e-01f,
-1.35426268e-01f,-2.66642496e-02f,-2.57323533e-02f,-5.02748966e-01f,-3.08768094e-01f,
-2.81922787e-01f,-1.40160680e-01f,-5.91360688e-01f,-7.73078576e-02f,-2.88366467e-01f,
-6.06918111e-02f,-1.16631055e+00f,-2.48780381e-02f,-1.58221111e-01f,-1.00461788e-01f,
-6.56891018e-02f,-9.66072857e-01f,-1.11758120e-01f,-2.25738764e-01f,-5.93089938e-01f,
-9.90347788e-02f,-6.58138320e-02f,-1.02664627e-01f,-5.52368164e-02f,-1.60051212e-01f,
-5.31486213e-01f,+2.00010352e-02f,-7.44406402e-01f,-3.79610300e-01f,-7.20097065e-01f,
+3.80953960e-02f,-3.93935531e-01f,-3.04573983e-01f,-4.55559283e-01f,-1.75509840e-01f,
+7.09385145e-03f,+4.97601777e-02f,+5.36267385e-02f,+1.46699520e-02f,-2.92325199e-01f,
-7.62270540e-02f,-4.78024818e-02f,-3.07484586e-02f,-1.04532480e-01f,-1.45844066e+00f,
-1.34073764e-01f,-1.50586739e-01f,+1.56974420e-01f,-5.23927927e-01f,+1.89746723e-01f,
-8.81557643e-01f,-3.92513834e-02f,-1.49172866e+00f,-1.85470581e-01f,+1.08354762e-01f,
-4.28517073e-01f,-6.69110954e-01f,-1.28137186e-01f,+6.15239702e-03f,+1.15810120e-02f,
-9.65676725e-01f,-8.62008557e-02f,-1.82663023e-01f,-1.37338221e+00f,-2.98243687e-02f,
-3.99444669e-01f,-3.44356269e-01f,-5.93083024e-01f,-1.92502327e-02f,-3.36278111e-01f,
-4.38918620e-01f,-6.63284883e-02f,-6.50972307e-01f,+8.38596448e-02f,-3.42060149e-01f,
+6.75868839e-02f,-7.29234576e-01f,-1.00385927e-01f,-2.84803241e-01f,-1.13524568e+00f,
-2.19887003e-01f,+4.69818860e-02f,-2.41818592e-01f,-1.04516469e-01f,-8.37863445e-01f,
-9.88142863e-02f,-4.38303918e-01f,-1.59997270e-01f,-1.52319118e-01f,+5.07380664e-02f,
-1.04087830e-01f,-4.67539728e-01f,+9.13338289e-02f,-1.18092752e+00f,+8.87787063e-03f,
+3.27038392e-02f,-3.25673908e-01f,-5.51548243e-01f,-1.55796230e-01f,-2.84929574e-01f,
-1.43182084e-01f,-7.92561471e-02f,-4.98647764e-02f,-5.35008132e-01f,-1.98952734e+00f,
-5.09134650e-01f,-7.05448687e-02f,-2.34597698e-01f,+3.08617447e-02f,-5.23743313e-03f,
-1.44026354e-02f,-5.63760519e-01f,-4.12850231e-01f,-5.61285257e-01f,-8.76136776e-03f,
+6.30474612e-02f,-1.77746534e-01f,-8.37708861e-02f,-2.49286696e-01f,-5.75340569e-01f,
-9.27959383e-01f,-1.52238637e-01f,-5.54413199e-02f,-5.64365625e-01f,-1.08434165e+00f,
-8.54651630e-01f,+1.34931535e-01f,-2.33930483e-01f,-1.20048605e-01f,-3.04490119e-01f,
+3.00318122e-01f,+1.90065607e-01f,+7.29310606e-03f,-5.44050634e-01f,-1.26945138e-01f,
-2.46903944e+00f,-6.42364249e-02f,-4.92936760e-01f,-9.69295144e-01f,-1.53974310e-01f,
+4.05490309e-01f,-4.32279184e-02f,-3.29997420e-01f,-1.84111103e-01f,+3.98383364e-02f,
-1.72976032e-01f,-8.12051594e-01f,-3.35455984e-01f,-2.46939242e-01f,-2.31752787e-02f,
-2.70517260e-01f,+4.73272055e-01f,-1.59050867e-01f,-7.11410701e-01f,-2.62949988e-02f,
-9.75059047e-02f,+2.26051599e-01f,+2.34452099e-01f,-8.32928300e-01f,-7.87503719e-01f,
+1.60090208e-01f,-6.24319851e-01f,-7.79957235e-01f,+2.01079264e-01f,-2.63844371e-01f,
-4.55195993e-01f,-1.13007845e-02f,+9.13959518e-02f,-6.36518419e-01f,+1.33827105e-01f,
-2.33335003e-01f,-9.06258702e-01f,-5.93012452e-01f,-1.76954493e-01f,-2.61983514e-01f,
-2.58848250e-01f,+1.17205858e-01f,-1.49024397e-01f,-6.76769137e-01f,+1.43278807e-01f,
-6.50047958e-01f,-1.18050468e+00f,-3.77474099e-01f,-2.45068029e-01f,-1.35921443e+00f,
-1.26079291e-01f,-3.90613288e-01f,-2.11048666e-02f,+1.10628055e-02f,+2.62272935e-02f,
-1.70932278e-01f,-7.25660741e-01f,-1.38685358e+00f,-2.61946052e-01f,-5.60390316e-02f,
-1.18025485e-02f,-1.42038926e-01f,-8.00030902e-02f,-2.11072415e-01f,-8.96258801e-02f,
-1.27059639e-01f,-8.94766152e-02f,-9.17717740e-02f,-1.10708499e+00f,-1.89120963e-01f,
-1.53290436e-01f,-3.47103745e-01f,-5.44778965e-02f,-7.17582107e-02f,-3.96167822e-02f,
-3.60997856e-01f,-2.07664967e+00f,-6.93357140e-02f,-7.48754069e-02f,-3.26392204e-02f,
-6.98701292e-02f,-2.68099695e-01f,-5.66929460e-01f,-2.02200741e-01f,-4.08265404e-02f,
-1.53686917e+00f,-8.18099231e-02f,-1.12210236e-01f,-7.70421922e-01f,-5.65525666e-02f,
+1.68339670e-01f,+2.64330097e-02f,-3.80669028e-01f,+2.14014903e-01f,-7.06429005e-01f,
+7.46492296e-02f,-1.55849838e+00f,-1.22128916e+00f,-9.94869992e-02f,-1.42555904e+00f,
-2.40528315e-01f,-1.86445504e-01f,-8.70031953e-01f,+2.40042284e-01f,+3.27806890e-01f,
-3.61402363e-01f,+1.37528419e-01f,-3.57378095e-01f,+1.21131018e-01f,-2.95014024e-01f,
+8.13561901e-02f,-6.72060966e-01f,-2.09310055e-01f,-4.49803233e-01f,-5.66444218e-01f,
-2.22887233e-01f,-1.09405026e-01f,-5.04262924e-01f,-1.64681584e-01f,+1.12941913e-01f,
-5.21988794e-02f,+3.25177878e-01f,-1.99506199e+00f,-1.10028517e+00f,+1.17399924e-01f,
-9.35371816e-02f,-2.45598435e-01f,+6.10956289e-02f,+3.07325602e-01f,-2.64530718e-01f,
-4.90702152e-01f,-3.53944488e-02f,-5.48745811e-01f,-1.49891782e+00f,-1.47151470e+00f,
-4.05672975e-02f,+1.06993578e-01f,-1.45834816e+00f,-4.43681806e-01f,-1.27683198e+00f,
-6.59157813e-01f,+1.47988930e-01f,+1.03824489e-01f,-2.46197715e-01f,+7.34552592e-02f,
+1.19059614e-03f,-8.85916471e-01f,-3.28905314e-01f,+1.36297405e-01f,-8.21289867e-02f,
-1.26175717e-01f,-5.75334392e-02f,-8.63858312e-02f,-1.99811175e-01f,-1.28372744e-01f,
-9.60830301e-02f,-1.13389693e-01f,-8.08189213e-02f,-8.91989648e-01f,-1.51215300e-01f,
-9.52661335e-01f,-6.35087118e-02f,-1.06226228e-01f,-8.45115557e-02f,-1.39403343e-01f,
-8.34835768e-02f,-1.90016672e-01f,-1.37668148e-01f,-1.04206145e-01f,-7.24487603e-02f,
-9.71724093e-02f,+4.21910286e-02f,-9.70842659e-01f,-4.98753816e-01f,-5.43760061e-01f,
-1.91739708e-01f,-9.24936906e-02f,+1.92666113e-01f,-1.42607212e-01f,-1.82408258e-01f,
-6.62611663e-01f,-1.11666334e+00f,+5.04602678e-02f,-1.04814388e-01f,+1.70198858e-01f,
-1.01859117e+00f,+1.88983269e-02f,+2.39702567e-01f,-5.24646461e-01f,+9.15532559e-02f,
+9.07518789e-02f,-1.16524398e+00f,-4.93594676e-01f,-4.02605057e-01f,-1.35086104e-01f,
-3.83312106e-01f,+2.44843110e-01f,-8.72804165e-01f,-1.64222986e-01f,-5.81429899e-01f,
+2.46911868e-02f,+5.98862283e-02f,+6.19186014e-02f,+2.61547267e-01f,-2.79793471e-01f,
-5.62805636e-03f,-1.97673097e-01f,-4.63945419e-01f,+9.55607593e-02f,-5.75360119e-01f,
-3.44945163e-01f,-9.08090711e-01f,-8.18060398e-01f,-2.66103089e-01f,-6.93123877e-01f,
-2.02178612e-01f,-3.34153652e-01f,-3.23229462e-01f,+2.14785531e-01f,-1.63901016e-01f,
-1.95947960e-01f,+1.41314477e-01f,-1.79177374e-01f,-3.72244358e-01f,-4.74087298e-01f,
+8.94387737e-02f,-2.20086813e-01f,-4.96104628e-01f,-2.57976376e-03f,-5.55738024e-02f,
-2.03728467e-01f,-4.16679770e-01f,+2.94911087e-01f,-3.97318780e-01f,+4.54114586e-01f,
-1.53903258e+00f,+1.44095361e-01f,-7.66483843e-02f,+2.51304299e-01f,+1.29541874e-01f,
+5.98460250e-02f,-6.88556582e-02f,+9.54043865e-03f,-1.06570876e+00f,-5.28446198e-01f,
-4.45248365e-01f,-4.85879481e-01f,-1.14344227e+00f,-1.23864214e-03f,-6.46383643e-01f,
-2.86005378e-01f,-1.13499737e+00f,-1.41358912e+00f,+4.14681025e-02f,-3.47381383e-01f,
-2.79758513e-01f,-7.90260375e-01f,+3.36046666e-02f,-1.20731173e-02f,-1.06512599e-01f,
+7.70399198e-02f,-6.49676442e-01f,-6.95952177e-01f,-5.58432043e-02f,-4.72845078e-01f,
-6.70155510e-02f,-3.86200212e-02f,-1.09676920e-01f,-1.80932745e-01f,-1.23099431e-01f,
-1.05474734e+00f,-1.38348505e-01f,-8.34554911e-01f,-1.38169491e+00f,-2.16054976e-01f,
-1.09516203e-01f,+2.07632989e-01f,-5.72612286e-01f,-3.14833283e-01f,-2.44756013e-01f,
-3.46311420e-01f,+1.63667932e-01f,+3.29922922e-02f,-3.86126757e-01f,-3.01197767e-01f,
+4.79438752e-02f,-3.65389168e-01f,-7.73919374e-02f,+2.00735182e-01f,-8.64970267e-01f,
-6.60361052e-02f,-7.41718933e-02f,-6.08417019e-02f,-2.27646381e-02f,+8.58991779e-03f,
-3.54093730e-01f,-8.93861473e-01f,+5.90610243e-02f,-4.69410360e-01f,-9.37108770e-02f,
-1.59911588e-02f,-1.62216949e+00f,-1.11178696e+00f,-7.74828792e-02f,-1.47825330e-01f,
-1.61392272e-01f,-1.95057943e-01f,-1.11965336e-01f,-8.03425789e-01f,-5.86967349e-01f,
-3.21493477e-01f,-3.47314000e-01f,+3.96056809e-02f,-2.98013678e-03f,+7.68662468e-02f,
+9.34590846e-02f,+7.91540071e-02f,-8.04503933e-02f,-2.72535384e-01f,+6.52892366e-02f,
-2.88793147e-01f,-1.52162158e+00f,-7.14997768e-01f,-3.02521735e-01f,+5.95970787e-02f,
+2.20239267e-01f,-1.04589641e+00f,-2.05291137e-01f,-1.99252144e-01f,-2.71494180e-01f,
-5.35816669e-01f,-4.84032512e-01f,-2.51498759e-01f,-5.80020584e-02f,-1.93055779e-01f,
-9.03936028e-02f,-1.23524988e+00f,-5.07890165e-01f,+4.23571579e-02f,-8.70379433e-02f,
-2.92935580e-01f,+5.32126725e-01f,-2.32762292e-01f,-6.63560331e-01f,+9.36017558e-02f,
+1.46167263e-01f,-2.71083731e-02f,-7.98482478e-01f,-1.45473480e+00f,+6.35054648e-01f,
-4.43671286e-01f,-1.74874753e-01f,-4.40733790e-01f,-1.49175346e-01f,-4.25822973e-01f,
-6.08400166e-01f,-9.70688909e-02f,-5.33621252e-01f,+6.63336366e-02f,-8.02222133e-01f,
+3.21584977e-02f,-5.60912371e-01f,-2.75152117e-01f,-5.07397771e-01f,-3.19988161e-01f,
-2.60266662e-01f,-7.58708492e-02f,-2.07874868e-02f,-3.48378658e-01f,-3.68967742e-01f,
-8.52781683e-02f,-5.96491396e-01f,-2.05166101e-01f,-7.70365493e-03f,-1.57969389e-02f,
-2.60649472e-01f,-1.15049660e+00f,+1.09667942e-01f,-3.22852194e-01f,-1.42672500e-02f,
-4.38394584e-03f,-5.29045641e-01f,-2.17245412e+00f,-1.36372060e-01f,-2.89952636e-01f,
-3.77344310e-01f,-5.76888807e-02f,-9.34710801e-02f,-1.23470616e+00f,-1.49216175e-01f,
-2.40120485e-01f,+8.56745988e-02f,-7.77502120e-01f,-1.68114677e-01f,-5.60935736e-01f,
-2.16418535e-01f,+1.27368420e-01f,-1.17918141e-01f,+8.37789848e-02f,-2.81299293e-01f,
+4.52965498e-02f,-1.27629593e-01f,-3.32272023e-01f,-1.71886897e+00f,-1.62267768e+00f,
-6.51299879e-02f,-2.41492212e-01f,-2.78190553e-01f,-2.29100421e-01f,+7.24940374e-02f,
-8.48490670e-02f,-2.28028297e-01f,-1.12894863e-01f,-2.06331298e-01f,-3.20159942e-01f,
-1.43752411e-01f,+5.93236610e-02f,-1.35023153e+00f,-3.49005056e-03f,-5.02202272e-01f,
-1.26435444e-01f,-4.56283927e-01f,-8.17971408e-01f,-1.47241071e-01f,-4.14254427e-01f,
-2.74026841e-01f,-2.25961640e-01f,+9.15733166e-04f,-9.37789753e-02f,-1.58373907e-01f,
-4.56007421e-01f,-1.02369301e-01f,+1.74102351e-01f,-3.28856736e-01f,+6.76237270e-02f,
-9.14910913e-01f,-1.30714148e-01f,-3.27812701e-01f,-1.44775033e+00f,+1.27336890e-01f,
-7.93029666e-01f,-4.12099659e-01f,-2.31127329e-02f,+5.80326840e-02f,+1.05624959e-01f,
-1.20083308e+00f,-1.55181825e-01f,-2.56903917e-01f,-2.81653702e-01f,+8.82716179e-02f,
-1.66882491e+00f,-3.43565464e-01f,+1.12776339e-01f,+7.51760677e-02f,+5.93561083e-02f,
-4.20559533e-02f,-9.90937173e-01f,-2.63979912e-01f,+4.38840896e-01f,+7.05927312e-02f,
-4.12023813e-01f,-1.47431457e+00f,-4.83102471e-01f,-2.98084393e-02f,-3.39573294e-01f,
-1.29882291e-01f,+2.10806087e-01f,+5.41121811e-02f,-4.25009370e-01f,-1.50966644e+00f,
+9.39383656e-02f,-1.59241962e+00f,-5.42693973e-01f,+6.20612595e-03f,-7.46364444e-02f,
-7.07832813e-01f,-2.22556248e-01f,+2.02552173e-02f,-5.54624572e-02f,-7.99499899e-02f,
+7.77787715e-02f,+7.41351321e-02f,-2.05791903e+00f,-3.35356712e-01f,-4.85253245e-01f,
-4.35586512e-01f,-6.64703101e-02f,+1.38876643e-02f,-8.56911957e-01f,-9.00107741e-01f,
-2.44585216e-01f,-3.45665514e-01f,-8.27620178e-02f,-1.07015952e-01f,-2.25535315e-03f,
-1.19575709e-01f,-8.10884714e-01f,+7.12932413e-03f,-1.34555829e+00f,-1.95483845e-02f,
-1.21112373e-02f,-7.06202686e-01f,-1.08678174e+00f,-2.18629818e-02f,-8.97191584e-01f,
-1.56684220e-01f,-6.14182726e-02f,-1.54885694e-01f,-1.45554736e-01f,-9.31559727e-02f,
+2.83707604e-02f,-9.06547308e-02f,-4.54682380e-01f,-1.10210821e-01f,-1.06156445e+00f,
-4.27366756e-02f,-3.99226807e-02f,-1.18137431e+00f,-1.36364967e-01f,-1.99882880e-01f,
-2.64881551e-01f,-3.03680807e-01f,-1.90288439e-01f,-2.66419530e-01f,-3.13916773e-01f,
-5.77900000e-02f,-7.32412264e-02f,+1.56223783e-02f,-5.01529098e-01f,-3.61948431e-01f,
-2.95809299e-01f,-2.01726869e-01f,-6.16008118e-02f,-2.22776160e-01f,-3.15627716e-02f,
-4.16517675e-01f,-1.13130283e+00f,+5.18070012e-02f,+1.27442375e-01f,-2.11474732e-01f,
-7.41641372e-02f,-5.80885351e-01f,-1.04691911e+00f,-8.42242897e-01f,-2.32610643e-01f,
-1.66643098e-01f,-2.15563968e-01f,-1.41633511e-01f,-5.51414341e-02f,-5.77254832e-01f,
-1.31063640e-01f,-1.43726036e-01f,-8.07585567e-02f,-5.45538008e-01f,-4.48046595e-01f,
-6.31929189e-02f,-1.09057657e-01f,-9.38867033e-01f,-7.73318350e-01f,-6.07586145e-01f,
-1.29302704e+00f,-1.42398864e-01f,-6.40550181e-02f,-3.90755683e-02f,-1.88933387e-01f,
-1.47450358e-01f,-2.60439515e-01f,-5.18476546e-01f,-6.63875043e-02f,-2.45646745e-01f,
-9.61377263e-01f,-3.16710055e-01f,-1.54257190e+00f,-3.62203985e-01f,-4.01488334e-01f,
-8.88366327e-02f,+2.39790648e-01f,-4.35012817e-01f,-3.57270762e-02f,-5.66325068e-01f,
-1.47849098e-01f,+1.84519336e-01f,+9.49325860e-02f,-1.90898985e-01f,-7.06777036e-01f,
+7.04819784e-02f,-4.52894777e-01f,-9.56758708e-02f,+2.34303728e-01f,-2.20205963e-01f,
-1.78961039e-01f,-2.72855192e-01f,+5.57888076e-02f,+5.25690801e-03f,+9.80162099e-02f,
-4.39847678e-01f,-1.32120162e-01f,+1.61033779e-01f,-6.02775335e-01f,+4.74930331e-02f,
+8.18827599e-02f,-1.31466627e-01f,-8.84954453e-01f,+8.44072364e-03f,-7.91153163e-02f,
-1.37451541e+00f,+5.23594394e-02f,-6.95451275e-02f,-1.77852064e-01f,-1.72357166e+00f,
+4.66509908e-02f,+1.20125152e-01f,-1.22004724e+00f,+4.30783667e-02f,-2.66612172e-01f,
+6.34599626e-02f,-1.51350439e-01f,+1.86087772e-01f,+7.15849772e-02f,-5.12486398e-01f,
+4.46997657e-02f,-3.76170397e-01f,-1.74028254e+00f,-1.66444325e+00f,-6.25559092e-01f,
+2.12749586e-01f,-3.73219997e-01f,-1.43945888e-01f,-2.59161830e-01f,+1.46985143e-01f,
-1.07404001e-01f,-1.86982143e+00f,-5.62986374e-01f,+1.03407912e-02f,-2.45948792e-01f,
-1.83251739e+00f,-1.84721544e-01f,+1.80003196e-01f,+3.59426849e-02f,+1.28862247e-01f,
-1.56338722e-01f,-5.12488842e-01f,-4.46267366e-01f,-1.82690453e-02f,-2.30294347e-01f,
-3.42512995e-01f,-4.61019948e-02f,-5.60385168e-01f,-5.41511595e-01f,-9.46425796e-01f,
-4.44790989e-01f,-1.00236869e+00f,-5.96853435e-01f,+1.95509374e-01f,-5.52763604e-02f,
-8.65452364e-02f,+2.42512703e-01f,+6.36386126e-02f,+1.40440986e-01f,+1.40058041e-01f,
+6.12631664e-02f,-1.40042722e-01f,-3.54759902e-01f,-2.64804542e-01f,-1.13649809e+00f,
+1.60924643e-01f,-8.57634187e-01f,-5.03270686e-01f,-6.68519586e-02f,-1.32624936e+00f,
-8.21465850e-02f,-7.29097903e-01f,-4.73522916e-02f,-3.08636904e-01f,+2.35039536e-02f,
-5.12213290e-01f,-4.48946804e-01f,-3.29108052e-02f,-3.11699547e-02f,-5.53917885e-01f,
-5.93620948e-02f,-1.35276079e+00f,-2.08551908e+00f,-7.49646798e-02f,-1.19242512e-01f,
-1.06322718e+00f,+6.41815364e-02f,+5.95841371e-02f,-9.24814582e-01f,-2.40082219e-01f,
-2.61275828e-01f,-8.45996678e-01f,-5.12716055e-01f,-9.96095389e-02f,-3.23115855e-01f,
-3.71818423e-01f,-1.20560849e+00f,-4.16757315e-02f,-4.92074862e-02f,-2.83646226e-01f,
-6.76972643e-02f,-2.92928606e-01f,-3.86366636e-01f,-4.20194477e-01f,-6.47792593e-02f,
-4.35791641e-01f,-2.56189644e-01f,-3.07543963e-01f,-1.08874631e+00f,-2.06020311e-01f,
+2.13278830e-01f,-1.39061198e-01f,+1.21940777e-01f,-2.66088247e-01f,+1.31076023e-01f,
-1.01094437e+00f,-5.17066002e-01f,+1.40907764e-01f,-1.67545712e+00f,+9.10698324e-02f,
-5.31870604e-01f,-4.86393005e-01f,-8.81889880e-01f,+1.88583761e-01f,+1.72393158e-01f,
-4.18877065e-01f,-8.18662763e-01f,+6.35677874e-02f,-5.49542606e-01f,-3.35803449e-01f,
-6.82235658e-01f,-1.46660432e-01f,-2.87163079e-01f,-1.26938000e-01f,-5.35180986e-01f,
-2.11318150e-01f,-1.07709897e+00f,-2.19256878e-01f,+5.03142318e-03f,-5.96033335e-02f,
-1.59650952e-01f,-7.41873980e-01f,-3.67620178e-02f,-4.96769026e-02f,-7.04146266e-01f,
-9.92601737e-02f,-1.12293348e-01f,-1.29702926e-01f,-8.32564533e-01f,+1.15981679e-02f,
-7.70998240e-01f,+1.76926740e-02f,-3.93941030e-02f,-3.69632766e-02f,-3.86848271e-01f,
-1.87142208e-01f,-7.53863573e-01f,-3.93099368e-01f,+2.76541948e-01f,-5.73406339e-01f,
-6.52294159e-01f,-9.16351497e-01f,-4.54497635e-01f,+1.45492390e-01f,+1.00396655e-01f,
-1.45060308e-02f,-3.16544212e-02f,-5.55091321e-01f,-6.19323492e-01f,+1.02136452e-02f,
+1.87253490e-01f,-1.89507931e-01f,+2.26591215e-01f,-6.50928020e-01f,+4.87473831e-02f,
-2.16384694e-01f,-1.25679636e+00f,-1.05923839e-01f,-6.55807495e-01f,-5.04043639e-01f,
-4.12302136e-01f,+1.94982395e-01f,-1.25309870e-01f,-1.85606964e-02f,-1.08861588e-01f,
-1.05146527e+00f,-2.75644779e-01f,-1.04159868e+00f,+1.51048794e-01f,+2.19839126e-01f,
-2.10241556e-01f,-6.06068186e-02f,-8.40523764e-02f,-7.71711111e-01f,-1.66172147e-01f,
-1.32338345e-01f,-4.80947047e-01f,-8.44398916e-01f,-8.86477053e-01f,-1.44174561e-01f,
-2.54363155e+00f,+2.09738575e-02f,+6.19848818e-02f,-2.71161292e-02f,+9.30790231e-03f,
-2.01294161e-02f,-2.04394117e-01f,-1.50626987e-01f,-2.36810334e-02f,-6.74337372e-02f,
-2.58857608e-01f,-7.36570358e-01f,-4.55329806e-01f,-1.08654439e-01f,-1.56277835e-01f,
-1.32994965e-01f,-2.75906146e-01f,-1.28472492e-01f,-4.02616620e-01f,-1.53054208e-01f,
-1.37777433e-01f,-2.05791330e+00f,-2.18244284e-01f,+9.20523107e-02f,-1.78147554e-01f,
+1.00064173e-01f,+3.55943898e-03f,-2.76138812e-01f,-2.43197501e-01f,+1.27105340e-01f,
-1.31585374e-01f,-6.19137101e-02f,+2.92447042e-02f,-7.93711007e-01f,-8.10373873e-02f,
-8.45862031e-02f,-3.48480612e-01f,-5.97106099e-01f,-2.63549224e-03f,-1.22227795e-01f,
-7.55213797e-01f,-2.01905653e-01f,-5.41432619e-01f,-8.86875317e-02f,-1.02601342e-01f,
-4.80870157e-03f,-6.63287282e-01f,-1.98931694e-01f,-8.38701844e-01f,-7.57557005e-02f,
-1.10034478e+00f,-1.01585723e-01f,-5.95100403e-01f,+4.89211977e-02f,-6.68772578e-01f,
-2.93377042e-01f,-3.33573371e-02f,-7.51311064e-01f,-3.61152925e-02f,+8.37653354e-02f,
+5.87582849e-02f,+1.07602470e-01f,-8.34971309e-01f,-1.33686274e-01f,-2.31702179e-01f,
-3.94224375e-01f,+7.87301809e-02f,+3.71615052e-01f,-1.63755596e-01f,-1.43001258e+00f,
-1.01025438e+00f,-2.83376962e-01f,-7.99146965e-02f,-6.23404980e-01f,+1.54319346e-01f,
-3.54934186e-01f,-3.89811128e-01f,+2.66832978e-01f,+2.53018528e-01f,+3.39220166e-02f,
-3.42008099e-02f,+4.61778156e-02f,-5.11011422e-01f,-2.17116952e-01f,-1.49950564e-01f,
-5.28012574e-01f,-7.22675472e-02f,-2.89804727e-01f,-1.03563190e+00f,-4.82292809e-02f,
-8.04404765e-02f,-2.03767657e-01f,-1.18576992e+00f,-3.89663912e-02f,-8.64454746e-01f,
-1.32716194e-01f,+6.43736869e-02f,-1.89653203e-01f,+1.41779974e-01f,+1.12814665e-01f,
+9.19318572e-02f,-1.09017324e+00f,-5.75692952e-01f,-4.30678844e-01f,-8.69849563e-01f,
+1.10093253e-02f,-1.19100265e-01f,-5.42309105e-01f,-4.10497710e-02f,+1.08041212e-01f,
-2.33589962e-01f,-9.80344266e-02f,-8.82377386e-01f,-2.89825320e-01f,-1.30314142e-01f,
-3.29318643e-01f,-1.14188649e-01f,-1.78249419e+00f,-1.19162597e-01f,-3.18122543e-02f,
-4.89810854e-01f,-1.64581627e-01f,-7.21600205e-02f,-6.33881167e-02f,-5.96374311e-02f,
-6.62163049e-02f,-2.06518229e-02f,+2.89355814e-02f,-5.32517791e-01f,-2.30083212e-01f,
+3.46306115e-02f,-3.30496252e-01f,-5.94119914e-03f,+5.09238290e-03f,+6.02465607e-02f,
-2.22085625e-01f,-1.04947746e+00f,-4.34995383e-01f,-7.15492666e-01f,+1.71629805e-02f,
+9.62646976e-02f,-3.17578942e-01f,-2.07468939e+00f,-1.17821783e-01f,-1.00502297e-01f,
-9.14673924e-01f,+9.19561684e-02f,-2.93634199e-02f,-4.22169775e-01f,-3.17046434e-01f,
-1.67175770e-01f,-3.49138469e-01f,-1.43705130e-01f,-5.49686790e-01f,-7.60481715e-01f,
-3.52097273e-01f,-9.82604563e-01f,+5.40034100e-02f,+9.69294161e-02f,-3.69270682e-01f,
-3.11398327e-01f,-1.05630465e-01f,-1.69284120e-01f,-1.34986045e-03f,-2.38319829e-01f,
-4.65475172e-01f,-1.06561944e-01f,-4.64150272e-02f,-3.25171173e-01f,-1.93359643e-01f,
-8.50326121e-02f,-2.40577430e-01f,-3.25167000e-01f,-4.67771947e-01f,-4.94870901e-01f,
-8.77466202e-02f,+1.17899142e-01f,-3.32289249e-01f,-9.18388739e-02f,-1.07452929e+00f,
-3.32428634e-01f,-5.28092077e-03f,-1.66221820e-02f,-1.60780624e-01f,-7.31624842e-01f,
-1.78791396e-02f,-1.13881576e+00f,-6.07722521e-01f,+2.98076980e-02f,-3.53710532e-01f,
-2.64932364e-01f,-3.40458117e-02f,-7.59578407e-01f,-1.63253978e-01f,+8.84841904e-02f,
-7.89730906e-01f,+5.16774237e-01f,-6.78038821e-02f,-2.31500044e-01f,-1.75166100e-01f,
-1.52776867e-01f,-5.30752420e-01f,-1.87181190e-01f,-5.58267310e-02f,+1.11675307e-01f,
-1.00326264e+00f,-8.98848549e-02f,+2.72421874e-02f,+2.04776257e-01f,-1.26283038e+00f,
+6.35490566e-02f,+8.79404172e-02f,-3.41134310e-01f,-1.21393561e+00f,-2.88416207e-01f,
-1.04005165e-01f,-1.10198283e+00f,-2.32603237e-01f,-1.90028831e-01f,-2.58587152e-01f,
-5.30398265e-02f,-1.40106952e+00f,-5.11165857e-02f,+1.64625458e-02f,+2.36305833e-01f,
+1.17407434e-01f,-7.05090584e-04f,-2.90325910e-01f,-4.60475117e-01f,-5.95542043e-02f,
+1.49847008e-02f,-3.50396186e-01f,+3.04497987e-01f,-4.54448223e-01f,+1.50849074e-01f,
-7.68892348e-01f,-1.64020813e+00f,-6.64655343e-02f,-7.56078780e-01f,-2.85742551e-01f,
-1.37343240e+00f,-4.16806549e-01f,+4.04939130e-02f,+1.46613032e-01f,+3.06042463e-01f,
-9.24006283e-01f,+2.45462414e-02f,-4.62533198e-02f,-1.18121648e+00f,-9.12853610e-03f,
-5.65785706e-01f,-4.87933196e-02f,+9.53281000e-02f,-2.44888425e+00f,-4.68661100e-01f,
-2.17706800e-01f,+4.98907752e-02f,-1.54109085e+00f,-3.73008788e-01f,-8.41939807e-01f,
-5.20636857e-01f,+2.26565212e-01f,+1.77588120e-01f,-9.49840024e-02f,+5.82194552e-02f,
-4.83407974e-01f,-1.76780686e-01f,-2.42499948e-01f,+2.06398651e-01f,-2.57756859e-01f,
-2.21955508e-01f,-1.40325814e-01f,-1.56720495e+00f,-1.34857714e-01f,-7.88806379e-01f,
-1.28429741e-01f,-8.97421688e-02f,-2.20089015e-02f,-1.49037629e-01f,-2.52567053e-01f,
-7.84451813e-02f,+1.49397533e-02f,-1.45653129e-01f,-2.24319965e-01f,-9.51520562e-01f,
-2.87707359e-01f,-2.31390387e-01f,-1.72137275e-01f,-1.98980030e-02f,-3.61068070e-01f,
-4.83865663e-02f,-1.24854505e+00f,-3.71028185e-01f,-3.48508023e-02f,-3.47660720e-01f,
-9.70280707e-01f,-5.26365280e-01f,-3.40083390e-01f,-3.01967803e-02f,-2.57741839e-01f,
-3.45818460e-01f,-5.77670515e-01f,-7.08101571e-01f,-9.38169807e-02f,+3.03430796e-01f,
-1.13492274e+00f,-8.79624039e-02f,-1.84456050e-01f,-4.83326048e-01f,-8.17246258e-01f,
-8.15243497e-02f,-1.43476471e-01f,+7.18321204e-02f,-8.14860687e-02f,-5.94682321e-02f,
-1.19280195e+00f,-2.77847111e-01f,-5.15749976e-02f,-8.64827275e-01f,-7.15065226e-02f,
-3.19801182e-01f,+6.53975457e-02f,-6.76847324e-02f,-4.12636138e-02f,+9.37842801e-02f,
-1.18232167e+00f,-2.04012200e-01f,-4.08466876e-01f,-2.34961882e-01f,-1.55716896e-01f,
+1.33568838e-01f,-1.33606568e-01f,+3.37802470e-02f,-1.33378789e-01f,-8.76570418e-02f,
-3.20812404e-01f,-2.67700410e+00f,-9.71981958e-02f,-1.76568121e-01f,-4.49993342e-01f,
-9.70284790e-02f,-5.41825712e-01f,+9.54123680e-03f,+1.28499940e-01f,+4.44963202e-02f,
-9.49575543e-01f,+9.05207172e-03f,-4.11936045e-02f,-2.76735306e-01f,-2.03406781e-01f,
-4.67307299e-01f,-1.19315356e-01f,+1.36570353e-02f,-5.80720007e-01f,-6.67433534e-03f,
-6.11419752e-02f,+6.92997277e-02f,-6.89949036e-01f,-5.30975282e-01f,-1.81372035e-02f,
-1.82240939e+00f,-3.52448255e-01f,-7.40393400e-02f,-1.47836179e-01f,-1.98359475e-01f,
+4.57429886e-02f,-3.96391124e-01f,-8.71221870e-02f,-1.23943023e-01f,-2.84385532e-01f,
+4.22402062e-02f,-1.73880720e+00f,-1.59731671e-01f,+2.38088407e-02f,-3.28994989e-01f,
-2.00875461e-01f,-6.76768482e-01f,-3.22496802e-01f,+7.49799982e-02f,+8.78598075e-03f,
-6.18612068e-03f,-9.07485068e-01f,-3.23668182e-01f,-1.51403815e-01f,-2.85117090e-01f,
+1.94527581e-02f,-9.95170623e-02f,-6.99913621e-01f,-4.05905396e-01f,-2.93137193e-01f,
-7.49566734e-01f,-3.58826697e-01f,-4.32005048e-01f,+1.60732821e-01f,-4.49430197e-02f,
-2.42584407e-01f,+3.02345008e-01f,-1.58193469e-01f,-4.22061533e-01f,-1.31760180e+00f,
-7.35210896e-01f,+3.10178846e-01f,+1.48812398e-01f,-8.69684935e-01f,-5.67406952e-01f,
-2.11740732e-01f,-6.85768247e-01f,-4.50676858e-01f,+3.21998656e-01f,-9.77058351e-01f,
-5.94929039e-01f,-6.55624568e-02f,-2.27220476e-01f,-9.53348219e-01f,-6.89858735e-01f,
+1.12349018e-02f,+1.67735368e-01f,-8.38604510e-01f,-9.26537991e-01f,-5.02362013e-01f,
-8.19478109e-02f,+1.64068475e-01f,+9.05341581e-02f,-2.24051684e-01f,-1.45640776e-01f,
-9.87290889e-02f,-5.95395088e-01f,-7.04233885e-01f,+1.76191211e-01f,-2.25103810e-01f,
-4.43272740e-02f,-2.84545213e-01f,-7.47948587e-02f,-5.37266843e-02f,-5.63457282e-03f,
-1.24570757e-01f,-1.37662756e+00f,+1.58044137e-02f,-1.52150905e+00f,-1.42071424e-02f,
-6.39619604e-02f,-3.23726088e-01f,-2.93330282e-01f,-1.58743486e-01f,-2.95148492e-01f,
-1.47201821e-01f,-1.07927904e-01f,-8.72611031e-02f,-5.83214819e-01f,-1.82536304e-01f,
+3.71754691e-02f,+3.33780497e-01f,-4.18139637e-01f,-1.68176904e-01f,-3.14748168e-01f,
-5.65461069e-02f,+3.84471565e-01f,+1.08243503e-01f,-9.44742933e-02f,-1.61476880e-01f,
-4.16786335e-02f,-7.26374313e-02f,+2.96342701e-01f,-1.34527683e+00f,-4.94283974e-01f,
+2.81163633e-01f,-3.99913490e-01f,-1.68808222e+00f,-1.04852223e+00f,-5.25949717e-01f,
-1.76664472e-01f,-3.42658430e-01f,-2.42480054e-01f,-1.71158791e-01f,-1.06082194e-01f,
-1.49299234e-01f,-2.58839154e+00f,-9.74997818e-01f,-1.62073225e-01f,-2.48841718e-01f,
-1.03880130e-01f,-2.63989747e-01f,-1.83806419e-01f,-2.81666040e-01f,-1.18477583e-01f,
-2.07600012e-01f,-1.54603854e-01f,-1.09074272e-01f,-9.00821239e-02f,-1.63398966e-01f,
-1.53921589e-01f,-8.09080601e-02f,-8.88376236e-01f,-9.86623839e-02f,-7.46135771e-01f,
-1.86865136e-01f,-4.08086181e-01f,-3.53996217e-01f,+6.16736822e-02f,-3.25483143e-01f,
-1.17708065e-01f,-3.15998942e-01f,-5.23403823e-01f,-7.44244993e-01f,-4.61744666e-01f,
-1.66343302e-01f,-1.12119511e-01f,-7.96157569e-02f,-4.35958713e-01f,-3.52121936e-03f,
-7.57895648e-01f,-1.17970005e-01f,-6.95611179e-01f,+1.06139012e-01f,-5.20419240e-01f,
+4.83611859e-02f,-2.98334062e-01f,+5.33572659e-02f,-9.15986001e-02f,-1.65026218e-01f,
+6.47290871e-02f,-1.01740563e+00f,-1.76585630e-01f,-2.15226740e-01f,-2.34989226e-01f,
-1.36492282e-01f,+7.82183930e-03f,-6.59618080e-02f,-2.02807879e+00f,-6.65124774e-01f,
-1.88599080e-01f,-2.97482848e-01f,-1.40376008e+00f,-5.79839170e-01f,-1.07868993e+00f,
-1.66481450e-01f,+1.32224485e-01f,-1.65266320e-01f,-6.24969788e-02f,-8.13294232e-01f,
-1.52193010e-01f,+7.95653611e-02f,+1.02895476e-01f,-8.76288861e-02f,-4.40093160e-01f,
-4.04091589e-02f,-2.04804301e-01f,-6.23925865e-01f,+1.00975603e-01f,-2.55116671e-01f,
-2.88721204e-01f,-1.07556492e-01f,+2.61990428e-02f,-2.96152472e-01f,+1.58776939e-02f,
-9.27672610e-02f,-2.48120904e+00f,-5.08792177e-02f,-1.02194798e+00f,-3.17668729e-02f,
-4.49767262e-01f,-6.24491610e-02f,-4.46089767e-02f,-1.33305952e-01f,+3.07730958e-02f,
-1.70454711e-01f,-4.50225919e-01f,-2.12156281e-01f,-8.54562372e-02f,-1.27937812e-02f,
-6.72522247e-01f,-9.44780838e-03f,-1.49342060e+00f,-2.00525343e-01f,-4.96720254e-01f,
-1.69806540e-01f,+1.49198964e-01f,-1.13233551e-01f,+2.75421627e-02f,-4.29134279e-01f,
-2.93427974e-01f,+1.13915823e-01f,-9.99338403e-02f,-5.95611691e-01f,-8.04185033e-01f,
-2.87270635e-01f,-3.59520435e-01f,-1.12879241e+00f,+8.76327083e-02f,-9.81745943e-02f,
+2.62323618e-02f,-1.97734624e-01f,+3.24459746e-02f,-4.20412533e-02f,+5.38291559e-02f,
-4.22427297e-01f,-5.83939910e-01f,-3.81433457e-01f,-3.12979269e+00f,+4.77454066e-02f,
-3.12687069e-01f,-3.36653739e-01f,-6.04681194e-01f,-4.71267328e-02f,+1.85679868e-02f,
-2.84853846e-01f,-1.97475985e-01f,-5.98139949e-02f,-1.95410818e-01f,-1.71804011e-01f,
-1.27074313e+00f,-5.89949414e-02f,-7.80095875e-01f,+6.44674292e-03f,-2.84567803e-01f,
-5.27390316e-02f,-1.13779986e-02f,-2.00233251e-01f,-1.90043867e-01f,+9.78574827e-02f,
-3.19024414e-01f,-7.30932727e-02f,-1.09251283e-01f,-6.34642094e-02f,-2.26565197e-01f,
-3.77734780e-01f,-6.03610277e-03f,-1.26743708e-02f,-2.65795261e-01f,-1.89690089e+00f,
-1.64243713e-01f,-5.82547411e-02f,-1.65504552e-02f,-6.01549983e-01f,-5.39001860e-02f,
-1.17054544e-01f,-8.79334152e-01f,-1.21841109e+00f,-3.08693051e-01f,-8.96736756e-02f,
-1.47651315e+00f,-1.80430830e-01f,-1.32890895e-01f,-3.96455303e-02f,-1.53983217e-02f,
-8.08539838e-02f,-2.34650776e-01f,-1.10263608e-01f,-1.33681417e-01f,-9.97332484e-02f,
+2.13370603e-02f,-4.69170004e-01f,-9.08146501e-01f,-3.25675085e-02f,-1.24914087e-01f,
-1.44290423e+00f,-4.86657888e-01f,-1.03847541e-01f,+1.50433630e-01f,-1.63276076e-01f,
-1.05414748e-01f,-2.09928095e-01f,-1.99211165e-02f,+4.57230173e-02f,-6.06316984e-01f,
-7.80322105e-02f,-7.53526747e-01f,-4.39261556e-01f,-5.48524678e-01f,-2.35945389e-01f,
-3.04963022e-01f,-1.50738090e-01f,-1.02882028e+00f,-7.32574333e-03f,-2.05832273e-01f,
-1.91392884e-01f,-3.93888175e-01f,-2.72414029e-01f,+7.31381401e-02f,-1.01938941e-01f,
+1.66305508e-02f,-4.40372378e-01f,-3.87788534e-01f,-3.04802239e-01f,-3.71433347e-01f,
-1.82599619e-01f,-6.73167408e-02f,-1.48859367e-01f,-1.70995235e+00f,-6.20255210e-02f,
-7.57678747e-01f,-2.69820780e-01f,+4.13650066e-01f,-3.11275106e-02f,-1.96996495e-01f,
-5.19127548e-01f,+2.24217206e-01f,-7.75376618e-01f,+6.16542436e-02f,-3.07974339e-01f,
+1.23060502e-01f,-2.95141280e-01f,-2.28035641e+00f,-4.22874719e-01f,-7.55860209e-01f,
-6.95738852e-01f,+1.35556478e-02f,-3.57657783e-02f,-2.77353138e-01f,-5.97065687e-02f,
-2.54600000e+00f,-4.01293188e-02f,-1.61607593e-01f,-5.67803085e-02f,-1.24463893e-01f,
-5.39072715e-02f,-1.02862394e+00f,-9.38945189e-02f,-7.00497627e-02f,-9.71514583e-02f,
+4.83352970e-03f,-1.13985503e+00f,-2.41569713e-01f,-6.74458817e-02f,-1.85078219e-01f,
-1.34927183e-01f,-4.33908962e-02f,-7.86636919e-02f,-8.84635448e-01f,-3.08819145e-01f,
-7.02943727e-02f,-2.00188279e-01f,-4.92242761e-02f,-1.91537365e-02f,+1.46011114e-02f,
-2.29451641e-01f,-1.25169861e+00f,+4.36053127e-02f,-3.32887843e-02f,-6.05167728e-03f,
+5.31301536e-02f,-9.05486703e-01f,-3.51894140e-01f,-2.81086534e-01f,-5.98294474e-02f,
-1.08511090e+00f,-1.75157338e-02f,-8.86842981e-02f,-1.65955937e+00f,-1.45054296e-01f,
-8.30305159e-01f,+1.17289014e-01f,-9.26694348e-02f,-6.80991590e-01f,-5.55571139e-01f,
+8.72976109e-02f,+1.39765471e-01f,-7.91816592e-01f,+1.48677781e-01f,-1.48837423e+00f,
-2.84645975e-01f,-1.30400196e-01f,-1.81176141e-01f,-9.00078177e-01f,-9.07654539e-02f,
+1.57838017e-01f,-6.35181606e-01f,-1.15814321e-01f,-2.19900608e-01f,+1.54804006e-01f,
+1.29757309e-02f,+6.95130900e-02f,-3.52289349e-01f,-1.28480092e-01f,-2.00776532e-01f,
-1.15404725e+00f,-1.25233388e+00f,-1.74631014e-01f,-1.94926336e-02f,-7.92687982e-02f,
+4.91551645e-02f,-1.26335526e+00f,+1.72009379e-01f,-1.92056268e-01f,-5.31796753e-01f,
-8.29467773e-01f,-3.47107142e-01f,+5.06151877e-02f,-3.83200020e-01f,-1.57833043e-02f,
+1.09925941e-01f,-3.21212351e-01f,+1.87683478e-01f,-1.58991122e+00f,+2.75631130e-01f,
-1.90136567e-01f,-5.14439166e-01f,+4.13554013e-01f,-2.84815192e-01f,+3.38211842e-02f,
-4.28660125e-01f,+5.51261194e-02f,-9.37240422e-01f,-2.59517103e-01f,-1.76043212e-01f,
+1.30214736e-01f,-5.88675201e-01f,-6.98932648e-01f,+3.96343440e-01f,-8.89099360e-01f,
-8.34422529e-01f,-4.41175759e-01f,-9.88267735e-02f,-3.27125311e-01f,-4.04838115e-01f,
-3.44346225e-01f,-1.55277276e+00f,-3.93376589e-01f,-3.64800021e-02f,-1.85211048e-01f,
-1.13921359e-01f,-3.11191291e-01f,-1.21139944e+00f,-3.49539608e-01f,-2.67598927e-01f,
-9.64259923e-01f,-2.69436002e-01f,-3.99027497e-01f,-3.47396046e-01f,-4.23985541e-01f,
+2.10116655e-02f,-2.94722706e-01f,-8.18327069e-01f,-2.33055308e-01f,-7.88896009e-02f,
-1.00147434e-01f,-2.94975460e-01f,+1.39264613e-01f,+1.22107737e-01f,-3.65971982e-01f,
-6.33737564e-01f,-1.40508831e-01f,-7.02709425e-03f,-1.08470142e-01f,-1.83084741e-01f,
-6.19331479e-01f,-1.86564878e-01f,-8.22427645e-02f,-4.09995198e-01f,-1.17157483e+00f,
-4.54242766e-01f,-3.05991530e-01f,-2.83837497e-01f,-4.62757319e-01f,-6.47227347e-01f,
-3.14960301e-01f,+3.53690684e-01f,-1.92860365e+00f,-2.22066954e-01f,-1.67761147e+00f,
-3.69087547e-01f,+3.42776805e-01f,+8.12297463e-02f,-6.90034926e-01f,-1.86966553e-01f,
-9.79004949e-02f,-7.07219720e-01f,-5.25398850e-01f,+3.01564485e-01f,+1.01516038e-01f,
+3.82065147e-01f,-1.02355802e+00f,+1.85284287e-01f,-2.27908224e-01f,+3.09228152e-01f,
-8.88985395e-01f,-8.57741594e-01f,+8.69197473e-02f,-2.45361820e-01f,-1.68168351e-01f,
-7.21098840e-01f,+3.14776227e-02f,-3.45535249e-01f,-2.37528935e-01f,+3.30982447e-01f,
-1.61160100e+00f,+2.13593640e-03f,-1.59770921e-01f,+1.55943513e-01f,-4.01744753e-01f,
-1.82948053e-01f,-1.34425573e-02f,+1.20966785e-01f,-1.38457155e+00f,+5.48424684e-02f,
-2.32622083e-02f,+1.78393558e-01f,-5.39052248e-01f,-6.76801383e-01f,-9.91209447e-02f,
-1.11867571e+00f,-8.22180331e-01f,-2.14069277e-01f,-7.98982382e-02f,+2.74674920e-03f,
-9.97232273e-02f,-2.71800131e-01f,-2.34237120e-01f,-5.84801316e-01f,-3.43696214e-02f,
-3.13669503e-01f,-5.05802751e-01f,-1.06486666e+00f,-1.62387222e-01f,-2.90441453e-01f,
-1.06127828e-01f,-3.37920189e-01f,+4.49389732e-03f,+7.45038092e-02f,-2.50633121e-01f,
-1.54779240e-01f,-7.60567427e-01f,-1.86553039e-02f,-3.27250868e-01f,-1.84116468e-01f,
-3.64187896e-01f,+1.28509682e-02f,-1.15512811e-01f,-9.66114223e-01f,-1.58606440e-01f,
-1.89035857e+00f,+5.90673797e-02f,+1.96519449e-01f,-2.85085589e-01f,-1.56438127e-01f,
-1.66884214e-01f,-8.93997788e-01f,-2.55983293e-01f,-1.88791037e-01f,-3.75923604e-01f,
-3.48431140e-01f,+1.04213402e-01f,+1.48297893e-02f,-8.10571671e-01f,+1.23192623e-01f,
-2.89662927e-01f,-4.32801284e-02f,-2.74007693e-02f,-8.32330704e-01f,+2.08488405e-02f,
-1.47251308e-01f,-7.29352236e-01f,-9.78158295e-01f,-1.70016345e-02f,+9.38193724e-02f,
-3.34766358e-01f,-1.69129074e-01f,+9.87611338e-03f,+1.21583760e-01f,-4.59116280e-01f,
+6.00370727e-02f,-6.22260809e-01f,-6.12292826e-01f,-1.64119899e-01f,-1.60711086e+00f,
+1.49151504e-01f,-2.96473175e-01f,-6.40818834e-01f,+8.92487913e-02f,-2.46709958e-01f,
+8.23908374e-02f,+2.22081542e-01f,-2.16749072e-01f,-5.50055921e-01f,-3.68469357e-01f,
+1.31136402e-01f,-1.79496139e-01f,-6.84462070e-01f,+2.83187747e-01f,-1.04033506e+00f,
-4.19921845e-01f,-4.42895144e-01f,+3.67965661e-02f,-9.61595416e-01f,-3.24915908e-02f,
+2.54883766e-01f,-1.74279201e+00f,-2.38025710e-02f,-8.13275874e-01f,+2.06791535e-01f,
-7.65705556e-02f,-1.60009432e+00f,+1.77413095e-02f,-1.29001215e-01f,+7.75087699e-02f,
-4.83857304e-01f,-3.68939340e-01f,-4.73622233e-02f,-2.79571861e-01f,-3.14981528e-02f,
-7.43800774e-02f,-7.93691814e-01f,+7.81777874e-02f,-2.05493659e-01f,-5.64825088e-02f,
-1.70661837e-01f,-3.26761335e-01f,-1.55976802e-01f,-4.29602504e-01f,-2.03654632e-01f,
-1.17344737e+00f,-2.15875655e-02f,-2.63344318e-01f,-1.07091391e+00f,-9.23408926e-01f,
+5.66158295e-02f,+1.90228611e-01f,-1.80154562e-01f,-6.02986217e-01f,-2.31050229e+00f,
-1.47454798e-01f,+2.43846968e-01f,+9.42447335e-02f,-7.40849316e-01f,+9.31247547e-02f,
-3.19719240e-02f,-1.17345095e+00f,-5.57788789e-01f,+2.60184914e-01f,-9.00873393e-02f,
-1.02622020e+00f,+2.59751856e-01f,+7.00532943e-02f,-4.58507612e-02f,-4.38790917e-01f,
+4.12093289e-02f,-5.48102498e-01f,-4.01023448e-01f,-1.32972002e-01f,+2.27412414e-02f,
-7.33746171e-01f,-1.09748816e+00f,-3.09550852e-01f,-3.33688378e-01f,+1.66652307e-01f,
-2.85185814e-01f,-8.87989342e-01f,-7.75466561e-02f,-1.02822113e+00f,+6.94615170e-02f,
+6.77630305e-02f,-7.80284762e-01f,+1.18423611e-01f,+1.21479437e-01f,-1.87582910e-01f,
-9.35774386e-01f,-1.22286633e-01f,+6.36382699e-02f,+6.16033413e-02f,+1.53566197e-01f,
+1.08834393e-01f,-5.23111820e-02f,-2.24269658e-01f,-9.39868614e-02f,-2.75383353e-01f,
-1.15845680e-01f,-4.98618037e-01f,-1.23733306e+00f,+1.73289143e-02f,-7.84286797e-01f,
-1.35470331e-01f,-1.02856994e-01f,-2.92058617e-01f,-3.57600212e-01f,-8.95796955e-01f,
-6.27561882e-02f,+2.51030941e-02f,-4.90214735e-01f,-2.01340944e-01f,-6.77554429e-01f,
-6.62183464e-01f,-1.89432241e-02f,-1.34878298e-02f,-1.01292439e-01f,-8.72741267e-02f,
-4.90740836e-02f,-1.35791495e-01f,-1.63812861e-01f,-1.79039817e-02f,-1.02444030e-01f,
-1.17075078e-01f,-1.97149083e-01f,-1.63204253e-01f,-1.44135013e-01f,-1.47637889e-01f,
-1.65670693e-01f,-6.18719876e-01f,-1.88631999e+00f,-5.27911246e-01f,-1.83020502e-01f,
-1.71361789e-01f,-4.36504394e-01f,-2.75465161e-01f,-2.15300962e-01f,-2.27488175e-01f,
-1.95574597e-01f,-2.16083616e-01f,-1.54571012e-01f,-2.14010254e-01f,-1.74099520e-01f,
-2.15755135e-01f,-1.69189677e-01f,+1.46672130e-01f,-1.35237593e-02f,+8.03752318e-02f,
-9.49758351e-01f,+8.05807784e-02f,-5.19121177e-02f,-9.08014596e-01f,-1.58160508e-01f,
-1.80034041e-01f,-5.21964813e-03f,-1.85294235e+00f,-4.05313522e-01f,-1.38002122e-02f,
+2.23238394e-01f,-4.32503998e-01f,-3.66192728e-01f,+3.11464846e-01f,-1.92059413e-01f,
-2.41035414e+00f,-3.36575732e-02f,-5.50475344e-02f,-1.11938983e-01f,-3.46888661e-01f,
-7.66293658e-03f,-4.91274178e-01f,-3.52781951e-01f,-1.99373972e+00f,-5.60241044e-02f,
-7.00352937e-02f,-5.52478582e-02f,-2.03374820e-03f,+9.88696888e-03f,-3.63371857e-02f,
-7.10387900e-02f,-1.78364798e-01f,-1.23785503e-01f,-1.01933174e-01f,-1.19209580e-01f,
+3.55156034e-01f,-1.74302712e-01f,+1.39109299e-01f,-6.90231621e-02f,+7.58294687e-02f,
-1.05308987e-01f,-2.03748560e+00f,+1.25142217e-01f,-6.15356416e-02f,+5.88001646e-02f,
-4.51058924e-01f,-6.78521752e-01f,-1.20996821e+00f,-5.24845421e-02f,-2.64489502e-02f,
-1.77195716e+00f,-1.35764286e-01f,+1.60748400e-02f,-3.13780755e-01f,-5.95170915e-01f,
-5.18728435e-01f,-4.78641503e-02f,-1.41176915e+00f,-1.24530338e-01f,-2.42967248e+00f,
+9.87605564e-03f,+1.72828764e-01f,-1.04765937e-01f,+1.32635040e-02f,-4.99328315e-01f,
-8.54557902e-02f,+1.37495935e-01f,+4.65369672e-02f,-7.60962486e-01f,-2.86914498e-01f,
+3.42314355e-02f,-1.36861086e-01f,-2.52147943e-01f,+6.85120523e-02f,-3.06390524e-02f,
-5.30800462e-01f,-7.30258152e-02f,-4.42834973e-01f,-3.73731494e-01f,-3.82686436e-01f,
-1.28819540e-01f,+1.21232390e-01f,-2.25863099e+00f,-6.75986409e-01f,-5.90608239e-01f,
-9.66396928e-01f,+6.77148849e-02f,+1.94325708e-02f,-1.28179654e-01f,-1.51079476e-01f,
-1.41786620e-01f,-4.54238236e-01f,-2.90469676e-01f,+8.63517597e-02f,-1.92262411e-01f,
-1.30386144e-01f,-2.02247411e-01f,-2.71232665e-01f,-8.08667541e-02f,-1.16496414e-01f,
-1.34893462e-01f,-1.11092007e+00f,-3.98343690e-02f,-1.08458519e-01f,-7.25792199e-02f,
-5.24939075e-02f,-5.25107324e-01f,-2.64230132e+00f,-2.00577036e-01f,-1.68918565e-01f,
-1.55900449e-01f,-1.05875619e-01f,-1.59166262e-01f,-7.59203315e-01f,-2.09899455e-01f,
+1.41756684e-01f,-5.46806991e-01f,+9.86657962e-02f,-7.33024627e-02f,+1.04717769e-01f,
-1.93137646e-01f,+2.57935733e-01f,-1.04931760e+00f,-9.90638196e-01f,+1.86390020e-02f,
-1.74645230e-01f,-9.49364841e-01f,-1.30918348e+00f,-3.21607254e-02f,+8.45503733e-02f,
-1.10570359e+00f,-2.07431927e-01f,-4.04167324e-02f,-1.02557981e+00f,-1.16991200e-01f,
-4.44309115e-01f,-2.82229483e-01f,-7.16070950e-01f,-2.76580155e-01f,-1.05241442e+00f,
-1.70775175e-01f,+1.54321745e-01f,-1.35171533e-01f,-2.05257148e-01f,-5.07750750e-01f,
-7.45002568e-01f,+1.37191087e-01f,+8.38880464e-02f,-5.22186756e-02f,-4.38136011e-01f,
-9.03327540e-02f,-2.00580835e-01f,-3.29642296e-01f,+8.55507851e-02f,-1.17927957e+00f,
-8.45955968e-01f,+9.81157646e-02f,+1.30158335e-01f,-2.26066038e-01f,-7.14966774e-01f,
+4.82503697e-02f,-6.29294157e-01f,-6.06830597e-01f,-1.47822574e-01f,+2.44926685e-03f,
-4.63748425e-02f,-2.60364115e-01f,-7.52314150e-01f,-1.24068892e+00f,-4.65705782e-01f,
+2.03957066e-01f,-7.02488795e-02f,+9.39311236e-02f,-5.49067199e-01f,+2.48287261e-01f,
-2.17024591e-02f,-3.01438048e-02f,-9.08975780e-01f,-1.87149897e-01f,-7.22929299e-01f,
+2.98972521e-02f,-1.34901598e-01f,-3.93486708e-01f,+2.70224307e-02f,-4.56079721e-01f,
-1.93242460e-01f,-3.86516660e-01f,-2.25752518e-01f,-6.44474030e-01f,-3.38162869e-01f,
+1.67369038e-01f,-1.18130498e-01f,+7.79033974e-02f,-1.42271042e-01f,-3.66869345e-02f,
-7.25054145e-02f,-5.36016166e-01f,-9.73915100e-01f,-1.60096884e-01f,-5.01476943e-01f,
-1.05297752e-02f,+2.41891205e-01f,-1.45640060e-01f,-3.99162248e-02f,-2.75374621e-01f,
-6.55170009e-02f,+1.85929254e-01f,+8.55809152e-02f,-9.24299240e-01f,-7.53901780e-01f,
+9.53715015e-03f,-2.20772910e+00f,-9.13367748e-01f,+2.00442523e-01f,-3.34490448e-01f,
-2.32455283e-01f,-5.17851599e-02f,-4.11509573e-02f,-1.74489915e-01f,-8.08674097e-02f,
-1.07212909e-01f,-2.38552839e-01f,-5.93073368e-01f,-1.70371413e+00f,-8.24903324e-02f,
-7.44645476e-01f,-1.95151716e-01f,-1.78408980e-01f,-1.57884344e-01f,-1.01232775e-01f,
-1.11677453e-01f,-1.38200894e-01f,-1.22961089e-01f,-1.15898319e-01f,-6.05601780e-02f,
-1.58090091e+00f,-1.00410275e-01f,-4.75288928e-01f,-7.11846232e-01f,-1.37782168e+00f,
-2.33367924e-02f,+1.21026844e-01f,-5.64737916e-01f,-2.78871626e-01f,-5.46709001e-01f,
-3.08881074e-01f,+3.62381637e-02f,-1.04723319e-01f,-2.10228145e-01f,-1.08295202e-01f,
+1.31163804e-03f,-4.26913321e-01f,-2.99443305e-01f,+3.74317579e-02f,-9.21765342e-02f,
-6.32780910e-01f,+1.09261774e-01f,-1.92250252e-01f,-4.66224283e-01f,-9.74473000e-01f,
+1.36896834e-01f,-4.09361392e-01f,-1.22825122e+00f,+1.74967229e-01f,-8.89276043e-02f,
-5.11283755e-01f,-4.81588364e-01f,-3.95041674e-01f,-2.66490608e-01f,+1.01656131e-01f,
+9.28393751e-02f,-4.96659070e-01f,-2.40763977e-01f,-7.43546724e-01f,+1.15046442e-01f,
+3.37497681e-01f,-3.86370391e-01f,-6.78389907e-01f,-2.64784455e-01f,-1.12804934e-01f,
+1.27956599e-01f,+2.85210997e-01f,-2.46529832e-01f,-2.16447100e-01f,-2.06015766e-01f,
-4.36977670e-03f,-4.61202532e-01f,-9.64082837e-01f,-4.44045901e-01f,-1.07955492e+00f,
+2.47751534e-01f,-1.09713599e-01f,-3.83693427e-02f,-7.68483460e-01f,-3.40107009e-02f,
-1.11757062e-01f,-1.22647822e-01f,-9.04355273e-02f,+1.19072413e-02f,+1.51168620e-02f,
-1.42989293e-01f,-1.25830746e+00f,+7.34521523e-02f,-1.17542878e-01f,+2.53765490e-02f,
+2.21951474e-02f,-1.25771058e+00f,-1.83353150e+00f,-2.40951508e-01f,-4.78996128e-01f,
-3.22437137e-02f,-7.41550103e-02f,-4.58677150e-02f,-1.59599459e+00f,-2.49225229e-01f,
-7.80178368e-01f,-6.16298616e-01f,+3.23526442e-01f,-1.04596965e-01f,-7.03061402e-01f,
-2.75888234e-01f,-1.27423275e+00f,+4.30419743e-02f,+2.82191075e-02f,-5.84782660e-01f,
+1.58152860e-02f,-8.28860048e-03f,-1.41205266e-01f,-1.79621124e+00f,+1.06065638e-01f,
-5.82034051e-01f,-1.36795118e-01f,-4.99055386e-01f,-1.34728651e-03f,-8.04625809e-01f,
-9.74911094e-01f,-1.13837875e-01f,-1.90667972e-01f,-2.08766401e-01f,-8.00427675e-01f,
-4.29852046e-02f,+3.87507901e-02f,-3.57492603e-02f,-3.18221331e-01f,-3.66654336e-01f,
-1.29973745e+00f,+4.80859056e-02f,+5.99475428e-02f,-9.96154621e-02f,-3.29271674e-01f,
+3.94358560e-02f,-2.70736426e-01f,-1.95495710e-01f,+1.91372167e-02f,-6.83548510e-01f,
+3.68898809e-02f,-4.62081999e-01f,-6.65581897e-02f,-1.35489032e-01f,+3.03780027e-02f,
-4.93132696e-02f,-5.05663157e-01f,-8.51196229e-01f,+2.42875740e-02f,-9.10478607e-02f,
+3.32043916e-02f,-6.36855483e-01f,-1.07914519e+00f,-2.42917478e-01f,-1.90871164e-01f,
-3.52397710e-01f,-1.31569251e-01f,-1.38857245e-01f,-7.10733607e-02f,-2.69915581e-01f,
-9.68948007e-02f,+2.48546712e-02f,-1.06289160e+00f,-7.14997277e-02f,-5.43281853e-01f,
-1.48488879e-01f,-6.80829138e-02f,+4.60705087e-02f,-7.71593377e-02f,-5.06985009e-01f,
-3.98267694e-02f,-5.70362091e-01f,-1.78787827e-01f,-2.27949485e-01f,+1.16285972e-01f,
-9.64056626e-02f,-1.13609910e-01f,-4.21916731e-02f,-1.32061553e+00f,-8.66018832e-02f,
-2.60149658e-01f,-1.20592616e-01f,-4.26255167e-01f,-7.10870445e-01f,-5.66977918e-01f,
-6.81313276e-02f,+5.84287606e-02f,-2.56135225e-01f,-2.06729040e-01f,-1.80794775e+00f,
-6.92498863e-01f,+4.05912809e-02f,+6.32672831e-02f,-1.02059908e-01f,-7.30511099e-02f,
+3.91268078e-03f,-1.64054170e-01f,-3.41676831e-01f,+7.05714524e-02f,-2.00006738e-01f,
-3.40032607e-01f,-7.03421235e-02f,-2.69863516e-01f,-4.55541074e-01f,-1.19219756e+00f,
-1.18752308e-01f,+1.44972363e-02f,-5.90879679e-01f,-3.76550823e-01f,-8.14608157e-01f,
-9.82546210e-01f,-1.53504554e-02f,+3.60175595e-02f,-5.13471961e-02f,-5.22559807e-02f,
-7.12916851e-02f,-1.56987891e-01f,-2.05724344e-01f,+4.88400552e-03f,-1.34194359e-01f,
-5.68247810e-02f,-4.20173556e-01f,-6.30795658e-01f,+1.90840531e-02f,-6.23798192e-01f,
-2.86869496e-01f,-3.41868401e-01f,-1.67836928e+00f,+1.84800833e-01f,-1.40312508e-01f,
-7.68988160e-03f,-3.35539281e-01f,-6.03650622e-02f,-1.71904787e-01f,-3.54392290e-01f,
-3.64505917e-01f,-5.80761172e-02f,-1.70273110e-01f,-2.29256541e-01f,-4.11369473e-01f,
+2.11354062e-01f,-2.74820000e-01f,+1.13690995e-01f,-5.81299178e-02f,-2.52772361e-01f,
-4.26056981e-01f,+1.55646130e-01f,-7.93949485e-01f,-1.46079838e-01f,-2.89186686e-01f,
-7.34606743e-01f,-3.41413110e-01f,-9.28959176e-02f,+2.11717673e-02f,+1.52715594e-01f,
-1.38760293e+00f,-3.80489714e-02f,-8.80097747e-01f,+3.30094323e-02f,-1.96135730e-01f,
-2.42241368e-01f,+3.55691575e-02f,-9.43422139e-01f,-1.60761148e-01f,-7.84731627e-01f,
+4.34762426e-02f,-2.28367075e-01f,-2.14542195e-01f,-4.07092482e-01f,-5.18002212e-02f,
-2.17486069e-01f,-2.80368656e-01f,+1.26805604e-01f,+4.16781567e-02f,-9.76721823e-01f,
+2.30903700e-02f,-2.62230366e-01f,+1.34027034e-01f,-3.98909360e-01f,-1.21254838e+00f,
-1.76885021e+00f,-1.25532553e-01f,-7.04042256e-01f,-1.89888462e-01f,-1.82470188e-01f,
-1.11543484e-01f,+2.83280134e-01f,-9.84738052e-01f,-3.93998623e-01f,-5.27323842e-01f,
-1.37487292e-01f,+1.56050950e-01f,+1.27194420e-01f,-1.91689759e-01f,-2.95389473e-01f,
-1.98551908e-01f,-2.81158507e-01f,-1.06552690e-01f,+1.88984931e-01f,-8.94428611e-01f,
+2.58719385e-01f,+8.74137040e-03f,+6.90990835e-02f,-4.38905209e-01f,+6.55317977e-02f,
-2.91245848e-01f,-1.36992681e+00f,+4.92746010e-02f,+3.65230590e-02f,-4.86046970e-02f,
-2.93679386e-01f,-7.80524194e-01f,-3.08255047e-01f,-6.14001215e-01f,-5.76272532e-02f,
-2.09907055e-01f,+1.03576310e-01f,-7.35523924e-02f,-1.63449895e+00f,-8.90220523e-01f,
-1.14457183e-01f,-3.09834704e-02f,-1.75704136e-02f,-2.08656639e-01f,-6.23731576e-02f,
-1.04338504e-01f,-2.50190616e+00f,-1.01489156e-01f,-1.11771417e+00f,-1.14482805e-01f,
-3.43709975e-01f,-1.09755315e-01f,-1.03086106e-01f,-9.94590893e-02f,-1.11931411e-03f,
-1.57992095e-01f,-1.23302169e-01f,-1.15648031e-01f,-7.25959390e-02f,-5.29972576e-02f,
-4.91663754e-01f,+5.42278960e-02f,-1.47350729e+00f,-1.97502092e-01f,-9.27839398e-01f,
-5.76037541e-02f,-2.32791632e-01f,-4.38926756e-01f,-1.77106604e-01f,-1.86672151e-01f,
-1.68985605e-01f,+7.96153992e-02f,-6.77122101e-02f,-1.54086962e-01f,-6.55587494e-01f,
-1.37053942e-02f,+4.74059917e-02f,-3.22659105e-01f,+1.05217293e-01f,-4.47304964e-01f,
+2.47448636e-03f,-1.53478235e-01f,+2.89150834e-01f,+7.62733491e-03f,+3.44560653e-01f,
+4.68344614e-03f,+1.11946397e-01f,-1.24713433e+00f,-1.94767788e-01f,-4.03212085e-02f,
-1.18424869e+00f,-8.37524891e-01f,+5.14614917e-02f,+6.89443573e-02f,-1.82181582e-01f,
-1.17496479e+00f,-2.37820804e-01f,-1.69817023e-02f,-1.35859799e+00f,-4.19525832e-01f,
-3.63147375e-03f,+1.63972452e-02f,+2.08046585e-01f,+3.63141261e-02f,+1.82757273e-01f,
-5.38577735e-01f,-8.78777981e-01f,-1.26559973e+00f,-3.87328744e-01f,-3.49230617e-01f,
-7.86835849e-02f,-6.15788460e-01f,-2.28691548e-01f,+7.95351714e-02f,+1.91604272e-01f,
-5.30553870e-02f,-5.95074832e-01f,-6.35721207e-01f,-1.39907396e+00f,-4.86909337e-02f,
+1.45072788e-01f,-8.52432489e-01f,-1.08901367e-01f,-1.50047421e-01f,-5.54497913e-02f,
-3.35885614e-01f,+8.47191550e-03f,-2.01174617e-01f,-8.86759833e-02f,-3.45808715e-01f,
-7.59397507e-01f,+6.10794649e-02f,-1.35690793e-01f,-8.63213092e-02f,-7.19513744e-02f,
-3.76629293e-01f,-6.69362992e-02f,-9.80717838e-01f,+2.16192752e-01f,-8.62669647e-01f,
-2.22271657e+00f,-3.25745232e-02f,-2.07892925e-01f,-3.64394695e-01f,-3.75037074e-01f,
-1.61247164e-01f,-6.36283040e-01f,+8.55189487e-02f,-1.41479298e-01f,-7.18846321e-01f,
-2.57966429e-01f,+3.65564488e-02f,+2.26112548e-02f,-3.02350163e-01f,+1.32270247e-01f,
-2.60157883e-01f,-1.67396709e-01f,-7.73307011e-02f,+1.09489672e-01f,-3.78613584e-02f,
-9.06834602e-02f,-5.49991906e-01f,-2.40810156e-01f,-5.62588731e-03f,+1.78681761e-02f,
-2.61002183e-01f,-1.55025452e-01f,-4.49494630e-01f,-1.57160819e-01f,+9.70283872e-04f,
+2.77561024e-02f,-3.71060938e-01f,-4.75503862e-01f,-2.65728951e-01f,-3.33097935e-01f,
-2.22164243e-01f,-4.90701534e-02f,-1.11023620e-01f,-2.41155195e+00f,-1.06222264e-01f,
-2.03181848e-01f,-1.59558201e+00f,-9.69417453e-01f,-1.42390609e-01f,-2.17154711e-01f,
-9.01917517e-02f,+2.49369204e-01f,-6.05598241e-02f,-1.91841125e-01f,-6.75590515e-01f,
-2.32764915e-01f,+1.44624799e-01f,-4.29498136e-01f,-9.75016057e-01f,-6.42260313e-01f,
+9.22080781e-03f,-1.45958597e-02f,-6.48073077e-01f,+1.60479501e-01f,+1.65984526e-01f,
-6.89371750e-02f,+1.69030771e-01f,+2.62723535e-01f,-1.16197199e-01f,-1.12065494e+00f,
-9.15385723e-01f,-4.49211419e-01f,-5.82322478e-03f,-4.13228035e-01f,-1.27067387e+00f,
-6.80939034e-02f,+2.07731366e-01f,+3.77577245e-01f,+3.32160741e-01f,+5.48508048e-01f,
-1.08064449e+00f,+5.61464839e-02f,-1.30436230e+00f,-1.12279332e+00f,-3.65964621e-02f,
}; 
k2c_tensor l7_kernel = {&l7_kernel_array[0],2,6480,{324, 20,  1,  1,  1}}; 
float l7_bias_array[20] = {
-3.34989756e-01f,-2.24123940e-01f,-1.81535542e-01f,+1.41606241e-01f,-1.11529090e-01f,
-6.16118610e-02f,-4.63350922e-01f,+1.89138815e-01f,+1.44321486e-01f,-1.76510260e-01f,
-7.11177438e-02f,-2.40436196e-01f,-7.81112075e-01f,-1.30821243e-01f,+3.99102159e-02f,
+1.19170249e-01f,-2.05201060e-01f,+1.97040802e-03f,-1.03524953e-01f,-4.72731829e-01f,
}; 
k2c_tensor l7_bias = {&l7_bias_array[0],1,20,{20, 1, 1, 1, 1}}; 
float l7_fwork[6804] = {0}; 

 
k2c_dense(&l5_output,input1_input,&l5_kernel, 
	&l5_bias,k2c_linear,l5_fwork); 
k2c_relu(l5_output.array,l5_output.numel); 
k2c_tensor l6_output; 
l6_output.ndim = l5_output.ndim; // copy data into output struct 
l6_output.numel = l5_output.numel; 
memcpy(l6_output.shape,l5_output.shape,K2C_MAX_NDIM*sizeof(size_t));  
l6_output.array = &l5_output.array[0]; // rename for clarity 
k2c_dense(l7_output,&l6_output,&l7_kernel, 
	&l7_bias,k2c_linear,l7_fwork); 

 } 

void emmodel_initialize() { 

} 

void emmodel_terminate() { 

} 

