#include <math.h> 
 #include <string.h> 
#include "./include/k2c_include.h" 
#include "./include/k2c_tensor_include.h" 

 


void xraymodel(k2c_tensor* input1_input, k2c_tensor* l7_output) { 

float l5_output_array[324] = {0}; 
k2c_tensor l5_output = {&l5_output_array[0],1,324,{324,  1,  1,  1,  1}}; 
float l5_kernel_array[104976] = {
+1.71125203e-01f,+1.19830661e-01f,+2.13945299e-01f,+2.15838015e-01f,-1.09660245e-01f,
+4.03477550e-02f,-8.17938223e-02f,+1.18967444e-02f,+2.30912760e-01f,+2.08673492e-01f,
+4.39395830e-02f,+1.86626576e-02f,+3.03381011e-02f,+1.14712380e-01f,-2.47203074e-02f,
+6.61445409e-02f,+3.22464556e-02f,+7.96056092e-02f,+1.13154888e-01f,+1.28665239e-01f,
+2.21758604e-01f,-4.88009341e-02f,-7.22556114e-02f,-8.14155769e-03f,+1.51608571e-01f,
+1.50361523e-01f,+6.08526021e-02f,+1.25632241e-01f,+1.46892756e-01f,+1.97320580e-01f,
+2.16688737e-01f,+1.32983997e-01f,-7.59698376e-02f,+3.87826259e-03f,+1.70161054e-01f,
+9.17034410e-03f,+5.37091866e-02f,+8.48034099e-02f,-2.17388924e-02f,+1.70980826e-01f,
+1.03134096e-01f,+1.24923021e-01f,+2.89769650e-01f,+1.10034376e-01f,+1.94486454e-01f,
+9.60985497e-02f,+5.48691750e-02f,+9.29547474e-02f,+1.51838988e-01f,+8.77607092e-02f,
+1.05572917e-01f,+9.70428362e-02f,+4.24446054e-02f,+1.41581595e-01f,+1.39015481e-01f,
-1.95813656e-01f,+1.19219780e-01f,+1.45633100e-02f,+4.87748012e-02f,+1.67317893e-02f,
+5.43010533e-02f,+1.33569449e-01f,-9.98054892e-02f,+9.85255763e-02f,-3.59854959e-02f,
+1.64574683e-01f,+1.18507333e-01f,+5.61539717e-02f,-5.99091090e-02f,+6.35811538e-02f,
-7.06680641e-02f,+1.04977809e-01f,+1.82043776e-01f,+2.00949404e-02f,+8.85759071e-02f,
+8.34972635e-02f,+1.53053373e-01f,+1.54456524e-02f,+1.17670111e-01f,+1.13171138e-01f,
+9.21745971e-02f,+2.66975939e-01f,+6.83627725e-02f,+3.97753669e-03f,+6.62060678e-02f,
+1.67637259e-01f,+1.10290283e-02f,+6.27443716e-02f,+1.07678883e-01f,+1.72623128e-01f,
+4.69756238e-02f,+3.19258459e-02f,+6.83037862e-02f,+5.09721152e-02f,+7.97882490e-03f,
+1.51768744e-01f,+1.15504920e-01f,+3.89645137e-02f,+4.30403911e-02f,+1.25633627e-01f,
+3.13952453e-02f,+4.63135028e-03f,+1.10462934e-01f,+5.01088873e-02f,+6.59913719e-02f,
+1.10735752e-01f,+3.44883949e-02f,+1.17116049e-01f,+1.03202097e-01f,-3.17940563e-02f,
+6.05526380e-02f,+8.72644410e-02f,+9.64126289e-02f,+7.07512796e-02f,+2.07674876e-02f,
+1.37817085e-01f,+9.46035311e-02f,-6.02897117e-03f,-5.79399318e-02f,-1.52814165e-02f,
-9.25708190e-03f,+8.93375352e-02f,+9.78604630e-02f,+1.65798336e-01f,+1.09038524e-01f,
+1.72920555e-01f,+1.44791275e-01f,+6.08975217e-02f,+1.24649622e-01f,+7.92013481e-02f,
+1.74189389e-01f,+1.47933841e-01f,-3.84341041e-03f,+2.12392397e-02f,-1.90972984e-02f,
-2.04774998e-02f,+6.18532002e-02f,-3.47173288e-02f,-7.03912303e-02f,-6.37405291e-02f,
+5.48001118e-02f,+1.62305400e-01f,+9.87194180e-02f,-1.35534210e-02f,+2.61181980e-01f,
-8.36324394e-02f,+9.06794965e-02f,-1.08221676e-02f,+1.11657951e-03f,+8.65763500e-02f,
+3.62581275e-02f,+6.97733015e-02f,+6.05922863e-02f,-3.45513038e-02f,+1.25814557e-01f,
+5.48995100e-02f,+2.36289248e-01f,+8.93603340e-02f,+2.12197974e-02f,+3.42798978e-01f,
+1.55504197e-01f,+2.97193304e-02f,+1.57848448e-01f,+2.51413852e-01f,+1.13596603e-01f,
+1.53515249e-01f,+9.97974575e-02f,-1.77272744e-02f,+1.52804494e-01f,+3.14469859e-02f,
+3.36704925e-02f,+8.35561454e-02f,+5.83355464e-02f,-7.85662010e-02f,+3.93086746e-02f,
+4.92280275e-02f,+1.42480910e-01f,+3.18472795e-02f,+3.08891013e-02f,+5.35037629e-02f,
+1.46783143e-01f,+1.02505535e-01f,+1.54106393e-01f,+4.37404141e-02f,+3.07886824e-02f,
+1.41394719e-01f,+8.94873310e-03f,+6.62768707e-02f,+5.50958924e-02f,-5.67248352e-02f,
+1.04564913e-01f,+1.25777960e-01f,+8.92199501e-02f,+1.58791661e-01f,-1.08651318e-01f,
+1.20352589e-01f,+1.93800300e-01f,+5.68314120e-02f,+7.22875968e-02f,+7.27233812e-02f,
+1.12370163e-01f,+2.01651707e-01f,+1.54077142e-01f,+9.23101231e-02f,+2.90944036e-02f,
+1.27922520e-01f,+1.53648853e-01f,+1.51432186e-01f,+1.84615970e-01f,+6.93008900e-02f,
+8.58430117e-02f,+1.77896425e-01f,+9.40437242e-02f,+1.19459378e-02f,-5.88757778e-03f,
-4.46887687e-02f,+1.50437325e-01f,+7.05956146e-02f,+9.06905830e-02f,+2.18272641e-01f,
+9.20918398e-03f,+5.07184640e-02f,+4.21559857e-03f,+2.43353304e-02f,+7.73602948e-02f,
-4.58183140e-03f,+8.58574584e-02f,+8.08985159e-02f,+1.00164965e-01f,+1.03318326e-01f,
+7.91008249e-02f,+1.65114775e-01f,+1.64983451e-01f,+2.21752763e-01f,+1.84270471e-01f,
+7.60883018e-02f,-4.43235226e-02f,+1.51401475e-01f,+4.93332483e-02f,+1.70747028e-03f,
+4.75896988e-03f,+1.25170678e-01f,+1.37805030e-01f,+8.33777115e-02f,+6.36226833e-02f,
+7.34143257e-02f,+6.24745227e-02f,+3.72737162e-02f,+1.68760717e-02f,+1.06564999e-01f,
+1.84606120e-01f,+1.29499644e-01f,+2.78134979e-02f,+2.51709688e-02f,-4.87475097e-01f,
+5.13823330e-02f,+4.95031029e-02f,+2.64241118e-02f,+6.01369850e-02f,-2.21233949e-01f,
+8.91130343e-02f,-5.80612272e-02f,-1.54948533e-02f,+5.39390603e-03f,+1.50182648e-02f,
+8.58704820e-02f,-1.90590657e-02f,+1.59255743e-01f,-7.00517371e-02f,+5.77044897e-02f,
-1.54709024e-02f,+9.86485854e-02f,+5.48687764e-02f,+5.22352709e-03f,+9.34742577e-03f,
-9.08104107e-02f,+5.44122756e-02f,+1.84694991e-01f,-1.58852153e-02f,+5.01231896e-03f,
+1.39781222e-01f,+4.41424102e-02f,+1.11807838e-01f,+1.54243261e-01f,+2.35952605e-02f,
+7.65403435e-02f,+2.02794164e-01f,+3.39698675e-03f,+1.50609285e-01f,+2.67944532e-03f,
+5.59657514e-02f,+1.68667078e-01f,+5.82192279e-02f,+5.35845011e-02f,+8.99921730e-02f,
-6.05044179e-02f,+2.37284992e-02f,+9.27417800e-02f,+5.77927418e-02f,+1.64516103e-02f,
+1.55658215e-01f,+5.28149493e-02f,+2.33590771e-02f,-7.82858394e-03f,+8.14981908e-02f,
+1.72655404e-01f,+1.07035562e-02f,+1.92700341e-01f,+7.69526809e-02f,+6.98727891e-02f,
+2.71205716e-02f,-3.84504683e-02f,-4.02098149e-03f,+1.82180405e-01f,+9.85238403e-02f,
+2.12350383e-01f,+1.16818227e-01f,+8.23585615e-02f,+7.30890557e-02f,+9.93299391e-03f,
+1.03447035e-01f,-8.72659311e-03f,+4.93108518e-02f,+1.14616066e-01f,+2.86722004e-01f,
-3.05110402e-02f,+7.60336742e-02f,+2.55596936e-01f,+3.02657127e-01f,+9.76640210e-02f,
+3.67321014e-01f,+8.07529390e-02f,-1.78309344e-03f,-2.67480835e-02f,+4.07101810e-02f,
+2.11055011e-01f,+1.48169011e-01f,+9.19359326e-02f,+1.29507184e-01f,-3.56750078e-02f,
+1.33266272e-02f,+3.91257294e-02f,-4.60835434e-02f,+1.05591714e-01f,-1.04244007e-02f,
+2.71456450e-01f,+3.12680095e-01f,+1.88625574e-01f,-6.93789124e-02f,+4.66284482e-03f,
+4.60982136e-02f,+2.90705543e-02f,-4.33166176e-01f,+1.32282600e-01f,-1.55683979e-01f,
+5.68829775e-02f,-1.30625799e-01f,+2.95983881e-01f,-4.47299600e-01f,+1.53516233e-01f,
+2.80785244e-02f,-4.65401113e-02f,+2.43496206e-02f,+1.28302172e-01f,-5.36188409e-02f,
+1.30470932e-01f,+1.48087218e-01f,+1.34780286e-02f,+1.83206767e-01f,+6.99301288e-02f,
+1.82915851e-02f,+1.02926418e-01f,+2.06329182e-01f,-2.86249127e-02f,+6.19790703e-02f,
+2.03040317e-01f,+1.64213795e-02f,+1.16790757e-01f,-1.89100027e-01f,+2.80998319e-01f,
+2.44527161e-01f,+8.79344195e-02f,-5.35688579e-01f,+5.96402362e-02f,+1.09747186e-01f,
+3.80886644e-02f,+9.26336199e-02f,+1.47037551e-01f,+1.18677542e-01f,+1.14331886e-01f,
+7.09433183e-02f,-8.74566147e-04f,+2.79904246e-01f,-5.86327873e-02f,-1.29606664e-01f,
+6.25914335e-02f,-1.24959648e-01f,+2.05185474e-03f,+7.12903962e-02f,+1.33735180e-01f,
+1.79377615e-01f,+1.49536833e-01f,+5.37958518e-02f,+2.52911560e-02f,+8.35007578e-02f,
+5.77632412e-02f,+4.92707156e-02f,+4.75300193e-01f,+2.35074148e-01f,+1.27013579e-01f,
+1.28816664e-01f,+7.41101895e-03f,+2.60111719e-01f,+6.77917972e-02f,-1.00494817e-01f,
+2.52877120e-02f,+1.00499734e-01f,+1.52764644e-03f,+4.47075330e-02f,+1.00870907e-01f,
+1.51886061e-01f,-3.84922892e-01f,-2.83990242e-02f,-9.28215161e-02f,+1.18095063e-01f,
-3.53703578e-03f,+1.29460797e-01f,-5.88912610e-03f,+5.35302386e-02f,+2.07704350e-01f,
+3.54041398e-01f,-1.24340290e-02f,+1.31784692e-01f,+2.55443871e-01f,+1.54055163e-01f,
-8.76441598e-03f,+1.75625548e-01f,-2.30960343e-02f,+1.90014634e-02f,-5.34281582e-02f,
-2.01456603e-02f,+4.64061528e-01f,+2.66645610e-01f,+7.80614652e-03f,+5.55234134e-01f,
+8.57047364e-02f,+1.84759125e-01f,+9.29179341e-02f,+3.53110507e-02f,+1.62795112e-01f,
+2.41583753e-02f,+1.15520194e-01f,+1.88674495e-01f,-6.69776974e-03f,+1.88987821e-01f,
+2.32961606e-02f,+7.56338835e-02f,+9.76817831e-02f,+4.96382974e-02f,+2.29263175e-02f,
+1.78051814e-01f,-2.62028482e-02f,+1.95647269e-01f,-2.66742148e-02f,-2.89442837e-02f,
+9.18955132e-02f,+8.69583786e-02f,+2.42129564e-01f,-9.83165428e-02f,+4.34033036e-01f,
-1.10430904e-01f,-1.67534247e-01f,+2.17695609e-01f,+1.05512142e-01f,-3.03428154e-02f,
+2.13073958e-02f,+6.40961677e-02f,+1.30439356e-01f,-7.15126889e-03f,+1.66429654e-01f,
+5.29877516e-03f,+1.85973138e-01f,+1.19155675e-01f,-2.48457655e-01f,+7.87002146e-02f,
+2.86985505e-02f,+8.87354016e-02f,+1.49621636e-01f,+2.96136737e-01f,-4.83699180e-02f,
+1.82228610e-01f,+1.35179088e-01f,+5.82187204e-03f,+1.10622250e-01f,+7.51626939e-02f,
+1.03696920e-01f,+1.72167554e-01f,+1.65691063e-01f,-3.24212504e-03f,-6.05406798e-02f,
-7.99006000e-02f,-4.36054617e-02f,+1.58514902e-02f,+2.56764740e-01f,+4.51127999e-02f,
+1.44869879e-01f,+7.90188238e-02f,-9.68363788e-03f,+3.81713882e-02f,-1.08752936e-01f,
+7.10601062e-02f,+3.40136066e-02f,+1.47210121e-01f,-1.06134690e-01f,-2.21842024e-02f,
-1.71290990e-02f,+2.20973685e-01f,+1.05208799e-01f,-1.88837387e-02f,+1.11118574e-02f,
+8.44144225e-02f,+2.48848051e-01f,-2.51459390e-01f,+1.57018378e-01f,+7.87446201e-02f,
+1.28714368e-01f,+1.14335984e-01f,+1.98839784e-01f,-8.34840685e-02f,+1.21458076e-01f,
-3.06485146e-01f,-1.74979210e-01f,+1.90975472e-01f,-1.67679876e-01f,+3.02938651e-02f,
+6.47205859e-02f,+7.62838051e-02f,-7.29809999e-02f,+2.08836496e-01f,+9.46817473e-02f,
+1.53657272e-02f,+1.45069882e-01f,+3.30901742e-02f,-3.02966326e-01f,+2.70573169e-01f,
+1.03940807e-01f,+6.99695125e-02f,+6.94034770e-02f,-7.61967376e-02f,+2.97877342e-01f,
+3.03626776e-01f,+3.33436310e-01f,+1.47971466e-01f,+8.73196125e-02f,+2.06379458e-01f,
+1.15081510e-02f,+2.60939132e-02f,+2.08058730e-01f,-8.61427337e-02f,+5.83455199e-03f,
+6.59211576e-02f,+2.84722686e-01f,+1.82030156e-01f,+1.11762770e-02f,+1.03495002e-01f,
+4.04110774e-02f,+7.64067173e-02f,+2.66621470e-01f,+1.11958660e-01f,+1.37362570e-01f,
+1.37228116e-01f,+1.06658734e-01f,+3.20016265e-01f,+1.97073534e-01f,+2.21214816e-02f,
+1.57820612e-01f,+2.06617236e-01f,+1.10573165e-01f,+2.36476317e-01f,+8.63855612e-03f,
+1.25990793e-01f,+2.04046950e-01f,-3.12766135e-02f,-2.13189572e-01f,+1.21000119e-01f,
+5.35569116e-02f,+1.23819456e-01f,+7.39048645e-02f,+2.85999566e-01f,-5.55760181e-03f,
-1.41932424e-02f,+4.37676549e-01f,+2.28378564e-01f,+1.43811405e-01f,+8.90742987e-02f,
-2.41034910e-01f,+1.44563094e-01f,+1.23772910e-02f,+1.73950225e-01f,-8.63187388e-02f,
+1.51795998e-01f,+7.09244907e-02f,+2.82115012e-01f,-5.56003340e-02f,-3.60199399e-02f,
+1.80439249e-01f,+1.75140083e-01f,+4.77155477e-01f,+7.70834833e-02f,-9.82175469e-02f,
-7.27901980e-02f,+1.03990808e-01f,+1.58895925e-01f,+4.35227118e-02f,-4.46629412e-02f,
+4.01047133e-02f,+2.17627317e-01f,+1.46668002e-01f,+1.27522111e-01f,-2.26165220e-01f,
-3.28911580e-02f,+1.44569740e-01f,+1.29056439e-01f,-1.59644932e-01f,+1.11386925e-01f,
+1.25414804e-01f,+1.08376011e-01f,+5.33801019e-02f,+1.20344326e-01f,-2.62617366e-03f,
-2.95241088e-01f,+2.28167906e-01f,+1.64333627e-01f,+1.01449706e-01f,+9.52779725e-02f,
+7.89612770e-01f,+1.11326285e-01f,-1.01825902e-02f,+1.33128703e-01f,+3.57954443e-01f,
+1.40059769e-01f,+4.89593409e-02f,-1.99783444e-02f,+1.51101172e-01f,+1.57799944e-01f,
+7.14169592e-02f,+3.10989261e-01f,+8.99682790e-02f,+1.42373621e-01f,+1.50589287e-01f,
+8.08841288e-02f,-1.56811744e-01f,-5.63283898e-02f,-4.64370698e-02f,-5.26626825e-01f,
-9.59313214e-02f,+2.37964123e-01f,+9.39994156e-02f,+2.66698804e-02f,+6.64676577e-02f,
-1.47191817e-02f,-3.90239735e-03f,+2.39749283e-01f,-3.37526239e-02f,-1.01765543e-01f,
+9.88941640e-02f,+1.79257855e-01f,+9.15435255e-02f,-7.89129362e-02f,-1.51797449e-02f,
-1.20093986e-01f,-1.92976281e-01f,+8.16799700e-03f,+3.92782018e-02f,-2.69483645e-02f,
+9.09021031e-03f,+2.44504422e-01f,-5.00991531e-02f,+2.88417116e-02f,-5.84868062e-03f,
-3.02580446e-01f,+6.73434809e-02f,+3.72367561e-01f,+1.05578206e-01f,-3.65786627e-02f,
-1.14069372e-01f,-2.83575710e-03f,+1.92089558e-01f,-3.36575918e-02f,-7.73166865e-02f,
-2.87252199e-02f,+8.07029232e-02f,+2.02878520e-01f,+6.46615326e-02f,+1.27570089e-02f,
-8.05532262e-02f,-7.97193032e-04f,+1.17476145e-02f,-1.59742534e-01f,-4.98395413e-03f,
-9.21365991e-03f,+6.64456785e-02f,+1.94808945e-01f,-2.96920270e-01f,+1.03157729e-01f,
-1.05042972e-01f,+3.33035529e-01f,+7.71112740e-02f,+1.54730836e-02f,+7.04591051e-02f,
+1.08444998e-02f,+2.06089482e-01f,+2.55089164e-01f,+2.44247261e-02f,+1.72257543e-01f,
+3.87380272e-02f,+5.55107854e-02f,+8.64219442e-02f,-3.22236605e-02f,-8.22894722e-02f,
-3.48792002e-02f,+9.32999179e-02f,+1.20978549e-01f,+2.10592672e-02f,+6.44224063e-02f,
+9.38569847e-03f,+1.07573912e-01f,+1.47743911e-01f,+4.09405008e-02f,+2.27579176e-01f,
+1.71681806e-01f,-3.28597799e-02f,+1.55586135e-02f,+1.08450234e-01f,+3.49500358e-01f,
+2.92110536e-02f,+8.14236626e-02f,+9.90130100e-03f,-2.05601268e-02f,-3.54804136e-02f,
+1.46106496e-01f,-8.77766870e-03f,-1.15191126e-02f,+3.26212764e-01f,-6.92247078e-02f,
+5.28291941e-01f,-1.77841745e-02f,-2.29382247e-01f,+1.37548283e-01f,-4.88406271e-02f,
+8.21255818e-02f,+3.32514532e-02f,+2.15589721e-02f,+2.06148386e-01f,-3.69076908e-01f,
-1.64079722e-02f,+2.34613381e-02f,+3.87973674e-02f,+1.15767829e-01f,+4.17678468e-02f,
+1.86180443e-01f,-7.17759430e-02f,-2.61020456e-02f,+4.29232419e-02f,+3.19224186e-02f,
-9.04951692e-02f,-2.24709585e-01f,+7.07229823e-02f,-2.00557739e-01f,+3.89518379e-03f,
+2.51857359e-02f,-1.57636479e-01f,+1.32256895e-01f,+1.47502869e-01f,+7.27549195e-02f,
+4.40351032e-02f,+8.03413391e-02f,-2.17324533e-02f,+2.93615878e-01f,+2.14521885e-02f,
+1.71923533e-01f,-4.85000722e-02f,+7.38491118e-02f,-2.31741648e-02f,+2.51051486e-02f,
-2.27997437e-01f,-1.17706902e-01f,-1.05679221e-02f,+4.33913991e-02f,+1.45669430e-01f,
+2.44100273e-01f,-9.42580774e-02f,-1.92923155e-02f,-1.34911537e-01f,-1.29438236e-01f,
+1.03961594e-01f,+4.87950295e-02f,-5.68244010e-02f,-7.40754902e-02f,+3.28709707e-02f,
-9.30186659e-02f,-1.01635583e-01f,-2.11807594e-01f,+1.58599287e-01f,+7.11153373e-02f,
+1.72164902e-01f,-1.70023292e-02f,+1.93851978e-01f,+4.14371938e-02f,+1.05515853e-01f,
+8.38443860e-02f,+5.26883304e-02f,+1.19084448e-01f,+1.01153180e-01f,+1.78860292e-01f,
+1.53603256e-01f,+6.56807497e-02f,+1.22576123e-02f,+6.73993900e-02f,+2.14446411e-01f,
+1.83307350e-01f,+5.74766053e-03f,-1.58284962e-01f,+3.70814987e-02f,+5.82526848e-02f,
-2.03595474e-01f,+1.07605189e-01f,+1.20827153e-01f,+1.13870405e-01f,-3.06954212e-03f,
+5.40664271e-02f,+3.09393257e-01f,+1.55239040e-02f,+3.09156179e-01f,+1.78479761e-01f,
+9.17685553e-02f,+1.70661993e-02f,-4.77511995e-02f,+5.51088676e-02f,+1.41291887e-01f,
+9.46870744e-02f,-1.25651108e-02f,-2.30759028e-02f,+1.00120241e-02f,+1.05254129e-01f,
-2.51630306e-01f,+3.08948811e-02f,+1.48919985e-01f,+1.78272109e-02f,+6.42428845e-02f,
-6.20035978e-04f,-1.62184864e-01f,+1.35732114e-01f,+6.71575367e-02f,+1.29246712e-01f,
+3.04159485e-02f,+1.99010149e-01f,-1.01558708e-01f,+1.74825694e-02f,+2.90510803e-01f,
-3.62721980e-02f,-1.66506976e-01f,-2.21205596e-02f,-3.83184738e-02f,+1.27323627e-01f,
-7.70136118e-02f,+1.33999512e-01f,+1.68589711e-01f,-3.16885859e-02f,+9.48250853e-03f,
+3.45651270e-03f,-6.86386600e-02f,-3.85731496e-02f,+7.24347159e-02f,+8.27265829e-02f,
+3.09179425e-01f,-3.66144441e-02f,+8.17699805e-02f,-1.02324046e-01f,-1.01108238e-01f,
+2.42642522e-01f,+3.88011664e-01f,-5.52576296e-02f,+3.82786281e-02f,+3.02500110e-02f,
+3.17078471e-01f,-2.09982041e-02f,-3.11438981e-02f,-7.36770732e-03f,+6.57032797e-05f,
+5.75312339e-02f,-1.25411404e-02f,+2.35824287e-03f,+1.52053102e-03f,+1.33482635e-01f,
+9.06399712e-02f,+7.51044378e-02f,-3.07322722e-02f,+7.86769539e-02f,-3.64365131e-02f,
-9.90350172e-02f,+3.55949938e-01f,+5.77913448e-02f,-9.28127170e-02f,+2.77316093e-01f,
+8.34542606e-03f,+4.62157018e-02f,+2.31635571e-02f,-3.86379883e-02f,-3.03843375e-02f,
-9.88888890e-02f,+3.25592868e-02f,+6.22992590e-02f,-1.89132601e-01f,+5.92885911e-02f,
+4.22413856e-01f,-1.02565773e-01f,+4.24832106e-03f,+1.18957475e-01f,+1.37796611e-01f,
+1.17715172e-01f,-1.24567598e-01f,+4.13529836e-02f,+1.38870344e-01f,-5.46266586e-02f,
+2.02703327e-01f,-5.99108972e-02f,-1.47576526e-01f,+1.00166783e-01f,-8.52722600e-02f,
-6.73170835e-02f,-1.08796987e-03f,+3.17300973e-03f,+2.39404161e-02f,+1.64891377e-01f,
-9.70630944e-02f,-8.02763477e-02f,-2.46769227e-02f,-4.23015952e-02f,+2.27815762e-01f,
+8.30258504e-02f,+6.22021519e-02f,+1.13625258e-01f,+4.12829757e-01f,+8.75268888e-04f,
+6.15061074e-02f,+7.44746579e-03f,+3.16938519e-01f,+9.88584533e-02f,+1.15234926e-02f,
+3.16910259e-02f,+3.05568557e-02f,+1.74205638e-02f,+1.07595578e-01f,-7.65874311e-02f,
+5.68029098e-02f,-2.15407059e-01f,+9.17680785e-02f,+1.15542792e-01f,-2.41316676e-01f,
+8.41984376e-02f,+4.29840907e-02f,-4.18784581e-02f,-3.43995035e-01f,-2.84641702e-02f,
-5.22839054e-02f,-3.89857180e-02f,-1.73161238e-01f,-1.24924496e-01f,-6.36663958e-02f,
+1.27608180e-01f,+2.68740710e-02f,+8.41188654e-02f,+1.56770244e-01f,+1.61987543e-01f,
+1.64591640e-01f,+2.72139490e-01f,+1.14997931e-01f,+4.62908924e-01f,+1.22506961e-01f,
-1.52111709e-01f,+1.67355090e-01f,-1.35657554e-02f,+1.08233526e-01f,+7.59884790e-02f,
+1.03564762e-01f,-4.97785807e-02f,+1.51988208e-01f,+1.00029625e-01f,+7.01381639e-02f,
-1.48795798e-01f,+3.89377698e-02f,+1.31140500e-01f,-1.59804206e-02f,+2.63043195e-01f,
+1.55163571e-01f,+2.05570310e-01f,-3.13708931e-02f,+8.62504467e-02f,+1.32632464e-01f,
+2.70014722e-02f,-7.77320117e-02f,+3.08903288e-02f,+1.79664955e-01f,+3.18985730e-02f,
+4.49790768e-02f,-1.54220834e-01f,-7.22382404e-03f,+2.85518140e-01f,+1.93669230e-01f,
+1.04321845e-01f,-4.70277704e-02f,+1.10799290e-01f,+1.59883782e-01f,+2.15060398e-01f,
+3.27891447e-02f,+1.06808282e-01f,-7.95862302e-02f,+1.20767601e-01f,+1.31979838e-01f,
+1.68017074e-02f,+8.63493383e-02f,+7.19891563e-02f,+6.85494766e-02f,+1.60626009e-01f,
+7.92700425e-02f,+4.37977351e-02f,+1.80818453e-01f,+1.49748489e-01f,+2.58039311e-02f,
+3.38967070e-02f,+1.77968860e-01f,+9.17759538e-02f,+3.53481434e-02f,+3.69205489e-04f,
+5.46026393e-04f,+3.51156890e-01f,+1.15494750e-01f,-4.58697602e-02f,+4.25063446e-02f,
+1.21238329e-01f,+2.56533064e-02f,+1.45475611e-01f,+8.07192475e-02f,+1.06274694e-01f,
+1.66606635e-01f,+4.13264446e-02f,-5.37948199e-02f,+1.00664429e-01f,+4.62647192e-02f,
+1.62349060e-01f,-1.29074575e-02f,+5.71654551e-02f,+2.11501829e-02f,-4.75359075e-02f,
+1.58907861e-01f,+1.20044261e-01f,+1.78181939e-02f,+1.67602345e-01f,+1.89301819e-01f,
+2.06829950e-01f,+6.96994141e-02f,+2.77102530e-01f,+2.04846323e-01f,+4.69882190e-02f,
+1.81533143e-01f,+1.99108813e-02f,+4.94434386e-02f,+1.85282975e-01f,+1.49216756e-01f,
-6.93405941e-02f,+2.04427317e-01f,-2.75371913e-02f,+7.98495114e-02f,+1.50217786e-01f,
+5.84120341e-02f,+5.54699497e-03f,+7.90235177e-02f,+3.28278661e-01f,+9.29486454e-02f,
-4.08572815e-02f,+4.15340997e-02f,-1.30083482e-03f,+1.14240400e-01f,+6.14179783e-02f,
+2.19453812e-01f,+1.79485500e-01f,+1.40406638e-01f,+1.24218181e-01f,+2.04475075e-01f,
+2.41863623e-01f,-3.18136737e-02f,+2.31158793e-01f,+1.29903242e-01f,+6.63228855e-02f,
+2.00763389e-01f,-6.97562024e-02f,+3.32091331e-01f,+2.60706782e-01f,+2.03597024e-01f,
+9.81506705e-02f,+1.27294496e-01f,+1.23919226e-01f,+1.81024805e-01f,+1.03257492e-01f,
+2.94487119e-01f,+1.42857786e-02f,+8.44454542e-02f,+7.96334445e-02f,+1.82619452e-01f,
-1.25285864e-04f,+3.79685089e-02f,-1.46186596e-03f,+3.14992033e-02f,-1.01313733e-01f,
-1.49342008e-02f,+3.62335891e-01f,+2.62919396e-01f,+1.60165027e-01f,+2.17106164e-01f,
+4.97448258e-02f,+1.46281198e-01f,-4.03190218e-02f,+5.61668053e-02f,+1.74731538e-01f,
+2.09574208e-01f,+3.08096677e-01f,+1.60396490e-02f,+6.05251156e-02f,-2.28313543e-02f,
+9.38625112e-02f,-8.18571523e-02f,+1.45437494e-01f,+3.78730148e-02f,+7.80481622e-02f,
+5.37277162e-02f,+5.66799380e-02f,+2.34511077e-01f,-8.94956104e-03f,-7.72721926e-03f,
+1.33499339e-01f,+1.01761013e-01f,+2.79050320e-01f,+6.54523298e-02f,+1.67999744e-01f,
+8.45372230e-02f,+2.46784985e-01f,+1.23200528e-01f,-6.41196072e-02f,+8.80065858e-02f,
+2.60696471e-01f,+9.84531492e-02f,+3.88191789e-02f,+1.06920175e-01f,+4.72406745e-02f,
-1.04918644e-01f,+2.39094988e-01f,+8.59407932e-02f,-1.08326688e-01f,+1.42221451e-01f,
+7.87968114e-02f,+5.54433204e-02f,+1.51741328e-02f,-3.68346013e-02f,-1.00728613e-03f,
+6.51799738e-02f,+3.26359808e-01f,+8.05406272e-02f,+1.25589058e-01f,+3.41961026e-01f,
+1.14699945e-01f,+1.39666781e-01f,-9.19618681e-02f,+8.58406574e-02f,+4.49321531e-02f,
-7.68710896e-02f,+1.09471627e-01f,+1.26561314e-01f,+6.64991587e-02f,+1.42682523e-01f,
-1.35003120e-01f,+1.68617681e-01f,+1.13827236e-01f,+6.26540333e-02f,+9.54479650e-02f,
+3.19973230e-01f,+4.89775836e-02f,+1.67266309e-01f,-1.19893394e-01f,+7.66245648e-02f,
-1.93100408e-04f,-8.05904046e-02f,+1.65726587e-01f,+1.27807334e-01f,+8.29601437e-02f,
+1.90795287e-02f,+1.37982160e-01f,-8.13451633e-02f,+1.54501483e-01f,+7.82902688e-02f,
+8.35785121e-02f,-2.92657852e-01f,+3.30930412e-01f,+2.47293249e-01f,-9.24172066e-03f,
+1.03829153e-01f,+3.34474534e-01f,+4.58088033e-02f,+7.74691552e-02f,-1.09797083e-01f,
+2.94220477e-01f,+4.65292372e-02f,+1.23667069e-01f,+2.00039953e-01f,+1.11527547e-01f,
+6.63042516e-02f,-8.54501948e-02f,+1.02974894e-02f,-1.06244229e-01f,+2.38702912e-02f,
-2.96225101e-02f,+1.52228549e-01f,+1.32762402e-01f,+1.95946172e-01f,+2.49001421e-02f,
-1.31179735e-01f,-1.00594405e-02f,+7.07690790e-02f,-1.57301456e-01f,+4.41102497e-02f,
+1.38633847e-01f,+9.94915962e-02f,+2.02141359e-01f,+7.49575794e-02f,+1.59388810e-01f,
+3.41688003e-03f,+4.13378179e-02f,+1.67168662e-01f,+8.97689238e-02f,+3.02929133e-02f,
+1.55615389e-01f,+8.97267163e-02f,+2.50342548e-01f,-1.30492255e-01f,+1.39814064e-01f,
+8.47464353e-02f,+9.48285237e-02f,+4.21951339e-02f,+9.85354781e-02f,-1.73417684e-02f,
+3.64500880e-02f,+2.63125211e-01f,-8.67045205e-03f,-1.13834664e-02f,+3.26397985e-01f,
+3.07488829e-01f,-4.25283574e-02f,+3.71056676e-01f,+1.25003070e-01f,+7.98390135e-02f,
+6.91412762e-02f,+1.42230131e-02f,+2.66049355e-01f,-6.08852021e-02f,+4.15610559e-02f,
+9.49569121e-02f,+4.01776470e-02f,-6.02716327e-01f,+1.37460455e-01f,+3.27607840e-01f,
+1.03456080e-01f,-4.30503726e-01f,+1.10958636e-01f,-3.88999619e-02f,+1.54366538e-01f,
+2.31835827e-01f,+2.44740665e-01f,+1.97036445e-01f,+2.57802546e-01f,+2.10903272e-01f,
+1.87275007e-01f,-4.03604470e-02f,+4.91444096e-02f,+4.36069876e-01f,-5.44135720e-02f,
+1.87920183e-01f,+1.29496396e-01f,+5.98889530e-01f,+1.11294463e-01f,+1.45419270e-01f,
+2.29268909e-01f,+8.68560821e-02f,+4.29172143e-02f,-7.96408877e-02f,-8.28569531e-02f,
+1.70332164e-01f,+1.90383151e-01f,+5.21809086e-02f,+3.27813417e-01f,-1.38067171e-01f,
-1.10673130e-01f,+2.69164201e-02f,-1.72481999e-01f,-1.56358331e-02f,+7.16270134e-02f,
-3.28181311e-02f,+3.17306668e-02f,-1.30642906e-01f,+5.85414059e-02f,+1.06183462e-01f,
+2.00386167e-01f,+8.74231979e-02f,+1.75686270e-01f,-7.39779696e-02f,+2.53846526e-01f,
+1.18014224e-01f,+9.24100652e-02f,-2.66018175e-02f,-1.10401958e-01f,-1.07013527e-02f,
+5.60291670e-02f,+2.20908120e-01f,+5.32663874e-02f,+5.04629575e-02f,+6.65258691e-02f,
+1.28155082e-01f,+1.16746202e-01f,+5.12853870e-03f,-1.15727875e-02f,+8.27227607e-02f,
+1.06694512e-01f,+1.73491985e-01f,+6.92465752e-02f,+3.76023240e-02f,+3.84154357e-02f,
+8.63185525e-02f,+5.83558381e-02f,+5.92804588e-02f,+5.21133319e-02f,+1.07658774e-01f,
-1.89002939e-02f,+2.85101503e-01f,+4.27584387e-02f,-4.25463617e-02f,+1.07958615e-01f,
+4.97535840e-02f,+1.29836770e-02f,+2.94911452e-02f,+6.79433122e-02f,+1.06918462e-01f,
-4.87400405e-02f,-8.01766887e-02f,-4.01234962e-02f,+1.38358727e-01f,-5.54779060e-02f,
+5.09222113e-02f,+2.41565797e-02f,+8.98981467e-02f,+4.53155600e-02f,+3.93665284e-02f,
+4.31228578e-02f,+1.27230018e-01f,+1.99566677e-01f,+9.71728936e-03f,-1.16211787e-01f,
+2.96725873e-02f,-1.41602308e-01f,+2.76434153e-01f,+1.24123044e-01f,+8.30287114e-02f,
+5.86374756e-03f,+7.63734058e-02f,+5.96008003e-02f,+2.56347731e-02f,+1.19666465e-01f,
+5.83405159e-02f,+1.44679904e-01f,+2.05070317e-01f,+2.29662970e-01f,-1.29644722e-01f,
-8.24566260e-02f,-7.90223032e-02f,-3.57663125e-01f,-3.90901268e-02f,+2.07221746e-01f,
+3.33590657e-02f,-1.40121683e-01f,+9.54028964e-02f,+9.36772749e-02f,-6.19588867e-02f,
+1.11951426e-01f,+1.02144234e-01f,+9.90671590e-02f,+1.19876914e-01f,+1.25187397e-01f,
+4.75982670e-03f,+3.16907614e-02f,+1.72347799e-01f,+1.43707782e-01f,+2.45517984e-01f,
+4.24734466e-02f,-2.64791050e-03f,-1.45064294e-01f,-1.12877246e-02f,+8.03229585e-02f,
+1.80325005e-02f,+2.36559496e-03f,+1.94691315e-01f,+8.15007463e-02f,-3.58892828e-02f,
+1.37463197e-01f,+1.07852221e-01f,-7.62794316e-02f,-2.03693703e-01f,-8.81832913e-02f,
+8.06374103e-02f,-5.19487746e-02f,+8.59428868e-02f,-5.35399690e-02f,+8.26170072e-02f,
+2.19890445e-01f,+1.56956360e-01f,+4.48222198e-02f,+2.71268003e-03f,+1.97947994e-01f,
-8.29602778e-02f,+9.55294296e-02f,+1.09179959e-01f,+1.48489058e-01f,-1.96191706e-02f,
+6.73149154e-02f,+8.39273483e-02f,-4.98556569e-02f,-3.66858877e-02f,+1.61489010e-01f,
-2.80446768e-01f,+3.02459095e-02f,+8.22157413e-02f,+2.73601949e-01f,-1.24887891e-01f,
+8.03669821e-03f,-1.77808449e-01f,+6.88063633e-03f,-8.46695006e-02f,+2.63968054e-02f,
+8.49974435e-03f,-5.11367507e-02f,-2.57538054e-02f,+1.79689918e-02f,-2.46661827e-02f,
-1.78397879e-01f,+1.53356895e-01f,+2.34756842e-01f,+2.27189720e-01f,-9.49088018e-03f,
+3.48934621e-01f,+7.55748376e-02f,+1.50684044e-01f,+7.40701482e-02f,+1.22259274e-01f,
+1.72183692e-01f,+2.42600739e-01f,+9.96050313e-02f,+9.26883519e-02f,+7.13583305e-02f,
-7.18971863e-02f,+4.75408547e-02f,+2.24222213e-01f,+2.15370525e-02f,+5.14758527e-02f,
-5.43817505e-02f,+4.86553907e-02f,+1.79718763e-01f,-1.22090487e-03f,+6.15548305e-02f,
-1.55817140e-02f,+1.44381285e-01f,-4.14844183e-03f,+1.65503602e-02f,+2.05839768e-01f,
+2.32508332e-02f,+1.36054397e-01f,+4.52388041e-02f,+7.81549513e-02f,+1.32018983e-01f,
+9.83720273e-02f,+6.14896789e-02f,+1.94464564e-01f,+1.83448091e-01f,-5.35707362e-02f,
-3.28818977e-01f,+8.86342078e-02f,-6.42162040e-02f,+6.36729004e-04f,+1.82552919e-01f,
+2.33421475e-01f,+1.52181193e-01f,+6.51862621e-02f,+2.24130787e-02f,+1.06126122e-01f,
+9.70163047e-02f,+2.04929635e-01f,+3.40678841e-01f,+1.31053880e-01f,+1.60593376e-01f,
+6.97404966e-02f,+8.86801481e-02f,+7.15049654e-02f,-3.78951617e-02f,-3.95749435e-02f,
-1.23671748e-01f,+8.31068959e-03f,+1.19923376e-01f,-2.00625986e-01f,+9.01272818e-02f,
+1.17418535e-01f,+9.37345549e-02f,-6.94078878e-02f,+1.21160746e-01f,+9.64165702e-02f,
+1.75337326e-02f,-5.63777015e-02f,+6.23802356e-02f,+1.69737130e-01f,+1.55792870e-02f,
+2.70600230e-01f,-2.90479176e-02f,+5.65932244e-02f,+4.97397110e-02f,+1.30264275e-02f,
-1.05112165e-01f,+1.78694986e-02f,+6.57287613e-02f,+1.48694649e-01f,-1.43744536e-02f,
-8.44816715e-02f,+1.40620202e-01f,+1.42268343e-02f,+6.87810034e-02f,+3.55534293e-02f,
+6.93860799e-02f,+6.13329485e-02f,+9.39083621e-02f,+1.08855650e-01f,-5.75028732e-03f,
+1.18435128e-02f,+8.79364014e-02f,-1.36052921e-01f,+4.56692725e-02f,+8.03571194e-02f,
-3.76318395e-03f,+1.45567611e-01f,+3.01838696e-01f,-2.72214860e-02f,+4.52753268e-02f,
-2.99802810e-01f,+6.86327741e-02f,+9.98123512e-02f,-3.52302603e-02f,+4.34895344e-02f,
+2.13726405e-02f,+6.15993105e-02f,+5.77653684e-02f,-2.30416749e-02f,+4.66216132e-02f,
+3.71839032e-02f,-7.59109408e-02f,+1.49132311e-03f,+3.11251376e-02f,+1.16829388e-01f,
+1.97890364e-02f,+2.38883961e-02f,+1.71629444e-01f,+1.43371671e-01f,-7.41595998e-02f,
-6.02173395e-02f,+1.78142443e-01f,-2.12089587e-02f,-9.66986865e-02f,+6.16316423e-02f,
+2.33595535e-01f,+1.25728205e-01f,+1.74940586e-01f,-6.95795342e-02f,-7.13615939e-02f,
+1.29692987e-01f,-5.09430431e-02f,+1.21997856e-02f,+1.80023760e-01f,+1.39321044e-01f,
+2.51749814e-01f,-1.34419665e-01f,+2.25238055e-02f,+8.41853470e-02f,+9.74406376e-02f,
+1.54162437e-01f,+3.77445556e-02f,+2.16729417e-02f,+1.93300340e-02f,-6.90235198e-02f,
-1.38203219e-01f,-2.08078977e-02f,-1.11514293e-02f,+1.16540000e-01f,-7.84977525e-03f,
+1.59841880e-01f,+6.35097101e-02f,-1.60149604e-01f,-1.28264338e-01f,+1.53926108e-02f,
+9.51083824e-02f,+3.88245620e-02f,+8.98657143e-02f,+6.91163987e-02f,+1.31710261e-01f,
+8.47683474e-02f,-1.06147686e-02f,+1.05543643e-01f,+6.27800003e-02f,+8.45676288e-02f,
+2.13067189e-01f,-1.15548505e-03f,+1.39996320e-01f,+9.40169673e-03f,-8.80721807e-02f,
+1.79882515e-02f,-1.10773250e-01f,+9.75592807e-02f,+1.01975203e-01f,-3.19934450e-02f,
+2.45982781e-03f,-1.07040837e-01f,-3.78817953e-02f,+7.63713196e-02f,-1.40822744e-02f,
+4.21220250e-03f,+1.59080654e-01f,-3.40111032e-02f,+2.17431262e-02f,+4.72216457e-02f,
+1.50474131e-01f,+3.13697048e-02f,-6.13798834e-02f,+3.90133783e-02f,+2.64272183e-01f,
+1.60531893e-01f,+9.19550285e-02f,+3.48824747e-02f,-7.71085545e-02f,+1.15297899e-01f,
-3.33674587e-02f,+2.97475308e-02f,-2.29409635e-02f,+1.08949371e-01f,+7.87905157e-02f,
+1.08888753e-01f,-6.58162013e-02f,+1.46804720e-01f,-1.02981158e-01f,+2.31881104e-02f,
+1.41880348e-01f,+2.44745731e-01f,+3.04905087e-01f,+2.31014900e-02f,-9.98068880e-03f,
+7.02343285e-02f,+1.67685241e-01f,+1.71107128e-01f,+1.06831878e-01f,+1.12734146e-01f,
+2.32258365e-02f,+4.83773183e-03f,+5.77354170e-02f,+1.52018800e-01f,-3.86418737e-02f,
+2.91367143e-01f,-1.59787610e-01f,-3.82497050e-02f,-2.43454337e-01f,-6.32919520e-02f,
+1.41444087e-01f,+2.57677659e-02f,-1.45656914e-01f,-1.62068665e-01f,+8.34576711e-02f,
+2.83642672e-02f,+1.53781325e-01f,-6.61048666e-02f,-1.27636313e-01f,-1.11046031e-01f,
+5.63781038e-02f,+1.68097779e-01f,-6.11018464e-02f,+6.41371980e-02f,+1.70088798e-01f,
+7.32565001e-02f,-7.25755319e-02f,-1.42105818e-01f,+7.34643489e-02f,+8.65069330e-02f,
+1.87944204e-01f,+1.66919202e-01f,-3.39943059e-02f,+9.33772177e-02f,+7.76138231e-02f,
-1.00359209e-02f,+2.53963083e-01f,+2.11565629e-01f,-1.92313716e-01f,-1.31383762e-01f,
-1.22808136e-01f,+1.34359732e-01f,-5.05999736e-02f,+4.32583280e-02f,-1.12121329e-01f,
-1.79050565e-01f,+4.50776480e-02f,-8.58350024e-02f,-2.52764188e-02f,-4.61298190e-02f,
+9.18398723e-02f,+1.68099120e-01f,+9.69785601e-02f,+1.30074710e-01f,+5.74811995e-02f,
+1.49035990e-01f,-8.24044272e-02f,+7.60055035e-02f,+8.05306062e-02f,+1.76589638e-01f,
+1.15630860e-02f,-1.05032086e-01f,-5.51534221e-02f,-4.74417806e-02f,+9.88367572e-02f,
+6.42809719e-02f,+9.86743020e-04f,+1.16450287e-01f,-1.68692358e-02f,+6.57710880e-02f,
-1.58192543e-03f,-7.15486705e-02f,-5.36225848e-02f,+1.55812949e-01f,+2.19007675e-02f,
+2.29944840e-01f,+2.58423358e-01f,+1.92014322e-01f,+9.07716379e-02f,-6.36164024e-02f,
+1.67305261e-01f,+1.51933953e-01f,+1.06432892e-01f,-4.68017049e-02f,-8.09679776e-02f,
-4.67608608e-02f,+1.89865500e-01f,+8.29317644e-02f,+3.31223994e-01f,-3.18478495e-02f,
+3.34008895e-02f,+2.48185005e-02f,+2.38065943e-01f,-8.05815123e-03f,-2.60461513e-02f,
-1.17784897e-02f,+4.12808806e-01f,+4.03463133e-02f,+4.49324399e-02f,-7.82029629e-02f,
+7.07956180e-02f,-8.14886764e-02f,+1.66830465e-01f,-3.75715457e-02f,+1.26379594e-01f,
+1.42587900e-01f,-2.79434659e-02f,+7.19993263e-02f,+1.15339912e-01f,+1.63435459e-01f,
+7.49620721e-02f,+1.10033356e-01f,-1.28839135e-01f,+2.35787332e-01f,+2.41518736e-01f,
+3.11803594e-02f,-6.91752508e-02f,-2.88156718e-02f,-1.09426796e-01f,-9.41073373e-02f,
-3.55937122e-03f,+1.87849607e-02f,+1.89200550e-01f,-3.69802746e-03f,-1.09427027e-01f,
+2.30801210e-01f,+1.51167035e-01f,+2.80746728e-01f,+5.94781749e-02f,-1.30341956e-02f,
+4.57814857e-02f,-2.54132738e-03f,-1.58096746e-01f,-7.01486692e-02f,+3.07601374e-02f,
+2.01104954e-01f,-1.41072944e-01f,+7.61216357e-02f,+6.36483207e-02f,-1.69432664e-04f,
+8.29084441e-02f,+7.78846815e-02f,+1.05841413e-01f,+1.11993827e-01f,+8.30391496e-02f,
-9.46476217e-03f,+2.46750340e-02f,+3.08697939e-01f,+1.09106362e-01f,+2.36107577e-02f,
+8.65550013e-04f,+3.29742837e-03f,-4.22558263e-02f,+1.39689401e-01f,-3.55354920e-02f,
+9.53572392e-02f,+6.55740947e-02f,+8.29009190e-02f,+1.07704863e-01f,-2.53419220e-01f,
+6.46067038e-02f,+4.62827571e-02f,-5.34436181e-02f,+9.25217643e-02f,-3.35560068e-02f,
+1.42787427e-01f,-6.10729642e-02f,-6.51012063e-02f,-2.65219342e-02f,-8.89883041e-02f,
-6.78803697e-02f,-6.03258349e-02f,+1.75253466e-01f,+1.86591446e-01f,+2.23622397e-01f,
-2.27578357e-01f,-8.36960748e-02f,-2.18655482e-01f,-3.37003097e-02f,+8.48259479e-02f,
+6.42961487e-02f,+2.39908211e-02f,-1.12361625e-01f,-1.89882115e-01f,+4.33855318e-02f,
+1.45092411e-02f,+8.60478356e-02f,-2.16054529e-01f,+6.55909255e-03f,-1.36131242e-01f,
+1.08754322e-01f,-5.99349216e-02f,+1.55959025e-01f,-1.99099079e-01f,+1.76340118e-01f,
+2.68753886e-01f,+7.63902739e-02f,-9.16563570e-02f,-1.19157091e-01f,+1.27314508e-01f,
-7.35741407e-02f,+6.94338456e-02f,+1.61808565e-01f,+5.75051196e-02f,+8.06506425e-02f,
-3.42477225e-02f,+2.77973711e-02f,+3.25156823e-02f,-5.15641868e-02f,-1.37963280e-01f,
+1.03430524e-01f,+1.54248595e-01f,+6.29635379e-02f,+6.30489588e-02f,+2.85377372e-02f,
+9.40920040e-02f,-1.90235779e-01f,+5.68425059e-01f,-1.22342244e-01f,-2.15933621e-02f,
-1.35183841e-01f,-2.14327127e-02f,+5.23169115e-02f,-7.15309335e-03f,-7.63173867e-03f,
+6.39076829e-02f,-7.20005110e-02f,+9.46744457e-02f,-3.90935168e-02f,+1.15454448e-02f,
+1.23979077e-01f,+3.15926503e-03f,+4.71427888e-02f,-8.15579072e-02f,+1.11577414e-01f,
+1.78351223e-01f,+1.44272462e-01f,+2.62424294e-02f,+9.59874541e-02f,+1.06526658e-01f,
-5.29373325e-02f,-1.93342939e-01f,+7.65526667e-02f,-4.99608694e-03f,+6.10061325e-02f,
+4.79024015e-02f,-9.69959050e-02f,+1.43201217e-01f,-4.43853252e-02f,-6.91709593e-02f,
+2.25006696e-02f,+3.63989398e-02f,+1.40457638e-02f,-7.37117007e-02f,-1.42784998e-01f,
+3.84097323e-02f,-3.88746522e-02f,+2.53100932e-01f,+2.05092318e-02f,+9.80770886e-02f,
+2.91030612e-02f,+1.57744512e-01f,-7.69757926e-02f,-1.32778352e-02f,+1.43264741e-01f,
+6.74205124e-02f,+8.78345817e-02f,-4.48481366e-02f,+1.21743716e-01f,+1.23175241e-01f,
+1.32822752e-01f,+7.63380453e-02f,+1.62959367e-01f,+1.00950345e-01f,+1.42423496e-01f,
-3.40237319e-02f,+2.35253945e-02f,+2.50311315e-01f,+4.92027372e-01f,+1.07164480e-01f,
+5.44562221e-01f,+5.01886904e-02f,-1.07266426e-01f,+3.76359560e-02f,-1.56087175e-01f,
+5.41421659e-02f,+2.34847009e-01f,+7.85387605e-02f,-2.48216521e-02f,+1.98312491e-01f,
+3.71216178e-01f,+2.93059759e-02f,-1.20425172e-01f,+6.59100488e-02f,-2.96648685e-02f,
+1.70121297e-01f,+1.33762583e-01f,+1.83224544e-01f,+1.31197557e-01f,+1.45360753e-01f,
+2.69683629e-01f,-8.23047087e-02f,-2.12453976e-01f,+1.44185111e-01f,-8.19158182e-03f,
+1.42464280e-01f,+1.12573594e-01f,+2.25371346e-01f,-2.21908420e-01f,+1.38176978e-01f,
-7.05282018e-02f,-1.64104179e-01f,+1.51833752e-02f,+2.06885070e-01f,-6.91743847e-03f,
-2.69370377e-01f,+7.63791054e-02f,+5.49905300e-02f,-1.48626015e-01f,-1.47968214e-02f,
-7.97792152e-02f,+9.90232304e-02f,+2.17340142e-01f,-1.02589563e-01f,-1.58215072e-02f,
+2.44531929e-01f,+5.71742915e-02f,+3.74568924e-02f,-1.33439898e-01f,+1.99128717e-01f,
-3.55129182e-01f,+1.53615922e-01f,-1.30809322e-01f,+1.46622837e-01f,+8.34706798e-02f,
+1.20877348e-01f,+2.19181225e-01f,-1.05620585e-01f,+4.03815627e-01f,+2.65969872e-01f,
+8.44529073e-04f,+1.22214109e-01f,-8.68066400e-02f,+1.82249591e-01f,-3.16845439e-02f,
+2.48381704e-01f,-3.22951446e-03f,+1.29060581e-01f,-7.76558667e-02f,+2.55832747e-02f,
+1.65436998e-01f,+8.30886364e-02f,+2.84132212e-02f,-2.15840582e-02f,+2.96574496e-02f,
-4.29394990e-02f,+2.50463516e-01f,+3.82678956e-01f,+1.23774350e-01f,-3.68399285e-02f,
+4.32855457e-01f,+4.60720621e-02f,+4.59478885e-01f,+2.74419039e-01f,-2.68206328e-01f,
+1.83000922e-01f,+5.00862151e-02f,+8.25253353e-02f,+2.72378355e-01f,+1.22910105e-02f,
+1.50134832e-01f,+8.50479826e-02f,+3.51138674e-02f,-4.32095816e-03f,-4.94196899e-02f,
+3.16684604e-01f,+1.73785746e-01f,+2.32279785e-02f,-5.70417941e-02f,+8.94084573e-02f,
+3.99133444e-01f,-3.99757735e-02f,+1.67588979e-01f,-6.99011758e-02f,+1.74830064e-01f,
+7.67764822e-02f,+1.47329465e-01f,-5.85884564e-02f,+7.11134598e-02f,+1.67003855e-01f,
+3.99056599e-02f,+2.51628131e-01f,+2.79390812e-01f,+1.43050805e-01f,+2.47129425e-01f,
-6.86781574e-03f,+2.29401365e-01f,+7.62795657e-02f,+8.97944123e-02f,+1.85307562e-01f,
-1.91732541e-01f,-2.82165498e-01f,-1.36337755e-02f,+2.65721768e-01f,+1.32709265e-01f,
-7.10135931e-03f,+2.26997137e-01f,+2.67871529e-01f,-8.07097033e-02f,+5.68315685e-02f,
-5.15892990e-02f,+5.98493591e-02f,+1.58735394e-01f,+2.41935086e-02f,+9.36271474e-02f,
+1.15122281e-01f,-3.37607265e-01f,+8.58672243e-03f,+7.05639198e-02f,+2.14055583e-01f,
+8.43968093e-02f,+4.28207256e-02f,+1.79531991e-01f,+2.27585107e-01f,+1.43294141e-01f,
+2.87437234e-02f,-1.31152973e-01f,+2.16790214e-01f,+9.47957858e-02f,+2.17265803e-02f,
+2.23830700e-01f,+7.98307732e-02f,-5.92754744e-02f,-1.71979800e-01f,+1.35249877e-02f,
+1.20371655e-01f,+6.79417774e-02f,-7.98340961e-02f,+2.05680206e-01f,+1.75207350e-02f,
+1.61284581e-01f,+3.98151763e-02f,+1.51190162e-01f,+1.34279534e-01f,+2.04317734e-01f,
+7.19351843e-02f,+7.72902668e-02f,+1.84645906e-01f,+1.18304968e-01f,-9.78641659e-02f,
-6.43370673e-02f,-8.37029424e-03f,-5.85446179e-01f,+3.26381087e-01f,+4.54972908e-02f,
-1.63142815e-01f,+1.74633116e-01f,-2.67448928e-03f,+9.94650647e-02f,-1.32592067e-01f,
+2.34134570e-01f,-3.11758481e-02f,-3.95955369e-02f,+1.53064266e-01f,-9.51947048e-02f,
+1.01725291e-02f,+2.82113165e-01f,+1.11235596e-01f,+4.41539824e-01f,-1.17824651e-01f,
+2.07130790e-01f,+1.81717083e-01f,-4.16016132e-01f,+1.01354741e-01f,-2.44522821e-02f,
+1.55672386e-01f,+2.02936932e-01f,+7.41827935e-02f,-7.01212436e-02f,+7.02155870e-04f,
+3.97287197e-02f,+6.25767335e-02f,-1.09527752e-01f,+1.13976330e-01f,+1.07728325e-01f,
-1.99050516e-01f,+5.30490726e-02f,+5.70243746e-02f,+5.64024001e-02f,-7.04177991e-02f,
+1.31972089e-01f,+9.34492499e-02f,-1.05336539e-01f,-2.77992368e-01f,+2.06451431e-01f,
+4.00912732e-01f,-5.41155115e-02f,+7.20835328e-02f,+4.82906289e-02f,+2.09229719e-02f,
+3.05880964e-01f,+3.32043022e-01f,+2.54480988e-01f,+1.07710827e-02f,+1.69912830e-01f,
-2.64077689e-02f,-3.99306752e-02f,+6.40291497e-02f,-6.38886020e-02f,+2.43836436e-02f,
+1.25585720e-01f,+2.71602005e-01f,-2.81261769e-03f,+1.61602721e-01f,+5.17734624e-02f,
+5.26598915e-02f,-1.38701322e-02f,+3.16765547e-01f,+7.16512799e-02f,-1.30570516e-01f,
+5.64093739e-02f,+1.54174298e-01f,+3.02774847e-01f,+1.77180961e-01f,+1.34433135e-01f,
+3.06865901e-01f,+1.48618042e-01f,+1.71109959e-02f,+9.75942090e-02f,+7.84519464e-02f,
+1.86228573e-01f,+1.87456176e-01f,+1.03415236e-01f,+6.47922084e-02f,+1.72326356e-01f,
+3.23581286e-02f,-4.86360155e-02f,+1.44561723e-01f,-3.12963091e-02f,+3.94753814e-02f,
+1.05094194e-01f,-3.05990931e-02f,+3.44314784e-01f,+2.81596724e-02f,+1.26812577e-01f,
-2.46910676e-01f,+4.55547310e-02f,+2.83028752e-01f,+1.64623022e-01f,+7.83621147e-02f,
+2.54334211e-01f,+2.64337838e-01f,+9.70929861e-02f,+6.27911557e-03f,+1.03122450e-01f,
+2.21507698e-01f,+1.01110257e-01f,+5.26783347e-01f,+1.55566791e-02f,-1.52443036e-01f,
+3.57013978e-02f,+1.14704706e-01f,+6.25484949e-03f,+5.16775288e-02f,+4.94032875e-02f,
-1.53413340e-02f,+1.84482187e-01f,+1.68079019e-01f,+5.48391007e-02f,-2.50440866e-01f,
+1.00050934e-01f,+1.65724829e-01f,+2.05953404e-01f,-5.68776846e-01f,+1.09724507e-01f,
-8.61804932e-02f,+7.15425238e-02f,+8.49556401e-02f,-2.34009307e-02f,-5.44362180e-02f,
+9.72354040e-03f,+1.61185369e-01f,+1.78310722e-01f,+5.49195558e-02f,+7.46742338e-02f,
+6.02583647e-01f,-1.40646920e-01f,+1.65914699e-01f,+2.06668470e-02f,+4.66357201e-01f,
+4.68641967e-02f,+1.07983407e-03f,-2.90997550e-02f,+2.30730787e-01f,+3.69167961e-02f,
-1.48124993e-01f,+2.49656171e-01f,-1.92343272e-04f,+1.59856886e-01f,-6.62947223e-02f,
-2.94518340e-02f,+1.65064484e-01f,-1.61293373e-01f,+5.45989573e-02f,+9.85412747e-02f,
+1.00044556e-01f,+9.03050229e-02f,+4.36334051e-02f,+1.98672503e-01f,+1.59066781e-01f,
-1.05246517e-03f,+6.50406927e-02f,+9.93644446e-02f,-1.05125338e-01f,-1.78856596e-01f,
+2.26095662e-01f,+1.89172804e-01f,+7.63518438e-02f,-2.59641502e-02f,+1.50678173e-01f,
+1.75244555e-01f,-9.63478386e-02f,+6.65988624e-02f,-3.92614789e-02f,+2.54503429e-01f,
+8.33188891e-02f,+1.51334465e-01f,+2.00386345e-01f,+2.68797036e-02f,+8.59213918e-02f,
-2.95532737e-02f,-3.90858091e-02f,+1.65502444e-01f,+8.41602609e-02f,+9.46389213e-02f,
+7.88406357e-02f,+8.15410167e-02f,+1.81172699e-01f,+8.73987973e-02f,+2.19373345e-01f,
-6.17487244e-02f,+5.60854524e-02f,+2.90037185e-01f,-2.11045817e-01f,+1.30766824e-01f,
+1.03955045e-01f,+1.39398962e-01f,+5.81455827e-02f,+2.78250221e-02f,+9.61137637e-02f,
+1.37328738e-02f,+9.91916507e-02f,+2.04685211e-01f,+8.41824412e-02f,+1.43620878e-01f,
-2.50865780e-02f,+7.37716630e-02f,+5.01309475e-03f,+4.11374196e-02f,+1.31330967e-01f,
-1.90309763e-01f,+1.01674929e-01f,+7.93414190e-02f,+2.55953431e-01f,+1.66291282e-01f,
-3.24037932e-02f,+2.43848875e-01f,+2.94023827e-02f,+1.87715590e-02f,-4.78258468e-02f,
+1.21149473e-01f,+1.41785830e-01f,+1.75079554e-01f,-5.62302507e-02f,+1.40122011e-01f,
+1.86363682e-02f,+1.06424443e-01f,+1.27215326e-01f,+9.72537994e-02f,+2.03015491e-01f,
-4.59713824e-02f,+5.15327230e-02f,+2.07921080e-02f,+3.36549968e-01f,-4.57281843e-02f,
+7.92823583e-02f,-9.77331400e-02f,+6.50893599e-02f,+8.83684754e-02f,-1.38326705e-01f,
-3.28021310e-02f,+1.67099148e-01f,-9.92483124e-02f,+1.16010591e-01f,+1.14971265e-01f,
-1.64201595e-02f,-5.53349080e-03f,-4.24931794e-02f,+2.15358943e-01f,+7.31720030e-02f,
+8.09867755e-02f,-9.23183560e-03f,+1.10527113e-01f,+2.44101942e-01f,+1.16567142e-01f,
+5.12419343e-02f,-9.13957972e-03f,+1.40633315e-01f,+2.32177019e-01f,+1.07394569e-01f,
+1.23089619e-01f,+1.08689897e-01f,-1.39004439e-01f,+1.44935921e-02f,-2.99845524e-02f,
+8.94211456e-02f,+1.00416578e-01f,+1.80253059e-01f,+1.82529286e-01f,-1.12558603e-02f,
-9.31843892e-02f,+1.37989402e-01f,-1.09693825e-01f,+3.44754905e-01f,+1.43972754e-01f,
+9.99175757e-02f,+2.59023070e-01f,-4.06200252e-02f,+2.83226132e-01f,+7.84393549e-02f,
+1.56522661e-01f,-2.26494893e-02f,+6.34589344e-02f,-3.96411009e-02f,+1.46212325e-01f,
+7.70441294e-02f,+2.96291739e-01f,-1.78544074e-01f,+1.03522018e-02f,+2.05863744e-01f,
+3.66678059e-01f,-1.07837364e-01f,+1.42601803e-01f,+2.53214061e-01f,+4.24795737e-03f,
+1.43946707e-01f,+5.57282418e-02f,+9.56103876e-02f,-9.06377435e-02f,-3.43385376e-02f,
+6.40790090e-02f,-4.30660024e-02f,+3.71899664e-01f,+5.87557554e-02f,+1.22303125e-02f,
+1.77515730e-01f,+1.88947812e-01f,+4.99314331e-02f,+2.93241382e-01f,-1.33604165e-02f,
+9.15459543e-02f,+3.93662304e-02f,+2.31885269e-01f,-6.14885287e-03f,-3.00100818e-03f,
+9.72017422e-02f,-6.85875043e-02f,-7.54325688e-02f,+7.80742690e-02f,+2.08031330e-02f,
+1.77584201e-01f,+7.07593933e-02f,+2.72175390e-02f,+4.24271189e-02f,+1.47583663e-01f,
+1.73820466e-01f,+1.56976566e-01f,+5.98950945e-02f,+1.11215778e-01f,+1.55895039e-01f,
+1.51706919e-01f,-4.50806692e-02f,+1.74305253e-02f,+1.87502831e-01f,-8.75019282e-02f,
+1.51713133e-01f,+5.27159832e-02f,-1.28895208e-01f,+3.77446339e-02f,+7.56599605e-02f,
+2.31614321e-01f,+1.12981863e-01f,+1.89670995e-01f,+1.20214922e-02f,+1.12229630e-01f,
+3.52875963e-02f,+1.58528820e-01f,-3.31673138e-02f,+1.88702792e-02f,+6.04766272e-02f,
+7.95622915e-02f,+3.93661950e-03f,+6.46953704e-03f,+8.79341736e-02f,-3.79096381e-02f,
-1.55501619e-01f,-2.62378473e-02f,-1.59624647e-02f,+3.36675730e-04f,+3.48834038e-01f,
+1.24185085e-01f,-1.44638509e-01f,+1.47625074e-01f,+1.38980433e-01f,-6.07565157e-02f,
-7.85600767e-02f,+2.50958353e-02f,+2.14664899e-02f,+3.10693588e-02f,-2.83303671e-02f,
+1.51769012e-01f,+2.24256124e-02f,+5.80505617e-02f,+1.38103709e-01f,+4.04880345e-02f,
-1.31516039e-01f,-9.79257864e-04f,+7.33764470e-02f,-4.51750914e-03f,+4.38986048e-02f,
+1.99144520e-02f,+2.11731285e-01f,+2.28015453e-01f,-2.86165979e-02f,+6.45659044e-02f,
-1.89464949e-02f,+3.06062847e-01f,+9.94918793e-02f,+2.45399233e-02f,-3.75978425e-02f,
+2.24922523e-01f,+1.28128886e-01f,+5.36568314e-02f,+2.26368114e-01f,+7.22415894e-02f,
+9.45037827e-02f,+6.86646700e-02f,+1.10753007e-01f,+1.09157175e-01f,+1.62127838e-01f,
-8.76259580e-02f,+2.71107227e-01f,+1.55193120e-01f,-9.14494544e-02f,+4.39570844e-02f,
+1.87836066e-01f,-8.11043531e-02f,-4.99769412e-02f,+1.33100674e-01f,+7.12155700e-02f,
-2.53210478e-02f,+3.95799018e-02f,+2.27177903e-01f,-4.41880263e-02f,+9.45492089e-02f,
+1.60840124e-01f,-2.32856907e-02f,+2.04360083e-01f,+8.72244164e-02f,+2.08117831e-02f,
+2.68123541e-02f,-1.42480955e-01f,+9.96702686e-02f,+2.75285970e-02f,+2.84901820e-03f,
+9.00210217e-02f,+1.24252744e-01f,+2.14068696e-01f,+4.04699929e-02f,-3.06394786e-01f,
+1.51920602e-01f,+3.20571172e-03f,-5.44886254e-02f,+9.23519731e-02f,+2.13787973e-01f,
-1.61905941e-02f,+1.66827023e-01f,-8.06633979e-02f,+2.85071265e-02f,-1.05667450e-01f,
-5.74667007e-03f,-9.97700915e-02f,+6.57662284e-03f,+4.61547747e-02f,-5.35435714e-02f,
+2.96766073e-01f,-1.00558370e-01f,-4.36506793e-03f,+1.54196233e-01f,+4.38016653e-02f,
+1.80323631e-01f,+1.76211461e-01f,+7.49738514e-02f,+3.53410393e-01f,-2.83023790e-02f,
+1.07467689e-01f,-1.73231512e-02f,+2.81779412e-02f,+2.78648678e-02f,+9.19330418e-02f,
-1.83182918e-02f,-1.29753631e-03f,+1.62646025e-01f,+1.37534544e-01f,+1.40396938e-01f,
+6.77517578e-02f,+7.99631849e-02f,-1.24356635e-01f,+1.00967987e-02f,+6.23787977e-02f,
+1.40943229e-01f,+8.11249465e-02f,+1.36614636e-01f,+1.52277023e-01f,+1.36100218e-01f,
-7.76666775e-02f,-7.20679108e-03f,+1.65866792e-01f,-4.44198176e-02f,-2.12819059e-03f,
+7.49587640e-02f,-3.10756229e-02f,-1.18599921e-01f,+3.67370658e-02f,+2.67118099e-03f,
-1.25095665e-01f,+1.03557974e-01f,+1.15568817e-01f,+2.35790461e-01f,+8.02464932e-02f,
-3.43946777e-02f,+2.58731723e-01f,+1.74376398e-01f,-6.08557314e-02f,+2.70110811e-03f,
+2.30471686e-01f,+1.12556718e-01f,+3.12025733e-02f,-6.12496249e-02f,+2.07915649e-01f,
+1.46947950e-01f,-4.66468818e-02f,+9.45479944e-02f,+1.37435511e-01f,+9.62254629e-02f,
-1.55064957e-02f,+3.88138182e-03f,+1.20009676e-01f,+5.25277853e-02f,-4.61243913e-02f,
+5.80330752e-03f,+5.35010025e-02f,+1.92351803e-01f,-5.77590279e-02f,+2.12788850e-01f,
-4.94714826e-02f,-7.99503252e-02f,+2.04505339e-01f,+2.23862510e-02f,+1.14704348e-01f,
-2.91597727e-03f,+5.21760844e-02f,+1.69992764e-02f,-1.98787134e-02f,+1.83594793e-01f,
+8.81944299e-02f,+9.69726145e-02f,-1.33900298e-03f,-2.24217921e-01f,-7.50114098e-02f,
-5.83171751e-03f,+1.28668055e-01f,+9.05225724e-02f,-3.66319939e-02f,+2.16086179e-01f,
+1.11727372e-01f,-2.79718284e-02f,+5.17805368e-02f,+5.16638495e-02f,-3.48130241e-02f,
-8.87262300e-02f,+1.79354236e-01f,+8.22333694e-02f,+2.92683914e-02f,+5.65677136e-02f,
-1.99290719e-02f,-2.30210796e-02f,+1.46370903e-01f,+1.00494966e-01f,-7.13387355e-02f,
+1.34403855e-01f,+9.98535007e-02f,+1.61220133e-01f,+1.31699085e-01f,+8.21104869e-02f,
+1.35622144e-01f,+5.32359593e-02f,-1.79934040e-01f,-2.77895957e-01f,+5.14278114e-02f,
+7.22918510e-02f,-1.80084463e-02f,-1.17884211e-01f,+1.73304811e-01f,+1.82996377e-01f,
-1.17940828e-01f,+1.13915011e-01f,+5.60178049e-02f,-7.36791715e-02f,+1.58641830e-01f,
+6.45572171e-02f,+4.27898206e-02f,+8.51694308e-03f,+9.48937833e-02f,+1.01062089e-01f,
+1.74509287e-01f,-3.46828029e-02f,+9.58955586e-02f,+1.22524574e-01f,+4.75767180e-02f,
+1.44253850e-01f,-6.75672889e-02f,+1.52290706e-02f,-7.67390057e-02f,-1.08309023e-01f,
+1.00226132e-02f,+2.44213074e-01f,+1.22313142e-01f,-1.35369211e-01f,+6.55501634e-02f,
-2.06966382e-02f,-1.68436363e-01f,-1.32758960e-01f,+7.57824928e-02f,+1.15525156e-01f,
+1.66155294e-01f,+2.49109551e-01f,+3.57614569e-02f,-8.14995617e-02f,+1.02025069e-01f,
-3.80189419e-02f,-4.59627993e-02f,+1.34421960e-01f,+5.35133742e-02f,+1.50633514e-01f,
+1.25421435e-01f,+1.19204894e-01f,+8.92874151e-02f,+1.45738006e-01f,+9.07156020e-02f,
+4.67198603e-02f,-7.43231401e-02f,+2.10597321e-01f,+8.15044865e-02f,+5.60267270e-03f,
+1.40052259e-01f,+1.10680088e-01f,-7.28875995e-02f,+4.83127907e-02f,+1.48931906e-01f,
-1.36568293e-01f,+9.65756737e-03f,-4.38075438e-02f,+2.50753850e-01f,+2.54368097e-01f,
-6.13136357e-03f,+2.13874392e-02f,+4.83618192e-02f,+6.47583678e-02f,+9.28657651e-02f,
-9.78989713e-03f,+2.06764460e-01f,-8.13967586e-02f,+5.88332228e-02f,-6.17069863e-02f,
-6.61848262e-02f,+8.94679800e-02f,+3.71322073e-02f,+1.77602127e-01f,-5.78337982e-02f,
+2.48644594e-02f,+9.27702188e-02f,+1.99309409e-01f,+2.09261864e-01f,+1.17776714e-01f,
+1.31405935e-01f,-8.41064826e-02f,+1.30196124e-01f,+6.96430355e-03f,+4.91646342e-02f,
-4.45245467e-02f,+7.78312087e-02f,+1.59939900e-02f,-3.88717577e-02f,+9.25327465e-03f,
+1.28892109e-01f,+4.46093082e-02f,+8.31132084e-02f,+1.80718243e-01f,+4.91045155e-02f,
+8.82631838e-02f,-2.09635608e-02f,+1.19715124e-01f,+7.71166012e-02f,-7.00738207e-02f,
-3.22383493e-02f,+7.72996470e-02f,+1.30444854e-01f,+7.71495104e-02f,+1.60793304e-01f,
+1.08635366e-01f,+3.77965756e-02f,+7.90783018e-03f,+1.16244338e-01f,+1.72043387e-02f,
+2.31127366e-01f,+1.15754902e-01f,+1.82223186e-01f,+1.60982385e-01f,+1.58390030e-01f,
-4.07530926e-02f,+9.83763784e-02f,+9.86736938e-02f,-3.90834361e-02f,-2.87180841e-02f,
+2.06206664e-01f,-1.14078119e-01f,+2.15230323e-02f,+2.54334304e-02f,-9.96625349e-02f,
+2.06310168e-01f,+8.89418721e-02f,-6.05639368e-02f,+2.55499512e-01f,-4.76586930e-02f,
+1.17076218e-01f,+1.37581289e-01f,-4.83727865e-02f,-4.96898033e-02f,+2.27416188e-01f,
+4.38511968e-02f,-1.94345638e-01f,+9.17371288e-02f,+8.90581012e-02f,+1.26999855e-01f,
-2.02428065e-02f,+3.63668054e-02f,+8.78299847e-02f,+6.68341201e-03f,+2.55060524e-01f,
+1.98292602e-02f,-1.46494061e-01f,+1.02353729e-01f,+1.52575850e-01f,+6.84219003e-02f,
+1.00011148e-01f,+9.30557176e-02f,-8.81585181e-02f,+1.03451513e-01f,+6.10931730e-03f,
+8.34588408e-02f,-6.28953874e-02f,+1.28625304e-01f,-1.15260653e-01f,-2.77557801e-02f,
+1.46802381e-01f,+1.01704411e-01f,+1.08329408e-01f,+1.15167916e-01f,-1.79478079e-02f,
+1.04293220e-01f,-1.69673681e-01f,+9.79651809e-02f,+3.87544371e-02f,-6.25824109e-02f,
+1.73886865e-01f,+7.70504028e-02f,+7.58844167e-02f,-6.15829825e-02f,+2.94255670e-02f,
+2.86196738e-01f,+5.92395179e-02f,+6.82219788e-02f,-7.18944073e-02f,+2.03598831e-02f,
+1.59018174e-01f,+1.92342892e-01f,+5.70900217e-02f,-1.59751009e-02f,+5.13811074e-02f,
-9.49602351e-02f,+3.50931808e-02f,+1.47231519e-01f,+2.04179168e-01f,+3.94633412e-02f,
+1.46259978e-01f,+8.93374756e-02f,-1.19190805e-01f,-4.70124185e-02f,+9.81779322e-02f,
-4.90735248e-02f,+1.01100653e-01f,+6.24593869e-02f,+1.18571952e-01f,+1.64575383e-01f,
+1.52068138e-01f,+9.99134686e-03f,+2.05675393e-01f,+1.08455919e-01f,-5.86893894e-02f,
+2.41858765e-01f,+1.63444430e-01f,+4.23553921e-02f,+3.92957665e-02f,-2.35399455e-02f,
+5.07823564e-02f,+4.10328843e-02f,-8.70331973e-02f,+1.02676682e-01f,+1.90370649e-01f,
+1.06157064e-01f,+9.82765034e-02f,+8.77468213e-02f,+1.43609168e-02f,-3.70878503e-02f,
+5.23055531e-02f,+4.18830998e-02f,+1.60901889e-01f,+1.39500484e-01f,+1.04894690e-01f,
+1.61891595e-01f,+2.97143251e-01f,-3.80880423e-02f,-2.55959872e-02f,-2.11111782e-03f,
+1.17889211e-01f,+2.11322293e-01f,+6.97233081e-02f,+2.54136741e-01f,+6.41256049e-02f,
+2.74420023e-01f,-3.79832052e-02f,+3.28933485e-02f,-5.43412305e-02f,-5.47216684e-02f,
+1.32214669e-02f,-7.24956095e-02f,+5.98494634e-02f,+3.95072997e-02f,-7.51896352e-02f,
+2.16689780e-01f,+1.90424487e-01f,+1.00061104e-01f,-2.76553445e-02f,+2.50962120e-03f,
-3.62198949e-02f,+3.17206502e-01f,-4.83148620e-02f,+7.83580318e-02f,-1.18099712e-03f,
+5.69799505e-02f,-1.35346679e-02f,+7.42371082e-02f,+1.11872762e-01f,+7.48340264e-02f,
+6.75055310e-02f,+2.47988645e-02f,+4.84090373e-02f,+1.58492550e-01f,+2.09727630e-01f,
+6.26570880e-02f,-8.40345956e-03f,+1.00599267e-01f,+1.13097683e-01f,+2.43386924e-02f,
+8.15134048e-02f,-1.79787129e-02f,-6.37476593e-02f,+1.59938633e-01f,-3.44847254e-02f,
+5.13072275e-02f,-4.35864441e-02f,-7.35261366e-02f,+1.13140658e-01f,+1.53599948e-01f,
-9.81581807e-02f,-6.79248758e-03f,+1.48985013e-01f,+1.02184013e-01f,+1.59109801e-01f,
+1.13144219e-01f,+1.63382187e-01f,-1.59025311e-01f,-1.36015266e-01f,-1.08572524e-02f,
-3.23247956e-03f,+4.36600968e-02f,+1.17717877e-01f,-3.67361121e-02f,-3.68321873e-02f,
+1.92415506e-01f,+1.55859515e-01f,-3.23995389e-02f,-3.33312191e-02f,-2.00496420e-01f,
-3.63071002e-02f,-3.49624604e-02f,+1.39403507e-01f,+1.56793758e-01f,+7.91752264e-02f,
+3.16413976e-02f,+1.30127594e-01f,+2.29272634e-01f,+5.13258465e-02f,+3.94150838e-02f,
+5.13092522e-03f,+1.59765370e-02f,+1.72234923e-01f,+7.21157491e-02f,+1.18903793e-01f,
-7.11698905e-02f,-1.38364481e-02f,+2.18886375e-01f,+7.73274228e-02f,+6.98486790e-02f,
-3.76159027e-02f,-2.02576160e-01f,+8.64041895e-02f,+1.86738059e-01f,-3.81586291e-02f,
+3.72467041e-02f,+9.69687775e-02f,+7.72932768e-02f,+1.76793262e-01f,+6.29672855e-02f,
-2.57444177e-02f,+2.14657649e-01f,-1.06819905e-02f,+1.47999063e-01f,+1.02084778e-01f,
+9.03332010e-02f,+1.31388485e-01f,+8.57323036e-02f,+1.22952297e-01f,+3.08376900e-03f,
+1.23993918e-01f,+6.05879501e-02f,-7.48412833e-02f,+2.58021414e-01f,+1.20774604e-01f,
+1.24464378e-01f,+1.17693514e-01f,-8.37021992e-02f,+1.57578499e-03f,-7.89046139e-02f,
+1.17910422e-01f,-6.14220463e-02f,+6.78836778e-02f,+9.14988443e-02f,+1.29598483e-01f,
-6.51620105e-02f,+7.65118152e-02f,-1.09701291e-01f,+7.01703550e-03f,+1.06857822e-03f,
+1.55894652e-01f,+5.75665943e-02f,+8.36795121e-02f,+1.77965209e-01f,+1.15159564e-01f,
-1.89104035e-01f,-4.75278609e-02f,+2.41729379e-01f,+1.60980090e-01f,+1.68788776e-01f,
-8.30726475e-02f,+9.66207758e-02f,+2.01568417e-02f,+1.77597523e-01f,+1.20157577e-01f,
+1.43354550e-01f,-7.79495388e-02f,+4.40393277e-02f,+9.11327377e-02f,+2.70598978e-01f,
+7.40214139e-02f,+1.22952096e-01f,+1.98094070e-01f,-1.71186477e-02f,+4.67584170e-02f,
+2.36778311e-03f,+1.34158626e-01f,+5.91432229e-02f,+1.81076884e-01f,+1.00355439e-01f,
-2.55260058e-02f,+5.25794439e-02f,+4.45656888e-02f,+6.45794943e-02f,-1.82203114e-01f,
+2.03717068e-01f,-1.13744177e-01f,+1.80279166e-01f,+1.10379584e-01f,-7.88318645e-03f,
-3.67929824e-02f,+1.14627488e-01f,-7.33737179e-05f,+1.99421495e-01f,+1.15804031e-01f,
-6.20329492e-02f,-9.88577027e-03f,-1.91418603e-02f,-6.55227378e-02f,-2.08087951e-01f,
+1.08047731e-01f,-8.83630589e-02f,+1.23041458e-01f,+5.68195507e-02f,+2.46217418e-02f,
-2.07647029e-02f,+6.32637590e-02f,+5.00332378e-02f,+1.88559797e-02f,+9.92304981e-02f,
+5.06883003e-02f,-1.64666362e-02f,+4.03478183e-02f,+2.03804940e-01f,+1.01179153e-01f,
+4.11769003e-02f,+2.49952868e-01f,+9.75593105e-02f,+1.27126902e-01f,+3.00798472e-02f,
+1.53726667e-01f,+8.75891820e-02f,+6.11285456e-02f,+1.01419210e-01f,+3.09806257e-01f,
+1.33678362e-01f,+1.76226959e-01f,+7.25674853e-02f,-2.84493342e-03f,-2.96977937e-01f,
-6.11868836e-02f,+3.96801867e-02f,+1.56034023e-01f,-2.89193690e-02f,-3.40110920e-02f,
+6.87402785e-02f,+5.30364178e-02f,+8.43302459e-02f,-1.70136809e-01f,+2.14916050e-01f,
+2.86427233e-03f,+8.47418606e-02f,-9.61337797e-03f,+1.03164678e-02f,+2.85332203e-01f,
+3.17751057e-02f,-5.12268692e-02f,+1.26491740e-01f,+3.49229649e-02f,-3.22792903e-02f,
+1.53957427e-01f,+1.70743152e-01f,+2.04767212e-02f,+8.41390491e-02f,-6.78958297e-02f,
+1.58621576e-02f,-1.22418702e-01f,+1.06782094e-01f,+2.71710247e-01f,-7.01137632e-02f,
-1.68961603e-02f,+8.02967474e-02f,+4.53734137e-02f,+6.15509786e-02f,+1.31265461e-01f,
-2.90836184e-03f,+1.66553289e-01f,+1.33022338e-01f,+2.03991205e-01f,+9.63496938e-02f,
+1.70667946e-01f,+1.18177004e-01f,+2.37667292e-01f,+1.23026483e-01f,+1.40719414e-01f,
+7.60908499e-02f,+1.73175950e-02f,+1.98361382e-01f,+4.19924036e-02f,-8.94549303e-03f,
+2.90142167e-02f,+5.33765852e-02f,-9.04409364e-02f,+1.02579175e-02f,+7.55325854e-02f,
+8.19898248e-02f,-5.11039980e-02f,+1.69851765e-01f,+9.00330767e-02f,+2.48992905e-01f,
-8.21109787e-02f,+2.95539517e-02f,+1.00594591e-02f,-8.21080655e-02f,+2.62511313e-01f,
+1.96545944e-02f,+1.86497513e-02f,-5.80397807e-02f,+1.98567837e-01f,-5.41802533e-02f,
+1.09514587e-01f,+7.25079328e-02f,+1.69026274e-02f,+1.04671873e-01f,+7.49939606e-02f,
+9.69731510e-02f,+9.68460143e-02f,-5.90169616e-02f,+7.06128627e-02f,+1.09563813e-01f,
-3.14834565e-02f,+1.93912871e-02f,+3.74629013e-02f,+1.74552202e-01f,+1.75911486e-01f,
+7.43686557e-02f,+8.94940495e-02f,-9.11671519e-02f,+1.53637126e-01f,+1.52742237e-01f,
+6.44381791e-02f,+6.63053766e-02f,-3.21837924e-02f,+4.38445620e-02f,-4.63624485e-02f,
+1.21569537e-01f,+4.81447205e-02f,+1.80184975e-01f,+1.98411837e-01f,+4.33783308e-02f,
+2.32872054e-01f,+2.33226597e-01f,+2.28216738e-01f,-1.85282961e-01f,+1.18354216e-01f,
+1.17468856e-01f,+1.96970195e-01f,+1.56029426e-02f,+9.54638645e-02f,-1.11079887e-01f,
-4.22437117e-02f,+1.48978308e-02f,-6.69452846e-02f,+8.75199214e-02f,+1.10881245e-02f,
+1.73045084e-01f,+3.74150723e-02f,+1.96968526e-01f,+1.62800342e-01f,-9.80304703e-02f,
+3.80746759e-02f,+4.64581065e-02f,+1.68021813e-01f,-1.03145108e-01f,-3.61804366e-02f,
+2.14427277e-01f,+5.06670736e-02f,+1.04061566e-01f,+1.64540604e-01f,-7.45757595e-02f,
-2.43980169e-01f,-1.30537748e-01f,+4.29491997e-02f,+2.08442390e-01f,+8.68377015e-02f,
-1.89748198e-01f,+1.21051185e-01f,+9.01743919e-02f,-1.02725960e-01f,+1.17271096e-01f,
+6.74919486e-02f,+7.83111230e-02f,+2.88263168e-02f,-6.38803244e-02f,+1.94070920e-01f,
+9.27174557e-03f,+1.14046387e-01f,+4.86405715e-02f,+1.83570683e-02f,+6.28019273e-02f,
+1.50863379e-01f,+1.37144968e-01f,-6.14562221e-02f,+8.86834562e-02f,+1.36989415e-01f,
+1.80787697e-01f,-6.92386329e-02f,+8.57399032e-03f,+1.01148508e-01f,+1.53858796e-01f,
-1.60383716e-01f,+2.95136478e-02f,+1.65134687e-02f,+1.09388642e-01f,+6.57110065e-02f,
+1.71639025e-01f,+1.99364033e-03f,+4.30780239e-02f,+4.00516205e-02f,+9.10341889e-02f,
+1.28021464e-01f,+2.95579247e-02f,+2.13568851e-01f,-2.02234760e-02f,+1.18744515e-01f,
+9.40356702e-02f,+5.11892885e-03f,-8.77442285e-02f,+5.62396161e-02f,+8.15147310e-02f,
+3.74532968e-01f,+3.16023715e-02f,+3.74057367e-02f,+1.78006411e-01f,+1.23696893e-01f,
+6.84864298e-02f,+7.67295212e-02f,+1.03513695e-01f,+1.30690664e-01f,+1.21547252e-01f,
-8.87182206e-02f,-2.05471329e-02f,+1.06022976e-01f,+1.35683164e-01f,+1.22281522e-01f,
+1.29727662e-01f,+1.56987086e-01f,+5.73611148e-02f,+2.36300118e-02f,+6.73008570e-03f,
+1.86753824e-01f,-2.82169841e-02f,+7.28434920e-02f,+2.09711149e-01f,+1.37095451e-01f,
+5.26604950e-02f,-3.70428823e-02f,-1.75088514e-02f,+1.87410280e-01f,+9.85102076e-03f,
+6.31919503e-02f,+2.06972390e-01f,+8.51459578e-02f,-3.27651226e-03f,+2.22924519e-02f,
+2.36761360e-03f,-1.06893517e-01f,+7.94889256e-02f,-5.54615147e-02f,+8.61898065e-03f,
+7.88292885e-02f,+7.59916604e-02f,+1.17185004e-01f,+1.53214131e-02f,+1.32603213e-01f,
+1.54092506e-01f,+2.78143913e-01f,-2.58894116e-02f,+7.51167238e-02f,+7.88289532e-02f,
+7.23042432e-03f,-1.28087312e-01f,+8.32189769e-02f,+1.49828270e-01f,+3.25351991e-02f,
+1.38870582e-01f,+4.38239425e-02f,+1.55482486e-01f,-3.27514447e-02f,+8.14439058e-02f,
+4.16212887e-01f,+1.84413254e-01f,+9.45236981e-02f,+2.40533501e-01f,-4.67294082e-02f,
+1.53258994e-01f,+3.38175744e-02f,+8.18845406e-02f,+2.91510690e-02f,+1.01477787e-01f,
+5.58361523e-02f,-4.33243476e-02f,+2.41999305e-03f,+1.36772335e-01f,-1.08612463e-01f,
-9.70019698e-02f,+2.10557297e-01f,+9.11002085e-02f,+5.55110089e-02f,-2.87814211e-04f,
+2.02990815e-01f,-2.10034773e-02f,-4.26481292e-02f,-1.39959276e-01f,+1.74365863e-01f,
-3.75147134e-01f,-2.30230447e-02f,-4.87266295e-02f,-9.55934078e-02f,+1.62902609e-01f,
+1.04692474e-01f,+1.44277349e-01f,+1.26374707e-01f,+7.17888400e-02f,+1.12801298e-01f,
+2.10800469e-01f,+8.91359448e-02f,+1.24958329e-01f,-7.35748652e-03f,+6.90618623e-03f,
+6.86390176e-02f,-6.84695086e-04f,+2.67995708e-02f,-2.30352998e-01f,-7.74299726e-02f,
+1.80010125e-01f,+1.07208511e-03f,-5.72315827e-02f,-7.17877150e-02f,+7.75778815e-02f,
-5.58074974e-02f,+7.61909336e-02f,+9.79450792e-02f,+2.23668456e-01f,+5.01600802e-02f,
+2.03454226e-01f,+1.87574886e-02f,+1.54242024e-01f,+9.88228843e-02f,-5.13505749e-03f,
+1.22088030e-01f,-3.98796014e-02f,+4.86899763e-02f,+1.51943222e-01f,+2.31256858e-01f,
+4.52556498e-02f,+1.44574746e-01f,+2.05286041e-01f,+9.26930830e-02f,+1.19648941e-01f,
+1.20191490e-02f,+1.20194420e-01f,+1.66125428e-02f,+1.84129477e-01f,+1.00958422e-01f,
-1.06804043e-01f,+1.19028747e-01f,+8.19301456e-02f,-4.59987298e-02f,+8.27952102e-02f,
-8.26229379e-02f,+1.00432009e-01f,+3.75169367e-02f,+6.71771988e-02f,+5.77029735e-02f,
+1.52706206e-01f,+2.07780436e-01f,+1.09072015e-01f,+6.88390732e-02f,+1.26552768e-02f,
+4.97662183e-03f,+1.02068163e-01f,+1.68683499e-01f,-2.77631789e-01f,+1.52895018e-01f,
+1.03348702e-01f,-6.38123527e-02f,+2.00676531e-01f,-4.36180970e-03f,-4.37774807e-02f,
+1.63513273e-01f,+2.05739886e-01f,+2.48263136e-01f,+1.65553316e-01f,+1.53473854e-01f,
+7.16236606e-02f,-9.77648944e-02f,-1.12826124e-01f,+1.28331825e-01f,+1.18467815e-01f,
-3.39798653e-03f,+5.28447144e-03f,+9.74342749e-02f,+1.24190345e-01f,+1.52255133e-01f,
+6.04678132e-02f,+7.68175498e-02f,+1.29879609e-01f,+1.49561718e-01f,+9.32290033e-02f,
+1.97020903e-01f,-1.78193282e-02f,+4.49618883e-02f,-4.67766114e-02f,+1.95180371e-01f,
+1.06306508e-01f,+1.65502414e-01f,-4.39064428e-02f,+2.54613131e-01f,+1.44842952e-01f,
-7.92809669e-03f,+7.22478703e-02f,+1.87719241e-01f,+6.19574934e-02f,+1.00466609e-01f,
+1.61803186e-01f,+2.05404952e-01f,+1.64231658e-01f,+2.96437796e-02f,+4.94274274e-02f,
+2.70645861e-02f,+3.67729645e-03f,+2.05297247e-01f,-2.89699715e-02f,+1.62959516e-01f,
+1.83506235e-01f,+1.49149865e-01f,+1.02274477e-01f,-1.49279967e-01f,+5.03247306e-02f,
+4.72745486e-02f,+3.91383395e-02f,+1.17408291e-01f,+9.69361812e-02f,+1.35019124e-01f,
+1.02103353e-01f,-2.61290073e-01f,+1.23335518e-01f,-3.18820067e-02f,-2.04691797e-01f,
+1.71067297e-01f,+3.08457851e-01f,-5.44017460e-03f,-4.42449376e-02f,+6.46976605e-02f,
+7.81468377e-02f,-3.15125853e-01f,-3.18571292e-02f,-1.19847162e-02f,+8.54834914e-02f,
-5.61453849e-02f,+1.30927503e-01f,+1.21924371e-01f,-5.76955415e-02f,-1.75090358e-01f,
+1.08898491e-01f,+1.75014183e-01f,+9.13414955e-02f,+1.45672753e-01f,+2.32736208e-02f,
+1.63282216e-01f,-7.27243945e-02f,+1.75114363e-01f,+3.17542404e-02f,-2.52811372e-01f,
+4.18692455e-02f,+1.31545216e-01f,+2.90911347e-02f,+5.06872348e-02f,+2.89013423e-02f,
+2.07500815e-01f,+1.62428692e-01f,+1.72922090e-02f,+5.64567335e-02f,+1.08160339e-01f,
-1.59163773e-01f,+1.63819730e-01f,+1.26734868e-01f,+5.16373217e-02f,+2.47171700e-01f,
+6.96372092e-02f,+1.90021232e-01f,+6.67891353e-02f,+3.70249636e-02f,+8.72752629e-03f,
+1.07740546e-02f,+9.97827053e-02f,-3.42039391e-03f,-3.90662812e-02f,-4.00847830e-02f,
-1.94241516e-02f,+1.25119343e-01f,+1.28849790e-01f,+1.63455501e-01f,+3.04903090e-02f,
+4.32535559e-02f,+4.95488457e-02f,-7.23603442e-02f,+1.30276337e-01f,+1.16721094e-01f,
+2.08077710e-02f,+9.22970697e-02f,+2.67364681e-02f,+8.76087919e-02f,+1.64439559e-01f,
+4.12419215e-02f,+8.20021108e-02f,-1.35355592e-01f,+2.26798728e-02f,+1.49385706e-01f,
+7.12528080e-02f,-2.04594448e-01f,+2.53789634e-01f,+1.17607668e-01f,+1.29719555e-01f,
+5.26707061e-02f,+8.81358758e-02f,-1.30694345e-01f,+1.27085432e-01f,-1.49957210e-01f,
+8.34278166e-02f,+2.39317983e-01f,+9.23476443e-02f,-5.09847477e-02f,+2.11175025e-01f,
+1.13060668e-01f,+1.97164983e-01f,-1.01977764e-02f,+1.18812593e-02f,+1.13419287e-01f,
+1.33210674e-01f,+5.78488559e-02f,+1.07404664e-01f,+7.52712339e-02f,+2.67666340e-01f,
+2.54355609e-01f,-3.84220444e-02f,-3.65551449e-02f,+7.06976326e-03f,-2.55983765e-03f,
+1.01906382e-01f,+2.22572200e-02f,-2.79755611e-02f,+4.87553477e-02f,+1.57367155e-01f,
+8.63998234e-02f,+7.02299103e-02f,+1.87589005e-01f,+1.82383239e-01f,-2.52587914e-01f,
+1.91751663e-02f,-3.69183086e-02f,+2.11810529e-01f,+1.45753264e-01f,-1.62697199e-03f,
+1.14076585e-01f,+1.50817493e-02f,-4.12703305e-03f,+5.09342179e-02f,+2.18301505e-01f,
+1.52957872e-01f,+1.07430875e-01f,+1.42321959e-01f,+1.34728581e-01f,+1.27209693e-01f,
+1.66381244e-02f,+1.62949890e-01f,+1.56089291e-01f,+2.00289041e-01f,+5.63108064e-02f,
+2.03247052e-02f,-2.26667915e-02f,+5.77408373e-02f,+7.80717656e-02f,+4.70719002e-02f,
+1.33858219e-01f,+1.22699998e-01f,-5.32042584e-04f,+1.27196861e-02f,+1.37922093e-01f,
+1.56324618e-02f,-3.28327492e-02f,+7.95731843e-02f,+1.04096860e-01f,+1.09190412e-01f,
+3.99424471e-02f,-6.95914254e-02f,+1.72482327e-01f,+1.43263891e-01f,+7.16476738e-02f,
+9.10540223e-02f,-6.75020739e-02f,+6.84987754e-02f,+7.31804147e-02f,+4.77226265e-03f,
-6.03982694e-02f,+1.28652707e-01f,-1.16005121e-02f,-5.88766485e-02f,+3.79452817e-02f,
+8.73864815e-02f,+3.10311504e-02f,+1.02581307e-01f,+1.83877185e-01f,+2.60888457e-01f,
+1.07359834e-01f,+1.43118128e-01f,+1.65234521e-01f,+1.69443488e-01f,+2.94833541e-01f,
+1.22267725e-02f,+1.63533732e-01f,+7.11426809e-02f,+9.95001048e-02f,-9.00774375e-02f,
+1.46901026e-01f,-1.41221806e-02f,+1.21019281e-01f,+1.47274211e-01f,-3.06276660e-02f,
+1.85033470e-01f,+1.20786078e-01f,+1.62985981e-01f,+2.12930087e-02f,+2.33202219e-01f,
+3.80482860e-02f,-5.08632623e-02f,-3.58818099e-03f,+4.34536897e-02f,+6.68908060e-02f,
+1.48995891e-01f,-5.11398055e-02f,+3.65824662e-02f,+1.24853246e-01f,+9.82459188e-02f,
-7.74814636e-02f,+1.71092693e-02f,+5.90453707e-02f,+1.03691071e-01f,+1.67991787e-01f,
+1.68493111e-02f,+6.82020709e-02f,+2.64285654e-01f,+1.95505366e-01f,+2.51229871e-02f,
+7.19103143e-02f,+9.86239836e-02f,+6.93534836e-02f,-6.29061684e-02f,+2.36007884e-01f,
+1.03730895e-01f,+1.56674922e-01f,+2.52399206e-01f,+2.94397287e-02f,-5.03821336e-02f,
+6.11331351e-02f,+8.14565718e-02f,+1.82036534e-02f,+2.04291582e-01f,+1.70338616e-01f,
+4.12230976e-02f,+1.02999225e-01f,+6.29668981e-02f,+7.18057528e-02f,+5.44271059e-02f,
+1.29048184e-01f,+1.87371895e-01f,+1.22146145e-01f,-1.70928743e-02f,+6.59182435e-04f,
+1.92261726e-01f,+1.28686726e-01f,+1.43064097e-01f,+3.17875445e-01f,+1.37183100e-01f,
+1.61927149e-01f,+3.66658233e-02f,+6.10618815e-02f,+3.63295339e-02f,+1.66496634e-02f,
+6.03597388e-02f,+1.74741492e-01f,+1.80089578e-01f,-3.35284472e-02f,+8.15807879e-02f,
+5.24325967e-02f,-1.18624248e-01f,+1.62050262e-01f,-3.91400382e-02f,+3.08416244e-02f,
+1.62282705e-01f,-9.89011973e-02f,-2.81198174e-02f,+1.78593114e-01f,+8.01974908e-02f,
-3.89096774e-02f,+1.06852889e-01f,+3.11756097e-02f,+1.63425833e-01f,+1.62855133e-01f,
+2.00167000e-02f,+4.95096408e-02f,+7.49003589e-02f,-4.73179435e-03f,+2.62036115e-01f,
+6.10507429e-02f,+6.72244355e-02f,+7.37857670e-02f,+7.84970820e-02f,+2.24714484e-02f,
+1.43250655e-02f,+7.09651634e-02f,+1.91097498e-01f,+6.01003133e-02f,+1.06445491e-01f,
+1.95076950e-02f,+1.12883650e-01f,+1.09395541e-01f,+1.24237828e-01f,+1.14725120e-01f,
-1.01423889e-01f,+7.76620880e-02f,+2.68503994e-01f,+5.84900975e-02f,+2.32538655e-01f,
+1.45894647e-01f,-9.19337049e-02f,+1.67391822e-01f,+1.05053738e-01f,+1.47069052e-01f,
+9.24403295e-02f,+1.38414845e-01f,-1.88518334e-02f,+1.70908779e-01f,+7.52321631e-02f,
+1.46257669e-01f,+6.57009780e-02f,-1.35347128e-01f,-6.03934154e-02f,+2.05846101e-01f,
-1.24672063e-01f,+1.86744735e-01f,-2.51564570e-02f,+1.29796281e-01f,-8.58706534e-02f,
+5.10615632e-02f,-5.16566671e-02f,+1.36678562e-01f,+1.84961140e-01f,+1.82269156e-01f,
+1.37180649e-03f,+2.50459254e-01f,-6.97926506e-02f,-2.24551171e-01f,-2.76575327e-01f,
+4.42905426e-02f,+1.99980721e-01f,+2.98191011e-02f,-6.56630322e-02f,-1.18202128e-01f,
-2.77528614e-02f,+9.63342041e-02f,-8.51705447e-02f,+3.77779193e-02f,+6.90600127e-02f,
+1.43881842e-01f,-9.37060565e-02f,-5.95685951e-02f,+1.88750830e-02f,-4.19188142e-02f,
+4.08551283e-02f,+1.45759195e-01f,-1.52679496e-02f,+3.02102953e-01f,+6.95244223e-02f,
-9.86964703e-02f,+6.04601860e-01f,+7.40324035e-02f,+1.45322040e-01f,-1.01661406e-01f,
-3.34076434e-02f,+1.05102688e-01f,+5.05113825e-02f,-2.82421373e-02f,+8.45110938e-02f,
-5.42625561e-02f,+5.68942092e-02f,+6.47353604e-02f,+1.19819172e-01f,+3.70167159e-02f,
+2.79482275e-01f,+5.76225407e-02f,+7.05084875e-02f,+1.18454456e-01f,+2.96023190e-01f,
+9.79238674e-02f,+1.13497190e-01f,-4.23820205e-02f,+1.44254258e-02f,+2.20348552e-01f,
+4.70943865e-04f,+1.97749510e-01f,-1.20502561e-02f,+1.74233615e-01f,+5.80423623e-02f,
+1.91556841e-01f,+1.00891545e-01f,+1.30520076e-01f,+6.10453337e-02f,+6.24166578e-02f,
+2.26143133e-02f,+1.27673253e-01f,+2.96699181e-02f,+6.52585924e-02f,+1.16331048e-01f,
+1.08070942e-02f,+2.95209009e-02f,-3.22593227e-02f,+1.35187268e-01f,+5.46731539e-02f,
-9.67600290e-03f,+5.24288975e-02f,+1.03638917e-01f,-1.13933440e-02f,+1.99881360e-01f,
+9.98092294e-02f,+5.70060387e-02f,+1.14749655e-01f,-5.02058212e-03f,+7.71998838e-02f,
+7.05858469e-02f,+1.01760447e-01f,+3.86520177e-02f,+7.40987062e-02f,+2.71662455e-02f,
+2.43827850e-01f,+1.07555687e-01f,+1.79476291e-02f,+2.20353846e-02f,+1.34991199e-01f,
+5.32625662e-03f,-9.61899161e-02f,+7.22677857e-02f,+8.10467899e-02f,+5.04089631e-02f,
+1.29783735e-01f,+1.07477054e-01f,+1.86634853e-01f,+2.83244457e-02f,+6.75676912e-02f,
+5.67530096e-03f,+1.21942893e-01f,+5.16115166e-02f,-4.77585616e-03f,+6.47290125e-02f,
+1.10669971e-01f,-4.20237146e-02f,+1.37096331e-01f,-1.68600846e-02f,-1.43195644e-01f,
+1.28429413e-01f,-1.25018582e-01f,+9.65767950e-02f,-3.35235037e-02f,+8.14714506e-02f,
+2.38518026e-02f,+8.11343193e-02f,+3.17072451e-01f,+1.04168773e-01f,+1.60491347e-01f,
+2.40060166e-02f,+1.27038524e-01f,-1.35898702e-02f,+5.36247231e-02f,-6.30037487e-02f,
+1.58878416e-02f,-1.05783697e-02f,-8.15312788e-02f,+1.79809913e-01f,-3.94245870e-02f,
-6.31097704e-02f,+1.49179071e-01f,+7.99016003e-03f,+1.37478769e-01f,+1.05812579e-01f,
+2.11571786e-03f,+1.35663688e-01f,+2.03893259e-01f,+1.47668093e-01f,+1.20739922e-01f,
+1.59966171e-01f,+6.45883530e-02f,-2.56236028e-02f,+7.99223557e-02f,+1.39250264e-01f,
+1.79786697e-01f,+2.50109404e-01f,-4.00419161e-03f,+2.16808822e-02f,+1.03046857e-01f,
+2.40135357e-01f,+1.22321270e-01f,+1.82638213e-01f,+6.78021312e-02f,+1.19035982e-01f,
+1.80572584e-01f,+8.08752179e-02f,+6.29884899e-02f,+1.38528913e-01f,+1.10349059e-01f,
+1.44343346e-01f,-1.45518258e-01f,+1.41865417e-01f,+7.02925250e-02f,-1.55272754e-03f,
+1.93647504e-01f,+1.59871262e-02f,+7.85958692e-02f,+1.09695427e-01f,+1.91263229e-01f,
+1.53312221e-01f,+2.48819701e-02f,-2.65199635e-02f,+1.43814415e-01f,+3.48861255e-02f,
+1.35612339e-01f,+6.41733930e-02f,-3.10314167e-02f,+2.71807909e-01f,+7.82712400e-02f,
+4.11834754e-02f,+1.11583650e-01f,+6.69665411e-02f,+1.01914458e-01f,-6.74739107e-02f,
+5.51994592e-02f,+1.17162816e-01f,+1.22184463e-01f,+1.05544798e-01f,+1.05020553e-01f,
-1.50619848e-02f,-8.46879557e-02f,-1.39484137e-01f,+7.25035146e-02f,+8.06733668e-02f,
-1.21962931e-03f,+6.98904991e-02f,+5.33624291e-01f,+1.51686996e-01f,+8.94060954e-02f,
+2.64672399e-01f,+6.35475889e-02f,+5.43597974e-02f,+2.75207739e-02f,+1.09271452e-01f,
+1.43299863e-01f,+2.22988874e-01f,-1.65489633e-02f,+9.16511044e-02f,+1.48408547e-01f,
+2.49862462e-01f,+8.31193849e-02f,+6.88076466e-02f,+1.55307680e-01f,-3.22200805e-02f,
+3.88135985e-02f,+1.71802014e-01f,+8.59991461e-02f,+1.85053330e-03f,+1.40040368e-01f,
+1.52405828e-01f,+5.18523753e-02f,+1.37544021e-01f,+1.96734279e-01f,+5.23464009e-02f,
+3.81819271e-02f,-1.52250379e-02f,-8.30738153e-03f,-3.02763637e-02f,+1.93278983e-01f,
-2.15572771e-02f,+2.13542566e-01f,+1.14454985e-01f,+3.67747918e-02f,+1.40900895e-01f,
+9.04341936e-02f,-1.42221555e-01f,+2.07084432e-01f,+1.42511055e-01f,+9.05630216e-02f,
+1.12327412e-02f,+8.50205272e-02f,+2.27807477e-01f,+2.23014504e-03f,+1.34931922e-01f,
+2.70425365e-03f,+9.76340398e-02f,-2.84507006e-01f,-2.24909019e-02f,+1.04626417e-01f,
+1.99080512e-01f,+7.68591091e-02f,+1.06951393e-01f,+3.13456580e-02f,+8.84795263e-02f,
+3.93380746e-02f,-2.14828998e-02f,+8.05092528e-02f,+1.45535711e-02f,+3.66452873e-01f,
+1.75196022e-01f,+1.25812232e-01f,-2.97560729e-02f,+9.35626552e-02f,+1.27480552e-01f,
+1.12849943e-01f,+2.19797909e-01f,-5.85181266e-03f,+1.79572683e-02f,+1.09818429e-01f,
+1.21279448e-01f,+1.29388660e-01f,-5.69333248e-02f,-9.64433029e-02f,+8.42890814e-02f,
+7.37067461e-02f,+1.36710377e-02f,+1.29604921e-01f,-1.44109711e-01f,+5.91697656e-02f,
+2.03532010e-01f,+6.51693568e-02f,+1.12063661e-01f,+1.06759228e-01f,-1.32260164e-02f,
-3.35117318e-02f,+1.77759349e-01f,+1.08111605e-01f,+5.72526604e-02f,-1.00260796e-02f,
+9.50982347e-02f,+1.13387510e-01f,+7.05434475e-03f,+7.57356584e-02f,+2.89087538e-02f,
+6.68347552e-02f,-3.23326625e-02f,+2.97164707e-03f,+3.07186823e-02f,+2.81819981e-02f,
+1.70261472e-01f,+2.97362823e-02f,+1.25981092e-01f,+1.31709918e-01f,+6.32108897e-02f,
+9.11387503e-02f,+2.99816281e-01f,-6.36135042e-01f,+4.43339199e-02f,+3.66260707e-02f,
+1.40469715e-01f,+9.83482748e-02f,+5.85631281e-02f,+1.66724920e-01f,+8.87962058e-02f,
-1.14264321e-02f,+2.06741691e-01f,+2.32261512e-02f,+2.47480363e-01f,+1.17786579e-01f,
+2.40724072e-01f,+2.11587295e-01f,-2.25495156e-02f,-2.62637087e-03f,+1.38090149e-01f,
+4.83361855e-02f,-7.70134991e-03f,+3.12711275e-03f,-1.25411227e-01f,-5.32510392e-02f,
+2.58973911e-02f,-4.12488058e-02f,+5.70012741e-02f,+9.40450057e-02f,+8.21876004e-02f,
+1.57938033e-01f,-7.14594647e-02f,+1.48657992e-01f,+1.63325757e-01f,+2.28475779e-01f,
-2.44964622e-02f,+8.40344727e-02f,+9.05425753e-04f,+2.10308686e-01f,+1.35267407e-01f,
+1.68754935e-01f,+1.19486101e-01f,+1.44575164e-01f,+9.25415903e-02f,+1.00317575e-01f,
-6.15930617e-01f,+1.81187421e-01f,-3.26390453e-02f,+2.26916298e-01f,+8.20533410e-02f,
+7.65655842e-03f,+9.72554982e-02f,+6.77912831e-02f,+1.70656592e-01f,+1.49095312e-01f,
+3.54008555e-01f,-6.16661832e-02f,+8.70524198e-02f,+1.02179199e-01f,+1.33644938e-01f,
+5.31697832e-02f,+2.25122482e-01f,-1.05919107e-03f,+1.93885237e-01f,+1.30238712e-01f,
-2.18163412e-02f,+1.22536965e-01f,+5.71050197e-02f,+1.56574845e-01f,-3.60598741e-03f,
+5.53832538e-02f,+9.32231024e-02f,+2.23741487e-01f,+8.93210061e-03f,+1.66567057e-01f,
+4.05899972e-01f,+2.72186518e-01f,+5.04541909e-03f,+4.92276669e-01f,-6.21606596e-03f,
+2.77293742e-01f,-5.69505505e-02f,-2.25755610e-02f,+2.35232964e-01f,+5.95436953e-02f,
+4.47177999e-02f,+1.59286439e-01f,+1.31287038e-01f,-3.70668061e-02f,+1.61540478e-01f,
-6.86601922e-02f,+2.43607283e-01f,-8.51516053e-02f,+1.64713249e-01f,+1.75945669e-01f,
+7.80377761e-02f,-1.35009989e-01f,-7.14771822e-02f,+2.45942716e-02f,+5.38232960e-02f,
-2.59139657e-01f,-2.21462354e-01f,-4.22201008e-02f,-3.97507474e-02f,+1.41229793e-01f,
+1.18462250e-01f,-8.68289322e-02f,+1.33266509e-01f,+5.52119315e-02f,-1.07298322e-01f,
-1.30189463e-01f,+2.70613073e-03f,+9.15574059e-02f,+1.38625592e-01f,+1.32309735e-01f,
+5.32793030e-02f,+2.42196351e-01f,+6.87027723e-02f,+2.34434068e-01f,+3.49834487e-02f,
+6.94983453e-02f,+3.36779803e-02f,-1.72412455e-01f,-1.82918198e-02f,+1.23659618e-01f,
-1.89331640e-02f,-6.63336143e-02f,+2.68281430e-01f,+1.56646237e-01f,-1.50127351e-01f,
+9.82650463e-03f,+9.78956744e-02f,+1.10885061e-01f,+1.37987316e-01f,+7.98588395e-02f,
+3.06286007e-01f,+3.44214916e-01f,+1.57369629e-01f,+4.26960960e-02f,+3.76666747e-02f,
+3.75745207e-01f,+3.90019529e-02f,-2.48079792e-01f,-7.44606778e-02f,-1.29790559e-01f,
+6.07870668e-02f,+3.34491767e-02f,+1.63859457e-01f,+4.32742536e-02f,+1.13352593e-02f,
+2.27401674e-01f,+9.32107866e-02f,+1.16374217e-01f,+3.67439955e-01f,-4.84564677e-02f,
+1.54944390e-01f,+1.39860451e-01f,+2.17630565e-01f,+2.14046717e-01f,+1.68769345e-01f,
+4.59672421e-01f,+9.02814195e-02f,+3.89683619e-02f,+2.31872156e-01f,+1.83071807e-01f,
-8.07728097e-02f,-4.34864275e-02f,+2.81793535e-01f,+2.16631591e-01f,-1.74541160e-01f,
+1.49346422e-02f,-1.16863124e-01f,+1.62812620e-01f,-8.55163392e-03f,+2.25657284e-01f,
-3.35253254e-02f,+7.00726286e-02f,+1.58264101e-01f,+1.08655185e-01f,+1.98225334e-01f,
-2.52323411e-02f,+1.94428101e-01f,+1.02569804e-01f,+3.43168415e-02f,+1.19416215e-01f,
+1.79181492e-03f,-2.78779030e-01f,+5.87018020e-02f,+1.06561825e-01f,+3.18200022e-01f,
+1.14281075e-02f,-2.93700788e-02f,+5.20978093e-01f,+3.44894290e-01f,+3.10202204e-02f,
+9.64003336e-03f,+4.54815850e-02f,+3.87677550e-01f,+2.24867418e-01f,+1.48164138e-01f,
+1.69877768e-01f,+4.93451953e-02f,+4.58513558e-01f,+6.84065893e-02f,+9.77303088e-02f,
+1.68241218e-01f,+1.78856567e-01f,+2.30906643e-02f,+1.64510012e-01f,-8.20901990e-02f,
+1.30262047e-01f,+3.08612790e-02f,+1.95277572e-01f,+1.12308860e-01f,+2.75597960e-01f,
+9.70980898e-02f,+4.42162044e-02f,+4.74068195e-01f,+6.71406686e-02f,-6.52214959e-02f,
+8.24477896e-02f,+1.34364851e-02f,-3.96807380e-02f,+3.07437796e-02f,+4.91771623e-02f,
+3.63607705e-03f,+5.56214154e-02f,+3.54943752e-01f,+4.45973612e-02f,+2.77008772e-01f,
-1.18592933e-01f,+4.15255241e-02f,+7.22626448e-02f,+9.04188305e-02f,+6.92031682e-02f,
+9.91153866e-02f,+4.15367126e-01f,+1.31414101e-01f,+3.02054048e-01f,+2.16989279e-01f,
+1.61572129e-01f,+2.20795766e-01f,+8.54827315e-02f,+1.14763573e-01f,+2.65567005e-01f,
-4.77818288e-02f,+1.00229662e-02f,+1.82045847e-01f,+2.65500575e-01f,-1.93735957e-01f,
+1.23229496e-01f,+1.79189578e-01f,+1.49082774e-02f,+1.02664918e-01f,+1.96122855e-01f,
+1.82364970e-01f,+1.19860403e-01f,+2.00191513e-01f,+1.32507337e-02f,+1.49567768e-01f,
+8.60630721e-02f,-1.38810232e-01f,+4.65463065e-02f,+1.15846626e-01f,+3.07125330e-01f,
+9.16987807e-02f,+2.24703755e-02f,-1.23652434e-02f,+1.88258633e-01f,+1.71487302e-01f,
+2.09354945e-02f,+2.08698422e-01f,+8.08858052e-02f,+8.15417320e-02f,+7.42204934e-02f,
-8.87000263e-02f,+1.07520178e-01f,+2.96719909e-01f,+1.70542002e-01f,-1.43115416e-01f,
+1.67857796e-01f,-4.51098979e-02f,-3.86849493e-02f,+2.69685835e-01f,+1.18323460e-01f,
-8.20820332e-02f,-4.89138125e-04f,+6.19287156e-02f,+5.39148264e-02f,+9.99067277e-02f,
+1.72084093e-01f,-1.89975426e-01f,-5.00708111e-02f,+9.75145623e-02f,-7.90769905e-02f,
-4.29428704e-02f,+7.48991072e-02f,+7.49991387e-02f,+2.34003007e-01f,+3.83746564e-01f,
+7.14963526e-02f,+1.05988204e-01f,+2.53839821e-01f,+7.79658034e-02f,+8.53115469e-02f,
+5.26484609e-01f,+1.61715493e-01f,+4.44508456e-02f,+5.65018803e-02f,+4.18707788e-01f,
+2.03225881e-01f,+1.39986202e-01f,+2.02149510e-01f,+1.78866342e-01f,+1.26169324e-01f,
+6.14671363e-03f,-6.03654310e-02f,+6.54773265e-02f,+1.65805176e-01f,+1.29935324e-01f,
+1.07531421e-01f,+1.21411659e-01f,+1.53073564e-01f,-8.88416485e-04f,+1.12856835e-01f,
+2.22749397e-01f,-6.08305074e-02f,+3.12413368e-03f,+6.40648678e-02f,+3.08451941e-03f,
+1.41279429e-01f,-4.05400395e-02f,+6.07838966e-02f,+1.06308691e-01f,+4.20415588e-02f,
+6.77093863e-02f,+4.98495363e-02f,+1.83274895e-01f,+5.95463254e-02f,+6.07938707e-01f,
+5.97120188e-02f,+1.36697382e-01f,+8.35957974e-02f,-3.81259527e-03f,+6.66896030e-02f,
+1.71029740e-06f,+4.72587824e-01f,-1.84687644e-01f,+3.25607717e-01f,+1.25942547e-02f,
+2.08719522e-01f,+4.15683351e-02f,-1.16397776e-01f,-4.62019350e-03f,+1.69530913e-01f,
+7.90286809e-02f,+1.57822803e-01f,+8.74788985e-02f,+4.42105159e-02f,-6.50541261e-02f,
+7.22163990e-02f,+4.18442907e-03f,+5.61246611e-02f,+2.31348038e-01f,+1.53672397e-01f,
+8.44733343e-02f,+2.04654053e-01f,-2.28415281e-01f,+1.72299758e-01f,-7.26817325e-02f,
+2.00536609e-01f,-2.49060079e-01f,+6.40025735e-02f,+8.70502219e-02f,+2.60244031e-02f,
+2.31875062e-01f,+1.53560385e-01f,+1.60916045e-01f,-1.17422126e-01f,+3.92335743e-01f,
-3.42361666e-02f,+2.11109936e-01f,+5.66458516e-02f,+4.32358116e-01f,+1.06320679e-01f,
+2.70651393e-02f,+1.25119507e-01f,+5.85871160e-01f,+9.70640630e-02f,-4.65940356e-01f,
+1.25452518e-01f,+9.15835947e-02f,+6.45481199e-02f,-1.75705805e-01f,+1.17286462e-02f,
-3.37059563e-03f,-3.15640420e-02f,+1.43469691e-01f,+1.87111814e-02f,-2.26997927e-01f,
+8.92785862e-02f,+1.10681921e-01f,+2.19240829e-01f,-2.69636437e-02f,-2.79882699e-01f,
+9.65858027e-02f,+6.76304847e-02f,+1.14827409e-01f,-3.71819176e-02f,-1.61714107e-02f,
+1.81124080e-02f,-2.43905783e-02f,+2.27730334e-01f,+6.43968806e-02f,+1.52513171e-02f,
-6.61802217e-02f,+1.61848024e-01f,-2.69169919e-02f,+2.40399659e-01f,+3.23447585e-02f,
-7.27033168e-02f,-9.86526348e-03f,+1.58780038e-01f,+1.23606935e-01f,+1.45292193e-01f,
-9.28734019e-02f,-3.02426338e-01f,+2.53528327e-01f,+1.14586703e-01f,-1.25016898e-01f,
-1.22987524e-01f,-9.65259224e-02f,+2.10302263e-01f,+1.84929430e-01f,+2.56306589e-01f,
+1.73992887e-01f,+1.19976021e-01f,-1.05143242e-01f,-7.94314370e-02f,+1.36762008e-01f,
+4.48845886e-02f,-6.26615658e-02f,-7.62988627e-02f,+9.01142657e-02f,+7.82073736e-02f,
+2.09131956e-01f,-1.45157471e-01f,-3.55478041e-02f,-1.23296808e-02f,+9.24960747e-02f,
+1.06369391e-01f,-5.65766282e-02f,-7.40210488e-02f,+1.38387140e-02f,+3.03063720e-01f,
+6.36647195e-02f,+1.19926497e-01f,+2.63597034e-02f,+6.60460070e-02f,+3.86388898e-02f,
+1.28670841e-01f,+7.26501197e-02f,+3.23241055e-02f,-1.39344456e-02f,-1.37723744e-01f,
+4.26013917e-02f,+2.07469299e-01f,+1.61693767e-02f,+1.01356946e-01f,+1.64723117e-02f,
-9.36855823e-02f,-1.53330699e-01f,+2.75937378e-01f,+2.46034741e-01f,+6.89594597e-02f,
+4.75727990e-02f,-1.54967993e-01f,-1.08846009e-01f,+1.73452556e-01f,-6.36075214e-02f,
-8.70555080e-03f,-3.04177642e-01f,+2.96394706e-01f,-1.84944481e-01f,-2.32575625e-01f,
-1.42783802e-02f,+5.45040192e-03f,+7.28490949e-02f,-6.02076808e-03f,+1.53257728e-01f,
+4.72898409e-02f,+4.88730893e-02f,-1.53426424e-01f,+1.61630049e-01f,-7.06017092e-02f,
-1.30727202e-01f,-1.49875715e-01f,+3.40365201e-01f,+6.28793240e-02f,+1.33631960e-01f,
-6.28812686e-02f,+6.19098023e-02f,+5.19337244e-02f,+3.86142582e-02f,-3.08405664e-02f,
-2.09358811e-01f,+1.49404213e-01f,-1.15980217e-02f,+1.43903628e-01f,+1.78317338e-01f,
+7.31447786e-02f,-2.52460670e-02f,+1.50936767e-02f,-1.07385725e-01f,+1.64480865e-01f,
-1.45544410e-02f,-3.04708332e-02f,-2.25713924e-01f,-8.75560045e-02f,-2.19425634e-02f,
-3.81381214e-02f,-8.59779418e-02f,-1.14984540e-02f,+1.73248529e-01f,-5.01114279e-02f,
-1.22849524e-01f,-3.68887901e-01f,+5.49674816e-02f,+1.96638241e-01f,+4.73838076e-02f,
-1.71497509e-01f,+2.29913399e-01f,-9.30557474e-02f,+1.55278534e-01f,+2.56358206e-01f,
+7.99868926e-02f,-4.23379391e-02f,-4.29539904e-02f,-1.02694765e-01f,-4.13520895e-02f,
-2.41490435e-02f,-1.55060232e-01f,-1.56368762e-02f,-3.60745378e-02f,+9.53276902e-02f,
+1.58488959e-01f,+6.90109357e-02f,+8.25497881e-02f,-4.75600064e-02f,+9.95028540e-02f,
-1.72620069e-03f,-1.28076315e-01f,+2.36657903e-01f,-1.79953501e-02f,+3.90798375e-02f,
-9.01177302e-02f,+5.36133721e-03f,+4.21512462e-02f,+1.71172932e-01f,-2.46434018e-01f,
-2.15579405e-01f,+9.79053751e-02f,-1.41845047e-01f,-1.12224340e-01f,+6.39365092e-02f,
+1.95149165e-02f,+1.19004793e-01f,+7.27552772e-02f,+1.22011460e-01f,+3.99506353e-02f,
+1.20994061e-01f,-2.85777729e-02f,-1.29193589e-01f,+5.69994748e-02f,+2.08018690e-01f,
-9.12819505e-02f,+6.83555156e-02f,+1.38641983e-01f,-1.76750913e-01f,+8.10595080e-02f,
+8.56064558e-02f,-1.16211087e-01f,+1.52020037e-01f,-2.25586057e-01f,-1.31037161e-01f,
+1.12803774e-02f,+9.54608396e-02f,-1.49796307e-01f,+6.86534196e-02f,-1.60422102e-01f,
+2.54108518e-01f,+1.23004258e-01f,-2.27465600e-01f,+4.11374122e-02f,-3.92805226e-02f,
+7.96319246e-02f,+1.07028037e-01f,-7.54975341e-03f,-1.33287236e-01f,+1.34996176e-01f,
+1.02277830e-01f,-5.06521985e-02f,-3.00859213e-01f,+6.54437095e-02f,-7.96331763e-02f,
+9.34808627e-02f,+1.20077312e-01f,+7.35020936e-02f,-1.39961720e-01f,-6.98882109e-03f,
-1.16203567e-02f,-6.94657937e-02f,+1.55667588e-01f,-1.77074056e-02f,+6.43043444e-02f,
-1.31758779e-01f,+7.30366185e-02f,+1.86342970e-01f,+6.16486482e-02f,-1.07918028e-02f,
-1.01090379e-01f,+6.03952706e-02f,+1.61203593e-01f,+1.59513697e-01f,+1.06344551e-01f,
-1.15280308e-01f,-4.27882597e-02f,+1.45989671e-01f,+1.32969573e-01f,-9.58152935e-02f,
-1.01588532e-01f,+7.26581961e-02f,+1.18426599e-01f,-1.35510206e-01f,+1.30291358e-01f,
-1.25775114e-01f,-1.34987375e-02f,+1.22423552e-01f,+2.99203992e-02f,+1.49819016e-01f,
-5.85969873e-02f,-1.80338789e-02f,-3.90560143e-02f,+1.83970153e-01f,+1.45858759e-02f,
+1.12402201e-01f,+1.07726511e-02f,+3.79926115e-02f,-1.16152883e-01f,+2.41886705e-01f,
+3.76485199e-01f,-9.74896997e-02f,-6.18635910e-03f,+1.74703836e-01f,-3.03005632e-02f,
+1.29926726e-01f,+6.01760671e-02f,+1.05003133e-01f,+1.48149639e-01f,+1.29465282e-01f,
+1.70625627e-01f,+2.63967067e-02f,+1.75793953e-02f,-3.06661474e-03f,+2.01608270e-01f,
-4.28402163e-02f,+1.03308350e-01f,+1.37064427e-01f,-1.75205264e-02f,+1.49524555e-01f,
+7.95444250e-02f,+3.64758253e-01f,-3.39389332e-02f,+4.04127762e-02f,-6.66454509e-02f,
-3.05113476e-03f,-5.98570593e-02f,+4.75833938e-02f,+4.29338925e-02f,+5.08720398e-01f,
-3.12242992e-02f,+1.78535745e-01f,-2.06776083e-01f,+9.65587273e-02f,-1.55297369e-01f,
+2.48164125e-02f,-1.53310716e-01f,-3.55229154e-02f,+1.43119082e-01f,+8.62917975e-02f,
-1.70241520e-01f,+8.25741887e-02f,+1.07632428e-02f,+1.89699531e-01f,-1.32221952e-01f,
+9.93563980e-02f,+5.02506681e-02f,+2.68781907e-03f,+1.24017209e-01f,-1.06711671e-01f,
+3.61279339e-01f,+8.25577974e-02f,+1.05681375e-01f,-2.02789366e-01f,+1.71691060e-01f,
-8.13299492e-02f,+8.44392404e-02f,-1.80498421e-01f,-2.66293362e-02f,-4.25018147e-02f,
+8.38640779e-02f,-2.25076243e-01f,+7.22324699e-02f,+2.99066693e-01f,+1.12917364e-01f,
-1.45624354e-02f,-2.62567520e-01f,+6.86518177e-02f,-7.66702220e-02f,+8.37166458e-02f,
+2.85875201e-01f,-1.29297376e-01f,-7.31479600e-02f,-1.49663538e-01f,+6.56530187e-02f,
+1.56042390e-02f,+1.40746713e-01f,+8.32139701e-02f,+1.24629997e-02f,-2.73300393e-04f,
+3.94233577e-02f,+1.04383370e-02f,+3.02297249e-02f,-1.08685531e-01f,+4.26453054e-01f,
+1.08994944e-02f,+6.95476308e-02f,-1.16382390e-02f,+1.74835138e-02f,-2.46637594e-02f,
-9.36898664e-02f,+1.15132324e-01f,+2.21718535e-01f,+7.39638321e-03f,-6.54647127e-02f,
+3.24765034e-02f,-5.92668876e-02f,-1.11209340e-01f,+2.82497071e-02f,-3.47509831e-01f,
-5.40931784e-02f,+2.34517232e-02f,+4.36510593e-02f,+8.47878978e-02f,-5.98457344e-02f,
+1.03284575e-01f,+9.18336809e-02f,-1.36897638e-01f,+2.45065883e-01f,+7.61708990e-02f,
-3.76975797e-02f,+6.06410950e-02f,-3.95811617e-01f,-5.97971044e-02f,-1.87147781e-01f,
-8.84949565e-02f,+1.09956339e-01f,+3.21482122e-02f,-6.41051354e-03f,-1.10425428e-02f,
+7.27524236e-02f,+4.34642695e-02f,+8.50747712e-03f,+1.07499748e-01f,-8.01027566e-02f,
+3.73450041e-01f,+3.33825983e-02f,+1.04103878e-01f,-1.78404033e-01f,+1.40707254e-01f,
+1.54568002e-01f,+4.86302786e-02f,+9.90741178e-02f,-6.01143874e-02f,+1.42781258e-01f,
+1.63615286e-01f,-6.63952902e-02f,-6.67332439e-03f,+1.49870589e-01f,+2.17606485e-01f,
+2.10337475e-01f,+1.82678048e-02f,-1.37823120e-01f,+1.47564024e-01f,+2.26461038e-01f,
-5.26365414e-02f,+1.14119351e-01f,+4.70860638e-02f,-3.79601829e-02f,+4.91085090e-02f,
+1.49219036e-01f,+1.48926573e-02f,+6.10850081e-02f,+1.26241997e-01f,-2.37588346e-01f,
-3.31692724e-03f,+1.11366517e-03f,+8.55668560e-02f,+2.56112009e-01f,+1.85687169e-02f,
-1.26756340e-01f,+8.15684646e-02f,-6.14335760e-03f,-1.75029784e-01f,+6.16347529e-02f,
+8.55497792e-02f,-6.74169734e-02f,-1.72692444e-03f,-1.01074144e-01f,-9.92851630e-02f,
+1.45186052e-01f,+1.14175379e-01f,+6.61360249e-02f,+9.68290791e-02f,+6.15869788e-03f,
+4.45253626e-02f,+2.14983717e-01f,-1.87357254e-02f,+1.43739715e-01f,+6.31090775e-02f,
+4.28541303e-02f,+2.09447503e-01f,+4.03504297e-02f,-9.66230500e-03f,-1.14385579e-02f,
-1.45556405e-02f,-1.34258375e-01f,+1.02430582e-01f,+1.75167993e-01f,+1.24133617e-01f,
+4.54607338e-01f,+2.05328036e-02f,+1.67100038e-02f,+1.52685428e-02f,+1.18331574e-01f,
+1.80405200e-01f,-4.52345386e-02f,-1.00437738e-02f,+9.26899910e-02f,-6.69493377e-02f,
+3.21065962e-01f,+8.16569924e-02f,+3.15795898e-01f,+9.20570344e-02f,+1.68497354e-01f,
+1.18030824e-01f,+5.72731718e-03f,+2.17704708e-03f,+4.24077541e-01f,+2.19482824e-01f,
+8.05524886e-02f,-1.03199102e-01f,+5.26565127e-02f,+2.27074042e-01f,-1.75866663e-01f,
+5.89688085e-02f,-8.62717405e-02f,-3.20496559e-01f,-6.39577815e-03f,+6.02497272e-02f,
-2.23614387e-02f,+1.67270467e-01f,+7.16713965e-02f,-2.48762146e-02f,+9.34357792e-02f,
+1.51978597e-01f,-1.38049021e-01f,+1.12583816e-01f,+6.84707090e-02f,-1.44748300e-01f,
-1.58114269e-01f,+1.34080783e-01f,+1.11150974e-02f,-1.94519117e-01f,+2.47720346e-01f,
+1.43716529e-01f,+6.09581023e-02f,+4.99048010e-02f,+7.32058287e-02f,-6.32815212e-02f,
+1.44713819e-01f,+2.38521323e-01f,+2.71732956e-02f,+6.95394501e-02f,+6.21820726e-02f,
+1.01016991e-01f,-1.93696134e-02f,-5.11514619e-02f,-8.79409835e-02f,-1.80573259e-02f,
-3.35514685e-03f,-1.71819717e-01f,-1.05236366e-01f,+1.00708708e-01f,+6.87409267e-02f,
+7.83225745e-02f,-4.93489653e-02f,+1.61487103e-01f,+3.21155302e-02f,+7.85272568e-02f,
+2.89135519e-02f,-1.72436103e-01f,+2.81991899e-01f,-2.05136850e-01f,+5.89968622e-01f,
+9.40255150e-02f,+3.91098037e-02f,-1.15662009e-01f,+5.15423939e-02f,+3.81716229e-02f,
-2.40112487e-02f,-1.52203619e-01f,+8.54848102e-02f,+1.77844092e-01f,+2.43796804e-03f,
+2.53515303e-01f,+1.67739302e-01f,-1.51750520e-01f,-7.39432871e-02f,+2.86417641e-02f,
+3.63763794e-02f,-5.58750480e-02f,-2.31045429e-02f,-1.34929996e-02f,-1.32011287e-02f,
+3.28673661e-01f,-1.73977092e-01f,-1.47818625e-01f,+3.59709077e-02f,-3.91797610e-02f,
-2.78671365e-02f,+1.26965716e-01f,+5.02512157e-02f,+6.23973981e-02f,-1.37553081e-01f,
+1.97290450e-01f,-2.10109428e-02f,+1.75594792e-01f,-1.14918284e-01f,-2.03252852e-01f,
+1.42856151e-01f,-8.37087706e-02f,-7.50283003e-02f,-7.61013255e-02f,-1.24221675e-01f,
-9.33668390e-02f,+5.65573759e-02f,+1.53282806e-01f,+1.79740325e-01f,+5.83111048e-02f,
+1.76977351e-01f,+1.44078627e-01f,+8.55482221e-02f,-1.95997190e-02f,+7.30231777e-02f,
+1.65680483e-01f,+5.65876439e-02f,-3.60361021e-03f,+5.00697643e-02f,+6.78106323e-02f,
-1.95627660e-02f,+2.74376180e-02f,+4.93683778e-02f,+1.46043718e-01f,+7.79133976e-01f,
-4.18647798e-03f,-1.35421464e-02f,+8.93496573e-02f,+5.89417182e-02f,+1.05482079e-01f,
+6.78180903e-02f,+1.45047083e-01f,+4.72805612e-02f,-5.71983755e-02f,+5.21764867e-02f,
-1.07184514e-01f,-3.68690267e-02f,-4.44695354e-02f,+6.05940744e-02f,+1.28185064e-01f,
+2.36389041e-01f,-2.98915040e-02f,+6.10867329e-03f,+1.96008056e-01f,-4.05077517e-01f,
-4.71977405e-02f,+1.29928231e-01f,+1.16039313e-01f,+1.68739989e-01f,+6.74153045e-02f,
+4.19144034e-02f,+4.30704504e-02f,-1.21929429e-01f,-1.88565791e-01f,-4.53316607e-02f,
+1.07477657e-01f,-6.73607141e-02f,+2.61868447e-01f,-2.93053627e-01f,+1.67510182e-01f,
-1.14842080e-01f,-8.69306549e-02f,+1.40986398e-01f,+8.99519771e-02f,-6.02910966e-02f,
+3.30042690e-01f,-1.30808771e-01f,+3.76672655e-01f,+9.00722891e-02f,+3.19530591e-02f,
-1.23682946e-01f,+3.83605585e-02f,+1.29748121e-01f,+2.51493335e-01f,+1.56899631e-01f,
-1.68413758e-01f,+1.56295057e-02f,+1.46207601e-01f,+1.58080250e-01f,+1.29835203e-01f,
+2.25416034e-01f,+2.24947706e-01f,-6.31933734e-02f,-1.57359928e-01f,+1.90686554e-01f,
+2.11529344e-01f,-6.64318055e-02f,+5.97282760e-02f,+1.17557324e-01f,+1.41812503e-01f,
-1.41594902e-01f,+1.22381754e-01f,+1.95925236e-01f,-5.49812354e-02f,-9.05700624e-02f,
-1.75048113e-02f,+1.22303426e-01f,-3.00218910e-01f,+1.67186171e-01f,-5.45540713e-02f,
-3.23850751e-01f,+5.50123341e-02f,+1.16479903e-01f,+1.93628877e-01f,+9.98740196e-02f,
-1.48917988e-01f,-7.77865350e-02f,-1.82809234e-01f,-6.34551048e-02f,+9.35926437e-02f,
+1.77244887e-01f,-3.94838788e-02f,-1.81672975e-01f,-7.62266666e-02f,+1.65569663e-01f,
-1.25539422e-01f,-2.30506659e-01f,-1.77684516e-01f,+1.47310778e-01f,+2.86260307e-01f,
+1.53862298e-01f,+6.90310076e-02f,+7.16765523e-01f,+8.49547014e-02f,+1.79542959e-01f,
-1.18773142e-02f,+9.55081284e-02f,+4.58565317e-02f,+3.74680787e-01f,-7.56212398e-02f,
+1.00296445e-01f,-2.78477073e-02f,+8.89034048e-02f,+1.55324787e-01f,+5.99204712e-02f,
+7.81214330e-03f,+1.08126886e-01f,+2.34330297e-02f,-1.07357010e-01f,+1.07915871e-01f,
+3.89290862e-02f,-1.21523604e-01f,-1.59191415e-02f,-1.10168248e-01f,+2.30477601e-01f,
-5.22068935e-03f,+6.44732192e-02f,-3.95371318e-02f,+1.42927602e-01f,-2.47019842e-01f,
-2.10289955e-01f,+5.31592453e-03f,+2.49580696e-01f,+1.05177611e-01f,-1.40429005e-01f,
+1.69074297e-01f,-8.29041004e-02f,+2.64327470e-02f,+4.27436978e-01f,+3.89672853e-02f,
+6.89285100e-02f,+9.07773376e-02f,-3.15940417e-02f,+4.35154945e-01f,+1.02214858e-01f,
-2.76152398e-02f,+2.31103525e-01f,+2.36685574e-01f,+1.32476673e-01f,-6.09622784e-02f,
+9.61012319e-02f,-4.76603620e-02f,-1.10362515e-01f,+4.68728319e-02f,+2.06447497e-01f,
+5.96285984e-02f,+1.23738304e-01f,+5.22893332e-02f,-4.47932854e-02f,-4.81608836e-03f,
-1.26563206e-01f,-2.69221459e-02f,+2.27316484e-01f,+2.92380571e-01f,+8.00696760e-02f,
+8.17898661e-02f,+2.59513203e-02f,+1.29666939e-01f,+1.00613140e-01f,-1.43091053e-01f,
-1.59003027e-02f,+1.12616277e+00f,+1.00649163e-01f,+1.23242348e-01f,+2.86643114e-02f,
+1.14071727e-01f,-3.54063697e-02f,+1.31601319e-01f,+5.50717041e-02f,+8.55035484e-02f,
-2.19296366e-01f,+7.62408152e-02f,-2.16960192e-01f,+2.70481501e-02f,+4.37258333e-02f,
+2.34521359e-01f,-2.82586133e-03f,-3.68094817e-02f,+2.45681722e-02f,-1.44475520e-01f,
+1.69618368e-01f,-2.21351907e-01f,-1.52503803e-01f,-1.13931447e-02f,-2.57901996e-01f,
+1.41850770e-01f,+5.13831787e-02f,-1.27915442e-01f,+6.03565685e-02f,+1.28636926e-01f,
+6.98509291e-02f,-8.84157978e-03f,-5.59750525e-03f,+2.62120634e-01f,+1.73999399e-01f,
-4.21005525e-02f,-3.03746834e-02f,-4.75660414e-02f,-1.64687976e-01f,-1.90524440e-02f,
-1.07824981e-01f,-3.03443000e-02f,+6.12604842e-02f,-4.71520759e-02f,+1.77251250e-01f,
+1.39116511e-01f,-5.90211712e-02f,-1.10458918e-01f,+2.43755393e-02f,-6.35127351e-02f,
-5.03855497e-02f,+8.33902881e-02f,+7.38625303e-02f,+5.07113859e-02f,-5.73058948e-02f,
+2.86973476e-01f,+4.15817313e-02f,+6.82197958e-02f,-1.54774621e-01f,-2.76408903e-02f,
+1.16179146e-01f,-9.87159386e-02f,+3.34194489e-02f,+3.24072599e-01f,+1.43848792e-01f,
-3.06466311e-01f,+8.20965990e-02f,+6.82468489e-02f,-2.27698544e-03f,+5.79508953e-02f,
+1.91013902e-01f,-1.41964853e-01f,+9.47680846e-02f,+1.29609391e-01f,+1.86188236e-01f,
-2.50344630e-02f,-8.78668204e-02f,-1.23574130e-01f,+1.16975367e-01f,+3.65240201e-02f,
+1.10406578e-01f,+7.83137083e-02f,+2.62374748e-02f,-3.34141374e-01f,+2.03079700e-01f,
+8.76038224e-02f,+7.68098086e-02f,+2.61291862e-01f,+1.68778762e-01f,+1.75747335e-01f,
-2.11895302e-01f,+1.34822503e-01f,+1.40474409e-01f,+3.38330179e-01f,+3.16490680e-02f,
-1.68290902e-02f,+1.26558974e-01f,+1.29213974e-01f,+2.36407742e-01f,+1.64942726e-01f,
+2.73730028e-02f,-2.78469533e-01f,+3.02323759e-01f,+3.50649208e-02f,+9.85848606e-02f,
+1.20961219e-01f,+8.44588429e-02f,+4.83362824e-02f,-9.49829444e-02f,-1.13803908e-01f,
+5.20875275e-01f,+5.78135476e-02f,-2.00848848e-01f,+6.77274093e-02f,+1.25024348e-01f,
-1.48227680e-02f,-1.78847630e-02f,+1.10908419e-01f,+2.01996803e-01f,-4.96045090e-02f,
-1.02415006e-03f,-9.28160772e-02f,+5.17497286e-02f,+3.86207014e-01f,-2.34479874e-01f,
+2.82003137e-04f,+6.29777908e-02f,+1.13311581e-01f,+1.69096887e-01f,-1.07200347e-01f,
-8.60279948e-02f,-1.91768482e-01f,-1.13358693e-02f,-1.74206384e-02f,-2.89297312e-01f,
-5.04868850e-03f,+7.85831735e-02f,-9.27189216e-02f,+1.70602515e-01f,-1.14244208e-01f,
-2.70651970e-02f,+2.49071687e-01f,+7.32641295e-02f,-1.23287529e-01f,+1.19743273e-02f,
+1.73374310e-01f,+5.60852438e-02f,-2.12041978e-02f,-1.47255018e-01f,+6.14412650e-02f,
+8.25244188e-02f,+4.85039968e-03f,-1.03211902e-01f,-3.31701748e-02f,+7.57389665e-02f,
+2.13978022e-01f,-1.02468416e-01f,-1.06582381e-01f,-2.62602270e-02f,-2.32418448e-01f,
+5.71907870e-02f,+1.34133592e-01f,+1.16685927e-01f,-2.33639367e-02f,+1.23288296e-01f,
+1.00287959e-01f,-4.16215713e-04f,+1.58015788e-02f,-1.15685701e-01f,-9.61898714e-02f,
-1.54774834e-03f,+1.69958714e-02f,+2.06244662e-02f,+1.04906484e-01f,+1.84971839e-01f,
+8.91065970e-02f,+1.23114221e-01f,+4.65957485e-02f,+1.07867964e-01f,-1.07476570e-01f,
-3.75180808e-03f,+2.30019003e-01f,-3.83449078e-01f,-8.20921063e-02f,-1.29624367e-01f,
-1.51349142e-01f,+3.23365986e-01f,-6.68607280e-02f,+3.44304591e-02f,-1.54167339e-01f,
+7.88279697e-02f,-3.02771121e-01f,-6.08325377e-02f,+1.44063845e-01f,+1.03876933e-01f,
-1.77877322e-01f,+1.38534263e-01f,+2.82875985e-01f,-4.83421721e-02f,+6.50743544e-01f,
+1.40202790e-02f,+5.94233125e-02f,+1.34439506e-02f,+2.88745284e-01f,+5.69368675e-02f,
-3.94911831e-03f,-2.21619215e-02f,-1.23421088e-01f,-6.44135624e-02f,-1.83752589e-02f,
+3.18671644e-01f,-2.79988319e-01f,-1.12985618e-01f,+4.63071503e-02f,-2.68063489e-02f,
-3.31710249e-01f,-1.12873197e-01f,-4.49592620e-02f,-6.34920076e-02f,-2.24504128e-01f,
-3.00840959e-02f,+3.10780317e-01f,-1.94344260e-02f,+3.88185121e-02f,+1.04581788e-01f,
+8.07074159e-02f,-1.81776695e-02f,-3.16834524e-02f,+2.76866388e-02f,+1.70730382e-01f,
+2.31941380e-02f,+5.25207147e-02f,-5.90093434e-02f,-1.34937763e-01f,+1.19408876e-01f,
-2.70352811e-01f,+1.30368873e-01f,+8.03931132e-02f,+7.36564472e-02f,-2.26350352e-01f,
+3.01099122e-02f,-4.53440808e-02f,-7.18675628e-02f,+1.32401630e-01f,+7.50394762e-02f,
+1.87482074e-01f,+1.99957341e-01f,-2.02398803e-02f,-5.61869815e-02f,-1.72050595e-01f,
-9.33390260e-02f,-2.82636546e-02f,+2.20756039e-01f,-7.77882636e-02f,+1.06547900e-01f,
-4.65433784e-02f,+3.04730266e-01f,-1.02615714e-01f,-1.66897193e-01f,+1.00088395e-01f,
+2.94153482e-01f,-2.84493491e-02f,+1.89597636e-01f,+2.69032508e-01f,+1.52399063e-01f,
+4.31781821e-02f,+2.33725429e-01f,-2.67418642e-02f,+6.20224364e-02f,+3.19937170e-02f,
+1.77490667e-01f,+1.48065910e-01f,+4.51160073e-02f,-2.24530935e-01f,-4.33922671e-02f,
-1.75644889e-01f,+1.32992953e-01f,+2.36410554e-02f,-1.97554782e-01f,-1.04513034e-01f,
-3.52776796e-02f,-4.14579846e-02f,+9.03654620e-02f,-1.08166173e-01f,-1.57246236e-02f,
-1.86955556e-01f,+5.39646864e-01f,+2.23219581e-02f,-7.28372298e-03f,+2.99024414e-02f,
-1.02365397e-01f,-1.92834705e-01f,+2.43500024e-01f,+1.33745059e-01f,+9.99989286e-02f,
+6.50926158e-02f,+9.53790694e-02f,+1.79707274e-01f,+1.48902565e-01f,+5.07362671e-02f,
+4.11282070e-02f,+1.44800887e-01f,+5.28541133e-02f,-4.69827875e-02f,-2.76728988e-01f,
-1.88799098e-01f,-9.41592082e-02f,+1.39376193e-01f,+2.17581004e-01f,+2.50355015e-03f,
-6.89876126e-03f,-2.64620364e-01f,-1.24170378e-01f,+1.09971091e-01f,+3.38562220e-01f,
+2.89498448e-01f,+1.19304229e-02f,-3.56285758e-02f,+2.31837928e-02f,-2.32343152e-02f,
+2.38028215e-03f,+3.05377543e-01f,+2.99980901e-02f,+9.11600813e-02f,+3.68495770e-02f,
+4.35546756e-01f,+8.57910216e-02f,+2.67252237e-01f,+1.44058298e-02f,+6.99880794e-02f,
-4.10499237e-02f,+4.11148369e-02f,-3.48121338e-02f,+6.99020624e-02f,-1.21046111e-01f,
-2.76757777e-02f,-1.30523771e-01f,-8.82383659e-02f,-4.20005508e-02f,+8.50105733e-02f,
+2.51389686e-02f,-6.65572798e-03f,-3.15778852e-02f,+3.59675825e-01f,+1.41742378e-01f,
-1.88039124e-01f,-5.56937121e-02f,+7.32778013e-02f,-1.94020823e-01f,-1.12505384e-01f,
-1.48778856e-02f,-2.42512282e-02f,+2.17909843e-01f,+4.07664597e-01f,+1.09135710e-01f,
+1.41436318e-02f,+1.87865481e-01f,-1.81617551e-02f,+3.53354126e-01f,+1.71204135e-01f,
+3.21675949e-02f,+3.26694369e-01f,+1.49215281e-01f,+1.25051448e-02f,+1.05694588e-02f,
+9.14265141e-02f,-7.05233589e-02f,+4.14641827e-01f,+1.44711167e-01f,+8.87000784e-02f,
+1.59841195e-01f,+1.34887487e-01f,+2.34535679e-01f,+1.62340954e-01f,+5.01818769e-02f,
+1.74530059e-01f,-6.12086020e-02f,-8.93856585e-02f,+1.94155097e-01f,+3.20229754e-02f,
-2.65283864e-02f,-3.50447707e-02f,+2.13375479e-01f,+1.03073150e-01f,+7.81521723e-02f,
-7.20863119e-02f,-5.27451113e-02f,+2.64267802e-01f,+1.05308011e-01f,+3.34627852e-02f,
+3.47609855e-02f,+2.52662390e-01f,-1.23841539e-01f,+8.48584175e-02f,-2.23820686e-01f,
-3.78211425e-03f,-5.24379611e-02f,-1.65169209e-01f,+1.64073154e-01f,+2.69989908e-01f,
+9.30058882e-02f,+1.01157159e-01f,+1.67094707e-01f,+2.38593966e-01f,-1.80022381e-02f,
+1.05620630e-01f,+3.74892987e-02f,+1.32079095e-01f,+1.65374607e-01f,+1.41283637e-02f,
-4.20099217e-03f,-8.67972374e-02f,-7.95623809e-02f,+2.83442736e-01f,+1.10274248e-01f,
-2.01185662e-02f,-1.71460018e-01f,+3.46423060e-01f,+1.19761229e-02f,+8.54496136e-02f,
-4.48293872e-02f,+6.42179772e-02f,+2.67549872e-01f,+1.08958833e-01f,+1.81992903e-01f,
-3.61242630e-02f,+3.81402105e-01f,-6.04084805e-02f,-1.96391586e-02f,+5.52936606e-02f,
+8.06411803e-02f,+7.76443407e-02f,+2.43524119e-01f,+1.66326076e-01f,+3.44222486e-01f,
+7.34487996e-02f,+3.95457089e-01f,+1.47894084e-01f,-5.80632351e-02f,+1.68885067e-01f,
-9.69997048e-02f,-2.63991542e-02f,+1.20981149e-02f,+1.30909951e-02f,-1.42995462e-01f,
+5.05427904e-02f,-5.66389598e-02f,+1.57246560e-01f,-8.85156244e-02f,+5.94027303e-02f,
+3.57044116e-02f,+7.10420832e-02f,+2.03889057e-01f,-1.05888084e-01f,-8.40104744e-03f,
-6.00861460e-02f,-9.26504433e-02f,+7.45424926e-02f,+1.67857140e-01f,-8.02208856e-02f,
-1.75833926e-02f,-1.54602930e-01f,+1.19922541e-01f,+1.69939250e-01f,+4.22251485e-02f,
-1.06484272e-01f,-1.59417823e-01f,+3.81251127e-01f,+1.88392797e-03f,-7.00394809e-02f,
+8.74324217e-02f,-6.55245781e-02f,-1.12832151e-01f,+4.45078798e-02f,+8.44125748e-02f,
-6.73407093e-02f,-4.73259054e-02f,+2.36931555e-02f,+1.67303845e-01f,+1.64863229e-01f,
+1.41105726e-01f,+7.42422566e-02f,+5.74106500e-02f,+2.48401333e-02f,-1.40062019e-01f,
-6.74474686e-02f,+1.22481212e-02f,+5.53862214e-01f,+1.78453252e-01f,+7.29923090e-03f,
+7.52269551e-02f,+2.03116350e-02f,-2.50492804e-02f,-1.52563173e-02f,+3.83899882e-02f,
-1.35056749e-01f,-5.44361174e-02f,-1.11433104e-01f,-1.53398141e-01f,+5.09375334e-01f,
+1.35856479e-01f,-8.59013759e-03f,+1.38594344e-01f,+1.08042628e-01f,+2.38394901e-01f,
+8.97469744e-02f,+2.02373609e-01f,+7.35708252e-02f,+5.67121282e-02f,-6.46850467e-02f,
-1.51714802e-01f,-1.20568611e-01f,+1.44497991e-01f,+1.63046330e-01f,+2.60699719e-01f,
+5.84258046e-03f,-1.58775926e-01f,-1.01586031e-02f,+1.55157626e-01f,-3.54570970e-02f,
-1.10512666e-01f,-1.47890806e-01f,-1.75884381e-01f,+3.15798908e-01f,-1.14522338e-01f,
+1.04822613e-01f,-1.64140269e-01f,-8.73525254e-03f,-1.07314587e-01f,+3.60115804e-02f,
-2.72690691e-02f,+1.56139404e-01f,+5.91552220e-02f,+6.34816512e-02f,+2.41816685e-01f,
+2.99951494e-01f,-8.82244669e-03f,+6.81380332e-02f,-1.13314845e-01f,-3.14458668e-01f,
-7.56188482e-02f,+1.91162201e-03f,-1.06461588e-02f,+2.26523593e-01f,+1.70241013e-01f,
+3.97765450e-02f,-7.54270179e-04f,-1.07405581e-01f,+9.36172754e-02f,-3.83713469e-02f,
+2.53464710e-02f,+4.95800376e-02f,+1.16789967e-01f,-1.53026190e-02f,+2.19036564e-01f,
+1.92659676e-01f,+3.76230106e-02f,+1.00772142e-01f,-1.04372755e-01f,+2.68233389e-01f,
-9.88863260e-02f,+4.33138981e-02f,-4.92762178e-02f,+3.15540403e-01f,+8.39581117e-02f,
+2.26423554e-02f,+1.29347146e-01f,-4.29231348e-03f,-4.49362509e-02f,-1.43828541e-02f,
+1.42185837e-01f,+2.06077933e-01f,+1.61216706e-02f,+2.83608943e-01f,+2.23415628e-01f,
+7.35979453e-02f,+5.53569794e-02f,+1.41736731e-01f,+9.99779254e-02f,+1.92695092e-02f,
+4.35716510e-02f,-5.81875667e-02f,-4.93144244e-03f,-2.35874038e-02f,+7.54202083e-02f,
-8.90400913e-03f,-2.99338233e-02f,+8.29349682e-02f,+1.89873070e-01f,+9.26546380e-03f,
-1.51763603e-01f,+1.46494493e-01f,+1.34254083e-01f,+4.05680090e-02f,+1.32689616e-02f,
-6.97738379e-02f,+1.88195467e-01f,+3.70622650e-02f,+8.05588365e-02f,+4.35763970e-02f,
-1.08636901e-01f,+7.85397738e-02f,-1.18551381e-01f,+7.98690170e-02f,+1.72191039e-01f,
+2.60708593e-02f,+2.96767298e-02f,+2.46065468e-01f,-1.25817925e-01f,-3.11573055e-02f,
+1.12200029e-01f,+1.15382075e-01f,+9.56801511e-03f,+2.52532493e-02f,+1.35048375e-01f,
+2.74043590e-01f,+7.44370254e-06f,+1.38024956e-01f,+1.68160215e-01f,+2.00395510e-01f,
+1.04475096e-01f,-5.75534813e-02f,-2.89698869e-01f,-1.27700716e-01f,+6.90095201e-02f,
+1.88208491e-01f,+4.61182855e-02f,+3.80454175e-02f,+2.37686306e-01f,+7.29119703e-02f,
+8.48458782e-02f,+5.43005690e-02f,+9.21561569e-02f,+2.19299451e-01f,+1.73879057e-01f,
+2.53845960e-01f,+1.91008106e-01f,+5.52056171e-02f,+1.90341726e-01f,+1.51411798e-02f,
+3.36223617e-02f,+6.71562254e-02f,+8.79149809e-02f,+1.36129394e-01f,+1.05793752e-01f,
+6.12618774e-03f,-3.81880961e-02f,+6.89343661e-02f,+6.32695481e-02f,+2.79307753e-01f,
+2.63773482e-02f,+1.32887987e-02f,+1.29534557e-01f,-5.72652891e-02f,+1.90867692e-01f,
+1.05373718e-01f,+9.18538272e-02f,+1.10158466e-01f,+2.07060203e-01f,+8.42765346e-02f,
+6.84353560e-02f,+1.76892474e-01f,+2.00518906e-01f,-3.49579677e-02f,+7.90878609e-02f,
+1.18705198e-01f,+3.81741300e-02f,+3.05261426e-02f,-8.43449533e-02f,+8.82843584e-02f,
+2.87765991e-02f,+1.85138792e-01f,+3.02744150e-01f,+1.02408558e-01f,-8.71385541e-03f,
-5.03013358e-02f,+1.40092773e-02f,+2.61410385e-01f,+1.16684794e-01f,+8.57005492e-02f,
+2.83622686e-02f,+1.72398925e-01f,+4.46922779e-02f,-9.20392647e-02f,-1.55517580e-02f,
+2.58624530e-03f,+2.98053734e-02f,-1.04595676e-01f,-1.41417664e-02f,+8.65202099e-02f,
-1.31293252e-01f,-1.37288749e-01f,-1.46083236e-01f,+1.30010664e-01f,+7.99104199e-02f,
-1.03592582e-01f,+2.19520211e-01f,+1.66031197e-01f,+7.40595087e-02f,+1.29837945e-01f,
+2.39853680e-01f,+1.60913333e-01f,+2.65156869e-02f,+1.47124916e-01f,-3.58839817e-02f,
+2.45844811e-01f,-5.71089201e-02f,+9.55841318e-03f,+5.37888333e-02f,+1.55716807e-01f,
+4.36487384e-02f,+1.15348445e-02f,+1.79999411e-01f,+3.62848165e-04f,+1.18734263e-01f,
-3.30409557e-01f,+1.45717084e-01f,+6.73787147e-02f,+5.47935478e-02f,+1.96312547e-01f,
-3.88691435e-03f,+1.17857926e-01f,+4.74005565e-02f,+2.27963522e-01f,+1.61378294e-01f,
+2.33049959e-01f,+1.09936297e-01f,-3.67394323e-03f,+5.64141423e-02f,-2.79885978e-02f,
+2.65344858e-01f,+1.61147341e-01f,+9.39215999e-03f,+1.28514633e-01f,+1.31745785e-01f,
+9.34637636e-02f,+3.17960829e-01f,+4.10762988e-02f,+3.64653654e-02f,+6.43739253e-02f,
-6.60570264e-02f,+1.05707549e-01f,-2.34480835e-02f,+1.77582622e-01f,+1.61893833e-02f,
+2.86022484e-01f,+9.28920209e-02f,-1.84209958e-01f,+1.20540345e-02f,+1.78164914e-01f,
-1.21399924e-01f,+5.00204321e-03f,-3.98453772e-02f,+1.10704415e-01f,+1.10317804e-01f,
-5.73099777e-02f,+1.21141039e-01f,+6.71731830e-02f,+2.15655923e-01f,+1.39325306e-01f,
-1.99567556e-01f,+8.87434855e-02f,+9.12703276e-02f,+2.40884423e-01f,+1.33573309e-01f,
+1.04425386e-01f,+1.36958092e-01f,-3.08862533e-02f,+1.18871428e-01f,+3.84611711e-02f,
+2.57266406e-02f,+5.82329407e-02f,+8.15136507e-02f,+4.11755741e-02f,+4.10808846e-02f,
+1.16323298e-02f,+2.83525921e-02f,+7.38457143e-02f,+1.52391374e-01f,+2.64295220e-01f,
+6.24134168e-02f,-1.71988875e-01f,-1.06652893e-01f,-1.34333549e-02f,+1.15668498e-01f,
+2.66425312e-01f,+2.17515782e-01f,-1.06649846e-01f,-6.96611255e-02f,+1.58583403e-01f,
+2.13853613e-01f,-7.24550560e-02f,+1.25194888e-03f,+4.80767973e-02f,+3.50243896e-02f,
+2.12606192e-01f,+4.72971052e-02f,-1.37869790e-01f,-2.40545142e-02f,+2.50693172e-01f,
+8.46088082e-02f,+1.11544408e-01f,+1.76277563e-01f,-7.34895794e-03f,-5.77005818e-02f,
+2.47687250e-01f,+3.44802812e-02f,-2.89557651e-02f,+1.62595406e-01f,+2.02706456e-01f,
+5.91220558e-02f,+3.25263478e-02f,+1.15253795e-02f,+3.33810598e-02f,+1.04121611e-01f,
+2.10983120e-02f,+2.00177804e-01f,+1.62985638e-01f,+1.60714045e-01f,-2.45242447e-01f,
+3.39928925e-01f,+1.72010913e-01f,+2.79702157e-01f,+6.44465256e-03f,+7.84526989e-02f,
-9.53159109e-02f,-7.46340826e-02f,-2.22355559e-01f,+4.10142690e-01f,+3.30395922e-02f,
+3.20009911e-03f,+1.30036011e-01f,-5.96431606e-02f,-1.00907184e-01f,+1.68798536e-01f,
-1.15964718e-01f,+1.65256366e-01f,+1.88550889e-01f,+2.61325836e-01f,-7.09639713e-02f,
-1.12381391e-02f,-7.69526958e-02f,+3.74367312e-02f,-7.40143983e-03f,+1.17968947e-01f,
-4.28756177e-02f,+1.93786561e-01f,+8.57183039e-02f,+9.12315249e-02f,+2.28942901e-01f,
+7.14543089e-02f,+1.47642002e-01f,+7.13086426e-02f,-2.51646060e-02f,+7.82630593e-02f,
+1.21758685e-01f,+1.91156700e-01f,+1.09154694e-01f,+1.52742922e-01f,+1.35553643e-01f,
-3.09822876e-02f,-7.11777061e-02f,+5.01318984e-02f,+2.80395180e-01f,+1.07914172e-01f,
+1.66582733e-01f,+1.66322246e-01f,+2.57464945e-02f,-6.60023987e-02f,-1.34524867e-01f,
+1.37796983e-01f,+7.45349750e-03f,+1.74283832e-01f,-1.18219741e-01f,+1.16928987e-01f,
+1.48752660e-01f,+1.28186151e-01f,-1.99794561e-01f,+2.99959555e-02f,+1.26757532e-01f,
+1.72289893e-01f,-1.98427334e-01f,+1.46263465e-01f,+8.49871412e-02f,+8.04471001e-02f,
-8.63019563e-03f,-2.47260369e-02f,+1.83983997e-01f,-1.21888882e-02f,-1.63264841e-01f,
+6.01065122e-02f,-3.33910808e-02f,+4.95602936e-03f,-5.89990206e-02f,+2.31295273e-01f,
+3.09469365e-02f,+9.67406631e-02f,+1.56915903e-01f,+6.04129732e-02f,+4.92376601e-03f,
+8.02316219e-02f,+1.31827384e-01f,+9.68975499e-02f,+8.76317248e-02f,+5.20587601e-02f,
+7.98057616e-02f,+1.11122029e-02f,-1.97099801e-02f,+2.26913065e-01f,-1.62675276e-01f,
+1.75071403e-01f,+3.94613389e-03f,+2.13692799e-01f,+1.42060399e-01f,+3.80638659e-01f,
+2.77009070e-01f,+2.53924757e-01f,-2.25271713e-02f,+9.57604870e-03f,-3.72963920e-02f,
-7.50351176e-02f,-1.57973897e-02f,+1.15215145e-01f,+1.03565782e-01f,+4.19742912e-02f,
-4.15858403e-02f,-2.97068097e-02f,-5.26378118e-02f,+2.67328937e-02f,+6.43243045e-02f,
+1.28958309e-02f,+6.50294945e-02f,+1.35042435e-02f,+9.03270170e-02f,+2.54998147e-01f,
-1.52347788e-01f,+1.21184319e-01f,+2.36369267e-01f,-1.26425192e-01f,+9.90230441e-02f,
+6.14321493e-02f,-4.38141339e-02f,-6.90048113e-02f,-6.66006953e-02f,-1.19818233e-01f,
+1.28252774e-01f,+2.58305401e-01f,+5.30190347e-03f,-1.26187220e-01f,+7.65701607e-02f,
+5.90490215e-02f,+1.41475022e-01f,+1.16259336e-01f,-7.80237317e-02f,+3.43232043e-02f,
+8.28743577e-02f,+3.43899503e-02f,+1.19283348e-01f,-9.69276589e-04f,-1.27358079e-01f,
-2.08310872e-01f,+7.95446187e-02f,+2.67732054e-01f,-1.77023530e-01f,-1.42739832e-01f,
+8.58142823e-02f,-7.53630847e-02f,+1.50708929e-01f,-1.04669251e-01f,-2.47727614e-02f,
-1.63659366e-04f,+3.04382537e-02f,-8.30499753e-02f,+4.69139844e-01f,+1.37458965e-01f,
-7.57897571e-02f,+7.78199046e-06f,+3.34792614e-01f,+2.82906070e-02f,-1.78701192e-01f,
-2.67718919e-02f,-1.68901354e-01f,+1.43059954e-01f,+1.84167057e-01f,+1.53614968e-01f,
-3.36431228e-02f,-2.92231701e-02f,-7.89506510e-02f,-9.68862846e-02f,+1.04138091e-01f,
-7.29539292e-03f,+2.70879883e-02f,+7.38452449e-02f,+1.76269375e-02f,+2.48709824e-02f,
+1.58280298e-01f,-1.03757441e-01f,+1.21166952e-01f,-1.45954415e-01f,-1.71501979e-01f,
+1.04960993e-01f,+2.39027962e-01f,-1.28530115e-01f,+1.37912437e-01f,+1.33558065e-01f,
+1.11629456e-01f,+2.26217151e-01f,+5.05869910e-02f,+7.89702162e-02f,+1.68712810e-02f,
+3.89282219e-02f,-5.42185269e-02f,+1.01298019e-01f,-1.55788556e-01f,+2.18357489e-01f,
+4.02441233e-01f,+2.83422563e-02f,-5.96474111e-02f,-5.61875217e-02f,+2.10555851e-01f,
-1.28353555e-02f,+2.83151623e-02f,+2.19571814e-01f,-7.48692900e-02f,-7.27802590e-02f,
-7.31535256e-02f,+4.88212928e-02f,+2.15892449e-01f,-2.02333927e-01f,-1.34055331e-01f,
-8.89693126e-02f,+1.78826511e-01f,+3.59747596e-02f,-9.50221438e-03f,-1.26323923e-01f,
+8.86003003e-02f,-2.44246665e-02f,+2.35740207e-02f,-2.19560917e-02f,+6.38846979e-02f,
+2.33048797e-02f,-7.03002140e-02f,+8.99519473e-02f,-1.83005810e-01f,+1.63264945e-01f,
-2.31069687e-04f,+1.48487076e-01f,-7.71075264e-02f,+1.61321014e-01f,-1.12196974e-01f,
+4.48801108e-02f,-2.02597287e-02f,+2.48101294e-01f,+6.87675551e-02f,+1.19924702e-01f,
+4.78657521e-02f,+4.19381149e-02f,+1.21722244e-01f,+1.93974957e-01f,+2.11523101e-01f,
-1.60643440e-02f,-1.08071847e-03f,+1.06125519e-01f,-2.01809153e-01f,+7.24399323e-03f,
+4.04167473e-01f,+1.10107020e-01f,-3.76539156e-02f,-3.80744450e-02f,-7.99508542e-02f,
+1.98643804e-01f,+1.90294301e-03f,-6.84377691e-03f,-2.32945815e-01f,-2.74626203e-02f,
-3.02950054e-01f,-3.36291492e-02f,+3.61166596e-02f,+1.06410131e-01f,+1.07686222e-01f,
-7.54488185e-02f,-9.07125771e-02f,+1.69338346e-01f,+1.11008510e-01f,+5.76139800e-02f,
-3.96965817e-02f,-1.74650941e-02f,+4.10555489e-02f,-1.25543207e-01f,-2.49234259e-01f,
-1.13211296e-01f,-3.87235060e-02f,+9.05301869e-02f,-5.41712269e-02f,-2.46177651e-02f,
-7.60386661e-02f,-3.31872702e-01f,-1.63709733e-03f,-5.37207201e-02f,-9.56506059e-02f,
-2.40400806e-01f,-1.40530974e-01f,-1.45153418e-01f,+1.05162861e-03f,+7.97555074e-02f,
-1.10722929e-01f,-5.76868653e-02f,-2.32980862e-01f,-6.56740814e-02f,+3.59962247e-02f,
-1.09286457e-01f,+3.74046005e-02f,-2.44240180e-01f,-2.29677763e-02f,+4.33731787e-02f,
+2.64180630e-01f,-1.87722165e-02f,+1.31913973e-02f,+1.89362451e-01f,-1.45984339e-02f,
+1.18077241e-01f,+3.57475691e-02f,-1.73463989e-02f,+9.39642265e-02f,-1.74514845e-01f,
-3.65523825e-04f,+1.64864659e-01f,-1.62370220e-01f,-1.72129393e-01f,+2.64779866e-01f,
+6.81651980e-02f,-7.36844391e-02f,-2.14385360e-01f,+5.99069186e-02f,-9.07490775e-02f,
+4.90193874e-01f,-1.66082352e-01f,-1.72119647e-01f,+1.99557170e-01f,-1.21233590e-01f,
-2.44743541e-01f,-5.28391339e-02f,-1.46404922e-01f,+2.02824131e-01f,+7.57080615e-02f,
+4.50306982e-02f,-1.98871028e-02f,+6.29965007e-01f,-1.14081457e-01f,-1.82792783e-01f,
-1.15686528e-01f,-1.14937074e-01f,+1.77156180e-02f,+5.60847446e-02f,-1.12846769e-01f,
-7.20713586e-02f,+4.99755293e-02f,+3.14267050e-03f,+3.12847532e-02f,-2.22283930e-01f,
-4.44529839e-02f,+1.33728310e-01f,-1.33183032e-01f,+2.06763372e-01f,-1.79862976e-01f,
-1.17565349e-01f,+1.94117486e-01f,+2.52198125e-03f,+5.00364862e-02f,-1.71138067e-02f,
-3.75849591e-03f,+3.74253720e-01f,+3.41437533e-02f,-1.13418721e-01f,-7.85112157e-02f,
+3.23698282e-01f,+1.05780564e-01f,-2.55491912e-01f,-2.16699913e-02f,+7.98028111e-02f,
+2.79781908e-01f,+1.21574037e-01f,+2.82226980e-01f,-1.38978921e-02f,+9.05006230e-02f,
-1.09763192e-02f,+7.70712793e-02f,+1.92210779e-01f,+9.79968905e-02f,-4.27137613e-02f,
+1.07867070e-01f,+2.92675853e-01f,-2.73047965e-02f,-5.71818538e-02f,-1.24888144e-01f,
-6.29971623e-02f,+8.16401690e-02f,+4.63174693e-02f,+4.97087985e-02f,-2.91724149e-02f,
+9.91817340e-02f,+1.65232137e-01f,-1.80855438e-01f,+4.12202589e-02f,+7.96345696e-02f,
+9.55780372e-02f,+3.30785722e-01f,-1.08901806e-01f,-8.80090147e-02f,+1.66570619e-01f,
+1.06798090e-01f,-1.03885546e-01f,-9.70801897e-03f,-2.10292786e-02f,-1.81625918e-01f,
+1.03605971e-01f,+1.41578078e-01f,+5.14508039e-02f,-4.81121749e-01f,-1.82314023e-01f,
-8.66415054e-02f,-1.67482365e-02f,+1.93983644e-01f,-7.74715468e-02f,+1.36575073e-01f,
-1.24417737e-01f,+1.60326306e-02f,+2.03687206e-01f,+5.67346402e-02f,-5.87849282e-02f,
-4.17765230e-03f,+2.40069628e-01f,+1.06016897e-01f,-3.57288681e-02f,+7.76694193e-02f,
+1.50426216e-02f,-5.97128831e-02f,-4.33540419e-02f,-5.32837920e-02f,+1.29671946e-01f,
-3.00137382e-02f,-8.99950564e-02f,+8.07304755e-02f,+1.15573376e-01f,+2.01476123e-02f,
+1.45025039e-02f,+1.31565139e-01f,+2.09554464e-01f,+5.59087507e-02f,+1.17073305e-01f,
+8.23320076e-02f,+1.64922755e-02f,+3.39634493e-02f,+9.68642458e-02f,+1.15454542e-02f,
+2.27961652e-02f,-1.46657950e-03f,-4.22684819e-01f,-4.20671515e-02f,+4.67399359e-02f,
+5.73701300e-02f,+5.79652423e-03f,+1.87566131e-01f,+2.31309514e-02f,+2.73737669e-01f,
+4.18293364e-02f,+4.86795884e-03f,-1.59126651e-02f,+1.17639504e-01f,+1.44275233e-01f,
-1.96925998e-02f,+2.25455035e-02f,-3.99126559e-02f,+6.47178888e-02f,+8.60555097e-02f,
-1.36655778e-01f,+2.82839477e-01f,-5.01457863e-02f,-6.01284951e-02f,+1.53469309e-01f,
+1.55160511e-02f,+4.31082249e-02f,+3.97555754e-02f,+2.86815107e-01f,+2.61574149e-01f,
-7.11740255e-02f,+2.78300673e-01f,+7.72537440e-02f,+6.21943101e-02f,+1.30415678e-01f,
-1.13562420e-01f,+1.12931579e-01f,+1.47517964e-01f,+2.40643620e-01f,+6.91341087e-02f,
-6.58341423e-02f,+6.75383490e-03f,-7.56851509e-02f,-3.39225829e-01f,-7.92238340e-02f,
+1.52172178e-01f,+1.27430335e-01f,-1.24267051e-02f,-1.53319947e-02f,-1.54526949e-01f,
+1.23873465e-01f,+1.34596527e-01f,+4.21950519e-02f,-1.42408274e-02f,-3.99832390e-02f,
+3.04298997e-02f,-1.50786325e-01f,+3.07387441e-01f,+9.40235518e-03f,-6.67799935e-02f,
+6.73039705e-02f,-1.92909427e-02f,+2.82003969e-01f,+1.81847572e-01f,-1.61854416e-01f,
+4.54692468e-02f,-8.06360468e-02f,+6.81088567e-02f,-2.21518695e-01f,-1.00381270e-01f,
+7.38494396e-02f,-4.02049571e-02f,+1.26867488e-01f,-1.32632568e-01f,-3.54964770e-02f,
+3.45683992e-02f,+2.56061703e-02f,-1.52855795e-02f,+1.36397690e-01f,-1.03550807e-01f,
+1.91682383e-01f,+3.36672589e-02f,+7.93951303e-02f,-1.41029775e-01f,+6.19925112e-02f,
+1.15959920e-01f,+1.95091963e-01f,-4.36647274e-02f,+6.18109554e-02f,+1.26176879e-01f,
+1.42924577e-01f,+2.86775827e-02f,-6.37679920e-02f,+2.79946625e-02f,+6.08785972e-02f,
+7.24314749e-02f,-1.73812807e-01f,+1.01026759e-01f,+2.00328887e-01f,+2.98929773e-02f,
+2.82139275e-02f,+2.07972284e-02f,-4.60212305e-02f,+3.42171006e-02f,-1.51290312e-01f,
-1.77197412e-01f,-5.09553589e-02f,+4.45264950e-03f,-5.10147400e-02f,-5.62930517e-02f,
+3.02082300e-02f,+7.43186474e-02f,-1.03253849e-01f,+1.52057916e-01f,+3.39829200e-03f,
+1.46469241e-02f,-4.91317324e-02f,+1.18761383e-01f,-6.64452165e-02f,+1.99541166e-01f,
+1.45644262e-01f,-1.90622643e-01f,-3.47202942e-02f,-1.99755222e-01f,+1.09900162e-01f,
-7.19086081e-03f,+1.15472637e-01f,-9.67134386e-02f,+1.38067648e-01f,+1.81636587e-02f,
+1.34436116e-01f,+6.75192922e-02f,+6.75125048e-02f,-1.08080935e-02f,-2.34014645e-01f,
+2.68944860e-01f,-3.05114508e-01f,+3.58090177e-02f,-2.04377681e-01f,+1.31264612e-01f,
+2.80815303e-01f,+2.00630918e-01f,+9.86150056e-02f,-1.47940353e-01f,+1.48405135e-01f,
-3.64267677e-02f,+1.19797952e-01f,-4.38426733e-02f,+2.34666049e-01f,-1.32424489e-01f,
-5.43559492e-02f,-4.14617151e-01f,-8.01608786e-02f,-2.27560833e-01f,-3.64254043e-02f,
-7.22520500e-02f,-9.19875354e-02f,-2.91038398e-02f,+1.42511979e-01f,+5.05323969e-02f,
+4.26871851e-02f,-1.74827185e-02f,+9.17775780e-02f,+2.42795631e-01f,-1.92551181e-01f,
+5.27760275e-02f,+2.60702670e-01f,-2.60973927e-02f,-2.94951703e-02f,+1.19083330e-01f,
+1.31135285e-01f,+4.14347649e-02f,+2.57856190e-01f,+5.39944619e-02f,-9.60645452e-02f,
+1.92268357e-01f,+2.11340055e-01f,+1.14397071e-01f,+1.90897644e-01f,-4.50608805e-02f,
+4.12753075e-02f,+1.43411115e-01f,+2.76582241e-01f,+2.16085851e-01f,+4.90753092e-02f,
-3.57798561e-02f,+3.25295210e-01f,+6.42440692e-02f,+5.16537987e-02f,+4.46657836e-03f,
+1.43179625e-01f,+5.94866239e-02f,+2.39533007e-01f,+2.45314538e-01f,+4.97605987e-02f,
-2.42124870e-03f,+2.51904786e-01f,+9.09424499e-02f,+2.42003322e-01f,+2.43679099e-02f,
-2.35023603e-01f,+4.79355417e-02f,+9.97646078e-02f,+4.36555408e-02f,+1.09127194e-01f,
+2.67829925e-01f,+3.63125354e-02f,+1.36012107e-01f,+2.24700242e-01f,+1.17230080e-01f,
+1.68929800e-01f,+7.62408152e-02f,+4.31950450e-01f,+4.20151763e-02f,-4.07422930e-02f,
+1.62535265e-01f,-5.71281426e-02f,-2.16306094e-02f,+2.39714950e-01f,+5.16684875e-02f,
+1.82552725e-01f,-6.99106902e-02f,+1.31612837e-01f,-1.28252357e-01f,-5.71555160e-02f,
-2.74943803e-02f,+2.39664480e-01f,+2.01394334e-01f,+8.18760172e-02f,-1.25303239e-01f,
-1.92821398e-01f,-1.06972508e-01f,+1.07777804e-01f,+6.16931822e-03f,+2.03309692e-02f,
-9.63749066e-02f,+4.73004319e-02f,+9.77701768e-02f,+1.30865380e-01f,-1.98918045e-01f,
+1.93587959e-01f,-1.35754077e-02f,+2.84938425e-01f,+2.94477284e-01f,-2.47292876e-01f,
+9.18181911e-02f,+1.29276678e-01f,+1.18842516e-02f,-5.15942201e-02f,+1.65269643e-01f,
-1.95828713e-02f,-1.99888200e-01f,+1.87915027e-01f,+1.05211996e-01f,+6.74998686e-02f,
+3.72789428e-02f,+9.60741937e-02f,-1.89912781e-01f,-3.38266790e-02f,+1.22767098e-01f,
+4.39738808e-03f,+9.72467959e-02f,+9.56110731e-02f,-1.56670064e-01f,+1.19782083e-01f,
-1.87257245e-01f,-5.99185973e-02f,-7.93035328e-02f,-5.88939823e-02f,+5.78602254e-02f,
+3.38075869e-03f,+1.14742115e-01f,-2.34931543e-01f,+3.12580392e-02f,+1.46928772e-01f,
-2.73408532e-01f,-2.49528855e-01f,+1.65784359e-01f,+2.67393678e-01f,+1.46510378e-01f,
-7.06498744e-03f,+1.06429949e-01f,-2.64745336e-02f,+3.36453944e-01f,-1.79576099e-01f,
-3.78218815e-02f,+1.25409395e-01f,+1.68070272e-01f,+3.05143386e-01f,+1.46845967e-01f,
-1.98772177e-01f,+3.61009240e-01f,-1.31571144e-01f,-2.43941307e-01f,-1.39363082e-02f,
+8.76517035e-03f,+1.65888608e-01f,+2.74039954e-01f,+5.05157374e-02f,+3.30620021e-01f,
+1.83282033e-01f,+6.42966256e-02f,-7.09505230e-02f,+4.10433143e-01f,-3.86291407e-02f,
+9.22529325e-02f,+1.40322268e-01f,+2.37333730e-01f,+1.94767863e-01f,-5.24417162e-02f,
+6.00962155e-02f,+1.08396545e-01f,-8.31227675e-02f,+2.31559463e-02f,+1.72884405e-01f,
+2.15919465e-01f,+8.73903856e-02f,-1.53527111e-01f,+9.78390202e-02f,+2.34661371e-01f,
-1.02635697e-01f,+3.81178744e-02f,-1.54848844e-01f,+2.94387847e-01f,-2.24069238e-01f,
+4.08457845e-01f,-1.46851661e-02f,+9.16532636e-01f,+1.76154897e-01f,-7.97299296e-02f,
+1.48243129e-01f,+2.35510662e-01f,+2.16126040e-01f,+1.47145808e-01f,+4.49914485e-02f,
+2.19209224e-01f,+6.62756339e-02f,+1.31009832e-01f,-2.57335097e-01f,-1.84317768e-01f,
-1.40925214e-01f,+5.09373784e-01f,+1.06292248e-01f,-5.72255962e-02f,-4.85811010e-02f,
-8.08076635e-02f,+1.16262227e-01f,-4.40093204e-02f,+8.33931416e-02f,+7.39146098e-02f,
+1.92488953e-02f,+7.12383986e-02f,-6.74134433e-01f,-7.23331049e-02f,+4.81612720e-02f,
+5.21143638e-02f,+3.91489342e-02f,-5.31246305e-01f,-1.86026189e-02f,+2.55888164e-01f,
+1.06884778e-01f,+7.89764002e-02f,+7.01543167e-02f,+1.30991265e-01f,+1.74278840e-01f,
+2.14993447e-01f,+6.70835316e-01f,+1.48660541e-01f,-3.71811651e-02f,+2.29687318e-02f,
+1.55071184e-01f,+4.85650674e-02f,+5.56463376e-02f,-1.83050096e-01f,-7.63836950e-02f,
-3.16762060e-01f,-1.08880416e-01f,-1.34844193e-02f,+6.04262650e-02f,-1.70850053e-01f,
+2.89360225e-01f,+3.14159244e-01f,+6.53690398e-02f,+7.00354502e-02f,+1.72782704e-01f,
-9.16061550e-02f,-5.74071705e-01f,-1.64245978e-01f,+1.55920237e-01f,-2.97956169e-02f,
-1.01536915e-01f,+4.34545167e-02f,-5.28075509e-02f,+1.26532272e-01f,+1.96821555e-01f,
-1.30833432e-01f,+4.19124424e-01f,+1.55284405e-01f,-1.77982152e-01f,+1.88980505e-01f,
+1.15022443e-01f,-6.17654482e-03f,+2.88840413e-01f,+2.64014661e-01f,+1.78203791e-01f,
-1.68785542e-01f,+1.43840760e-01f,-1.57718182e-01f,-5.12464605e-02f,+1.92787889e-02f,
+1.99844137e-01f,+1.03107184e-01f,+8.27219523e-03f,+1.45889521e-01f,+2.61028975e-01f,
-2.21481770e-01f,+2.73363069e-02f,+1.73980333e-02f,+1.10487796e-01f,+2.91596591e-01f,
+8.02714288e-01f,+2.49797804e-03f,+2.21538976e-01f,-4.18808348e-02f,+4.45032865e-02f,
+2.19400182e-01f,+2.55324155e-01f,+2.73083985e-01f,+4.69150007e-01f,-1.84186716e-02f,
-3.26717384e-02f,+1.65196493e-01f,+1.87465176e-02f,-3.27151448e-01f,+1.02453055e-02f,
-3.22547331e-02f,-4.91824448e-02f,+7.54160807e-02f,-1.59625739e-01f,+2.88483977e-01f,
+2.43037045e-01f,-1.38513505e-01f,+1.99386433e-01f,+3.58427823e-01f,+1.18992187e-01f,
+1.72976688e-01f,+4.24325326e-03f,+1.70737028e-01f,+2.01115549e-01f,+1.71366975e-01f,
+1.03022210e-01f,+3.59392576e-02f,+9.86973941e-02f,+3.12062651e-02f,-9.27359536e-02f,
+2.45338723e-01f,-1.03064500e-01f,+3.96591611e-02f,+8.95993561e-02f,-4.43883128e-02f,
-4.91825715e-02f,+3.82647932e-01f,-4.78347018e-02f,+1.11474305e-01f,+1.13123335e-01f,
+5.99140823e-02f,-4.53992635e-01f,+7.40552127e-01f,+7.25135133e-02f,+1.21282404e-02f,
+1.87508725e-02f,+1.90182805e-01f,+2.24666208e-01f,+9.24366042e-02f,+2.18095005e-01f,
+1.97720125e-01f,+1.55385867e-01f,+4.21499312e-02f,+6.27501547e-01f,-9.89374220e-02f,
+2.12059200e-01f,-2.90118791e-02f,+1.92424767e-02f,+2.73304880e-01f,+2.20621079e-02f,
-8.57528374e-02f,+3.09259295e-01f,+2.73767978e-01f,+6.30733073e-01f,+2.04917073e-01f,
+2.98745900e-01f,-4.16037720e-03f,+8.04718062e-02f,-2.31407791e-01f,+3.55159938e-01f,
-4.91564535e-02f,+2.58463353e-01f,+5.52267358e-02f,-2.21562758e-01f,-2.09236711e-01f,
+4.79310863e-02f,-4.80572134e-02f,+8.19068328e-02f,+6.51965067e-02f,-3.18541452e-02f,
-4.94854636e-02f,-1.46246493e-01f,+2.04441503e-01f,+3.94926637e-01f,+2.51457635e-02f,
-1.29647441e-02f,-6.91543287e-03f,+3.84375632e-01f,-8.31667557e-02f,+5.61175868e-02f,
-6.25690222e-02f,+2.04893723e-01f,+5.08422144e-02f,+2.96984930e-02f,+4.06150907e-01f,
-6.05544448e-01f,-6.14535399e-02f,+2.22039938e-01f,+1.35645732e-01f,+1.34619623e-01f,
-6.70642704e-02f,+1.01383381e-01f,-8.59545767e-02f,+5.87354042e-02f,+1.48115098e-01f,
-1.46887721e-02f,+2.43390754e-01f,-2.28729248e-02f,+2.95910627e-01f,+1.08835861e-01f,
+2.15670541e-01f,-4.71396595e-01f,+4.59137738e-01f,+2.32735462e-02f,+2.25967601e-01f,
+8.22520256e-01f,+1.35887206e-01f,-7.05745220e-02f,-6.29770905e-02f,-7.64546096e-02f,
+2.16749504e-01f,+2.80265734e-02f,+6.12460822e-02f,+1.43874681e-03f,-1.40877694e-01f,
+2.58719753e-02f,+3.18255834e-02f,-7.97403827e-02f,+2.70476937e-01f,-1.69295564e-01f,
+3.25950012e-02f,+1.09960213e-01f,-5.12213521e-02f,+1.20216355e-01f,+2.98693836e-01f,
+2.69789547e-01f,-5.44999503e-02f,+2.96651442e-02f,+5.50824292e-02f,+4.79485542e-01f,
+1.91629548e-02f,+3.75488633e-03f,+9.93944854e-02f,+5.80029070e-01f,+7.02042226e-03f,
+1.63235947e-01f,+2.66144991e-01f,+1.92083314e-01f,+2.58321404e-01f,-1.07100189e-01f,
+1.81453928e-01f,-8.01282465e-01f,+1.37884691e-01f,-6.98249713e-02f,+1.19076766e-01f,
-6.40919447e-01f,+1.22633902e-02f,+7.82698672e-03f,+2.93916941e-01f,-4.26512837e-01f,
+2.32257366e-01f,+6.51335716e-02f,-1.21252341e-02f,+6.82809576e-02f,-1.99285354e-02f,
+4.05452028e-02f,-2.34515309e-01f,-8.28304663e-02f,+1.28074944e-01f,+8.05421844e-02f,
+6.36068135e-02f,-5.65973260e-02f,+6.18790686e-02f,+3.11720017e-02f,+1.21295743e-01f,
+1.27486348e-01f,+1.74473599e-01f,-2.75259495e-01f,-1.21085659e-01f,+1.66419312e-01f,
-9.03680921e-02f,-1.31845757e-01f,+3.72291505e-02f,+1.93183050e-01f,+7.94129372e-02f,
-1.26765206e-01f,+3.10300887e-01f,+1.15397098e-02f,-3.53046022e-02f,+1.55283451e-01f,
+9.06962380e-02f,-1.94932923e-01f,-2.91049212e-01f,+1.18131146e-01f,-2.65559796e-02f,
+4.43122312e-02f,-1.64326042e-01f,-2.08796859e-01f,-2.74983346e-01f,-1.28118932e-01f,
+1.40875295e-01f,+9.53663960e-02f,-1.17093846e-01f,-6.06630668e-02f,+3.10724396e-02f,
-2.20251754e-01f,-3.11103761e-02f,-1.82095505e-02f,-1.31849134e-02f,+1.47601828e-01f,
-6.32551089e-02f,+8.92784894e-02f,-1.71047952e-02f,+2.29630563e-02f,-1.58850208e-01f,
-2.62393579e-02f,+8.03230181e-02f,-6.78337663e-02f,-1.74721498e-02f,-6.18865341e-02f,
-1.22728854e-01f,+9.31291878e-02f,-1.35511890e-01f,-2.62828041e-02f,+4.44710702e-01f,
-1.44402564e-01f,+2.01201618e-01f,+2.74270065e-02f,+4.14569005e-02f,-3.25127579e-02f,
-1.61225155e-01f,-1.26616374e-01f,+4.96805422e-02f,+2.88958818e-01f,+2.61879951e-01f,
+1.19545594e-01f,+3.53272520e-02f,+1.88864619e-01f,-1.33392781e-01f,-1.70053944e-01f,
-1.23905957e-01f,+3.61143611e-02f,-1.64000556e-01f,-3.96018922e-02f,+1.01826131e-01f,
+1.19883366e-01f,-3.51481768e-03f,+6.86795935e-02f,+2.36345679e-02f,-2.46587340e-02f,
-4.11808267e-02f,+1.06699802e-01f,+5.74301602e-03f,+1.82500988e-01f,+8.74205753e-02f,
-1.08581066e-01f,+1.77273557e-01f,-1.14317827e-01f,-2.20748767e-01f,+1.29158780e-01f,
-8.81477166e-03f,+2.66813282e-02f,-9.38595235e-02f,+4.09130119e-02f,-9.19896066e-02f,
+3.65768433e-01f,+1.97312996e-01f,+3.26550640e-02f,+1.55754626e-01f,+3.67731929e-01f,
-6.95433095e-02f,+1.26845492e-02f,+2.47932732e-01f,+3.95733714e-02f,+1.39853796e-02f,
-3.34330678e-01f,-1.68998256e-01f,+6.83733299e-02f,+1.03830449e-01f,+3.10588460e-02f,
+6.91026673e-02f,+8.33306648e-03f,+3.17208236e-03f,-1.73273608e-01f,+9.89564061e-02f,
+2.27423295e-01f,+4.53228876e-02f,-1.60741452e-02f,+5.97690865e-02f,-6.53444324e-03f,
+2.29670666e-03f,-1.82311490e-01f,+9.64261442e-02f,+7.93796685e-03f,+1.80314705e-01f,
+5.80020361e-02f,+4.65986282e-02f,+3.81246448e-01f,+1.96242519e-02f,+1.89704057e-02f,
+3.98983732e-02f,-1.77985340e-01f,+2.08789892e-02f,-9.66052637e-02f,+1.38330311e-01f,
-3.25716466e-01f,-1.49351478e-01f,+3.32719713e-01f,+8.59729946e-02f,-3.68219763e-01f,
+1.03635587e-01f,+9.67973918e-02f,+6.22955710e-02f,-2.29284421e-01f,+1.14385232e-01f,
-7.92999044e-02f,+4.45347615e-02f,-2.88124327e-02f,+3.22449178e-01f,+1.18526950e-01f,
-4.84845378e-02f,-2.30998136e-02f,-1.18175924e-01f,+7.64144361e-02f,-1.13101006e-01f,
-1.06314994e-01f,-1.98980212e-01f,-9.50975642e-02f,+1.75353795e-01f,-6.89166784e-02f,
+2.84239613e-02f,+2.09201038e-01f,+6.55877171e-04f,-9.80310608e-03f,+1.09092079e-01f,
-1.49941802e-01f,+2.39771083e-02f,+1.08996965e-02f,-1.73501417e-01f,+1.17411599e-01f,
+1.71406522e-01f,-4.93516363e-02f,+2.56875485e-01f,+4.67987657e-02f,+5.16577139e-02f,
-1.33919612e-01f,+2.21562088e-01f,-1.20977879e-01f,+6.51711449e-02f,+1.45438612e-01f,
-1.06664374e-01f,+8.35894048e-02f,-1.14909291e-01f,+9.29126963e-02f,+1.37608767e-01f,
+1.18481144e-01f,-1.34145226e-02f,+6.51354268e-02f,+1.53088868e-01f,+1.05324626e-01f,
-1.31211668e-01f,+1.01955570e-02f,-2.23176166e-01f,+8.75481814e-02f,-1.09968580e-01f,
-9.55904350e-02f,-1.08830174e-02f,-8.91072825e-02f,+1.71369407e-02f,+1.68210914e-04f,
-1.19682111e-01f,+2.47623414e-01f,+7.84796625e-02f,+1.57179967e-01f,-1.05265141e-01f,
+4.70505059e-02f,+4.37280178e-01f,-1.46081954e-01f,+2.57261079e-02f,-5.57991005e-02f,
-2.24932909e-01f,-9.46371108e-02f,-8.41171145e-02f,-2.18433812e-02f,+3.18143591e-02f,
+4.64892536e-01f,+7.55533949e-02f,-6.15204275e-02f,-5.01874946e-02f,+1.70204893e-01f,
+7.04186037e-02f,-1.49742290e-02f,-2.53034085e-01f,+1.83190793e-01f,+3.30204815e-02f,
+2.29562834e-01f,-6.67986809e-04f,+9.14678797e-02f,+6.09572306e-02f,-1.87706858e-01f,
+4.39259522e-02f,-2.35321790e-01f,-4.18460369e-02f,-6.12498149e-02f,+5.49884662e-02f,
+3.00827742e-01f,-2.21620828e-01f,+3.66648078e-01f,+4.61374857e-02f,-1.12759753e-03f,
+4.86723967e-02f,+4.68342602e-02f,+1.37805238e-01f,+1.10106826e-01f,+1.21655017e-01f,
-1.93586037e-01f,-3.50193717e-02f,+2.88382862e-02f,-5.57625070e-02f,-1.09181821e-01f,
+4.53086831e-02f,-2.85104439e-02f,-9.67750251e-02f,-1.63940087e-01f,-1.74471319e-01f,
+2.46118680e-01f,+6.91119805e-02f,+3.72265816e-01f,+1.34102762e-01f,+8.82069692e-02f,
+4.29884344e-01f,-1.28719941e-01f,+1.56836659e-01f,-1.21267013e-01f,+1.63089812e-01f,
-1.88034903e-02f,-1.27313927e-01f,+1.60509229e-01f,-1.69269238e-02f,+3.35069686e-01f,
-1.88066334e-01f,+1.17737658e-01f,-2.65598089e-01f,-1.59098774e-01f,+3.89843792e-01f,
+2.81991251e-02f,-2.16967501e-02f,-5.88706918e-02f,+1.74576759e-01f,+8.81737322e-02f,
-5.83438054e-02f,-2.26708688e-02f,+5.40528409e-02f,+9.32170972e-02f,-6.76727947e-03f,
+2.77918894e-02f,-9.30431474e-04f,-1.90109283e-01f,-3.39092702e-01f,+3.23521554e-01f,
+1.71428829e-01f,+4.09669690e-02f,+1.25262469e-01f,+2.47388363e-01f,-2.26008415e-01f,
-5.75966062e-03f,+1.52640820e-01f,+1.87704474e-01f,-7.86281079e-02f,-9.80863646e-02f,
-2.71409582e-02f,+1.41691521e-01f,+3.57930332e-01f,-1.59940302e-01f,+1.24378644e-01f,
+3.45190167e-01f,-4.52467613e-02f,+9.97976288e-02f,-2.39086058e-02f,-1.58369616e-02f,
+3.59525323e-01f,-7.05484226e-02f,+4.87718619e-02f,+1.36231646e-01f,+3.36556360e-02f,
-1.11222528e-02f,-1.25869587e-01f,-1.59415901e-01f,+1.16961807e-01f,-4.91597503e-03f,
-9.86889470e-03f,+5.60976975e-02f,+5.17449938e-02f,+1.28876910e-01f,+1.21076301e-01f,
+4.59999740e-02f,+6.17046654e-02f,+6.62823915e-02f,-5.46772592e-02f,-8.42760652e-02f,
+1.75295115e-01f,+5.19631743e-01f,-1.59504086e-01f,-7.27032200e-02f,+2.77561426e-01f,
+3.03278421e-03f,+4.76344004e-02f,+1.01325028e-01f,+3.42567563e-01f,+2.33154912e-02f,
-2.99078766e-02f,+3.64461727e-02f,+1.58703551e-02f,-4.39025126e-02f,+1.65244117e-01f,
+1.91427827e-01f,-3.67511548e-02f,+2.64388975e-02f,+1.00807697e-01f,-4.06613620e-03f,
+2.63121575e-01f,-2.58651525e-01f,+3.38448659e-02f,-5.88747449e-02f,-2.19051130e-02f,
+1.30525753e-01f,-1.48021251e-01f,-1.66076511e-01f,+1.95528939e-01f,+1.97506398e-01f,
+3.29120979e-02f,-5.66679460e-04f,-1.05278648e-01f,+1.57369241e-01f,+1.79420084e-01f,
+1.37591977e-02f,-3.93843167e-02f,-8.32564570e-03f,-3.54496390e-02f,+8.20137337e-02f,
+1.34383468e-02f,+1.83365986e-01f,+1.14017531e-01f,-4.10124734e-02f,-3.21503170e-02f,
+8.02135170e-02f,+4.63976637e-02f,+8.45129341e-02f,-9.94540080e-02f,+1.28769070e-01f,
-4.67586219e-02f,-1.79182634e-01f,+1.15987450e-01f,+1.32648870e-01f,+2.46912614e-01f,
-9.56473053e-02f,+3.28092903e-01f,+1.18264705e-01f,+5.05633242e-02f,+4.54238504e-02f,
-6.24493062e-02f,-2.91960817e-02f,-2.29169801e-01f,+1.97015300e-01f,-6.89508095e-02f,
+4.02399432e-03f,+1.67739834e-03f,+2.62956560e-01f,+7.47875422e-02f,+1.66786402e-01f,
+1.11366518e-01f,+3.46784890e-02f,+8.60820636e-02f,-5.93002811e-02f,+7.32180998e-02f,
-1.05724670e-02f,-6.40372559e-02f,-9.27526131e-02f,+5.44476271e-01f,+1.93381414e-01f,
+9.91883129e-02f,+5.23307286e-02f,+4.19172794e-02f,+1.75050050e-01f,+2.02422217e-02f,
-1.35907438e-02f,+3.06751253e-03f,-1.38203084e-01f,+1.77307412e-01f,+2.34516487e-01f,
-5.89779438e-03f,+1.01759918e-01f,+2.25706343e-02f,-3.07181954e-01f,+1.03972442e-02f,
+1.09330416e-01f,+1.81354210e-02f,+7.97383338e-02f,-1.32494792e-01f,+2.32931133e-02f,
+3.27657670e-01f,-3.46331224e-02f,-2.16672242e-01f,-1.10123053e-01f,+1.77414790e-02f,
-1.78502481e-02f,+1.78951025e-01f,+1.53586969e-01f,-3.82953882e-02f,-1.01395547e-01f,
-1.26424223e-01f,+1.50403574e-01f,+1.46424636e-01f,-2.84446478e-02f,-7.95253217e-02f,
+1.12914838e-01f,+2.38529481e-02f,+1.34977736e-02f,+3.46703944e-03f,+5.75840520e-03f,
+1.58165619e-01f,+1.64115205e-02f,+1.10489130e-01f,+8.71874541e-02f,-8.42059478e-02f,
+1.77841738e-01f,-1.08743377e-01f,+1.63130045e-01f,-7.80376419e-02f,+1.50888503e-01f,
-2.58445907e-02f,+5.79327404e-01f,-7.45232403e-02f,+2.00156838e-01f,-1.30760577e-02f,
+1.37590632e-01f,+2.30524376e-01f,+2.75047511e-01f,+5.78530021e-02f,+4.68297824e-02f,
+1.17816754e-01f,-2.04539876e-02f,+1.17518164e-01f,+1.24753483e-01f,-2.29470595e-03f,
+5.02094865e-01f,-9.99401212e-02f,+1.38941973e-01f,+7.06817806e-02f,+8.22893158e-02f,
+1.41960010e-01f,-5.05019631e-03f,+1.97712462e-02f,+1.05044745e-01f,+1.59457661e-02f,
+1.08823381e-01f,-3.03823706e-02f,-5.37878163e-02f,-2.06545517e-01f,-4.85437065e-02f,
+1.19330987e-01f,+4.24198359e-02f,+6.54764697e-02f,+2.92226285e-01f,+8.43603313e-02f,
+2.37919256e-01f,+1.16413094e-01f,+1.64949328e-01f,-2.27921437e-02f,+1.62505373e-01f,
-7.35138133e-02f,-2.60064937e-03f,+8.54991302e-02f,+1.29552826e-01f,+2.17663608e-02f,
-1.82152450e-01f,+9.10207778e-02f,+2.78115273e-02f,+1.50102973e-01f,-7.80111626e-02f,
-9.82457325e-02f,-1.63618196e-02f,-1.69771925e-01f,+2.14405760e-01f,-3.66072655e-02f,
+5.72631322e-02f,-2.47018281e-02f,+1.40646785e-01f,+1.07499406e-01f,+2.75205046e-01f,
-1.62784725e-01f,+2.36286342e-01f,-2.40287334e-01f,+4.10008579e-02f,+5.80817387e-02f,
+1.71574622e-01f,-6.34253621e-02f,+3.73684019e-02f,+9.24628526e-02f,+2.40073815e-01f,
+1.26482621e-01f,+1.23502575e-02f,+1.40672550e-01f,+3.36688645e-02f,+1.70126949e-02f,
-4.62904684e-02f,+7.30352651e-04f,+9.22031775e-02f,+1.03374515e-02f,+3.08950156e-01f,
+1.03111789e-01f,-1.66376293e-01f,+2.24398062e-01f,+1.39785334e-01f,-1.49326436e-02f,
+1.50263235e-01f,+1.44170985e-01f,+1.58079177e-01f,+7.37254918e-02f,+9.62233096e-02f,
-5.15996031e-02f,-2.37667590e-01f,+3.27094167e-01f,-2.38919165e-02f,+9.68851447e-02f,
+2.13281461e-03f,+9.64316875e-02f,-6.28442541e-02f,-1.16787450e-02f,+2.45697200e-02f,
+7.41354600e-02f,+4.57264669e-02f,-6.19721040e-02f,+2.86341459e-02f,+1.00432076e-02f,
+3.77267376e-02f,+6.58442592e-03f,-7.42007047e-02f,+6.51464686e-02f,-3.76740023e-02f,
+2.06091136e-01f,+1.07345149e-01f,+1.05700828e-01f,+1.66006982e-02f,-2.78539378e-02f,
-7.90325776e-02f,+4.28950265e-02f,+1.62030280e-01f,+4.79017273e-02f,+9.55913514e-02f,
+3.14374850e-03f,+2.46174678e-01f,-3.04359403e-02f,-4.24412116e-02f,+6.87286556e-02f,
+1.26893297e-01f,+1.16042167e-01f,-2.18885034e-01f,-1.60113379e-01f,-1.92089342e-02f,
+1.50787178e-02f,-1.75923362e-01f,+8.81380737e-02f,+1.93881094e-01f,+9.56099257e-02f,
+8.92803073e-02f,-3.20773870e-02f,-1.76329061e-01f,+2.24556178e-02f,+7.50700152e-03f,
+1.83276594e-01f,-9.97391790e-02f,+9.11363810e-02f,+2.71797746e-01f,-5.00285216e-02f,
+1.67188719e-01f,+2.42522016e-01f,+5.23443818e-02f,+7.14145554e-03f,-1.33564606e-01f,
-2.88939983e-01f,+3.63636985e-02f,+1.86565697e-01f,+1.60243943e-01f,+2.10617051e-01f,
-2.57287584e-02f,+1.78671420e-01f,+3.31796527e-01f,-4.83404696e-02f,+1.01161338e-01f,
-1.61726281e-01f,-8.40488151e-02f,-8.40658620e-02f,-1.05762240e-02f,+3.99135947e-02f,
+1.96646869e-01f,+3.95446688e-01f,+1.71191674e-02f,+1.73809782e-01f,+5.69027402e-02f,
+6.34430274e-02f,-4.64326814e-02f,+3.35604735e-02f,+1.33502543e-01f,+1.07813679e-01f,
+7.69703612e-02f,+2.17295699e-02f,+1.03732862e-01f,-1.31595340e-02f,+4.25168015e-02f,
+2.07837820e-01f,+1.02384239e-01f,+4.73641381e-02f,+1.60070330e-01f,+1.70761526e-01f,
+1.10007398e-01f,+2.24810138e-01f,+6.73723593e-02f,+2.63390571e-01f,+1.93561479e-01f,
+1.43665314e-01f,-1.34283796e-01f,+8.05326644e-03f,+7.09383115e-02f,+4.09765244e-02f,
-1.04751281e-01f,+9.30234566e-02f,+7.26640671e-02f,+1.40899539e-01f,+9.67061613e-04f,
+2.68827468e-01f,-7.03054965e-02f,-4.47559729e-02f,-5.31074889e-02f,+2.75264055e-01f,
+2.27490380e-01f,+8.17021281e-02f,+7.94894695e-02f,+1.14277922e-01f,-6.73575341e-05f,
+4.72726002e-02f,+1.33982942e-01f,-1.51990369e-01f,-1.14540823e-01f,-6.72550797e-02f,
+1.01714872e-01f,+2.03863308e-01f,+4.62814420e-02f,-1.06345594e-01f,+1.44603893e-01f,
+6.76077902e-02f,+3.06772739e-02f,+1.42418548e-01f,-8.55102986e-02f,+4.60371412e-02f,
+3.72368917e-02f,+1.07443936e-01f,-9.20905918e-02f,+1.11737996e-01f,+2.43567321e-02f,
+1.90045223e-01f,+4.70471755e-02f,+2.65558530e-02f,+4.51916493e-02f,+1.09656595e-01f,
-1.43029168e-01f,-1.34891227e-01f,+1.33886427e-01f,+2.86638737e-02f,+2.24446151e-02f,
+2.02970117e-01f,+1.24924392e-01f,+1.34364098e-01f,+2.98748493e-01f,-1.00043742e-02f,
+1.56192079e-01f,+9.43107978e-02f,-5.61911203e-02f,-5.83942048e-02f,+1.81153417e-01f,
+3.05289805e-01f,+2.73042172e-01f,+7.28360265e-02f,+3.13548110e-02f,+1.28772408e-01f,
+2.17786416e-01f,+7.90789947e-02f,+7.35559240e-02f,-1.32502604e-03f,+1.23822466e-01f,
+1.58212826e-01f,+3.00295185e-02f,-2.79526144e-01f,-4.17654216e-03f,+1.44492760e-01f,
+2.02075969e-02f,+4.31906506e-02f,+1.97932228e-01f,+3.60704120e-03f,+1.67362511e-01f,
+1.88421056e-01f,+1.67217240e-01f,+4.35073189e-02f,-1.18781514e-01f,+3.61024678e-01f,
+1.59661949e-03f,-5.29819876e-02f,+3.83625478e-02f,+1.07360505e-01f,+9.69913304e-02f,
-7.26643484e-04f,+2.33259454e-01f,-5.46380393e-02f,+3.11702877e-01f,+6.55272007e-02f,
+1.51841938e-01f,-8.05846080e-02f,-6.82493821e-02f,+2.41576880e-01f,+4.75895293e-02f,
+9.56120610e-04f,+2.66247183e-01f,+2.09295407e-01f,+1.40485018e-01f,-7.37523437e-02f,
+6.55722320e-02f,+2.36959472e-01f,+6.57455623e-02f,+3.75484489e-02f,+5.63482121e-02f,
+1.83643624e-01f,-1.08948007e-01f,+1.05597861e-01f,+2.79933035e-01f,-2.37893488e-04f,
+4.79280279e-04f,-1.13203332e-01f,+8.04353729e-02f,+1.68405473e-01f,+1.84177607e-01f,
+1.00886807e-01f,+3.81500751e-01f,+1.61537945e-01f,+2.24233493e-02f,+4.92359884e-02f,
+6.06337935e-02f,+1.31521285e-01f,-8.15812722e-02f,+2.20840797e-01f,+3.50952372e-02f,
+8.15596431e-02f,-7.71317706e-02f,+1.03768535e-01f,+2.90438496e-02f,+1.32097915e-01f,
-1.95464611e-01f,+1.38554186e-01f,-3.92961726e-02f,-1.97850332e-01f,-6.51321635e-02f,
+1.93654880e-01f,+2.51744501e-03f,+1.06995776e-02f,+2.37640694e-01f,+7.90116638e-02f,
+1.11521594e-01f,-3.08649652e-02f,+2.35847682e-01f,-2.54967630e-01f,-1.51947349e-01f,
+7.01738941e-03f,-6.81655202e-03f,+1.06354058e-02f,+7.70373866e-02f,+8.07939544e-02f,
+4.42357026e-02f,+1.79699481e-01f,+6.61502853e-02f,+7.49982521e-02f,+1.33090809e-01f,
+2.05153480e-01f,+1.09934665e-01f,+1.04479842e-01f,+5.59811853e-02f,+6.44276664e-02f,
+4.47551720e-02f,+2.33978942e-01f,+1.80101827e-01f,+1.80489957e-01f,+7.45251551e-02f,
-2.32045129e-01f,+2.54742336e-02f,+1.63231716e-01f,-8.88137296e-02f,+1.66010022e-01f,
+2.12283984e-01f,+1.63287029e-01f,-7.95882866e-02f,+1.32103339e-01f,+1.25624120e-01f,
-5.18869348e-02f,+5.58585115e-02f,+1.16957836e-02f,-9.61641744e-02f,+1.62167564e-01f,
-2.42254813e-03f,-1.41964659e-01f,+1.18768014e-01f,+1.23230636e-01f,+1.31374478e-01f,
+3.46943468e-01f,+1.28935695e-01f,-9.50220600e-02f,+2.85909861e-01f,-7.55736679e-02f,
+6.94025010e-02f,+9.85482708e-02f,+1.16730273e-01f,+1.78486090e-02f,-1.57969460e-01f,
+1.33275792e-01f,-8.41906369e-02f,+2.32460871e-01f,+1.31795868e-01f,-2.49940362e-02f,
-9.04676542e-02f,+1.69139206e-01f,+2.04700708e-01f,+2.86162440e-02f,+3.03327084e-01f,
-7.60118365e-02f,-8.25553164e-02f,+3.06785181e-02f,-5.86103648e-03f,+1.75755937e-02f,
+2.87142217e-01f,+1.06537759e-01f,-4.55647558e-02f,+2.00326040e-01f,+7.98149407e-02f,
-1.56028718e-01f,+3.42228822e-02f,+3.40118051e-01f,+2.69583881e-01f,+2.05406487e-01f,
+4.96489964e-02f,-2.21115295e-02f,+3.43355909e-02f,+1.81100324e-01f,+2.03305483e-01f,
+6.95189387e-02f,+1.19097032e-01f,+4.17496972e-02f,+1.61935553e-01f,+1.37170866e-01f,
-9.30208042e-02f,+6.50474429e-02f,+1.36429772e-01f,+1.04640760e-01f,+8.98045748e-02f,
+6.54365569e-02f,+1.36607379e-01f,-4.65827659e-02f,+1.88692175e-02f,-9.09564197e-02f,
+1.61978051e-01f,+1.66962519e-01f,+7.02464357e-02f,+2.34169796e-01f,+9.32306200e-02f,
+5.49993590e-02f,+1.29213706e-01f,+5.45744225e-02f,+5.91990650e-02f,+1.64478168e-01f,
-2.96120763e-01f,+2.08689436e-01f,+3.66928168e-02f,+9.22060683e-02f,+6.52651116e-02f,
-1.33470133e-01f,+9.74756926e-02f,+9.68868136e-02f,+1.95536748e-01f,+2.25222602e-01f,
+1.61399469e-01f,+4.64227647e-02f,-7.90800005e-02f,+1.73239768e-01f,-6.24317266e-02f,
+1.47329241e-01f,+3.22844237e-02f,-3.76614835e-03f,+2.46938448e-02f,-4.28168848e-02f,
+6.83627874e-02f,+1.87186196e-01f,+1.21010058e-01f,+8.33315030e-02f,-3.89735540e-03f,
-7.06760734e-02f,+2.12362289e-01f,+9.27511677e-02f,+8.59647989e-02f,+2.61904567e-01f,
+8.75036642e-02f,+1.50529027e-01f,-1.17491797e-01f,-5.33946091e-03f,+7.73034543e-02f,
+1.94617823e-01f,-2.86151499e-01f,+2.51549333e-01f,+2.27001339e-01f,-9.82907135e-03f,
-2.10653571e-03f,+1.02059864e-01f,+2.49279905e-02f,+3.53283882e-02f,-5.47079034e-02f,
+1.55956699e-02f,+1.64239276e-02f,+1.65375054e-01f,+2.76343822e-01f,+1.24607086e-01f,
+7.30409771e-02f,+1.37756959e-01f,+2.76591390e-01f,-3.52609251e-03f,+2.60647535e-01f,
-2.27129027e-01f,+4.25668687e-01f,+3.39400470e-02f,+6.74479008e-02f,-8.43611881e-02f,
+4.28609608e-04f,-8.88292640e-02f,-2.86499839e-02f,+8.24673027e-02f,+1.29448622e-01f,
+3.41622561e-01f,+1.22332163e-01f,+4.19513807e-02f,+3.02791089e-01f,+1.78792015e-01f,
-1.60051644e-01f,+7.97831863e-02f,+2.22904775e-02f,+1.09248586e-01f,-2.94003934e-01f,
+2.21832320e-01f,+1.65918335e-01f,+2.46561989e-02f,-5.20179830e-02f,-1.75103679e-01f,
+2.29059830e-02f,-8.97980183e-02f,+3.18046480e-01f,+2.15721548e-01f,-1.05340376e-01f,
-4.60993610e-02f,+6.88630566e-02f,-4.74174768e-02f,-1.37090281e-01f,+1.28964901e-01f,
+1.58636525e-01f,-1.30104227e-02f,-7.96187818e-02f,+2.34716795e-02f,+3.22403461e-02f,
-1.13377348e-01f,+1.30928054e-01f,+3.18745561e-02f,+1.85863212e-01f,-2.52086639e-01f,
+1.20647222e-01f,+3.20178866e-02f,+1.60840005e-01f,-4.21841592e-02f,+1.41110823e-01f,
+2.59741902e-01f,+4.68453541e-02f,-1.76643450e-02f,+1.64241381e-02f,+1.83476567e-01f,
+5.28468983e-03f,-8.88913050e-02f,+5.69223799e-02f,+5.91098815e-02f,-1.30547985e-01f,
-1.12657525e-01f,-1.11923851e-01f,+1.86517254e-01f,-1.93784330e-02f,+5.31267859e-02f,
-1.82268880e-02f,+3.46910432e-02f,+3.55262384e-02f,-1.72381207e-01f,-2.95737050e-02f,
+3.60644832e-02f,+3.85022789e-01f,-1.43784462e-02f,+2.35420719e-01f,-1.32542178e-01f,
+2.57006019e-01f,+3.26405396e-03f,-1.64647579e-01f,-5.53972460e-02f,-5.51870130e-02f,
+6.77462071e-02f,+6.87754601e-02f,-9.40920636e-02f,+6.98416829e-02f,+1.77671562e-03f,
-1.53457819e-04f,+2.43046395e-02f,-8.60701576e-02f,+2.10239023e-01f,+1.58000290e-01f,
+1.55136436e-01f,+2.41417959e-01f,+1.82256997e-01f,+1.02302469e-01f,+2.51652375e-02f,
+2.47949257e-01f,+8.12844038e-02f,+8.32624063e-02f,+4.71250229e-02f,+6.16794005e-02f,
+1.02344034e-02f,+1.05155043e-01f,+7.95759354e-03f,+5.46341166e-02f,-1.93972930e-01f,
-6.71219006e-02f,+8.27693269e-02f,-1.32834941e-01f,+4.83182706e-02f,-5.43210097e-02f,
-6.99331164e-02f,+1.76672637e-01f,-6.98439106e-02f,-1.24273218e-01f,+1.88532501e-01f,
+8.68561193e-02f,-1.14803754e-01f,+9.00240541e-02f,+7.47914761e-02f,+1.24439243e-02f,
+3.60948481e-02f,+1.14028407e-02f,-1.59745917e-01f,-3.25843655e-02f,+3.31708789e-02f,
-2.40118355e-02f,+1.98727712e-01f,+1.56816587e-01f,-2.08775252e-01f,-6.93547949e-02f,
+1.21575139e-01f,+1.85974702e-01f,+6.65187910e-02f,-1.12829963e-02f,+1.08971046e-02f,
+1.87497392e-01f,+1.26301631e-01f,+2.55235117e-02f,+1.95581988e-01f,+1.60703093e-01f,
+1.47679076e-01f,-2.58422941e-01f,+2.91065067e-01f,+1.07560813e-01f,+9.96641964e-02f,
-4.20417152e-02f,+1.77314710e-02f,-1.12171158e-01f,+3.58105674e-02f,+2.18612775e-01f,
+2.38036475e-04f,+1.16474867e-01f,+2.77494460e-01f,-6.09083986e-03f,+9.23573002e-02f,
+1.87373925e-02f,+1.61070526e-01f,+1.52843267e-01f,+1.11529052e-01f,+1.46089450e-01f,
+1.86646610e-01f,-1.64577872e-01f,+1.58796310e-02f,-2.21595857e-02f,+2.81831712e-01f,
-1.46863107e-02f,+3.06892325e-03f,+1.26334623e-01f,-5.93609586e-02f,+1.02371596e-01f,
+1.80508658e-01f,+4.40692790e-02f,+1.78988799e-01f,-1.82341069e-01f,+7.30949342e-02f,
+3.26099962e-01f,+1.04796298e-01f,+1.37795180e-01f,+1.96889326e-01f,-3.93171562e-03f,
+9.94078740e-02f,-5.86808957e-02f,+2.15473920e-01f,-2.18862563e-01f,-2.79972941e-01f,
-4.82000485e-02f,-6.95190802e-02f,-6.75735846e-02f,+2.12131053e-01f,+1.57198608e-01f,
+2.27165088e-01f,+2.49678902e-02f,+3.86878818e-01f,+5.76435179e-02f,-2.18479753e-01f,
+1.85160369e-01f,+5.47810569e-02f,+4.86466102e-02f,-4.12918739e-02f,-2.77326796e-02f,
-9.28950906e-02f,-2.05012970e-02f,-1.03385001e-01f,-2.00649500e-02f,-1.02968529e-01f,
+2.41602212e-01f,+8.33374336e-02f,+2.03076676e-01f,-2.23849401e-01f,-2.15839241e-02f,
-6.60052299e-02f,+9.87331271e-02f,+1.26701426e-02f,+3.24359126e-02f,+8.98922533e-02f,
-1.09980203e-01f,+6.53953478e-02f,+3.79445119e-04f,+1.93720788e-01f,-2.12895989e-01f,
+9.53150094e-02f,-3.99396308e-02f,-1.25683039e-01f,+7.06542144e-03f,-2.99285114e-01f,
+3.81898688e-04f,+1.30241036e-01f,+1.26948714e-01f,+1.29417524e-01f,+3.67837995e-02f,
-1.04915611e-01f,-1.70026004e-01f,+1.36984155e-01f,-2.68619865e-01f,-1.22658066e-01f,
-2.12074593e-01f,+4.57675382e-02f,+9.63917375e-02f,+6.74390867e-02f,-7.74751902e-02f,
+3.54421705e-01f,-1.06241137e-01f,-1.00768566e-01f,+1.24750987e-01f,+6.35615140e-02f,
+7.71449413e-03f,-1.07810326e-01f,+2.09412016e-02f,+9.58245844e-02f,+2.48448551e-02f,
+2.40160562e-02f,-9.13757905e-02f,+2.35411182e-01f,-4.81085852e-02f,-6.35103062e-02f,
-2.11941786e-02f,+1.73453957e-01f,-9.43986028e-02f,+4.64970656e-02f,-2.34823823e-02f,
+2.76132915e-02f,+2.33550742e-02f,-1.26727924e-01f,+2.41356388e-01f,+1.08108006e-01f,
-1.69644952e-01f,+8.07971582e-02f,-1.52300494e-02f,-3.85945104e-02f,-1.80593804e-01f,
+1.52273417e-01f,-1.18365496e-01f,+2.56581306e-01f,-1.76050901e-01f,+3.29912174e-03f,
-8.74152035e-02f,+1.88536033e-01f,+3.77971716e-02f,-8.73045400e-02f,+5.50878644e-02f,
-1.50341883e-01f,-1.07250154e-01f,+9.43489149e-02f,+1.29216328e-01f,+1.09658003e-01f,
+2.90041924e-01f,-2.72470385e-01f,+1.43991008e-01f,-2.51705557e-01f,+5.70796542e-02f,
+7.63040707e-02f,+2.38489881e-02f,-2.21198991e-01f,+2.58947998e-01f,+1.02320887e-01f,
+6.26193359e-02f,+1.85391083e-01f,+2.91308582e-01f,-4.71873805e-02f,-6.91189617e-02f,
+1.27311885e-01f,+8.36540833e-02f,-8.94568488e-02f,-8.54957774e-02f,-1.11217238e-01f,
+1.40417024e-01f,+2.38451794e-01f,-6.03695773e-02f,+5.28250337e-02f,+9.42074060e-02f,
-1.50166899e-02f,+6.41324148e-02f,+6.73971921e-02f,+7.22301081e-02f,+4.41316098e-01f,
+2.88734734e-01f,-6.26996234e-02f,+2.08430052e-01f,+9.23100561e-02f,+4.71384749e-02f,
-1.89996377e-01f,+1.99823409e-01f,+9.02435631e-02f,-1.10507801e-01f,-2.50199080e-01f,
+4.61733669e-01f,+1.19471982e-01f,-4.12182771e-02f,-3.05703562e-02f,+5.85116446e-03f,
+1.14062224e-02f,-5.35874963e-02f,+1.75594285e-01f,-3.72793972e-02f,+1.81461811e-01f,
-8.23921040e-02f,-1.34910718e-02f,+4.12270539e-02f,+2.80759782e-02f,-1.78583935e-02f,
-9.44679007e-02f,-4.90462184e-02f,-2.18620095e-02f,-4.85408865e-02f,+9.78047922e-02f,
+4.15059887e-02f,-2.01734379e-02f,+4.18164469e-02f,+1.75862893e-01f,-7.34863579e-02f,
+2.56533325e-01f,-1.09401934e-01f,-1.60515383e-01f,+2.37039477e-01f,-9.72509980e-02f,
-1.34488875e-02f,-2.66856011e-02f,-7.45066488e-03f,+7.59501830e-02f,-1.89046636e-01f,
+1.26080662e-01f,+7.92963803e-02f,-2.28334162e-02f,+2.38321409e-01f,+1.28881887e-01f,
+7.17698112e-02f,-2.80534863e-01f,-2.17868373e-01f,+3.95724885e-02f,-2.08377421e-01f,
+7.40735531e-02f,+2.15101093e-01f,+3.76113690e-02f,+5.27527183e-02f,+7.91828334e-02f,
+1.67284086e-02f,+8.15086886e-02f,+6.31094724e-02f,-1.07795984e-01f,+1.14912219e-01f,
+1.06711827e-01f,+6.01659752e-02f,-5.35651445e-02f,+6.14545159e-02f,+1.48291245e-01f,
+1.20833918e-01f,-3.63529064e-02f,-6.35194853e-02f,+5.25521003e-02f,-3.21065672e-02f,
+1.82461724e-01f,+1.37090236e-02f,+3.39878112e-01f,+2.88644596e-03f,-2.76351292e-02f,
-3.07878628e-02f,+6.06004894e-02f,-4.14510351e-03f,+3.72943997e-01f,+1.02718920e-01f,
-5.03419712e-02f,+2.02106148e-01f,+1.49965689e-01f,+5.25585301e-02f,+6.26461431e-02f,
-6.90897554e-02f,-4.34763990e-02f,+9.04009417e-02f,-6.74729124e-02f,-1.47675082e-01f,
+1.97498247e-01f,-4.49926332e-02f,+1.11094192e-01f,+8.51491094e-02f,+7.16546178e-02f,
+1.09197125e-01f,-1.54501989e-01f,+5.12321219e-02f,+1.13586923e-02f,-3.72945257e-02f,
+4.43904161e-01f,+1.11631885e-01f,+1.26629680e-01f,+4.69429009e-02f,+3.43092114e-01f,
+3.35604161e-01f,+3.93331982e-02f,+2.19142884e-01f,+7.31586367e-02f,+2.14840695e-01f,
-6.83193281e-03f,-1.22782402e-01f,-1.62004218e-01f,+1.41084120e-01f,+1.30103856e-01f,
+4.17778611e-01f,-7.20639899e-03f,-1.57180559e-02f,-2.30085731e-01f,+2.12896778e-03f,
+1.31349906e-01f,-3.26153696e-01f,+3.79521735e-02f,-1.07494727e-01f,+1.30531499e-02f,
+1.22631863e-01f,+1.42787412e-01f,+8.10135379e-02f,-1.71164408e-01f,+1.68797925e-01f,
+2.07805008e-01f,+1.72642872e-01f,+2.01006547e-01f,+4.82126251e-02f,-4.01018448e-02f,
-7.08113760e-02f,-8.44794384e-04f,+2.98190653e-01f,+1.63276881e-01f,+6.16931915e-01f,
+2.12331057e-01f,+1.07253507e-01f,+3.30960333e-01f,+1.36464253e-01f,+3.57751667e-01f,
-2.15806618e-01f,+1.58704206e-01f,+6.30899817e-02f,+2.27184474e-01f,+1.80336833e-01f,
-2.21717462e-01f,+2.99886297e-02f,-1.17625082e-02f,+3.84487271e-01f,-1.94181815e-01f,
+5.50093828e-04f,-2.23172352e-01f,+3.48974168e-01f,-1.10216878e-01f,+1.14705242e-01f,
+2.15965226e-01f,-3.89878154e-02f,-6.80303276e-02f,-1.95532665e-01f,+2.90420771e-01f,
+1.63233489e-01f,-1.06220715e-01f,+6.06726818e-02f,-5.95881231e-02f,+4.64777611e-02f,
+6.06956966e-02f,-7.32435808e-02f,-2.08071321e-01f,+2.93777697e-02f,+8.65777135e-02f,
+9.61875319e-02f,-1.59873337e-01f,+1.95218772e-01f,+9.32015032e-02f,+2.25740567e-01f,
-9.97195840e-02f,-1.18198268e-01f,+5.72953224e-02f,+3.30364406e-02f,+1.05933100e-01f,
-1.07829832e-01f,+3.20288807e-01f,+5.16161602e-03f,+2.35586509e-01f,+2.01781288e-01f,
-2.92039737e-02f,+2.55325556e-01f,+5.38878322e-01f,+1.37833446e-01f,+4.96033840e-02f,
+1.37200663e-02f,-3.47381784e-03f,+5.14718778e-02f,+1.50000930e-01f,+3.20952475e-01f,
+9.88148376e-02f,-7.06146955e-02f,+8.58701319e-02f,+1.79303922e-02f,-1.38955057e-01f,
+3.18011671e-01f,+6.60230145e-02f,-6.12295531e-02f,+2.00521410e-01f,+7.10508600e-02f,
+3.48858505e-01f,+4.80669476e-02f,-2.22195834e-01f,+3.09633128e-02f,-9.41489339e-02f,
-1.03967629e-01f,+2.40303539e-02f,+1.46235272e-01f,+2.50465125e-02f,-1.20495863e-01f,
+1.58829778e-01f,+1.32120371e-01f,+1.57930553e-01f,+2.09816061e-02f,+1.83516234e-01f,
+1.51955023e-01f,-9.16681960e-02f,-5.38639091e-02f,-2.46609300e-01f,-1.26756594e-01f,
+1.49165811e-02f,+2.22783670e-01f,-6.39200956e-02f,+2.24172801e-01f,+1.55363247e-01f,
+3.14582944e-01f,+2.50429273e-01f,+1.41725242e-01f,-1.20068258e-02f,+1.72510251e-01f,
-5.04445061e-02f,+2.77374566e-01f,+2.61030272e-02f,+1.51733443e-01f,+9.40123573e-02f,
-3.06265503e-02f,-1.94110781e-01f,+1.95482045e-01f,+1.12970792e-01f,+3.76165092e-01f,
-2.13426933e-01f,+2.84237772e-01f,+1.66088462e-01f,+2.99367756e-01f,+4.58259359e-02f,
+1.60380065e-01f,+1.87262058e-01f,-3.35105546e-02f,+4.05946150e-02f,+1.75950453e-01f,
-2.65288353e-01f,+2.24560916e-01f,+5.63902268e-03f,+6.40391037e-02f,+1.21854253e-01f,
+7.29939342e-02f,-5.44878989e-02f,+6.26415610e-02f,+5.80557920e-02f,+1.38360620e-01f,
-4.71510962e-02f,+6.40166700e-02f,+1.46104276e-01f,+3.12573940e-01f,-5.32560656e-03f,
+8.89462680e-02f,+2.64780670e-01f,-7.55624473e-02f,-1.43450014e-02f,+2.22477198e-01f,
-9.14260671e-02f,+3.72830033e-01f,+3.91841047e-02f,+1.99989989e-01f,+2.96579272e-01f,
+1.84655219e-01f,-8.43389258e-02f,+5.26115438e-03f,-1.39165044e-01f,+1.82664827e-01f,
-3.45077068e-02f,+1.52447984e-01f,-5.10633625e-02f,+1.23939231e-01f,+2.76424866e-02f,
+7.26364106e-02f,+8.48879442e-02f,+7.76928440e-02f,+1.16369285e-01f,+2.60618497e-02f,
+9.38867033e-02f,-1.72352031e-01f,-1.12337023e-01f,-8.06597248e-02f,+2.01018937e-02f,
+1.76822856e-01f,-4.20209728e-02f,-2.27239743e-01f,+1.89345345e-01f,+7.88541064e-02f,
-1.79113120e-01f,+3.12488437e-01f,+5.14938124e-02f,-3.92256584e-03f,+1.83038056e-01f,
-2.95431882e-01f,-6.51999004e-03f,+2.47057572e-01f,+3.56377482e-01f,-8.72861892e-02f,
-1.39480680e-01f,+3.33990812e-01f,-1.44791365e-01f,+2.61924975e-02f,+1.32276699e-01f,
+2.10914105e-01f,+3.61845434e-01f,+6.32471368e-02f,+4.95029753e-03f,+2.26198062e-01f,
+2.65019964e-02f,+1.46631807e-01f,+1.00318432e-01f,-2.73653328e-01f,-7.87496474e-03f,
-1.20234475e-01f,-5.09922840e-02f,+3.69558297e-02f,+8.95302966e-02f,-1.58526123e-01f,
+7.02910572e-02f,+4.46732603e-02f,+1.92282856e-01f,+3.37948278e-02f,+1.18394293e-01f,
+5.51939709e-03f,+1.90207049e-01f,+9.33153927e-02f,+3.16440612e-02f,-1.56868577e-01f,
-3.96589423e-03f,+8.41275901e-02f,+1.16156414e-01f,-3.56785879e-02f,+4.95506600e-02f,
+4.19488810e-02f,-8.82828981e-03f,-1.80213526e-01f,+2.77007848e-01f,+1.25948295e-01f,
+1.45899534e-01f,+8.55540708e-02f,-3.77824157e-02f,+1.98729932e-01f,+4.02680114e-02f,
-8.50009471e-02f,-4.79645692e-02f,+1.08218431e-01f,+1.42078534e-01f,+1.26229882e-01f,
+1.15906455e-01f,+2.82044977e-01f,+1.06935315e-01f,-7.24146366e-02f,+4.16150279e-02f,
-3.39404568e-02f,-7.21960068e-02f,+1.28365189e-01f,-1.90148771e-01f,-6.18243068e-02f,
+1.20087497e-01f,-3.78438756e-02f,+3.66587238e-03f,+1.10702608e-02f,+6.69803172e-02f,
+4.08396274e-02f,+3.69912907e-02f,-4.84830439e-02f,-7.26455897e-02f,-9.88306180e-02f,
+8.23455900e-02f,+1.41184032e-01f,-1.08250134e-01f,+5.84541634e-02f,+2.25741297e-01f,
-9.26591735e-03f,-6.38520718e-02f,-4.42818888e-02f,-3.33310701e-02f,+3.04404259e-01f,
+1.26584500e-01f,-6.99481834e-03f,+1.24882609e-01f,+5.27634025e-02f,+9.00873393e-02f,
-6.09566532e-02f,-2.23610282e-01f,+2.23318696e-01f,-5.00422977e-02f,+5.67057393e-02f,
-1.81612059e-01f,+9.91185755e-02f,+2.36235578e-02f,-1.92582950e-01f,+1.62053287e-01f,
+1.94647163e-02f,+7.47940466e-02f,-1.15923963e-01f,-2.55164020e-02f,+1.49284944e-01f,
+1.28375962e-01f,+4.68910709e-02f,-1.32446811e-01f,-6.10782057e-02f,+1.83850557e-01f,
+9.50188190e-02f,-7.28423372e-02f,-7.61186108e-02f,-1.96671873e-01f,+1.52120501e-01f,
+1.49681391e-02f,+2.06449851e-01f,+9.36016217e-02f,-4.25544530e-02f,+1.60193250e-01f,
+2.80406684e-01f,-1.26352623e-01f,-4.85511161e-02f,-1.66830897e-01f,-2.66215712e-01f,
+8.13467875e-02f,-1.76283624e-03f,+8.86702165e-02f,+5.99887781e-02f,+1.57070577e-01f,
+5.88318110e-02f,+2.62063909e-02f,-3.63908932e-02f,-7.93338418e-02f,+5.00486828e-02f,
+1.71370104e-01f,-5.19639440e-03f,+7.02783316e-02f,+1.93286419e-01f,-2.26760413e-02f,
+6.14851303e-02f,+9.39436331e-02f,-1.28506660e-01f,+8.40939060e-02f,+8.03846717e-02f,
-1.53666968e-02f,-1.75027862e-01f,-5.07315882e-02f,+1.48879603e-01f,-1.51471058e-02f,
-2.40781233e-01f,-1.92881934e-02f,+2.74246968e-02f,+1.38761401e-01f,+1.03011206e-01f,
+4.69932333e-02f,+1.87033072e-01f,-1.00102007e-01f,-1.08442456e-01f,-5.76261012e-03f,
-7.02382177e-02f,-3.00884421e-04f,+9.09064934e-02f,-1.77929565e-01f,-3.41988839e-02f,
+6.64260760e-02f,+6.46506399e-02f,+2.92607069e-01f,+5.55431210e-02f,+1.47166654e-01f,
-2.41648853e-02f,+9.28240791e-02f,+9.88849849e-02f,+3.44241261e-01f,+8.72874632e-02f,
-1.40474439e-01f,+2.39224747e-01f,-1.88114978e-02f,+1.62693635e-01f,+2.04076916e-01f,
+1.21024773e-01f,-1.15557782e-01f,+7.57481903e-02f,+1.75766751e-01f,+5.34514189e-02f,
+8.28144178e-02f,+6.56480342e-02f,-5.29299863e-02f,+1.83708116e-01f,+5.03855757e-04f,
+4.50729467e-02f,+2.02375725e-01f,-1.13926955e-01f,+2.57218301e-01f,+6.26665428e-02f,
+1.01667561e-01f,-6.04694374e-02f,-4.52703126e-02f,+7.30002075e-02f,-4.98791300e-02f,
-1.85036540e-01f,-1.60870329e-01f,+1.76008955e-01f,+2.12906413e-02f,-6.42035827e-02f,
-6.08413443e-02f,+6.78665265e-02f,+9.13283303e-02f,+1.85238384e-02f,-1.61738127e-01f,
+2.26459354e-02f,-1.54313549e-01f,+9.15203914e-02f,+2.25559458e-01f,-2.82493502e-01f,
+3.32421988e-01f,+1.46236792e-01f,+1.58901632e-01f,-3.90664786e-02f,+1.54447379e-02f,
+1.09028451e-01f,-3.05391084e-02f,+4.84246761e-02f,+5.62583059e-02f,-1.68533530e-02f,
+5.09738922e-02f,+5.83643503e-02f,-1.89820439e-01f,+4.65955287e-02f,+2.27739766e-01f,
+1.02389991e-01f,+1.08959727e-01f,-4.51837331e-02f,-2.28534807e-02f,+5.71323931e-02f,
-4.02017795e-02f,-1.19199909e-01f,-5.34823909e-02f,+2.57134318e-01f,+2.45943703e-02f,
-3.63472477e-02f,+1.12708561e-01f,-2.02666759e-03f,+2.92953886e-02f,+3.51550207e-02f,
-1.23818368e-01f,-1.23893760e-01f,-6.77868156e-05f,-9.34628621e-02f,+1.57691725e-02f,
-5.57636768e-02f,+1.12540111e-01f,+3.45958509e-02f,+1.92281697e-02f,+2.79287640e-02f,
-1.51131479e-02f,+6.17599711e-02f,-7.56000914e-03f,-1.00901663e-01f,-3.62582877e-02f,
-1.82854325e-01f,-1.37519926e-01f,-1.11940503e-02f,+5.41593321e-02f,-6.34150058e-02f,
-3.07365954e-02f,-9.64606032e-02f,-1.20607495e-01f,+2.19975516e-01f,+1.48785822e-02f,
+5.16877277e-03f,-1.27416626e-02f,+2.17064768e-01f,-2.19577011e-02f,+1.03241377e-01f,
+1.03996560e-01f,+1.04849778e-01f,+7.02931508e-02f,-7.84802139e-02f,+6.21581227e-02f,
+7.39496425e-02f,-1.06030628e-01f,+1.69829689e-02f,-6.40606880e-02f,+6.74175248e-02f,
-1.32983565e-01f,-1.98311098e-02f,-5.38675785e-02f,+1.01195611e-01f,-2.15454996e-01f,
+5.05526550e-02f,-1.06788933e-01f,-3.73289175e-02f,-4.10597958e-02f,+7.52644986e-02f,
-1.03946321e-01f,+3.37370224e-02f,-1.44077111e-02f,+9.16466266e-02f,+2.19123632e-01f,
+1.52628005e-01f,-3.88370790e-02f,-6.49588257e-02f,-5.17310873e-02f,-7.87363350e-02f,
+3.29759382e-02f,-9.43049788e-02f,+1.64750263e-01f,+6.34689927e-02f,+2.11807694e-02f,
+1.90611169e-01f,-4.95616533e-02f,+4.14953679e-02f,+1.76890835e-01f,+3.58343869e-01f,
+6.22247159e-02f,+1.06984757e-01f,+1.58051729e-01f,+9.43472460e-02f,-6.67556673e-02f,
+1.43517762e-01f,-9.10290610e-03f,-1.68396309e-01f,-1.77603468e-01f,-5.48596196e-02f,
+1.10089406e-01f,-5.33340946e-02f,+2.32374877e-01f,-5.60659319e-02f,+2.11638063e-01f,
+6.87893406e-02f,+6.27464429e-02f,-1.95356738e-02f,+1.37293994e-01f,+1.59560338e-01f,
-2.70804316e-01f,+8.82339776e-02f,+3.29480588e-01f,+2.66100734e-01f,-2.63158203e-04f,
-1.84950419e-02f,-1.08742423e-01f,-1.20759513e-02f,+1.92185506e-01f,-1.32744415e-02f,
+1.20731115e-01f,+5.16178273e-02f,+1.65153161e-01f,+1.49263263e-01f,+9.19954386e-03f,
-4.30561490e-02f,+7.42266625e-02f,+6.33566082e-02f,+1.85311828e-02f,+6.85481727e-02f,
-4.98297065e-02f,+3.05943526e-02f,+1.20669074e-01f,+1.51646376e-01f,-1.86802652e-02f,
+1.31715804e-01f,+9.12308767e-02f,+1.41972393e-01f,-9.34434831e-02f,-1.55293778e-01f,
+1.19541667e-01f,+6.59701079e-02f,-9.64145884e-02f,+6.39459267e-02f,+3.59524675e-02f,
-7.10694259e-03f,+2.27841213e-01f,+6.31113276e-02f,+8.99700671e-02f,+2.03289792e-01f,
+1.60345975e-02f,-1.08878769e-03f,-1.83592170e-01f,+9.88778546e-02f,+4.92724441e-02f,
-2.01976653e-02f,-1.68979585e-01f,+9.30849686e-02f,+8.67796987e-02f,+5.93913570e-02f,
-8.96111801e-02f,+1.97419837e-01f,+8.40213895e-02f,+1.38427764e-01f,-1.96550749e-02f,
-2.78510060e-02f,+9.56762284e-02f,-8.93393829e-02f,-3.07469927e-02f,+5.34047075e-02f,
-1.35615803e-02f,-2.15869602e-02f,+2.99687177e-01f,+6.47772625e-02f,+5.42730466e-02f,
+1.03563264e-01f,+1.23917513e-01f,+1.11472145e-01f,+2.94313636e-02f,-1.22114077e-01f,
+1.42341688e-01f,+2.28865985e-02f,+1.56151459e-01f,+5.19464724e-02f,-1.40076488e-01f,
-5.47709204e-02f,+4.40299958e-02f,+5.49547300e-02f,+1.49757057e-01f,-1.83747962e-01f,
+1.33873567e-01f,-8.66837353e-02f,-1.93217732e-02f,-6.60917759e-02f,+2.38960255e-02f,
+1.11248503e-02f,+1.34305418e-01f,+3.07462011e-02f,+2.95792669e-01f,+8.37365985e-02f,
+4.79475483e-02f,+1.40570655e-01f,+7.77894706e-02f,+9.60957408e-02f,+1.42285958e-01f,
+2.75180228e-02f,+1.21637776e-01f,+4.18988019e-02f,-6.57743961e-02f,-1.17856108e-01f,
+2.99888309e-02f,+1.47429436e-01f,-3.19129205e-03f,-1.87337510e-02f,-1.07211955e-01f,
-1.90011635e-02f,+5.52503020e-02f,+1.49298653e-01f,+1.39386386e-01f,+2.84025054e-02f,
-3.44029218e-02f,+5.33729494e-02f,+2.90825278e-01f,+2.26124614e-01f,-1.05768964e-01f,
-2.49040481e-02f,+7.07856491e-02f,+7.21199512e-02f,-4.59942967e-02f,+2.82664821e-02f,
-7.09184306e-03f,+2.24260658e-01f,+1.28727585e-01f,+1.35249108e-01f,+1.03734784e-01f,
+8.87062401e-02f,-1.08203888e-02f,+7.57848248e-02f,-1.03305519e-01f,+5.32828681e-02f,
+1.32472202e-01f,+1.47375703e-01f,+4.29837629e-02f,+5.88126257e-02f,-5.57084121e-02f,
-6.93093836e-02f,+9.87492055e-02f,+2.13224784e-01f,-3.56664509e-02f,+1.19523212e-01f,
+9.77460220e-02f,-1.51790053e-01f,+2.05730930e-01f,+2.72067655e-02f,+2.03427866e-01f,
+1.31592199e-01f,-1.71017706e-01f,+7.62847997e-03f,-1.45702939e-02f,+1.88790753e-01f,
+2.66846538e-01f,+1.01703238e-02f,+4.22845483e-02f,-2.94412654e-02f,+1.38303772e-01f,
-4.17027157e-03f,-1.06987983e-01f,+7.68385157e-02f,-2.44275499e-02f,-9.47042331e-02f,
+1.44853011e-01f,-5.37454970e-02f,-7.68991411e-02f,-2.69659702e-02f,+1.62932426e-01f,
+1.24861464e-01f,+2.14688648e-02f,-6.85462356e-02f,+1.16597027e-01f,+6.02016672e-02f,
-4.81216330e-03f,+6.26836196e-02f,-1.11002110e-01f,-3.33579294e-02f,+2.03491822e-01f,
-8.12187269e-02f,+1.11341476e-01f,+2.52327546e-02f,+1.02347694e-01f,+4.27920325e-03f,
-7.77736446e-03f,+3.85015979e-02f,+4.18707356e-02f,+2.32845873e-01f,-2.62627471e-03f,
-7.73956403e-02f,+1.34215638e-01f,-1.33837014e-01f,+1.44994119e-04f,+1.29943192e-01f,
-3.22195739e-02f,+1.18280537e-02f,+3.54083367e-02f,+1.74596608e-01f,+3.25995348e-02f,
+1.60980243e-02f,+1.01910427e-01f,+1.66213810e-01f,-5.09213842e-02f,+1.82117194e-01f,
+7.68591315e-02f,+2.09542930e-01f,-1.57395899e-01f,+1.04886696e-01f,+2.17086688e-01f,
+2.67222151e-02f,+1.06633969e-01f,-5.13802022e-02f,-6.08743615e-02f,-4.49685305e-02f,
+2.60310680e-01f,+6.44320920e-02f,-1.34177171e-02f,+1.86108619e-01f,+5.65819144e-02f,
+2.08598420e-01f,+6.25520274e-02f,-6.97569102e-02f,+8.26648772e-02f,-1.31960521e-02f,
-3.43653597e-02f,+1.66607127e-01f,+6.13813773e-02f,+1.23451956e-01f,+1.18546382e-01f,
+3.14330347e-02f,+1.93611249e-01f,-6.82822242e-02f,+1.47442579e-01f,+3.30025442e-02f,
+1.83675103e-02f,+7.22989067e-02f,-1.18601853e-02f,-8.26977119e-02f,-1.12517595e-01f,
-1.85294915e-02f,+8.39080364e-02f,+7.16677606e-02f,+1.10720247e-01f,+2.23055661e-01f,
+1.13810124e-02f,+7.26669207e-02f,+1.78977385e-01f,-7.70824477e-02f,-6.69253394e-02f,
-6.10952489e-02f,+1.16715441e-02f,+8.50007609e-02f,+5.96838221e-02f,+2.48309076e-01f,
+1.51811033e-01f,+2.27076039e-01f,+7.96929076e-02f,+1.30898014e-01f,+1.04040049e-01f,
+8.37433934e-02f,+1.23180650e-01f,+7.41489604e-02f,+6.12564795e-02f,+1.15940526e-01f,
-3.37171601e-03f,+1.14430644e-01f,+5.59602305e-02f,+1.35670556e-03f,+1.27475783e-01f,
+1.38335645e-01f,+1.26821429e-01f,-7.56718367e-02f,+8.96539018e-02f,+5.73018827e-02f,
+7.75978565e-02f,+8.20247903e-02f,+1.38979509e-01f,+3.25187929e-02f,+2.10193038e-01f,
+6.33930117e-02f,+4.42450792e-02f,-6.70319647e-02f,+1.51004314e-01f,+3.23488623e-01f,
+1.78357214e-01f,+1.76237211e-01f,+2.27460757e-01f,+3.22286069e-01f,+1.55150205e-01f,
+4.65359055e-02f,-4.92034517e-02f,+1.87588786e-03f,+9.76394024e-03f,+8.22441950e-02f,
+3.51969618e-03f,+8.10758397e-02f,-2.18518097e-02f,+2.56287158e-01f,+9.86839756e-02f,
+1.96193427e-01f,+1.49609968e-01f,+1.19834147e-01f,+6.06824942e-02f,+4.65540104e-02f,
-1.08030036e-01f,-1.15836710e-01f,-1.87516004e-01f,-7.96839818e-02f,+1.82578236e-01f,
-2.19238605e-02f,-6.86531048e-03f,+1.52677163e-01f,-6.88577667e-02f,+2.03884497e-01f,
+1.26439765e-01f,+8.72801766e-02f,+1.24353357e-01f,+6.11578785e-02f,-4.36200537e-02f,
+2.80012727e-01f,-3.13563533e-02f,+1.12918459e-01f,-8.28073025e-02f,+4.28003892e-02f,
-2.27284189e-02f,+1.54799819e-01f,-7.78475180e-02f,+4.14687321e-02f,-2.63295807e-02f,
-4.94300909e-02f,+1.15336642e-01f,+3.64163332e-02f,+5.97222336e-02f,+6.64080530e-02f,
+1.69860482e-01f,-1.59982629e-02f,+4.95539084e-02f,-3.21863079e-03f,+1.17907025e-01f,
-2.74489783e-02f,-3.03432569e-02f,-2.89165117e-02f,+2.06578150e-01f,+1.12709194e-01f,
-1.02627864e-02f,+1.64562240e-02f,+2.35793740e-01f,-2.50719786e-02f,+1.79289639e-01f,
-1.34393796e-01f,+2.77808607e-01f,-1.14202753e-01f,+1.10240849e-02f,-3.96448784e-02f,
-1.16310477e-01f,+1.89677402e-01f,+3.24141204e-01f,-2.46667340e-02f,+6.79966360e-02f,
+2.42821202e-01f,+1.72837809e-01f,-9.45951045e-02f,+7.69200847e-02f,+1.32618368e-01f,
-1.03964299e-01f,+4.47891504e-02f,+2.53299713e-01f,+6.14522118e-03f,-3.35868485e-02f,
-3.02714165e-02f,-5.11822365e-02f,-4.30512708e-03f,-1.79471165e-01f,-6.66837674e-04f,
-9.91466269e-02f,+4.99709100e-02f,+1.31293148e-01f,-2.11834148e-01f,-9.01000202e-02f,
+1.50704846e-01f,-1.85545504e-01f,-4.98600863e-02f,+2.24815197e-02f,+1.01392001e-01f,
-2.40701824e-01f,-1.63204536e-01f,+7.13839829e-02f,+1.94588471e-02f,+2.60887831e-01f,
+1.52550563e-01f,-8.74154270e-02f,-1.01727970e-01f,+6.07272331e-03f,-3.57098207e-02f,
+2.77055036e-02f,+8.38236660e-02f,+2.13930741e-01f,-4.32357565e-03f,+5.05098961e-02f,
+1.52876154e-01f,+1.14778787e-01f,-1.00435980e-01f,+1.85474202e-01f,-5.62037118e-02f,
+5.33190817e-02f,+3.33136618e-02f,+2.23751262e-01f,+4.96371649e-02f,-1.22496530e-01f,
+2.93143481e-01f,+8.30091983e-02f,-1.49835989e-01f,-8.53016973e-02f,-1.56614602e-01f,
-8.96346569e-02f,-6.52094558e-02f,+1.19375184e-01f,+7.37970322e-02f,-6.17862418e-02f,
+1.42444978e-02f,-4.45086546e-02f,-7.05328211e-02f,+1.48113459e-01f,-2.12469585e-02f,
-3.43028039e-01f,-1.57956645e-01f,+1.18177459e-01f,+2.69674063e-02f,-1.30581940e-02f,
-9.72880721e-02f,-3.52856666e-01f,+8.68011788e-02f,+1.20641096e-02f,+5.30182337e-03f,
-1.59686103e-01f,-1.76221028e-01f,+8.28830674e-02f,+2.09680423e-01f,-1.16532095e-01f,
+3.71892378e-02f,+6.05720878e-02f,+1.96834549e-01f,-3.69494297e-02f,+5.30885309e-02f,
-4.75227535e-02f,+2.38304269e-02f,+4.00267206e-02f,-1.07922427e-01f,+2.84893494e-02f,
+2.52670109e-01f,+4.78068665e-02f,-3.09189469e-01f,+1.38574436e-01f,-1.56039968e-01f,
+7.07564130e-02f,+4.46722917e-02f,+1.17346555e-01f,-1.44865543e-01f,-1.53262690e-02f,
-3.39078695e-01f,+1.24310307e-01f,-2.80945301e-01f,+4.04252969e-02f,+8.10327083e-02f,
-4.26787585e-02f,+1.55869246e-01f,+8.73660371e-02f,-2.06171554e-02f,+1.77561969e-01f,
-3.82761508e-01f,+1.50006101e-01f,+1.83166251e-01f,-1.17178835e-01f,+1.40971497e-01f,
-1.46950409e-02f,-2.67971065e-02f,-2.32019778e-02f,-9.15551707e-02f,+1.81926563e-01f,
+2.21416682e-01f,+1.49288801e-02f,+1.18352044e-02f,+8.59595761e-02f,-9.26048905e-02f,
+9.25993994e-02f,+1.60936624e-01f,+7.19508454e-02f,-5.87459058e-02f,+2.99260649e-03f,
-8.47418085e-02f,+1.53325543e-01f,+3.55628654e-02f,-1.83171690e-01f,+3.22368890e-01f,
+5.37624843e-02f,+1.23743691e-01f,-1.71462908e-01f,+1.40471578e-01f,-2.10380197e-01f,
+1.41809016e-01f,+1.70530409e-01f,+1.93757680e-03f,-2.92824447e-01f,+1.83806702e-01f,
+8.36092830e-02f,-1.88328885e-02f,-8.13934132e-02f,+1.31184712e-01f,+1.27437949e-01f,
-7.06080794e-02f,+1.39463857e-01f,+2.69185424e-01f,-5.62942848e-02f,+2.20696982e-02f,
-4.35629971e-02f,+1.47881106e-01f,+1.22620210e-01f,+7.97976255e-02f,-4.13800746e-01f,
+1.14726745e-01f,-1.08086169e-01f,-1.06612414e-01f,-1.55172691e-01f,+4.72267717e-02f,
-1.23887889e-01f,+7.97370914e-03f,-3.51565108e-02f,+2.18633011e-01f,+9.81312990e-02f,
-7.94908628e-02f,+2.75899228e-02f,+6.15717135e-02f,+2.52396137e-01f,-5.56953102e-02f,
+3.04440200e-01f,+1.30061939e-01f,+1.33508086e-01f,+3.52678895e-02f,-9.18053687e-02f,
-1.18379913e-01f,-8.39699954e-02f,+6.05212934e-02f,-2.52896342e-02f,+4.61880304e-03f,
-1.18324064e-01f,+2.14397490e-01f,+2.27861807e-01f,+2.15889234e-02f,+4.09581602e-01f,
-2.27010045e-02f,-1.54882759e-01f,-1.86777681e-01f,+7.52886385e-02f,-1.72067493e-01f,
+2.05028996e-01f,-2.53653616e-01f,+6.47813156e-02f,+1.57959610e-01f,-7.51995370e-02f,
-4.27064329e-01f,-5.87947816e-02f,+2.88884372e-01f,-8.41351151e-02f,+1.31659836e-01f,
+4.65227105e-02f,+6.09816872e-02f,+5.96469119e-02f,-6.90101907e-02f,-3.24851535e-02f,
+1.30722895e-01f,-6.89551458e-02f,-1.09652795e-01f,-1.13075905e-01f,-5.51337190e-02f,
-1.70103703e-02f,+4.73595820e-02f,+4.05950770e-02f,-6.47550598e-02f,+2.31893152e-01f,
+3.68966870e-02f,+1.75303463e-02f,+1.04572259e-01f,+3.22328396e-02f,-8.78025498e-03f,
+1.99952088e-02f,-4.64215092e-02f,+3.57851423e-02f,+7.92087317e-02f,+2.18559608e-01f,
-1.30270533e-02f,+9.68555734e-02f,-9.36599821e-02f,-1.35082528e-02f,+1.35694459e-01f,
+5.74807264e-02f,-7.99413770e-02f,-6.06618216e-03f,+6.42565414e-02f,-7.83431306e-02f,
+2.66022235e-03f,-6.68631718e-02f,-1.60994474e-02f,+1.85035154e-01f,-7.69568235e-02f,
+3.99459377e-02f,+4.92035644e-03f,-3.66176039e-01f,+2.44619533e-01f,-4.76757213e-02f,
+3.44874263e-02f,+2.29352504e-01f,+2.31373683e-01f,+5.54917008e-03f,+4.44170505e-01f,
+6.70745000e-02f,-1.98349744e-01f,-4.20387201e-02f,+1.63293108e-01f,-5.77961765e-02f,
+4.35280353e-02f,-2.76210438e-03f,+6.86684763e-03f,-1.49012372e-01f,-5.38156778e-02f,
+1.52558789e-01f,-1.07236311e-01f,-6.77777380e-02f,+1.47810891e-01f,-1.77697077e-01f,
-8.34058039e-03f,+8.83745700e-02f,+1.67371809e-01f,+2.27115944e-01f,-1.39209032e-01f,
+1.06656231e-01f,+1.10937297e-01f,-4.84098345e-02f,+2.41877988e-01f,+1.12899974e-01f,
-3.15495506e-02f,+1.97171676e-03f,+1.56067804e-01f,-6.37329072e-02f,-6.08589128e-02f,
+3.68736148e-01f,-1.43693732e-02f,+1.24317676e-01f,+2.65679538e-01f,-8.37879255e-02f,
+1.74309328e-01f,+3.30154337e-02f,+1.38017610e-01f,-1.31584525e-01f,-1.56304557e-02f,
+1.26087204e-01f,+1.24048121e-01f,+1.14009932e-01f,+4.38429154e-02f,-4.23079617e-02f,
-5.03024831e-02f,-7.27848932e-02f,+6.99984208e-02f,-2.76111737e-02f,+4.95491549e-02f,
+3.81484330e-02f,-4.31681685e-02f,-3.36139619e-01f,-1.16345532e-01f,+1.34885192e-01f,
+9.80075970e-02f,+7.45158941e-02f,+5.95334843e-02f,+3.25843781e-01f,+2.53467917e-01f,
+1.36396810e-01f,+9.49139297e-02f,-3.66800353e-02f,+4.47946116e-02f,-8.12748969e-02f,
-1.26512483e-01f,-7.13008642e-03f,+9.05858278e-02f,-1.56490490e-01f,+3.63672897e-02f,
+6.58149645e-02f,+1.21611044e-01f,+1.86748430e-01f,-4.45136428e-02f,-4.27669249e-02f,
+1.91514537e-01f,+1.29280671e-01f,+7.39714578e-02f,+2.38299835e-02f,-1.70773253e-01f,
+4.37386185e-02f,-4.23310138e-02f,+8.31778795e-02f,-1.07449144e-01f,+1.53890297e-01f,
-7.51006380e-02f,-1.42216310e-02f,-1.07955478e-01f,+2.86001861e-01f,+1.88199818e-01f,
+6.16233945e-02f,+3.69921923e-01f,+9.97939892e-03f,+9.82308835e-02f,-4.11903560e-02f,
+2.96947330e-01f,+1.95806056e-01f,+1.42853230e-01f,+1.16081610e-02f,+1.34276137e-01f,
+3.00422996e-01f,+3.70519608e-02f,-8.77515972e-02f,+3.06595918e-02f,-1.51449844e-01f,
+6.62831366e-02f,+1.61494866e-01f,+1.25584781e-01f,+1.27166852e-01f,-4.75881994e-02f,
+1.04573756e-01f,-9.62146278e-03f,+3.24317217e-01f,+2.19771191e-02f,+3.65822911e-01f,
-1.17825970e-01f,+5.34983575e-01f,+1.15323566e-01f,+2.08894446e-01f,+2.00579509e-01f,
-4.34855893e-02f,-1.73617437e-01f,-2.54556298e-01f,+1.04968317e-01f,-1.43551722e-01f,
-2.01126896e-02f,+2.20971152e-01f,-7.83629268e-02f,+2.30396539e-02f,+1.77080315e-02f,
+1.63815290e-01f,-1.86105929e-02f,-8.92858878e-02f,-4.97290492e-02f,+2.41778404e-01f,
+1.13193892e-01f,+1.88996971e-01f,-9.20913294e-02f,-7.21594691e-02f,+2.94007808e-01f,
+9.26067233e-02f,+1.25674054e-01f,-7.73020759e-02f,+2.82356143e-01f,-3.27266268e-02f,
-1.11660041e-01f,-6.44104928e-02f,+3.67584854e-01f,+9.42787305e-02f,+1.58462059e-02f,
-2.00064093e-01f,+2.56603248e-02f,-6.60634891e-04f,+1.17678709e-01f,-1.16105609e-01f,
-1.37891769e-02f,-4.85006283e-04f,-3.32316816e-01f,-1.58022530e-02f,+1.60089016e-01f,
-6.14688825e-03f,+1.33545220e-01f,-2.94734631e-02f,+2.09829975e-02f,+7.84693658e-02f,
+1.11220442e-02f,+4.52839285e-02f,+1.16934590e-01f,+1.46660537e-01f,+1.65121004e-01f,
+2.40586534e-01f,-9.58925411e-02f,+1.15426572e-03f,-3.28692049e-02f,+8.69684741e-02f,
+2.97837973e-01f,+1.30817920e-01f,-9.78694335e-02f,-2.33759079e-02f,-1.05871586e-02f,
+2.12629870e-01f,-3.00406218e-01f,+8.38185772e-02f,+1.73356980e-01f,+4.30445552e-01f,
-5.50539307e-02f,-6.72242418e-02f,-7.51522556e-02f,-9.84133109e-02f,+1.03034638e-01f,
+1.09259551e-02f,-1.45050302e-01f,-5.45864642e-01f,-3.14711958e-01f,+2.11505696e-01f,
+2.06190452e-01f,+1.14120699e-01f,+1.49207011e-01f,+4.58083674e-02f,-6.52137622e-02f,
+1.95948943e-01f,+3.94002832e-02f,+1.19744569e-01f,+1.37341499e-01f,-2.04544310e-02f,
-6.17649294e-02f,+1.09778114e-01f,-6.55302107e-02f,+1.27142444e-02f,-3.62873338e-02f,
+2.56256517e-02f,+3.03799659e-02f,+9.88361388e-02f,+5.08501351e-01f,+2.60962993e-02f,
-8.42547268e-02f,+1.31869033e-01f,+2.65550055e-02f,-5.00007421e-02f,+4.90249135e-02f,
+1.79665834e-01f,+1.83210865e-01f,+1.81303434e-02f,+1.35336742e-01f,+2.55933642e-01f,
+3.21453661e-02f,+1.51050061e-01f,+2.02705279e-01f,+1.57355145e-01f,+3.67179923e-02f,
+3.15634251e-01f,-5.97926974e-03f,-7.12479874e-02f,-8.59800875e-02f,+1.51163474e-01f,
+3.36651020e-02f,-9.96774156e-03f,-1.61598757e-01f,-1.00236960e-01f,+5.65496087e-03f,
+3.08913104e-02f,-7.66710192e-02f,-8.19589123e-02f,-2.60149650e-02f,+1.58075541e-01f,
-2.47202575e-01f,-2.19744161e-01f,-2.30635647e-02f,-2.36589164e-02f,-1.43962190e-01f,
+6.10757731e-02f,+8.76845941e-02f,+6.06954657e-03f,+1.22508258e-01f,-4.69014704e-01f,
+1.75457880e-01f,+1.13059711e-02f,+1.21936493e-01f,+3.24655712e-01f,+1.68219700e-01f,
+5.39995320e-02f,-3.95698577e-01f,-2.73469333e-02f,+8.74226615e-02f,-1.34952962e-01f,
+1.10889696e-01f,-4.24942374e-02f,+3.46696436e-01f,-7.33860582e-02f,-7.49234157e-03f,
+1.61749944e-01f,+1.91392303e-01f,+1.03790842e-01f,+7.30486959e-02f,-6.40060455e-02f,
+1.87610999e-01f,+6.48253262e-02f,+1.35479540e-01f,+1.66001529e-01f,-2.46518254e-01f,
-1.27558023e-01f,-1.65573377e-02f,+1.36875033e-01f,-5.35844415e-02f,-6.38116449e-02f,
-9.52069834e-02f,+8.80973712e-02f,-1.39661580e-01f,+2.27164939e-01f,+1.10228762e-01f,
-3.56351025e-02f,-1.46888271e-01f,-1.23209484e-01f,-2.14020275e-02f,+1.41037002e-01f,
-1.65316463e-01f,-1.78645626e-02f,-8.36522356e-02f,+3.51608545e-02f,+1.08408675e-01f,
-6.76387397e-04f,-2.64326334e-01f,+1.43210841e-02f,-1.06022842e-01f,+3.81501801e-02f,
-1.61682963e-01f,-9.05761272e-02f,+1.20472774e-01f,+5.44463955e-02f,-1.55586839e-01f,
+2.49405980e-01f,-5.63101247e-02f,+2.62292009e-02f,-5.94254062e-02f,+1.45370364e-01f,
+6.47233054e-02f,-1.20537594e-01f,-1.84028700e-01f,-1.05288336e-02f,+2.82517970e-02f,
-1.13664277e-01f,+2.01952048e-02f,+7.05199540e-02f,-5.52058704e-02f,+8.11868086e-02f,
-1.65026858e-02f,+3.67238633e-02f,-1.84216201e-01f,+1.57634929e-01f,-4.11249250e-02f,
+1.63858145e-01f,+9.75985676e-02f,-4.91674617e-02f,+1.70309767e-01f,+4.73595709e-01f,
-8.97225644e-03f,-2.15193167e-01f,+6.43899664e-02f,+5.73685169e-02f,-4.77979481e-02f,
+1.19190760e-01f,+1.15409836e-01f,-8.01826920e-03f,+2.36958817e-01f,+3.45657170e-02f,
-9.67290625e-02f,+1.92539953e-02f,-4.87027727e-02f,-9.14350450e-02f,-1.47339208e-02f,
+1.84090897e-01f,+8.88827071e-03f,+1.99049085e-01f,+1.62022665e-01f,+2.19305586e-02f,
+1.26091808e-01f,-3.77745479e-02f,+5.83792059e-03f,+2.75398761e-01f,-1.21630402e-02f,
-1.84401080e-01f,+6.63037524e-02f,+6.66726157e-02f,+2.44680996e-04f,+9.13502797e-02f,
+3.13299783e-02f,+2.60011733e-01f,-2.10938603e-02f,+3.41514461e-02f,+1.58848390e-01f,
+1.44524336e-01f,+1.78458780e-01f,+1.65815160e-01f,+7.52965873e-03f,+1.18054315e-01f,
+1.28726915e-01f,+1.07316054e-01f,+3.26065570e-02f,-1.54416651e-01f,-4.25827056e-02f,
+1.38025925e-01f,+1.01126015e-01f,+3.68419886e-01f,+3.67719799e-01f,-2.32917055e-01f,
+7.82097727e-02f,+2.15756714e-01f,-1.90466926e-01f,+3.73733163e-01f,+4.24223334e-01f,
+2.45952398e-01f,-5.74274734e-02f,-1.76009424e-02f,+2.32581884e-01f,-9.19420645e-02f,
+2.72305042e-01f,-4.36889520e-03f,+2.40159839e-01f,-3.45143586e-01f,+7.32574016e-02f,
+2.42889881e-01f,-6.54918253e-02f,+2.73985356e-01f,-1.55197587e-02f,+1.03820011e-01f,
+9.95476022e-02f,+1.06568020e-02f,+8.80372897e-02f,-5.41721694e-02f,+7.95915127e-02f,
-1.29705086e-01f,+1.18945176e-02f,+7.81446472e-02f,-4.89557944e-02f,-1.15451254e-01f,
+3.22938859e-01f,+1.44051025e-02f,-9.12339240e-02f,+7.65180886e-02f,+3.43190849e-01f,
+4.79148142e-02f,-9.61919427e-02f,+2.91375984e-02f,-2.40542628e-02f,-9.90748405e-02f,
+1.14113376e-01f,+3.58817577e-02f,+1.49691850e-01f,-1.16423175e-01f,-6.40826449e-02f,
+1.42104626e-01f,-1.10654607e-02f,-3.39997038e-02f,+7.11304471e-02f,+2.49964356e-01f,
+9.52198058e-02f,+9.78315324e-02f,-6.88159280e-03f,+1.41540349e-01f,-3.31090510e-01f,
+3.52881968e-01f,-4.92722094e-02f,-1.01289086e-01f,+1.09658323e-01f,+4.88446169e-02f,
+4.90579270e-02f,+9.26066115e-02f,-7.06352433e-03f,-1.05652608e-01f,+3.49693596e-02f,
-6.06307238e-02f,+2.60701537e-01f,-1.22344017e-01f,+7.77176172e-02f,-1.11408643e-01f,
+1.00990124e-01f,+2.84272254e-01f,+8.60271603e-02f,+2.27522731e-01f,-2.26915926e-01f,
-1.05860889e-01f,+7.24365329e-03f,+1.49296254e-01f,+1.21046275e-01f,-3.12753439e-01f,
+8.95983130e-02f,-6.58236742e-02f,-2.06751004e-01f,-7.63008893e-02f,+1.66423097e-01f,
+6.19589277e-02f,+2.98801422e-01f,-2.38451108e-01f,-2.20094938e-02f,+5.05355954e-01f,
-7.27373585e-02f,+2.92896312e-02f,-6.99494034e-02f,+9.27995965e-02f,+2.64693230e-01f,
+3.04808635e-02f,-1.92832366e-01f,+1.30909473e-01f,+1.88891694e-01f,+3.02112222e-01f,
-1.28014237e-01f,+2.48193756e-01f,-1.29148275e-01f,+1.31189143e-02f,+1.71574444e-01f,
-3.40421677e-01f,+3.45900692e-02f,-1.89553499e-02f,+3.02968025e-01f,-7.63822049e-02f,
+6.25250190e-02f,-3.13207000e-01f,+1.38079777e-01f,+9.29784216e-03f,-3.77139002e-01f,
+2.21200302e-01f,+1.55710742e-01f,-4.18624133e-02f,+2.72489429e-01f,-1.76761008e-03f,
+2.36754268e-01f,+1.24126766e-02f,+5.96625134e-02f,-8.01892206e-02f,+1.06675506e-01f,
+2.81671226e-01f,+1.67446822e-01f,+1.23650201e-01f,+3.00287753e-01f,+2.31513515e-01f,
+5.50643876e-02f,+1.79461434e-01f,+5.08140922e-02f,+1.23506874e-01f,+4.84628417e-02f,
-1.40416771e-01f,+2.27849901e-01f,+4.64669287e-01f,-6.24036491e-02f,+1.39540896e-01f,
+1.93305582e-01f,+1.09509997e-01f,+8.07863295e-01f,+5.97466193e-02f,+6.84620440e-02f,
-3.26986127e-02f,+4.17845286e-02f,+2.91688383e-01f,-1.80194646e-01f,-6.52051419e-02f,
-6.11304566e-02f,+3.65350768e-02f,-6.44879714e-02f,+1.85771018e-01f,+1.97411161e-02f,
-1.29040897e-01f,+5.46607189e-02f,-2.10100755e-01f,+2.17483178e-01f,-9.06301737e-02f,
+1.56702295e-01f,+1.32801041e-01f,+8.05743560e-02f,+8.83871038e-03f,+1.02020331e-01f,
-4.68915794e-03f,-2.59693116e-01f,-3.78101289e-01f,+4.15023379e-02f,-4.86250259e-02f,
+1.15566373e-01f,+7.55278468e-02f,-3.69756520e-02f,-1.00038320e-01f,+2.54976545e-02f,
+1.38457835e-01f,+3.12643260e-01f,-3.04022223e-01f,+3.38735920e-03f,-9.33683515e-02f,
+1.10483691e-01f,-2.97501832e-02f,+1.37370387e-02f,+1.74664617e-01f,-3.73913944e-02f,
+7.30764866e-02f,-2.03976497e-01f,-2.10361898e-01f,+1.75896585e-01f,+2.05030158e-01f,
+8.48614722e-02f,+1.08833052e-01f,-1.32388562e-01f,-1.36802904e-02f,+1.02376170e-01f,
-1.70514613e-01f,+5.50455675e-02f,+1.40927598e-01f,+1.26112789e-01f,-1.50201589e-01f,
-1.05019063e-02f,+3.24606113e-02f,+6.78959414e-02f,+3.14631969e-01f,+7.17196092e-02f,
-1.41908318e-01f,+2.35137671e-01f,+9.04775918e-01f,-2.93070614e-01f,+1.23248529e-02f,
+2.84535885e-01f,-6.78985417e-01f,+8.09776038e-02f,-2.19184700e-02f,+1.48559138e-01f,
+5.88893369e-02f,+2.51069181e-02f,-4.08263579e-02f,-5.13651848e-01f,+8.15224741e-03f,
-6.01492003e-02f,+2.26427495e-01f,+8.48017782e-02f,+1.93134416e-02f,+4.70127240e-02f,
+2.44765177e-01f,-6.17065355e-02f,+4.91620712e-02f,-8.29012394e-02f,+1.13867983e-01f,
+1.07536159e-01f,+1.02034777e-01f,+2.08939031e-01f,+1.37204323e-02f,-3.36118042e-01f,
+1.09147072e-01f,+4.47088003e-01f,+2.08170876e-01f,+8.86057541e-02f,-7.94128980e-03f,
-3.17505926e-01f,+2.33666405e-01f,-1.46586895e-01f,-2.72466056e-02f,-8.73622522e-02f,
-1.40769407e-01f,-8.88232440e-02f,+1.70840651e-01f,-8.86159688e-02f,+6.39508218e-02f,
+1.47499532e-01f,-2.47114450e-01f,-2.09223256e-01f,-3.05537283e-02f,+1.67950258e-01f,
-1.41680896e-01f,-1.41228929e-01f,+2.31411770e-01f,+1.13943138e-03f,+4.69863117e-02f,
+1.39302984e-01f,+1.46415368e-01f,-1.73629019e-02f,+1.98716924e-01f,-1.00896358e-02f,
+1.96921885e-01f,+1.98925376e-01f,+8.92620310e-02f,+4.37785387e-02f,-1.80474535e-01f,
+2.96689868e-01f,+1.05095580e-01f,-4.57854755e-03f,+5.53837538e-01f,-1.97207168e-01f,
+2.38903627e-01f,-8.61636624e-02f,+7.47320130e-02f,-2.00506616e-02f,-4.11043651e-02f,
+6.65092587e-01f,+4.27222461e-01f,-1.47252828e-01f,-6.24455400e-02f,+3.39227468e-01f,
+2.49187760e-02f,+3.17482203e-01f,+5.23194015e-01f,+3.27386081e-01f,-2.54034228e-03f,
-1.52041644e-01f,+8.62709060e-02f,+9.74076614e-02f,+1.37683317e-01f,-6.38455153e-02f,
+1.58363298e-01f,+1.47738317e-02f,+8.62373561e-02f,+7.39206076e-01f,+4.38534170e-02f,
+1.13995291e-01f,+6.44654483e-02f,-5.49461208e-02f,-9.57671255e-02f,+1.80168077e-01f,
-1.26596823e-01f,+5.63734099e-02f,+1.37065843e-01f,-6.47437796e-02f,+3.41654837e-01f,
+5.04321493e-02f,+1.43098012e-01f,+1.81359217e-01f,+1.48098961e-01f,+4.53953668e-02f,
+1.02191314e-01f,+1.28521830e-01f,+2.25410700e-01f,-2.71822530e-04f,+1.01910792e-01f,
-1.35198355e-01f,-9.89137888e-02f,+5.43189459e-02f,+1.52798174e-02f,+4.48367186e-02f,
+6.57452494e-02f,+1.10765472e-01f,+6.88391775e-02f,-2.05595922e-02f,-3.05714440e-02f,
+1.13140397e-01f,+8.08701217e-02f,+1.67155311e-01f,+1.57851785e-01f,-6.32729903e-02f,
+1.48446202e-01f,+1.28063867e-02f,+6.09617569e-02f,-8.43184348e-03f,-1.63889676e-02f,
+2.54215952e-02f,+1.34661207e-02f,+6.73540533e-02f,+6.68685958e-02f,+8.63352790e-03f,
+3.41114067e-02f,+8.29425082e-02f,+1.29756585e-01f,+3.09973508e-02f,+2.41529629e-01f,
+6.12285659e-02f,+2.29706794e-01f,+1.72384024e-01f,+1.21707141e-01f,+1.17758676e-01f,
+3.12484920e-01f,+8.23997855e-02f,+1.63001474e-02f,+1.45043526e-02f,+1.82007968e-01f,
+1.55845463e-01f,+2.35463247e-01f,+1.26897693e-01f,-7.89185464e-02f,+1.01562507e-01f,
+2.72924416e-02f,+5.84222376e-02f,+9.13085938e-02f,+1.16589256e-01f,+4.74463291e-02f,
+2.98313834e-02f,+9.44261849e-02f,-1.01877883e-01f,-4.23350297e-02f,+5.13528623e-02f,
+4.68415208e-02f,+3.64452489e-02f,+4.14853483e-01f,+5.51063001e-01f,-1.90509006e-01f,
+1.62255406e-01f,+7.58977532e-02f,+4.81132120e-02f,-9.11728712e-04f,+1.24934219e-01f,
+1.24974906e-01f,+1.40536249e-01f,+4.16412316e-02f,+5.21580577e-02f,+1.57866344e-01f,
-6.51358813e-02f,+1.20337695e-01f,-2.03235094e-02f,+1.88313261e-01f,+1.19746454e-01f,
-1.35607002e-02f,+1.28321961e-01f,+4.14758502e-03f,+2.46570915e-01f,+2.76148736e-01f,
+9.42716673e-02f,+2.01254681e-01f,-6.07940974e-03f,-3.42139192e-02f,+1.88313037e-01f,
+1.28798038e-01f,+1.27598390e-01f,-3.27133946e-02f,-4.48108204e-02f,+5.97161762e-02f,
+1.02618434e-01f,+6.04286902e-02f,+3.80972885e-02f,-1.78013057e-01f,+1.56477913e-01f,
+1.88983351e-01f,+1.93353072e-01f,+1.06912017e-01f,+1.67135581e-01f,+1.49850801e-01f,
+1.80334046e-01f,+9.73330587e-02f,+1.61452100e-01f,-7.53617063e-02f,-8.57515335e-02f,
-1.09469621e-02f,+1.76483929e-01f,+2.07228854e-01f,-1.18802581e-03f,+9.20749158e-02f,
+1.07297860e-02f,-4.64297011e-02f,+7.65526667e-02f,+1.56427801e-01f,+7.32186884e-02f,
+1.48581594e-01f,+1.85898408e-01f,+3.57020088e-02f,+4.35159355e-01f,+1.18541056e-02f,
+1.84179302e-02f,+1.58491299e-01f,+4.10041958e-02f,+1.31892681e-01f,-1.20952688e-01f,
+2.83102602e-01f,+1.00165941e-02f,+1.10842809e-01f,+2.40020975e-02f,+6.75322413e-02f,
-2.21881969e-03f,+1.13407141e-02f,+6.02805577e-02f,-1.13768643e-02f,+1.65152028e-01f,
+3.77946720e-02f,+1.25306740e-01f,+1.84183046e-01f,+5.47644608e-02f,+9.70651209e-02f,
+1.53598353e-01f,-1.20875649e-01f,+1.52282387e-01f,-2.60225177e-01f,+2.25079075e-01f,
+1.98436789e-02f,-1.03349425e-01f,+2.66424334e-03f,+2.68157303e-01f,-1.39484368e-02f,
+3.05818647e-01f,+7.86087438e-02f,+1.50094524e-01f,+1.70027882e-01f,+9.22866911e-02f,
-5.73415216e-03f,+2.03794166e-01f,+6.37927502e-02f,+4.41552922e-02f,+5.59327118e-02f,
+1.29241258e-01f,+3.45775001e-02f,-1.09181486e-01f,+1.23436145e-01f,+4.51666303e-02f,
+2.24533379e-01f,+2.26135775e-01f,+3.96992229e-02f,+1.82576906e-02f,+2.69558839e-02f,
+1.06981762e-01f,+2.95497656e-01f,+2.01364413e-01f,+1.16891861e-01f,-3.23056020e-02f,
+6.24181293e-02f,-8.80622398e-03f,+7.05427378e-02f,+4.48578559e-02f,+6.61995448e-03f,
-1.31101757e-01f,+2.95412391e-01f,+3.51899154e-02f,-1.28886700e-01f,+1.51276037e-01f,
+1.07636154e-01f,+8.33028331e-02f,+1.74838230e-01f,+2.01655000e-01f,+1.89527906e-02f,
+2.10374624e-01f,+3.69654223e-02f,+1.21463686e-01f,+4.70064133e-02f,+5.40795736e-02f,
-6.44130483e-02f,+5.66365570e-02f,+2.74636261e-02f,+9.81218889e-02f,+1.38688132e-01f,
+7.77879357e-02f,-6.01633675e-02f,-5.77805191e-02f,+8.33081901e-02f,+9.25930366e-02f,
-1.11909816e-02f,+3.46007347e-02f,-1.23208418e-01f,+1.32531986e-01f,-1.11120395e-01f,
+2.32895482e-02f,-4.72769476e-02f,+1.54509515e-01f,+1.96547464e-01f,-5.42064011e-02f,
+3.21625710e-01f,+1.30478501e-01f,+1.02846876e-01f,-2.40795221e-02f,+1.47330269e-01f,
+1.16711020e-01f,+1.05726846e-01f,+3.02891761e-01f,+1.00264184e-01f,+1.29029617e-01f,
-4.98626903e-02f,+1.36396796e-01f,+2.31186658e-01f,+4.28833775e-02f,+3.05320695e-03f,
+1.28186330e-01f,+2.39978172e-02f,-2.71582827e-02f,+2.76794769e-02f,-3.18193808e-02f,
+2.88263001e-02f,-3.30735394e-03f,+8.28482490e-03f,+1.72905609e-01f,-6.95362017e-02f,
-1.17053546e-01f,+1.40838474e-01f,-1.53893819e-02f,+1.31217614e-01f,+2.58044332e-01f,
-7.56285563e-02f,+2.50592530e-01f,+9.34253633e-02f,+7.23191127e-02f,+1.30825654e-01f,
+2.05936894e-01f,+2.68271826e-02f,+1.68649927e-01f,+1.00382939e-01f,-2.24502578e-01f,
-1.18660263e-03f,+1.26909703e-01f,+1.44976720e-01f,-7.25242496e-02f,+1.21516354e-01f,
+2.76646763e-02f,+1.36708617e-01f,-4.99697700e-02f,+5.14781214e-02f,-1.44417271e-01f,
-1.95540022e-03f,+1.56213909e-01f,+5.22358641e-02f,+7.34845847e-02f,-6.99154362e-02f,
-1.80612072e-01f,-1.25703393e-02f,+8.07600692e-02f,+2.09521815e-01f,-8.30100328e-02f,
-2.23166253e-02f,+2.35890299e-01f,-3.82257044e-01f,+2.16318488e-01f,+1.12968326e-01f,
-1.20780803e-03f,+1.40067518e-01f,+7.88302049e-02f,+7.19100609e-02f,-1.19178660e-01f,
-1.21447727e-01f,+1.34803891e-01f,+5.55586405e-02f,+5.11146225e-02f,-2.52261441e-02f,
+1.10462926e-01f,-5.53050376e-02f,-4.80358377e-02f,+2.39813123e-02f,+9.55112353e-02f,
-4.73458087e-03f,+1.86112925e-01f,+1.28582667e-03f,+6.68184608e-02f,+9.88112688e-02f,
+3.10237378e-01f,+1.31971538e-01f,-3.74470234e-01f,+2.28710100e-01f,+1.18516624e-01f,
+7.25210756e-02f,+7.42669404e-02f,+2.97335852e-02f,+2.13131920e-01f,+1.16770998e-01f,
+1.04138017e-01f,+8.44691228e-03f,+8.59227255e-02f,-6.99022412e-02f,-4.32956256e-02f,
+1.72746517e-02f,+6.02828972e-02f,+2.86659360e-01f,+4.23352644e-02f,+1.93255931e-01f,
+1.25941440e-01f,+2.43765548e-01f,-6.27785251e-02f,-6.06439589e-03f,+9.96388216e-03f,
-1.15889333e-01f,+1.31467253e-01f,+3.18246000e-02f,-8.52162838e-02f,+1.40892416e-01f,
+1.11064017e-01f,+1.73739851e-01f,+4.43800949e-02f,+1.27931416e-01f,-6.82146028e-02f,
+1.87185630e-02f,+2.68600911e-01f,+1.47554293e-01f,+4.30514626e-02f,-2.42328066e-02f,
-8.04646909e-02f,+1.30162343e-01f,+1.23248823e-01f,+4.25098576e-02f,+4.79388237e-02f,
+1.13058276e-01f,+1.30639151e-01f,-1.37891956e-02f,+9.01972279e-02f,+8.71265084e-02f,
-1.29319597e-02f,+1.57580316e-01f,-8.31724256e-02f,-8.98759160e-03f,+8.02973136e-02f,
-2.76452340e-02f,+2.30593666e-01f,+2.89039373e-01f,+1.18440636e-01f,+2.08320156e-01f,
+8.80548134e-02f,+1.18888624e-01f,+1.04960375e-01f,+1.21024758e-01f,+1.33570954e-01f,
+1.36521906e-01f,+1.08138109e-02f,-4.28764522e-03f,+7.08446279e-02f,+1.91637471e-01f,
+1.07567459e-01f,+2.11792856e-01f,+5.77614680e-02f,+5.35766408e-02f,+5.65970019e-02f,
+1.65372759e-01f,+1.08246982e-01f,+8.09763744e-02f,+7.68054053e-02f,+7.42390528e-02f,
-2.53319323e-01f,-7.44879991e-02f,+1.24100722e-01f,+2.86122203e-01f,+2.08236370e-02f,
-3.16989161e-02f,+8.09459761e-02f,+8.37840214e-02f,+1.30101562e-01f,+1.12993933e-01f,
-1.19262785e-02f,-7.80073414e-03f,-3.55182476e-02f,+3.01035680e-03f,-3.91169190e-02f,
+2.60165669e-02f,+4.27172817e-02f,+1.28931984e-01f,+1.83288008e-01f,+1.06237479e-01f,
+1.20072089e-01f,-3.94781865e-02f,+4.85072359e-02f,+7.30593204e-02f,+1.48026720e-01f,
+6.51772991e-02f,-7.64731020e-02f,-1.26756370e-01f,+2.77009960e-02f,+1.12961873e-01f,
+6.00076877e-02f,+9.07035992e-02f,+1.55157000e-01f,+7.92956166e-03f,+1.89852148e-01f,
-5.49605563e-02f,+3.47013138e-02f,+8.51493552e-02f,+1.16824143e-01f,+6.34096265e-02f,
+5.94214238e-02f,+1.96583103e-02f,+1.86629251e-01f,+1.37345999e-01f,+2.45280843e-02f,
+3.94486077e-02f,-1.08412370e-01f,-1.03598759e-02f,+6.26050308e-02f,+1.32241651e-01f,
-1.90044772e-02f,+1.36003271e-01f,+1.29246339e-01f,-1.09503537e-01f,-1.77901424e-02f,
-9.70964655e-02f,+7.36324191e-02f,+6.64951652e-02f,+4.54724059e-02f,+7.20532835e-02f,
+1.97801083e-01f,+9.40236449e-02f,+2.70275503e-01f,-1.15026189e-02f,+7.79303759e-02f,
+2.20586702e-01f,+9.70198289e-02f,+1.81158602e-01f,+1.83249131e-01f,+1.39183670e-01f,
+1.80210695e-02f,-7.12370500e-02f,+4.83769774e-02f,+1.29653215e-01f,+2.21530825e-01f,
+2.91917175e-01f,+6.15657158e-02f,+3.35961543e-02f,+7.58821666e-02f,+2.98437953e-01f,
-1.30614206e-01f,+3.64914760e-02f,+1.82117242e-02f,+3.79194459e-03f,+8.36665928e-02f,
+1.30559981e-01f,+2.97857933e-02f,+1.06235750e-01f,+1.45515829e-01f,-5.44913858e-03f,
-2.86375172e-02f,+4.75366823e-02f,+2.76307046e-01f,+4.74217944e-02f,+9.40309763e-02f,
-5.41457860e-03f,+9.51810107e-02f,+1.95338160e-01f,+5.15841097e-02f,+9.26096439e-02f,
-2.32771765e-02f,+3.11860770e-01f,+2.25441366e-01f,+1.81143865e-01f,-1.39557198e-01f,
+6.96828589e-02f,-3.44751589e-02f,+1.99419916e-01f,+1.01828098e-01f,+8.28555375e-02f,
+9.03028704e-04f,-2.00701673e-02f,+1.70439407e-01f,-4.60833870e-02f,+2.08726283e-02f,
+7.97915533e-02f,+1.44044399e-01f,+1.55366883e-01f,+1.11664206e-01f,+9.17220837e-04f,
-2.55930889e-02f,+8.15508664e-02f,+2.35810027e-01f,-2.46589974e-01f,-9.28100422e-02f,
+6.01598471e-02f,+1.18312187e-01f,-1.90080563e-03f,+6.01460971e-02f,+5.14559299e-02f,
+9.07303691e-02f,+1.56436399e-01f,+3.94476503e-02f,+2.94928011e-02f,+8.41089562e-02f,
-2.00499743e-02f,+3.83514054e-02f,+7.05962032e-02f,+8.42774659e-02f,-2.15365887e-02f,
+8.13082755e-02f,+4.95050438e-02f,+1.00081051e-02f,+1.86431944e-01f,+5.20410277e-02f,
-9.97332782e-02f,+3.01786978e-02f,+1.34397835e-01f,+1.53210133e-01f,+4.21450213e-02f,
-6.56297877e-02f,-5.68789542e-02f,+1.75729990e-02f,+1.72889650e-01f,-1.93533063e-01f,
-1.12145938e-01f,+4.59066965e-02f,+6.58436418e-02f,+1.59388527e-01f,+9.10159349e-02f,
+1.00828670e-01f,+5.95196411e-02f,+9.97289922e-03f,+9.15896297e-02f,-3.73682864e-02f,
-2.54256167e-02f,-6.68431073e-03f,+2.48959467e-01f,+7.79142007e-02f,-1.63553596e-01f,
-1.21768005e-02f,-1.77442301e-02f,-4.11984250e-02f,-4.12103310e-02f,+9.69981849e-02f,
-5.34491912e-02f,+1.29333436e-01f,+3.45290191e-02f,+1.16854534e-01f,+1.18644945e-01f,
+5.23884855e-02f,+8.56631845e-02f,+3.96393165e-02f,-9.12549645e-02f,+1.65746778e-01f,
-3.98084410e-02f,-8.17821734e-03f,+8.22226703e-02f,+2.17815973e-02f,-1.45478204e-01f,
+2.70352095e-01f,+1.13319702e-01f,+7.91123658e-02f,+1.92451179e-01f,+1.29205287e-01f,
-3.01270671e-02f,+2.25532323e-01f,+2.89342478e-02f,+1.09579496e-01f,+9.86320525e-02f,
-4.15335484e-02f,+4.76441375e-04f,+8.36810321e-02f,+1.26097023e-01f,+6.17478713e-02f,
+1.28070951e-01f,-7.70683736e-02f,+1.36074737e-01f,+2.49186177e-02f,+1.09639049e-01f,
-2.54219468e-03f,-7.17852265e-02f,-7.89317191e-02f,+1.41326249e-01f,-7.27764592e-02f,
-6.02040160e-03f,+1.84025705e-01f,+1.22362375e-01f,+4.35402431e-02f,+4.48298380e-02f,
+2.01508954e-01f,+1.67584807e-01f,+8.72652754e-02f,+1.09444506e-01f,+2.31351510e-01f,
-9.04688165e-02f,-6.62105754e-02f,+2.02480823e-01f,-1.16446309e-01f,+2.39631850e-02f,
-4.84718941e-02f,+1.25898480e-01f,+3.60328294e-02f,-7.61368349e-02f,+2.48883814e-01f,
-4.68163490e-02f,+1.14266232e-01f,+8.68701637e-02f,-1.66154161e-01f,-4.95416671e-02f,
+3.69658298e-03f,-1.25409156e-01f,+6.69338857e-04f,+1.29426569e-02f,+2.20142707e-01f,
+8.64333007e-03f,+1.30317003e-01f,+9.52577665e-02f,+6.32595196e-02f,-2.97792643e-01f,
+7.96913579e-02f,+2.13198468e-01f,+3.99572134e-01f,+9.42403749e-02f,+4.46454398e-02f,
+9.85768810e-02f,+1.97631810e-02f,-8.99104625e-02f,-4.68958989e-02f,+9.04481038e-02f,
+3.29183489e-02f,+1.36136368e-01f,+4.04864140e-02f,+9.43791121e-02f,-7.84630030e-02f,
-1.11714706e-01f,+7.32464269e-02f,-2.18357351e-02f,+1.68292060e-01f,-1.78854570e-01f,
+4.88412306e-02f,-1.91040561e-01f,+1.19742967e-01f,-4.52070944e-02f,-1.72417119e-01f,
+1.44442394e-01f,-5.42384312e-02f,-1.86151341e-01f,+6.46881610e-02f,+9.79710519e-02f,
-2.18923882e-01f,+1.13937519e-01f,+1.11522697e-01f,+2.45776892e-01f,-9.99699682e-02f,
+1.20197661e-01f,+4.85334136e-02f,+1.56418905e-01f,-1.24766849e-01f,+5.26596494e-02f,
+1.30008131e-01f,+1.85613304e-01f,+1.54599130e-01f,+1.08111128e-01f,+2.15039328e-01f,
+1.66073944e-02f,+1.65820807e-01f,+2.62038291e-01f,+7.54613653e-02f,+1.98766828e-01f,
-2.59159766e-02f,-6.22736886e-02f,-9.42548215e-02f,+4.43973765e-02f,-1.92366093e-01f,
+6.55175149e-02f,-1.53199341e-02f,-1.35065287e-01f,+1.46625534e-01f,-9.67354551e-02f,
-1.19773813e-01f,+1.31042108e-01f,+3.38356979e-02f,-6.67458251e-02f,+8.92149732e-02f,
-1.21395387e-01f,+1.25365481e-01f,-8.80637765e-02f,+3.30846570e-02f,-2.74002869e-02f,
-6.47499179e-03f,+1.76297873e-02f,+1.32431462e-01f,-2.02748090e-01f,+9.95018855e-02f,
+2.60258436e-01f,+3.24221343e-01f,-2.18861789e-01f,+4.32240106e-02f,+2.62228157e-02f,
-2.07743030e-02f,+3.82042900e-02f,+1.70913920e-01f,+1.94122657e-01f,+1.09820448e-01f,
+6.22205622e-02f,+6.82601854e-02f,+2.10965216e-01f,+1.78466946e-01f,+1.99977055e-01f,
+6.51298016e-02f,+6.48038015e-02f,+6.73971623e-02f,-5.97875863e-02f,+4.56836745e-02f,
+1.48337618e-01f,-1.04119815e-02f,-4.37522344e-02f,+1.47490859e-01f,+2.14449972e-01f,
+9.45018530e-02f,+3.43404323e-01f,-6.27403110e-02f,+5.98473772e-02f,+1.37472451e-01f,
+1.47884652e-01f,+1.31627947e-01f,+1.22930087e-01f,+1.54082566e-01f,+1.04365582e-02f,
+8.92516747e-02f,+8.54317918e-02f,-4.54435833e-02f,+8.05549473e-02f,+1.10944323e-01f,
+1.57360844e-02f,+3.95160541e-02f,+1.26677349e-01f,+1.00374185e-01f,+1.77353278e-01f,
-1.04415961e-01f,+1.53317377e-01f,+1.04009017e-01f,+8.12847391e-02f,+1.44460559e-01f,
+2.38947459e-02f,+7.25979358e-02f,-1.35383785e-01f,+9.85891446e-02f,+2.40247160e-01f,
+1.02863029e-01f,+2.52318054e-01f,+9.78677943e-02f,+1.17773034e-01f,+1.97129250e-02f,
+1.44560695e-01f,+1.29650012e-01f,+1.77139901e-02f,+1.35281086e-01f,+8.90285429e-03f,
+2.15628911e-02f,+2.21408591e-01f,+8.74804482e-02f,+8.97354037e-02f,+1.10113300e-01f,
-1.31976008e-01f,-7.82580003e-02f,+2.03654855e-01f,+1.61134452e-01f,-6.39432296e-02f,
-1.75882757e-01f,+4.53050435e-03f,+1.57319859e-01f,+1.31496657e-02f,+2.25929394e-01f,
+3.04702312e-01f,+3.75313796e-02f,+4.05617580e-02f,+1.19317330e-01f,+1.47180304e-01f,
+1.91167355e-01f,-1.85972631e-01f,+1.37629598e-01f,+8.85980651e-02f,-1.40118152e-01f,
-1.00772686e-01f,+1.64087508e-02f,+6.62108734e-02f,+1.30222306e-01f,+1.98553562e-01f,
+1.78007651e-02f,-7.10932463e-02f,+1.24793999e-01f,+1.58982918e-01f,-1.88096151e-01f,
-1.38906151e-01f,+1.60988957e-01f,-7.74205774e-02f,+1.76215339e-02f,+6.59413412e-02f,
-6.77705780e-02f,+1.60901606e-01f,+1.56439319e-02f,+2.46639282e-01f,+1.59088656e-01f,
+1.06017500e-01f,-2.84922328e-02f,-1.55698046e-01f,-1.43884256e-01f,+3.70694846e-02f,
+6.16476536e-02f,+6.79296702e-02f,+1.22747056e-01f,+2.22373948e-01f,+1.18153896e-02f,
+1.50779247e-01f,-4.92372327e-02f,+2.79379368e-01f,+3.00481357e-02f,-2.23819558e-02f,
+7.03556016e-02f,+6.01160564e-02f,+3.41634564e-02f,+2.73866534e-01f,+1.27667055e-01f,
-4.15703002e-03f,+1.62262201e-01f,+2.15440825e-01f,+5.90361580e-02f,+7.17821866e-02f,
+2.12752059e-01f,+1.92295149e-01f,+5.75252734e-02f,+1.31724849e-01f,+1.52218357e-01f,
+2.66489357e-01f,+5.86335212e-02f,-5.77721074e-02f,-3.71143296e-02f,-1.69810474e-01f,
+3.87666114e-02f,+1.88372880e-01f,+3.10384035e-01f,-1.09348588e-01f,+1.61760598e-01f,
-1.15553522e-02f,+1.75379381e-01f,-1.66464925e-01f,+1.36783019e-01f,+1.94840536e-01f,
+2.45001972e-01f,+9.09977630e-02f,-2.07554158e-02f,+1.18634896e-02f,+9.67355669e-02f,
+1.05130821e-02f,+8.24018344e-02f,+8.82114395e-02f,+3.36684763e-01f,+2.29753390e-01f,
+7.16170594e-02f,-2.22292496e-03f,+1.58631489e-01f,+1.29332289e-01f,+1.08426988e-01f,
+2.05560327e-01f,+1.27287591e-02f,+1.11468047e-01f,+3.65046114e-01f,-8.02957639e-02f,
-2.60721017e-02f,+9.19513851e-02f,+3.16758081e-02f,+1.10995352e-01f,+1.37792289e-01f,
+1.94455460e-01f,+6.50086105e-02f,+7.15226829e-02f,+2.34501343e-02f,+1.45416502e-02f,
+2.59873420e-01f,+2.55282521e-02f,+1.88529521e-01f,+8.21353048e-02f,+3.15110572e-02f,
+9.29425951e-05f,+6.80476278e-02f,-5.65940253e-02f,+2.44905166e-02f,+1.16669960e-01f,
-1.18711889e-02f,+2.35102400e-01f,-5.12443809e-03f,+2.19616052e-02f,-9.04126000e-03f,
+6.83943257e-02f,-4.11106348e-02f,+1.45305067e-01f,+8.24731737e-02f,+1.57762781e-01f,
+1.11966677e-01f,-2.32739728e-02f,+9.46580246e-03f,+2.47768462e-02f,+8.41560587e-02f,
+2.30712593e-02f,+9.01732892e-02f,+1.07904561e-01f,+2.75565088e-01f,-1.64473839e-02f,
-1.35480568e-01f,+9.13764387e-02f,-1.09733809e-02f,+2.28175446e-01f,+1.12645552e-02f,
-1.11457072e-01f,+1.51095748e-01f,-7.27001727e-02f,-1.53046817e-01f,+2.02498287e-01f,
+3.87075022e-02f,+5.13707250e-02f,+6.20461889e-02f,+1.14356466e-01f,+1.62057847e-01f,
+3.93527746e-02f,-1.00331038e-01f,+7.50112627e-03f,-3.07786241e-02f,+1.07460007e-01f,
-8.26602336e-03f,+1.28360838e-01f,+1.22483797e-01f,+1.70824334e-01f,-3.81079726e-02f,
+2.85491981e-02f,-1.37861490e-01f,+2.33883467e-02f,+6.68992102e-02f,+1.58342227e-01f,
-2.77772602e-02f,+1.52898014e-01f,+1.77015796e-01f,-7.49845104e-03f,+2.58685470e-01f,
-1.72802247e-02f,+1.53334752e-01f,-1.11715890e-01f,+9.22134612e-03f,+1.23388506e-01f,
-2.05596164e-01f,-1.29175231e-01f,-8.00161734e-02f,+1.27577618e-01f,+1.60686657e-01f,
+1.64964363e-01f,+1.60052106e-01f,+2.64470786e-01f,+1.98718175e-01f,+1.64019555e-01f,
+3.32698524e-02f,+7.65684918e-02f,-7.32281730e-02f,-3.17213661e-03f,+8.85964110e-02f,
-2.48774037e-01f,+1.16132945e-01f,+1.34872660e-01f,+2.01313585e-01f,+1.62827656e-01f,
+1.42213345e-01f,+6.14201576e-02f,-2.47041369e-03f,+2.07570314e-01f,+2.76025236e-01f,
-1.38343573e-01f,+4.26479168e-02f,-5.08637205e-02f,+1.85075462e-01f,-5.68795167e-02f,
+1.56985030e-01f,-1.12824596e-01f,+1.96526214e-01f,+1.86982691e-01f,+1.82282478e-01f,
-2.91487742e-02f,+7.09633455e-02f,+4.34168503e-02f,+4.71201651e-02f,-1.37090996e-01f,
+1.03669301e-01f,+1.87726934e-02f,+6.61024302e-02f,-6.21093176e-02f,+1.64668649e-01f,
+2.54820734e-01f,+4.07870859e-03f,+2.01944932e-01f,+1.21582828e-01f,+1.83153197e-01f,
-6.96724132e-02f,+2.34137356e-01f,-2.74650436e-02f,+1.11161321e-01f,+9.96216536e-02f,
-1.84229210e-01f,+5.91256581e-02f,+2.02655196e-01f,+8.59144144e-03f,+2.83203244e-01f,
-9.07013193e-02f,+5.52900396e-02f,+1.89324945e-01f,+1.32869005e-01f,+1.54867336e-01f,
-5.54884877e-03f,-1.82475913e-02f,+5.08095361e-02f,+5.58431819e-02f,+6.08240440e-02f,
+4.93235588e-02f,+1.68551162e-01f,-1.52635090e-02f,-9.81754363e-02f,+1.83321252e-01f,
+8.45887139e-02f,+1.20844260e-01f,+1.42866611e-01f,+1.74370453e-01f,+1.83647364e-01f,
-3.59554626e-02f,-1.31114561e-03f,-4.26850244e-02f,+1.16442010e-01f,+1.29840195e-01f,
+1.30621940e-01f,+2.25882828e-01f,+2.38147810e-01f,+1.71326965e-01f,+1.18921027e-01f,
-9.78337973e-02f,-5.88837788e-02f,+8.74511749e-02f,+1.36170343e-01f,-8.72104764e-02f,
-2.97703326e-01f,+1.11244172e-01f,+9.28765312e-02f,+4.60422449e-02f,+4.21242602e-03f,
+1.68960959e-01f,-2.77202167e-02f,+1.53421042e-02f,+1.09364599e-01f,-5.14362231e-02f,
+9.12666097e-02f,+9.19544324e-02f,+3.50618251e-02f,-2.74199862e-02f,+9.50771794e-02f,
+1.16155937e-01f,+4.09580469e-02f,+1.91525534e-01f,+4.95310575e-02f,-1.05619267e-01f,
+1.99774206e-02f,+1.68098927e-01f,+1.02184433e-02f,+4.57451083e-02f,+1.48811981e-01f,
+1.12087153e-01f,-2.56916344e-01f,+5.14716431e-02f,-5.19474633e-02f,+1.67664751e-01f,
-1.03793934e-01f,-3.72941568e-02f,+3.92856747e-02f,+5.42509705e-02f,+1.13118485e-01f,
+1.94744635e-02f,-1.60954639e-01f,+1.50418624e-01f,+2.61488527e-01f,+1.17331296e-01f,
+5.30708395e-02f,+2.58087009e-01f,+3.03235561e-01f,-1.63019914e-02f,+3.06073297e-02f,
+1.58485323e-01f,-1.29016824e-02f,+1.68039933e-01f,+2.64347434e-01f,+1.69337331e-03f,
-7.38950819e-02f,+1.30840316e-01f,+2.09218055e-01f,+2.27965526e-02f,-2.11494595e-01f,
+5.00587672e-02f,-2.12997515e-02f,-6.26356751e-02f,+1.03929657e-02f,+1.44097030e-01f,
+3.07030901e-02f,+4.21586707e-02f,+2.15604566e-02f,+2.44698256e-01f,+2.79972702e-01f,
+1.51405394e-01f,+8.56299028e-02f,+1.74635619e-01f,+9.22166929e-02f,+1.19981945e-01f,
+1.55675307e-01f,+3.63554209e-02f,+9.54694375e-02f,-1.84996560e-01f,+2.67847478e-01f,
+2.70544708e-01f,+3.92921641e-02f,-1.35043904e-01f,+1.11759603e-01f,+9.02584642e-02f,
+1.22717686e-01f,+8.50547105e-02f,+2.47681439e-02f,-5.78903183e-02f,+6.85925782e-02f,
-1.25128226e-02f,+2.20559135e-01f,+8.37089941e-02f,+1.53890938e-01f,+1.45136237e-01f,
+1.29976615e-01f,-4.00690399e-02f,+4.48037125e-02f,+6.63657784e-02f,+4.22213897e-02f,
+7.33051300e-02f,-1.50746405e-01f,+4.96145785e-02f,-7.68867228e-03f,+2.25033388e-01f,
+5.65178953e-02f,+1.86431333e-01f,+3.05738170e-02f,-7.84410313e-02f,+3.08775783e-01f,
+3.22574861e-02f,+2.20162705e-01f,-2.51612086e-02f,-2.71100774e-02f,+1.00497752e-01f,
-2.19758619e-02f,+4.79711257e-02f,-1.15489569e-02f,-4.17984836e-02f,+8.42990652e-02f,
+1.45854736e-02f,+1.53756291e-01f,+2.03171372e-01f,-6.63508847e-02f,+8.64976570e-02f,
+1.26636192e-01f,+4.40375775e-01f,+1.15579218e-01f,+9.66349319e-02f,+7.04594254e-02f,
+1.50237188e-01f,+1.28799066e-01f,+3.50745558e-03f,+2.54966974e-01f,+1.50355488e-01f,
+3.96730900e-02f,+3.62177193e-02f,-1.16357811e-01f,-6.65751472e-02f,-3.23777869e-02f,
+3.32856271e-03f,+1.27435282e-01f,+2.50819057e-01f,+3.36138271e-02f,-8.63315538e-02f,
+7.45006651e-02f,+9.01448056e-02f,+2.47658473e-02f,+5.18920496e-02f,+4.56112176e-02f,
+1.79503039e-01f,-7.82868546e-03f,+8.49341527e-02f,+1.12540416e-01f,+1.20907806e-01f,
+8.44997391e-02f,+8.45425725e-02f,+1.90864280e-01f,+1.79169178e-01f,-6.03392534e-02f,
+2.03873411e-01f,-1.26501054e-01f,+1.99309692e-01f,+6.99429065e-02f,-9.05399099e-02f,
+2.10780933e-01f,+7.63700008e-02f,-2.38130670e-02f,+3.18004817e-01f,+1.94527268e-01f,
+9.95575264e-02f,+1.80201679e-01f,+1.97639525e-01f,+2.29447819e-02f,+3.07045933e-02f,
+1.34536386e-01f,+1.14016078e-01f,-1.11956425e-01f,+1.09564193e-01f,-5.82721978e-02f,
+8.46161842e-02f,+7.70028159e-02f,+9.13236067e-02f,+1.26066104e-01f,+5.62111512e-02f,
+1.88307717e-01f,+3.97068411e-02f,+1.04321271e-01f,-2.70262569e-01f,+5.55071384e-02f,
+1.36767313e-01f,+2.38724932e-01f,+9.13808644e-02f,+1.55617227e-03f,+1.64096758e-01f,
+7.87120759e-02f,+2.66540796e-02f,-7.74397478e-02f,-6.78360788e-03f,-2.02907380e-02f,
+4.55071665e-02f,+2.96563327e-01f,+8.43143761e-02f,-1.00722536e-01f,-1.11860357e-01f,
+1.08168973e-02f,-1.22938737e-01f,+1.16599910e-01f,-3.01272832e-02f,+9.05128568e-02f,
+1.15828872e-01f,+1.85252670e-02f,+2.16342464e-01f,-3.40617970e-02f,+1.81037396e-01f,
+5.31669483e-02f,-1.27603695e-01f,-1.02624781e-01f,+9.69243273e-02f,-1.32305488e-01f,
-5.22868372e-02f,+6.40055463e-02f,+1.76013723e-01f,-4.45871055e-02f,+1.23717068e-02f,
+1.66960821e-01f,-8.71379897e-02f,+9.05704722e-02f,-1.02003574e-01f,+2.67172188e-01f,
+2.93355048e-01f,+1.79292172e-01f,+1.05140097e-01f,+1.10220425e-01f,+3.05231631e-01f,
-1.23379909e-01f,+5.99708557e-02f,+8.08839500e-02f,+1.48902401e-01f,+1.73836023e-01f,
-5.50250299e-02f,+8.88523161e-02f,-2.31496524e-02f,+4.85897884e-02f,+8.63743648e-02f,
-9.04042646e-02f,+2.25065462e-02f,-6.04569912e-02f,-1.10703103e-01f,-1.14287630e-01f,
+4.13419642e-02f,-2.27474067e-02f,-3.59699540e-02f,+5.75231425e-02f,-2.75952891e-02f,
+9.53392498e-03f,+7.15980455e-02f,+1.20066859e-01f,-1.85383949e-02f,+1.49561185e-02f,
-1.33628905e-01f,+1.40797213e-01f,+2.12599859e-02f,+3.51253957e-01f,-1.18579596e-01f,
-9.04451162e-02f,+7.84588605e-03f,-8.35589599e-03f,+1.00408480e-01f,-1.52378501e-02f,
+3.95840891e-02f,-6.91361502e-02f,+7.21118748e-02f,-1.36117622e-01f,+4.25757021e-02f,
+2.22867936e-01f,+1.24210743e-02f,-1.07947230e-01f,+3.25270258e-02f,+7.02020973e-02f,
-1.00071833e-01f,-9.01071937e-04f,-1.48758739e-01f,-1.68213062e-02f,-2.46510744e-01f,
-2.10003644e-01f,+3.31810787e-02f,+4.58019041e-02f,-1.57245770e-02f,+1.60106599e-01f,
+9.18253586e-02f,+6.80522248e-02f,+4.50323410e-02f,+1.40416354e-01f,+2.30868623e-01f,
+8.50327909e-02f,-1.45053655e-01f,-1.22409493e-01f,-1.35165015e-02f,+2.25713775e-02f,
+2.96726450e-02f,+1.34753257e-01f,+7.88050443e-02f,+8.96643698e-02f,+1.01669896e+00f,
-9.15499806e-01f,+1.26803583e-02f,+1.46507949e-01f,+2.33132541e-02f,+6.80241883e-02f,
+3.23089920e-02f,-1.87665150e-02f,+5.86088523e-02f,+2.05018654e-01f,+8.84804651e-02f,
+3.54300663e-02f,-1.33412350e-02f,+1.80991337e-01f,+6.65808842e-02f,+1.80612311e-01f,
+2.07901057e-02f,-1.79845423e-01f,+5.29251061e-02f,+3.25309695e-04f,+1.23167612e-01f,
+1.16165057e-01f,+6.54887035e-02f,+1.11807123e-01f,-1.03041008e-02f,+2.12725505e-01f,
-1.55407518e-01f,-9.49891284e-04f,+1.78961024e-01f,+8.14921483e-02f,+4.59254161e-02f,
+8.88672695e-02f,+8.28576386e-02f,-3.83565873e-02f,+1.23665281e-01f,-2.90960729e-01f,
+7.04805553e-02f,+1.35541663e-01f,+1.01901956e-01f,-8.21384937e-02f,+6.53308555e-02f,
+9.73872617e-02f,+4.71443906e-02f,-6.35733223e-03f,-3.62480879e-01f,+9.20173898e-02f,
+3.66586521e-02f,-1.08702973e-01f,+1.04648337e-01f,-6.72271028e-02f,-1.00275129e-01f,
-5.89891598e-02f,+2.23189592e-01f,+1.15762502e-01f,-6.41382486e-02f,+1.32980272e-01f,
+9.87873077e-02f,+7.80161321e-02f,+8.37541074e-02f,+6.90531805e-02f,+5.99338889e-01f,
-5.60891442e-02f,+6.97190734e-03f,+4.20280881e-02f,-8.53562541e-03f,+2.22676948e-01f,
+7.27546364e-02f,-3.00849695e-02f,+7.99315050e-02f,-7.09843785e-02f,-5.45672663e-02f,
+1.32117020e-02f,-2.22641274e-01f,-1.81810558e-02f,+6.19502030e-02f,+6.52971044e-02f,
+4.45140228e-02f,+2.27950037e-01f,+3.19173664e-01f,+2.00521007e-01f,+4.42029387e-02f,
-1.37049720e-01f,+6.44209683e-02f,-4.01086897e-01f,-4.01014797e-02f,-4.78190273e-01f,
+1.43298702e-02f,+6.47229999e-02f,+6.79575875e-02f,+1.09791954e-03f,-7.75243118e-02f,
+1.41115980e-02f,+8.65224972e-02f,-7.04537183e-02f,+2.19361544e-01f,+7.80646652e-02f,
+1.34098783e-01f,+4.62929755e-02f,+1.74526319e-01f,+7.72824883e-02f,-2.27749929e-01f,
+1.81160033e-01f,+6.89219460e-02f,+6.90049291e-01f,-5.34747057e-02f,+1.14321902e-01f,
+1.21150970e-01f,-3.61868255e-02f,+1.30051836e-01f,-8.63561686e-03f,+4.49335761e-02f,
+7.12803332e-03f,+6.47701174e-02f,+6.19253963e-02f,+1.63788781e-01f,+2.29125880e-02f,
+1.25593945e-01f,+1.30413622e-02f,+1.08943522e-01f,+1.19207934e-01f,+1.19860247e-01f,
+1.90525770e-01f,-3.84051241e-02f,+9.59637687e-02f,+5.55872433e-02f,+6.59896061e-02f,
-3.24810157e-03f,+1.35368302e-01f,+1.00126743e-01f,+1.54750170e-02f,+1.00145864e+00f,
+9.79874283e-02f,+3.37871283e-01f,+2.68605679e-01f,-3.10627930e-02f,-7.31716678e-02f,
-3.20983082e-02f,+5.97419888e-02f,+2.28036046e-01f,+1.34660855e-01f,+1.66742668e-01f,
+6.91516697e-02f,-1.26310093e-02f,+1.50616959e-01f,-7.82171562e-02f,+8.95509347e-02f,
+7.35107958e-02f,+4.59730960e-02f,+5.01459725e-02f,-1.10821985e-01f,-1.72193334e-01f,
+2.60064676e-02f,-1.01844363e-01f,-2.77418904e-02f,+6.32242709e-02f,+1.55746215e-03f,
+1.36851430e-01f,+5.11051342e-02f,-1.73577935e-01f,+1.29606336e-01f,-9.99306291e-02f,
-6.65271515e-03f,+1.03876464e-01f,-1.58656724e-02f,+1.66657731e-01f,+2.63574958e-01f,
+2.43923888e-01f,+4.94890735e-02f,+8.45014676e-02f,+8.90031010e-02f,+3.12228110e-02f,
-3.27992216e-02f,+2.10510284e-01f,+1.58111434e-02f,-3.42201665e-02f,+1.38819471e-01f,
+4.70784567e-02f,+1.37509331e-01f,+5.94351701e-02f,+1.13897830e-01f,+1.52803794e-01f,
+1.56764582e-01f,-4.58447784e-01f,+3.28835621e-02f,+1.37988463e-01f,+8.62779543e-02f,
+1.56438217e-01f,+6.06324300e-02f,+1.44514158e-01f,+7.36127570e-02f,+6.30892739e-02f,
+7.93406591e-02f,+7.89855644e-02f,-4.53177653e-02f,+9.20407772e-02f,-2.47810781e-02f,
+1.05349515e-02f,+2.28616804e-01f,+6.06520064e-02f,+1.79168150e-01f,+1.11263253e-01f,
+1.37586579e-01f,+2.21394032e-01f,+9.22854394e-02f,+1.69711903e-01f,-3.17581557e-02f,
+2.00444758e-01f,-5.87998293e-02f,+1.50725082e-01f,-1.18996151e-01f,+3.85665633e-02f,
-7.96570443e-03f,-6.70959279e-02f,-1.19873092e-01f,-5.56399934e-02f,+2.06938908e-01f,
-4.26935852e-02f,+1.35892883e-01f,+9.00523216e-02f,-8.51506472e-01f,+2.98401359e-02f,
+6.79485574e-02f,+8.04331899e-02f,-2.00814046e-02f,+1.17585003e-01f,+1.03530407e-01f,
+2.59167552e-01f,+1.24896124e-01f,+9.69053134e-02f,+1.19165964e-02f,+2.40572184e-01f,
-8.64607766e-02f,+2.66192276e-02f,-1.00433812e-01f,+8.71097390e-03f,+1.68177392e-02f,
+1.39424518e-01f,+1.11687295e-01f,+1.83757633e-01f,+2.61850744e-01f,+7.60685429e-02f,
-1.03861973e-01f,+1.83094427e-01f,+6.18053004e-02f,-5.17982602e-01f,+7.39644021e-02f,
+3.52649868e-01f,-4.16856557e-02f,+1.38945624e-01f,+3.85436900e-02f,+1.69314340e-01f,
+2.95646470e-02f,+5.57160378e-02f,+3.80034372e-02f,-1.43966153e-01f,-5.52845411e-02f,
-3.52122262e-02f,+2.71711349e-02f,+3.65430303e-02f,+2.60146022e-01f,+1.55652419e-01f,
+1.02777869e-01f,+1.77676871e-01f,+8.20751339e-02f,-1.06154837e-01f,+8.65627155e-02f,
+1.99240502e-02f,+4.89903577e-02f,+1.23504072e-01f,+1.46689996e-01f,+1.79167464e-01f,
+2.86312606e-02f,+1.65044606e-01f,+1.08836375e-01f,+7.68549070e-02f,+5.06740361e-02f,
+1.89365238e-01f,+6.34904355e-02f,+2.03592107e-01f,+2.75694840e-02f,+7.50042349e-02f,
+6.67751506e-02f,-4.22784910e-02f,+1.30208340e-02f,-1.06379747e-01f,+1.27793014e-01f,
-1.78938396e-02f,+8.01251736e-03f,+2.81956587e-02f,+2.72314139e-02f,-5.71220219e-02f,
-1.28364950e-01f,+5.80204837e-02f,+5.00459149e-02f,+1.24063276e-01f,-1.33504525e-01f,
+6.07317463e-02f,-2.92480942e-02f,+1.56807110e-01f,+2.53419548e-01f,+8.42286795e-02f,
+1.36588782e-01f,+3.95357236e-02f,+2.15480760e-01f,+5.53917587e-02f,+8.53439122e-02f,
+7.01840594e-02f,+1.49664029e-01f,+5.03722765e-02f,+6.90545291e-02f,+5.57359233e-02f,
+7.23852813e-02f,-7.55006522e-02f,+9.52987671e-02f,+1.06289327e-01f,+1.80247545e-01f,
+3.52089740e-02f,-4.12908243e-03f,+9.53755602e-02f,+1.53323114e-01f,+7.21726045e-02f,
+9.61330459e-02f,+1.09629855e-01f,+1.81234285e-01f,+7.83247426e-02f,+1.54183581e-01f,
+1.71213318e-02f,+1.51207209e-01f,+1.83919683e-01f,-1.87327012e-01f,+1.21704444e-01f,
+4.76545934e-03f,-7.99765810e-02f,-4.08265144e-02f,+1.51193915e-02f,+1.15856305e-02f,
-8.32364932e-02f,+1.59216136e-01f,+1.24352403e-01f,+1.94477081e-01f,+1.75226927e-01f,
+2.13073760e-01f,+2.22983345e-01f,+1.50700092e-01f,+7.36719668e-02f,-4.59246375e-02f,
+6.41844496e-02f,+2.49467060e-01f,+5.09105064e-02f,+9.15271789e-02f,+2.18063265e-01f,
+1.24486722e-01f,+1.32251829e-01f,+8.76337662e-03f,+8.86464939e-02f,+8.77076313e-02f,
+1.31072551e-01f,-9.96196922e-03f,+1.64667293e-01f,+2.69350894e-02f,+4.00653332e-02f,
+1.72495455e-01f,+2.09764540e-01f,+1.29636660e-01f,+1.56875104e-01f,+2.11625788e-02f,
+2.09520459e-01f,-7.94917047e-02f,+3.25641073e-02f,+1.12833709e-01f,-1.08836703e-02f,
+2.30995089e-01f,+7.66219199e-02f,+1.42106846e-01f,+1.67294703e-02f,+1.02961637e-01f,
+8.16579536e-02f,+1.23567702e-02f,-1.48671612e-01f,+1.31084248e-01f,+1.00284539e-01f,
+8.70469064e-02f,-5.84884807e-02f,+4.22396027e-02f,+3.96399409e-01f,+1.01135105e-01f,
+1.35492444e-01f,+9.15535092e-02f,-6.16304390e-02f,+1.36283681e-01f,-4.36472241e-03f,
+1.98359966e-01f,-6.60482794e-02f,+1.32011697e-01f,+6.52370527e-02f,+6.09700568e-02f,
-1.13336429e-01f,+1.20476931e-01f,-1.02906868e-01f,+6.32932335e-02f,+1.01306923e-01f,
+2.54154682e-01f,+2.16978732e-02f,-3.88607942e-02f,+2.20318213e-01f,-4.47558090e-02f,
+1.92423373e-01f,+3.06936037e-02f,+1.33433998e-01f,+1.17484309e-01f,-4.92468253e-02f,
+3.84189449e-02f,+9.64151521e-04f,-2.90278886e-02f,+7.30115473e-02f,+1.88236073e-01f,
+1.71059415e-01f,+3.33759491e-03f,+5.47382198e-02f,+5.52889705e-02f,+1.30950585e-01f,
+2.63498947e-02f,-8.15220252e-02f,+2.63669580e-01f,+1.98979497e-01f,+9.44617689e-02f,
+2.59562522e-01f,+1.03244342e-01f,+1.30102813e-01f,+1.90177888e-01f,+4.34181951e-02f,
+7.97742382e-02f,+1.04783505e-01f,-5.64293750e-02f,+8.49042907e-02f,+1.96018070e-01f,
-1.81250975e-01f,+1.36374891e-01f,+4.07764688e-02f,+1.50998488e-01f,+8.89611170e-02f,
+1.74754977e-01f,+1.26035854e-01f,+4.54844125e-02f,+2.30854511e-01f,-2.38893293e-02f,
+1.67461373e-02f,+1.46424994e-02f,+1.55175418e-01f,+6.48822337e-02f,+1.08882211e-01f,
+4.98940982e-02f,+8.10557529e-02f,+2.80637681e-01f,+5.94679490e-02f,+1.21122323e-01f,
+2.27185622e-01f,+2.61861473e-01f,+6.25059800e-03f,+2.70619631e-01f,+6.73523545e-02f,
+6.38047531e-02f,-6.49456531e-02f,+5.09367883e-02f,+1.29357621e-01f,+1.90685049e-01f,
+1.99716449e-01f,+1.91619024e-01f,-8.73323530e-02f,+2.40243986e-01f,+2.17641518e-01f,
+3.58205196e-03f,-3.98079428e-04f,+3.36835794e-02f,-9.07629654e-02f,+4.12992984e-02f,
-3.18996310e-02f,+1.13950521e-01f,+6.40077218e-02f,+1.39005259e-01f,+1.05943799e-01f,
+6.80583864e-02f,+1.15315616e-01f,+2.12803409e-01f,+7.10936710e-02f,+1.81036502e-01f,
+1.68694749e-01f,-3.06830332e-02f,+2.03354340e-02f,+1.62385926e-01f,+8.36926177e-02f,
+1.40352979e-01f,+2.34600186e-01f,+1.63191631e-01f,+1.36876494e-01f,+4.25624736e-02f,
+2.42271662e-01f,+1.79320753e-01f,+6.08379953e-02f,+6.71990439e-02f,+1.48910671e-01f,
+1.62213042e-01f,-5.88527741e-03f,+1.39062125e-02f,+5.81485331e-02f,+3.26492488e-02f,
+1.93951428e-01f,+3.26636322e-02f,+8.94736648e-02f,+2.17798337e-01f,+2.48262405e-01f,
-2.99814176e-02f,+2.91610956e-01f,+4.05817591e-02f,-1.98491514e-01f,+1.67501003e-01f,
+1.40319943e-01f,+1.56660542e-01f,+8.44389722e-02f,+8.91734287e-02f,+7.41393790e-02f,
+2.54280691e-04f,+3.03316742e-01f,+1.34745583e-01f,+6.78039938e-02f,+3.42975296e-02f,
+9.74109583e-03f,-7.75702149e-02f,+7.41328672e-02f,-9.20241699e-02f,-1.00644700e-01f,
+1.07717372e-01f,+6.85159266e-02f,-1.18383706e-01f,-6.02269955e-02f,+1.89382695e-02f,
+1.31322041e-01f,+9.08959657e-02f,-1.78142220e-01f,+2.31191859e-01f,+3.65500227e-02f,
+1.19234055e-01f,-2.15765655e-01f,+2.30907455e-01f,-5.93794882e-03f,+1.52568221e-01f,
-3.74793783e-02f,+5.35814762e-02f,+3.00083645e-02f,+1.08748665e-02f,+1.79833934e-01f,
+1.21629335e-01f,-3.06114126e-02f,+2.27614611e-01f,-4.11912091e-02f,+1.49606600e-01f,
+2.81417429e-01f,+5.95898591e-02f,-1.97562113e-01f,+2.13816941e-01f,+2.13699833e-01f,
+1.46218389e-02f,+2.03452893e-02f,-8.14953726e-03f,+1.55844055e-02f,+1.29477456e-01f,
+1.96195915e-01f,+1.98894693e-03f,+1.04379378e-01f,+7.38038048e-02f,+9.60219800e-02f,
+1.47045210e-01f,+1.50453493e-01f,+1.09915882e-02f,+2.75994509e-01f,+7.14420453e-02f,
+2.00556964e-01f,-8.68968964e-02f,-1.10288756e-03f,+9.33281332e-02f,-7.44448788e-03f,
+8.19528326e-02f,+8.27952996e-02f,+7.19426870e-02f,-2.46430952e-02f,+1.00271709e-01f,
+7.84931928e-02f,+4.56396816e-03f,+1.59992322e-01f,+2.73502362e-03f,-6.09952807e-02f,
+1.01133637e-01f,+3.29357013e-02f,-9.31766443e-03f,+1.23249774e-04f,+8.86681229e-02f,
+4.82915342e-02f,+5.70007600e-02f,+2.28092670e-02f,+1.35955378e-01f,-7.02058598e-02f,
+1.13368601e-01f,+4.78601009e-02f,+8.56611207e-02f,+3.80674601e-02f,+1.30726740e-01f,
+2.13541184e-02f,+1.56057077e-02f,+2.92237252e-01f,-3.89632434e-02f,+1.65930003e-01f,
+2.33444590e-02f,-9.57324803e-02f,+1.41378120e-01f,+1.59626082e-01f,+1.92915201e-01f,
+1.25140220e-01f,+5.14314286e-02f,+4.41647172e-02f,+6.97311834e-02f,+4.28488404e-02f,
-1.38289288e-01f,-2.56662630e-02f,+3.19244824e-02f,+7.51828402e-02f,+1.11789010e-01f,
+1.44818733e-02f,+1.02070975e-03f,-3.68642248e-02f,+1.05725326e-01f,-1.22614736e-02f,
-4.71284688e-02f,+3.63026969e-02f,+1.52332373e-02f,+3.77010703e-02f,+4.83500585e-03f,
+1.34154633e-01f,-7.03707412e-02f,-1.00613989e-01f,+1.06688002e-02f,+4.46470492e-02f,
-6.60227705e-03f,+6.49688840e-02f,+5.14692776e-02f,+1.34528607e-01f,+4.91183139e-02f,
-3.98651585e-02f,+1.10153019e-01f,+1.65436015e-01f,+8.21259245e-02f,-1.20195411e-02f,
-7.71039277e-02f,-7.07614198e-02f,+6.16673008e-02f,+1.08961962e-01f,+4.77094650e-02f,
+8.67333263e-02f,+1.67688802e-01f,-3.59312668e-02f,+2.34456539e-01f,+1.08515330e-01f,
+7.33804181e-02f,+1.47041261e-01f,-1.43176606e-02f,+8.12382400e-02f,-6.42413273e-02f,
+2.43590754e-02f,+5.19296061e-03f,+1.00136913e-01f,+2.06604421e-01f,+9.28529426e-02f,
+4.76395190e-02f,+3.63726392e-02f,-1.66903093e-01f,+8.03984702e-02f,-1.05449721e-01f,
-7.04550296e-02f,+6.52714297e-02f,+1.39953315e-01f,+1.68919545e-02f,+2.15006009e-01f,
-9.44645610e-03f,+6.02153279e-02f,+1.43940270e-01f,+1.26812682e-01f,+5.77748045e-02f,
+7.14340189e-04f,-1.53554395e-01f,+1.80077374e-01f,+2.02930689e-01f,-4.34804223e-02f,
+2.19986051e-01f,+1.86290592e-01f,+4.48115803e-02f,+1.01995058e-01f,-2.25283368e-03f,
+3.72297466e-02f,+4.82099578e-02f,+8.73870403e-02f,+2.05016211e-02f,+4.63443022e-04f,
+4.41512186e-03f,+9.09260735e-02f,+1.39404789e-01f,+6.76046917e-03f,+6.00736998e-02f,
+4.05803137e-02f,+1.66129470e-01f,+2.43676543e-01f,+2.04069410e-02f,-1.95499677e-02f,
-4.17013513e-03f,+3.27027701e-02f,+2.09478781e-01f,+2.28803325e-02f,+2.38399729e-01f,
+1.17465250e-01f,+2.77033988e-02f,+1.08802825e-01f,+1.44217657e-02f,+1.50315210e-01f,
+2.34020934e-01f,+1.86733957e-02f,-1.47933271e-02f,+1.77265644e-01f,-1.76835373e-01f,
+2.01473534e-01f,+7.46475518e-01f,+6.75619766e-02f,+6.98703602e-02f,+1.56285763e-01f,
+4.26869877e-02f,+7.28797391e-02f,+3.63674983e-02f,+2.41217837e-01f,+1.56244710e-02f,
+6.23776997e-03f,+6.50429726e-02f,+6.57158792e-02f,-7.80761316e-02f,+1.13464028e-01f,
-3.21428254e-02f,+4.95142937e-02f,+4.58491147e-02f,+7.12578595e-02f,+1.81952268e-01f,
-2.88468841e-02f,+1.06143601e-01f,+6.89308196e-02f,+1.35259539e-01f,-1.37971818e-01f,
+4.34459932e-02f,-3.19221206e-02f,+3.39351185e-02f,+1.61011994e-01f,+7.55379498e-02f,
+1.10442244e-01f,-1.20251253e-01f,-7.54519477e-02f,+2.05085352e-01f,+4.53352183e-02f,
+5.75585850e-02f,+4.56652381e-02f,+1.53762862e-01f,-4.39795703e-02f,-3.55608650e-02f,
+1.74687617e-02f,+6.78458586e-02f,-9.18980781e-03f,+1.04001172e-01f,+9.53893736e-03f,
+2.25678459e-02f,-4.07892279e-02f,+1.56330764e-02f,+4.04528715e-03f,+1.98792145e-01f,
+5.17389029e-02f,-1.08144057e+00f,+1.18495360e-01f,+1.21019013e-01f,+1.63562089e-01f,
+1.74601063e-01f,+9.64847431e-02f,+3.96804558e-03f,+3.02382186e-02f,+4.99419905e-02f,
+1.80626780e-01f,+6.42529279e-02f,+1.49070412e-01f,+8.91554654e-02f,+1.33282438e-01f,
+4.24292833e-02f,+5.82920723e-02f,+4.26543318e-02f,+3.03597525e-02f,+8.00649151e-02f,
+1.67037711e-01f,-9.26452056e-02f,+1.55643702e-01f,+1.84203801e-03f,+2.55797934e-02f,
+7.30756223e-02f,+1.04551524e-01f,-1.68298453e-01f,+1.22649230e-01f,+2.73696911e-02f,
+3.56069617e-02f,-6.42566308e-02f,+1.06452163e-02f,+1.22839652e-01f,+1.42418176e-01f,
+2.30908617e-02f,+1.67022813e-02f,+1.21407108e-02f,-4.82031479e-02f,-1.05588371e-02f,
+4.90749329e-02f,+8.19266960e-02f,+3.49846222e-02f,-8.24344307e-02f,+3.24103497e-02f,
-7.05332905e-02f,-8.75319820e-03f,+1.26745895e-01f,-6.72426727e-03f,+1.34201348e-01f,
+1.75864846e-01f,+1.42785370e-01f,+2.65257090e-01f,-1.84247158e-02f,+3.34293880e-02f,
+8.62123910e-03f,+1.16463157e-03f,+4.48506102e-02f,+5.52972555e-02f,+5.72814085e-02f,
+1.04796439e-02f,-7.14972258e-01f,+2.19812289e-01f,+9.85156000e-03f,+2.05244690e-01f,
-8.93225148e-02f,-1.09898791e-01f,+1.41412616e-01f,-5.08361645e-02f,+2.36267015e-01f,
-1.25211760e-01f,+3.19941342e-03f,-6.19139783e-02f,+1.15785435e-01f,+1.20272599e-01f,
+3.72280270e-01f,+5.19607328e-02f,+2.11547390e-01f,+1.74509391e-01f,-3.26039866e-02f,
+1.24900863e-01f,+2.04588920e-01f,+1.97977331e-02f,+4.11075018e-02f,+1.77991241e-01f,
-3.91994454e-02f,+1.49908483e-01f,+8.23310837e-02f,+6.96352422e-02f,+1.36273280e-01f,
+2.86854416e-01f,+7.20956177e-02f,+1.46073192e-01f,+7.33771473e-02f,+2.66134273e-02f,
-6.42171944e-04f,+5.13315834e-02f,+2.36407951e-01f,-5.96865155e-02f,+9.16547775e-02f,
+5.56624420e-02f,+7.99504817e-02f,+1.21359147e-01f,-2.39607785e-02f,-7.69790232e-01f,
+4.30869088e-02f,+1.51209384e-01f,-5.44451103e-02f,-3.91222835e-02f,+7.85083100e-02f,
+1.02838585e-02f,+1.77615613e-01f,+1.21264420e-01f,-6.31746352e-02f,+1.51862592e-01f,
+9.06913429e-02f,+1.08810149e-01f,+7.00051039e-02f,+1.27908573e-01f,+3.72091345e-02f,
-7.16458932e-02f,+1.50325418e-01f,+1.38052657e-01f,+9.02470201e-02f,-1.73472073e-02f,
+2.20420472e-02f,+5.76155670e-02f,-1.36230709e-02f,+1.31882960e-02f,-5.87231517e-02f,
-9.28253606e-02f,-5.07605076e-02f,-7.25896135e-02f,+1.85109023e-02f,+2.25745384e-02f,
+1.01516955e-01f,+1.00291915e-01f,+1.04186296e-01f,+6.89959824e-02f,+3.15181091e-02f,
+7.77200013e-02f,-1.26439286e-03f,+2.00756900e-02f,+3.33148465e-02f,-1.91282421e-01f,
+1.52667181e-03f,+1.26369670e-01f,+4.71826531e-02f,-1.20049022e-01f,+1.05093129e-01f,
-3.72847430e-02f,-4.71892348e-03f,+3.92382331e-02f,+1.88679546e-01f,-1.38598839e-02f,
+1.08599469e-01f,+1.05826981e-01f,+2.56898757e-02f,+4.15546447e-02f,+3.25860709e-01f,
-1.16174547e-02f,-3.05785030e-01f,+1.69120803e-01f,+1.46249935e-01f,+4.79560941e-02f,
-3.77285331e-02f,+5.21554127e-02f,+3.86710227e-01f,-9.88769457e-02f,+2.67627835e-01f,
+1.07610226e-03f,-1.89313591e-02f,-1.60615407e-02f,+1.97408274e-01f,-2.95156501e-02f,
+1.22988947e-01f,-2.48122320e-01f,-4.77627628e-02f,-4.24657613e-02f,+3.79242674e-02f,
-3.37972268e-02f,-2.46202692e-01f,-1.18720569e-01f,-2.02730224e-02f,+7.66030848e-02f,
-3.55841629e-02f,-2.10829720e-01f,-2.69403994e-01f,-1.46480491e-02f,+7.11807087e-02f,
+4.01916690e-02f,+5.01863398e-02f,+1.61107376e-01f,-1.11153953e-01f,+1.07398525e-01f,
+4.39671993e-01f,+1.55228212e-01f,-6.75287172e-02f,+3.05368695e-02f,-3.59722264e-02f,
-1.55632585e-01f,+4.08755630e-01f,-3.33733588e-01f,+8.51563811e-02f,+2.38345876e-01f,
+1.23384215e-01f,-4.87578148e-03f,-6.42137080e-02f,+8.64029601e-02f,+1.07769333e-01f,
-3.88060361e-02f,+6.50772825e-03f,+8.45795646e-02f,-1.19184643e-01f,+6.79917261e-02f,
-6.73924834e-02f,+7.02414289e-02f,-1.07523665e-01f,-2.13138536e-02f,+6.36392739e-03f,
+1.04130186e-01f,-1.06167421e-01f,+4.07332592e-02f,+1.37317881e-01f,-4.52808663e-02f,
+8.87345970e-02f,+2.36477032e-01f,+9.10873041e-02f,+2.89900303e-01f,+1.24402493e-02f,
-3.32500786e-01f,+8.39536414e-02f,-4.49447408e-02f,+5.12430491e-03f,-6.39518723e-02f,
-1.86789721e-01f,+5.68470694e-02f,+1.95896521e-01f,+7.78650045e-02f,+7.30452910e-02f,
+4.30966318e-02f,+1.90671831e-02f,+1.54248983e-01f,+1.94717601e-01f,-2.11046580e-02f,
-8.25587288e-02f,+1.86820149e-01f,+1.35707017e-02f,-3.09254043e-02f,+6.05590902e-02f,
+2.29811445e-01f,+1.03818297e-01f,+1.55358389e-02f,+3.95765901e-02f,-8.80852118e-02f,
+9.33863148e-02f,+5.13829179e-02f,+6.00481890e-02f,+4.64862734e-02f,-1.26616806e-01f,
+1.07863270e-01f,+2.42345646e-01f,+9.38233659e-02f,-1.14402428e-01f,+3.35530967e-01f,
-3.72548290e-02f,+5.07722124e-02f,+1.94418337e-02f,+4.81145270e-03f,+6.17478639e-02f,
+1.04774296e-01f,-4.05432992e-02f,-7.15292618e-03f,-2.06024751e-01f,-8.19247961e-02f,
-1.53098196e-01f,-3.60965490e-01f,-4.14341688e-02f,-1.89282134e-01f,+2.08397001e-01f,
-5.90561479e-02f,-1.71079248e-01f,-1.54071511e-03f,+3.08839902e-02f,+1.04267225e-01f,
-3.58941294e-02f,+1.68068886e-01f,+1.11628987e-01f,+1.39666662e-01f,+9.92373750e-02f,
+2.10152358e-01f,+6.31737188e-02f,-1.62381202e-01f,+2.08490759e-01f,-1.44447207e-01f,
+1.67570472e-01f,+8.45407918e-02f,-8.51303432e-03f,-1.99961230e-01f,+5.62451370e-02f,
+9.29177478e-02f,-2.42870655e-02f,+1.91766590e-01f,-4.27328609e-03f,-2.20132306e-01f,
+1.77910060e-01f,+1.33767620e-01f,-1.58287451e-01f,+2.94577349e-02f,+1.35610208e-01f,
-9.82606411e-02f,+4.59703244e-02f,+1.24774650e-01f,-3.21542807e-02f,+7.43033439e-02f,
+2.42385834e-01f,-2.92912144e-02f,-6.80169910e-02f,-4.76139635e-02f,-1.88592300e-01f,
-5.15621118e-02f,+1.55516546e-02f,-1.36147097e-01f,+8.14462751e-02f,+2.29982082e-02f,
+3.20941210e-01f,-1.69815496e-03f,+9.84456614e-02f,-4.73458171e-02f,-2.77358621e-01f,
+2.20365033e-01f,-7.25098774e-02f,+1.04265064e-01f,-5.79491369e-02f,+2.20261186e-01f,
+5.25428914e-02f,+1.38924450e-01f,-8.36557299e-02f,-1.79820374e-01f,-5.14947847e-02f,
+1.64661601e-01f,-1.68548793e-01f,-5.03650717e-02f,+1.39443696e-01f,-1.39695525e-01f,
-5.61849587e-02f,-1.10280868e-02f,-6.79993927e-02f,-1.48585364e-01f,+4.64050807e-02f,
-1.34478495e-01f,-1.68516174e-01f,+2.36713052e-01f,+2.65580118e-02f,-1.03894010e-01f,
-2.00193450e-01f,-8.53411332e-02f,-1.11035973e-01f,+7.96367377e-02f,+1.50246426e-01f,
-9.64749157e-02f,-5.25074117e-02f,+1.55155165e-02f,-8.64320323e-02f,-1.89934775e-01f,
-8.04507080e-03f,-2.33569562e-01f,-4.72469442e-03f,-9.54489708e-02f,-9.85494480e-02f,
-1.47214025e-01f,+4.89631258e-02f,+2.56002009e-01f,+1.86079592e-02f,-7.41900131e-02f,
+4.64083776e-02f,-2.61809021e-01f,-3.39721213e-03f,+3.21883745e-02f,+1.48388222e-01f,
+8.12326968e-02f,-8.15792829e-02f,-3.41763124e-02f,+4.00183909e-02f,+2.84135230e-02f,
+2.35541552e-01f,-6.12265803e-02f,-6.14881068e-02f,+6.09658426e-04f,+9.60154310e-02f,
+2.05938339e-01f,-5.04394658e-02f,+1.60692617e-01f,-1.97538286e-02f,-2.85029620e-01f,
-2.32813153e-02f,+1.49168506e-01f,-7.34263286e-02f,+2.82456905e-01f,-7.19429106e-02f,
+1.76081508e-01f,+1.71835467e-01f,+1.68452173e-01f,-8.13087672e-02f,+1.64856836e-01f,
-7.21129477e-02f,+1.45977229e-01f,-1.17775790e-01f,+2.83506066e-02f,+1.74543634e-01f,
+2.95100421e-01f,-2.02327535e-01f,-9.65333804e-02f,-1.34664595e-01f,+1.40961841e-01f,
-1.14165336e-01f,-3.77557217e-03f,+1.31213665e-02f,+2.75387764e-01f,-8.87392983e-02f,
+3.55486013e-02f,-1.71764985e-01f,-3.98240089e-02f,+9.43275765e-02f,+2.05476344e-01f,
-5.09017050e-01f,+2.40851834e-01f,+8.26945975e-02f,+2.40841489e-02f,+1.37611032e-01f,
+1.87555611e-01f,+4.49053533e-02f,-1.28593268e-02f,-6.94707455e-03f,+2.68771738e-01f,
+3.40995938e-01f,-1.42089039e-01f,+3.09116058e-02f,+2.55205989e-01f,-2.48656776e-02f,
+9.78137776e-02f,+1.31752144e-03f,+4.30294052e-02f,-4.87720370e-02f,-5.21564074e-02f,
-6.78644404e-02f,+1.99445412e-01f,-3.16053957e-01f,+5.35246655e-02f,+1.87150434e-01f,
+2.36888051e-01f,-2.18449440e-02f,+3.95992883e-02f,+1.00512922e-01f,+1.52096123e-01f,
+2.06089467e-01f,+5.23402840e-02f,+9.12604257e-02f,+8.46722396e-04f,-1.19083203e-01f,
-2.93616951e-02f,+3.79306562e-02f,+1.40316531e-01f,-2.62378473e-02f,-1.25855682e-02f,
-2.32904404e-01f,+2.03015894e-01f,+1.63797587e-01f,+2.22162902e-02f,+3.23454827e-01f,
-1.06520593e-01f,+7.59657007e-03f,+6.78299889e-02f,+2.78299898e-01f,+1.15244299e-01f,
+9.95791405e-02f,-7.04577118e-02f,+1.21284746e-01f,+1.75984129e-01f,-5.77591769e-02f,
-3.17408293e-02f,+9.87014472e-02f,-4.61309068e-02f,-9.53321978e-02f,+4.98649590e-02f,
+4.45905142e-02f,-4.10671383e-02f,+8.00459925e-03f,-4.14866246e-02f,-1.33238435e-01f,
+1.85275730e-02f,+1.05107345e-01f,+5.01830652e-02f,+3.84469703e-02f,+3.01537156e-01f,
+2.55409241e-01f,+4.75415476e-02f,-1.35559291e-01f,+1.33856311e-01f,+6.98100477e-02f,
+1.94366977e-01f,-1.10303760e-01f,+2.34680966e-01f,+2.80053001e-02f,+2.70818602e-02f,
+1.38955742e-01f,+9.70902070e-02f,+1.21712226e-04f,+1.86957061e-01f,+1.08743347e-01f,
+4.90428299e-01f,+2.16182262e-01f,-6.33872747e-02f,+8.60383734e-02f,+6.18817210e-02f,
+1.73177555e-01f,-9.93775055e-02f,+1.03764966e-01f,+1.99695185e-01f,-4.54946086e-02f,
+1.23368710e-01f,+2.81765349e-02f,+7.99561292e-02f,-7.14633912e-02f,+2.98568577e-01f,
-2.11585523e-03f,+4.07896675e-02f,+1.24111630e-01f,+1.16880655e-01f,-1.58486553e-02f,
-7.91740343e-02f,+1.52355388e-01f,+1.32519320e-01f,-1.03035821e-02f,+3.29837762e-02f,
+2.76398174e-02f,+8.13027620e-02f,+3.44577163e-01f,-3.91924642e-02f,-3.92742194e-02f,
-5.74575923e-02f,-1.14575453e-01f,+1.69448014e-02f,+4.60646488e-02f,+8.71712714e-02f,
+8.88030510e-03f,+1.33881699e-02f,+1.01164736e-01f,+1.28194854e-01f,-1.56781778e-01f,
+2.69229300e-02f,+5.21497577e-02f,+2.33823992e-02f,-2.79536191e-02f,+1.85327996e-02f,
-1.13265350e-01f,+1.06048174e-01f,+7.22570419e-02f,+2.29035482e-01f,+1.66872680e-01f,
+2.59638652e-02f,-1.37205616e-01f,+3.78379785e-02f,+7.98562393e-02f,-1.69675916e-01f,
+6.94114789e-02f,+6.68029301e-03f,+5.90362027e-02f,+9.21988562e-02f,+1.80214807e-01f,
+1.36275683e-02f,-1.48304239e-01f,+8.41269121e-02f,+1.00035235e-01f,-2.83950940e-02f,
+1.30609751e-01f,+1.16564423e-01f,-1.24826342e-01f,+1.46894202e-01f,-4.72100638e-02f,
+1.77524686e-02f,+1.45707846e-01f,+7.28524178e-02f,+1.38124689e-01f,+9.60247666e-02f,
-8.48767906e-03f,+4.84297723e-02f,+1.94714904e-01f,-3.11416145e-02f,+1.15842987e-02f,
-5.83949462e-02f,+2.10487526e-02f,+5.63513041e-02f,+1.91590115e-01f,+2.29691103e-01f,
+3.64342071e-02f,-4.48477566e-02f,+3.99746001e-01f,+1.26995623e-01f,-4.11410868e-01f,
+3.39387963e-03f,+4.73343246e-02f,-3.68582517e-01f,+7.87009206e-03f,+1.45985574e-01f,
+1.37674481e-01f,+2.26708487e-01f,+7.22003430e-02f,+1.61657128e-02f,+1.48717120e-01f,
+7.56591856e-02f,+1.87486574e-01f,-1.56961242e-03f,+9.62459892e-02f,-6.64094090e-02f,
+5.59048019e-02f,+1.38231531e-01f,+1.66878179e-02f,-1.67551398e-01f,-3.49728428e-02f,
+8.03984031e-02f,-8.88208076e-02f,+1.62078276e-01f,+7.17666000e-03f,+8.36766046e-03f,
+1.76933706e-01f,+1.92621648e-01f,+1.04006141e-01f,+3.54426727e-02f,+1.13280661e-01f,
+6.77023306e-02f,-1.95723370e-01f,+6.72639608e-02f,+5.18411063e-02f,+2.14517564e-01f,
-5.98637722e-02f,+8.22066367e-02f,+6.15434647e-02f,+3.41452062e-01f,-7.78665990e-02f,
+1.76787172e-02f,+5.08353412e-02f,+1.43858388e-01f,+6.83546672e-03f,+1.91455647e-01f,
+1.71299711e-01f,+5.01092970e-02f,+1.60504669e-01f,+4.46411483e-02f,+7.42158890e-01f,
+2.51847021e-02f,+1.15085300e-02f,-7.17777908e-02f,-1.58981264e-01f,-2.51280256e-02f,
+8.72566029e-02f,+1.01149686e-01f,+1.73155680e-01f,+7.68417446e-03f,+1.95760303e-03f,
+6.76554292e-02f,+1.25437155e-01f,-8.54413286e-02f,+2.90480610e-02f,+1.51054591e-01f,
+1.02360761e-02f,+2.76081830e-01f,-1.44477412e-02f,-1.53939366e-01f,-4.75169101e-04f,
+1.18764520e-01f,+1.21583685e-01f,+2.16629714e-01f,-3.66383977e-02f,+8.40129331e-02f,
+2.98618972e-01f,+2.75289845e-02f,+2.96065602e-02f,+4.06211354e-02f,-2.00719759e-02f,
+6.58929050e-02f,+1.29289955e-01f,+2.35073403e-01f,+6.40160963e-02f,-2.29619637e-01f,
+1.32690266e-01f,+1.35414794e-01f,+9.81077850e-02f,+1.45075426e-01f,-6.53619552e-03f,
-1.17630348e-01f,+2.34905005e-01f,+7.58564100e-02f,+1.80727504e-02f,+8.93441215e-02f,
-2.02189274e-02f,+3.48924845e-02f,+4.56105210e-02f,+1.51884839e-01f,+3.14661153e-02f,
-1.41150221e-01f,+1.62073262e-02f,+6.21968620e-02f,+1.03768975e-01f,+1.74506590e-01f,
+1.47164017e-01f,+4.11820691e-03f,-6.58793598e-02f,+8.84433910e-02f,+6.52343094e-01f,
-1.39769152e-01f,+8.57479349e-02f,-1.05435483e-01f,+1.21681690e-01f,+5.02361730e-02f,
-2.48890221e-02f,+6.77889958e-02f,+9.67056900e-02f,+2.52563469e-02f,+2.21905902e-01f,
-1.23811491e-01f,-5.87478317e-02f,-4.72468957e-02f,-2.38120556e-03f,+1.43087327e-01f,
-8.81924480e-03f,+6.59306869e-02f,+1.86636880e-01f,-1.45835117e-01f,-4.85296965e-01f,
+6.45251870e-02f,-7.86314160e-02f,+1.10344127e-01f,+1.84727773e-01f,+9.88762006e-02f,
+2.53492910e-02f,+6.03479333e-02f,-7.22646480e-03f,-4.27913904e-01f,+9.88009479e-03f,
+1.71138257e-01f,+9.61573608e-03f,+1.35799050e-02f,-1.54650852e-01f,-1.58475619e-02f,
-2.19190300e-01f,-1.94605310e-02f,+1.69238821e-02f,-1.27214178e-01f,+1.15900403e-02f,
+2.02523500e-01f,-1.14403404e-01f,+7.41700053e-01f,+7.83061758e-02f,+2.29323328e-01f,
+2.77112983e-02f,+3.85774225e-02f,+1.36988446e-01f,+1.18260175e-01f,+9.54519063e-02f,
-6.02979623e-02f,-2.33551627e-03f,+3.26446854e-02f,+1.36659622e-01f,-9.31742862e-02f,
+1.37761608e-02f,+1.80779666e-01f,+4.89647277e-02f,-6.08099736e-02f,+7.97281861e-02f,
+1.95914939e-01f,+6.02441877e-02f,-2.70504598e-03f,-3.33548747e-02f,-9.72339064e-02f,
-1.88615303e-02f,+3.65144834e-02f,+1.42671764e-01f,+7.73882568e-02f,+3.08879435e-01f,
+4.81678173e-02f,-1.12896398e-01f,-1.92507580e-01f,+2.52618760e-01f,+6.29580691e-02f,
-9.17767175e-03f,-1.24644704e-01f,-2.24524021e-01f,+8.07244033e-02f,-3.97346839e-02f,
-1.69203162e-01f,-2.76625399e-02f,-6.54750019e-02f,+1.60713583e-01f,-6.36667907e-02f,
-7.47540742e-02f,+2.53572494e-01f,+4.61023375e-02f,-5.18686026e-02f,+1.35588735e-01f,
-2.10018679e-01f,-4.56455238e-02f,-2.19460487e-01f,-4.94697085e-03f,+3.32543850e-01f,
+1.80530310e-01f,-9.94973630e-02f,-2.54124790e-01f,-3.37664336e-02f,-1.45008102e-01f,
+2.39625603e-01f,-6.75972328e-02f,+1.73317254e-01f,-4.54010248e-01f,+4.83464971e-02f,
+7.69838179e-03f,-4.12055179e-02f,-4.31214683e-02f,+1.85835399e-02f,+2.10354570e-02f,
+1.15513094e-01f,+5.50732136e-01f,-4.42709923e-02f,+4.01560962e-01f,-1.71557784e-01f,
-8.69679525e-02f,-1.10344462e-01f,+1.48585841e-01f,-1.91883087e-01f,-1.31570429e-01f,
+7.72464573e-02f,+1.05870284e-01f,-9.77723077e-02f,-8.24103355e-02f,+1.02279941e-02f,
+3.19683785e-03f,-8.36714059e-02f,-3.73781808e-02f,+5.47178425e-02f,-2.07896996e-02f,
+7.49020949e-02f,-2.11932212e-01f,-1.53217435e-01f,+4.55749184e-01f,-1.30099818e-01f,
-6.24979623e-02f,-7.98111334e-02f,-1.11242853e-01f,-4.85701710e-02f,-3.16175520e-01f,
-7.02819303e-02f,-4.33461815e-02f,+2.20732808e-01f,-1.76227763e-01f,-1.31805637e-03f,
+2.62571216e-01f,-2.21677125e-01f,+1.67862996e-01f,-1.17951088e-01f,+2.76920766e-01f,
-1.80926263e-01f,+8.49849582e-02f,+2.13702187e-01f,-3.27930860e-02f,+6.99739531e-02f,
-2.17863753e-01f,+4.39281166e-02f,+2.30572462e-01f,+1.38290137e-01f,+4.20889258e-02f,
+1.37782812e-01f,+1.27310440e-01f,+1.34072945e-01f,+8.95396695e-02f,+1.33267209e-01f,
+6.27109781e-02f,-4.39763963e-02f,-1.98235102e-02f,-5.47549948e-02f,-1.13437720e-01f,
-1.23969447e-02f,-2.33613662e-02f,+1.94581032e-01f,+6.16764575e-02f,+5.17584980e-02f,
+1.07427873e-01f,-1.18484544e-02f,-4.55248095e-02f,-7.21351579e-02f,-5.00431776e-01f,
+1.37254342e-01f,+1.52013404e-02f,-1.42104119e-01f,-2.00506613e-01f,+1.66779552e-02f,
-7.40649551e-02f,+1.66782930e-01f,-1.18139431e-01f,-1.06008589e-01f,-9.49298367e-02f,
+1.07827336e-01f,+1.91150401e-02f,+2.70776171e-02f,+8.56456056e-04f,-5.75534701e-02f,
-8.67872089e-02f,-2.46757090e-01f,+4.49178070e-02f,+6.25106692e-02f,-1.98615521e-01f,
-2.59278923e-01f,+2.48812977e-03f,+1.81641970e-02f,-1.57654628e-01f,+6.55771606e-03f,
+8.19636881e-02f,-1.43839374e-01f,+7.94360321e-03f,-2.96944715e-02f,-2.33723983e-01f,
+8.91079158e-02f,-2.10754767e-01f,+2.09301319e-02f,+2.31829226e-01f,+1.39532508e-02f,
+3.46349850e-02f,+4.77896519e-02f,-1.53330108e-02f,+2.55193468e-02f,-3.91816124e-02f,
-6.45204913e-03f,+4.72220145e-02f,-1.28144428e-01f,-1.89763054e-01f,-2.59986281e-01f,
+2.20238671e-01f,-7.00101405e-02f,-1.64092495e-03f,-1.79067880e-01f,+9.00980830e-02f,
-1.33823961e-01f,+2.98535734e-01f,-9.59825069e-02f,-4.14488941e-01f,+3.58787999e-02f,
+1.41103283e-01f,+7.13121071e-02f,-1.79864183e-01f,-1.86004061e-02f,+5.09041874e-03f,
+1.37011915e-01f,+9.06304345e-02f,+1.53534673e-02f,-1.43388346e-01f,-1.53327778e-01f,
-5.41353405e-01f,-2.43846163e-01f,+1.29503563e-01f,-8.33426267e-02f,+4.00446244e-02f,
-1.21467605e-01f,+4.98167835e-02f,-3.93836975e-01f,+2.01885149e-01f,-3.19235772e-01f,
+1.11843765e-01f,-4.58535701e-02f,-6.14744127e-02f,-3.10921490e-01f,+2.27315709e-01f,
+7.49267489e-02f,+4.18577164e-01f,+1.37026459e-01f,+5.35081685e-01f,-8.45304132e-03f,
-2.11306270e-02f,-9.97785851e-03f,+6.07233159e-02f,+1.06519409e-01f,-4.41098101e-02f,
-3.30693759e-02f,+1.76985517e-01f,-1.20569482e-01f,+1.09901652e-01f,-1.90747436e-02f,
+1.57854278e-02f,-2.23332360e-01f,+1.60362288e-01f,-2.75646180e-01f,+8.89714807e-02f,
+2.21871193e-02f,-2.20650002e-01f,-2.41477877e-01f,+1.99610498e-02f,+6.35362715e-02f,
-4.84627113e-02f,-1.63673684e-01f,+1.29811028e-02f,-3.72743756e-02f,-5.67689426e-02f,
+1.24559253e-01f,-5.72360344e-02f,-5.46944281e-03f,+1.98813856e-01f,-1.86308566e-02f,
+1.55397773e-01f,-8.75994191e-02f,+4.49840665e-01f,+2.59296030e-01f,-1.35091767e-01f,
-8.84509459e-02f,-2.13019624e-01f,-3.53831589e-01f,+4.08254154e-02f,-1.27230361e-02f,
+7.84709826e-02f,+3.15437913e-01f,-2.02184636e-02f,-3.55728269e-02f,-2.01300547e-01f,
+6.16947748e-02f,-1.14867380e-02f,+1.61790356e-01f,-1.05360679e-01f,+2.97175348e-03f,
+1.61354497e-01f,-1.27187490e-01f,+2.13059694e-01f,-2.79501155e-02f,+1.62328660e-01f,
+3.72352526e-02f,+1.01417482e-01f,-8.29601139e-02f,-1.22806795e-01f,+5.27904555e-02f,
+8.09487849e-02f,-3.60770859e-02f,-2.47977093e-01f,-8.12663436e-02f,+2.09086239e-01f,
-1.17999539e-01f,-1.96214989e-01f,+1.15650840e-01f,+1.46914143e-02f,-3.99296105e-01f,
+1.89536996e-02f,+4.35123127e-03f,+1.60915032e-01f,+1.87509894e-01f,-9.06429216e-02f,
-1.40708491e-01f,+2.89129671e-02f,-2.88334861e-02f,-1.48610324e-01f,-9.29955542e-02f,
-2.37004235e-01f,+7.04998896e-02f,-8.05166662e-02f,-1.85041547e-01f,-1.07636172e-02f,
-1.13607600e-01f,+5.94081953e-02f,-1.97600555e-02f,+2.24027806e-03f,+5.29785827e-02f,
+1.14577100e-01f,-2.17849791e-01f,+2.23586693e-01f,+1.51795223e-01f,-4.16533351e-02f,
+5.52275963e-02f,-2.39457246e-02f,+2.04599887e-01f,-3.56271744e-01f,-2.70051539e-01f,
+7.08692223e-02f,+7.76671618e-02f,+1.04772881e-01f,-6.15813248e-02f,+4.95735556e-02f,
-3.89869660e-02f,+1.81683432e-02f,-2.70417243e-01f,-2.77057174e-03f,-5.27172387e-02f,
+2.60440022e-04f,+2.31564075e-01f,-3.27299871e-02f,+1.33809164e-01f,-1.26376614e-01f,
+8.70364085e-02f,-1.25490099e-01f,+7.29377754e-03f,-7.58517608e-02f,-4.22700942e-02f,
+1.03347031e-02f,-1.15676746e-01f,+2.84945816e-01f,-5.68804555e-02f,-9.72523466e-02f,
-2.70256013e-01f,+1.92517966e-01f,-3.30335684e-02f,-1.25810355e-01f,-5.11580333e-02f,
+6.28140345e-02f,+1.44018427e-01f,-4.82206613e-01f,-5.98291680e-02f,-3.52243334e-01f,
+1.00459911e-01f,-5.75875789e-02f,-9.86324772e-02f,+1.55847803e-01f,-6.34677634e-02f,
+7.57875592e-02f,+4.83056083e-02f,-1.95379645e-01f,+6.87897429e-02f,+1.53707713e-01f,
-3.17231923e-01f,+1.86034948e-01f,+5.79582788e-02f,-2.30745468e-02f,+2.31520936e-01f,
+2.32066393e-01f,+1.22256234e-01f,+2.66731501e-01f,-8.66411403e-02f,-5.28125986e-02f,
+6.03368804e-02f,+2.46209372e-02f,+1.31347328e-01f,+2.98121750e-01f,-1.56120375e-01f,
+8.55370522e-01f,-9.69891623e-02f,+2.40079373e-01f,-3.22767757e-02f,+4.67606187e-01f,
+9.97625589e-02f,+1.61672205e-01f,+2.84390628e-01f,+1.56673361e-02f,-9.61886421e-02f,
-1.66267708e-01f,+4.42046151e-02f,-3.78761262e-01f,+6.16141781e-02f,-1.30628005e-01f,
-1.10123359e-01f,-4.42520007e-02f,+3.19380462e-01f,+3.26771051e-01f,+1.08378299e-01f,
-3.74597986e-03f,+2.12082461e-01f,+1.37773216e-01f,+1.46661833e-01f,-1.04654782e-01f,
+1.78845972e-01f,+7.77807236e-02f,-9.33371186e-02f,+1.88987508e-01f,-8.63968581e-02f,
+2.32451141e-01f,-2.51910444e-02f,-2.56516725e-01f,+2.26732492e-01f,+1.68220192e-01f,
+3.06645520e-02f,-9.06175151e-02f,+6.05541050e-01f,+5.27145684e-01f,+2.78615713e-01f,
+1.23312332e-01f,+2.61175893e-02f,+1.89149216e-01f,+6.52992278e-02f,+4.96882707e-01f,
+2.34828696e-01f,-1.94134265e-01f,+1.80552080e-01f,-1.55420229e-01f,+1.65563866e-01f,
+1.17947631e-01f,-1.45588800e-01f,-1.82575341e-02f,+8.62498675e-03f,-5.06792180e-02f,
-6.61256462e-02f,-2.47898787e-01f,-2.12156057e-01f,-1.10406198e-01f,-1.92767084e-01f,
-2.45860517e-01f,+5.44018149e-01f,-2.72520091e-02f,-1.55397028e-01f,-3.35272960e-02f,
+3.29492152e-01f,+3.71434190e-03f,+5.97892225e-01f,+1.07649677e-01f,+6.38941210e-03f,
-6.85197953e-03f,+1.54828385e-01f,-7.93368071e-02f,+6.51876405e-02f,-6.94851652e-02f,
+3.92527655e-02f,+9.55844074e-02f,-2.09643375e-02f,+2.51348257e-01f,-1.46640971e-01f,
+8.75478461e-02f,+2.10543022e-01f,+3.08215946e-01f,+1.51277959e-01f,+1.19149551e-01f,
-3.03355277e-01f,+9.26213562e-02f,+8.54768232e-02f,-2.14113802e-01f,-1.01900578e-01f,
+8.03813338e-03f,+2.51163006e-01f,+5.84817156e-02f,+2.42315054e-01f,-2.08894163e-02f,
-8.90187174e-02f,+6.07295372e-02f,-7.84987733e-02f,+2.77489632e-01f,+3.55902106e-01f,
+3.56050044e-01f,+1.84649631e-01f,-3.38959433e-02f,-7.48709515e-02f,-2.39409562e-02f,
+2.04459637e-01f,+1.05381414e-01f,+3.88396345e-02f,+3.47831286e-02f,+7.06631839e-02f,
-1.67836100e-01f,+3.36083144e-01f,+4.83371794e-01f,-2.41827369e-01f,+5.59697226e-02f,
+5.14317691e-01f,+7.13645965e-02f,+1.30835056e-01f,+8.88312161e-02f,+2.48371243e-01f,
-2.46646449e-01f,+1.15433991e-01f,+5.88691235e-01f,+1.15155786e-01f,-1.91822037e-01f,
-7.04117492e-02f,-2.19352264e-03f,+3.26046944e-01f,+1.32014275e-01f,-7.27334321e-02f,
-2.14651108e-01f,-1.96968615e-02f,+2.76606202e-01f,-3.78246568e-02f,-2.36556545e-01f,
-9.98648778e-02f,+2.02312604e-01f,-1.81343943e-01f,+7.17134655e-01f,+1.27754044e-02f,
-1.43829226e-01f,+2.00523809e-01f,+6.79925531e-02f,+1.73969626e-01f,+3.22168142e-01f,
+3.41316521e-01f,-1.26626134e-01f,+1.26406923e-01f,+2.36469600e-02f,-1.10671699e-01f,
+9.23388749e-02f,+9.26094800e-02f,-1.12759583e-01f,+4.04049665e-01f,+1.12391170e-02f,
+2.24304609e-02f,+8.27933177e-02f,+5.75743675e-01f,-1.29728109e-01f,+8.07525367e-02f,
-4.57952619e-01f,-1.37136072e-01f,-3.44247371e-01f,-4.85382322e-03f,+1.54763266e-01f,
+6.99653476e-02f,-6.33111149e-02f,-1.81188673e-01f,+7.93384090e-02f,+1.96470127e-01f,
-3.72488275e-02f,+2.85241753e-01f,-8.93237665e-02f,-1.04814894e-01f,+7.84460068e-01f,
+4.01109964e-01f,+2.92952638e-02f,+1.40445545e-01f,+3.24815549e-02f,-2.90697534e-03f,
-5.57242222e-02f,+3.14725727e-01f,-2.33302593e-01f,-3.42136510e-02f,+2.76575405e-02f,
+5.06462418e-02f,-2.88482103e-02f,+3.49379599e-01f,+1.49479032e-01f,-5.93066253e-02f,
+1.94555148e-01f,+1.56766713e-01f,-8.17845911e-02f,+7.85369948e-02f,-6.92163268e-03f,
+1.21182092e-01f,-1.56638011e-01f,-4.32591677e-01f,-2.34814733e-01f,-4.74518612e-02f,
+5.19040078e-02f,+2.66668946e-02f,+3.31599382e-04f,+1.14020012e-01f,-4.20112535e-02f,
-4.01493490e-01f,-6.21242523e-02f,-1.01611927e-01f,+1.52530178e-01f,-1.17904283e-01f,
+1.65015459e-01f,+1.59736723e-01f,+2.00995699e-01f,+2.01899946e-01f,-3.16095978e-01f,
+2.10848629e-01f,-9.53621790e-02f,-7.50167891e-02f,+1.81099966e-01f,-2.14255881e-02f,
-1.60677284e-01f,+3.52462947e-01f,+2.88640976e-01f,+1.84588209e-02f,-1.91977397e-02f,
+1.96082771e-01f,+1.28952384e-01f,+1.77981451e-01f,-1.02228532e-02f,+6.98932856e-02f,
-1.96116269e-02f,-1.41704958e-02f,-9.63371992e-02f,+2.19581127e-01f,-6.31860793e-02f,
-2.73669630e-01f,-9.40719768e-02f,-2.22975001e-01f,+5.47330491e-02f,+1.67886034e-01f,
+1.95173919e-01f,+1.66264206e-01f,+7.59382695e-02f,+1.51621506e-01f,-1.08715519e-02f,
+2.03272924e-01f,+1.67920589e-01f,+5.88023543e-01f,+2.37627506e-01f,+2.98955351e-01f,
-1.18763193e-01f,-1.72963277e-01f,-6.19306415e-02f,+1.03192493e-01f,-3.66614126e-02f,
+2.92899609e-01f,-3.92475724e-01f,-2.76415706e-01f,+2.37525538e-01f,+1.65456999e-02f,
+6.55747429e-02f,-2.07276747e-01f,+3.98402333e-01f,+2.48129413e-01f,-1.10642165e-01f,
+1.97551548e-01f,+7.77857155e-02f,+7.25187063e-02f,+1.50291368e-01f,+7.26663321e-02f,
-5.16260229e-02f,+2.26032555e-01f,-1.92027286e-01f,+1.13766491e-02f,+5.55963159e-01f,
+1.38552487e-01f,-1.51191223e-02f,-1.69189811e-01f,+3.17323893e-01f,-2.41166383e-01f,
+6.40740395e-02f,+1.28780022e-01f,+2.37840518e-01f,+4.19072598e-01f,-1.03124849e-01f,
+2.09883466e-01f,-2.23047584e-01f,-1.98565573e-01f,+7.61506334e-02f,+1.09141700e-01f,
+9.67734531e-02f,+7.69948447e-03f,+1.98451012e-01f,+3.16866159e-01f,+1.87622458e-01f,
+8.19986016e-02f,+1.22851223e-01f,-2.99994908e-02f,-1.76703870e-01f,-1.49136081e-01f,
+2.98814625e-01f,+1.12927265e-01f,-6.79187924e-02f,+3.30716856e-02f,+2.79267840e-02f,
+2.67426167e-02f,-3.82803008e-02f,+9.66689587e-02f,+4.60837372e-02f,+1.53811611e-02f,
+2.40976751e-01f,+2.47789696e-01f,+1.61050975e-01f,-1.54515198e-02f,-1.36398718e-01f,
-1.99546888e-02f,+1.53479353e-01f,+1.35682896e-01f,+1.13755040e-01f,+4.95637693e-02f,
-1.08529488e-02f,-2.70302184e-02f,-1.25494048e-01f,+1.39194623e-01f,+5.10171652e-02f,
-9.04728472e-02f,+1.72382057e-01f,+1.02506652e-02f,-1.67980045e-01f,-1.20575652e-02f,
-9.41138598e-04f,+4.59077992e-02f,-3.57746496e-04f,+1.49558619e-01f,+2.49418736e-01f,
-2.88453349e-03f,+1.93985194e-01f,+1.97300702e-01f,+1.26748681e-01f,-9.82449874e-02f,
+6.57129586e-02f,-3.37037295e-01f,-1.09903648e-01f,+3.21611725e-02f,+2.80466765e-01f,
+9.97980759e-02f,+1.45750582e-01f,-5.79609871e-01f,-3.33874337e-02f,-7.73168802e-02f,
+6.29184954e-03f,+2.79197283e-02f,+2.63389647e-02f,+1.64648756e-01f,-1.49948701e-01f,
+5.33215031e-02f,+5.18432379e-01f,+2.59837266e-02f,+1.92834772e-02f,+1.90517548e-02f,
+1.17694378e-01f,-9.45359468e-02f,-5.47683872e-02f,-1.12981340e-02f,+6.69166520e-02f,
-2.51069143e-02f,+3.43947113e-02f,+1.68421149e-01f,+2.75869463e-02f,-2.58840680e-01f,
+1.26363829e-01f,+7.89624304e-02f,+1.85063168e-01f,+2.07744882e-01f,+1.64244682e-01f,
+2.41900414e-01f,+3.21314596e-02f,+2.35088646e-01f,+1.11287430e-01f,+2.44834766e-01f,
+1.74901366e-01f,+1.24312714e-01f,-2.81700250e-02f,+2.39417404e-01f,+2.36349642e-01f,
-7.47083277e-02f,-5.16417660e-02f,-9.43588838e-02f,+3.54741924e-02f,-8.75961334e-02f,
+1.12813950e-01f,+1.29637212e-01f,+6.48732409e-02f,-3.01365927e-02f,+2.38541797e-01f,
+1.71054062e-02f,+1.33661525e-02f,+1.79763108e-01f,+1.41013458e-01f,-9.69039500e-02f,
-1.37845442e-01f,+1.55379653e-01f,-4.32770215e-02f,+8.58883187e-02f,+1.23468265e-02f,
-1.15376182e-01f,-1.68538705e-01f,+3.75030190e-02f,-1.24494232e-01f,+2.16322839e-01f,
-2.02643484e-01f,+9.72869843e-02f,-2.20016330e-01f,+3.16086859e-01f,+2.33737499e-01f,
+8.51942077e-02f,+6.96080774e-02f,+2.91507274e-01f,+2.04146788e-01f,-3.09715550e-02f,
-1.33828530e-02f,+1.66452885e-01f,+4.15111482e-02f,-1.09394632e-05f,+1.64726570e-01f,
-3.39868516e-02f,-9.22502298e-03f,-1.16902873e-01f,+4.56609651e-02f,-1.45083919e-01f,
-2.51569867e-01f,-1.42324105e-01f,+5.22173680e-02f,+3.09036970e-01f,-7.81399608e-02f,
-1.79714262e-01f,+4.35346156e-01f,+1.03634320e-01f,+1.78516403e-01f,+5.42110443e-01f,
-1.49593040e-01f,-5.40810414e-02f,+1.50094731e-02f,-1.58197284e-01f,+2.46397749e-01f,
-1.11331515e-01f,+1.18802622e-01f,+5.07540926e-02f,+1.91427395e-01f,+4.69428897e-02f,
+3.39361094e-02f,-2.27644280e-01f,+1.17840670e-01f,+2.23615505e-02f,-3.95024940e-02f,
+1.38429120e-01f,+6.76381066e-02f,+1.23610146e-01f,+1.18443497e-01f,-4.36507836e-02f,
+2.89924983e-02f,+1.11846827e-01f,-1.19839944e-01f,-1.32266590e-02f,+4.71894280e-04f,
-4.95632254e-02f,-1.34747848e-01f,+1.82075333e-02f,+5.81625253e-02f,-1.51475459e-01f,
-3.56780104e-02f,+9.33133662e-02f,+1.25737190e-01f,-8.28984901e-02f,+1.41016752e-01f,
+7.00454880e-03f,-2.04530671e-01f,+6.91720769e-02f,+8.66969302e-02f,+2.16211647e-01f,
+6.97292164e-02f,-1.13884710e-01f,+1.73823595e-01f,+7.28643388e-02f,+2.22983927e-01f,
+1.56017154e-01f,-1.08481236e-01f,+7.52692819e-02f,+2.39728391e-01f,+3.08173716e-01f,
+4.18871522e-01f,+7.36230006e-03f,-2.18744427e-02f,+4.35675792e-02f,+2.92833179e-01f,
-1.98603794e-02f,+2.47384593e-01f,+1.24405578e-01f,-2.01023787e-01f,+2.73156077e-01f,
+2.39493132e-01f,-1.63581774e-01f,+2.06748918e-01f,+9.44131315e-02f,+6.84708655e-02f,
+4.18181671e-03f,+2.57809997e-01f,-7.06608547e-03f,+1.15235262e-01f,+1.32994251e-02f,
+2.05711514e-01f,+1.78801417e-01f,-1.43375650e-01f,+3.89098972e-02f,-1.55341804e-01f,
+1.20947495e-01f,+2.72784084e-01f,-3.79195809e-02f,+2.46906877e-01f,+2.00480983e-01f,
+1.07157037e-01f,+2.08170488e-01f,+4.82649654e-02f,-3.56142186e-02f,-6.75366679e-03f,
+9.18284580e-02f,+1.77448049e-01f,+5.56663573e-02f,-3.29091325e-02f,+5.57337582e-01f,
+1.63330525e-01f,-1.41924933e-01f,-9.01314020e-02f,+5.02435453e-02f,+1.29671276e-01f,
+1.69772819e-01f,-2.13656455e-01f,+1.76443651e-01f,+1.44330367e-01f,+1.42921077e-03f,
-3.52650061e-02f,+7.87123814e-02f,+2.59741038e-01f,+1.14809684e-02f,-3.18937749e-02f,
+2.32471570e-01f,-4.67393428e-01f,+6.64795116e-02f,+6.94384798e-02f,+1.84856832e-01f,
+1.47247329e-01f,+2.50147600e-02f,+2.62170732e-01f,-1.84288770e-01f,+3.56212556e-02f,
+6.49969429e-02f,-9.61336717e-02f,+1.58707529e-01f,+1.39109492e-01f,+9.01327655e-02f,
+1.09039679e-01f,+5.02290651e-02f,+3.38613801e-02f,-2.93788612e-01f,-1.43939212e-01f,
-6.78106248e-02f,+5.16836703e-01f,+1.49132326e-01f,+4.61319804e-01f,+2.10293815e-01f,
-2.66310185e-01f,-6.90502897e-02f,+3.11679631e-01f,+9.66641158e-02f,+4.76249099e-01f,
+3.44454050e-01f,+2.31254295e-01f,-7.63645535e-03f,+1.15489207e-01f,-1.24973257e-03f,
+4.60676134e-01f,+4.27208841e-02f,-4.96728718e-02f,+1.01730533e-01f,+5.08124419e-02f,
+1.86863452e-01f,-1.75992474e-01f,-3.91319126e-01f,+1.30871773e-01f,-1.16792627e-01f,
+1.75761729e-01f,-1.84783250e-01f,+1.00189606e-02f,+1.38438925e-01f,+1.76808760e-01f,
-1.52079195e-01f,+1.64440833e-02f,+8.09081495e-02f,+3.89022827e-01f,+2.75147974e-01f,
-5.82812401e-03f,+9.13968906e-02f,+8.24054554e-02f,+3.77185971e-01f,+4.29840423e-02f,
+2.63973832e-01f,-1.05277486e-01f,-4.22994979e-02f,+1.59017548e-01f,-5.27599566e-02f,
+4.11042124e-02f,+9.65617374e-02f,+4.80125807e-02f,-1.25439852e-01f,+2.10608318e-02f,
+5.33992015e-02f,+3.27499537e-03f,-1.33087009e-01f,+7.97163025e-02f,+6.38634488e-02f,
+1.28683746e-01f,+4.08859961e-02f,-3.74289043e-02f,-7.56306527e-03f,+1.99558944e-01f,
+9.48075578e-02f,+3.29954922e-01f,-1.25583053e-01f,+9.52910408e-02f,+1.02566347e-01f,
-1.44536510e-01f,+9.13142562e-02f,+1.31392721e-02f,+1.41160548e-01f,-7.81864971e-02f,
-2.69049220e-02f,+2.98662521e-02f,+5.88334538e-03f,+1.31208450e-01f,+6.29729778e-02f,
+1.03468806e-01f,+8.52713734e-02f,-2.51268391e-02f,+2.77314544e-01f,+1.81757689e-01f,
+2.49930456e-01f,-2.25141272e-01f,+3.64617884e-01f,-6.69902936e-02f,+3.28466855e-02f,
+8.02480206e-02f,+2.47086182e-01f,+7.20980912e-02f,+1.36062697e-01f,+2.52986550e-01f,
+7.94667900e-02f,+4.19714376e-02f,+9.96059775e-02f,+2.89126426e-01f,+1.20189570e-01f,
+1.45974860e-01f,+5.93250804e-02f,+2.04003602e-01f,-7.17354491e-02f,+2.21124858e-01f,
+1.63019568e-01f,-2.28861913e-01f,-1.47942649e-02f,+2.30160691e-02f,+6.79736957e-02f,
-8.81112590e-02f,-9.60001647e-02f,+3.28889012e-01f,-5.35527356e-02f,+3.21614534e-01f,
+1.11471049e-01f,+7.61914775e-02f,+2.27979138e-01f,+7.14532360e-02f,+5.36979251e-02f,
+6.23625629e-02f,+1.41310200e-01f,+2.57081032e-01f,+7.27673918e-02f,+2.27514133e-01f,
+4.77282666e-02f,+2.41498929e-02f,-2.42423549e-01f,+1.11806631e-01f,-4.07049134e-02f,
-3.69669944e-02f,-1.57501418e-02f,+1.11431837e-01f,+3.96032780e-02f,+8.58170092e-02f,
+1.83977604e-01f,+1.20043226e-01f,+1.07062049e-01f,-1.41346261e-01f,+7.42156059e-02f,
+1.08307876e-01f,+5.04841357e-02f,+6.55957535e-02f,-9.18993056e-02f,+7.91089982e-02f,
+2.49859374e-02f,+1.75330147e-01f,-1.86034814e-02f,-1.56517431e-01f,+4.61984426e-02f,
+2.08286643e-02f,+1.34699285e-01f,+2.93461919e-01f,+1.95959419e-01f,-3.03472653e-02f,
-2.79352725e-01f,+1.24512151e-01f,-5.29352799e-02f,+1.14201628e-01f,+9.39948484e-02f,
-1.64511010e-01f,+2.28148878e-01f,+1.82295024e-01f,+7.15223327e-02f,+1.12905033e-01f,
+3.34415548e-02f,+1.24157526e-01f,-3.71358581e-02f,+1.48387685e-01f,-8.88826326e-02f,
+2.44609624e-01f,+7.82020092e-02f,+2.41467923e-01f,+1.87501475e-01f,+1.58627778e-01f,
-5.47784604e-02f,-4.14474718e-02f,+7.23015517e-02f,-4.08402756e-02f,+2.22276449e-01f,
+1.33360147e-01f,+2.84873247e-01f,+4.86381762e-02f,+2.66856641e-01f,+3.17382485e-01f,
-6.89219087e-02f,+1.97761327e-01f,+1.94898844e-01f,-1.05393313e-01f,+2.43626967e-01f,
-1.35920316e-01f,+9.74141359e-02f,+2.87166059e-01f,-8.22809413e-02f,+2.99277127e-01f,
+2.64916658e-01f,+1.71424806e-01f,+2.72092909e-01f,+1.10675134e-01f,-1.18920460e-01f,
-2.04454049e-01f,+1.26066923e-01f,+5.98531440e-02f,-1.63764149e-01f,+1.74523726e-01f,
+1.20478302e-01f,+6.49339035e-02f,-4.00126018e-02f,-1.60506070e-01f,+1.29281968e-01f,
+2.69047320e-01f,+1.23491906e-01f,+1.50638714e-01f,+1.24972279e-03f,-2.34414905e-01f,
+2.92128980e-01f,+6.54029921e-02f,+8.54884759e-02f,+1.17581151e-01f,+4.98046339e-01f,
+1.80534288e-01f,+8.26922059e-02f,+8.15368071e-02f,+1.28743667e-02f,+2.25035101e-01f,
+4.74020727e-02f,+2.00978920e-01f,+4.34512496e-02f,+2.71619081e-01f,-1.21848099e-01f,
+1.46111503e-01f,+1.15138903e-01f,+9.73907858e-02f,+1.96758211e-01f,+1.04690455e-01f,
+2.65705436e-01f,+1.07944712e-01f,+2.83922672e-01f,+2.30941549e-01f,+8.62145722e-02f,
+1.77753985e-01f,+1.30409524e-01f,+1.21212475e-01f,-1.70387611e-01f,+8.92105550e-02f,
+1.18409716e-01f,-5.42674139e-02f,+1.37331903e-01f,+8.02680477e-02f,+3.63967940e-02f,
+3.42435427e-02f,+1.83753431e-01f,+1.00689888e-01f,+1.53029352e-01f,+3.46886128e-01f,
-4.31022495e-02f,+6.58297613e-02f,+2.94786036e-01f,+3.35948318e-02f,+7.98839182e-02f,
+9.55941081e-02f,+9.38529745e-02f,-1.31425336e-01f,+5.04850633e-02f,+2.53906429e-01f,
+6.02115393e-02f,-6.30770670e-03f,+7.59698898e-02f,-1.09673999e-01f,-2.22457182e-02f,
+1.91821493e-02f,-1.61341235e-01f,-3.94491432e-03f,+2.35794056e-02f,+5.64551800e-02f,
+2.69742422e-02f,+1.85318872e-01f,+6.67280033e-02f,+3.35421026e-01f,+7.63826072e-02f,
-4.15381305e-02f,+4.30687927e-02f,+3.79145294e-02f,+1.80332199e-01f,-4.71898727e-02f,
+1.08731203e-01f,+3.83175500e-02f,+1.39821917e-01f,+1.12888590e-01f,+2.87155420e-01f,
+1.93745404e-01f,+5.50744217e-03f,-6.82393238e-02f,+7.19168484e-02f,-3.13329026e-02f,
+3.53834629e-01f,+1.41544893e-01f,+1.45642653e-01f,+1.33394957e-01f,+9.54859629e-02f,
+8.62144530e-02f,+1.41256645e-01f,+5.82461320e-02f,+9.10182148e-02f,+4.91779409e-02f,
+1.15673549e-01f,+1.13327481e-01f,+1.10555790e-01f,+1.14620931e-01f,+1.87042013e-01f,
+1.33161962e-01f,+1.33724734e-01f,+1.06871640e-02f,-7.49099534e-03f,-5.53158969e-02f,
+1.85948223e-01f,+1.29283652e-01f,-1.09453179e-01f,+8.47550184e-02f,-5.99849187e-02f,
+1.39672905e-01f,-4.24599163e-02f,+5.90424724e-02f,+2.06827685e-01f,+6.01177141e-02f,
+1.11006208e-01f,+5.19598611e-02f,+7.87034631e-02f,+1.36824653e-01f,-3.44942957e-02f,
+1.08289542e-02f,+1.13638625e-01f,-9.00340751e-02f,+1.34895399e-01f,-7.13328198e-02f,
+1.83185786e-01f,-1.14965156e-01f,-2.39595592e-01f,+2.69198656e-01f,+5.39630353e-01f,
+2.08641753e-01f,-1.15371468e-02f,+1.08089425e-01f,-7.23914579e-02f,+1.18644930e-01f,
-5.74527606e-02f,-2.24871978e-01f,+9.23677459e-02f,+1.72341466e-02f,+1.73913404e-01f,
-3.17339413e-02f,-8.20556432e-02f,+1.54544115e-01f,+4.01327759e-01f,+2.25291494e-02f,
-1.07143708e-01f,+2.01191425e-01f,-2.57134903e-02f,-1.01051219e-01f,+1.01411186e-01f,
-1.13187693e-01f,+1.57434851e-01f,-1.02411278e-01f,+1.84821457e-01f,-6.50116429e-03f,
+1.47181764e-01f,-3.12741138e-02f,+7.04155043e-02f,-1.02299906e-01f,+8.37365240e-02f,
+1.29433483e-01f,+2.46775821e-01f,+2.01573119e-01f,+2.86986195e-02f,-1.19914198e-02f,
+4.96372283e-02f,+1.14769273e-01f,-6.26365468e-02f,+6.91622570e-02f,+4.08653542e-02f,
+1.48128301e-01f,+2.02273697e-01f,+2.43407130e-01f,+1.50134742e-01f,-3.02743725e-02f,
-5.21156879e-04f,-2.63330936e-02f,-1.23513276e-02f,-4.40193973e-02f,+5.11679202e-02f,
-3.51230316e-02f,+1.04560636e-01f,+8.97950828e-02f,+1.66856810e-01f,+8.06501955e-02f,
+6.96065053e-02f,+8.20826963e-02f,-5.14473170e-02f,+8.42946693e-02f,+2.28742868e-01f,
+2.99095642e-02f,+1.74442865e-02f,-7.39288703e-03f,+5.45319868e-03f,+3.33450548e-02f,
+6.52216300e-02f,+1.05466850e-01f,+6.31278083e-02f,-1.23970851e-01f,-6.82934672e-02f,
+2.52568841e-01f,+7.39826038e-02f,-1.39831036e-01f,+6.15170896e-02f,+1.33485749e-01f,
-2.87723029e-03f,+4.69385758e-02f,-3.15510407e-02f,-8.87535512e-02f,+3.24197412e-02f,
+2.69988924e-02f,+2.37563588e-02f,+2.99912244e-01f,+1.14863142e-02f,+5.88998236e-02f,
-1.71075314e-02f,-5.52092446e-03f,+2.28132322e-01f,+2.71268724e-03f,-1.55523539e-01f,
+1.14913471e-01f,+1.36507004e-01f,+1.20895237e-01f,+4.44316631e-03f,+2.31859758e-01f,
+1.49385286e-02f,-1.32480403e-03f,+7.07804924e-03f,-4.62907515e-02f,+2.81478781e-02f,
+5.25017977e-02f,+8.89745727e-02f,+2.00608037e-02f,-3.37233841e-02f,+1.99960038e-01f,
+1.36054501e-01f,+2.45159008e-02f,-7.65869915e-02f,+4.53676693e-02f,+1.74959242e-01f,
-1.63525224e-01f,+1.85313508e-01f,+8.04884136e-02f,+1.07806362e-01f,+1.64035976e-01f,
+7.08627626e-02f,+2.15302389e-02f,+1.76105984e-02f,+1.85219184e-01f,+5.26081845e-02f,
-1.69714168e-02f,+1.70527264e-01f,+2.11053759e-01f,+2.53488938e-03f,+2.24097267e-01f,
+1.07155696e-01f,+4.23219912e-02f,-1.11816488e-01f,+1.72791779e-01f,+4.48827446e-02f,
-1.14205644e-01f,+1.81212381e-01f,+1.59479007e-01f,-4.27683629e-02f,+1.29199460e-01f,
+1.23985194e-01f,+5.86584304e-03f,+2.01426387e-01f,+1.35018140e-01f,+1.37100920e-01f,
+7.47309029e-02f,+6.63099065e-02f,-4.03052010e-02f,-5.19139953e-02f,+9.01528746e-02f,
-1.29322270e-02f,+1.18890777e-01f,-4.10093777e-02f,+1.88557114e-02f,+7.03804493e-02f,
+1.84233591e-01f,+3.24983597e-02f,+1.00568093e-01f,+1.26151264e-01f,-2.48285197e-03f,
+2.09184498e-01f,+4.97473963e-02f,+7.35591501e-02f,+5.05598895e-02f,+8.58743489e-02f,
+5.05069233e-02f,+1.05434716e-01f,-4.43652943e-02f,+2.21490804e-02f,+6.18102923e-02f,
+3.10063422e-01f,+5.64416461e-02f,-7.37710968e-02f,-4.66561578e-02f,+6.48990199e-02f,
+1.77589953e-01f,-2.65171230e-02f,+1.50583670e-01f,+1.57763604e-02f,+7.66615197e-02f,
+1.40477726e-02f,-3.64071131e-03f,-6.46473691e-02f,-1.07027814e-02f,-2.21406549e-01f,
-8.98213461e-02f,+1.21978372e-01f,-2.99917464e-03f,+5.92301004e-02f,+6.19844615e-01f,
+1.21428668e-01f,-7.77147487e-02f,+3.18906754e-01f,+4.69449535e-02f,+4.92447913e-02f,
+1.13520503e-01f,+2.33158648e-01f,-1.50131844e-02f,+3.65891159e-02f,-1.80099815e-01f,
+3.40657644e-02f,+1.45281971e-01f,+1.16513267e-01f,+1.13100074e-01f,+7.16688409e-02f,
+1.82700783e-01f,+3.45202796e-02f,+2.26815920e-02f,+1.53126836e-01f,+1.21984772e-01f,
+1.23797566e-01f,+5.57739064e-02f,-2.71445327e-02f,-1.52275506e-02f,-7.40219802e-02f,
+1.29292205e-01f,+9.96905565e-02f,-7.29249194e-02f,+1.07883766e-01f,+3.72004807e-02f,
-5.09262159e-02f,+1.00441277e-01f,-1.35489196e-01f,-4.49497327e-02f,+8.08275342e-02f,
+1.86055660e-01f,-7.31771812e-02f,+2.88684834e-02f,+4.88207303e-02f,-2.09310781e-02f,
+4.73267995e-02f,+1.87641475e-02f,+1.06936514e-01f,-3.10340300e-02f,-4.19838205e-02f,
+4.90815826e-02f,+9.22513306e-02f,+6.26932979e-02f,+1.29027277e-01f,-1.09397352e-01f,
+1.50755093e-01f,+3.40620466e-02f,+1.26161695e-01f,-7.75430053e-02f,+1.47834077e-01f,
+1.35398328e-01f,+4.76701930e-02f,+4.53305282e-02f,+1.62496209e-01f,-4.65162434e-02f,
+1.13866895e-01f,+4.71035689e-02f,+1.07298575e-01f,+1.91875681e-01f,-7.89092854e-03f,
+1.02408051e-01f,+1.46754861e-01f,+2.42186133e-02f,+1.06511153e-01f,+3.24264867e-04f,
+1.69449672e-02f,-1.34291559e-01f,+1.29897118e-01f,+1.39407009e-01f,+1.20998204e-01f,
+3.22088972e-02f,-7.47828884e-03f,-1.14744954e-01f,-5.92871122e-02f,+7.37923980e-02f,
-7.70062953e-02f,+6.83072880e-02f,+2.42569834e-01f,+1.69858053e-01f,+8.42662528e-02f,
-2.26844028e-02f,+1.59884058e-02f,+1.97533146e-02f,+6.00589477e-02f,+7.24771768e-02f,
+2.42257833e-01f,+1.16771227e-02f,+1.94250137e-01f,+1.04597196e-01f,-1.40921816e-01f,
+8.33837092e-02f,+1.15541592e-01f,+1.33493841e-01f,+2.12831721e-01f,+2.60055438e-02f,
+1.47023708e-01f,-1.38688497e-02f,+7.51830190e-02f,+2.17533833e-03f,+3.00351344e-02f,
+1.23734094e-01f,+1.54211789e-01f,+2.46680714e-03f,-9.50843766e-02f,-5.58245718e-01f,
+1.44781603e-04f,+1.44580737e-01f,+2.12985203e-01f,-4.15870212e-02f,-2.91827589e-01f,
+2.26578355e-01f,+1.57178074e-01f,-1.46225793e-02f,+5.10552041e-02f,-4.00899611e-02f,
+2.67895699e-01f,-2.83130854e-02f,+1.63304955e-01f,+2.56530762e-01f,+1.23496773e-02f,
+7.38770068e-02f,+8.12641457e-02f,+1.22513451e-01f,+1.04462862e-01f,+2.82367058e-02f,
-1.72273621e-01f,+2.49685496e-01f,+1.12029307e-01f,+6.74249232e-02f,-5.96292950e-02f,
+8.06104019e-02f,+3.09643000e-02f,-2.02295799e-02f,+9.02397260e-02f,-1.43591743e-02f,
+4.30591889e-02f,+1.34351179e-01f,+3.04738060e-02f,+2.06097201e-01f,+7.21997693e-02f,
+2.31333181e-01f,+6.19873814e-02f,+8.54138657e-02f,-1.85306577e-04f,+1.49286300e-01f,
+2.03387868e-02f,+1.31340213e-02f,-1.71883747e-01f,+9.64495987e-02f,-8.85839015e-03f,
+3.75364870e-02f,-5.55677414e-02f,-1.03597828e-04f,-1.38564959e-01f,+2.32836723e-01f,
+9.62144509e-02f,+1.16259590e-01f,+9.42930654e-02f,+8.41301009e-02f,+1.41738653e-01f,
+2.67872103e-02f,+4.51427363e-02f,-8.20633769e-02f,+5.79920262e-02f,+1.27077982e-01f,
+2.25672245e-01f,+1.06890716e-01f,+6.84139207e-02f,-3.87515798e-02f,+1.53042316e-01f,
+5.55973835e-02f,-1.42670512e-01f,+1.24898814e-02f,+1.83263704e-01f,+3.40400249e-01f,
-1.49776369e-01f,-1.42294422e-01f,-4.92749512e-01f,-3.31038870e-02f,+2.41734192e-01f,
+2.58089870e-01f,+1.58861145e-01f,-1.43403858e-01f,+1.31875932e-01f,-6.67301714e-02f,
+1.35029927e-01f,+2.91478597e-02f,+1.11708440e-01f,+2.14632064e-01f,-1.58974379e-01f,
-2.69613534e-01f,-1.80172712e-01f,-2.63514191e-01f,-1.46701261e-01f,-8.97932425e-02f,
+1.77426755e-01f,+1.08241558e+00f,+1.93872616e-01f,-7.59019842e-03f,+1.00334167e-01f,
-3.15584421e-01f,+2.05233037e-01f,-1.82459667e-01f,+3.72983098e-01f,+7.58248270e-01f,
+2.36185923e-01f,+1.58645853e-01f,+1.34339511e-01f,-1.76047176e-01f,-2.94518378e-02f,
+2.53133595e-01f,+2.42671803e-01f,+1.63487032e-01f,+5.80249056e-02f,-2.05140319e-02f,
-1.18257016e-01f,-4.57441658e-02f,+1.19992597e-02f,+1.39689252e-01f,-3.83422039e-02f,
+5.13526611e-02f,+5.56495428e-01f,-6.88701943e-02f,+1.35070890e-01f,+5.46551824e-01f,
+6.18219897e-02f,-2.39308365e-03f,+1.71014234e-01f,-2.66533643e-01f,+7.28451490e-01f,
+4.12378222e-01f,+1.96919397e-01f,-1.98557019e-01f,-1.68824363e-02f,+1.44523725e-01f,
-2.70108044e-01f,+2.38993183e-01f,+6.06202632e-02f,-1.63754418e-01f,+1.43154740e-01f,
+1.72767177e-01f,-1.16164185e-01f,+1.96491376e-01f,+2.54721232e-02f,-1.38269827e-01f,
+4.52866971e-01f,+3.99892479e-01f,-7.83862695e-02f,+3.68687272e-01f,-6.76526278e-02f,
+9.99222919e-02f,+3.33126545e-01f,+1.39909610e-01f,-1.59555059e-02f,-1.55539110e-01f,
-2.04460606e-01f,-7.19949678e-02f,+1.28432795e-01f,+1.49699345e-01f,-1.12854667e-01f,
-2.87950575e-01f,+3.42781059e-02f,-2.91912913e-01f,-5.10882512e-02f,+1.85843453e-01f,
-1.58118963e-01f,-1.71277840e-02f,+3.86364236e-02f,-1.12479590e-01f,+9.94845554e-02f,
+6.09184941e-03f,+2.31320590e-01f,+2.31897365e-02f,-4.85183075e-02f,-6.30210266e-02f,
-6.43187463e-02f,+3.20640742e-03f,+8.00185129e-02f,+1.26182958e-01f,+7.54823862e-03f,
+2.38232628e-01f,-1.80744365e-01f,+3.63867640e-01f,+7.49328807e-02f,+1.24688849e-01f,
-7.72823170e-02f,+1.65135324e-01f,+1.36158943e-01f,+2.70139184e-02f,+4.80513871e-01f,
-3.01873952e-01f,+3.66565883e-01f,+7.31023729e-01f,+2.76972920e-01f,+5.58382273e-01f,
-1.76789016e-01f,-1.04168981e-01f,+1.31956965e-01f,+5.27076935e-03f,-1.28751710e-01f,
+7.33871013e-02f,+4.85508084e-01f,+2.52214730e-01f,+2.89766818e-01f,-2.16684505e-01f,
+2.30689812e-02f,+9.58670750e-02f,+8.08758885e-02f,+2.28298172e-01f,+4.14565718e-03f,
+1.84588864e-01f,-1.11334845e-01f,+8.84577781e-02f,+3.71562913e-02f,-2.04230011e-01f,
+6.44071102e-02f,-5.05417921e-02f,+4.89807069e-01f,+3.86862248e-01f,+6.63647592e-01f,
+1.51050791e-01f,-4.60633950e-04f,+5.38981631e-02f,-6.51091337e-02f,+7.61953592e-02f,
+5.52953362e-01f,+2.90371329e-02f,+2.32021675e-01f,+7.33252540e-02f,-3.73370469e-01f,
+2.20699254e-02f,+3.49612981e-01f,+5.84401011e-01f,-3.45026016e-01f,-2.05453187e-02f,
+1.89448625e-01f,-3.28480080e-02f,+2.41459236e-01f,-1.87645465e-01f,-3.12425252e-02f,
-3.82705070e-02f,-8.00739042e-03f,-1.04301602e-01f,-2.53770679e-01f,+1.32930353e-01f,
+2.67954051e-01f,-1.31586477e-01f,+4.86394197e-01f,+3.93735290e-01f,-1.45945832e-01f,
-1.50318056e-01f,+1.22967646e-01f,+1.27021670e-01f,+1.37951896e-01f,-1.56586930e-01f,
+3.86592954e-01f,-1.52342066e-01f,-2.19507635e-01f,+8.25781301e-02f,+1.24817956e-02f,
+4.54949349e-01f,-1.13474682e-01f,-1.58472121e-01f,-1.30363509e-01f,+1.44784525e-01f,
+3.33192497e-02f,-2.66421549e-02f,+9.63310897e-03f,+2.88956583e-01f,+1.66507542e-01f,
+1.93908848e-02f,+2.10546225e-01f,-2.47475073e-01f,-1.18853755e-01f,-2.78933555e-01f,
-3.26862037e-02f,-6.81118816e-02f,+1.39576778e-01f,-2.98918962e-01f,+3.07034552e-01f,
-3.90978336e-01f,-9.78606194e-02f,+1.93623185e-01f,+6.69227421e-01f,+1.09070100e-01f,
+5.32143973e-02f,+1.28172889e-01f,+1.19919017e-01f,+1.07007392e-01f,+1.91169456e-01f,
+6.44707829e-02f,+1.90515891e-01f,-3.77917476e-02f,+1.95082262e-01f,+7.97897935e-01f,
+4.26185392e-02f,+6.20712899e-02f,-1.57320872e-02f,-5.02000600e-02f,+4.79695611e-02f,
-1.35442466e-01f,-2.25798320e-02f,-1.37065211e-02f,-9.14582089e-02f,-1.14834905e-01f,
+7.28892386e-02f,-3.74703147e-02f,-7.42419213e-02f,+3.30740735e-02f,-3.47907953e-02f,
-6.74846992e-02f,-5.79678297e-01f,+7.17660487e-02f,+1.52920052e-01f,-4.20184201e-03f,
+1.36496089e-02f,+6.08140007e-02f,+1.66125953e-01f,-5.29413335e-02f,-4.24410366e-02f,
-2.86908448e-02f,+2.30700076e-01f,+2.06886545e-01f,+2.47026369e-01f,-1.71594769e-01f,
+2.28668630e-01f,+7.24965036e-02f,-1.40526071e-01f,+4.39716786e-01f,+1.34503752e-01f,
+1.45734772e-01f,+3.72459330e-02f,-3.68178636e-01f,-4.78186365e-03f,-1.04970679e-01f,
-1.43052250e-01f,+6.81681409e-02f,+2.74743199e-01f,+5.16981363e-01f,+9.90149826e-02f,
+1.85357466e-01f,+3.83733213e-02f,+3.67422938e-01f,+9.39720124e-02f,+1.56548873e-01f,
+2.16830730e-01f,-3.67639996e-02f,-2.07381248e-01f,-1.75991410e-03f,+3.64668816e-01f,
+6.83423504e-02f,+8.52225274e-02f,+1.97892070e-01f,-3.78222205e-02f,+1.06528640e-01f,
+4.75313216e-02f,-1.21314168e-01f,+3.39220136e-01f,+1.15938291e-01f,+2.37038419e-01f,
+3.48301858e-01f,+6.07824147e-01f,-2.41434593e-02f,+9.94239468e-03f,+4.23065603e-01f,
+4.82311845e-02f,+3.12176887e-02f,+2.26170029e-02f,+4.80210781e-01f,+5.42404465e-02f,
-6.65010661e-02f,+7.53290236e-01f,+8.77868086e-02f,+8.94402191e-02f,-3.84089015e-02f,
-1.72377646e-01f,+2.74451375e-01f,+1.37339324e-01f,+5.85663259e-01f,+1.55512162e-03f,
+8.12287778e-02f,-3.73685127e-03f,+7.12553501e-01f,+9.23132244e-03f,+1.77949071e-02f,
+3.19031537e-01f,-1.05231352e-01f,+1.42445043e-01f,+2.71620452e-01f,-5.69637604e-02f,
-9.73811448e-02f,+1.00387342e-01f,+7.76734352e-02f,+1.35740086e-01f,+2.74230778e-01f,
-7.83064216e-03f,+1.90610997e-02f,+1.05251141e-01f,+2.53843516e-01f,-1.15852453e-01f,
-5.00038601e-02f,+9.38742310e-02f,-9.28582102e-02f,-1.21255800e-01f,+9.18004848e-03f,
-1.20352954e-01f,+1.72211155e-01f,+4.00462635e-02f,-9.68073085e-02f,-1.23933777e-02f,
-2.83178668e-02f,+4.64200834e-03f,+9.29910317e-02f,-1.13723263e-01f,-3.46089214e-01f,
-3.44972342e-01f,+3.17622751e-01f,+2.09416986e-01f,-1.25418320e-01f,-6.28614575e-02f,
-4.31296043e-02f,-2.20294222e-01f,+1.07809501e-02f,-9.16614458e-02f,-8.05005878e-02f,
-1.61217824e-01f,-4.42292154e-01f,-4.45216596e-02f,-1.10558588e-02f,-1.40950575e-01f,
+1.95120480e-02f,+1.56500623e-01f,+8.14775378e-02f,+3.22415046e-02f,-1.33682147e-01f,
-1.80889592e-01f,-2.47397602e-01f,-1.58953905e-01f,+3.16143930e-02f,+2.69474238e-01f,
+2.30484962e-01f,-8.96474719e-02f,-5.89519665e-02f,+7.04400837e-02f,-2.96881516e-02f,
+6.48831278e-02f,+3.83179262e-02f,-8.74141045e-03f,-2.12869514e-02f,+1.05033457e-01f,
+6.56986460e-02f,-2.23802149e-01f,+9.15869623e-02f,+1.91773310e-01f,-2.41765335e-01f,
-8.70910436e-02f,-3.10098499e-01f,+3.69162969e-02f,-2.01518666e-02f,-2.04579398e-01f,
-2.20740572e-01f,+1.57588780e-01f,+1.72614619e-01f,+5.69648892e-02f,-1.49109095e-01f,
-1.68177206e-02f,-9.76278633e-02f,-6.09332509e-02f,+3.24857533e-01f,+9.02891532e-02f,
-1.53355837e-01f,+6.71160594e-02f,-8.24420676e-02f,+8.51634741e-02f,+3.07856560e-01f,
-2.15723380e-01f,+2.22203806e-01f,+5.59037216e-02f,-1.04787692e-01f,+1.38952732e-01f,
-4.40510502e-03f,+5.29494919e-02f,-1.04694255e-01f,+1.46180674e-01f,+1.92533135e-01f,
+1.29283562e-01f,+2.48860076e-01f,-1.50281534e-01f,-4.17594194e-01f,-3.03578198e-01f,
+1.06455144e-02f,-3.61739881e-02f,-1.87807336e-01f,+9.13403034e-02f,+3.73642892e-02f,
-1.16302975e-01f,-1.06768757e-01f,+8.33398849e-02f,+1.70465425e-01f,-2.37870976e-01f,
-7.54285082e-02f,-7.25935698e-02f,+1.04393316e-02f,+1.05298750e-01f,+1.24946401e-01f,
+6.31453246e-02f,+8.62561390e-02f,+2.89954215e-01f,-4.50735883e-04f,+1.08774200e-01f,
+2.25382090e-01f,+1.40034199e-01f,+3.27677548e-01f,-1.03495717e-02f,+1.24165274e-01f,
+1.71034366e-01f,+1.60580009e-01f,-1.88773334e-01f,+4.62844446e-02f,+1.75931469e-01f,
-4.23606411e-02f,-6.44168034e-02f,-7.35436305e-02f,+3.60703021e-02f,-3.37353423e-02f,
-4.19226706e-01f,-3.73123020e-01f,-5.51939234e-02f,+1.82228625e-01f,-2.19601989e-01f,
+4.42151994e-01f,-2.38432050e-01f,+6.99441507e-02f,+8.59360397e-03f,-4.70478199e-02f,
-2.29665756e-01f,+9.49464813e-02f,-1.65913925e-01f,-1.41922146e-01f,-2.64228374e-01f,
-1.48393229e-01f,+1.06833875e-02f,+1.76976427e-01f,-1.80866376e-01f,-4.23803508e-01f,
+4.69220072e-01f,+1.57295465e-01f,+7.71389231e-02f,-2.34242246e-01f,+2.74413556e-01f,
-1.20941602e-01f,+1.61212292e-02f,+4.64808404e-01f,+4.39215377e-02f,-2.40298197e-01f,
-1.97440967e-01f,-1.61568314e-01f,-1.68687701e-01f,+6.64189756e-02f,+4.65655420e-03f,
-5.63726760e-03f,-3.73903960e-02f,+2.29614843e-02f,+6.46919906e-02f,+3.17289799e-01f,
+1.40041262e-01f,+1.14512265e-01f,-3.14845741e-01f,-3.36034521e-02f,+1.59435406e-01f,
-6.97193891e-02f,-8.19992973e-04f,+9.12301838e-02f,-2.19124854e-01f,+3.26092184e-01f,
-3.36716652e-01f,-4.82691750e-02f,+1.66813910e-01f,-9.42687467e-02f,-1.80286646e-01f,
+5.94126582e-02f,-1.71839129e-02f,-2.40678832e-01f,+1.05053499e-01f,-3.00475031e-01f,
-7.12289708e-03f,+2.17300788e-01f,+7.71041140e-02f,-6.55981377e-02f,+2.89939851e-01f,
+1.11945346e-01f,+2.96995007e-02f,+3.23300928e-01f,-2.00349391e-01f,+2.03567848e-01f,
-1.07846543e-01f,-1.96731746e-01f,+1.36790946e-01f,+2.91407648e-02f,+6.78737788e-03f,
-5.11408560e-02f,-2.78589457e-01f,-2.21734792e-01f,-8.09170597e-04f,+1.78092793e-01f,
+1.10436574e-01f,+3.22304070e-02f,-1.45069912e-01f,-2.18428709e-02f,+1.78435072e-01f,
-2.73107365e-02f,+1.71358243e-01f,+1.03513196e-01f,+1.44248679e-01f,+1.56168386e-01f,
-1.36681512e-01f,+6.00865893e-02f,+1.69742197e-01f,+1.65982813e-01f,-1.71627849e-01f,
-4.95601967e-02f,-1.93662658e-01f,-3.86082709e-01f,-1.09225670e-02f,-1.49622858e-01f,
+3.01064640e-01f,+2.28943825e-01f,-2.17207558e-02f,-6.75743446e-02f,-6.01891056e-02f,
-8.77587795e-02f,+5.07802546e-01f,-1.34642869e-01f,+7.97947869e-02f,-1.30097836e-01f,
+6.26644850e-01f,+1.12974927e-01f,-1.19643301e-01f,+6.42380640e-02f,-1.63971141e-01f,
+1.45843402e-02f,-1.01838507e-01f,+2.89896280e-01f,-4.24123602e-03f,-2.31909841e-01f,
-5.11522181e-02f,-3.72924842e-02f,-1.01800479e-01f,+8.09153393e-02f,-1.88637562e-02f,
-2.10545789e-02f,+3.13953473e-03f,-1.28305797e-02f,-1.99099425e-02f,+6.22726344e-02f,
+4.80706356e-02f,-1.08937658e-01f,-2.21616164e-01f,+1.17087007e-01f,+6.70026066e-06f,
-2.71458179e-01f,-2.06138156e-02f,-1.97520092e-01f,+1.06596828e-01f,-1.85017943e-01f,
+2.87862390e-01f,-1.00745261e-01f,+1.11218624e-01f,-5.54394685e-02f,-3.87968451e-01f,
+2.24294096e-01f,-1.66610479e-01f,+4.60550517e-01f,+1.70768321e-01f,+1.92697883e-01f,
+1.17556669e-01f,-1.20047979e-01f,+3.12995315e-01f,+9.98298079e-02f,+2.08360478e-01f,
-2.82031056e-02f,+1.09786645e-01f,-1.90488994e-01f,-1.91526022e-02f,-1.35115951e-01f,
+1.22698441e-01f,+8.41945931e-02f,-1.50606513e-01f,+3.00408155e-02f,+9.25286785e-02f,
+2.09540516e-01f,+1.57793224e-01f,+4.15174335e-01f,-1.35588087e-02f,+5.76416925e-02f,
+7.15718865e-02f,+2.83885300e-01f,-9.39204022e-02f,+1.62922829e-01f,-1.12991162e-01f,
-2.53307194e-01f,+2.31831800e-02f,-2.13976026e-01f,+1.70374915e-01f,+2.90591627e-01f,
+2.18354583e-01f,+3.24929208e-02f,+1.05344221e-01f,+3.00261229e-01f,+5.55729628e-01f,
-1.09525219e-01f,-1.52033880e-01f,-5.70903942e-02f,+3.61108422e-01f,-6.15251251e-02f,
-4.51548070e-01f,-9.06313732e-02f,-1.53764322e-01f,-1.10218853e-01f,-1.91052169e-01f,
-8.16738058e-04f,+5.70515841e-02f,+1.22752629e-01f,+1.55691132e-01f,+1.46316364e-01f,
+1.41150117e-01f,+1.54586345e-01f,+1.81485727e-01f,+8.50714967e-02f,+8.33475664e-02f,
+2.17914850e-01f,+2.65422985e-02f,+7.80098662e-02f,+3.32482085e-02f,-4.64091338e-02f,
-1.89934578e-02f,-1.00451782e-01f,+8.29313919e-02f,+2.59483933e-01f,+3.53089981e-02f,
+7.88933784e-02f,-5.53333834e-02f,+1.01426154e-01f,-5.76341674e-02f,+5.67917861e-02f,
+6.58464879e-02f,-2.03474723e-02f,+3.53980869e-01f,+7.43102282e-02f,-5.82891051e-04f,
+7.58099481e-02f,+2.18731552e-01f,-2.59500965e-02f,+2.16935530e-01f,+2.80874502e-02f,
+1.02101721e-01f,-3.24963212e-01f,+3.27793770e-02f,+2.07751587e-01f,+2.27020249e-01f,
+1.79616868e-01f,+1.25404149e-01f,-6.81475028e-02f,+1.67070493e-01f,+1.44916490e-01f,
+1.47264674e-01f,+1.49004921e-01f,-3.10657918e-02f,-3.52194421e-02f,-1.26755834e-01f,
+1.54158816e-01f,+1.27085537e-01f,+9.76044163e-02f,+9.93250981e-02f,-2.07249876e-02f,
-7.48634012e-03f,+8.37005675e-03f,-1.20104089e-01f,+4.41751748e-01f,+1.53901443e-01f,
-1.30690737e-02f,-5.50636649e-02f,+5.89245558e-02f,+7.78467655e-02f,-1.20098963e-01f,
+1.55187055e-01f,+2.98571408e-01f,+9.48642194e-02f,+2.04576477e-02f,-1.74705714e-01f,
+2.50455607e-02f,+2.01054588e-01f,+1.87842287e-02f,+5.54423928e-02f,+8.14136490e-02f,
+7.41942525e-02f,+5.29754050e-02f,+2.06416041e-01f,+1.37085319e-01f,+2.35362604e-01f,
-1.09369494e-02f,-6.66768625e-02f,-1.63398590e-02f,+5.23336381e-02f,+8.85081384e-03f,
+3.55208628e-02f,-8.75873771e-03f,-1.70179233e-02f,+1.58245862e-01f,+2.02415325e-02f,
+9.39927176e-02f,+9.99928713e-02f,+2.26018235e-01f,+1.32826060e-01f,+1.63048152e-02f,
+2.40213260e-01f,+7.07344934e-02f,+2.85784125e-01f,+9.06731039e-02f,+2.40567297e-01f,
+7.80475736e-02f,+1.25007868e-01f,-1.65158927e-01f,+1.47716537e-01f,+6.88851774e-02f,
+2.16645226e-02f,+3.34384963e-02f,+1.28163442e-01f,-4.11077738e-02f,+7.98660591e-02f,
+4.77170162e-02f,-6.04937598e-03f,-1.14567028e-02f,+8.99267867e-02f,-9.61169414e-03f,
-4.35908921e-02f,+1.32422566e-01f,-1.72178932e-02f,+1.21247716e-01f,-1.63296927e-02f,
-5.73585182e-02f,+1.35322243e-01f,-5.27739972e-02f,+2.45857015e-02f,+1.48303002e-01f,
+3.88881043e-02f,+3.69174406e-02f,+2.94742197e-01f,+2.40664095e-01f,+2.81597108e-01f,
+1.72227636e-01f,+2.45208410e-03f,+1.92928836e-01f,+8.16047043e-02f,+2.46291876e-01f,
+2.44841322e-01f,-4.19554114e-02f,+6.35917857e-02f,+1.41852945e-01f,+3.47799733e-02f,
+2.87076920e-01f,+2.54657716e-01f,+1.33329108e-01f,+1.39759004e-01f,+5.80982305e-02f,
+8.87801219e-03f,+2.69263443e-02f,+3.99163626e-02f,+2.12131158e-01f,-1.88664809e-01f,
+2.46644579e-02f,-1.88604742e-01f,-3.96739319e-02f,-5.01984395e-02f,+1.01879321e-01f,
+4.70063835e-02f,+1.00732848e-01f,+2.46736795e-01f,+1.77518472e-01f,+1.77415654e-01f,
+1.90434337e-01f,+1.95908457e-01f,+6.55659586e-02f,+2.86983438e-02f,+1.01969481e-01f,
+3.02557468e-01f,+4.11644019e-02f,-1.24425262e-01f,+3.19465473e-02f,-3.26519832e-02f,
+1.82446241e-01f,+2.15082318e-01f,+2.31472775e-01f,-6.27255067e-02f,+1.57435462e-01f,
+4.89766523e-02f,-5.53827956e-02f,+7.22913295e-02f,-7.85219371e-02f,+9.19714198e-02f,
+3.80963326e-01f,-4.02543601e-03f,+1.02166839e-01f,+1.93271875e-01f,+1.89583227e-01f,
-1.33011397e-02f,+1.51744992e-01f,+7.48658776e-02f,+2.30306551e-01f,+5.10797612e-02f,
+1.99868038e-01f,+5.17535731e-02f,+8.96475539e-02f,-7.37184957e-02f,+2.94475794e-01f,
+1.84846744e-02f,+1.57411247e-02f,+1.10908918e-01f,+8.31648111e-02f,+2.41188616e-01f,
+8.17932636e-02f,-1.16202915e-02f,-1.46311829e-02f,+1.05413862e-01f,-8.09579641e-02f,
+1.37425616e-01f,+1.42458141e-01f,+6.50882125e-02f,+1.16879545e-01f,-6.40836656e-02f,
+1.81896508e-01f,+1.21867917e-01f,+3.96249890e-02f,+4.39070091e-02f,+1.20169945e-01f,
-1.26943991e-01f,+9.79585499e-02f,+2.75935233e-02f,+6.51967302e-02f,+1.34981740e-02f,
+8.19875684e-04f,-1.91232592e-01f,-1.16328076e-01f,+1.20973878e-01f,-3.13449688e-02f,
+9.60920155e-02f,+1.74907431e-01f,+1.36755630e-01f,+2.09576249e-01f,-1.30816147e-01f,
+1.75850078e-01f,+1.62697211e-01f,+3.16886365e-01f,-1.18819699e-02f,-1.91011354e-02f,
-1.49151310e-01f,-3.44956927e-02f,-2.87568066e-02f,+1.18624881e-01f,-1.92873850e-01f,
+8.49890932e-02f,+2.16826364e-01f,-3.70863406e-03f,+2.33904660e-01f,+1.03805006e-01f,
+1.19275518e-01f,+3.12977773e-03f,-1.54804006e-01f,+6.21259622e-02f,-4.15223613e-02f,
+6.35800511e-02f,+2.35449776e-01f,+2.83643324e-02f,+3.50208208e-02f,+2.70403940e-02f,
+5.50123379e-02f,+1.62584782e-02f,-2.83796638e-02f,-1.78367365e-03f,-1.83002241e-02f,
+4.97245826e-02f,+9.88072380e-02f,+5.68078570e-02f,-1.43010616e-02f,+1.03753835e-01f,
+6.83298334e-02f,-2.46130303e-02f,-1.73234046e-01f,+1.01904362e-01f,+5.35719335e-01f,
-7.85901845e-02f,+3.44312415e-02f,-8.50640312e-02f,+2.42024645e-01f,-7.15816841e-02f,
+1.50548130e-01f,+2.85365283e-01f,-1.48694053e-01f,-1.28857434e-01f,+1.34545967e-01f,
+6.25553355e-02f,-5.77372499e-02f,+5.28675951e-02f,+1.30376562e-01f,+2.45400727e-01f,
+2.85693169e-01f,+1.90092236e-01f,+1.45604610e-01f,+3.72980274e-02f,-1.56013742e-01f,
-5.27344011e-02f,+7.76517242e-02f,+2.99115069e-02f,+9.75558981e-02f,+1.78568050e-01f,
-2.34168507e-02f,+7.21866116e-02f,+2.27850676e-02f,+6.27079234e-02f,+1.99102685e-01f,
-1.96670387e-02f,+2.72518218e-01f,-6.94935992e-02f,+1.00894682e-01f,+1.34377703e-01f,
+2.12022156e-01f,+7.36980364e-02f,+8.46543983e-02f,-7.75364339e-02f,+1.53026432e-01f,
-1.13238886e-01f,+1.33627981e-01f,+5.33439107e-02f,-1.68428570e-02f,+1.58353835e-01f,
+1.42222002e-01f,-3.01151369e-02f,+3.45133454e-01f,+1.34722009e-01f,+3.16834837e-01f,
+3.17905188e-01f,-1.03540398e-01f,+7.53163099e-02f,+2.05588490e-01f,+1.96042344e-01f,
-1.85562894e-01f,-6.22863621e-02f,-2.99874038e-01f,+1.16595812e-02f,-2.05948532e-01f,
-3.12765419e-01f,-4.52162810e-02f,-2.55662471e-01f,-1.59435347e-01f,+3.82485688e-01f,
-1.61830224e-02f,-3.49598676e-01f,+2.13185489e-01f,-1.91850439e-01f,-4.57561553e-01f,
+1.83304280e-01f,-1.00879513e-01f,-2.57923782e-01f,-2.33671024e-01f,+1.01232231e-01f,
-3.10153142e-02f,-8.59057903e-02f,-3.99155885e-01f,-3.46679151e-01f,+1.04398549e-01f,
-1.00082405e-01f,-1.67727217e-01f,-1.95708096e-01f,-3.30321282e-01f,+3.51692557e-01f,
-4.21655178e-01f,-2.68827111e-01f,-2.48082653e-01f,-3.32907826e-01f,+3.00969958e-01f,
+3.76283437e-01f,+2.35983282e-01f,-2.13807926e-01f,-6.25870228e-01f,-4.34989929e-01f,
+1.91901578e-03f,-2.68504888e-01f,+2.67177552e-01f,+1.78378999e-01f,-2.50378579e-01f,
-3.08927950e-02f,-3.05016696e-01f,-1.78669900e-01f,-7.43250027e-02f,-1.06848404e-01f,
-5.08442894e-02f,-3.78658511e-02f,+7.79316500e-02f,-4.19363379e-02f,-2.17427656e-01f,
+2.89822727e-01f,-2.76034683e-01f,-2.32347280e-01f,-4.06316429e-01f,-1.78650334e-01f,
-1.82817414e-01f,-4.55526471e-01f,-2.02229530e-01f,-5.24682403e-01f,+1.10235550e-01f,
+5.86611152e-01f,+1.73141718e-01f,-5.26022971e-01f,+4.52272683e-01f,-1.71599686e-02f,
+2.18261003e-01f,-2.69368082e-01f,-3.30954075e-01f,+1.86695322e-01f,+9.76342484e-02f,
-2.47966424e-01f,-2.50601023e-01f,+7.92194247e-01f,-2.80351520e-01f,-1.13400705e-01f,
-2.63233364e-01f,-2.17334673e-01f,-1.51820540e-01f,+5.84230050e-02f,-2.88981229e-01f,
-2.73223490e-01f,-8.56907070e-02f,+4.16377187e-01f,+1.64407223e-01f,+9.68313739e-02f,
-9.29228887e-02f,-3.49768966e-01f,-1.79372355e-01f,+4.81690578e-02f,+2.03351155e-01f,
-1.91004753e-01f,+4.77314778e-02f,+6.38652921e-01f,+3.02388549e-01f,-2.56496161e-01f,
-1.59793887e-02f,+1.59684241e-01f,-2.78014570e-01f,+1.18937097e-01f,-6.58888280e-01f,
-1.17145725e-01f,+2.98524737e-01f,-4.84088361e-01f,-9.28110257e-02f,-2.29973376e-01f,
-2.34095559e-01f,-3.27675641e-01f,-4.13440406e-01f,+7.00510889e-02f,+1.22181527e-01f,
-3.68856937e-02f,-7.21322605e-03f,-2.46368408e-01f,-2.12781563e-01f,-4.28825729e-02f,
+1.66599989e-01f,-4.10981417e-01f,+2.13291138e-01f,+6.09747097e-02f,-2.82483697e-01f,
-2.35303342e-01f,-6.56537563e-02f,-2.78125852e-01f,-1.29802316e-01f,-2.04668745e-01f,
-1.85950007e-02f,+5.38040996e-01f,-3.48394334e-01f,+4.18094322e-02f,-1.03790291e-01f,
-3.66337657e-01f,-3.86603057e-01f,+9.25095081e-02f,-5.13059795e-01f,-1.80458292e-01f,
-1.07466593e-01f,+1.89422339e-01f,-1.24977075e-01f,+5.83750196e-02f,-2.52462953e-01f,
-2.97238022e-01f,-3.56063992e-01f,-2.17443138e-01f,-1.91834629e-01f,+4.11512911e-01f,
+2.86750309e-02f,-2.94036716e-01f,+3.94715518e-02f,-6.82245344e-02f,-4.41325083e-03f,
-2.82157689e-01f,+3.27082634e-01f,-1.36817485e-01f,-2.14432493e-01f,-4.88765240e-01f,
-2.09239945e-01f,+1.95519775e-01f,-8.89889672e-02f,-6.09729858e-03f,-7.97628760e-02f,
+2.39613578e-01f,-9.21209157e-02f,+1.50763258e-01f,-1.05985031e-01f,+2.88702816e-01f,
-9.37143266e-02f,+3.04900587e-01f,+1.76182717e-01f,-2.92954892e-01f,-2.01959804e-01f,
+6.50202036e-02f,-5.70685029e-01f,-2.12244123e-01f,-6.16289198e-01f,-2.99337171e-02f,
+3.92117411e-01f,+2.97810836e-03f,-3.14394422e-02f,-1.01250947e-01f,+2.15857223e-01f,
-1.88507035e-01f,+3.01133305e-01f,+1.39393229e-02f,+1.48037858e-02f,-9.05946717e-02f,
+1.09331802e-01f,+9.86750238e-04f,-1.29379243e-01f,+4.82844442e-01f,-1.37578547e-01f,
+1.35909006e-01f,-4.42149282e-01f,-1.36046410e-01f,-4.92925644e-01f,-1.46648690e-01f,
-1.34145677e-01f,-4.03081357e-01f,-2.71388143e-01f,+8.51548761e-02f,-1.44413918e-01f,
-2.84816930e-03f,-7.23795295e-02f,+1.46521568e-01f,-9.83815864e-02f,-2.20272794e-01f,
-4.10126932e-02f,-1.51700452e-01f,-1.13282263e-01f,+1.95790306e-01f,-3.63383412e-01f,
-2.66854852e-01f,+2.17637271e-01f,-1.71014681e-01f,-3.43098976e-02f,+2.63443768e-01f,
-1.73556805e-01f,-3.16928118e-01f,-3.19248438e-01f,-1.24754451e-01f,-4.02028412e-01f,
-5.03971040e-01f,-4.55311805e-01f,-5.87826371e-02f,+4.90428358e-01f,-6.17451258e-02f,
+1.67741328e-01f,-1.52706504e-01f,-4.08144265e-01f,-8.67094994e-02f,+3.61738473e-01f,
-5.04068993e-02f,-2.54418671e-01f,-2.72632927e-01f,+7.90115416e-01f,-3.41352187e-02f,
-7.33820572e-02f,-4.92799491e-01f,-1.99315790e-02f,-1.75219655e-01f,+4.69363451e-01f,
+8.63731652e-02f,-2.58770555e-01f,-4.26370800e-01f,-1.64453071e-02f,+3.28023911e-01f,
+3.23330164e-02f,+1.61704153e-01f,-1.29728869e-01f,-3.50511521e-01f,-1.88513786e-01f,
-1.90751016e-01f,-1.63247332e-01f,-1.61548957e-01f,-1.42601013e-01f,-5.40351607e-02f,
-1.77177012e-01f,+2.12121487e-01f,-1.69688269e-01f,+3.09915245e-01f,-3.84581447e-01f,
-6.21853173e-01f,-2.31412753e-01f,+3.20047975e-01f,+3.26141626e-01f,+1.07026681e-01f,
-2.18426526e-01f,-1.74118295e-01f,-1.33383229e-01f,+5.29187918e-03f,-4.40507144e-01f,
-2.73841172e-01f,-2.41916493e-01f,-1.06960684e-02f,+1.78101845e-02f,-2.35272035e-01f,
-3.09948206e-01f,-2.46778145e-01f,-7.54787326e-02f,+1.98934451e-01f,-1.35615066e-01f,
-4.71894383e-01f,-8.41931477e-02f,+8.99616033e-02f,-4.80540752e-01f,-1.38413787e-01f,
-8.98581892e-02f,-4.17385876e-01f,-1.93701476e-01f,+4.16962504e-01f,+2.94779949e-02f,
+4.24827039e-02f,-6.51555508e-02f,-2.29593560e-01f,-3.42405885e-02f,+1.19809046e-01f,
-1.87985718e-01f,-1.05085261e-01f,-2.13802144e-01f,-2.96246987e-02f,-2.20253706e-01f,
+1.08386964e-01f,-1.52037084e-01f,-2.30606392e-01f,+6.75949380e-02f,-3.38364482e-01f,
+1.11706980e-01f,+4.40172315e-01f,-1.71263576e-01f,-6.35908097e-02f,-2.03245103e-01f,
-1.13934003e-01f,+1.98590785e-01f,-8.96382928e-02f,-3.42944503e-01f,-1.65581144e-02f,
-1.20243482e-01f,-1.08003236e-01f,-7.66930403e-04f,-7.74671808e-02f,+3.85937877e-02f,
+1.68106228e-01f,+4.05110687e-01f,+2.75375575e-01f,+8.35897252e-02f,+1.96304750e-02f,
+2.89258081e-02f,+1.34709150e-01f,+3.67386825e-03f,-3.67343938e-03f,-8.87145922e-02f,
+3.91214043e-01f,-8.39333758e-02f,+1.73213214e-01f,+2.84263641e-01f,+1.32315606e-01f,
+1.35136873e-01f,+4.69509035e-01f,+1.70082040e-02f,-1.02540500e-01f,+1.57575190e-01f,
+2.84471303e-01f,+1.24250077e-01f,+5.80271482e-01f,-3.20166312e-02f,+8.45858008e-02f,
+2.52718981e-02f,+3.00153792e-01f,+3.93236071e-01f,-4.09027562e-02f,+2.35574022e-01f,
+4.07416701e-01f,+4.58223581e-01f,+1.99790001e-01f,-9.65920836e-02f,-3.91846389e-01f,
+2.74964748e-03f,+5.40425003e-01f,+1.98724344e-01f,-6.27441853e-02f,+1.51522234e-01f,
+2.11981207e-01f,-9.08507593e-03f,+2.00272381e-01f,+2.41820231e-01f,+2.98152477e-01f,
+3.77751648e-01f,-1.48877490e-03f,+3.19661796e-01f,+2.54816115e-01f,-1.22213893e-01f,
+2.00515389e-01f,+2.06122100e-01f,+1.28366083e-01f,+2.21079528e-01f,+1.36324450e-01f,
+2.33689174e-01f,+1.74625963e-01f,+2.93469250e-01f,+8.65291953e-02f,+2.01767206e-01f,
+2.42729053e-01f,+9.31565762e-02f,+2.17115775e-01f,-6.98016807e-02f,-1.37432829e-01f,
+2.92519361e-01f,+1.40048802e-01f,-7.57895857e-02f,+3.48917335e-01f,-1.93119720e-01f,
+1.59123421e-01f,+4.20047939e-02f,+3.85100484e-01f,-8.92343074e-02f,-6.10533245e-02f,
-2.43377797e-02f,-4.63727385e-01f,-8.05584490e-02f,+2.59090781e-01f,+1.49988070e-01f,
+3.59568000e-02f,+2.78204054e-01f,+1.35567263e-01f,-7.02129230e-02f,+3.52421880e-01f,
+2.42188558e-01f,-4.87735331e-01f,+2.98553914e-01f,-1.80649906e-01f,+1.18848920e-01f,
+9.57580134e-02f,+2.60434926e-01f,+1.85176328e-01f,+8.11440200e-02f,+2.17833698e-01f,
+3.13079655e-01f,+1.12353235e-01f,-9.73626524e-02f,-1.21461980e-01f,-4.05991711e-02f,
+1.55049369e-01f,+2.70308524e-01f,+6.23246320e-02f,+6.05354011e-01f,+1.21140100e-01f,
+9.90464687e-02f,+1.67320475e-01f,+1.12800181e-01f,+1.49430662e-01f,+1.10166505e-01f,
-5.76874278e-02f,+1.81648597e-01f,+1.58122867e-01f,+1.96515378e-02f,+2.20809534e-01f,
+7.68164992e-02f,+1.33909389e-01f,+2.41614237e-01f,+5.28348684e-02f,-1.17780298e-01f,
+5.86471438e-01f,+8.93192440e-02f,+1.97804481e-01f,+4.05129313e-01f,+1.63770188e-02f,
+3.70146900e-01f,+1.35448620e-01f,+1.77437648e-01f,+2.86938012e-01f,-1.10410661e-01f,
-2.61542678e-01f,-1.45362809e-01f,+2.24298671e-01f,+5.53144991e-01f,+1.16110072e-01f,
+3.46459866e-01f,+1.52091846e-01f,+2.57879972e-01f,+2.87242144e-01f,+2.09794506e-01f,
-2.86328673e-01f,+5.44460416e-01f,+2.22868398e-01f,+2.86434442e-01f,+1.38211638e-01f,
+4.35063392e-01f,+4.93371248e-01f,-1.00785248e-01f,+1.44488141e-01f,+3.54170382e-01f,
+7.74819180e-02f,+4.80009615e-01f,+1.22836128e-01f,+1.17757894e-01f,-1.36342794e-01f,
-3.53211612e-02f,+1.48195833e-01f,+4.42580193e-01f,+3.50172102e-01f,+2.09452674e-01f,
-4.35490608e-02f,+1.55221164e-01f,+5.00344224e-02f,+2.92580351e-02f,-5.91004007e-02f,
+2.32143387e-01f,-8.32275767e-03f,+4.30022120e-01f,+2.12154627e-01f,+2.26908296e-01f,
+5.60936630e-02f,+8.84676427e-02f,+3.40743572e-01f,+9.66813043e-02f,-1.28420055e-01f,
+3.68452072e-01f,-3.06186438e-01f,+2.17569962e-01f,+2.73973532e-02f,-9.22679901e-02f,
+1.32170439e-01f,+7.73722753e-02f,+6.94408044e-02f,-4.92794037e-01f,+1.62901789e-01f,
-2.65717596e-01f,+1.84396341e-01f,+2.22374156e-01f,+2.75495917e-01f,-1.84924141e-01f,
+3.43155302e-02f,+2.81606704e-01f,-1.10604592e-01f,+7.39253238e-02f,-5.98119721e-02f,
+2.95991659e-01f,+3.23198289e-01f,+2.40715832e-01f,+2.69521594e-01f,+2.05417216e-01f,
+3.98666799e-01f,+3.65113467e-01f,+4.11246344e-02f,+1.88979968e-01f,+1.80952698e-01f,
+1.51856974e-01f,-1.45472541e-01f,+5.17433323e-02f,+1.95173964e-01f,+3.44428658e-01f,
+2.38606215e-01f,+5.28925993e-02f,+1.82362020e-01f,+1.50083274e-01f,-5.88772893e-02f,
-2.09233493e-01f,+3.55172336e-01f,-2.04367310e-01f,+1.15670055e-01f,+1.75375998e-01f,
+1.64460465e-01f,+2.12341607e-01f,-8.11537553e-04f,+5.18526584e-02f,+3.58635753e-01f,
-9.80645269e-02f,+3.06333929e-01f,+1.01957045e-01f,+1.68786407e-01f,+1.81610450e-01f,
+2.63580024e-01f,+4.25135553e-01f,+1.86972275e-01f,-1.84712425e-01f,+2.02066392e-01f,
+2.06663415e-01f,+3.16212475e-01f,-4.69145477e-01f,+8.24794993e-02f,+9.25062820e-02f,
+2.76759714e-01f,-8.51812586e-02f,+1.54699266e-01f,+2.01474771e-01f,+1.26021802e-01f,
+1.32373840e-01f,+1.99074119e-01f,-3.97074185e-02f,+1.11726239e-01f,+1.29108906e-01f,
-4.88018058e-02f,+1.62961289e-01f,+2.35511392e-01f,+3.74224246e-01f,+3.02146167e-01f,
+1.34459674e-01f,+3.74797791e-01f,+3.68719399e-02f,+1.49553552e-01f,-6.37593493e-02f,
+2.32262716e-01f,+2.77714729e-01f,-8.60045925e-02f,+7.99693391e-02f,+4.67341602e-01f,
+3.99458557e-02f,+9.27991718e-02f,-1.45878702e-01f,+3.24164927e-01f,+3.17228824e-01f,
+3.52662951e-01f,+6.47661369e-03f,+7.79251605e-02f,+3.24372172e-01f,+6.26929402e-02f,
+1.93276107e-01f,-3.12631577e-01f,+1.04071513e-01f,+8.34006295e-02f,+1.00934193e-01f,
+3.96927655e-01f,+1.67851016e-01f,+3.22350919e-01f,+3.47369850e-01f,+1.31785929e-01f,
+2.08866969e-01f,+3.83740216e-01f,+1.76498994e-01f,+1.22946568e-01f,+3.92776094e-02f,
+3.43514323e-01f,+2.87458658e-01f,-4.31988854e-03f,+1.03828780e-01f,-1.33194268e-01f,
+1.78878322e-01f,+2.89489597e-01f,+3.04342389e-01f,+1.51622012e-01f,+9.97512788e-02f,
+2.82293320e-01f,+2.24268675e-01f,+1.63793992e-02f,-8.69942755e-02f,+3.36843818e-01f,
+1.81303367e-01f,-2.28718981e-01f,+1.00624986e-01f,+1.26681298e-01f,+2.28825361e-01f,
-2.16410711e-01f,+2.99189031e-01f,+2.58768629e-02f,+4.60160255e-01f,+1.98369175e-01f,
-4.75715613e-03f,-2.01195888e-02f,+2.91082822e-02f,+2.07650304e-01f,+9.48810801e-02f,
+1.96230918e-01f,-1.54156610e-01f,+1.87189817e-01f,+2.76596308e-01f,-1.19752191e-01f,
-1.30794972e-01f,+1.17874674e-01f,-2.47462094e-01f,+2.17075497e-02f,-1.03704715e-02f,
+1.15089804e-01f,-6.60457313e-02f,+1.65972695e-01f,-1.83190644e-01f,-1.43930241e-01f,
-4.02291724e-03f,+1.08350441e-01f,+1.54037178e-01f,+9.25877467e-02f,+5.08576818e-03f,
+1.00174479e-01f,-4.69238125e-02f,+9.95627418e-03f,+3.04592866e-02f,+6.32872283e-02f,
-1.37010381e-01f,+3.66454460e-02f,-1.47412196e-01f,+1.10743411e-01f,+4.15391251e-02f,
-3.74017493e-03f,+1.65794596e-01f,-1.35652229e-01f,+1.62025914e-01f,-7.16021881e-02f,
+4.06095348e-02f,+6.80077821e-02f,-5.16191274e-02f,-1.35183334e-02f,-2.10500527e-02f,
+1.46859527e-01f,-1.14601649e-01f,+7.25964382e-02f,-4.25670855e-03f,-1.59442741e-02f,
-1.00861648e-02f,+7.29698762e-02f,-2.51985937e-02f,+1.16670787e-01f,-2.39787772e-02f,
+5.95936179e-02f,-3.97629179e-02f,+5.85503802e-02f,+1.28607169e-01f,-2.99509037e-02f,
-7.73182660e-02f,-5.49003519e-02f,-1.60046294e-01f,-1.95376500e-01f,-3.21393274e-02f,
-1.68913946e-01f,+1.76286519e-01f,-9.90103260e-02f,+7.91762248e-02f,+1.17456019e-01f,
+4.19897325e-02f,+7.14402422e-02f,-7.17854649e-02f,+1.14137903e-01f,+5.45206293e-02f,
+3.93599048e-02f,+7.49407634e-02f,+1.78783432e-01f,-1.31203327e-02f,+2.98810303e-01f,
+5.30993529e-02f,+1.49112428e-02f,+1.33444771e-01f,+1.08645767e-01f,-6.42537549e-02f,
+6.76027983e-02f,+3.98985893e-02f,+8.64704847e-02f,-4.25446630e-02f,+1.91152453e-01f,
-1.14356220e-01f,-4.01325226e-02f,+2.85933204e-02f,+2.00113337e-02f,+2.65766770e-01f,
-2.17897162e-01f,+3.22692394e-01f,+1.28877759e-01f,-5.78839667e-02f,+1.11702606e-01f,
+8.67062137e-02f,+1.12073429e-01f,-1.99201610e-03f,+3.03563159e-02f,+2.90296227e-02f,
+1.31379426e-01f,-1.50430575e-01f,+7.37409294e-02f,-1.43735092e-02f,+1.09544933e-01f,
+1.98717818e-01f,+3.97025272e-02f,+1.44430310e-01f,+5.99568058e-03f,+4.60307784e-02f,
+9.21987370e-02f,-5.82416654e-02f,+5.23113683e-02f,+2.26175208e-02f,+8.81387368e-02f,
+1.71667099e-01f,-1.91182077e-01f,+1.35404512e-01f,+1.64655626e-01f,-1.70419738e-01f,
-1.48954377e-01f,+2.98685916e-02f,+6.20882213e-02f,-6.46911934e-02f,+6.76300451e-02f,
+3.12445641e-01f,+1.13622360e-01f,+2.38725305e-01f,+1.58434391e-01f,+3.35967898e-01f,
+2.34586164e-01f,+1.35660693e-01f,+2.55139589e-01f,+6.09359629e-02f,+1.19297393e-01f,
+2.64600098e-01f,+2.26013228e-01f,+1.04831597e-02f,+1.86077252e-01f,-1.37624191e-02f,
-4.38010320e-02f,-3.05338595e-02f,+2.50169128e-01f,+1.04120910e-01f,-1.01980016e-01f,
+8.94562528e-02f,-3.09607740e-02f,+1.59636989e-01f,-3.15710492e-02f,+1.02013364e-01f,
-1.47985473e-01f,+1.86135158e-01f,-3.11776828e-02f,+1.27522290e-01f,-1.42800078e-01f,
+1.91059023e-01f,+2.10693851e-01f,-7.25704357e-02f,+3.44020426e-01f,-1.36679396e-01f,
+6.59009889e-02f,+1.68384407e-02f,-7.29735419e-02f,+7.15286881e-02f,+3.12859833e-01f,
-1.38369780e-02f,+1.22455629e-02f,+5.33508398e-02f,+1.49540290e-01f,+2.55461454e-01f,
+1.79688279e-02f,-2.88009979e-02f,-1.51999086e-01f,-1.02588564e-01f,-1.84812006e-02f,
+5.21348938e-02f,-9.12137181e-02f,-4.55018394e-02f,-1.19542293e-01f,-2.75235549e-02f,
-1.74080376e-02f,+2.39348840e-02f,-1.97530463e-01f,-2.61256937e-02f,+1.40939116e-01f,
+8.52891654e-02f,-1.16143107e-01f,+1.75094232e-03f,+4.33638692e-03f,-8.17137770e-03f,
-5.99298961e-02f,-6.12471737e-02f,+2.28046745e-01f,+1.45884201e-01f,+3.84016000e-02f,
+2.27885306e-01f,+4.16881740e-01f,+1.04223952e-01f,+4.41861860e-02f,+1.35840327e-01f,
+1.00605354e-01f,+5.07279113e-03f,-1.83399282e-02f,-1.51644886e-01f,-4.85490970e-02f,
+1.70766875e-01f,+1.64443716e-01f,+1.77882090e-01f,+1.31703869e-01f,+3.02186430e-01f,
+2.19215512e-01f,-1.76652849e-01f,+6.65080249e-02f,+2.11855173e-02f,+1.56846941e-01f,
+4.64427397e-02f,+1.58418074e-01f,-2.32183293e-01f,-1.69830963e-01f,+6.49308264e-02f,
+1.02388926e-01f,-7.11465329e-02f,-7.26354644e-02f,+1.46562785e-01f,+8.51124823e-02f,
+2.84818076e-02f,+3.75828966e-02f,+6.74035400e-02f,-1.50110573e-02f,-7.52755022e-03f,
+2.29585677e-01f,+5.87390997e-02f,-9.26135033e-02f,+1.31362185e-01f,+2.17221975e-01f,
-6.39715269e-02f,-1.01672597e-01f,-1.55444682e-01f,+2.17339411e-01f,-1.59324612e-02f,
+4.36807312e-02f,-6.63185194e-02f,+5.59616238e-02f,+2.57455587e-01f,+2.22792134e-01f,
-3.51749837e-01f,+8.66548344e-02f,+1.80200607e-01f,+1.25920862e-01f,+1.50482848e-01f,
+6.00559339e-02f,+7.63023049e-02f,+9.21059474e-02f,+9.26996544e-02f,+4.94181830e-03f,
+1.60457149e-01f,+3.26128416e-02f,+1.29845068e-02f,+1.51552737e-01f,+1.37279615e-01f,
-9.30309892e-02f,+4.61169444e-02f,-9.27106962e-02f,+1.29753113e-01f,-6.96557527e-03f,
+4.21126224e-02f,+1.55687751e-02f,-1.54286817e-01f,+1.14728743e-02f,-9.72488821e-02f,
+1.02922343e-01f,+5.74732758e-02f,+3.04080434e-02f,+2.99765896e-02f,+8.09159577e-02f,
-3.77333798e-02f,+1.93852589e-01f,-1.64760172e-01f,+5.71828969e-02f,+3.41208875e-01f,
+6.29259422e-02f,+7.76342601e-02f,+1.27437428e-01f,+7.37098381e-02f,-7.33475238e-02f,
-1.03740282e-01f,+1.99547514e-01f,+9.28951204e-02f,+6.94349557e-02f,+2.39194334e-01f,
+1.77977130e-01f,+1.23990826e-01f,+9.06083360e-02f,+5.57335168e-02f,+8.62997249e-02f,
+1.08614758e-01f,+8.81966427e-02f,-5.41742472e-03f,+7.65563995e-02f,-2.89574936e-02f,
-1.40112802e-01f,-4.91687357e-02f,+2.70816386e-01f,-1.91223577e-01f,+1.73231050e-01f,
+8.66454765e-02f,+1.81939229e-01f,+1.37958089e-02f,+8.14343616e-02f,-9.39271525e-02f,
+9.86542031e-02f,+1.54427722e-01f,+8.21941569e-02f,+3.41065265e-02f,+4.23623584e-02f,
+1.57650739e-01f,-3.96819636e-02f,-8.93385634e-02f,-7.15522692e-02f,+1.70246631e-01f,
-5.81980310e-02f,+2.07829513e-02f,+3.04497540e-01f,-6.15029782e-03f,+1.45881712e-01f,
+6.14512153e-02f,+6.20904043e-02f,+8.21689442e-02f,+2.54035085e-01f,+1.86096311e-01f,
-7.90595263e-03f,+1.42287120e-01f,+1.29889548e-01f,+1.71763197e-01f,+9.70050693e-02f,
-2.61712763e-02f,-2.47016549e-01f,+1.43859521e-01f,+9.50473174e-02f,+7.48575525e-03f,
+9.03284475e-02f,+9.77149308e-02f,+1.53969452e-01f,-9.62282270e-02f,-2.05775708e-01f,
+8.78041163e-02f,+1.99593216e-01f,+1.84227880e-02f,+7.37352297e-02f,+8.20344836e-02f,
+1.44138753e-01f,+8.28665644e-02f,-5.12749963e-02f,+1.06607661e-01f,+3.05894651e-02f,
+2.14888036e-01f,+9.77516621e-02f,+7.42767826e-02f,-2.12365333e-02f,+9.76314917e-02f,
-1.52544409e-01f,+2.49588117e-01f,+3.92898209e-02f,+1.84239492e-01f,+9.65901241e-02f,
+2.04206616e-01f,+4.68631610e-02f,+1.47087023e-01f,-3.30935717e-02f,+7.96877686e-03f,
+1.09973066e-01f,-6.14473894e-02f,+5.67605272e-02f,-1.29485443e-01f,-1.11798689e-01f,
+1.07213415e-01f,+1.78501047e-02f,-5.86353466e-02f,+6.68457001e-02f,-9.33216885e-03f,
+1.46254469e-02f,+1.84541240e-01f,+1.01553403e-01f,+1.82049468e-01f,+1.89720407e-01f,
-2.09714770e-01f,+1.50350079e-01f,-8.34666938e-03f,+7.32612535e-02f,+1.84904769e-01f,
-6.10369258e-02f,-1.59647483e-02f,+1.96085960e-01f,+1.96567193e-01f,+1.22493953e-01f,
+4.98118475e-02f,+1.17013156e-01f,+5.75530864e-02f,-2.25626856e-01f,-1.29760697e-01f,
+6.27922043e-02f,+2.69413199e-02f,+2.39849448e-01f,+5.34608960e-03f,-6.00049682e-02f,
-3.00659910e-02f,+2.21877247e-01f,+2.22183485e-02f,+1.19566046e-01f,+2.72850901e-01f,
-8.73176605e-02f,+5.98380454e-02f,-4.12821956e-02f,-1.43451929e-01f,-2.08379831e-02f,
-3.37406993e-01f,+2.12654565e-02f,+3.07805510e-03f,-1.41292498e-01f,-8.27339850e-03f,
+8.39425810e-03f,-1.36248186e-01f,-8.37505385e-02f,+1.64710298e-01f,+1.33188874e-01f,
+4.44047898e-01f,+9.06217843e-02f,-1.97955862e-01f,+7.80063495e-02f,+1.19124472e-01f,
-4.39154357e-02f,+4.96586487e-02f,+3.77898179e-02f,+1.17226854e-01f,+8.36626161e-04f,
+1.93192184e-01f,-5.82291335e-02f,+1.10267557e-01f,-4.92661446e-03f,+1.35685625e-02f,
+1.23547062e-01f,-7.12220743e-02f,+1.47777945e-01f,+4.87558931e-01f,-5.38767166e-02f,
+1.03609338e-01f,+1.24858823e-02f,+2.06412598e-01f,+2.12900266e-01f,-2.34046414e-01f,
-3.36953670e-01f,+1.00103833e-01f,+1.13020815e-01f,+1.96788758e-01f,-8.87927040e-02f,
+1.16564162e-01f,-2.82897037e-02f,-1.49735203e-02f,+2.29649886e-01f,-8.51144940e-02f,
+1.21809512e-01f,-3.92597541e-02f,-5.65539189e-02f,+1.65558085e-01f,+1.54294685e-01f,
+6.31191134e-02f,+1.36993170e-01f,-2.24567935e-01f,+1.94205150e-01f,+1.86952332e-03f,
+3.61173868e-01f,-4.63645607e-02f,+1.29232049e-01f,+2.13585258e-01f,+1.01280823e-01f,
-1.40494823e-01f,-4.40251864e-02f,+1.13561161e-01f,+1.71114400e-01f,+7.42090344e-02f,
+5.58750588e-04f,+1.99720077e-02f,-5.91780171e-02f,+9.38624814e-02f,-2.95485016e-02f,
+1.14389345e-01f,+2.82292459e-02f,-2.70284759e-03f,+2.39213463e-02f,+6.36442378e-02f,
+2.84068465e-01f,-4.95871492e-02f,+2.73789316e-01f,+1.37060583e-01f,+8.96543637e-02f,
+1.78290740e-01f,+9.11842957e-02f,-5.60271442e-02f,+3.26051176e-01f,+2.57983267e-01f,
+1.99113682e-01f,+1.37427568e-01f,+1.53448686e-01f,+2.49750111e-02f,+1.58974938e-02f,
+3.74773592e-02f,+1.92381218e-02f,+1.95113078e-01f,+1.79317564e-01f,-1.67173967e-01f,
-3.60895097e-02f,+1.76188014e-02f,+1.63533658e-01f,+1.31254658e-01f,-1.55042231e-01f,
+8.71839002e-02f,+4.76190820e-02f,+6.90074041e-02f,-2.29206279e-01f,+1.06995285e-01f,
+2.02190086e-01f,+8.50334018e-02f,+2.28236616e-01f,+8.80989656e-02f,-4.72261533e-02f,
-1.54170871e-01f,+1.44964665e-01f,+9.25604329e-02f,+2.34437473e-02f,+2.57252939e-02f,
+9.68454927e-02f,+8.55543017e-02f,-1.12451211e-01f,-1.00045204e-01f,+6.83984309e-02f,
+1.90880477e-01f,+1.60193041e-01f,-6.94491044e-02f,+1.11646764e-01f,+2.87414491e-01f,
-8.63819420e-02f,+5.43275476e-02f,+1.28813889e-02f,+3.85227919e-01f,+7.17860982e-02f,
+5.78533784e-02f,+9.20743868e-03f,-4.24699932e-02f,-1.78847667e-02f,+1.57090034e-02f,
+1.93028376e-01f,+3.12991702e-04f,-9.16765332e-02f,-8.67733657e-02f,+4.74095196e-02f,
+2.45889291e-01f,+8.12200084e-02f,+5.63214198e-02f,+6.00120611e-02f,-7.60464296e-02f,
-6.97399350e-03f,+1.07931197e-01f,+2.87226308e-02f,+3.99345793e-02f,+2.03518439e-02f,
+1.75810486e-01f,+4.61287647e-02f,+1.84660777e-02f,+1.44365370e-01f,-2.31725834e-02f,
-1.77030228e-02f,+4.02870290e-02f,+6.89233094e-02f,-7.13953655e-03f,+1.18176118e-01f,
+4.46616746e-02f,+6.38947412e-02f,+7.28231017e-03f,+1.07246883e-01f,-2.30636373e-01f,
+7.95518607e-02f,+5.33623211e-02f,-1.13147549e-01f,-1.83492452e-02f,-2.84115244e-02f,
-2.59336992e-03f,-7.93642306e-04f,-3.13540459e-01f,+6.12131841e-02f,+3.19615379e-02f,
+1.02859586e-01f,+1.66919336e-01f,+9.16776657e-02f,-5.05427420e-02f,-7.28020668e-02f,
+5.42243719e-02f,+1.69484288e-01f,+2.07840934e-01f,+3.88315879e-02f,+2.63820812e-02f,
+2.04328418e-01f,-1.83222860e-01f,-6.01237901e-02f,-1.60627618e-01f,+5.10349631e-01f,
-2.61510238e-02f,+1.07425926e-02f,-2.56828666e-02f,-3.73675711e-02f,+3.89546901e-01f,
-1.21203192e-01f,-7.96630755e-02f,+1.67802632e-01f,+2.01792672e-01f,-2.04218961e-02f,
+1.58966124e-01f,+1.03593506e-01f,-1.03054494e-02f,+2.33382005e-02f,-2.39030570e-01f,
+9.72529128e-02f,+2.08657593e-01f,+1.80095747e-01f,-1.34652734e-01f,-2.46854484e-01f,
+1.34655595e-01f,-3.45102727e-01f,+1.66627448e-02f,-2.31658086e-01f,+5.85866608e-02f,
+1.43210754e-01f,+1.09121867e-01f,-1.79866165e-01f,+1.55759320e-01f,+5.43312877e-02f,
+9.81989503e-02f,+1.29879221e-01f,-3.63588333e-02f,+1.32210245e-02f,+1.18478902e-01f,
-6.76150769e-02f,-3.21291201e-03f,+2.49865770e-01f,+2.83821404e-01f,+7.08310008e-02f,
+1.25922495e-03f,-9.04903039e-02f,+4.61457260e-02f,-8.57489258e-02f,-6.90687746e-02f,
+8.41526836e-02f,+9.26762298e-02f,+1.03604339e-01f,-6.72289878e-02f,+1.61072925e-01f,
+3.83768231e-02f,+1.17881797e-01f,-8.07613358e-02f,-1.37414262e-01f,-7.72413239e-02f,
+1.44605473e-01f,+5.44272549e-02f,-8.65073293e-04f,+1.52557775e-01f,+1.07099757e-01f,
+1.20948181e-01f,+1.17592260e-01f,+8.05208385e-02f,+9.20196995e-02f,-4.38729934e-02f,
+1.29755378e-01f,+1.48411229e-01f,+1.40048325e-01f,+4.10906300e-02f,-1.13191791e-02f,
-1.23817222e-02f,+2.80712396e-01f,+1.44600093e-01f,+6.15092227e-03f,-6.51683584e-02f,
-1.86014865e-02f,+6.11407980e-02f,+2.38359734e-01f,+5.29116988e-02f,-7.56514594e-02f,
-5.05816936e-02f,+2.31123660e-02f,+1.26113679e-04f,+4.21416424e-02f,-3.89088728e-02f,
+9.71513167e-02f,+1.17688425e-01f,+3.09334788e-02f,+1.98332310e-01f,+4.55891378e-02f,
+2.16605723e-01f,-4.96778525e-02f,+1.20352417e-01f,+1.41947791e-01f,+1.12121321e-01f,
+2.10716650e-02f,-1.03470795e-01f,-4.66839131e-03f,-3.38370800e-02f,+7.25866780e-02f,
+4.40948037e-03f,+1.50885684e-02f,+3.58932652e-02f,+4.17527854e-02f,+1.51308522e-01f,
+8.25910196e-02f,+7.94984028e-02f,+9.32491273e-02f,-1.13832876e-01f,+4.10748925e-03f,
+1.23466581e-01f,+2.41494790e-01f,+1.29662752e-01f,+1.49260506e-01f,-1.06760845e-01f,
+1.33398890e-01f,+1.86394185e-01f,+3.19513567e-02f,+7.03994185e-02f,+4.72831987e-02f,
+5.08482233e-02f,+2.37670124e-01f,+8.01579654e-03f,+1.73055023e-01f,+8.08413029e-02f,
+4.47047837e-02f,+9.74107608e-02f,+8.91143177e-03f,+1.11189894e-01f,+1.55901879e-01f,
+6.44210726e-02f,+2.05065031e-02f,+1.60886526e-01f,+6.43840060e-02f,-1.22561015e-01f,
+1.00143246e-01f,+1.05823331e-01f,+9.24133882e-02f,+1.44380376e-01f,+1.22543693e-01f,
+1.09375298e-01f,+7.44226053e-02f,+1.10989161e-01f,+6.12206459e-02f,+1.81062371e-01f,
+1.79605663e-01f,+1.45762801e-01f,+9.87251699e-02f,-1.27355829e-01f,-3.44666187e-03f,
+2.52308995e-02f,+8.87746066e-02f,+1.63394853e-01f,+1.69580489e-01f,-7.37269819e-02f,
+6.13303185e-02f,+1.60116956e-01f,+9.31227654e-02f,+1.31117210e-01f,+1.01388276e-01f,
-6.46651834e-02f,-9.62270945e-02f,-3.38077433e-02f,+2.71027517e-02f,+1.67300422e-02f,
+5.60084768e-02f,-9.38725937e-03f,-1.07033268e-01f,+1.51177153e-01f,+2.07266524e-01f,
+1.12445310e-01f,+7.58467242e-02f,+3.01117390e-01f,+1.58884570e-01f,-9.17608570e-03f,
+2.50748605e-01f,+1.51448980e-01f,+2.20780447e-01f,-8.12262110e-03f,+1.36765257e-01f,
+1.23524822e-01f,+6.87967688e-02f,-6.32795170e-02f,+7.83025697e-02f,-1.86632723e-02f,
+2.10074224e-02f,+1.47465885e-01f,-1.18580140e-01f,+3.46852541e-02f,-2.73469407e-02f,
-1.44345760e-01f,+1.09607324e-01f,-5.25310189e-02f,-5.30476719e-02f,+1.36106059e-01f,
+1.22760750e-01f,-4.15141135e-02f,+2.06456892e-02f,+1.30525842e-01f,+2.77505778e-02f,
+2.31907904e-01f,+9.79333520e-02f,+3.44094937e-03f,+5.36045851e-03f,+1.63963437e-01f,
+8.02071691e-02f,+1.75297663e-01f,+8.78729820e-02f,+3.53046730e-02f,-4.29089852e-02f,
+9.45661888e-02f,+8.27360973e-02f,+1.22719213e-01f,+7.29419738e-02f,-9.19599924e-03f,
+2.97548901e-02f,+6.32943437e-02f,+1.58086613e-01f,+6.58114478e-02f,-1.70006361e-02f,
+5.50990552e-02f,-9.95021760e-02f,+7.08256885e-02f,+4.49902900e-02f,-1.25689238e-01f,
+8.97662789e-02f,+2.45065633e-02f,+4.60997820e-02f,+1.85142122e-02f,+2.13571355e-01f,
+1.42772064e-01f,+3.00807301e-02f,+2.22708099e-02f,+2.23972633e-01f,+1.00916348e-01f,
+9.84322205e-02f,+1.78310531e-03f,-3.14914659e-02f,+2.82252692e-02f,+1.43476114e-01f,
+3.22534442e-02f,+1.23307079e-01f,+1.43837392e-01f,-5.00334315e-02f,+2.61649787e-01f,
+8.74244720e-02f,+1.21912636e-01f,+6.53288290e-02f,+1.80878446e-01f,+4.60101776e-02f,
+3.15129831e-02f,+6.68689832e-02f,-1.36767915e-02f,+1.03553282e-02f,+9.47285891e-02f,
+5.16556613e-02f,+8.77614394e-02f,-6.35603964e-02f,+1.01878718e-01f,+6.70555532e-02f,
+1.69184357e-01f,+2.81894356e-02f,-2.62486547e-01f,+4.09381799e-02f,-1.14053283e-02f,
+9.35460180e-02f,+2.59178281e-01f,+1.90671459e-01f,+2.32992768e-02f,+3.73450965e-02f,
+7.71694183e-02f,+2.97482572e-02f,+1.14346005e-01f,+7.56688416e-02f,+1.79690480e-01f,
-6.93212673e-02f,+5.46342432e-02f,+1.25793293e-01f,+1.43634677e-02f,+8.33071545e-02f,
+1.19734168e-01f,+1.37756824e-01f,+7.79220015e-02f,-7.51608312e-02f,+2.03195676e-01f,
+1.13189995e-01f,-1.97852626e-02f,+1.29499882e-01f,+1.06770463e-01f,+1.64796531e-01f,
-6.63188994e-02f,+1.05760172e-01f,+3.52104604e-02f,-3.82848792e-02f,+9.91925672e-02f,
+3.94979455e-02f,+1.04956239e-01f,+3.76835950e-02f,+1.68677196e-01f,-1.00954324e-01f,
+2.06451640e-01f,+4.13434841e-02f,+4.11738083e-03f,+2.27310106e-01f,+2.19434667e-02f,
+4.13311906e-02f,-1.56414405e-01f,+1.36038959e-01f,+3.58566046e-02f,+2.72801798e-02f,
+3.17622684e-02f,-2.63511483e-02f,-2.67983098e-02f,+3.94817591e-02f,+1.87775195e-01f,
-1.77169312e-02f,+1.34202704e-01f,+1.30931005e-01f,+1.04833297e-01f,-6.30364716e-02f,
-3.66703942e-02f,+1.33524224e-01f,+1.46618769e-01f,-1.44219249e-01f,+1.99141756e-01f,
+3.22615355e-02f,+4.10743915e-02f,+2.91679621e-01f,-1.86937172e-02f,+1.07593194e-01f,
+1.95250854e-01f,+3.55926566e-02f,+2.87307473e-03f,+1.32517159e-01f,+7.72049790e-03f,
-1.06692731e-01f,+2.85128743e-04f,+8.19698535e-03f,+2.01003745e-01f,+9.94871631e-02f,
+3.62984315e-02f,+3.79720442e-02f,+9.11552757e-02f,+6.85418211e-03f,+1.87278658e-01f,
+1.24448672e-01f,-3.20802666e-02f,+1.44144043e-01f,-1.13721415e-01f,-3.24130990e-02f,
+4.23986167e-02f,+1.73461199e-01f,-5.76159684e-03f,+6.65754545e-03f,+2.16404945e-01f,
+5.96425608e-02f,+9.73509103e-02f,+8.04742575e-02f,+2.31225640e-01f,+1.19317003e-01f,
+1.68506876e-01f,-1.58898123e-02f,+2.27804989e-01f,+1.26247332e-01f,+1.49426565e-01f,
-4.19432148e-02f,+6.07797466e-02f,+1.13294423e-02f,+1.08583849e-02f,+4.68263440e-02f,
+8.43059570e-02f,-3.74784291e-01f,+1.11135028e-01f,-1.34778321e-01f,-3.16596597e-01f,
+1.75543666e-01f,+2.63895124e-01f,+5.39537489e-01f,+3.68267953e-01f,-7.60828406e-02f,
+1.86044991e-01f,-2.00024769e-02f,-4.00297120e-02f,+1.55059338e-01f,+6.91745281e-02f,
+2.78146770e-02f,+7.86860943e-01f,+6.80197716e-01f,-1.05578333e-01f,-2.41263002e-01f,
-1.97996274e-01f,+1.91123247e-01f,+2.21688330e-01f,+1.49531588e-01f,+4.31641668e-01f,
+7.87558630e-02f,-3.01251486e-02f,+5.18910885e-01f,+3.09924364e-01f,-1.81842111e-02f,
+3.18555117e-01f,+1.91951498e-01f,+2.33189210e-01f,+1.48758128e-01f,+1.79677546e-01f,
-9.08148382e-03f,-4.92865928e-02f,+1.70875102e-01f,+2.26468474e-01f,-1.06934361e-01f,
+9.79144424e-02f,+4.70644273e-02f,-8.29604119e-02f,-3.47048372e-01f,+1.34444997e-01f,
+1.49954170e-01f,-1.54878840e-01f,-1.50049314e-01f,-6.79677129e-02f,+2.83980221e-01f,
-4.24918486e-03f,+8.70288443e-03f,+7.08932653e-02f,+3.18896309e-05f,+2.01869369e-01f,
-1.58150256e-01f,+4.40573364e-01f,+2.51405314e-02f,+9.80203152e-02f,-3.61891061e-01f,
-1.27335219e-02f,+6.83106259e-02f,-1.33813426e-01f,-6.59832805e-02f,-3.09223924e-02f,
+2.01998621e-01f,-4.40581068e-02f,+1.18342571e-01f,-6.10207841e-02f,+7.70912766e-02f,
+2.27982983e-01f,-1.81462795e-01f,+1.97790176e-01f,+3.55203599e-02f,+1.34453550e-01f,
+2.52433896e-01f,+1.32915154e-01f,+1.05891623e-01f,+2.49997616e-01f,+6.36712238e-02f,
+1.67012990e-01f,+2.80566849e-02f,-9.34293419e-02f,+5.32089435e-02f,+4.49258685e-01f,
+3.44855577e-01f,+1.29056275e-01f,-1.88860759e-01f,+2.17499405e-01f,+3.05277735e-01f,
+2.08745748e-01f,+3.71277034e-01f,+3.72454494e-01f,+9.68735069e-02f,+1.28065154e-01f,
+2.97020584e-01f,-2.24947348e-01f,+4.24808040e-02f,+3.74671863e-03f,+1.47471339e-01f,
+3.03040653e-01f,+1.25581399e-01f,+4.24788177e-01f,+2.97359914e-01f,+4.55089301e-01f,
+1.69522777e-01f,+1.17728293e-01f,+2.67029792e-01f,+2.93818206e-01f,+1.40422359e-01f,
+3.43506664e-01f,+2.64514834e-01f,+2.45008077e-02f,-5.12846932e-02f,+1.40974388e-01f,
+2.03809068e-01f,+2.33105585e-01f,+1.62241489e-01f,+1.78506985e-01f,+4.61547673e-01f,
-4.25061882e-01f,+3.96681607e-01f,+1.80866927e-01f,+1.04301102e-01f,+1.42443165e-01f,
+1.53340369e-01f,+3.46292347e-01f,+3.38264346e-01f,-2.81920850e-01f,+3.57014626e-01f,
+9.88246426e-02f,-4.35133986e-02f,+1.85202435e-01f,+1.00831725e-01f,+3.02940816e-01f,
-1.23070657e-01f,+4.48666960e-02f,+7.92968720e-02f,+3.85479540e-01f,+1.45870700e-01f,
+9.83159542e-02f,+1.19009227e-01f,+3.60202193e-01f,+1.86618835e-01f,+1.43372431e-01f,
-3.43439505e-02f,+1.64369017e-01f,-1.75961465e-01f,+2.19467029e-01f,+4.95419316e-02f,
+6.05718233e-02f,-1.34342730e-01f,+1.33163780e-01f,+2.10017905e-01f,+6.45407066e-02f,
+8.51051956e-02f,-8.18643346e-02f,+3.20239216e-01f,+1.85990170e-01f,+4.88470435e-01f,
-1.62685186e-01f,+8.21121112e-02f,+1.33851871e-01f,-3.33949536e-01f,+2.87781179e-01f,
-2.71780431e-01f,-8.71111825e-02f,-5.37038259e-02f,+3.82817864e-01f,-8.86068717e-02f,
+3.39198381e-01f,-3.79386008e-01f,+7.91377202e-02f,+1.46893486e-01f,+2.39527449e-01f,
-2.65408680e-03f,+2.14524001e-01f,-1.64243862e-01f,-1.89145818e-01f,+9.35769174e-03f,
+9.70686376e-02f,+1.46533266e-01f,+1.71011686e-01f,+1.04112029e-01f,-2.11652204e-01f,
+1.98578984e-01f,+5.30571118e-02f,-1.89531609e-01f,+1.08081110e-01f,+3.51679362e-02f,
-6.94437772e-02f,-6.17006905e-02f,+7.82275349e-02f,-1.71759352e-02f,+1.11896090e-01f,
+4.72461492e-01f,+3.75478357e-01f,+1.74155518e-01f,+2.86450624e-01f,+4.00913298e-01f,
+2.16687828e-01f,+2.28274345e-01f,+3.69478390e-02f,+1.28116965e-01f,-3.36935937e-01f,
+2.24119470e-01f,+1.21052548e-01f,-7.81920105e-02f,+2.01607957e-01f,+4.57030050e-02f,
+2.75123388e-01f,+1.51797071e-01f,+4.67282414e-01f,+1.46855652e-01f,+4.42354977e-02f,
+1.37490079e-01f,+1.78809166e-01f,-1.56286862e-02f,+1.49337426e-01f,-3.74298729e-02f,
+4.10092957e-02f,+9.53783244e-02f,+5.26372552e-01f,+3.22878547e-02f,+4.89214510e-01f,
+5.98600328e-01f,-2.92002764e-02f,+5.82812428e-01f,-1.49570316e-01f,+5.18750921e-02f,
+1.23828478e-01f,-8.99656117e-02f,+1.24754071e-01f,+2.93216079e-01f,-2.92019993e-01f,
+1.81924999e-01f,+3.35605405e-02f,+4.64756787e-01f,-8.99605155e-02f,+2.66907103e-02f,
-2.78544575e-01f,+3.35975826e-01f,+4.43010747e-01f,+1.09779492e-01f,-5.89771755e-02f,
+6.37316629e-02f,+2.45522082e-01f,-1.05520396e-03f,+3.52054052e-02f,+1.19173788e-01f,
+3.46771032e-01f,+9.70148668e-02f,+7.11444795e-01f,+2.86548972e-01f,-5.25255948e-02f,
+1.01561241e-01f,+1.06490538e-01f,+2.86950409e-01f,+1.16110131e-01f,+1.74580976e-01f,
+6.84365779e-02f,+8.31730142e-02f,-5.65214157e-02f,-1.71352133e-01f,+3.65160525e-01f,
-9.33238864e-02f,-2.11168602e-01f,+4.40891087e-02f,-9.31073818e-03f,+1.41280398e-01f,
+9.00455490e-02f,+1.29475877e-01f,-1.61570340e-01f,-1.15043558e-01f,+6.97516620e-01f,
-6.70683151e-03f,+1.60621598e-01f,-2.47335378e-02f,+1.38931587e-01f,+1.00447878e-01f,
+1.09810174e-01f,+1.96883410e-01f,-4.69273739e-02f,+5.66592142e-02f,+1.60759702e-01f,
+9.21856239e-02f,+2.84749031e-01f,+3.31014186e-01f,-1.24717772e-01f,+5.99964447e-02f,
+3.29208106e-01f,-1.68625444e-01f,+1.44893616e-01f,+7.09968209e-02f,+1.30031601e-01f,
-1.54799551e-01f,+1.39201269e-01f,+2.54923422e-02f,+9.76602286e-02f,+1.24997295e-01f,
-4.16438878e-02f,+1.84277609e-01f,+3.70044351e-01f,+1.08688496e-01f,-2.98304320e-03f,
-2.48304699e-02f,+2.16721237e-01f,+1.78863034e-01f,+4.47257847e-01f,+4.46448028e-02f,
+7.38555416e-02f,-1.27668723e-01f,+3.04032922e-01f,-8.60964209e-02f,+2.30641916e-01f,
-2.67710295e-02f,+1.30872101e-01f,+4.47311960e-02f,-3.88132855e-02f,+3.11734915e-01f,
+2.59055868e-02f,+2.82207459e-01f,-1.64642930e-01f,+2.33025178e-01f,+3.06413591e-01f,
+2.07401976e-01f,-5.01719862e-02f,-2.48420481e-02f,+3.91602851e-02f,-2.28795975e-01f,
-1.92003429e-01f,+2.31233630e-02f,-1.12368956e-01f,-1.62824482e-01f,+1.14098035e-01f,
-5.85197620e-02f,+3.10930878e-01f,-1.59617066e-01f,-1.12942681e-01f,-7.50709102e-02f,
+2.16723248e-01f,-4.43909019e-02f,-1.19594052e-01f,+3.84083778e-01f,+6.90674558e-02f,
-2.54078865e-01f,-9.83994976e-02f,-2.90232688e-01f,-9.68229100e-02f,-1.25026837e-01f,
+1.68279052e-01f,+5.03229350e-02f,-3.75692606e-01f,+3.62872635e-03f,-1.00933693e-01f,
-1.34932145e-01f,-1.46262005e-01f,-1.53239891e-01f,-1.94660053e-02f,+2.55507052e-01f,
+2.73102708e-02f,-1.03498593e-01f,-7.73843750e-02f,-3.73432487e-02f,-2.58139744e-02f,
-1.25698105e-01f,+9.82829183e-02f,+1.10289916e-01f,-5.35392649e-02f,-6.51478395e-02f,
-5.63225783e-02f,-2.20740497e-01f,-3.03780735e-02f,-1.68680459e-01f,-7.16961995e-02f,
-2.71490932e-01f,-6.78398311e-02f,+1.84855819e-01f,-4.16992977e-02f,-1.98146135e-01f,
+1.53462857e-01f,+1.48336634e-01f,-6.21712059e-02f,-6.24869525e-01f,+2.80728042e-01f,
-2.54612654e-01f,-3.83761115e-02f,-1.17620960e-01f,+1.69974282e-01f,+1.84521824e-01f,
+8.19517747e-02f,+5.49957678e-02f,+1.15604363e-01f,+5.31137139e-02f,+5.25611401e-01f,
+8.98780599e-02f,-4.82430071e-01f,+2.70609558e-01f,-4.04061377e-02f,-1.05281849e-03f,
-2.03873649e-01f,+2.83785522e-01f,-1.66125774e-01f,-3.37985903e-02f,-1.47706658e-01f,
+1.14168093e-01f,-1.01051375e-01f,+4.82513476e-03f,+2.23197296e-01f,-5.14884889e-02f,
-1.63466930e-01f,-1.99599549e-01f,+8.44994038e-02f,+3.14126015e-01f,+1.02797583e-01f,
-1.23387061e-01f,-2.45758504e-01f,+1.22293040e-01f,-2.44141236e-01f,-2.15120047e-01f,
+3.99952412e-01f,+1.00138746e-02f,-5.27891703e-02f,-2.54737645e-01f,-5.72426282e-02f,
+8.97639617e-02f,-4.14418131e-01f,+1.60368338e-01f,-4.11513805e-01f,-1.48760617e-01f,
+2.72094935e-01f,+5.84479161e-02f,+2.24157777e-02f,-6.16093958e-03f,+6.20715283e-02f,
+2.42775161e-04f,+3.62593867e-02f,+4.19171512e-01f,+4.15211990e-02f,-4.17379662e-02f,
+1.61880285e-01f,-2.68540531e-01f,+1.03822611e-02f,+1.90138102e-01f,+2.70308822e-01f,
-2.49067232e-01f,-3.64698879e-02f,+4.69850302e-02f,-8.69281441e-02f,-9.11901966e-02f,
-1.37691319e-01f,+4.23845686e-02f,+1.65974364e-01f,-3.91159385e-01f,-1.65044948e-01f,
+1.26662403e-01f,+1.47929072e-01f,+1.47985026e-01f,-3.27920765e-01f,-2.15302318e-01f,
-2.47542292e-01f,+1.83825299e-01f,+1.29194498e-01f,-2.47906614e-02f,-3.61983865e-01f,
+3.34317714e-01f,-1.95337623e-01f,-4.98032086e-02f,+3.31948996e-01f,-1.01256557e-01f,
-2.18293086e-01f,-2.70519257e-01f,+1.10283621e-01f,+2.32773572e-01f,+3.56802978e-02f,
-6.18422329e-02f,+1.43713564e-01f,+3.43341753e-02f,-1.71860529e-03f,+5.52071482e-02f,
-2.15469420e-01f,-8.55628476e-02f,-6.70691803e-02f,+2.92299837e-02f,-2.57020682e-01f,
-3.22834053e-03f,-2.08956644e-01f,+1.82348177e-01f,-9.86055285e-02f,+3.41370553e-01f,
+1.42671362e-01f,+2.48821110e-01f,+1.73811510e-01f,+2.21414790e-02f,+1.75451517e-01f,
+2.25461751e-01f,+1.30113944e-01f,-5.34820497e-01f,-2.09954649e-01f,+5.66331185e-02f,
-4.12903398e-01f,+2.86165506e-01f,-4.25253004e-01f,+1.85643300e-01f,+7.46867806e-02f,
-6.91865236e-02f,-2.39525005e-01f,+1.39197260e-01f,+3.48653883e-01f,-1.72337651e-01f,
+3.08660239e-01f,+6.70702532e-02f,-4.05305251e-02f,-1.94053695e-01f,+1.85503080e-01f,
-1.78285241e-02f,-1.92389444e-01f,-1.63977861e-03f,+1.25207186e-01f,+3.16961586e-01f,
+7.18268976e-02f,+3.46948445e-01f,-4.15029861e-02f,-8.01675171e-02f,+6.55689910e-02f,
+1.32033259e-01f,+1.11358434e-01f,-9.41731706e-02f,+4.01582457e-02f,+3.70864421e-01f,
+3.66459414e-02f,+1.98566347e-01f,+7.73246735e-02f,-1.15606664e-02f,-7.68155307e-02f,
+1.71198994e-01f,+3.46339107e-01f,+1.24461807e-01f,+1.24147177e-01f,+3.61112766e-02f,
+1.26378417e-01f,-1.03307232e-01f,-1.02817036e-01f,+2.30039671e-01f,+1.37020037e-01f,
-3.28900546e-01f,+7.68769458e-02f,+1.86600611e-02f,-9.84857157e-02f,-2.39075720e-01f,
-1.11148037e-01f,-2.13283420e-01f,+2.47763753e-01f,+1.03099614e-01f,+5.95527515e-02f,
-9.15405303e-02f,+5.95069677e-02f,+8.68403241e-02f,+5.32666087e-01f,+2.19608266e-02f,
-1.21296391e-01f,-7.92797282e-02f,+6.22853935e-01f,+6.17669672e-02f,-1.54450402e-01f,
-2.43010104e-01f,-2.24131942e-01f,-6.75036833e-02f,+1.44022569e-01f,-1.01255380e-01f,
-2.27500498e-01f,-2.27753267e-01f,+5.14701344e-02f,+6.69011623e-02f,-1.23267248e-01f,
-1.96231574e-01f,+9.15046707e-02f,-4.41827029e-02f,-3.42424586e-02f,-5.78592904e-02f,
-2.14733765e-01f,+1.83817558e-02f,-2.13317975e-01f,+1.93764836e-01f,-1.78718522e-01f,
+5.64879514e-02f,-2.45215092e-02f,+1.02920406e-01f,-8.41093659e-02f,-2.90273070e-01f,
-6.86646327e-02f,+1.03994183e-01f,+3.18430334e-01f,-1.04710087e-01f,-1.30287424e-01f,
-1.03888057e-01f,-3.17719370e-01f,-1.64311081e-01f,-2.08551034e-01f,+1.63779765e-01f,
-1.55334607e-01f,+6.55597672e-02f,+4.02755499e-01f,-2.54032165e-01f,-5.24279177e-02f,
-2.94332385e-01f,-1.17020339e-01f,+5.83812892e-02f,-2.26604998e-01f,+1.00894831e-01f,
-9.12276953e-02f,-1.26933619e-01f,-1.31214425e-01f,+9.13357213e-02f,+1.12186156e-01f,
-2.84397066e-01f,-7.73000866e-02f,+2.55625129e-01f,+7.70515949e-02f,-4.06243317e-02f,
+5.97969666e-02f,+1.13086469e-01f,-1.42604738e-01f,-1.57399271e-02f,+1.23566695e-01f,
+3.66573110e-02f,+8.65712538e-02f,+4.89323549e-02f,-4.59730178e-02f,+1.76288188e-01f,
+1.46470919e-01f,-2.20289156e-01f,+1.21688105e-01f,+4.77973036e-02f,+2.40943983e-01f,
+3.29443365e-01f,+2.86355436e-01f,+1.72495782e-01f,+1.42133087e-02f,-2.24467702e-02f,
+3.71493340e-01f,-1.03719413e-01f,+8.36677290e-03f,-9.25849006e-03f,-1.78169221e-01f,
-1.60094470e-01f,-2.21130569e-02f,+8.99779871e-02f,-6.32488281e-02f,+3.75346690e-01f,
-2.97500528e-02f,+1.98838085e-01f,+7.72463828e-02f,+1.38985187e-01f,+2.25452006e-01f,
+1.45362362e-01f,+5.70335016e-02f,+1.73087016e-01f,+3.54621708e-02f,+8.72857422e-02f,
+2.50680476e-01f,-7.83951953e-02f,+1.61619410e-02f,+1.03543483e-01f,+1.29651781e-02f,
+1.14315316e-01f,+5.53895347e-02f,-7.82554224e-02f,+2.77744710e-01f,+2.50637382e-01f,
+1.78655609e-01f,+1.61305755e-01f,+9.44377109e-02f,+9.35205594e-02f,-1.36903182e-01f,
+7.66038597e-02f,-7.52390325e-02f,+1.08065300e-01f,+1.46366566e-01f,+1.13185123e-01f,
+2.42601320e-01f,-5.49517758e-02f,+1.01378774e-02f,-2.14271441e-01f,+1.48746878e-01f,
+1.49438784e-01f,-1.21093187e-02f,+7.07756206e-02f,+1.17780142e-01f,+3.58881533e-01f,
+1.92165375e-01f,+3.85816805e-02f,+2.30269376e-02f,+3.76374042e-03f,+2.49078602e-01f,
+1.11667648e-01f,-1.48257628e-01f,+1.22346044e-01f,+2.25833535e-01f,+7.01785088e-02f,
+2.58991867e-01f,-1.60189683e-03f,+5.45849763e-02f,+5.99744171e-03f,-4.80236933e-02f,
+6.36923267e-03f,+6.02666847e-02f,+4.16788012e-02f,+1.43376261e-01f,+9.60402340e-02f,
+1.00691314e-03f,+1.78800210e-01f,+7.07340986e-02f,-4.62886281e-02f,+2.38609031e-01f,
+3.23578835e-01f,+1.65662661e-01f,+9.24594775e-02f,+5.52862138e-02f,+1.01093231e-02f,
-1.67014629e-01f,-5.61713837e-02f,+7.32306764e-02f,+1.02825649e-02f,-1.91363245e-02f,
+2.49644190e-01f,-7.37269446e-02f,+1.70280784e-01f,+2.31306270e-01f,+5.07754087e-02f,
+2.34318569e-01f,+6.01184815e-02f,-1.79302514e-01f,+3.49282362e-02f,+2.02635065e-01f,
-2.05407129e-03f,+2.96188980e-01f,+1.09929033e-02f,+1.64869979e-01f,-5.64256795e-02f,
+6.42211810e-02f,+1.42552927e-01f,+3.09847355e-01f,+1.99731871e-01f,+3.09193522e-01f,
-1.64175734e-01f,-9.96090919e-02f,+3.37431699e-01f,+9.87095386e-02f,-1.17128283e-01f,
+1.18373282e-01f,+2.80136973e-01f,+1.39470339e-01f,-1.25212163e-01f,+3.65591347e-02f,
+2.63629761e-02f,-2.29933619e-01f,-6.61735758e-02f,-1.34703338e-01f,+2.31115162e-01f,
+1.83925346e-01f,-1.07443959e-01f,-3.14224251e-02f,+6.99855760e-02f,+8.63978267e-02f,
+2.36901686e-01f,+1.55117974e-01f,+6.16070256e-02f,-2.30118588e-01f,+2.13929176e-01f,
+3.70279133e-01f,+2.52144068e-01f,+1.11572847e-01f,+1.64548069e-01f,+4.08481508e-01f,
+1.91472992e-01f,-6.71389177e-02f,+7.70674795e-02f,+3.88385326e-01f,+1.72204405e-01f,
+1.04977682e-01f,+1.46873176e-01f,+3.50382060e-01f,+2.57926613e-01f,+1.61495104e-01f,
-1.84511811e-01f,+5.24493009e-02f,+9.04532969e-02f,-3.96227911e-02f,-5.15232012e-02f,
-5.76733164e-02f,-6.10785820e-02f,+6.30176365e-02f,+1.98816627e-01f,+1.39224246e-01f,
+2.61277836e-02f,+8.21755733e-03f,-2.02361774e-02f,-4.52183513e-03f,+1.95021257e-01f,
-9.06411409e-02f,+7.60240480e-02f,+2.15421274e-01f,-7.25024492e-02f,+1.23511083e-01f,
+1.35495946e-01f,+1.89927340e-01f,-4.67846915e-02f,+3.02713722e-01f,-1.39923245e-01f,
+1.79907784e-01f,-9.27424282e-02f,+4.53490913e-02f,+1.05372138e-01f,+7.99805000e-02f,
+3.13049197e-01f,+5.69428392e-02f,+1.25481442e-01f,+6.60879090e-02f,+1.60333112e-01f,
+2.13174060e-01f,+1.27694130e-01f,+2.80887391e-02f,+1.20074064e-01f,+1.47087425e-01f,
-3.10511254e-02f,+5.12512997e-02f,+2.97208041e-01f,-9.94254127e-02f,+4.20997106e-02f,
-5.21151684e-02f,+8.38095322e-02f,+8.98962170e-02f,+1.39439031e-01f,+4.35858369e-02f,
+1.93416968e-01f,+2.38259450e-01f,+8.72287601e-02f,+7.87754077e-03f,+3.00506175e-01f,
+1.72663376e-01f,+2.37725362e-01f,-5.63544631e-02f,+1.48354650e-01f,-4.02003564e-02f,
+1.18818410e-01f,-8.28976631e-02f,+1.56493872e-01f,-3.36152837e-02f,-3.81340943e-02f,
+8.04882273e-02f,+2.77434230e-01f,-1.72442906e-02f,+5.72276413e-02f,+4.52719212e-01f,
+6.00906461e-02f,-4.12145182e-02f,+2.14496776e-01f,+2.67313898e-01f,-6.95113838e-02f,
-2.16755942e-01f,+1.87248483e-01f,-1.51459072e-02f,-1.59889638e-01f,+1.34037361e-01f,
-1.36153936e-01f,-2.96655651e-02f,-1.15278438e-02f,+7.18353391e-02f,+7.30080232e-02f,
+3.12247813e-01f,+1.76646501e-01f,+1.92557067e-01f,+4.80761677e-02f,+1.68690696e-01f,
+1.22367606e-01f,+1.03265107e-01f,+6.51510283e-02f,+1.31670922e-01f,+1.76894933e-01f,
-1.56454653e-01f,-1.45406947e-01f,+1.64447412e-01f,+4.42680195e-02f,-8.13254192e-02f,
-3.25004980e-02f,-5.62058538e-02f,+1.31481260e-01f,+1.16926171e-01f,+3.04640204e-01f,
+2.12910458e-01f,+2.21565530e-01f,+2.16873780e-01f,-4.39028367e-02f,+2.05573097e-01f,
-3.61589938e-02f,+1.76489875e-01f,-1.15230769e-01f,+1.17220387e-01f,+1.07496209e-01f,
-5.36805913e-02f,+2.50820518e-02f,+3.60884279e-01f,-2.94627864e-02f,+3.05755846e-02f,
+1.33506656e-01f,-1.36883631e-01f,+1.37630567e-01f,+2.00776652e-01f,+2.27647141e-01f,
+7.82160014e-02f,+4.04142588e-02f,+8.92008245e-02f,+1.63030148e-01f,+1.57087192e-01f,
-8.53358954e-02f,+5.92366373e-03f,+2.36227855e-01f,+1.25565559e-01f,+1.21282637e-01f,
-7.27220997e-02f,+6.04359768e-02f,+8.28322247e-02f,+1.92028746e-01f,+8.42768848e-02f,
+1.66281223e-01f,+3.56645405e-01f,+2.73400471e-02f,+1.13059990e-01f,+3.17407161e-01f,
+1.02167569e-01f,+3.13678086e-01f,+2.60955334e-01f,+2.82648683e-01f,+5.49715199e-03f,
+2.06450433e-01f,+2.65914258e-02f,+6.59676567e-02f,-3.33900726e-03f,+3.89455855e-02f,
-1.39806584e-01f,-5.45259826e-02f,+8.98797885e-02f,-2.23195413e-03f,+3.55175398e-02f,
+2.39531711e-01f,+8.91760215e-02f,+8.30223337e-02f,-1.09586410e-01f,+1.37175396e-01f,
-2.62358457e-01f,+1.04909346e-01f,-2.04640254e-02f,+2.44995326e-01f,+6.60797656e-02f,
-8.40738937e-02f,+3.28243166e-01f,+2.61577917e-03f,+1.19413801e-01f,-1.03106839e-03f,
-7.52163455e-02f,+2.71915257e-01f,+1.26355186e-01f,+3.30607325e-01f,+7.47336820e-02f,
+1.49427339e-01f,+5.77363893e-02f,-3.12037766e-02f,+1.21993281e-01f,+1.01627544e-01f,
-8.46708566e-02f,+1.39242336e-01f,+4.33455855e-02f,+1.19376190e-01f,+5.72162792e-02f,
+1.02245919e-01f,+9.58443210e-02f,-7.96801150e-02f,+5.10803312e-02f,+1.73533559e-01f,
+5.25613762e-02f,+1.03458262e-03f,-9.46332049e-03f,-8.09194744e-02f,-1.69594184e-01f,
-4.14839126e-02f,+5.76357953e-02f,-1.14054032e-01f,+1.87442392e-01f,+3.21945846e-01f,
+1.43332444e-02f,-8.79696012e-02f,+2.32690368e-02f,-6.37282878e-02f,+9.20240730e-02f,
-1.15230372e-02f,+1.93183377e-01f,-1.48724101e-03f,-2.42708027e-02f,+3.04571062e-01f,
+2.91196089e-02f,+1.61971480e-01f,-5.78067899e-02f,-2.25666501e-02f,+3.45715359e-02f,
+1.10206410e-01f,+4.80012931e-02f,+9.70736966e-02f,+1.04964219e-01f,+2.38146950e-02f,
-6.36720806e-02f,+7.74239330e-03f,+2.06530064e-01f,+2.04150110e-01f,+4.32240479e-02f,
+2.89719164e-01f,+1.01502061e-01f,-2.02344880e-02f,-6.31212890e-02f,+3.87828164e-02f,
+1.25922680e-01f,+1.23050936e-01f,-9.26946178e-02f,-4.65507880e-02f,+4.58291993e-02f,
+2.62431234e-01f,+1.56204417e-01f,+8.15412179e-02f,-4.64544669e-02f,-2.40654677e-01f,
-1.14598863e-01f,-3.18946205e-02f,-2.24600062e-01f,-1.29850313e-01f,+1.29985377e-01f,
+7.52406642e-02f,-2.04305932e-01f,-1.42454281e-02f,+8.98589119e-02f,-1.09311454e-02f,
+1.61651254e-01f,-3.04614335e-01f,+1.67136803e-01f,+5.68053946e-02f,+2.29126960e-01f,
+2.31548175e-01f,+1.36220381e-01f,-1.57955423e-01f,+7.68457055e-02f,+1.32314369e-01f,
-7.35419467e-02f,-2.99278256e-02f,-1.06939739e-02f,+7.97995329e-02f,+8.41266513e-02f,
+1.98367238e-01f,+8.85553807e-02f,-9.39470828e-02f,-2.61707902e-01f,+7.34042600e-02f,
+4.49948804e-03f,+1.41871944e-01f,+8.95511582e-02f,+1.67195693e-01f,+8.15102831e-02f,
-1.82077974e-01f,-1.44292265e-01f,+2.13174686e-01f,-3.18766832e-01f,+3.28614920e-01f,
+1.00126423e-01f,-1.71541587e-01f,-1.08674236e-01f,+1.01442114e-01f,+1.40687108e-01f,
-1.45137772e-01f,+4.37733568e-02f,+3.55883203e-02f,+5.71959019e-02f,+1.45900041e-01f,
-3.76094282e-02f,+4.52786312e-02f,+9.11405683e-03f,+6.08661696e-02f,+4.68416661e-02f,
+2.40082011e-01f,+1.55059798e-02f,+4.33823839e-02f,+7.47650340e-02f,-3.77246469e-01f,
-7.21216053e-02f,+1.21019624e-01f,+2.65658796e-01f,+1.85641840e-01f,-1.29115939e-01f,
-1.37644857e-01f,+3.19919200e-03f,-3.23077701e-02f,-2.63365388e-01f,-2.67403781e-01f,
+3.68431248e-02f,+3.25562894e-01f,+4.26377505e-02f,+1.67615209e-02f,+3.57294887e-01f,
-7.77025223e-02f,-1.31248496e-02f,+2.74278633e-02f,-3.97816487e-03f,+1.70105666e-01f,
+2.68923074e-01f,-4.32750806e-02f,+1.29829034e-01f,+6.01914041e-02f,+3.96814607e-02f,
+2.75526971e-01f,-5.09007089e-03f,-1.61105320e-01f,-2.64203642e-02f,+1.80076659e-02f,
+9.62398481e-03f,+4.06101719e-03f,+3.78801278e-03f,+1.15327444e-03f,+2.43286416e-01f,
+1.53213352e-01f,+3.74617487e-01f,+3.11844140e-01f,+2.02532917e-01f,+1.74170241e-01f,
+7.66498670e-02f,-5.84036447e-02f,+1.79749280e-01f,+1.89926162e-01f,+1.31431380e-02f,
-5.97280152e-02f,-1.21981828e-02f,+5.06297275e-02f,+1.58780478e-02f,+1.24455318e-01f,
-7.85288960e-02f,-1.83840737e-01f,+6.94560483e-02f,-5.18557355e-02f,-8.80125389e-02f,
-1.75293654e-01f,+6.15304289e-03f,+8.72934163e-02f,+1.59193292e-01f,+2.52785981e-01f,
+4.53954190e-02f,-1.87550455e-01f,+2.75655091e-01f,-4.27040718e-02f,+9.79102999e-02f,
+1.04374528e-01f,-4.46347408e-02f,-7.24967197e-02f,+1.74810052e-01f,-9.32032466e-02f,
+3.81466411e-02f,-2.86332339e-01f,+1.42837018e-01f,-1.96466688e-02f,+4.92794849e-02f,
-1.67653129e-01f,+6.01194277e-02f,+1.07136294e-01f,-2.24270988e-02f,+3.66848022e-01f,
+9.94304866e-02f,-8.45262855e-02f,+3.34400274e-02f,+2.94594886e-03f,+1.80497035e-01f,
-1.01616532e-01f,+3.08815781e-02f,-3.59105691e-02f,+1.17720909e-01f,+1.60483763e-01f,
-8.14782679e-02f,-2.21924827e-01f,+1.10916585e-01f,+7.25868270e-02f,-1.87345251e-01f,
-7.60156987e-03f,-8.49008858e-02f,+4.40288559e-02f,+9.03714001e-02f,+4.51088138e-02f,
-2.86116209e-02f,+3.43872786e-01f,-1.80478260e-01f,+4.52002510e-02f,+3.87581326e-02f,
-4.15835530e-01f,+8.51734206e-02f,+1.54333964e-01f,-1.24845304e-01f,-9.87310708e-02f,
-1.52974762e-02f,+2.48513613e-02f,-2.64662594e-01f,-4.31311987e-02f,+2.01941520e-01f,
+2.87198145e-02f,-6.46327659e-02f,+1.80348620e-01f,+2.06816316e-01f,+1.22493394e-01f,
-2.95544416e-02f,-1.83835074e-01f,+5.17720245e-02f,-2.31573433e-02f,+2.80657597e-02f,
+1.22330196e-01f,+2.22468615e-01f,-3.69937234e-02f,+5.40982299e-02f,+6.69929385e-02f,
-9.72802266e-02f,+3.25104117e-01f,+4.66499701e-02f,+1.11854874e-01f,+1.92500591e-01f,
-2.43952036e-01f,-2.40829140e-02f,+7.94835463e-02f,-8.83799791e-02f,+8.14834982e-02f,
+2.62971878e-01f,+5.10042608e-02f,+8.48483443e-02f,+1.08576775e-01f,+2.60911826e-02f,
-1.08906209e-01f,-9.73847732e-02f,+2.09164008e-01f,+1.22657225e-01f,+2.04386525e-02f,
-9.59915817e-02f,+5.23144193e-02f,-1.29543662e-01f,+1.26469778e-02f,+8.82061757e-03f,
-3.64862651e-01f,+3.47458035e-01f,-3.94665599e-02f,-1.43963754e-01f,+1.14916168e-01f,
+2.75641046e-02f,-3.72110717e-02f,+2.01030120e-01f,-1.02188870e-01f,+1.42200038e-01f,
+2.02895954e-01f,-1.13321491e-01f,-9.73418504e-02f,-2.92870909e-01f,+1.93238277e-02f,
-1.07368141e-01f,-1.28353328e-01f,+6.45526275e-02f,-9.77320150e-02f,+9.10245031e-02f,
+1.74171343e-01f,-3.60179432e-02f,-9.78185087e-02f,+2.22061232e-01f,-2.16961250e-01f,
-4.26473171e-02f,-1.72744393e-01f,+6.87257154e-03f,-1.23510890e-01f,+2.02563172e-03f,
+2.93740723e-02f,+7.69413561e-02f,+1.38407245e-01f,-1.05882056e-01f,-9.79637355e-03f,
-2.97731645e-02f,-5.66072091e-02f,-1.83722135e-02f,-2.41269022e-02f,+2.37072274e-01f,
-1.84381917e-01f,-9.95281488e-02f,-1.05977647e-01f,+1.21752769e-01f,+1.48197860e-01f,
-5.62701235e-03f,+1.25965789e-01f,+1.90952227e-01f,-8.67271200e-02f,+1.43433049e-01f,
+9.40608904e-02f,-1.26747030e-03f,+3.99595499e-02f,-5.24370782e-02f,+1.22195356e-01f,
+2.10776720e-02f,-4.76161465e-02f,+2.83954561e-01f,+9.85661596e-02f,+8.94699469e-02f,
+8.24047774e-02f,+6.10004514e-02f,+1.38387069e-01f,+1.02277242e-01f,+5.87523691e-02f,
-5.64668775e-02f,+1.23122342e-01f,-6.32874947e-03f,+5.27785830e-02f,+1.12528279e-01f,
+5.96904904e-02f,-5.17906360e-02f,-1.10384524e-01f,-7.36370608e-02f,+2.25205600e-01f,
+4.98054139e-02f,-4.87705804e-02f,-6.56237155e-02f,+1.50851130e-01f,+1.00025676e-01f,
+5.67859365e-03f,+1.20179564e-01f,-1.46147132e-01f,+9.88008603e-02f,+2.88290739e-01f,
-2.09162068e-02f,-1.12113930e-01f,+8.45080093e-02f,+4.37768698e-02f,+1.39581472e-01f,
+1.14947818e-01f,+4.62974496e-02f,-1.07854791e-02f,+2.21075676e-02f,+1.61497846e-01f,
-3.64952907e-02f,+2.01871037e-01f,+9.56712365e-02f,+1.16222143e-01f,-2.60829814e-02f,
+6.49036467e-02f,+1.06701218e-01f,+1.23704076e-01f,+2.06638575e-01f,+6.39599338e-02f,
+1.49889544e-01f,-2.77112685e-02f,+6.53379187e-02f,+1.67966589e-01f,-1.12716496e-01f,
-3.49850580e-02f,+1.29403919e-01f,+9.16954279e-02f,+8.18483755e-02f,+6.49722368e-02f,
-1.89445503e-02f,-1.94144230e-02f,+9.97191966e-02f,+6.57716244e-02f,+1.06990812e-02f,
+1.38840854e-01f,-1.79128293e-02f,+6.18684590e-02f,-1.19220112e-02f,+6.24324866e-02f,
+5.86448424e-02f,-2.86815390e-02f,+6.61431253e-02f,+1.32128626e-01f,+1.29438400e-01f,
+1.05959237e-01f,+9.96361822e-02f,+1.54218882e-01f,+5.68631813e-02f,+2.99438655e-01f,
+1.75418947e-02f,+8.05652812e-02f,+9.77352560e-02f,+1.04238562e-01f,+1.36770442e-01f,
+4.03380729e-02f,+6.37800992e-02f,-1.37345687e-01f,+2.49084160e-02f,+7.99294040e-02f,
+1.24846809e-01f,+2.85425074e-02f,+1.66762531e-01f,+6.55954927e-02f,-6.78126663e-02f,
+2.15402469e-02f,+1.97878014e-02f,+9.62183550e-02f,+1.91427767e-01f,+2.45884404e-01f,
+4.76735011e-02f,+3.24132703e-02f,-7.55614787e-02f,+1.47458259e-02f,+3.52581143e-02f,
+2.43246019e-01f,-9.21941996e-02f,-1.94617882e-02f,-1.84467047e-01f,+1.84338450e-01f,
+8.10047537e-02f,+1.58931285e-01f,+1.55669779e-01f,+8.31428468e-02f,+9.67426300e-02f,
+3.68016884e-02f,+2.47737572e-01f,+5.69035374e-02f,+9.91799533e-02f,-4.26354706e-02f,
+5.97582432e-03f,+1.52051672e-01f,+3.45886111e-01f,+1.32114187e-01f,+1.50574490e-01f,
+4.24424186e-02f,-7.83658251e-02f,+1.19299762e-01f,+6.45827278e-02f,+1.62186414e-01f,
+1.51031688e-01f,-1.27530666e-02f,+2.32450981e-02f,-6.62156716e-02f,-2.53175572e-02f,
+4.92064990e-02f,-3.95008288e-02f,-4.29174304e-02f,+1.16903394e-01f,+7.29186386e-02f,
+1.56667352e-01f,+6.33867308e-02f,+1.64571047e-01f,+2.09354028e-01f,-4.48933952e-02f,
+8.72632191e-02f,+7.10816681e-02f,+1.30329188e-02f,+5.52983172e-02f,+5.49630523e-02f,
-3.02317683e-02f,+8.82094353e-02f,+8.10556486e-02f,+2.19193935e-01f,+3.91927958e-02f,
+8.55225250e-02f,-5.51694222e-02f,+1.02733031e-01f,+6.78186938e-02f,+1.88218817e-01f,
+1.69281051e-01f,-1.35300625e-02f,-1.96028408e-02f,-3.67212147e-02f,+7.48290122e-02f,
+6.59944639e-02f,-3.57109420e-02f,+1.67846400e-02f,+1.42593235e-01f,+8.20401162e-02f,
-4.84848442e-03f,+1.88157111e-01f,-4.69795875e-02f,-1.27088889e-01f,+1.42517254e-01f,
+1.11313611e-01f,-1.58650465e-02f,+2.96199620e-02f,+1.05731003e-01f,-1.21699430e-01f,
-8.86651352e-02f,+1.29388750e-01f,+2.90506091e-02f,-1.51187479e-01f,+1.82706967e-01f,
+1.66835919e-01f,+4.54803258e-02f,+1.31086573e-01f,-2.94952951e-02f,+4.33610491e-02f,
-8.04855153e-02f,-3.30433547e-02f,+9.21691302e-03f,-2.64362276e-01f,-8.36517066e-02f,
+7.82584250e-02f,+4.86676171e-02f,+8.14743787e-02f,-5.83828613e-02f,+1.75994560e-02f,
+1.97178081e-01f,+1.05493255e-01f,+8.77143443e-02f,+1.41286835e-01f,+3.26389968e-02f,
+2.74251670e-01f,+2.46974695e-02f,+9.73926634e-02f,+6.19944371e-02f,+9.45086405e-02f,
-1.59899220e-01f,+1.50115147e-01f,+2.65460014e-01f,+8.60908478e-02f,+1.14963822e-01f,
-3.70634645e-02f,-1.34284765e-01f,-4.14102189e-02f,+2.19462812e-01f,+1.03648886e-01f,
-6.58899779e-03f,+6.74881488e-02f,+7.46534988e-02f,+3.96430418e-02f,+1.94487140e-01f,
+1.72620654e-01f,-6.28440008e-02f,+1.22380748e-01f,+3.64977531e-02f,-9.42206755e-03f,
+1.70696333e-01f,-4.57923822e-02f,+3.21465135e-02f,+6.15017600e-02f,+1.38557285e-01f,
+1.42290846e-01f,+5.31693883e-02f,+1.65296514e-02f,-4.46831547e-02f,+8.18666629e-03f,
+2.20299780e-01f,+1.60325244e-02f,+9.83120352e-02f,+7.36927688e-02f,+1.86960220e-01f,
+5.95167950e-02f,+1.10018902e-01f,+8.23089331e-02f,+1.08595090e-02f,+8.47046077e-02f,
+1.31746754e-01f,+1.17294475e-01f,-8.09230208e-02f,-3.46931703e-02f,+1.63445786e-01f,
-2.01240536e-02f,+1.38777450e-01f,+1.36214167e-01f,-8.46476555e-02f,+1.09995879e-01f,
+7.48796612e-02f,+6.13246448e-02f,+4.55130972e-02f,+1.62345871e-01f,+2.02674121e-02f,
+1.64829105e-01f,-1.14244044e-01f,+8.96140039e-02f,+5.77437282e-02f,+2.76801646e-01f,
+1.00162625e-01f,+1.24960411e-02f,+9.31554660e-02f,+2.82037377e-01f,+3.74277681e-02f,
+3.87130976e-02f,+4.89313640e-02f,-1.74822304e-02f,+5.26426770e-02f,+4.83515374e-02f,
+1.39104381e-01f,+1.25983536e-01f,+1.78016603e-01f,+2.39234596e-01f,-5.46077788e-02f,
-6.62952811e-02f,+2.51447130e-02f,+6.64991289e-02f,+7.16776848e-02f,+6.40775338e-02f,
+6.20224997e-02f,+3.65512283e-03f,+5.77535518e-02f,-3.56337492e-04f,+1.77615061e-01f,
+3.18360269e-01f,+1.93128511e-01f,+1.54209450e-01f,+1.31175727e-01f,+1.43871263e-01f,
+1.77483812e-01f,+1.20492361e-01f,+1.36795193e-01f,+3.15623581e-02f,+1.86169624e-01f,
+1.40752448e-02f,+2.78790817e-02f,+1.44248262e-01f,-1.10221274e-01f,-1.31107708e-02f,
-1.09061047e-01f,+1.88415036e-01f,+6.84265122e-02f,-4.54802718e-03f,-3.39130349e-02f,
+2.09241077e-01f,+3.43980901e-02f,+1.59513816e-01f,+4.22893725e-02f,-1.44070005e-02f,
+1.03570648e-01f,+4.87952888e-01f,-1.68575481e-01f,-2.20372587e-01f,-3.32566381e-01f,
-5.87838627e-02f,-1.47026256e-02f,+9.87320691e-02f,-4.40010391e-02f,-3.16630781e-01f,
+6.85256943e-02f,-1.47329196e-01f,-6.42614141e-02f,+1.63095683e-01f,-1.19525537e-01f,
+2.78170228e-01f,+2.58293259e-03f,+2.70177901e-01f,-5.30825667e-02f,-7.74040222e-02f,
+1.13901392e-01f,+1.90365955e-01f,+2.67033596e-02f,+2.36806408e-01f,+8.32073167e-02f,
+5.87338135e-02f,+7.38618895e-03f,+2.41794541e-01f,-1.41540155e-01f,+2.01187213e-03f,
+2.31751695e-01f,-1.01458922e-01f,+6.93048909e-02f,-1.80931449e-01f,-1.48176491e-01f,
+1.72757134e-02f,-1.00134134e-01f,+6.47780299e-02f,+2.80273050e-01f,+2.03735769e-01f,
+3.08779746e-01f,-2.51294822e-01f,-2.82795448e-02f,+2.90002882e-01f,-3.82560538e-03f,
-5.05065992e-02f,-8.16138014e-02f,-1.43126741e-01f,+2.32685611e-01f,-1.46404773e-01f,
+1.24675564e-01f,+2.97108497e-02f,-7.38558099e-02f,+1.18504390e-01f,-2.57678032e-01f,
-6.73895702e-02f,+2.08031967e-01f,+2.06752583e-01f,+3.61017026e-02f,-5.46639711e-02f,
-1.37901902e-01f,-4.17136997e-02f,+8.11304078e-02f,-1.77626833e-01f,-6.73424527e-02f,
-7.80544505e-02f,-1.14326209e-01f,+3.70552808e-01f,+7.68749788e-02f,-5.16369008e-02f,
+2.34943137e-01f,-9.73538682e-02f,+1.77424207e-01f,+1.83106437e-02f,-1.53782040e-01f,
+1.82378829e-01f,-5.71224988e-02f,+3.43456239e-01f,+4.91871871e-02f,-4.70593311e-02f,
+2.85416357e-02f,+3.78497154e-01f,-2.23833814e-01f,+1.90928072e-01f,+1.55264169e-01f,
+1.63876176e-01f,+1.28079861e-01f,-2.01787993e-01f,+1.03113130e-01f,-4.47825730e-01f,
-9.07574967e-02f,+4.59042042e-02f,+1.07016332e-01f,+3.32968570e-02f,+3.82152610e-02f,
+7.45576099e-02f,+2.79615879e-01f,+1.55313443e-02f,-7.28076464e-03f,+1.06355220e-01f,
+1.45892834e-03f,+3.01160961e-01f,+3.46689343e-01f,-9.84357856e-03f,+1.38877317e-01f,
+2.98886746e-02f,+1.45282373e-01f,+1.56738013e-01f,+2.18798108e-02f,-3.07115577e-02f,
+3.15419808e-02f,-2.33011723e-01f,+1.69850320e-01f,-3.21426541e-02f,+5.97197600e-02f,
+2.81719863e-01f,+1.23493755e-02f,-1.25483125e-01f,+2.17810541e-01f,+9.70056280e-02f,
+1.47804782e-01f,+8.80673006e-02f,-4.14396711e-02f,-1.43204525e-01f,-6.13234565e-02f,
+1.77852120e-02f,-8.60067829e-02f,+2.94520706e-02f,+9.39478278e-02f,-5.28837666e-02f,
+2.48981221e-03f,+6.12367280e-02f,+1.93209946e-01f,+1.14599600e-01f,+2.00092494e-02f,
-6.65982068e-02f,+2.55568504e-01f,-1.14112245e-02f,-1.01785183e-01f,-1.20525047e-01f,
+3.05803835e-01f,-1.33460714e-02f,+4.47845496e-02f,+1.48378517e-02f,-1.25922181e-03f,
-3.51191685e-02f,+3.16929638e-01f,+2.49778539e-01f,-3.55385393e-01f,+1.68301314e-01f,
+3.68652754e-02f,-1.48541927e-01f,+1.65443614e-01f,+1.38253406e-01f,-1.62691027e-01f,
-7.29201585e-02f,-2.30023012e-01f,+5.98743372e-02f,+1.11366622e-01f,+2.53216237e-01f,
-2.23823506e-02f,+2.01416582e-01f,+1.56882763e-01f,-5.59640937e-02f,+2.12868035e-01f,
+3.49013895e-01f,-2.58034229e-01f,-1.22672319e-01f,-3.40995230e-02f,-1.41010270e-01f,
-1.10256918e-01f,-2.89389007e-02f,+3.86000574e-02f,+2.81624019e-01f,-4.59738560e-02f,
-2.08140254e-01f,+1.73607677e-01f,+1.20928690e-01f,+1.96107514e-02f,+1.22650377e-01f,
-8.16887692e-02f,+6.90526590e-02f,+7.50115439e-02f,+8.62709358e-02f,-6.50277408e-03f,
+3.01040486e-02f,+1.70818284e-01f,+4.01719749e-01f,-1.99902132e-02f,-5.95035590e-02f,
+1.52406380e-01f,+2.97550827e-01f,+9.12935659e-02f,+4.96134430e-01f,+2.47409910e-01f,
+2.51805186e-01f,+1.90310031e-02f,-2.16203611e-02f,+2.24400386e-01f,-1.49730727e-01f,
-3.27105790e-01f,+3.61539185e-01f,+7.34309182e-02f,+1.60396680e-01f,+9.11913514e-02f,
+9.98206586e-02f,+4.14263248e-01f,-1.33740276e-01f,+4.09115963e-02f,+1.50069669e-01f,
+7.11060464e-02f,+2.20576525e-01f,+3.49045210e-02f,+9.44790691e-02f,+1.05578214e-01f,
+2.03080922e-01f,+1.19496495e-01f,-1.83791533e-01f,+7.85554666e-03f,-5.42730168e-02f,
-1.11095145e-01f,+2.45667219e-01f,+3.02614808e-01f,+1.14024766e-01f,+1.83821753e-01f,
-4.52990606e-02f,+2.39051163e-01f,-2.81937182e-01f,+7.26887658e-02f,-4.15473655e-02f,
+8.27567279e-02f,-1.85884573e-02f,+1.95005372e-01f,+3.10380235e-02f,-2.66106367e-01f,
-2.72095967e-02f,-2.59885751e-02f,+1.37994722e-01f,+4.24696296e-01f,+2.91585594e-01f,
-1.01456851e-01f,-3.19183618e-01f,+2.03173772e-01f,+1.28443480e-01f,+1.21161625e-01f,
+1.31255314e-01f,-5.70490174e-02f,-1.20353825e-01f,+1.99127898e-01f,+1.68772355e-01f,
-6.71525151e-02f,+5.69049567e-02f,-2.80982312e-02f,-1.43719688e-01f,+4.49739769e-02f,
+5.55828288e-02f,-2.22043306e-01f,+1.05022922e-01f,+6.79462031e-02f,-2.44284540e-01f,
+2.70362645e-02f,+1.44678384e-01f,+6.38032407e-02f,+1.44656911e-01f,+6.95273057e-02f,
+2.32702151e-01f,-2.41008513e-02f,-5.85578792e-02f,+2.54118830e-01f,+2.23385528e-01f,
-1.07514217e-01f,-2.11194009e-02f,+3.10009290e-02f,+1.44415021e-01f,-3.17736156e-03f,
-2.05952182e-01f,-1.98000208e-01f,+4.17346209e-02f,-3.27899158e-02f,+5.43210879e-02f,
-2.08157986e-01f,+4.23366087e-04f,-2.22683121e-02f,+4.80461307e-02f,-1.88555524e-01f,
+1.97276920e-01f,+3.60671312e-01f,+1.76945582e-01f,+1.75496802e-01f,+1.53919175e-01f,
-6.21116273e-02f,+3.09447274e-02f,+1.61670312e-01f,-2.12486666e-02f,+7.42896795e-02f,
+1.69462040e-01f,-7.08362646e-03f,+3.37810479e-02f,+1.06722631e-01f,+2.60882620e-02f,
-6.27763495e-02f,-8.86127800e-02f,-1.35122880e-01f,+2.19489202e-01f,-1.31801203e-01f,
+6.24544658e-02f,-1.11566678e-01f,-3.37919831e-01f,+3.08465213e-01f,+1.23462975e-01f,
+6.74763620e-02f,-6.95297644e-02f,+3.69865566e-01f,-1.83515362e-02f,+1.52315646e-01f,
+4.14346814e-01f,-5.70527688e-02f,-2.23487429e-02f,+2.78649807e-01f,+2.79168099e-01f,
-1.26902774e-01f,+1.63667426e-01f,-4.21337113e-02f,-3.00529469e-02f,-3.54212821e-02f,
-2.96733648e-01f,-1.06466562e-01f,+1.99026436e-01f,-4.01074111e-01f,+8.25048909e-02f,
+2.07202628e-01f,-1.02316588e-01f,-1.00543141e-01f,+2.31477648e-01f,+4.08490688e-01f,
-2.00670019e-01f,-4.73943800e-02f,+1.14115246e-01f,+1.98530629e-01f,+1.02318652e-01f,
+3.52531374e-01f,+4.49225336e-01f,-4.77150589e-01f,+2.08960310e-01f,-1.70648456e-01f,
-3.35780904e-02f,+3.26820835e-02f,-6.15614466e-02f,-2.14038230e-02f,+5.71075678e-02f,
-1.76142350e-01f,+9.88883972e-02f,+2.05139458e-01f,+2.32845992e-01f,-1.51633307e-01f,
+1.47475839e-01f,+8.10683221e-02f,+5.82946911e-02f,+6.97093308e-02f,+1.66723028e-01f,
-1.98442265e-01f,+1.82041347e-01f,+1.15220986e-01f,+7.21382797e-02f,-2.81000316e-01f,
-2.15664841e-02f,+2.85748571e-01f,+3.58366743e-02f,+1.11948311e-01f,+1.78917080e-01f,
+8.99163932e-02f,+6.87581906e-03f,-2.00729862e-01f,-6.77004606e-02f,+1.82858139e-01f,
-1.02463685e-01f,+1.71658710e-01f,-1.00992970e-01f,+3.20489019e-01f,+1.22123444e-02f,
+2.26638064e-01f,+4.47029583e-02f,-1.60193160e-01f,-2.45147608e-02f,+2.24471599e-01f,
+1.54529601e-01f,-3.09955478e-01f,+9.95778143e-02f,-2.53303871e-02f,+2.46523857e-01f,
+5.28221965e-01f,-1.06264547e-01f,+1.14813924e-01f,+1.85621768e-01f,+1.09190971e-01f,
-1.23112507e-01f,+3.25949878e-01f,+4.54069704e-01f,+4.87792104e-01f,+3.20685565e-01f,
+1.02197222e-01f,+2.26987079e-01f,-1.25803784e-01f,-1.32904708e-01f,-2.45636210e-01f,
-4.21965480e-01f,-1.25756040e-01f,-1.78281665e-01f,+2.15936065e-01f,-1.09317955e-02f,
+9.59260911e-02f,+9.31736231e-02f,+1.01824753e-01f,+4.25455987e-01f,+5.83520114e-01f,
+8.98428410e-02f,+1.34160191e-01f,+4.22955528e-02f,+1.27833828e-01f,+2.84252167e-01f,
-7.07478300e-02f,+5.90309054e-02f,+1.79101452e-01f,-1.13067061e-01f,+1.21309362e-01f,
+1.59951299e-01f,+1.19393975e-01f,+2.76243333e-02f,+2.48620063e-01f,+1.01277128e-01f,
+1.23729810e-01f,+3.79942417e-01f,+2.25054786e-01f,-1.37544796e-01f,-1.28663164e-02f,
+1.21362992e-01f,+8.22178945e-02f,+9.96760279e-02f,+1.63562849e-01f,-9.67050195e-02f,
+1.12596691e-01f,-5.42278215e-02f,+1.47027642e-01f,+5.52626073e-01f,+1.31885916e-01f,
-1.85166262e-02f,+3.50994170e-01f,-1.01484694e-01f,-4.94934581e-02f,-1.63119197e-01f,
-2.13268846e-02f,+2.36355346e-02f,+1.18692718e-01f,+1.03819100e-02f,+2.16306806e-01f,
-3.21324736e-01f,+5.68852603e-01f,+1.96583241e-01f,-1.42656565e-01f,+2.90455371e-02f,
-9.92343873e-02f,-7.17891008e-02f,+2.76704907e-01f,+1.74877718e-01f,-8.54978710e-02f,
+3.15391690e-01f,+2.12374881e-01f,-2.50056148e-01f,+3.67693543e-01f,+2.82090664e-01f,
-1.18064679e-01f,+1.40924037e-01f,+4.44133848e-01f,+7.05395117e-02f,+2.51997560e-01f,
+9.78741869e-02f,+2.58445889e-01f,-1.34703159e-01f,+3.51552218e-02f,-1.04675069e-01f,
-8.02774355e-02f,+3.45689446e-01f,+6.64731041e-02f,+3.02341193e-01f,-4.83984143e-01f,
+7.51762092e-03f,-3.76728214e-02f,-2.26033330e-02f,-1.08187996e-01f,-3.14003140e-01f,
+3.86612624e-01f,+1.63066044e-01f,+8.36584345e-02f,+2.89311111e-01f,+3.66442651e-01f,
+1.87795058e-01f,+2.37473533e-01f,-7.75093213e-02f,+4.63934153e-01f,-1.49377249e-02f,
-3.02668959e-01f,-1.21698216e-01f,-6.64026069e-04f,+7.54658803e-02f,-1.80322528e-01f,
-3.41303021e-01f,+2.37096742e-01f,-1.03852160e-01f,-4.01308574e-02f,+3.88048321e-01f,
+1.56995192e-01f,-9.09417421e-02f,-1.94316611e-01f,+1.06843270e-01f,+3.38736445e-01f,
+2.55150665e-02f,-6.36126325e-02f,+5.15499748e-02f,+1.09989703e-01f,+3.80015522e-02f,
+2.65078962e-01f,-1.08928427e-01f,-2.74404641e-02f,+1.52262419e-01f,+9.75889340e-02f,
-3.48172039e-02f,-3.46285030e-02f,+1.19814873e-01f,+2.15474054e-01f,+3.14049125e-01f,
-1.70650203e-02f,-3.06934625e-01f,+2.48553261e-01f,-4.71201353e-02f,+4.09802765e-01f,
-6.77367002e-02f,+3.74674827e-01f,+1.29549831e-01f,+2.56421387e-01f,+4.56667274e-01f,
+1.46729210e-02f,+4.88978401e-02f,+3.24791856e-02f,+1.36973143e-01f,+3.48192304e-01f,
+3.34504694e-01f,+4.56882343e-02f,+6.93138763e-02f,+3.07882130e-01f,+1.91296935e-01f,
-6.30009994e-02f,+2.84806311e-01f,+2.20528871e-01f,-3.39026414e-02f,-1.01027921e-01f,
-1.93072766e-01f,+1.55400950e-02f,+1.34271130e-01f,-5.39344996e-02f,-1.30192190e-03f,
-2.94650588e-02f,+1.92541018e-01f,-4.72032502e-02f,+5.31265419e-03f,+1.00540683e-01f,
-8.64139106e-03f,+2.29582280e-01f,-1.99393332e-01f,+1.50509104e-01f,-6.02316335e-02f,
+1.06698684e-01f,-4.28291738e-01f,+8.63347426e-02f,-1.01212794e-02f,+1.66048452e-01f,
-1.64828986e-01f,+6.22600794e-01f,-1.22821024e-02f,-1.91135064e-01f,-2.05935854e-02f,
+2.52387196e-01f,-1.03132829e-01f,-7.63657540e-02f,+4.20278579e-01f,+1.02408051e-01f,
+4.47108150e-02f,-1.21971518e-01f,-1.43126026e-01f,+3.09835643e-01f,-3.15504670e-01f,
-9.25642326e-02f,+3.64814162e-01f,+1.54308742e-02f,+1.81803346e-01f,-1.24144226e-01f,
+4.65144888e-02f,+4.34005521e-02f,+1.06537759e-01f,+1.37274399e-01f,+2.66201407e-01f,
+3.17668021e-01f,+1.15187488e-01f,+1.83491752e-01f,-1.14083715e-01f,-8.60389769e-02f,
-1.31715927e-02f,-9.99377295e-02f,+4.02312696e-01f,+2.73428053e-01f,+8.85499492e-02f,
+3.25581551e-01f,+3.49330276e-01f,-5.84908545e-01f,-6.68729097e-02f,-4.98762876e-02f,
-2.85673976e-01f,+2.16372442e-02f,+4.52738911e-01f,+1.10877424e-01f,-1.54459774e-01f,
-1.26791030e-01f,-5.79978079e-02f,+2.79375017e-01f,-1.47223890e-01f,+1.14471726e-02f,
-7.07030222e-02f,+3.68365198e-02f,+5.79734072e-02f,+1.23373471e-01f,-1.68368846e-01f,
+8.27269927e-02f,+3.75835717e-01f,+3.39568891e-02f,+1.61381941e-02f,+1.95669219e-01f,
+1.56823829e-01f,+5.11208177e-01f,-7.96490908e-02f,+1.38362393e-01f,-7.42179751e-02f,
-6.33213744e-02f,-1.34586215e-01f,-2.74468899e-01f,+2.05773190e-02f,-1.39362916e-01f,
+2.78340548e-01f,-3.63980144e-01f,+2.41189882e-01f,-7.77218863e-02f,+1.11251652e-01f,
+1.13318071e-01f,+2.00263515e-01f,+4.45481241e-02f,-9.52848792e-02f,-3.44913416e-02f,
+2.74499739e-03f,+9.10530016e-02f,+3.89353074e-02f,+3.59951496e-01f,+4.98766825e-02f,
+8.79748166e-02f,-6.49853274e-02f,+1.85918752e-02f,+1.13606751e-02f,-3.95662457e-01f,
-2.29654163e-01f,+2.76905186e-02f,+4.54692990e-01f,+1.80872768e-01f,+1.37775287e-01f,
-9.27310660e-02f,+8.25941041e-02f,-1.16756648e-01f,+1.65913880e-01f,+2.90644467e-01f,
-2.97730833e-01f,+2.82914519e-01f,-2.46365834e-02f,-9.02363285e-02f,-1.41386643e-01f,
-5.28312661e-02f,-1.50653332e-01f,+8.45325440e-02f,+5.54179065e-02f,+2.65460253e-01f,
+8.87209475e-02f,+2.91666240e-01f,-2.33626619e-01f,+9.43038613e-02f,+2.34886169e-01f,
-4.31297049e-02f,+5.50540537e-02f,+1.31611198e-01f,+3.09261292e-01f,-4.05067764e-02f,
+2.35096067e-01f,+1.09378248e-01f,+2.64008269e-02f,-2.27943167e-01f,-2.17533216e-01f,
+3.98012511e-02f,+1.45674020e-01f,+2.08109915e-02f,+1.43113598e-01f,+6.45245761e-02f,
+8.12000707e-02f,-1.43216714e-01f,+1.44816831e-01f,+8.66892561e-02f,+2.42627352e-01f,
+9.20455903e-03f,+4.21176672e-01f,+2.44321480e-01f,+8.24548304e-02f,+3.26227605e-01f,
+8.51270780e-02f,-1.20502361e-03f,-1.26493216e-01f,-3.15448701e-01f,+6.71659932e-02f,
+8.25596824e-02f,+2.21022144e-01f,+2.02289107e-03f,+3.72429729e-01f,+1.28286183e-01f,
-2.28430294e-02f,-1.63857881e-02f,-9.84789431e-02f,+1.14078306e-01f,-1.59274176e-01f,
+1.51236519e-01f,+3.57147932e-01f,-1.62715182e-01f,-1.49289399e-01f,+4.93712574e-02f,
+5.61811849e-02f,+2.18495443e-01f,+1.01561479e-01f,-7.37393126e-02f,+1.35329038e-01f,
+3.84201147e-02f,+1.89328820e-01f,-1.09242678e-01f,+1.62744239e-01f,+2.16038391e-01f,
+5.60874753e-02f,+5.64469630e-03f,-1.17092335e-03f,-1.83624133e-01f,+8.01851377e-02f,
+1.42681211e-01f,-2.49614324e-02f,+4.16520331e-03f,+1.93692729e-01f,+1.73938975e-01f,
-6.06614351e-02f,+8.57434198e-02f,-1.84639283e-02f,+1.06365450e-01f,-2.17971895e-02f,
+1.08611181e-01f,+1.51808694e-01f,+1.24346912e-01f,+1.44797593e-01f,-2.08582953e-01f,
+1.19441946e-03f,-6.81094378e-02f,-1.09006234e-01f,+4.99676093e-02f,+1.06401816e-01f,
+5.32855690e-02f,+1.79331139e-01f,-2.13516086e-01f,+7.30579942e-02f,+6.93195164e-02f,
-8.62254277e-02f,+3.49277139e-01f,-1.42200321e-01f,+2.56191760e-01f,+1.43524960e-01f,
+3.75520021e-01f,-3.97090204e-02f,-1.18352361e-01f,+2.94889420e-01f,+2.59302519e-02f,
+4.04729724e-01f,+2.60242730e-01f,+9.04148370e-02f,+6.26311302e-02f,+7.37107769e-02f,
+3.16714555e-01f,+2.07281709e-02f,-9.82826352e-02f,-5.78132458e-03f,+1.17525145e-01f,
-1.09013859e-02f,-1.40080675e-01f,-6.10556901e-02f,+2.22412959e-01f,-7.74073154e-02f,
+1.57877699e-01f,+1.42836928e-01f,+3.11219692e-01f,-2.70295531e-01f,+1.16840526e-01f,
-2.94680316e-02f,-2.83275973e-02f,+2.75867164e-01f,+1.86051607e-01f,+7.59601891e-02f,
+1.98607281e-01f,+2.61424512e-01f,+1.82772323e-01f,+8.33410621e-02f,+7.59845823e-02f,
+4.95313890e-02f,-8.42958093e-02f,+3.02370518e-01f,-1.52486369e-01f,-1.91738177e-02f,
-5.45396283e-03f,-9.30643231e-02f,+2.75385916e-01f,+1.10722601e-01f,+3.89454700e-02f,
+2.36748725e-01f,+9.48239639e-02f,+3.31365466e-01f,+5.01049608e-02f,+8.78226906e-02f,
+1.21552184e-01f,+7.46651292e-02f,+1.37107760e-01f,+1.35055602e-01f,+1.05137303e-02f,
-1.86394200e-01f,-3.88909318e-02f,+2.29324833e-01f,-1.21451929e-01f,+8.63337666e-02f,
-1.33779095e-02f,+5.08803464e-02f,-7.38198683e-02f,+2.02921908e-02f,+1.60520360e-01f,
+1.65562436e-01f,+3.79780620e-01f,+2.65973434e-02f,+6.50134012e-02f,+1.33214653e-01f,
+1.84957713e-01f,+2.47809440e-02f,+4.33649331e-01f,+2.03301862e-01f,+2.39831060e-01f,
-1.08240463e-01f,+2.47769699e-01f,-2.14328617e-03f,+7.96997994e-02f,-1.15376553e-02f,
+3.08959428e-02f,+1.96175411e-01f,+2.23819032e-01f,+2.24445537e-01f,+1.12728663e-01f,
+1.77985176e-01f,+2.86854208e-01f,+1.00626312e-01f,+1.39123416e-02f,+1.38272569e-01f,
-1.23959951e-01f,+4.06129181e-01f,+6.39522448e-03f,+1.92383528e-02f,-8.98915678e-02f,
+1.54176131e-01f,+1.36818200e-01f,-2.47794278e-02f,-3.00649777e-02f,+1.70155361e-01f,
+6.09138533e-02f,-3.51585709e-02f,+2.30645061e-01f,-1.44233350e-02f,+8.01521316e-02f,
+3.37661691e-02f,-7.92491660e-02f,+1.59886733e-01f,+1.77235797e-01f,-3.15709040e-02f,
+4.19677235e-02f,+1.17805034e-01f,+5.06352820e-02f,+1.49175659e-01f,-1.20204240e-01f,
+7.72935376e-02f,+3.32111210e-01f,-1.05628543e-01f,+9.75870807e-03f,+1.59753889e-01f,
+1.23945370e-01f,-2.87260655e-02f,-1.68801442e-01f,+3.44569832e-01f,-1.03254601e-01f,
+7.84835443e-02f,+5.64819053e-02f,+5.53818271e-02f,-7.21862214e-03f,+1.59289360e-01f,
-1.14807218e-01f,+2.83740044e-01f,+8.62134248e-02f,+3.81748565e-02f,+1.27574280e-01f,
+1.72359481e-01f,+2.70440161e-01f,+1.41996434e-02f,+1.78230569e-01f,+2.24278077e-01f,
+1.36212334e-01f,+2.05773860e-01f,-1.15451902e-01f,-1.08326733e-01f,-4.92250174e-02f,
+1.60394847e-01f,+1.39352769e-01f,+8.30445364e-02f,+3.13642621e-02f,-5.98453805e-02f,
+1.14436969e-01f,+2.33188882e-01f,+3.88503596e-02f,+1.03543848e-01f,-2.11956874e-02f,
-5.77532984e-02f,-6.88645989e-02f,-4.60990183e-02f,-1.26432896e-01f,-1.51111588e-01f,
-2.48002812e-01f,+3.67640220e-02f,+9.82538387e-02f,-1.68334514e-01f,+6.13649264e-02f,
-9.08607151e-03f,+3.04183900e-01f,+1.88733473e-01f,+3.22056234e-01f,+2.80650318e-01f,
+1.30715832e-01f,-1.26461923e-01f,+2.66145822e-02f,-9.20215447e-04f,+9.59910899e-02f,
-1.22246064e-01f,-2.40120858e-01f,-1.00616917e-01f,+1.11738205e-01f,+1.28509670e-01f,
+1.49186142e-03f,+1.17239766e-01f,+2.03800108e-02f,+4.12669122e-01f,+1.99135587e-01f,
-5.53048551e-02f,-7.99587891e-02f,-3.61416861e-02f,-2.24314973e-01f,-6.36347681e-02f,
-1.18927337e-01f,-3.94414365e-02f,+1.21027017e-02f,+1.42074488e-02f,+2.54349094e-02f,
+5.34323677e-02f,+2.03247398e-01f,+2.00772673e-01f,+1.95144653e-01f,+6.42634109e-02f,
+2.10546539e-03f,+1.61173008e-02f,-7.24622458e-02f,+8.56068656e-02f,+4.16495651e-01f,
+1.11383818e-01f,+1.87934712e-01f,-5.54325171e-02f,-1.16545372e-01f,+2.60587838e-02f,
+1.01575017e-01f,+2.60619432e-01f,-6.52095452e-02f,+9.04780701e-02f,-7.25781396e-02f,
+1.35872960e-01f,-2.31107429e-01f,+1.96534574e-01f,-8.94619375e-02f,-5.84416697e-03f,
+2.06335723e-01f,+1.12903997e-01f,+1.87599778e-01f,+6.11557551e-02f,+3.12964469e-01f,
+2.18076274e-01f,-5.36742955e-02f,-7.17306277e-04f,+2.70470697e-02f,+7.68474638e-02f,
-9.44780633e-02f,+1.88701466e-01f,+5.05171418e-02f,-8.80736932e-02f,+7.52652762e-03f,
+6.32690452e-03f,+4.60661016e-02f,+1.20146468e-01f,+1.14490986e-01f,+1.46325156e-01f,
+1.02371462e-01f,+1.63637012e-01f,+1.57301947e-01f,+3.54152948e-01f,+6.18898086e-02f,
+1.35911718e-01f,-4.37077619e-02f,+1.50557458e-01f,+7.52931163e-02f,+1.62901819e-01f,
+3.19520421e-02f,+2.49627903e-01f,+1.26692414e-01f,-3.54154110e-02f,-1.14737321e-02f,
-4.03087959e-02f,+1.51014373e-01f,+8.13667476e-02f,+3.64604205e-01f,+1.10184595e-01f,
-1.97188929e-02f,+1.34101763e-01f,+1.77660763e-01f,-9.40817744e-02f,+2.07495198e-01f,
+5.81303053e-02f,+4.49362285e-02f,-3.98881957e-02f,-1.28810816e-02f,+1.23616301e-01f,
+7.95612335e-02f,+1.13627367e-01f,-4.41201963e-03f,+2.81966329e-01f,-3.35790552e-02f,
-1.05598815e-01f,+2.01579288e-01f,-2.67245974e-02f,+3.55040193e-01f,+7.47051612e-02f,
+5.17912693e-02f,+1.38071567e-01f,+1.38241246e-01f,+3.00853960e-02f,-2.71376446e-02f,
+1.82750404e-01f,+2.50871778e-01f,-1.40138552e-01f,+5.69106601e-02f,-7.47827142e-02f,
+2.49363914e-01f,+2.51616538e-01f,+1.90205760e-02f,+4.96658757e-02f,+1.39314979e-01f,
+2.61766344e-01f,+5.92231378e-02f,+4.26836358e-03f,-1.35619730e-01f,+3.02645326e-01f,
-4.76524271e-02f,-2.53438018e-02f,+9.87239704e-02f,-1.11471424e-02f,+5.21979146e-02f,
-1.35555983e-01f,+8.10159817e-02f,+3.92864533e-02f,-1.55429780e-01f,+4.25571531e-01f,
+2.47191936e-01f,+1.14507541e-01f,-2.92357989e-02f,+1.07651144e-01f,+2.18795821e-01f,
+1.10759489e-01f,+2.71248490e-01f,-3.02247386e-02f,+6.61573291e-01f,-1.89048424e-02f,
+8.03404972e-02f,+2.94731557e-01f,+9.73481685e-02f,+1.43105507e-01f,+1.67800598e-02f,
+2.85104096e-01f,+7.61326104e-02f,+1.11561760e-01f,+1.40927613e-01f,-2.22034976e-01f,
-8.84933919e-02f,+3.32449913e-01f,-1.46737054e-01f,-9.83650014e-02f,-1.30706295e-01f,
+1.91984758e-01f,-8.55590627e-02f,+7.83156902e-02f,+1.67653769e-01f,+1.05276488e-01f,
+1.12411134e-01f,-2.49501858e-02f,+1.85811654e-01f,+1.38335265e-02f,+2.14368612e-01f,
+1.94048777e-01f,-4.38934058e-01f,+7.51521215e-02f,-1.53319733e-02f,+1.01555943e-01f,
+1.26409486e-01f,+1.22290105e-01f,+5.30849174e-02f,+2.09120452e-01f,-8.91664028e-02f,
-2.51109786e-02f,+8.82199481e-02f,+2.70003378e-01f,-1.61856458e-01f,+1.73513636e-01f,
+1.21643744e-01f,+6.98025897e-02f,-1.30132847e-02f,+2.90742517e-01f,+3.61489616e-02f,
+1.63300902e-01f,+2.26842433e-01f,+1.23351373e-01f,-1.33785931e-02f,+2.40411740e-02f,
+3.74081373e-01f,+2.39563525e-01f,-1.58722073e-01f,+2.01284274e-01f,+5.74578494e-02f,
+1.58153310e-01f,-3.38028893e-02f,+1.13706887e-01f,+6.04432672e-02f,+1.82268485e-01f,
-8.01627710e-03f,+6.07817657e-02f,-2.65504094e-03f,+2.70171940e-01f,+1.27822801e-01f,
+2.06219360e-01f,-8.95988196e-02f,-9.51057076e-02f,+2.03005493e-01f,+2.84761703e-03f,
+1.52004519e-02f,+4.52074483e-02f,+9.88153815e-02f,-2.48506978e-01f,-1.35907710e-01f,
+2.35804453e-01f,+2.56772697e-01f,-4.55099531e-02f,+2.10660204e-01f,+1.04725778e-01f,
+2.94256985e-01f,+1.76300719e-01f,+5.67818657e-02f,+5.09367287e-02f,-2.10580882e-02f,
+2.37744837e-03f,+2.33807608e-01f,-6.89113736e-02f,-1.49505779e-01f,+3.71761397e-02f,
+2.04243988e-01f,-3.07677656e-01f,+1.62749603e-01f,+8.56225267e-02f,+7.23085999e-02f,
+3.80548328e-01f,+3.37436758e-02f,-2.88861305e-01f,+1.17064916e-01f,-2.39279028e-03f,
+1.11582294e-01f,-6.09227680e-02f,+2.63439387e-01f,+2.85812281e-02f,+2.84816436e-02f,
-1.84671357e-02f,-3.86873335e-02f,+5.18066362e-02f,-2.10880056e-01f,+8.65554586e-02f,
+2.47415062e-02f,+2.11644366e-01f,+2.06111386e-01f,+1.03775546e-01f,-1.39992870e-03f,
+9.26657394e-03f,+1.36404455e-01f,-3.53153385e-02f,-6.93033263e-03f,+5.16323969e-02f,
+1.01451511e-02f,-8.65541119e-03f,-3.66433598e-02f,+2.58308351e-01f,+1.34462088e-01f,
+4.24585165e-03f,+1.36927858e-01f,+2.72797216e-02f,+1.41375840e-01f,-4.99357544e-02f,
+3.18147540e-01f,-2.71702912e-02f,+1.02765314e-01f,+3.63187075e-01f,-2.29921281e-01f,
+2.29658201e-01f,-1.51826099e-01f,+1.56869099e-01f,-2.30397303e-02f,+1.84256360e-02f,
+3.48283350e-02f,+2.44958803e-01f,+1.16883144e-01f,-1.08313359e-01f,+6.29410371e-02f,
+1.13534190e-01f,+9.49941501e-02f,+1.37888426e-02f,+4.67848182e-02f,+1.38161004e-01f,
-6.91117123e-02f,-5.81776015e-02f,+5.34385107e-02f,+1.99172631e-01f,-3.07205409e-01f,
+9.38152969e-02f,+9.81568098e-02f,-1.23134591e-01f,+3.80236596e-01f,+8.73001665e-02f,
+1.15727119e-01f,+5.01246974e-02f,-1.14230178e-01f,+1.19874105e-01f,-2.24102885e-01f,
+7.91476518e-02f,+2.29466632e-01f,+1.39915422e-01f,-1.79581448e-01f,+6.01192005e-02f,
+1.17026970e-01f,+2.19186306e-01f,-3.10655124e-02f,+1.49324283e-01f,-9.42832008e-02f,
+1.83203802e-01f,+1.64710045e-01f,+1.71520859e-01f,+1.43103510e-01f,+1.25094995e-01f,
+4.51984793e-01f,+1.54463440e-01f,-2.46721640e-01f,+2.22280100e-02f,+9.40012038e-02f,
+2.35044658e-01f,+1.40184507e-01f,+3.10451448e-01f,+8.28670934e-02f,+2.11415440e-02f,
+3.27640101e-02f,-2.04302836e-03f,+1.01004191e-01f,+8.25714786e-03f,+3.59498337e-02f,
+1.09291859e-01f,+9.86736491e-02f,+1.04232036e-01f,+1.99787486e-02f,+8.49645063e-02f,
-2.11274877e-01f,-1.58377796e-01f,+7.43335411e-02f,-2.55095819e-03f,+1.06118962e-01f,
+7.48471022e-02f,-2.57834117e-03f,-2.62244195e-01f,-1.32318199e-01f,+7.18887821e-02f,
-2.07465336e-01f,-6.40731528e-02f,+1.14717469e-01f,+1.46382242e-01f,+6.95679039e-02f,
-4.35573533e-02f,+6.77532107e-02f,+6.15323037e-02f,+1.56297032e-02f,+4.02347781e-02f,
+6.36110157e-02f,+1.32352784e-01f,+1.74123466e-01f,+1.72997266e-01f,+9.20112953e-02f,
-8.38933047e-03f,-5.46599254e-02f,+4.77655716e-02f,+9.99873057e-02f,-5.33590540e-02f,
+1.18597552e-01f,+2.35677049e-01f,+9.31570381e-02f,+1.88527003e-01f,-6.78069293e-02f,
+1.89371720e-01f,+9.70567316e-02f,-1.61673114e-01f,-1.02448329e-01f,+5.69967069e-02f,
+6.75727576e-02f,-2.85546537e-02f,+1.48376122e-01f,-1.51914498e-02f,+1.53887961e-02f,
+1.78277493e-01f,+1.37672424e-01f,-1.71223432e-01f,-1.53918087e-01f,-7.60256797e-02f,
+7.74999484e-02f,+3.91829312e-02f,+6.26325840e-03f,-1.21428976e-02f,+1.79767564e-01f,
+4.72140312e-02f,+5.20273019e-03f,+1.02598056e-01f,+2.90421396e-02f,+4.19748090e-02f,
+9.24483873e-04f,+1.51535496e-01f,-1.93874892e-02f,-4.93418239e-02f,+9.13882107e-02f,
+5.45297703e-03f,+1.16590373e-01f,+4.87672091e-02f,+1.56118110e-01f,+2.30553597e-01f,
+1.96032315e-01f,-1.16069928e-01f,-3.44325006e-02f,-1.36173316e-04f,+4.42427881e-02f,
+3.93883884e-02f,+1.50105476e-01f,+1.27185851e-01f,+3.00760809e-02f,-4.20836620e-02f,
+7.76622742e-02f,+2.57479046e-02f,-2.70774543e-01f,-1.89475477e-01f,+1.65233031e-01f,
+1.60094664e-01f,+1.82903297e-02f,-4.54326272e-02f,-1.57584563e-01f,-1.25616044e-01f,
+2.40259990e-02f,-1.39755467e-02f,-1.25129089e-01f,+1.09447233e-01f,+1.07013881e-01f,
-3.30735832e-01f,-1.20655214e-02f,+2.43978817e-02f,-1.75826594e-01f,-5.51074464e-03f,
+1.27663976e-02f,-2.95832697e-02f,+9.12059322e-02f,+2.51139011e-02f,-7.12900311e-02f,
-3.71997654e-02f,+2.76940838e-02f,+5.27914017e-02f,-8.58068168e-02f,+3.33309084e-01f,
-5.40580936e-02f,-7.04162642e-02f,+3.75569969e-01f,-2.48531222e-01f,-9.18506905e-02f,
+1.16057195e-01f,-4.37421463e-02f,+1.30657507e-02f,-5.56494156e-03f,-2.59086668e-01f,
+1.05143338e-01f,+9.51229259e-02f,+6.17466010e-02f,+2.67572105e-01f,-6.55760765e-02f,
-8.03118870e-02f,+5.24152182e-02f,+1.52915984e-01f,+1.22401848e-01f,+9.52306464e-02f,
+6.04947992e-02f,-9.54292491e-02f,+2.04193071e-01f,+1.39786124e-01f,+5.67042530e-02f,
-4.67247404e-02f,-3.01267859e-03f,+1.42148063e-02f,+2.61026889e-01f,+8.31297040e-02f,
+2.31641069e-01f,+3.18124831e-01f,+2.83973478e-03f,-9.27462056e-02f,+1.67911574e-01f,
-9.42742974e-02f,+1.01547904e-01f,-3.85304391e-02f,+5.51103540e-02f,+7.48728067e-02f,
+1.94466293e-01f,+2.36618862e-01f,+6.21649958e-02f,-1.72015429e-01f,+5.97258061e-02f,
+4.02505212e-02f,-6.39828444e-02f,+7.28869215e-02f,+6.64980114e-02f,+2.10962985e-02f,
+9.97760221e-02f,-1.46331444e-01f,-5.37758432e-02f,-8.55049640e-02f,-4.27789101e-03f,
+8.68877470e-02f,-1.11086713e-02f,+3.54576856e-02f,+6.54977420e-03f,+7.03123063e-02f,
+1.34947851e-01f,+2.36365460e-02f,+1.11398138e-01f,-2.24498674e-01f,-1.14729427e-01f,
-1.05877437e-01f,+1.29049003e-01f,+1.09324880e-01f,+7.43658394e-02f,-1.29584417e-01f,
+1.60061717e-01f,-6.46372959e-02f,+3.18574943e-02f,+5.89317307e-02f,+2.08932604e-03f,
-4.15692478e-02f,-4.37633544e-02f,+1.69548929e-01f,-8.84793326e-02f,+3.50529552e-02f,
-1.99944392e-01f,+9.50849950e-02f,+1.78495809e-01f,+1.48862019e-01f,+1.04836011e-02f,
-1.61024779e-01f,-6.72454163e-02f,-6.03793189e-02f,+1.48321182e-01f,+1.29080504e-01f,
+1.39778823e-01f,+3.11930478e-02f,+3.44334155e-01f,-4.91209775e-02f,+1.12370811e-01f,
+1.57427713e-01f,-8.96521285e-03f,-5.51482700e-02f,+3.77083123e-02f,+7.11273476e-02f,
-1.03550278e-01f,+6.85952306e-02f,+2.82751679e-01f,+1.68527275e-01f,+4.06435095e-02f,
+3.22774917e-01f,+5.22329137e-02f,-1.29701858e-02f,+2.86262423e-01f,-7.22280517e-02f,
-4.16798480e-02f,+4.86314408e-02f,+7.19065638e-03f,+1.37647828e-02f,+1.41590923e-01f,
+1.72651693e-01f,-7.53801540e-02f,+1.43976122e-01f,+5.40485466e-03f,+1.02025032e-01f,
+4.52546887e-02f,-5.27627505e-02f,+2.73405090e-02f,+9.57283974e-02f,+1.79483190e-01f,
-1.75848782e-01f,-1.83343694e-01f,+9.92233753e-02f,+2.75902357e-02f,+1.77787483e-01f,
+1.43751308e-01f,+1.89652205e-01f,-1.67497784e-01f,+1.67323545e-01f,+4.39897217e-02f,
+1.76861897e-01f,-5.50531298e-02f,+6.64442256e-02f,+1.40010323e-02f,-7.65938684e-02f,
-1.59690809e-02f,+8.50704163e-02f,+1.30609060e-02f,+1.07372522e-01f,+2.48243138e-02f,
+2.04411289e-03f,-6.95381016e-02f,+4.79753502e-02f,-1.32511053e-02f,-7.95127824e-02f,
+1.51592985e-01f,+8.29424709e-02f,-5.08673191e-02f,+1.16416916e-01f,-2.23227404e-02f,
+3.94554697e-02f,-1.49587601e-01f,-2.85605807e-02f,-8.95342603e-02f,-2.06240967e-01f,
-1.80289447e-02f,+1.52849242e-01f,+9.35597867e-02f,+3.68979186e-01f,+1.25750810e-01f,
+2.08211616e-01f,-3.75170857e-02f,+8.02999213e-02f,+1.99243739e-01f,+1.30905092e-01f,
+5.49641810e-02f,-6.33560196e-02f,-4.70118597e-02f,+2.23592281e-01f,-9.34768061e-04f,
-8.65199417e-02f,+2.32933074e-01f,+7.55794942e-02f,+1.07789874e-01f,+5.45975491e-02f,
+5.38383648e-02f,-6.07313178e-02f,+1.68167189e-01f,-1.25474900e-01f,+1.54543653e-01f,
+1.68485641e-01f,-3.16655859e-02f,-1.67540431e-01f,+1.34752125e-01f,+8.40197224e-03f,
+1.32281020e-01f,+9.88453552e-02f,-7.67021775e-02f,-3.80172506e-02f,-9.95568857e-02f,
+1.18252948e-01f,+1.72697768e-01f,-1.38383945e-02f,+1.57635942e-01f,-4.15396877e-02f,
-3.80205661e-02f,+3.23708504e-02f,+2.04018801e-01f,+1.30497128e-01f,+8.42764825e-02f,
+1.45484194e-01f,-5.48794903e-02f,-2.00670183e-01f,-7.41534531e-02f,-2.90341838e-03f,
+3.09568532e-02f,+1.18538342e-01f,+1.70340121e-01f,+1.90415651e-01f,+1.05245061e-01f,
+1.63041905e-01f,-1.08435139e-01f,+1.29318312e-02f,-7.30965137e-02f,+1.34638861e-01f,
+6.96475804e-02f,+1.46887824e-01f,+8.55816677e-02f,+5.53147979e-02f,+1.47153422e-01f,
+9.73397270e-02f,-7.07801878e-02f,-3.84409949e-02f,+7.70446658e-02f,+9.71104354e-02f,
+1.17879167e-01f,+2.34682649e-01f,+8.28542039e-02f,+3.74199487e-02f,-8.42792243e-02f,
+2.24097967e-01f,+1.20133042e-01f,-4.39652465e-02f,-1.65045619e-01f,+8.54419321e-02f,
+1.28117934e-01f,+2.10641205e-01f,+1.50686622e-01f,-1.55588210e-01f,+1.05744764e-01f,
-5.17218187e-02f,+1.03303995e-02f,+1.69952035e-01f,+4.57017235e-02f,-6.57073781e-02f,
+1.13439970e-01f,+6.71362430e-02f,+2.01057777e-01f,-1.50976807e-01f,-1.03086405e-01f,
-8.81656706e-02f,+1.97566045e-03f,+6.94372579e-02f,+1.66168109e-01f,-1.02164492e-01f,
-1.20908488e-02f,+3.19508761e-02f,+7.28598461e-02f,+1.43935680e-01f,-6.96086660e-02f,
-4.95201312e-02f,+1.77590355e-01f,-9.07098502e-03f,+2.67207418e-02f,+1.53438106e-01f,
+4.38691899e-02f,+6.14029579e-02f,-4.49929526e-03f,+4.43313271e-02f,+2.10055768e-01f,
+2.26009250e-01f,+1.64939046e-01f,+1.45074114e-01f,+4.51335385e-02f,+5.84613606e-02f,
+1.61475912e-01f,+7.09029064e-02f,-1.01587333e-01f,-5.87099008e-02f,+1.77360967e-01f,
+1.16410039e-01f,-8.77483003e-03f,+1.16164580e-01f,+1.47978842e-01f,+1.00422539e-01f,
-1.82191166e-03f,+2.43205819e-02f,+1.62009791e-01f,-2.08223257e-02f,+6.79259300e-02f,
-1.07881799e-01f,+1.38095155e-01f,+8.90439376e-02f,-2.13874448e-02f,+5.72854141e-03f,
+7.93288425e-02f,+9.28283334e-02f,+1.43122286e-01f,+1.37571469e-01f,+1.53629109e-02f,
-8.57353676e-03f,+1.31947219e-01f,-2.42105220e-02f,+1.26042098e-01f,+4.46012802e-02f,
+3.88811864e-02f,-1.78222526e-02f,-1.38741713e-02f,+5.87446615e-02f,+1.10980496e-01f,
-1.03825107e-02f,+2.71949887e-01f,+1.70677513e-01f,+4.84985821e-02f,+1.04013169e-02f,
+1.28461331e-01f,-3.50475274e-02f,+2.80184150e-01f,-4.41060700e-02f,+6.10790141e-02f,
+2.87299156e-02f,-1.47758737e-01f,+1.55947670e-01f,+1.05680183e-01f,+4.15113755e-02f,
+2.59679537e-02f,-9.94238704e-02f,+6.81561008e-02f,+2.19030213e-02f,+1.19810939e-01f,
-3.91423032e-02f,+3.50069582e-01f,+9.76177454e-02f,-5.01349196e-02f,+6.46724626e-02f,
+1.44501150e-01f,+2.46115997e-01f,-9.67203379e-02f,+1.05664387e-01f,+2.44817715e-02f,
+8.51320475e-02f,-1.45286992e-01f,+1.30577639e-01f,+3.13549154e-02f,+1.82715893e-01f,
+2.00426087e-01f,-2.35068016e-02f,+2.14409515e-01f,+2.25588202e-01f,-1.77036822e-01f,
+1.78077832e-01f,+1.08225599e-01f,-1.63308084e-01f,+2.87965477e-01f,-6.46619685e-03f,
+6.86579570e-02f,+1.46107718e-01f,+2.13557720e-01f,+5.24777547e-02f,-2.09268853e-01f,
-1.09322481e-01f,+1.28320336e-01f,+5.60820475e-02f,+2.07395598e-01f,+2.68217567e-02f,
+9.71787199e-02f,+9.25762765e-03f,+1.52362749e-01f,-2.46555898e-02f,-1.77417055e-03f,
+2.44398803e-01f,+2.65681267e-01f,+1.84916317e-01f,+4.99165803e-03f,+2.61814058e-01f,
-9.74928737e-02f,+2.08517358e-01f,+1.08269587e-01f,+1.83634773e-01f,+1.55389771e-01f,
-3.45816053e-02f,+1.30535988e-02f,+1.35281682e-01f,-1.56867765e-02f,+1.48645118e-01f,
+6.56963810e-02f,+1.16412133e-01f,-5.91073073e-02f,+1.54558450e-01f,+1.31818116e-01f,
+3.68812904e-02f,+8.14385787e-02f,+1.18149236e-01f,-5.59341833e-02f,-3.34601328e-02f,
-2.58387276e-03f,+7.92206079e-03f,+1.58799723e-01f,+2.56854594e-01f,+1.61700994e-01f,
+1.58873379e-01f,+1.36094600e-01f,+7.99714327e-02f,+1.19095683e-01f,+1.58399582e-01f,
+5.21521159e-02f,+7.85134211e-02f,+6.24678582e-02f,+9.27075148e-02f,+6.28613457e-02f,
-4.09533121e-02f,-1.14027284e-01f,-1.39706070e-02f,+1.25879064e-01f,+9.63077992e-02f,
+1.12844303e-01f,+1.32047787e-01f,+7.83349350e-02f,-9.62991714e-02f,+1.21506661e-01f,
-9.24865603e-02f,-5.89400195e-02f,-1.36933282e-01f,+2.99700908e-02f,-1.13007002e-01f,
+1.77339986e-01f,+6.00246787e-02f,-1.08577102e-01f,+2.40583807e-01f,-5.53196587e-04f,
-1.21100424e-02f,+3.83957103e-02f,+5.31214848e-02f,+2.39363864e-01f,-3.89112420e-02f,
+1.75811037e-01f,+1.01162232e-02f,-4.76072170e-02f,+8.31232369e-02f,+1.97311565e-01f,
+2.17108220e-01f,-2.69021709e-02f,-1.32473242e-02f,+3.87849919e-02f,+3.93663011e-02f,
+2.00221911e-02f,+2.40024805e-01f,+1.47595152e-01f,+7.40137845e-02f,+8.95100180e-03f,
+1.27695173e-01f,+2.06340000e-01f,-7.34925494e-02f,+1.14630915e-01f,-4.70830835e-02f,
+5.58946021e-02f,+1.22445919e-01f,+1.63660925e-02f,-1.41714007e-01f,+1.47211879e-01f,
+3.21629271e-03f,+1.51700243e-01f,+5.52237220e-02f,+2.57886276e-02f,+2.05014795e-02f,
-8.77621919e-02f,-4.81383055e-02f,-1.10549048e-01f,+1.33298084e-01f,-9.51572880e-02f,
-1.12577658e-02f,+5.51640093e-02f,-5.20313792e-02f,+1.75888926e-01f,+3.78779732e-02f,
+1.23806015e-01f,+1.92805696e-02f,+7.26385489e-02f,+2.92687546e-02f,-1.22119628e-01f,
+1.68041766e-01f,+1.43018678e-01f,+1.27657056e-01f,+4.47013043e-02f,+4.94518094e-02f,
+7.85874426e-02f,+1.71744034e-01f,-1.20770989e-03f,+5.34419827e-02f,+1.59283448e-02f,
-9.48940031e-03f,+7.32256323e-02f,+1.31200328e-01f,+9.06329751e-02f,+6.56633750e-02f,
-2.05105059e-02f,+1.33068860e-01f,-1.90174982e-01f,+9.84001979e-02f,+9.15561989e-02f,
+2.51887470e-01f,+4.68190163e-02f,-6.34661466e-02f,-6.26815949e-03f,-4.04559588e-03f,
-1.58403322e-01f,+4.19209562e-02f,-6.03035800e-02f,-8.07567872e-03f,-5.92469387e-02f,
+1.03850417e-01f,+2.45134518e-01f,+7.68153220e-02f,+1.74472496e-01f,+1.83350861e-01f,
+1.14299156e-01f,+1.83796003e-01f,+1.70310095e-01f,+4.95670438e-02f,+1.85739920e-01f,
+4.65323254e-02f,+2.96641558e-01f,-1.55720204e-01f,-5.91402799e-02f,-1.35085315e-01f,
+1.88318729e-01f,+1.42950833e-01f,-4.69281003e-02f,+2.45647460e-01f,+1.40145374e-02f,
-6.41959384e-02f,+2.33948659e-02f,+9.58304405e-02f,+2.03020260e-01f,-2.51185358e-01f,
-2.62023546e-02f,-2.71807779e-02f,-1.51330650e-01f,-1.48619828e-03f,+2.19484955e-01f,
+3.82208318e-01f,+7.58372620e-02f,-1.10987768e-01f,+2.20098257e-01f,-9.69081223e-02f,
-1.43364578e-01f,-1.29545435e-01f,+2.41504431e-01f,+2.30796546e-01f,+3.29933837e-02f,
+6.42463565e-02f,+2.30927601e-01f,-2.07294360e-01f,-1.91194192e-01f,+3.20341140e-02f,
+8.05678815e-02f,+5.88933118e-02f,+5.19653410e-02f,-2.82291118e-02f,-6.52265875e-03f,
-1.90683901e-01f,+3.92750129e-02f,-1.39708728e-01f,+7.97471497e-03f,-2.14605391e-01f,
-2.05694772e-02f,-1.16737485e-01f,+2.39510462e-01f,-2.21156850e-01f,-3.53519619e-02f,
+2.86732644e-01f,+1.39324173e-01f,-9.68710333e-02f,-1.15381636e-01f,-3.48513648e-02f,
+2.59284347e-01f,+1.62663460e-01f,-8.36175457e-02f,+1.27995402e-01f,-3.08947474e-01f,
+5.24878651e-02f,+8.23331252e-02f,+7.45303929e-02f,+9.12394375e-02f,+1.59865301e-02f,
-2.59286672e-01f,-9.90389809e-02f,+1.21926486e-01f,-3.81081663e-02f,+7.21564591e-02f,
-2.98013948e-02f,+8.97973254e-02f,+3.61526102e-01f,+2.67760456e-01f,-2.66354501e-01f,
+2.76427954e-01f,+3.09331477e-01f,+1.01993456e-01f,-3.73450667e-02f,-2.74531454e-01f,
+1.53185904e-01f,-1.10988870e-01f,-1.71226934e-01f,-1.23863339e-01f,+1.52552892e-02f,
-4.85357009e-02f,+7.19451979e-02f,-1.16279140e-01f,+1.08648337e-01f,+4.91505153e-02f,
-5.68516478e-02f,+3.47406626e-01f,-6.65991008e-02f,+1.67575711e-03f,+1.06590418e-02f,
-9.16557685e-02f,-2.62468666e-01f,-9.41631645e-02f,-2.28409946e-01f,-1.01253577e-01f,
-2.12851211e-01f,+1.22086182e-01f,-1.48949429e-01f,-1.99879810e-01f,+6.68483451e-02f,
+8.62267017e-02f,-5.62365307e-03f,+2.33755112e-01f,+7.40188807e-02f,-3.34000021e-01f,
-1.76132284e-02f,+4.34398167e-02f,+1.34094432e-01f,+2.43751202e-02f,-1.22032389e-02f,
-1.38591742e-02f,-1.71890423e-01f,-5.12010325e-03f,+1.88293308e-01f,+3.05418879e-01f,
+6.01116233e-02f,+2.01856315e-01f,+2.22524822e-01f,-1.19632043e-01f,+1.88135266e-01f,
+1.26028389e-01f,-3.81115526e-02f,+8.81261677e-02f,-1.29073411e-01f,+1.92103758e-01f,
-5.99373206e-02f,-3.23233932e-01f,+1.56450436e-01f,+6.33109212e-02f,-4.76120263e-02f,
+3.72759670e-01f,+1.19644091e-01f,+6.55131880e-03f,+2.54211128e-01f,-2.42506176e-01f,
+1.67533964e-01f,+4.07076143e-02f,+1.58379331e-01f,+2.29091018e-01f,+1.32376045e-01f,
-3.11883837e-01f,+3.56513895e-02f,+5.70524707e-02f,+1.19070858e-01f,-8.17349628e-02f,
-1.73829556e-01f,-1.69054836e-01f,+2.05599979e-01f,+2.36642703e-01f,+3.68836187e-02f,
-1.26791596e-01f,-1.73884168e-01f,+1.30073816e-01f,-8.26918483e-02f,+3.56571004e-02f,
+1.03642046e-01f,-9.10494104e-02f,-1.28022447e-01f,+2.06461370e-01f,-3.82558219e-02f,
-3.01786009e-02f,+1.91388968e-02f,+1.76845893e-01f,-1.95015460e-01f,+2.27706671e-01f,
-9.23496764e-03f,-1.16503060e-01f,-1.02211766e-01f,-4.58565280e-02f,+3.59373569e-01f,
-3.64910103e-02f,-2.69876003e-01f,-1.49325088e-01f,+3.09279144e-01f,-5.27106598e-02f,
+9.14915055e-02f,-2.29588151e-01f,-2.34581772e-02f,-1.16929360e-01f,-1.65082499e-01f,
-4.86618839e-03f,-1.78429693e-01f,+1.27131730e-01f,+2.27346554e-01f,-1.78306341e-01f,
+6.35294244e-02f,-4.97957645e-03f,+8.88203606e-02f,-1.79796904e-01f,+5.70111908e-02f,
-6.73538893e-02f,+2.87899464e-01f,-1.98670961e-02f,-2.84214038e-02f,-1.66992769e-01f,
-8.68483707e-02f,+1.11858144e-01f,-2.57502645e-01f,+4.70463699e-03f,+3.03281307e-01f,
+2.20347464e-01f,+1.88269511e-01f,+2.46932611e-01f,+1.77098483e-01f,+1.07045963e-01f,
+2.40355700e-01f,-2.54020002e-02f,-1.36322320e-01f,+2.36614540e-01f,-3.86910746e-03f,
+4.32164043e-01f,-1.26000404e-01f,+2.72582442e-01f,+6.99840486e-02f,-1.98808923e-01f,
-7.61485472e-03f,-9.17550176e-02f,-1.66643500e-01f,+2.23437827e-02f,-1.47721946e-01f,
-1.08453497e-01f,-6.25132248e-02f,-1.81153238e-01f,+2.67108709e-01f,-8.54111165e-02f,
-2.93877184e-01f,+3.22747409e-01f,+4.07295644e-01f,-3.11046448e-02f,-1.15631133e-01f,
-2.78014123e-01f,+1.61417961e-01f,+3.69480848e-02f,+1.17712073e-01f,-1.36666939e-01f,
-1.71014726e-01f,+1.20091364e-01f,-3.40906143e-01f,+6.71758577e-02f,+2.28825539e-01f,
+1.04334392e-01f,+5.64020127e-02f,-2.35547885e-01f,+6.14098497e-02f,-1.83529463e-02f,
+1.30060077e-01f,-2.45321900e-01f,+4.94637601e-02f,-1.72994122e-01f,+1.39651140e-02f,
-9.16977972e-03f,+1.43839821e-01f,+1.03710271e-01f,-2.00145707e-01f,+1.40748560e-01f,
+6.24321103e-02f,+8.59263539e-02f,-1.30724609e-02f,+2.57344663e-01f,+2.10316852e-01f,
+5.50550781e-03f,+8.07838514e-02f,-1.51518956e-01f,+2.88193692e-02f,+1.45216793e-01f,
+7.81276003e-02f,-6.55080825e-02f,+7.96562359e-02f,+3.24124061e-02f,+1.24344356e-01f,
+8.71505141e-02f,-4.38161716e-02f,-2.82911748e-01f,-1.05559774e-01f,+2.90408432e-01f,
+5.37491143e-02f,-2.93313749e-02f,+5.83928302e-02f,+1.06875457e-01f,-8.18063319e-02f,
+2.89076447e-01f,-6.22914620e-02f,+9.96617675e-02f,-3.49808149e-02f,+7.77828246e-02f,
+7.94089139e-02f,+1.59398898e-01f,-2.42495686e-01f,-1.63641647e-01f,+1.11495890e-01f,
-8.44663978e-02f,-2.58731693e-01f,-1.69492736e-02f,+6.67891726e-02f,+1.55604035e-01f,
+2.12233365e-01f,+1.51435584e-01f,+1.28333285e-01f,-2.18593657e-01f,-5.02596021e-01f,
+2.37263113e-01f,+1.22594483e-01f,+6.86951429e-02f,+2.35988591e-02f,-8.84727389e-02f,
+2.00739428e-01f,+4.46010739e-01f,-5.00959866e-02f,+3.38052988e-01f,+3.90667737e-01f,
+3.17770809e-01f,-2.04945862e-01f,+1.02394864e-01f,-1.66541427e-01f,-9.39373970e-02f,
-9.52587947e-02f,-1.99213177e-02f,+1.17577903e-01f,+5.08612245e-02f,+5.21927834e-01f,
-1.85652431e-02f,-3.00221536e-02f,+1.05993181e-01f,-2.38398835e-01f,+3.69349658e-01f,
+1.27344206e-01f,+8.01427811e-02f,+2.48977214e-01f,+1.11592211e-01f,+3.72917563e-01f,
+5.16928872e-03f,+7.97504559e-03f,-4.63607870e-02f,-1.09236315e-02f,-2.80384272e-02f,
-2.62737930e-01f,+2.03396961e-01f,+6.57479316e-02f,+2.49619678e-01f,+2.08018914e-01f,
+4.47536618e-01f,+1.00704394e-01f,+5.29606491e-02f,-2.58708000e-02f,-2.70386070e-01f,
+2.71755625e-02f,-1.06467232e-01f,+6.16643965e-01f,+7.00543150e-02f,-1.41149923e-01f,
+5.16755022e-02f,+8.85059536e-02f,+1.24218665e-01f,+1.47781551e-01f,+1.30438089e-01f,
-2.57096827e-01f,-1.68583840e-01f,+6.92861602e-02f,-2.82737352e-02f,+1.48294061e-01f,
-2.41748486e-02f,+1.58242524e-01f,+1.59029305e-01f,+3.14538062e-01f,+2.83086747e-01f,
-3.79164703e-02f,-1.30237654e-01f,+1.26689941e-01f,+1.86820149e-01f,+1.03528216e-01f,
-1.28790572e-01f,+1.86786339e-01f,+1.75881743e-01f,+3.02088737e-01f,+8.24543089e-02f,
+6.04989082e-02f,+2.33533233e-01f,-4.25789393e-02f,-6.89478219e-02f,-6.12091944e-02f,
-5.81903383e-02f,-1.44053847e-01f,-5.38639277e-02f,+2.62489974e-01f,+9.51965600e-02f,
-1.26248300e-01f,+2.11974718e-02f,+2.49424383e-01f,+1.50180636e-02f,-1.42852347e-02f,
+1.01119086e-01f,+2.32349504e-02f,+3.81660581e-01f,+4.88575697e-01f,+3.34850371e-01f,
+9.06422287e-02f,+2.09354654e-01f,+5.97215816e-02f,+2.65421063e-01f,-1.53220400e-01f,
+3.20221722e-01f,+2.98019379e-01f,-1.03470907e-01f,-1.16939861e-02f,-1.51084259e-01f,
+8.74078199e-02f,+8.54939036e-03f,-6.98915645e-02f,+1.15301087e-02f,+2.16129616e-01f,
+1.21753909e-01f,-2.18829978e-03f,-5.65085672e-02f,+3.10888588e-01f,+2.04217523e-01f,
+1.89095125e-01f,-9.85945985e-02f,+1.43872812e-01f,+1.60028204e-01f,-8.31554681e-02f,
-1.98108912e-01f,+1.87081456e-01f,+1.23746898e-02f,+2.27785021e-01f,+5.03881514e-01f,
+2.09051222e-01f,+4.65523273e-01f,-6.75526112e-02f,-3.07514761e-02f,+1.39901057e-01f,
-2.72133481e-02f,+2.54591316e-01f,-1.25033513e-01f,-1.26666501e-01f,+7.31623098e-02f,
+1.05557796e-02f,+1.44737571e-01f,-3.53162847e-02f,-7.25941546e-03f,+1.76981881e-01f,
-3.46015282e-02f,+3.12502265e-01f,+5.08073866e-01f,-1.23734571e-01f,+4.09035295e-01f,
+3.34112883e-01f,+8.14167559e-02f,+4.68020812e-02f,+1.62872612e-01f,-1.54201269e-01f,
+1.42204240e-02f,-3.34339365e-02f,+1.66284349e-02f,+1.64742380e-01f,+3.44847143e-01f,
+2.16018781e-01f,+2.59317517e-01f,-2.75707424e-01f,+2.16691867e-02f,+3.25140715e-01f,
+1.09085925e-01f,+1.00212961e-01f,+3.80149409e-02f,+4.31286655e-02f,+4.64255363e-02f,
+1.49610683e-01f,-9.72217768e-02f,-8.78649950e-02f,-6.41835332e-02f,+1.96142122e-01f,
-4.08882983e-02f,+1.59279734e-01f,+3.94310832e-01f,+4.48137484e-02f,-1.37171969e-01f,
-4.05872837e-02f,+7.84522966e-02f,+1.96950510e-01f,+3.04309633e-02f,+2.66176518e-02f,
+1.91629723e-01f,-3.76290195e-02f,+1.75799951e-02f,-4.22621705e-02f,+3.00119463e-02f,
+3.52722742e-02f,-2.97278523e-01f,+1.33757651e-01f,+2.25322053e-01f,-2.04886217e-02f,
+2.67222449e-02f,+3.96399468e-01f,-5.21563590e-02f,+4.76331502e-01f,+1.30333789e-02f,
+1.36510715e-01f,+1.36354297e-01f,+4.92280014e-02f,+1.95377693e-01f,+1.83098093e-01f,
+1.60179645e-01f,+1.04308240e-01f,+1.86983779e-01f,-8.74492452e-02f,+2.88561545e-02f,
+2.78760076e-01f,+1.24244004e-01f,+4.26891416e-01f,+2.23606184e-01f,+2.08596557e-01f,
-5.64063005e-02f,+7.64432028e-02f,+4.65408385e-01f,+1.46132156e-01f,+3.90563548e-01f,
+3.54817778e-01f,+1.06469125e-01f,+4.01474461e-02f,+3.38090599e-01f,+7.34578411e-04f,
-7.56800398e-02f,+8.74572322e-02f,-9.23969224e-02f,+1.53440535e-01f,+5.73536102e-03f,
+2.17692837e-01f,-2.08848044e-01f,+2.68861353e-01f,+3.97801138e-02f,+3.27481590e-02f,
-2.71558519e-02f,-9.05525312e-02f,+4.08943087e-01f,+1.71897456e-01f,+9.27553698e-02f,
+2.16342300e-01f,+2.64392227e-01f,-1.46708172e-02f,+1.01651713e-01f,+1.93803106e-02f,
+3.24392945e-01f,-2.09745839e-01f,+1.23473056e-01f,-2.21688360e-01f,+2.58876294e-01f,
+5.78812584e-02f,+6.55709729e-02f,+8.79786015e-02f,+3.85221362e-01f,+6.77345991e-02f,
-1.14476532e-01f,+3.47574353e-01f,-1.00732550e-01f,-2.39293784e-01f,+8.89080614e-02f,
-1.74141936e-02f,+5.52541494e-01f,+1.51344657e-01f,+1.47648349e-01f,-1.10487409e-01f,
-2.96419188e-02f,+1.41418293e-01f,+6.82239294e-01f,+5.83058111e-02f,-2.20525548e-01f,
-1.58142760e-01f,+3.88755798e-01f,-1.28878385e-01f,-1.97735913e-02f,+1.53208049e-02f,
+3.76336239e-02f,+1.31669864e-01f,+2.61539042e-01f,-9.26658809e-02f,+2.82082886e-01f,
-9.74753052e-02f,+1.63869053e-01f,-5.96526451e-03f,-3.78517099e-02f,+1.18960455e-01f,
-2.69464552e-02f,+2.20515832e-01f,+1.66538641e-01f,-5.75880855e-02f,-1.66751131e-01f,
-3.39563154e-02f,+1.16376288e-01f,+1.68098092e-01f,+4.33492754e-03f,-1.18970528e-01f,
+2.71401644e-01f,+1.75655007e-01f,-4.22679074e-02f,+7.68832415e-02f,+1.51896894e-01f,
+3.35216790e-01f,+2.14252576e-01f,+1.04606315e-01f,+4.51397821e-02f,+1.11026190e-01f,
+1.49625629e-01f,+1.90706164e-01f,-3.99865031e-01f,+1.57637224e-01f,+1.91982780e-02f,
+1.54706702e-01f,+1.33247018e-01f,+9.82605740e-02f,+6.41332120e-02f,+1.52788863e-01f,
+1.47952521e-02f,+1.69152454e-01f,+9.17945895e-03f,+3.22991051e-02f,+8.78985301e-02f,
+1.24989159e-01f,-1.88142866e-01f,+2.04438027e-02f,+1.36858001e-01f,-1.83049455e-01f,
-2.14112714e-01f,+3.57845873e-02f,+1.67278334e-01f,+2.95038015e-01f,+2.31819615e-01f,
-5.35511337e-02f,-8.74429382e-03f,+9.55016986e-02f,-6.78858683e-02f,-1.14087351e-01f,
-7.95268863e-02f,+5.03352173e-02f,+1.33834854e-01f,+3.75538439e-01f,+5.78286834e-02f,
+2.16378212e-01f,+3.27695459e-02f,-7.89728686e-02f,+1.42455757e-01f,+5.38392067e-01f,
-2.78138548e-01f,+5.32365382e-01f,+1.20493500e-02f,+5.47754131e-02f,+3.80653143e-01f,
-1.50927007e-01f,+1.04152434e-01f,+3.40030226e-03f,+6.21937662e-02f,+2.90135629e-02f,
+7.88645297e-02f,+9.75947455e-03f,+1.70557782e-01f,+3.88470292e-01f,+7.47501524e-03f,
-4.84910831e-02f,+1.26164798e-02f,+1.65657010e-02f,-3.36240195e-02f,+3.23286862e-03f,
-7.13464245e-02f,+9.52276774e-03f,+2.21401691e-01f,+3.15385371e-01f,+7.56817311e-02f,
+1.34448826e-01f,+1.26463026e-01f,-1.19183727e-01f,-4.59097773e-01f,-1.78358685e-02f,
+7.70576820e-02f,-9.39136669e-02f,+1.46612540e-01f,+2.54281729e-01f,-2.51573026e-02f,
+2.82757491e-01f,-6.38555363e-02f,+1.86366722e-01f,-1.73671409e-01f,-9.45656598e-02f,
+1.09556310e-01f,-1.11074150e-01f,+2.87366599e-01f,-1.98537186e-02f,+2.04786822e-01f,
+1.13641778e-02f,+2.07413957e-01f,+1.01634651e-01f,+5.81311807e-02f,+1.81334600e-01f,
+1.48511678e-01f,-4.19257954e-03f,+2.12457016e-01f,+2.00523257e-01f,-2.25270092e-01f,
+2.42836103e-01f,+7.95972720e-02f,+7.49280602e-02f,-6.62461445e-02f,+1.12842582e-01f,
+1.57289103e-01f,-2.22426988e-02f,-5.86993098e-02f,+1.44610345e-01f,-5.34707308e-02f,
+2.45562330e-01f,+1.52426269e-02f,+6.58110678e-02f,+1.66873112e-01f,-1.82595789e-01f,
+7.08758831e-02f,-3.38490084e-02f,+1.87026113e-01f,+7.04405876e-03f,+6.42118976e-02f,
+3.94597044e-03f,+8.39320421e-02f,+1.57332927e-01f,+4.99727726e-01f,+1.77726690e-02f,
+2.16941647e-02f,+2.86629736e-01f,-3.84559110e-02f,+2.93295812e-02f,+4.21858914e-02f,
-2.81322688e-01f,-9.41666886e-02f,+3.68008725e-02f,+2.79799290e-02f,+2.47873574e-01f,
+2.15341702e-01f,+2.73332626e-01f,+1.60697490e-01f,+2.41774797e-01f,-1.18956558e-01f,
-8.45841095e-02f,+7.09407777e-02f,-2.02428401e-01f,-1.21231876e-01f,-8.91892985e-03f,
+1.56044379e-01f,+1.18534684e-01f,-1.25125572e-01f,+5.45606874e-02f,+8.79496410e-02f,
+1.25280932e-01f,+8.72287899e-02f,+5.70251830e-02f,+6.69192001e-02f,-4.79178987e-02f,
+1.16238751e-01f,+1.28151596e-01f,+1.06006175e-01f,-1.76160987e-02f,+8.88634324e-02f,
+2.16741279e-01f,-2.31689811e-01f,+7.97240902e-03f,+7.47724101e-02f,+2.64713317e-01f,
+1.10289283e-01f,+1.32044643e-01f,-6.76757991e-02f,+5.11776358e-02f,+1.34604320e-01f,
+8.60885903e-02f,-2.33851194e-01f,+1.30851209e-01f,+1.58027068e-01f,+1.19270422e-01f,
+7.65741244e-02f,-2.05667540e-02f,+7.08670840e-02f,+7.69101977e-02f,+2.98396461e-02f,
+2.46276204e-02f,+1.06850252e-01f,+2.92181801e-02f,+4.24359560e-01f,+5.20763062e-02f,
+4.40322198e-02f,+5.19156717e-02f,+5.66206723e-02f,+2.58363247e-01f,-2.54110396e-01f,
+1.54294446e-01f,+1.55862048e-01f,+1.05332486e-01f,-3.07289567e-02f,-3.04403491e-02f,
-6.07645102e-02f,+1.96975559e-01f,+4.23654802e-02f,-1.97572872e-01f,-1.66799888e-01f,
+5.70645090e-03f,-1.82189092e-01f,+9.66707170e-02f,+2.76420385e-01f,-1.18378960e-01f,
-6.03657700e-02f,-4.53517586e-02f,+3.17199342e-02f,+3.64863835e-02f,-9.04477984e-02f,
+2.33603138e-02f,-4.64384854e-02f,+1.23538598e-02f,+8.85922275e-03f,+3.98783647e-02f,
+1.83928624e-01f,-3.22060376e-01f,+1.36876285e-01f,+2.64330376e-02f,-6.58171102e-02f,
+1.98256105e-01f,+2.35047415e-01f,+2.73445062e-02f,+1.03285126e-01f,-1.40687332e-01f,
-2.18026817e-01f,+1.55506089e-01f,-2.08301153e-02f,+5.80501631e-02f,+5.79458848e-02f,
-1.41091794e-01f,-2.55673438e-01f,+5.90023063e-02f,-6.45051822e-02f,-5.09731323e-02f,
+4.58971858e-01f,+3.95204216e-01f,+2.40144301e-02f,+3.17667499e-02f,-1.92715395e-02f,
-1.03780525e-02f,+1.08893879e-01f,+2.04800278e-01f,+4.09859084e-02f,-6.46433160e-02f,
+2.67749708e-02f,+2.71107644e-01f,-2.18623988e-02f,+1.53454855e-01f,+1.79747641e-02f,
+6.55430779e-02f,+1.02574319e-01f,+1.05171785e-01f,+1.04982346e-01f,-3.55323614e-03f,
+4.23499942e-01f,+5.75502738e-02f,+3.92805710e-02f,+1.44195948e-02f,-1.12050615e-01f,
-1.88426990e-02f,+3.92991900e-02f,-1.35111749e-01f,+4.70424145e-02f,+2.81983912e-01f,
+7.14328513e-02f,-1.36536574e-02f,+4.26597241e-03f,+1.47278011e-01f,+1.97409451e-01f,
-7.00212717e-02f,+5.48565537e-02f,-1.64752468e-01f,-9.55046564e-02f,+1.01334877e-01f,
-7.04645589e-02f,-7.95205981e-02f,+1.05513625e-01f,-1.13354459e-01f,-1.76039208e-02f,
+4.28643972e-01f,-2.23512799e-01f,+9.74344164e-02f,+5.10180071e-02f,+4.81084734e-02f,
+7.31764287e-02f,+7.86154643e-02f,+1.42206892e-01f,+1.25226572e-01f,+4.36218046e-02f,
+1.82166677e-02f,+2.12376446e-01f,-5.54520153e-02f,-6.84805140e-02f,-2.23884284e-01f,
+1.56869933e-01f,+8.48632082e-02f,-8.97326767e-02f,+1.02784827e-01f,+4.20753732e-02f,
+1.14905939e-01f,+1.00331917e-01f,+3.43202427e-02f,+2.15841934e-01f,+1.71220586e-01f,
+4.71571870e-02f,-1.07134633e-01f,+1.81968629e-01f,+1.86361209e-01f,+5.88279509e-04f,
-2.40085676e-01f,+1.78037718e-01f,-1.58896968e-02f,+9.05731842e-02f,+1.21362828e-01f,
+3.49454442e-03f,-6.19340800e-02f,+2.39466503e-02f,+1.18583299e-01f,+1.26065388e-01f,
+1.62695736e-01f,-1.32879794e-01f,+1.12398431e-01f,-2.83832192e-01f,-2.24853933e-01f,
+2.29035527e-01f,+1.25734359e-01f,+2.57012933e-01f,+5.74484058e-02f,-2.66336590e-01f,
-8.13306347e-02f,-2.49682546e-01f,-3.02655715e-02f,-1.73472956e-01f,+1.45975789e-02f,
+2.26167873e-01f,+6.40837941e-03f,+3.25583667e-02f,+1.78404767e-02f,+4.96780239e-02f,
+9.64273363e-02f,+1.09035615e-02f,-1.13396727e-01f,+1.80078611e-01f,+9.90939699e-03f,
+1.70255318e-01f,-1.49649829e-01f,-9.16674137e-02f,+3.38451207e-01f,-4.10506934e-01f,
-2.73489267e-01f,-9.71679538e-02f,+2.66882062e-01f,-7.98481628e-02f,+1.63303778e-01f,
+5.36279716e-02f,+1.16277449e-01f,-1.86692491e-01f,-4.84529585e-02f,-2.86670662e-02f,
+9.83900204e-02f,+2.73718625e-01f,+3.55706587e-02f,+2.79202521e-01f,-1.53427824e-01f,
+3.16534221e-01f,+1.33914486e-01f,-2.71850616e-01f,+2.08487809e-02f,+3.09748650e-01f,
+1.83135986e-01f,-5.32461036e-06f,+2.10141659e-01f,+6.99621662e-02f,+6.26183078e-02f,
+2.31370836e-01f,+1.34197608e-01f,+1.23234466e-01f,-1.02879629e-01f,+4.52794507e-02f,
+6.07899986e-02f,+5.79679981e-02f,+2.63709664e-01f,+1.46617917e-02f,+4.43488479e-01f,
+9.25972685e-02f,+1.13394288e-02f,-5.42254373e-02f,+5.49758375e-02f,+1.16166733e-01f,
+1.27972126e-01f,-3.11976701e-01f,+4.31168735e-01f,+2.10189354e-02f,+9.56817716e-03f,
+6.61574677e-02f,-2.66022123e-02f,+2.64059529e-02f,+2.25162372e-01f,-2.93147139e-04f,
-8.36807564e-02f,+3.43141556e-02f,-5.06137498e-02f,-7.42085129e-02f,+9.45302565e-03f,
+5.36413118e-02f,+3.92783731e-02f,+9.20922011e-02f,+2.80349135e-01f,-7.67373294e-02f,
-2.21309662e-02f,+1.70861244e-01f,-1.26256049e-01f,+2.22017199e-01f,+1.16550796e-01f,
-3.09951920e-02f,+9.24646202e-03f,-3.37896263e-03f,+1.08994441e-02f,-1.10290766e-01f,
+8.72496292e-02f,+1.91023752e-01f,+2.14617606e-03f,-1.12424511e-02f,+1.44951195e-02f,
+1.07107200e-01f,-1.89514011e-01f,-1.85791314e-01f,-5.64536937e-02f,+1.75357893e-01f,
+1.15138493e-01f,-1.49579480e-01f,-2.10598744e-02f,+1.46095261e-01f,-6.95892200e-02f,
-3.33599336e-02f,+2.29735300e-01f,+2.40936667e-01f,-1.72306374e-01f,+8.96823704e-02f,
-2.53886450e-02f,-1.39409527e-01f,-2.25966200e-02f,+1.95921645e-01f,+1.75582599e-02f,
-1.55663908e-01f,+3.29292864e-01f,+8.18521008e-02f,+3.16459537e-01f,+4.96267192e-02f,
+2.53818324e-03f,+5.13357334e-02f,+1.11083575e-02f,+6.04198985e-02f,-2.91109215e-02f,
+2.57970870e-01f,-1.11655124e-01f,+9.53561515e-02f,+1.56869497e-02f,-1.38763636e-01f,
+5.71365841e-02f,+6.19758815e-02f,+1.13649771e-01f,+2.32131034e-01f,+1.25939801e-01f,
+1.23854399e-01f,-1.81746289e-01f,+2.00073034e-01f,+6.92739487e-02f,-4.48080990e-03f,
+2.28539303e-01f,+4.59981151e-02f,-1.50984833e-02f,+1.55443817e-01f,+2.60011315e-01f,
+5.70206121e-02f,-2.35852316e-01f,-1.41860083e-01f,+3.06213737e-01f,+9.65727866e-02f,
-2.60825977e-02f,+1.39873728e-01f,-2.31492043e-01f,+1.04537673e-01f,+7.83168301e-02f,
+1.13507338e-01f,-1.14978090e-01f,-8.42702910e-02f,+2.25369796e-01f,+9.13235843e-02f,
+1.89164802e-01f,-7.27763632e-03f,+6.86009899e-02f,+6.18841462e-02f,-1.74817722e-02f,
+1.71177974e-03f,+1.57344520e-01f,-2.94703133e-02f,+1.98855221e-01f,+8.88072178e-02f,
+3.35564464e-02f,-2.58999556e-01f,-1.99845120e-01f,+1.35709107e-01f,+1.59322605e-01f,
+4.95109521e-02f,+1.40217438e-01f,+5.09458542e-01f,+2.71862358e-01f,-4.05623883e-01f,
+7.65162781e-02f,+1.36781037e-01f,+2.19649076e-01f,-1.07678272e-01f,+3.01601261e-01f,
-4.13614996e-02f,+1.64888173e-01f,-7.40247220e-02f,-3.07772355e-03f,+2.55255271e-02f,
+1.54814959e-01f,+8.92491266e-03f,-2.17349231e-01f,+1.56658843e-01f,-1.14590026e-01f,
+7.53171220e-02f,-2.09180415e-02f,-2.08390608e-01f,+2.06599772e-01f,+2.03083888e-01f,
+8.67727697e-02f,+8.31430331e-02f,+4.12847579e-01f,+7.74190947e-02f,-1.25931039e-01f,
-3.80330049e-02f,+2.20514119e-01f,+2.35328183e-01f,-1.77155156e-02f,+8.27781782e-02f,
-8.49767625e-02f,+1.86056957e-01f,+4.39124852e-02f,+5.52623719e-02f,-5.20668663e-02f,
+2.31124312e-02f,-9.99344215e-02f,+3.93723488e-01f,+2.88073152e-01f,+2.25932058e-02f,
+4.20042872e-02f,+1.09990299e-01f,+7.73237199e-02f,+2.19025329e-01f,+1.15461558e-01f,
-5.11862189e-02f,+5.29929139e-02f,-4.93452363e-02f,+2.04783767e-01f,+1.84688583e-01f,
+1.14445366e-01f,+3.14223826e-01f,+3.39196995e-02f,-1.72238514e-01f,+8.36379156e-02f,
+5.63820116e-02f,-9.17082205e-02f,-3.39741558e-02f,-2.00926051e-01f,+2.31447116e-01f,
+1.06998734e-01f,+6.05029576e-02f,+5.66351190e-02f,+1.91278115e-01f,+4.97618854e-01f,
+1.14727296e-01f,+9.93965790e-02f,-1.35881543e-01f,+1.98846281e-01f,+2.12430879e-01f,
-2.14978624e-02f,+4.49071005e-02f,+5.57721853e-02f,+1.17004097e-01f,+6.42639073e-03f,
-3.85514200e-02f,-2.59240363e-02f,-2.11601797e-02f,+3.20226550e-01f,+1.96240526e-02f,
-4.46096435e-02f,-4.68668789e-02f,+2.63968855e-01f,+1.43826306e-02f,-2.12965030e-02f,
-2.01508969e-01f,-4.22826074e-02f,-1.44117668e-01f,-2.13596657e-01f,-1.69489965e-01f,
-4.07596767e-01f,+1.20830489e-02f,-1.07113287e-01f,-9.07109976e-02f,+4.79907691e-02f,
-3.90633494e-02f,-6.85539246e-02f,+2.87336204e-02f,+1.79131359e-01f,+2.09621355e-01f,
+1.71613112e-01f,+1.95804060e-01f,+4.10624854e-02f,-2.77938433e-02f,-1.37735419e-02f,
-1.74885523e-02f,+1.48777664e-01f,+4.11567949e-02f,-1.35762498e-01f,+3.89262855e-01f,
+1.23371944e-01f,+1.47825375e-01f,+1.73116505e-01f,+1.90185890e-01f,+2.29980290e-01f,
+2.19005793e-01f,+7.63418227e-02f,+3.16443354e-01f,-4.85218428e-02f,-5.12040108e-02f,
+3.56296115e-02f,+1.30307361e-01f,-4.04311121e-02f,-1.10084452e-01f,-3.93710248e-02f,
+1.76137686e-01f,+4.51511219e-02f,+5.31508997e-02f,+2.12590128e-01f,+5.27736284e-02f,
+1.11465484e-01f,-4.43237051e-02f,-1.14699349e-01f,+8.89185071e-02f,+1.48044527e-01f,
+1.12622321e-01f,+1.70359556e-02f,-8.44472125e-02f,+5.91650279e-03f,+2.57789463e-01f,
+5.07831052e-02f,+1.28872814e-02f,+2.20517978e-01f,-1.14728622e-01f,+1.19837500e-01f,
+1.37134910e-01f,+1.32055834e-01f,+1.57709494e-01f,-1.76493973e-01f,+2.32623115e-01f,
-1.10351823e-04f,+2.36305296e-02f,+1.20461449e-01f,-2.10510254e-01f,-6.00458607e-02f,
-1.05421469e-02f,+1.85951188e-01f,-2.46875733e-02f,+1.19620353e-01f,-4.08129841e-02f,
+8.92233029e-02f,+4.06809337e-02f,-7.47557208e-02f,-4.60979640e-01f,+1.38240188e-01f,
+1.25328064e-01f,+5.44022173e-02f,-5.90243898e-02f,+1.67823985e-01f,-1.11317225e-01f,
-6.57811761e-02f,-6.08454347e-02f,-1.99471358e-02f,-3.60809453e-02f,+2.97825336e-02f,
+9.97475311e-02f,+6.75337240e-02f,+1.08095497e-01f,-4.47179563e-02f,+2.94643641e-01f,
-1.26635686e-01f,+8.63943994e-02f,+3.53322290e-02f,+8.87137502e-02f,-2.12164760e-01f,
+3.05412523e-02f,+2.17085574e-02f,+2.30751604e-01f,-8.76931823e-04f,-4.77649905e-02f,
+1.11693179e-03f,-3.71813737e-02f,-1.24553740e-01f,+4.90727536e-02f,+1.61304727e-01f,
+5.78732416e-03f,+1.40655547e-01f,+4.78370627e-03f,+9.39977840e-02f,-4.26424816e-02f,
+1.12698814e-02f,+1.21825531e-01f,-1.59663893e-02f,-7.33496714e-03f,+1.75616294e-01f,
+2.48725846e-01f,-2.03475133e-02f,+1.64854437e-01f,+1.70119777e-02f,-8.77014548e-02f,
+2.17805400e-01f,+6.48693368e-02f,+1.41433001e-01f,+8.98690298e-02f,+1.37909159e-01f,
+1.47831338e-02f,+4.45750616e-02f,+1.25154689e-01f,+1.59467250e-01f,+6.59025162e-02f,
-2.28498846e-01f,+8.38262681e-03f,-2.72113644e-02f,+2.14159340e-01f,+2.13185430e-01f,
+6.37850091e-02f,-8.94439146e-02f,-1.12170786e-01f,-2.22637970e-02f,+8.78150314e-02f,
-8.51842090e-02f,+1.47220008e-02f,+3.67405601e-02f,-3.64870504e-02f,+3.32259722e-02f,
-3.31936441e-02f,+3.29945982e-01f,+5.35028577e-02f,+1.01066619e-01f,+1.29287438e-02f,
+3.49002719e-01f,+2.51112610e-01f,+1.89263038e-02f,+1.04806796e-02f,-1.19856037e-01f,
-2.89601665e-02f,+6.89169317e-02f,-9.35409889e-02f,+1.58759177e-01f,+9.05904397e-02f,
+2.18511835e-01f,+9.31003410e-03f,+3.34544517e-02f,+6.37318641e-02f,+3.18320543e-02f,
+1.36221856e-01f,+1.14155844e-01f,-8.24418217e-02f,+1.87580824e-01f,+2.10246578e-01f,
+1.03060514e-01f,-1.23054616e-01f,+1.92261204e-01f,-1.48240566e-01f,-7.93507695e-02f,
+2.37268761e-01f,+1.46950945e-01f,-1.39286071e-01f,+1.05240382e-01f,-3.82315964e-02f,
+4.64916937e-02f,+6.05164208e-02f,+5.33860270e-03f,+1.22724801e-01f,+2.31522933e-01f,
+1.11315206e-01f,-9.27383229e-02f,+1.10477142e-01f,+4.24456656e-01f,+9.37135965e-02f,
+1.38439834e-01f,-2.50890285e-01f,+7.96787441e-02f,-1.34326622e-01f,+4.45895605e-02f,
+4.11015637e-02f,-9.00418311e-02f,+1.85690708e-02f,+1.06472492e-01f,+1.30894050e-01f,
+1.02695182e-01f,+2.67824173e-01f,-6.05310872e-02f,+1.90446898e-01f,-8.29966366e-02f,
-6.39197752e-02f,+4.18493420e-01f,+8.76158374e-05f,-5.50146624e-02f,-5.14972992e-02f,
+9.22025442e-02f,+2.74228871e-01f,-2.25523524e-02f,+2.91340761e-02f,+3.87959406e-02f,
-1.08639479e-01f,+2.02891842e-01f,+1.06846012e-01f,+5.44489563e-01f,+1.90262366e-02f,
+1.11459941e-01f,+1.61315933e-01f,-3.07216197e-01f,+1.54939622e-01f,+2.49449499e-02f,
+2.57902265e-01f,+1.88453659e-01f,-3.00502270e-01f,+1.83237251e-02f,+1.30095735e-01f,
+7.31386915e-02f,+1.27504142e-02f,-1.74885198e-01f,+3.04386735e-01f,+1.51994396e-02f,
-1.50132507e-01f,+1.62617452e-02f,+2.50119925e-01f,+3.57571170e-02f,+3.58886346e-02f,
-1.92744080e-02f,-7.13757705e-03f,-8.83792341e-02f,+2.81972945e-01f,+2.24965692e-01f,
-1.35561274e-02f,+1.37531757e-01f,-2.88735572e-02f,-7.64092356e-02f,+8.71337354e-02f,
-1.29623041e-01f,+1.98835000e-01f,-1.17702171e-01f,-2.02240750e-01f,+4.15880559e-03f,
+1.11059353e-01f,+5.61391450e-02f,+2.39438951e-01f,-1.23709261e-01f,+1.03411324e-01f,
-4.05846089e-02f,-1.25308380e-01f,+1.25573590e-01f,-1.02378421e-01f,+5.67513220e-02f,
+8.14339742e-02f,+1.41165867e-01f,+4.49203923e-02f,+1.79569006e-01f,-9.25940275e-02f,
+2.71443307e-01f,+2.18104497e-01f,-8.33579898e-03f,-3.90789136e-02f,-1.30152613e-01f,
+9.91856828e-02f,+2.33520389e-01f,-8.26055259e-02f,+1.57024279e-01f,-1.98900118e-01f,
+6.37341067e-02f,+2.18638375e-01f,-1.57539565e-02f,-4.25741859e-02f,-4.27269526e-02f,
+5.12381755e-02f,+1.18221000e-01f,+1.39837101e-01f,+1.57616973e-01f,+3.71557139e-02f,
+2.05738127e-01f,-6.76136045e-03f,+1.07824005e-01f,-2.02127025e-02f,-1.54678911e-01f,
+1.98657960e-01f,-1.67207420e-01f,+5.34661040e-02f,-5.07735312e-02f,+3.50910239e-02f,
+1.21184014e-01f,+1.16940483e-01f,+1.39208972e-01f,-1.13464808e-02f,+1.25336647e-01f,
+2.25299653e-02f,+2.37915799e-01f,+1.87834635e-01f,-8.17907080e-02f,+1.59671426e-01f,
+1.02407791e-01f,-5.62201440e-02f,-3.69422091e-03f,+2.20030714e-02f,-8.53976607e-02f,
+2.39988882e-03f,+2.29089737e-01f,+2.85502344e-01f,+4.93443012e-02f,+7.93659389e-02f,
-5.81914559e-02f,+2.83221632e-01f,+3.10486883e-01f,-3.94092239e-02f,+4.28910345e-01f,
+3.38053443e-02f,+1.09869577e-01f,+1.97670728e-01f,-5.67362271e-02f,+1.91449061e-01f,
+9.13585648e-02f,+1.41655579e-01f,+2.20620837e-02f,+3.36505026e-01f,+3.09151672e-02f,
-3.12227577e-01f,+7.15284869e-02f,-8.94999802e-02f,-6.16627336e-02f,+1.46086141e-01f,
-7.83262104e-02f,+3.01818281e-01f,+1.38599472e-02f,+2.29173660e-01f,+2.84693502e-02f,
+4.86816168e-02f,-1.98335629e-02f,+1.08343549e-01f,+1.09590352e-01f,+6.56265542e-02f,
+5.87355047e-02f,+1.39596581e-01f,+2.23121009e-04f,+4.91212070e-01f,-6.73083141e-02f,
+2.16193423e-01f,+2.06766739e-01f,+1.89282686e-01f,+1.39180049e-01f,+1.02407418e-01f,
+1.04152925e-01f,+1.33404270e-01f,-5.84955001e-03f,+1.35944724e-01f,+1.73171591e-02f,
-4.99505028e-02f,+1.11836597e-01f,+3.78384948e-01f,+8.21044073e-02f,+1.67234182e-01f,
+8.78194794e-02f,+8.40367526e-02f,+4.99973781e-02f,+1.85072884e-01f,+2.00450253e-02f,
+1.77562281e-01f,+3.48776281e-02f,+2.02206224e-01f,+1.26643181e-01f,-1.45261899e-01f,
+1.06027853e-02f,-1.51545173e-02f,+1.68821603e-01f,+3.72679174e-01f,-6.69258162e-02f,
+7.95348361e-02f,-2.17276439e-02f,+3.70756507e-01f,+1.29532471e-01f,-2.01913998e-01f,
+4.75207269e-01f,-3.40963632e-01f,+6.86067268e-02f,+2.77395487e-01f,-7.26478770e-02f,
+1.38486832e-01f,+1.50664568e-01f,+2.65342951e-01f,+1.90432966e-01f,-4.01915014e-02f,
+1.08574964e-01f,+1.56336352e-01f,+1.28281251e-01f,+3.70539352e-02f,+1.14570856e-01f,
+2.16601402e-01f,+1.27560049e-01f,+7.11409897e-02f,+1.19702719e-01f,+1.32979736e-01f,
+8.22086111e-02f,+1.60863087e-01f,-7.90521055e-02f,+4.36637402e-02f,-4.86783264e-03f,
+3.62668991e-01f,+1.75521091e-01f,+1.98441297e-01f,+5.89583442e-02f,+1.81496873e-01f,
+1.13018550e-01f,+1.78356618e-01f,+1.50652468e-01f,+1.15939073e-01f,+6.51309341e-02f,
+9.71506387e-02f,-1.17441341e-01f,+2.13555917e-01f,+1.09984726e-01f,+1.15680501e-01f,
+2.35217720e-01f,-4.47391011e-02f,-1.88567117e-02f,+1.23538330e-01f,-2.51649097e-02f,
+1.80259258e-01f,-3.92784439e-02f,+1.72432244e-01f,-7.74073005e-02f,+7.50424480e-03f,
-1.22189224e-01f,-7.46500120e-03f,+7.22122788e-02f,+6.57167472e-03f,-6.29402976e-03f,
-8.67632870e-03f,+6.24809861e-02f,-2.33378224e-02f,+1.47927478e-01f,+9.40618366e-02f,
+2.62926356e-03f,+9.28503200e-02f,+2.78067123e-02f,+1.08564816e-01f,-1.56889316e-02f,
-1.30626738e-01f,+1.04729660e-01f,+6.39288053e-02f,-1.56563520e-02f,-4.41760533e-02f,
+1.45267174e-01f,+3.69474404e-02f,+2.32472539e-01f,-8.17171298e-04f,+5.49576283e-02f,
+1.50259584e-01f,-7.79696703e-02f,-1.54052516e-02f,-5.11246547e-02f,+8.54387358e-02f,
-3.09529025e-02f,-6.45076111e-02f,+1.17343143e-02f,+1.90611199e-01f,+3.25513296e-02f,
+1.09315641e-01f,-2.13122857e-03f,-6.35383576e-02f,+3.57585922e-02f,+7.39979073e-02f,
+3.35392505e-02f,+8.80367756e-02f,+5.44317402e-02f,+1.08651660e-01f,+5.25204800e-02f,
+1.32981271e-01f,+7.64724985e-02f,+1.02697037e-01f,-2.14998856e-01f,+2.20802486e-01f,
+8.67800117e-02f,+1.89334124e-01f,-2.12596580e-01f,+8.15520287e-02f,+7.80403167e-02f,
+4.98260818e-02f,+3.45527530e-02f,+1.30372299e-02f,+9.04010832e-02f,+1.17242031e-01f,
-1.10266700e-01f,+6.19739760e-04f,+1.53195605e-01f,+6.44181073e-02f,+1.09630041e-01f,
+1.14277132e-01f,+3.83867361e-02f,-1.25667155e-02f,+6.96729422e-02f,+1.22403018e-01f,
+1.61112204e-01f,+1.39501274e-01f,-9.65857804e-02f,+3.05097811e-02f,+6.46311045e-02f,
+1.26829922e-01f,+9.49074775e-02f,+6.25436604e-02f,+1.63443089e-01f,+7.93045536e-02f,
+2.66831880e-03f,+1.41035780e-01f,-4.30908203e-02f,+1.42671928e-01f,+6.36086166e-02f,
+1.26611486e-01f,+2.27099825e-02f,+3.39775473e-01f,+9.26759690e-02f,+2.01658849e-02f,
+4.53295633e-02f,+5.97815141e-02f,+1.00978218e-01f,+1.27914650e-02f,-5.93190528e-02f,
-4.71320860e-02f,+1.68627337e-01f,+6.27842024e-02f,+1.05168700e-01f,+6.02588290e-04f,
+6.62591755e-02f,+6.57554343e-02f,+1.06033720e-01f,-3.54027413e-02f,+3.34560797e-02f,
+8.01387727e-02f,-1.03228733e-01f,+1.14150815e-01f,+1.48445845e-01f,+2.55272891e-02f,
+2.96666045e-02f,+1.45234570e-01f,-3.09630930e-02f,+1.83490163e-03f,+1.59669295e-01f,
+1.67171478e-01f,+1.93929628e-01f,+4.23918292e-03f,+1.30917981e-01f,+1.59003697e-02f,
+1.03307106e-01f,-6.04519211e-02f,-7.50520006e-02f,+8.12547207e-02f,-1.26467869e-02f,
+1.60943300e-01f,+7.50996470e-02f,+1.28022656e-01f,+4.44368906e-02f,+2.30144281e-02f,
+2.37588678e-02f,-4.73829545e-02f,-3.63851562e-02f,+1.48049682e-01f,+4.52501513e-03f,
+1.72841564e-01f,+1.76501080e-01f,-1.17143579e-02f,+5.09036407e-02f,+3.09248120e-02f,
-3.54728289e-02f,+2.86592823e-02f,+7.72130489e-02f,+3.51476809e-03f,+8.30172598e-02f,
+1.32612482e-01f,+1.69662088e-01f,+9.73282903e-02f,+1.81940377e-01f,-2.22697649e-02f,
+4.96385656e-02f,-7.81866256e-03f,+4.39547747e-02f,+1.17265560e-01f,+3.75596508e-02f,
-9.00842100e-02f,+6.28146976e-02f,+3.07031553e-02f,-2.48954654e-01f,+1.11722752e-01f,
+4.17622514e-02f,+4.44136143e-01f,-6.78252205e-02f,+2.88805310e-02f,+4.64203693e-02f,
+3.94423306e-02f,-3.29198949e-02f,+1.00739568e-01f,+1.99678596e-02f,+1.24167383e-01f,
+4.19380777e-02f,+1.01713635e-01f,-7.99842030e-02f,+1.47326579e-02f,+5.93567081e-03f,
+1.59062073e-01f,+7.09526911e-02f,+1.84722662e-01f,+1.47956356e-01f,+7.09193796e-02f,
+2.33777881e-01f,-2.17903452e-03f,+8.92488360e-02f,+4.21290100e-03f,+6.48708791e-02f,
-1.65632311e-02f,-1.86856106e-01f,+4.93111983e-02f,+2.21831948e-01f,+1.89464062e-01f,
-8.30077231e-02f,+1.07069165e-01f,+1.27437562e-01f,-4.16642055e-02f,+1.28478110e-01f,
+1.01150721e-01f,+2.47244120e-01f,-5.55978790e-02f,+1.62311718e-01f,+8.32385495e-02f,
+3.36918805e-04f,+8.04776177e-02f,+7.65441805e-02f,+5.61515316e-02f,+1.93657756e-01f,
+4.47972082e-02f,-6.67696595e-02f,+2.38303632e-01f,+1.19355116e-02f,-8.93604476e-03f,
+3.77892740e-02f,+8.27037543e-02f,-7.60610625e-02f,+1.46554977e-01f,-8.85882005e-02f,
+1.11925505e-01f,+3.97884548e-02f,+1.00127526e-01f,+2.43235147e-03f,-2.60179698e-01f,
+6.23746254e-02f,+6.95617348e-02f,+8.56850147e-02f,+5.83685897e-02f,+1.03437407e-02f,
+1.31529337e-02f,+1.14417151e-01f,+1.75472535e-02f,+9.13456306e-02f,+1.29076466e-01f,
-1.41460970e-02f,+1.03100225e-01f,+4.92404103e-02f,+1.36540100e-01f,-5.94578199e-02f,
-4.66588512e-02f,+1.84144258e-01f,-8.28425065e-02f,+5.84356003e-02f,+2.00564817e-01f,
+1.56349335e-02f,-1.12639241e-01f,+1.94416240e-01f,+4.79854047e-02f,+5.56420684e-02f,
-8.63750204e-02f,+3.94843146e-02f,+6.23938851e-02f,-4.24368400e-03f,+4.06746613e-03f,
+2.22742423e-01f,-7.90554564e-03f,+8.41050744e-02f,-8.03500935e-02f,+2.62731276e-02f,
+9.43699554e-02f,+1.17042087e-01f,-8.27516317e-02f,+1.80427089e-01f,+4.72150818e-02f,
+2.67380506e-01f,-2.84375120e-02f,+8.79029483e-02f,+1.54153079e-01f,-1.22908771e-01f,
-2.63647586e-02f,+2.74937004e-01f,-2.60224134e-01f,+9.96790007e-02f,+7.62408525e-02f,
+1.22514963e-02f,+8.82247686e-02f,+1.82109758e-01f,+4.58351821e-02f,+1.05096272e-03f,
+2.28760600e-01f,+8.16082507e-02f,+1.49587840e-02f,-6.60362393e-02f,+5.33471443e-03f,
+1.91205814e-02f,+1.63692370e-01f,+3.84260863e-02f,-2.42828578e-02f,-4.34523784e-02f,
+1.13809463e-02f,+1.16777597e-02f,+2.08791837e-01f,+5.02163284e-02f,+2.36821882e-02f,
+1.11040004e-01f,+4.35624532e-02f,+1.54743165e-01f,+3.70642722e-01f,+8.51656795e-02f,
-1.43874332e-01f,+1.59560755e-01f,+2.52990335e-01f,+1.91961247e-02f,-2.02403709e-01f,
-1.40660584e-01f,+2.16560811e-01f,-1.09966975e-02f,+8.43525901e-02f,+2.19041780e-01f,
+1.09050721e-01f,+3.48260179e-02f,+9.45077613e-02f,+7.26767182e-02f,-1.21538281e-01f,
-2.82070022e-02f,+8.39576796e-02f,+4.58149910e-02f,+2.11527631e-01f,+3.20131421e-01f,
+3.84107605e-02f,+2.11487815e-01f,+8.44401568e-02f,+7.78787350e-03f,+8.50012749e-02f,
-6.90820115e-03f,-2.68430039e-02f,-8.05626363e-02f,+2.58424997e-01f,-1.88534677e-01f,
+6.46363273e-02f,+5.27228750e-02f,+1.73814818e-02f,+1.60031021e-01f,+1.25495255e-01f,
+3.39833722e-02f,-1.19907269e-02f,+1.48667723e-01f,+4.50320281e-02f,+2.16005854e-02f,
-3.73890139e-02f,+5.76720163e-02f,+9.37265251e-03f,+2.82712370e-01f,+1.64096162e-01f,
-3.77085619e-02f,+9.13929865e-02f,-1.26235127e-01f,+8.42681676e-02f,-8.18103366e-03f,
+8.20132419e-02f,+4.98669334e-02f,-2.86397412e-02f,+8.75768289e-02f,+4.15034294e-02f,
+1.84556156e-01f,+1.15080759e-01f,+1.68678880e-01f,+1.10023841e-01f,+1.46209270e-01f,
+6.66628331e-02f,+1.53128803e-01f,+5.96695654e-02f,+1.07367665e-01f,+2.06415221e-01f,
+1.12100914e-01f,+6.92581534e-02f,+1.57575548e-01f,-1.05589725e-01f,-4.83040959e-02f,
+7.99111202e-02f,-3.31990756e-02f,+3.51583064e-02f,+2.95417279e-01f,+1.04071029e-01f,
+8.24135914e-03f,+1.33209720e-01f,+6.04736358e-02f,+3.14187407e-02f,+1.62133157e-01f,
-4.36689612e-03f,-1.70923471e-02f,-2.08341882e-01f,+2.45952740e-01f,-3.26794758e-02f,
+1.07098572e-01f,-1.39103027e-03f,-8.60425085e-03f,+1.11148758e-02f,-1.38005257e-01f,
+8.76274630e-02f,+2.43963990e-02f,+9.02906507e-02f,+1.40650645e-01f,+1.83517840e-02f,
+8.90799239e-02f,+1.08627364e-01f,+1.57769009e-01f,+8.93974602e-02f,+7.11201727e-02f,
+1.72603697e-01f,+1.32688820e-01f,-8.48468114e-03f,-8.94651457e-05f,-3.60186808e-02f,
+1.31621450e-01f,+1.34547368e-01f,+1.38704598e-01f,-2.94093527e-02f,+1.20121710e-01f,
+8.92848745e-02f,+5.49541153e-02f,-3.03925034e-02f,+1.96666308e-02f,+1.85726315e-01f,
+1.85041100e-01f,+1.67613298e-01f,-1.31835006e-02f,+2.42577028e-02f,+6.74770474e-02f,
+9.17553827e-02f,+9.49071199e-02f,+5.05724140e-02f,+1.68963019e-02f,+1.85787261e-01f,
+1.75539374e-01f,-3.78402174e-02f,+1.94612723e-02f,+6.76423013e-02f,+5.66008268e-03f,
-6.16748482e-02f,+1.37924701e-01f,+2.33306624e-02f,-9.12447169e-04f,+1.68475136e-02f,
-4.89906184e-02f,-6.96864277e-02f,-1.04323179e-01f,+1.82055548e-01f,+9.56730545e-03f,
+1.70584209e-02f,-5.10224234e-03f,+1.27010673e-01f,+6.24275096e-02f,+3.67905974e-01f,
+1.71936423e-01f,+1.81039244e-01f,+9.78949368e-02f,+1.42569989e-02f,+1.99737549e-01f,
+1.28667891e-01f,+1.18697854e-02f,+7.89002553e-02f,-1.94727152e-03f,+6.80210441e-02f,
+5.38949184e-02f,+1.06928416e-01f,+1.18729873e-02f,-4.54235002e-02f,+5.63560501e-02f,
+1.08583316e-01f,+1.22468546e-01f,+7.41010939e-04f,+9.65665579e-02f,-1.29622528e-02f,
+1.05904460e-01f,+4.76556830e-02f,+1.64448753e-01f,+4.58867215e-02f,+3.78183126e-02f,
+3.35751504e-01f,+9.03366953e-02f,+6.17777184e-03f,+1.49058998e-01f,+8.48837793e-02f,
+7.01014251e-02f,+1.73748568e-01f,+1.36905625e-01f,+1.82032838e-01f,+1.00804508e-01f,
+1.57873094e-01f,+5.00459634e-02f,+4.79216920e-03f,+4.83318120e-02f,+9.77665409e-02f,
+9.39695686e-02f,-1.04766721e-02f,+2.14394450e-01f,-5.73008694e-02f,+2.30848178e-01f,
+1.14994988e-01f,+1.64779559e-01f,+1.68094724e-01f,+4.44207713e-02f,+1.81362092e-01f,
+2.16158882e-01f,+4.03392985e-02f,+1.05800875e-01f,+2.28863567e-01f,+1.32602274e-01f,
-1.04106762e-01f,+1.34012341e-01f,+6.23835884e-02f,+6.59643766e-03f,+2.63709966e-02f,
+1.54091433e-01f,+9.51709896e-02f,+3.80343641e-03f,+1.05330594e-01f,+9.47552845e-02f,
+6.06643446e-02f,+8.63004550e-02f,+4.39979360e-02f,+1.94031194e-01f,+2.05247238e-01f,
+2.22975925e-01f,+2.92927828e-02f,+6.45013526e-02f,+1.01013876e-01f,-5.70916720e-02f,
+9.84996781e-02f,+5.78159206e-02f,-5.57582676e-02f,+3.59686941e-01f,-2.16332115e-02f,
+1.84773162e-01f,+5.53963240e-03f,-1.84431113e-02f,-2.78097522e-02f,+8.91018286e-02f,
+3.62152547e-01f,+5.09798452e-02f,+6.31044954e-02f,+2.81968880e-02f,+1.25173628e-01f,
-3.29248160e-02f,+3.31746191e-02f,+1.41609991e-02f,-6.99578831e-03f,-6.38650358e-02f,
-6.92572147e-02f,+2.63089966e-02f,+1.44154921e-01f,+1.12488247e-01f,-2.34884657e-02f,
+1.90678030e-01f,+2.21752316e-01f,+9.23230201e-02f,+1.31227627e-01f,+1.09356649e-01f,
-8.92401636e-02f,+8.62997323e-02f,+3.95900495e-02f,+1.06451675e-01f,+4.44086492e-02f,
-2.74081323e-02f,+3.92826200e-01f,+2.81682685e-02f,+1.24281049e-01f,+4.44229320e-02f,
+8.28533843e-02f,+1.60413995e-01f,+4.74541150e-02f,+7.95750096e-02f,+1.74417034e-01f,
+1.80698223e-02f,-1.36004447e-03f,+4.70859148e-02f,+1.21313077e-03f,+1.35931209e-01f,
+4.78319498e-03f,+5.97120933e-02f,+2.29759589e-01f,+3.37172896e-02f,+1.00843929e-01f,
+1.23876840e-01f,-3.24568874e-03f,-1.08411729e-01f,+1.23155415e-01f,+1.52422294e-01f,
+2.31480747e-02f,-1.80948973e-02f,+1.91896990e-01f,+1.13767549e-01f,+8.38718936e-02f,
+5.74719906e-02f,+1.61126018e-01f,+1.20913975e-01f,+1.64686635e-01f,+1.00544924e-02f,
+2.11530745e-01f,+1.48136944e-01f,+1.92789938e-02f,-6.67956173e-02f,+1.66404858e-01f,
+2.50082225e-01f,+1.45057917e-01f,-1.39368102e-01f,-5.98198548e-02f,+1.52856275e-01f,
+1.31378293e-01f,+1.44641638e-01f,+1.61203314e-02f,+1.04333892e-01f,+6.70298859e-02f,
+5.65567017e-02f,+1.56560149e-02f,+1.12088092e-01f,-2.14616746e-01f,+4.64693271e-02f,
+2.10985690e-02f,+1.91282481e-01f,+9.20266733e-02f,-1.29405633e-01f,+9.44523439e-02f,
+9.12688226e-02f,+2.14310121e-02f,+8.01500902e-02f,+2.10073307e-01f,+6.78792596e-02f,
-1.73000768e-01f,+1.23768011e-02f,+3.74544710e-02f,-1.80332601e-01f,-1.24221973e-01f,
+1.36321500e-01f,+1.23419002e-01f,+3.26021835e-02f,+4.19759527e-02f,+1.76362216e-01f,
+7.44772330e-02f,-1.85325846e-01f,+7.74505287e-02f,+1.65411890e-01f,+2.39232585e-01f,
+1.18922651e-01f,-9.69520658e-02f,+6.25252873e-02f,-2.24578694e-01f,+1.32035045e-02f,
-1.32794142e-01f,+3.52813937e-02f,+4.70022932e-02f,-1.37311056e-01f,+1.58348978e-02f,
-1.64670005e-01f,-5.72361276e-02f,+1.66621611e-01f,+1.28596812e-01f,+1.93431839e-01f,
+2.09013388e-01f,+7.21088499e-02f,-2.67745614e-01f,+1.00056781e-03f,+7.09187612e-02f,
+9.75975543e-02f,-9.82436836e-02f,+1.44982804e-02f,+1.76475465e-01f,+3.30193877e-01f,
+1.05143175e-01f,-1.63539618e-01f,+1.02063164e-01f,+1.31347686e-01f,-1.82262261e-03f,
+2.57277369e-01f,+2.09380016e-01f,-3.35805446e-01f,-3.08383014e-02f,+2.70523369e-01f,
+1.16940506e-01f,+2.02676743e-01f,-1.36299506e-01f,+1.70992896e-01f,+2.04368867e-02f,
+1.91102400e-01f,+3.27751666e-01f,+7.35139698e-02f,+1.34239361e-01f,+1.81016400e-01f,
-3.11820418e-01f,+1.93633407e-01f,+2.00325605e-02f,-2.89881408e-01f,+1.22092195e-01f,
-3.59005779e-02f,+1.02882907e-02f,-1.28248096e-01f,+1.09202161e-01f,-5.05370721e-02f,
+5.70275262e-02f,+4.28459840e-03f,+3.19759071e-01f,+2.04693601e-01f,-1.72799490e-02f,
+2.04053055e-02f,+1.94979105e-02f,-9.96013209e-02f,+2.38411039e-01f,+1.91794723e-01f,
-8.81063268e-02f,-8.70289456e-04f,+1.71982244e-01f,+3.76943760e-02f,+2.12880716e-01f,
-4.95794453e-02f,+3.54789227e-01f,+4.30798411e-01f,+1.33971676e-01f,-1.11923501e-01f,
+1.54061422e-01f,-8.68909359e-02f,+3.09998959e-01f,+1.43670440e-01f,-1.19725438e-02f,
+1.48760557e-01f,+4.79266644e-02f,-6.00894019e-02f,+3.23963873e-02f,+2.91408479e-01f,
+1.28330722e-01f,+1.55851254e-02f,+1.81853808e-02f,+1.44086823e-01f,-8.48843530e-02f,
+1.04219373e-03f,+6.15279796e-03f,+1.52204558e-01f,-3.94254886e-02f,+3.13773215e-01f,
-1.67464748e-01f,+1.53677939e-02f,+2.84446508e-01f,+1.88192606e-01f,+1.60162017e-01f,
-8.23222250e-02f,+3.93590480e-01f,-4.68641333e-02f,-3.97260249e-01f,+9.88865346e-02f,
+1.39150366e-01f,-6.02505775e-03f,+2.68399417e-01f,-1.68053480e-03f,+5.12263119e-01f,
+2.89605707e-02f,+7.37654939e-02f,-2.38908306e-02f,-1.62265554e-01f,+1.60633191e-01f,
+1.10671930e-01f,+6.21521436e-02f,+4.28762985e-03f,+2.14949310e-01f,+2.92094722e-02f,
-1.01235606e-01f,+7.89853483e-02f,-1.01312175e-01f,+1.36850148e-01f,+8.75755772e-02f,
+1.96780726e-01f,+3.61551046e-01f,-1.44563958e-01f,+2.07402736e-01f,-2.59917583e-02f,
-1.00877345e-01f,-1.63389489e-01f,+8.33733827e-02f,-5.51706553e-03f,-2.72291362e-01f,
-2.44300589e-01f,+2.84457020e-03f,-1.13845266e-01f,+1.19250514e-01f,-5.16660213e-02f,
+2.13145837e-01f,+1.31313339e-01f,-6.44435212e-02f,+1.27361193e-01f,+3.72108119e-03f,
-6.07227199e-02f,-2.52748393e-02f,+2.65304625e-01f,+1.39688328e-01f,+2.93433685e-02f,
-3.13712627e-01f,+7.58943409e-02f,+1.66712373e-01f,+2.51465648e-01f,+3.64829041e-02f,
-2.32016624e-04f,-1.32508472e-01f,+1.47248521e-01f,+1.02760233e-01f,-1.39950095e-02f,
+8.91569853e-02f,+2.75256317e-02f,+3.20713311e-01f,-1.65152084e-02f,+1.74471587e-01f,
+1.20484121e-01f,+4.80670072e-02f,-8.79713148e-02f,-9.84474793e-02f,-2.79892106e-02f,
+1.21988773e-01f,+3.67589325e-01f,-1.63222387e-01f,-3.71968634e-02f,+6.54669702e-02f,
+2.28278741e-01f,-2.97503948e-01f,+1.88287809e-01f,+7.59044439e-02f,+2.53902286e-01f,
+5.46435565e-02f,+1.26912668e-01f,+2.93665200e-01f,-1.38181314e-01f,+2.08303720e-01f,
-1.02532834e-01f,-1.85661707e-02f,+8.63709077e-02f,-1.00783050e-01f,+1.06834643e-01f,
-7.20630437e-02f,+2.73622215e-01f,+2.82141892e-03f,-1.43084247e-02f,-9.59072337e-02f,
+1.26075685e-01f,-1.13096073e-01f,+9.39207003e-02f,+4.64158542e-02f,+1.51091397e-01f,
+2.90347785e-01f,-6.71899244e-02f,+5.15982024e-02f,-4.10522567e-03f,-1.68028355e-01f,
-1.74119860e-01f,-1.80482849e-01f,+5.32675013e-02f,+2.31601864e-01f,-6.25999505e-03f,
+7.60511085e-02f,+2.53077567e-01f,-3.36603880e-01f,-6.40915856e-02f,+1.23390406e-01f,
-1.66772399e-02f,+2.44047344e-01f,+2.49006212e-01f,+6.20388687e-02f,-4.75738943e-02f,
-5.23354188e-02f,+1.85617805e-02f,+1.08674668e-01f,+2.03322899e-02f,+6.25592619e-02f,
+2.48794824e-01f,+2.01877072e-01f,+2.49601796e-01f,+2.67363548e-01f,+3.18600804e-01f,
-9.81566608e-02f,+5.91742732e-02f,-8.33825991e-02f,+1.20729320e-01f,+2.60857213e-03f,
+1.09117761e-01f,+5.22522777e-02f,-2.50739604e-01f,-2.15345751e-02f,+1.52151659e-01f,
+1.72361210e-01f,+3.30107175e-02f,-7.08127767e-02f,-4.23027016e-02f,+2.46502921e-01f,
-7.88467228e-02f,+1.86491147e-01f,-1.20287418e-01f,+1.94385663e-01f,+1.82071358e-01f,
+6.87829498e-03f,+4.31648850e-01f,-1.85282845e-02f,-1.33511320e-01f,+9.39119756e-02f,
+2.53104400e-02f,+2.52813250e-01f,+2.42733613e-01f,+1.30416766e-01f,+4.61901501e-02f,
+1.44404575e-01f,-2.87015252e-02f,-4.03373279e-02f,-5.23871295e-02f,-6.95799813e-02f,
+1.24927774e-01f,+1.99572220e-01f,-2.95773208e-01f,+1.48226857e-01f,-7.45587051e-02f,
+2.49834985e-01f,-1.20687157e-01f,-6.16243929e-02f,-5.43857701e-02f,-1.95288041e-03f,
+8.80541280e-02f,+2.56672293e-01f,+5.81029467e-02f,+2.30361089e-01f,+9.44008827e-02f,
-1.67548046e-01f,+3.11412215e-01f,+1.86279029e-01f,-1.83422759e-01f,-4.42226417e-02f,
+2.12096214e-01f,+1.58607021e-01f,+7.68809542e-02f,-8.65094457e-03f,-2.59062797e-01f,
-6.37424141e-02f,+2.90085495e-01f,+2.74937712e-02f,-4.55582365e-02f,-4.51437607e-02f,
-7.26834685e-02f,-4.06473428e-01f,+2.84075350e-01f,+4.46771691e-03f,+2.49902066e-02f,
-2.16735317e-03f,+1.65455893e-01f,+3.87140840e-01f,-3.02015655e-02f,-3.03502023e-01f,
+2.55382538e-01f,+1.95238680e-01f,-1.30144417e-01f,+2.16855723e-02f,+2.04448923e-01f,
+2.80571669e-01f,-1.48688797e-02f,+2.95891196e-01f,+2.63916817e-03f,+1.64207146e-01f,
+1.47540122e-01f,+2.11165965e-01f,+1.29262224e-01f,+4.88205366e-02f,+2.50428975e-01f,
+1.76987588e-01f,-5.38760656e-03f,-3.85292113e-01f,+2.66587019e-01f,+1.54679969e-01f,
+1.16630405e-01f,+8.76048021e-03f,+2.62912631e-01f,+6.71024844e-02f,+1.59120232e-01f,
+2.71009412e-02f,+8.84760544e-02f,+2.11014405e-01f,+2.59290710e-02f,+2.47910127e-01f,
+1.39725640e-01f,-5.18738516e-02f,+7.00199306e-02f,+1.48320973e-01f,-1.69131219e-01f,
+3.49672854e-01f,+1.70937628e-02f,+1.90801263e-01f,+3.74319330e-02f,-4.63321917e-02f,
+5.82098328e-02f,+1.98407724e-01f,+1.49182126e-01f,+2.42594033e-01f,+1.09553158e-01f,
-1.44227117e-01f,-1.18338242e-01f,+9.42558125e-02f,-3.55945937e-02f,+1.26471609e-01f,
+1.86995760e-01f,-2.74727270e-02f,-4.49473001e-02f,+9.35081393e-02f,+1.71800226e-01f,
-3.19673942e-04f,+2.38840282e-01f,-1.14179634e-01f,+1.52359292e-01f,-7.05485344e-02f,
+3.64707969e-02f,-1.89209014e-01f,-1.00698166e-01f,-1.54108182e-01f,-1.35524543e-02f,
-1.45788435e-02f,-4.72457185e-02f,+2.13121474e-02f,+4.38185073e-02f,+1.79165229e-02f,
+1.74806535e-01f,-1.03670374e-01f,-7.72111565e-02f,+2.33345568e-01f,+5.70740849e-02f,
+1.74548894e-01f,+5.03573194e-02f,+1.76909100e-02f,+1.18676722e-01f,+3.30616921e-01f,
+8.98298323e-02f,+2.21203696e-02f,-5.33311702e-02f,+1.43590286e-01f,+7.76485493e-03f,
-1.77711070e-01f,-1.09667495e-01f,+1.27186909e-01f,+9.81461331e-02f,+5.01143456e-01f,
+5.37264757e-02f,+2.57472664e-01f,-2.15001419e-01f,+1.78669080e-01f,-5.65829091e-02f,
-1.39164865e-01f,-3.70237716e-02f,-2.22042292e-01f,-3.28876942e-01f,-5.92374615e-02f,
-3.40891853e-02f,-9.52825323e-02f,-1.63026392e-01f,+1.19012550e-01f,-1.50167746e-02f,
+2.05074891e-01f,+2.55230993e-01f,+4.98813242e-02f,+9.85959023e-02f,+3.26141745e-01f,
+2.66690195e-01f,+7.10562896e-03f,-1.25528753e-01f,-3.47696096e-02f,+1.48726717e-01f,
+2.87672013e-01f,+1.61621153e-01f,+1.00846523e-02f,+1.97579220e-01f,+3.70451882e-02f,
+4.85531315e-02f,-8.14283565e-02f,-2.72652656e-01f,-2.65179649e-02f,+1.43716231e-01f,
-1.17532507e-01f,-9.50179100e-02f,-8.34896564e-02f,+4.51265089e-02f,+7.21287802e-02f,
+7.64471851e-03f,+4.62930053e-02f,+1.06519997e-01f,+1.35157064e-01f,+3.32931429e-02f,
+7.89204799e-03f,+9.34821144e-02f,-4.70038913e-02f,+7.17972219e-02f,+2.38843247e-01f,
-2.92862833e-01f,+1.64393455e-01f,-1.06861912e-01f,-2.25268468e-01f,+1.50232419e-01f,
-8.69465247e-02f,-2.95470804e-01f,+1.32681414e-01f,+6.23332709e-02f,-1.46774175e-02f,
+1.21325240e-01f,+1.06566966e-01f,+4.46300268e-01f,+1.49484411e-01f,-1.41416378e-02f,
+1.35419860e-01f,-9.83807538e-03f,+1.77638397e-01f,+5.88203445e-02f,+3.09620705e-03f,
+1.48221597e-01f,+3.52407753e-01f,-6.66355789e-02f,+2.45381501e-02f,-1.56680241e-01f,
+2.38556772e-01f,+1.70302555e-01f,-3.26416105e-01f,+5.10368608e-02f,+1.53916776e-01f,
-1.51074640e-02f,-1.01308189e-01f,-6.86774170e-03f,-1.73298623e-02f,+4.45443504e-02f,
+1.82097591e-02f,-1.42236426e-01f,-1.23078199e-02f,+2.20724493e-01f,+6.44719675e-02f,
+3.20572972e-01f,-5.12252143e-03f,+3.32332551e-02f,+4.97945324e-02f,+2.79042989e-01f,
-1.27167508e-01f,-1.54954255e-01f,+2.66216308e-01f,+4.20152955e-03f,-1.74607173e-01f,
+3.56890634e-02f,+8.47735330e-02f,+1.36059657e-01f,+1.44563094e-01f,+3.12619269e-01f,
-1.01633016e-02f,-6.70299977e-02f,+1.78650916e-01f,-8.26168507e-02f,+3.88987665e-03f,
-5.90879507e-02f,-2.75165644e-02f,+6.32184371e-02f,-5.89360707e-02f,-2.46365339e-01f,
-3.32436562e-01f,+1.09192647e-01f,+1.24711640e-01f,+9.50144231e-03f,+1.37509704e-01f,
-1.66181773e-01f,-1.59296915e-02f,+1.35235041e-01f,+3.85985017e-01f,-1.17342891e-02f,
-8.97252038e-02f,-5.29793240e-02f,+2.20092349e-02f,+9.87238139e-02f,+2.55532324e-01f,
+6.20801710e-02f,+1.23047270e-01f,-4.79420424e-02f,-9.89185721e-02f,+1.84347227e-01f,
-9.30091590e-02f,-1.22937270e-01f,+1.11719936e-01f,+1.69350564e-01f,+5.10810390e-02f,
+1.52747616e-01f,-1.26602247e-01f,+2.64156193e-01f,+2.35576443e-02f,+6.98027611e-02f,
+1.09666958e-01f,-4.81752641e-02f,+5.88284917e-02f,-1.07733659e-01f,-3.01215053e-03f,
-7.77776958e-03f,+3.27906758e-01f,-1.51477866e-02f,+7.62930140e-02f,+1.64358348e-01f,
+1.44715868e-02f,-3.68130147e-01f,+8.22895542e-02f,+1.96675118e-02f,-3.06038886e-01f,
-4.94709164e-02f,+2.23810766e-02f,+4.75442857e-02f,-7.49685392e-02f,-9.47189406e-02f,
-5.47133163e-02f,-2.20985770e-01f,+2.77591050e-01f,+2.48561166e-02f,-2.95720510e-02f,
-6.73343311e-04f,+5.44866621e-02f,+1.87194776e-02f,-3.55292186e-02f,-1.36550749e-03f,
+4.65546608e-01f,+4.34587635e-02f,+3.27753164e-02f,+7.76784355e-03f,+1.93953782e-01f,
+1.23276293e-01f,+5.70990657e-03f,-4.77500522e-04f,+1.48042619e-01f,+1.24829290e-02f,
+1.14338830e-01f,-2.80764345e-02f,+1.89345628e-01f,-2.45800659e-01f,-4.61799204e-02f,
+1.94689855e-02f,+2.66037494e-01f,-1.36613697e-02f,-6.52834848e-02f,+2.41245940e-01f,
-5.57999089e-02f,-2.26891011e-01f,+9.94985625e-02f,+3.98224965e-02f,+1.75192714e-01f,
-2.20581904e-01f,+1.33480534e-01f,+9.72679853e-02f,-3.47031057e-01f,+1.66775256e-01f,
+7.97544345e-02f,+1.32306367e-01f,+6.10934161e-02f,+1.43576413e-01f,+7.50376657e-02f,
+2.01861218e-01f,-7.58032799e-02f,+9.33703333e-02f,-6.22013584e-03f,+1.91728294e-01f,
-3.22432593e-02f,+1.36229619e-01f,-9.42481458e-02f,+1.98712230e-01f,-4.61047553e-02f,
-6.94783181e-02f,+7.97081292e-02f,-2.16210559e-01f,+3.07311155e-02f,+2.19998375e-01f,
+1.20265268e-01f,+1.10599957e-01f,+7.91503787e-02f,+4.99507993e-01f,+1.84635565e-01f,
+1.44243911e-02f,+1.95902889e-03f,+2.21215636e-01f,+1.93908304e-01f,+8.02089348e-02f,
+4.12262045e-02f,+5.94859533e-02f,+6.75700530e-02f,+2.79113442e-01f,+4.97297905e-02f,
+1.17246039e-01f,+2.91749150e-01f,+1.30280197e-01f,-9.39993560e-03f,+1.83911994e-01f,
+2.88728457e-02f,-2.61766138e-03f,-1.48143604e-01f,+3.09424251e-01f,-9.26785264e-03f,
-1.18864767e-01f,+1.70909777e-01f,-4.61066067e-02f,+1.94076285e-01f,-1.28643230e-01f,
+8.50115716e-02f,+1.62131637e-01f,+1.68196872e-01f,+2.52203587e-02f,+9.76663604e-02f,
-9.79511887e-02f,+7.59177208e-02f,-1.85158700e-01f,+1.91870034e-02f,+9.92051065e-02f,
-8.52200761e-02f,-1.26274541e-01f,+2.20873848e-01f,+6.28720075e-02f,+4.10982907e-01f,
+9.21964124e-02f,+5.57773300e-02f,+7.06614479e-02f,+6.24639206e-02f,+1.63971975e-01f,
-3.59156467e-02f,+5.95390052e-02f,+3.54076356e-01f,+1.48311537e-02f,-3.56497586e-01f,
+1.56044289e-01f,+1.78968161e-01f,+1.73473448e-01f,-7.20201358e-02f,-1.72289610e-01f,
+6.53320402e-02f,+5.75280599e-02f,+2.69738436e-01f,-4.93590487e-03f,-4.07538712e-02f,
-1.12618200e-01f,-3.61784361e-02f,+2.97924608e-01f,+2.54070848e-01f,+3.78878191e-02f,
+7.90497661e-02f,-1.03020474e-01f,+5.46095781e-02f,-1.37065023e-01f,+2.18720399e-02f,
+1.13806069e-01f,-6.38334230e-02f,+2.26623192e-01f,+2.16030493e-01f,+1.08633243e-01f,
-1.57899201e-01f,+8.07557777e-02f,-3.75515968e-02f,+4.08910774e-02f,+1.12454318e-01f,
-4.73137461e-02f,+1.57519616e-02f,-1.33784190e-01f,-2.54150908e-02f,+2.52020210e-01f,
+2.66486645e-01f,+1.29371196e-01f,-6.27104342e-02f,-8.63590688e-02f,+1.82213895e-02f,
+7.71852285e-02f,+1.20275214e-01f,+1.85330436e-01f,+2.18119353e-01f,-5.68972640e-02f,
-6.90746233e-02f,-7.92054534e-02f,+2.71452487e-01f,-8.35831314e-02f,-1.01711340e-01f,
+9.01119858e-02f,+1.89158127e-01f,-1.54483780e-01f,-1.10470566e-04f,+3.45880613e-02f,
-8.56950134e-02f,+5.75771891e-02f,+6.63003474e-02f,-3.02484389e-02f,+5.51825874e-02f,
-1.62757203e-01f,-2.82876496e-03f,+1.63957655e-01f,+1.63714021e-01f,+1.17588617e-01f,
-1.36297032e-01f,+1.47911102e-01f,+2.21114144e-01f,+1.08392052e-01f,+2.17897847e-01f,
+1.67195082e-01f,-3.77976373e-02f,+3.73477995e-01f,+1.19423337e-01f,+1.06472738e-01f,
-2.63187051e-01f,-2.97976851e-01f,+1.77083150e-01f,+4.19331081e-02f,-9.80496407e-02f,
+5.99464998e-02f,+5.35058714e-02f,-2.94162095e-01f,+3.21043767e-02f,+1.61453456e-01f,
+1.73283502e-01f,+3.44526738e-01f,+1.44049689e-01f,+2.50474423e-01f,-7.23816082e-03f,
+4.46930200e-01f,+5.02153821e-02f,-1.03641162e-02f,+1.82241753e-01f,+1.09352833e-02f,
+1.35333940e-01f,+3.24498001e-03f,+2.47301117e-01f,-7.99029469e-02f,+1.27398536e-01f,
-2.09047943e-01f,+1.02574967e-01f,+2.13649273e-02f,-2.70197261e-02f,+1.30040765e-01f,
-7.38225132e-02f,+3.62135112e-01f,-5.19213341e-02f,-2.85375834e-01f,-2.41846088e-02f,
-1.38415530e-01f,+2.41046354e-01f,-2.64322877e-01f,+2.33109787e-01f,+2.85717964e-01f,
+3.32065493e-01f,+1.32916480e-01f,+3.08492314e-02f,-1.85959172e-02f,-4.67017712e-03f,
+2.57954244e-02f,-4.37160462e-01f,+1.36374786e-01f,+1.04919001e-01f,+1.08406134e-01f,
+2.07042456e-01f,+7.72033557e-02f,+4.18500714e-02f,+2.24470929e-03f,+9.81010273e-02f,
+1.85053736e-01f,+2.13130534e-01f,+2.26954445e-01f,-7.45536834e-02f,+1.33764848e-01f,
+2.73239929e-02f,+1.76837102e-01f,+1.67651892e-01f,+2.48341680e-01f,-9.01694596e-03f,
-8.27500373e-02f,+9.87469330e-02f,+7.49564618e-02f,-6.46388605e-02f,+1.72601417e-01f,
-1.69783365e-02f,+1.16297089e-01f,-6.96015358e-02f,-8.29170365e-03f,+1.56606268e-02f,
+4.60650027e-02f,+3.64353210e-02f,+1.23101905e-01f,+2.38661677e-01f,-2.68418808e-02f,
-1.08211070e-01f,-3.47095579e-02f,-1.92411840e-01f,-5.65954372e-02f,-7.41752982e-02f,
-2.33896282e-02f,-6.68035299e-02f,+1.02362484e-01f,-6.98724575e-03f,-1.73144042e-03f,
-3.94079566e-01f,-4.46415022e-02f,-1.64984897e-01f,+1.73978135e-01f,+6.83200657e-02f,
+1.01707228e-01f,+8.78557190e-02f,+1.40633196e-01f,-9.22813863e-02f,-3.15774493e-02f,
-2.01609820e-01f,-9.03637260e-02f,+1.24424309e-01f,+9.59249660e-02f,-8.83964226e-02f,
+2.35359728e-01f,+1.41876802e-01f,+1.28090039e-01f,-3.26342769e-02f,-2.02075273e-01f,
-2.25465328e-01f,-7.32294619e-02f,+7.58575229e-03f,+9.28905234e-02f,+2.13657528e-01f,
+9.71324965e-02f,+1.81283802e-02f,-1.51314288e-01f,-7.15569034e-02f,-1.29036859e-01f,
+2.38901392e-01f,-4.46272343e-02f,+3.20650578e-01f,+3.22858547e-03f,-2.24928409e-02f,
-7.42508769e-02f,+1.55156955e-01f,+2.61875004e-01f,-1.41668901e-01f,+1.14501454e-01f,
-6.96848556e-02f,+1.86557230e-02f,+9.71963853e-02f,-4.56951819e-02f,-9.26810037e-03f,
+6.78607076e-02f,+6.11711927e-02f,-1.36595413e-01f,-2.49824807e-01f,+3.51714268e-02f,
+1.64366901e-01f,+4.16580327e-02f,+4.25728969e-02f,-4.81927134e-02f,+2.30017025e-02f,
+2.89402138e-02f,+8.12350959e-02f,+2.09184989e-01f,-1.70740150e-02f,-1.24447554e-01f,
-7.68762920e-03f,+6.62835538e-02f,-4.53941748e-02f,+9.77019295e-02f,-1.58066124e-01f,
+1.53942510e-01f,-9.16818157e-02f,-2.16659997e-02f,+1.09407403e-01f,-1.90656662e-01f,
+1.00587006e-03f,-1.10781305e-02f,+2.92755991e-01f,-1.06253639e-01f,+2.16633692e-01f,
+2.48914242e-01f,+2.66006067e-02f,-1.09050900e-01f,-1.85440853e-02f,+1.34065505e-02f,
+9.64660794e-02f,-2.23622657e-02f,-3.60931277e-01f,+1.54598862e-01f,+6.33590296e-02f,
+1.12112656e-01f,+1.29912263e-02f,-3.35487761e-02f,+2.01644167e-01f,+2.12404862e-01f,
+8.07041451e-02f,-1.21602520e-01f,+1.80998445e-01f,+1.12829454e-01f,+5.63420281e-02f,
+1.51543438e-01f,+1.55353779e-02f,+2.40407363e-01f,+4.98387367e-02f,+2.89279222e-01f,
+3.34167093e-01f,+3.79310213e-02f,-8.44901726e-02f,-4.43413071e-02f,-1.40516698e-01f,
+9.67709348e-02f,+1.69383623e-02f,-5.78527451e-02f,-6.39150813e-02f,-1.17501460e-01f,
+6.39352500e-02f,+1.42667457e-01f,-1.20652348e-01f,+2.09886447e-01f,+2.10084096e-01f,
-1.24432191e-01f,-2.16515847e-02f,-6.47998080e-02f,+4.16972712e-02f,+3.35326716e-02f,
+2.54618496e-01f,+1.75466150e-01f,+1.06867567e-01f,+7.17908591e-02f,+1.58602912e-02f,
+3.61975282e-01f,+2.45804489e-02f,+1.29553422e-01f,+1.68440805e-03f,+1.09992651e-02f,
-2.29104340e-01f,+2.74259716e-01f,+1.41738569e-02f,+1.07495978e-01f,-1.68182373e-01f,
-2.91518606e-02f,+2.33954757e-01f,-2.37800498e-02f,+5.41127734e-02f,-9.54405218e-03f,
+1.23717234e-01f,+1.38084084e-01f,+3.22388522e-02f,+2.98903175e-02f,+1.14302501e-01f,
+1.35752439e-01f,+6.13641553e-02f,+5.52191632e-03f,+8.78463909e-02f,+4.50569540e-01f,
-3.79976094e-01f,+1.11266993e-01f,-7.48923346e-02f,+6.50496259e-02f,+4.13563758e-01f,
+2.27907822e-01f,+7.08891749e-02f,-1.22876383e-01f,+2.50859678e-01f,-1.50983492e-02f,
+1.00278839e-01f,+3.69593799e-02f,+1.46945238e-01f,+1.09848820e-01f,-1.91765919e-01f,
+2.21901715e-01f,+6.62627816e-02f,+5.04043922e-02f,+1.14536293e-01f,-6.11338466e-02f,
+1.49543166e-01f,-3.60243171e-02f,+8.01520888e-03f,+3.06049008e-02f,+1.08550966e-01f,
+9.08188373e-02f,+4.87189405e-02f,-1.38370961e-01f,+1.76781327e-01f,-3.32628973e-02f,
+1.03095481e-02f,+1.70194775e-01f,-2.04427703e-03f,+9.77976099e-02f,+2.99541324e-01f,
+6.72319829e-01f,+1.97486714e-01f,+2.09361017e-02f,-4.31182003e-03f,+1.65811345e-01f,
-9.85224992e-02f,+2.57743225e-02f,+1.94389343e-01f,+1.28632113e-01f,-2.01709315e-01f,
-1.01801343e-01f,+3.32126737e-01f,-2.50993930e-02f,+1.91171288e-01f,+3.36214639e-02f,
+5.40370829e-02f,+9.55307037e-02f,-1.80923179e-01f,+1.31366909e-01f,+6.03201240e-02f,
-7.55329072e-01f,+8.55249524e-01f,+1.34793937e-01f,-2.86628008e-02f,-2.76677236e-02f,
-2.00125694e-01f,-3.05566043e-02f,-2.97432998e-03f,+1.42837986e-01f,-2.06517547e-01f,
-4.37079780e-02f,+8.07408839e-02f,+1.55732319e-01f,+5.36416331e-03f,+8.29161182e-02f,
+8.51569399e-02f,+1.92561969e-01f,+6.99048415e-02f,+4.60325815e-02f,+1.95635900e-01f,
-1.92164406e-01f,-7.63331801e-02f,+1.05095416e-01f,+1.75216999e-02f,+2.57005006e-01f,
-4.67900001e-02f,+3.04738879e-01f,+9.18433219e-02f,-1.36886597e-01f,+2.57930189e-01f,
+3.79817754e-01f,+4.54617143e-02f,+1.77191392e-01f,-9.30716619e-02f,-1.10325411e-01f,
+1.08591592e+00f,+1.36553749e-01f,+3.24281342e-02f,+1.44088522e-01f,+7.96154588e-02f,
+1.03462962e-02f,+1.36588857e-01f,-2.16913685e-01f,-2.60422286e-03f,+3.27336818e-01f,
+2.78222207e-02f,-2.97619328e-02f,+2.95469612e-01f,+1.41780883e-01f,+6.85509220e-02f,
+2.27564037e-01f,-5.37646413e-01f,+2.54495591e-02f,+2.12768435e-01f,+1.15755305e-01f,
+2.83870667e-01f,-2.97022108e-02f,-2.39724442e-01f,-2.21557423e-01f,+1.62517235e-01f,
-4.36124772e-01f,+1.70716479e-01f,+1.46814287e-01f,+2.23108545e-01f,-5.34782298e-02f,
+4.03990177e-03f,+2.33368501e-01f,+1.15823308e-02f,-6.03035949e-02f,-2.02750877e-01f,
+4.22902312e-03f,+1.21064633e-01f,+1.69327572e-01f,+2.32173707e-02f,+5.51565997e-02f,
+3.18726450e-02f,+1.87860534e-01f,-8.60380083e-02f,+1.76100001e-01f,+2.58550704e-01f,
+1.40999228e-01f,+2.30266586e-01f,+9.26938802e-02f,+7.10135162e-01f,+5.77770062e-02f,
+7.44535727e-03f,+3.20892096e-01f,+1.49762347e-01f,-6.73778206e-02f,-3.56156789e-02f,
+1.47963986e-01f,+3.07130981e-02f,-7.48017952e-02f,+1.42375857e-01f,+7.58181587e-02f,
+2.20038563e-01f,+1.34206444e-01f,+1.75956145e-01f,+5.85029367e-03f,+1.86996475e-01f,
-4.81700338e-02f,+1.28816947e-01f,-3.27651277e-02f,-6.61755502e-01f,-4.97250929e-02f,
+3.80875736e-01f,+9.39616188e-02f,+7.91630149e-02f,+1.92375302e-01f,+2.01412857e-01f,
+1.88264877e-01f,-3.38304862e-02f,-4.16538477e-01f,-2.05635026e-01f,+9.39102396e-02f,
+1.28890499e-01f,+1.93895251e-02f,+1.44667253e-01f,+6.03406467e-02f,+1.51719496e-01f,
+3.80831182e-01f,+1.87487096e-01f,-2.22504586e-01f,-1.25385568e-01f,+2.19010964e-01f,
-1.64784446e-01f,+5.03914207e-02f,+2.70473421e-01f,-1.69938788e-01f,+1.18131228e-01f,
-6.37802064e-01f,-2.72634953e-01f,-2.63900042e-01f,-2.83898320e-02f,+3.91100310e-02f,
-8.25064182e-02f,+1.92835987e-01f,+1.54574230e-01f,+1.13331437e-01f,-7.75049031e-02f,
+1.80556938e-01f,-1.19478263e-01f,+1.34012103e-01f,-1.35322616e-01f,+1.21302851e-01f,
+1.17920740e-02f,+2.84689873e-01f,+8.16776827e-02f,-2.54572760e-02f,+1.26467630e-01f,
+2.85558492e-01f,+2.07015768e-01f,+3.09746474e-01f,+4.38305557e-01f,+1.42213300e-01f,
+1.92417622e-01f,+6.16776384e-02f,-3.68751198e-01f,+7.93752372e-01f,+1.57342348e-02f,
+1.01577081e-01f,+1.32244274e-01f,+3.99412423e-01f,+1.70327380e-01f,-4.70402427e-02f,
-7.18804915e-03f,-1.10485129e-01f,-2.21212278e-03f,+2.91180819e-01f,-6.19802289e-02f,
-9.14609879e-02f,+2.27191299e-01f,+1.35169685e-01f,+1.44445345e-01f,+1.31320342e-01f,
-1.56387120e-01f,-6.64553791e-03f,+3.72873619e-02f,-3.77845485e-03f,+1.14023276e-01f,
-1.09070465e-01f,+4.53613437e-04f,+8.84529948e-01f,+1.54542491e-01f,+4.58352827e-02f,
+3.01430464e-01f,-1.47465393e-01f,-9.64469044e-04f,+2.04050392e-01f,+3.09499237e-03f,
-3.35607305e-03f,-1.22600555e-01f,+5.71734086e-02f,+1.15023710e-01f,+9.29587930e-02f,
+1.39138162e-01f,-1.36136115e-01f,-1.52766243e-01f,+1.95846915e-01f,-9.51085910e-02f,
+7.91338757e-02f,+1.53337851e-01f,-2.96806153e-02f,+2.21519157e-01f,-8.30059424e-02f,
+2.32260123e-01f,+1.93800524e-01f,+4.14234430e-01f,-8.20985064e-02f,+4.16840501e-02f,
+1.17997266e-01f,+1.60528719e-01f,+1.62292972e-01f,-3.04563511e-02f,-3.48899774e-02f,
+1.22020073e-01f,-1.91707060e-01f,+3.00395578e-01f,-2.54338346e-02f,+8.58165503e-01f,
-4.86165611e-03f,-4.40425985e-02f,-3.23992148e-02f,-5.41379750e-02f,-1.31960660e-01f,
+3.45258825e-02f,+3.66879642e-01f,+4.22364175e-01f,+2.17195302e-01f,-8.19464400e-02f,
+2.88382545e-02f,+1.81424171e-02f,+9.07977372e-02f,+1.86004773e-01f,+2.27938369e-01f,
-3.36718187e-02f,+8.14568922e-02f,-1.97989792e-02f,-3.26572686e-01f,-1.77690551e-01f,
-8.56378078e-02f,+1.23446412e-01f,+1.21987477e-01f,+1.73300073e-01f,+5.26029706e-01f,
+2.47625247e-01f,+1.65547132e-01f,-2.82621086e-02f,+1.74552351e-01f,+5.12694269e-02f,
+1.58105701e-01f,+4.28787544e-02f,-6.48595169e-02f,+1.40816212e-01f,+8.11097473e-02f,
+8.81883949e-02f,-9.63648111e-02f,+2.13638414e-02f,+1.17889009e-02f,+1.01891503e-01f,
+1.32037595e-01f,+4.15699696e-03f,-4.95693684e-02f,+9.15173255e-03f,-7.39921490e-03f,
-2.90047713e-02f,+2.91155875e-02f,-2.29881451e-01f,-4.84701730e-02f,+7.56429955e-02f,
+1.92899797e-02f,+1.32357076e-01f,+1.28753964e-04f,-1.60436466e-01f,+1.85920075e-02f,
-1.01308517e-01f,+1.71663449e-03f,+8.29809606e-02f,+6.35357350e-02f,+2.90214475e-02f,
+9.04776007e-02f,+6.57775477e-02f,+3.56536396e-02f,+7.91983977e-02f,+2.79448237e-02f,
-1.16875852e-02f,+6.41130358e-02f,-1.14374876e-01f,-4.77925576e-02f,+1.73902243e-01f,
+1.79936349e-01f,+8.28353688e-02f,+6.16964027e-02f,+1.20000076e-02f,+2.29409616e-03f,
+6.72539398e-02f,-6.98356703e-02f,-7.07842261e-02f,+1.93496212e-01f,-9.99222398e-02f,
-1.78436980e-01f,+6.91786557e-02f,-4.38543642e-03f,+4.77620289e-02f,-2.85270035e-01f,
+8.12637135e-02f,+1.45765871e-01f,+1.03979781e-01f,+2.12124828e-02f,+8.44760984e-02f,
+5.59048429e-02f,-3.89283597e-02f,+1.14543781e-01f,-7.94845968e-02f,+9.35666114e-02f,
-8.06586444e-02f,+4.11689617e-02f,-8.66492689e-02f,+3.91358510e-02f,+1.12414069e-01f,
+1.03537645e-03f,-1.24841720e-01f,+6.96886182e-02f,+4.39021029e-02f,+4.63459074e-01f,
-2.09061518e-01f,-3.28860506e-02f,+4.61091436e-02f,+1.70902327e-01f,+5.84792420e-02f,
+6.83169067e-02f,+1.16749279e-01f,+3.44695896e-02f,+1.18426822e-01f,-6.92745894e-02f,
+1.27053350e-01f,-1.09164104e-01f,-1.21880528e-02f,+5.09672165e-02f,-4.53310013e-02f,
-2.40993476e-03f,-1.35146072e-02f,+2.16925908e-02f,-1.57276075e-02f,+5.40718390e-03f,
+6.33362457e-02f,+6.91154925e-03f,+3.60590629e-02f,+1.09303482e-01f,-8.38395115e-03f,
-1.30116925e-01f,-3.66509438e-01f,+1.16785606e-02f,+1.75828431e-02f,+3.03095877e-02f,
+2.92906445e-03f,+1.40149325e-01f,+1.05861403e-01f,+1.20576940e-01f,-4.02322233e-01f,
+2.46366188e-02f,-4.29106876e-02f,+9.11226273e-02f,-4.49394435e-02f,+4.42866050e-02f,
+7.44543821e-02f,+2.08082139e-01f,+3.93125154e-02f,+8.74863937e-02f,+5.45975640e-02f,
+2.93657601e-01f,+2.08212703e-01f,+2.08968129e-02f,+1.58776902e-02f,+1.90438613e-01f,
+2.12735459e-02f,+6.81944489e-02f,-8.07996560e-03f,+1.49987102e-01f,-7.97722414e-02f,
+6.59682304e-02f,-4.14050631e-02f,+9.33787003e-02f,-9.57782790e-02f,+2.43400246e-01f,
-1.77669868e-01f,+7.90629834e-02f,+9.94572267e-02f,-2.98616923e-02f,+2.86405623e-01f,
+5.81569672e-02f,+1.34048253e-01f,+2.15758935e-01f,+1.57689795e-01f,+5.56821898e-02f,
+2.33534485e-01f,-3.58932205e-02f,-4.87105772e-02f,-4.81648790e-03f,+1.01439893e-01f,
+3.67222019e-02f,+1.24627061e-01f,+7.51553755e-03f,+1.02715410e-01f,+2.40727976e-01f,
+1.88319422e-02f,+3.10720149e-02f,-3.13309044e-01f,+6.79927543e-02f,-4.63440418e-02f,
-1.16061047e-02f,-1.77132860e-02f,+6.98642954e-02f,+1.99504256e-01f,+1.21528648e-01f,
-8.22220519e-02f,+2.33668946e-02f,+1.52506568e-02f,-1.03504859e-01f,+1.59717500e-01f,
-1.08601991e-02f,-8.68525676e-05f,+1.41956866e-01f,+7.98313320e-02f,+1.26277097e-02f,
-7.36207217e-02f,-1.05360948e-01f,+2.32986003e-01f,+3.81084941e-02f,+1.61836855e-02f,
+1.81544349e-01f,+7.45100379e-02f,-5.41278385e-02f,+6.37437701e-02f,-1.06982663e-01f,
-6.00024350e-02f,+1.16008610e-01f,+1.97507180e-02f,-1.05155081e-01f,+4.68847230e-02f,
+1.88262880e-01f,-5.15013449e-02f,+9.76329893e-02f,+9.86632258e-02f,-1.82063654e-02f,
+1.78032182e-02f,+1.26928762e-01f,-4.29034196e-02f,-5.96195050e-02f,+1.95700243e-01f,
-1.00747898e-01f,-7.50234444e-03f,+5.06198592e-02f,+6.13137595e-02f,+3.63517940e-01f,
+4.65478040e-02f,+2.48712748e-01f,-1.23933941e-01f,+1.44578040e-01f,-6.81765610e-03f,
+1.54101551e-01f,+1.32044375e-01f,+2.78738234e-02f,+1.20562412e-01f,+1.35544673e-01f,
+2.27299288e-01f,+1.70126632e-01f,+1.45652607e-01f,+1.42560750e-01f,-9.30609480e-02f,
+6.18382730e-02f,-2.29760297e-02f,+2.39050850e-01f,+2.54491955e-01f,-7.92585313e-02f,
-6.22033551e-02f,+5.98864704e-02f,-2.14764457e-02f,+1.78418353e-01f,-3.25339958e-02f,
+1.17275268e-01f,+2.81593762e-02f,-2.82792330e-01f,-1.41834944e-01f,+5.46331555e-02f,
+1.37850925e-01f,+1.33666277e-01f,+4.16499302e-02f,-2.05972970e-01f,+4.77468856e-02f,
+6.06986433e-02f,+1.40700072e-01f,+1.17242269e-01f,+5.50610833e-02f,+4.49920706e-02f,
+5.95395342e-02f,-9.99250337e-02f,-4.94924635e-02f,+6.27336651e-02f,+2.29614675e-01f,
+8.10854957e-02f,-4.64926567e-03f,+2.20347911e-01f,+1.09188251e-01f,+2.77913138e-02f,
-6.22194000e-02f,-5.20251453e-01f,+1.31060168e-01f,+3.20072402e-03f,+5.72217442e-02f,
+7.50716478e-02f,-1.30634144e-01f,+3.79579812e-02f,+1.43678829e-01f,-5.56780212e-02f,
+4.47228514e-02f,+1.01668388e-01f,+6.30763918e-02f,-9.92645323e-02f,+2.63765186e-01f,
+3.91297266e-02f,+1.13909543e-01f,-1.27804220e-01f,+8.89666006e-02f,-1.09887011e-01f,
+6.53639436e-02f,+3.37481499e-03f,-9.15912390e-02f,+7.14390576e-02f,+6.20174929e-02f,
+1.69230327e-01f,-1.37712985e-01f,-3.24412175e-02f,+6.21736683e-02f,+1.38437180e-02f,
+2.37320438e-01f,+2.01153178e-02f,+9.16885138e-02f,+8.28711465e-02f,+6.23073243e-02f,
+4.52666909e-01f,+6.11436181e-02f,+1.88369840e-01f,-2.89711326e-01f,+3.49428415e-01f,
+8.78435224e-02f,-2.53109094e-02f,-1.13546222e-01f,-5.90509661e-02f,+2.79180892e-02f,
-1.30879536e-01f,-3.62648107e-02f,-6.88818246e-02f,+2.07468361e-01f,-6.15273323e-03f,
+4.40136567e-02f,+2.49505043e-01f,+1.82968423e-01f,-1.64894611e-01f,+1.92723379e-01f,
-3.89362574e-02f,+1.05221510e-01f,+4.62793559e-01f,+9.65048820e-02f,-1.25344411e-01f,
+1.80293158e-01f,+3.64594609e-02f,+1.40840299e-02f,-4.24290687e-01f,-2.33877003e-01f,
-7.23314658e-02f,+4.75179590e-02f,-1.48870170e-01f,+1.26266584e-01f,+1.49136052e-01f,
+1.18542291e-01f,+4.61651012e-02f,-6.14719884e-03f,+1.75583690e-01f,+8.30122009e-02f,
+4.23500240e-02f,+1.40582994e-01f,-1.01145260e-01f,+1.58670649e-01f,+1.34020671e-01f,
+1.19562969e-01f,+8.69572908e-02f,+1.08266890e-01f,-1.07171051e-02f,+1.43597424e-01f,
+3.01518682e-02f,+2.42076278e-01f,+7.94451509e-04f,+2.35399008e-01f,+5.11085279e-02f,
-7.28303567e-03f,+3.23205702e-02f,+1.97822452e-01f,+2.27281395e-02f,+5.94159290e-02f,
+1.02666706e-01f,+3.21693867e-02f,+1.29410522e-02f,-5.72334938e-02f,+2.54997034e-02f,
+1.17832385e-01f,+4.99664098e-02f,+1.49595976e-01f,+2.43703127e-01f,+5.17193004e-02f,
-1.33756056e-01f,+1.36002257e-01f,+1.53522789e-01f,-5.71120866e-02f,+8.80721062e-02f,
-4.45866287e-02f,+1.32805154e-01f,+1.10003307e-01f,+5.61662167e-02f,+1.95272878e-01f,
+9.86259133e-02f,+2.00836256e-01f,+1.25287637e-01f,+1.21209465e-01f,+1.61919579e-01f,
+1.05670594e-01f,-2.91170832e-02f,+8.58679563e-02f,+1.19690545e-01f,-3.88371036e-03f,
+1.04892701e-01f,+1.34620056e-01f,-6.13282481e-03f,-2.02919506e-02f,+9.01307445e-03f,
+3.88037935e-02f,+2.11770963e-02f,+1.84677497e-01f,+2.08676737e-02f,+1.11912616e-01f,
-9.55412239e-02f,+1.47273719e-01f,-8.20486865e-04f,+8.79582688e-02f,+2.66963057e-02f,
-2.90983375e-02f,-6.51345402e-02f,+3.05112422e-01f,+2.40083158e-01f,-1.12372981e-02f,
-9.65922419e-03f,+1.32022187e-01f,-3.46866883e-02f,+1.04185440e-01f,-7.63875395e-02f,
-6.26939759e-02f,+8.54408368e-02f,-9.97338537e-03f,+7.37707764e-02f,+1.63714200e-01f,
+1.77250102e-01f,+7.01238140e-02f,+5.72239012e-02f,+8.94814953e-02f,+1.22010760e-01f,
+5.53225726e-02f,+9.88800153e-02f,+4.27110344e-02f,+8.37799534e-02f,-4.69094329e-02f,
+1.26924038e-01f,+6.00206256e-02f,+3.81007860e-03f,+1.31188393e-01f,+5.73503524e-02f,
+1.71326831e-01f,+5.18153384e-02f,-1.17187575e-01f,+2.88562104e-02f,+1.19536906e-01f,
-3.10844574e-02f,-1.43276021e-01f,-8.68022740e-02f,+1.38892420e-02f,-2.51541585e-02f,
+1.18824884e-01f,-1.78087074e-02f,+5.98506182e-02f,+1.30452305e-01f,+7.17447028e-02f,
+2.55864253e-03f,-3.38886231e-02f,+1.46505132e-01f,+8.12143907e-02f,-1.38380289e-01f,
-1.49933383e-01f,+5.81331700e-02f,+1.53637961e-01f,-6.99478528e-03f,+2.26792350e-01f,
+1.55607276e-02f,+2.55183633e-02f,-6.99050725e-02f,+1.39210388e-01f,+1.08444333e-01f,
+1.12831123e-01f,-9.71328095e-03f,+1.05544604e-01f,+1.58644453e-01f,+2.05857843e-01f,
+8.57476294e-02f,+4.48684096e-02f,+8.53827447e-02f,+1.49196655e-01f,-1.50105041e-02f,
+2.68696338e-01f,+1.48591876e-01f,+4.79259565e-02f,+1.66483521e-02f,+3.83799821e-02f,
-2.29165837e-01f,+2.09353834e-01f,+1.15719847e-01f,+7.10324757e-03f,+2.20523387e-01f,
+1.11559808e-01f,+6.40662611e-02f,+1.41104490e-01f,-1.16177008e-01f,-9.25017819e-02f,
+1.01877466e-01f,+1.89674348e-01f,+7.57147372e-02f,+4.22194712e-02f,+1.17099024e-01f,
-6.18304545e-03f,-4.60739285e-02f,+9.96631086e-02f,+1.01095676e-01f,-9.21154115e-03f,
+1.93833336e-01f,+5.28259687e-02f,+9.19090733e-02f,-4.84725833e-02f,+3.46139856e-02f,
+9.17565525e-02f,-3.83685692e-03f,+6.37312606e-02f,+1.75124273e-01f,+1.66398287e-01f,
+9.26103517e-02f,+4.41394746e-01f,-8.54191836e-03f,+2.03993931e-01f,+1.00027181e-01f,
+8.57748166e-02f,+8.61280859e-02f,-1.87122449e-02f,-2.83666849e-02f,+2.34852508e-01f,
+6.62232563e-02f,+2.46121049e-01f,+1.74291804e-01f,+1.05723821e-01f,+6.12593554e-02f,
+1.16569869e-01f,+1.49355754e-01f,+7.72464424e-02f,+1.59826323e-01f,+4.94735576e-02f,
+7.94629455e-02f,-1.14776855e-02f,+1.09485880e-01f,-1.57792777e-01f,+1.60602272e-01f,
+1.84605539e-01f,+1.45617858e-01f,+2.17374191e-01f,+2.16236353e-01f,+2.07315907e-01f,
+5.61947413e-02f,-3.85169797e-02f,-5.94021790e-02f,-4.56457920e-02f,-7.17189834e-02f,
-7.16301054e-02f,+1.22890994e-01f,+2.61457618e-02f,-5.16103506e-02f,-9.84861702e-02f,
+9.52604562e-02f,+1.40479550e-01f,-1.96216088e-02f,+1.81053504e-01f,+7.43743554e-02f,
+5.22652641e-02f,+5.22632450e-02f,-7.64752105e-02f,+4.13749591e-02f,-7.49329990e-03f,
-9.29850712e-02f,-1.72231391e-01f,-1.44341150e-02f,-1.39964670e-02f,+5.38590662e-02f,
+1.74539462e-01f,-1.34308472e-01f,+1.73638031e-01f,-8.47711638e-02f,+7.90563300e-02f,
+1.64194465e-01f,+2.05882996e-01f,+1.89969718e-01f,+2.04943374e-01f,+2.22524330e-02f,
-9.11564976e-02f,+1.09061405e-01f,+3.86807024e-02f,-1.81270838e-01f,-1.56297743e-01f,
+2.12339759e-01f,+1.49547398e-01f,+3.01494393e-02f,+3.25236209e-02f,+4.03354280e-02f,
+1.52229026e-01f,-2.21938919e-02f,+1.11652361e-02f,+1.68935865e-01f,+5.40305413e-02f,
+4.16173525e-02f,-1.48050562e-02f,+1.20153584e-01f,+1.01490125e-01f,+1.26570940e-01f,
+8.80805105e-02f,+1.26541689e-01f,+3.02349664e-02f,+4.48972359e-03f,+1.14790685e-01f,
+4.29348238e-02f,+4.18269187e-02f,+1.90331951e-01f,+6.66551441e-02f,+3.75869796e-02f,
+1.69175312e-01f,+8.82862508e-02f,-4.38691080e-02f,+5.98364770e-02f,-4.02806699e-02f,
+2.13771209e-01f,+2.23234177e-01f,+1.49366543e-01f,+8.42588544e-02f,+4.68816794e-02f,
+2.32665464e-01f,+2.75763660e-03f,+6.18363284e-02f,+1.19631052e-01f,-6.27439544e-02f,
+7.66678676e-02f,-1.34345755e-01f,+7.82495737e-02f,+1.70527503e-01f,-2.77342498e-01f,
+3.89935561e-02f,+5.28005697e-02f,-1.60941899e-01f,+2.55076755e-02f,+2.56488413e-01f,
+3.05191297e-02f,+1.17123112e-01f,+2.53049061e-02f,-3.82314883e-02f,-7.24055246e-02f,
+1.00846902e-01f,+1.40105098e-01f,-2.35442631e-02f,+2.87415802e-01f,+5.39305769e-02f,
+6.42595664e-02f,-1.47748785e-02f,+1.78740136e-02f,+2.13764962e-02f,+3.64777148e-02f,
-3.65484022e-02f,-1.76183088e-03f,+1.55030027e-01f,+2.79859751e-01f,-8.26166645e-02f,
+1.41242385e-01f,+1.03984810e-01f,+1.51393816e-01f,+2.78065890e-01f,+1.21825859e-01f,
+3.08846328e-02f,+8.00129622e-02f,+1.03997141e-01f,+2.82636493e-01f,+6.33487850e-02f,
-3.35104913e-02f,+7.02903932e-03f,+4.90131602e-02f,+1.94731448e-02f,-5.73768541e-02f,
+2.57382467e-02f,+2.51055770e-02f,+1.42978474e-01f,+4.67434786e-02f,+1.65179133e-01f,
+1.78188503e-01f,+5.70727419e-03f,-1.85678825e-02f,-1.60903204e-02f,-1.51939886e-02f,
+8.46547782e-02f,+2.36349910e-01f,-2.77133822e-01f,+1.96470991e-02f,+9.51484963e-02f,
+7.96814933e-02f,-6.95509017e-02f,-6.25316352e-02f,-1.25622004e-01f,+8.24114308e-03f,
+2.67471611e-01f,+1.77399799e-01f,-7.08117634e-02f,+7.71726063e-03f,+1.01653993e-01f,
-2.02189997e-01f,+1.06925093e-01f,+1.47792068e-03f,+8.17967877e-02f,+3.68692614e-02f,
-1.51031744e-02f,+3.90130281e-02f,+7.87909999e-02f,+2.14021951e-02f,+1.99822590e-01f,
-1.37090012e-01f,-3.02630719e-02f,+2.75362916e-02f,+6.24670163e-02f,+4.34606038e-02f,
+8.41515586e-02f,+1.96013376e-01f,+7.57157430e-02f,+3.55708152e-01f,+9.65140164e-02f,
+6.56504184e-02f,+1.64738238e-01f,+3.53857696e-01f,+1.36135876e-01f,-3.36164236e-02f,
-6.31819740e-02f,+7.88388848e-02f,+1.26590341e-01f,+4.23657484e-02f,-1.42899439e-01f,
-2.61461027e-02f,+1.47105351e-01f,+5.52154444e-02f,-1.32283315e-01f,+1.08395070e-01f,
+8.31463486e-02f,-6.35687932e-02f,+1.23694420e-01f,-1.52180240e-01f,-1.50137305e-01f,
+5.67768104e-02f,+7.82586038e-02f,+5.44790506e-01f,-1.87567100e-01f,-6.86772317e-02f,
+1.47870079e-01f,-5.19514643e-02f,+1.26298591e-01f,-1.86985999e-04f,+3.18368222e-03f,
+1.54477656e-01f,+2.08177026e-02f,+2.54054815e-01f,+8.44709668e-03f,+7.30459690e-02f,
+2.83433590e-02f,-1.14324823e-01f,+4.55246419e-02f,+1.94131464e-01f,+3.24224331e-03f,
+8.38323385e-02f,-1.59284994e-01f,+6.03977926e-02f,-1.25489533e-02f,+5.28584793e-03f,
+1.15051128e-01f,-4.65736650e-02f,-1.90695852e-01f,-6.75022975e-02f,+1.34525776e-01f,
-1.12035319e-01f,-1.10759541e-01f,+1.79174423e-01f,+1.10386938e-01f,+1.54632330e-01f,
+1.83156636e-02f,+1.03734523e-01f,+4.88825776e-02f,-1.09887436e-01f,-2.41199322e-02f,
-7.47977793e-02f,+7.42692351e-02f,+2.29029968e-01f,-2.71915998e-02f,-1.07737854e-01f,
+7.43070990e-02f,+8.22207406e-02f,+1.20848231e-01f,+9.81446169e-03f,+2.18477678e-02f,
+2.53955331e-02f,+1.84825167e-01f,-9.42948982e-02f,+3.22889201e-02f,+1.23645306e-01f,
+6.01275750e-02f,+2.07975805e-01f,-2.65221179e-01f,-3.51861902e-02f,-1.36667853e-02f,
+1.57910019e-01f,-3.17619694e-03f,+8.43078792e-02f,-2.34448873e-02f,+1.66896433e-01f,
-6.76457062e-02f,+2.86489666e-01f,-4.37646396e-02f,+5.37883826e-02f,+3.13383192e-01f,
-2.38753278e-02f,-1.43855348e-01f,+1.35473013e-01f,+3.75722721e-02f,+1.65211812e-01f,
-1.40741589e-02f,-8.49110857e-02f,+2.48458713e-01f,+6.49393424e-02f,-2.07016990e-02f,
-3.43357623e-02f,+1.66608721e-01f,+1.54723689e-01f,+1.52562767e-01f,+1.22679919e-01f,
+9.34573859e-02f,+3.25366040e-04f,+8.26977640e-02f,+2.65876260e-02f,+3.88900489e-02f,
+1.34911433e-01f,+1.73958406e-01f,+2.22035758e-02f,+1.53503016e-01f,-1.40359616e-02f,
+1.36383492e-02f,+2.24745512e-01f,+3.24077867e-02f,+8.10852051e-02f,+9.31109339e-02f,
+1.13169298e-01f,+1.34251555e-02f,+3.31843913e-01f,+1.53203070e-01f,-2.58157462e-01f,
+3.40372920e-01f,+4.84706685e-02f,+1.36905657e-02f,+5.25904633e-02f,-3.51913390e-03f,
+7.05148354e-02f,+9.64407623e-02f,+1.34875745e-01f,+1.21283680e-01f,+9.64726657e-02f,
+3.73264968e-01f,-3.30114625e-02f,+4.14156355e-02f,-1.13887168e-01f,+6.15068041e-02f,
-8.69157314e-02f,+9.28276684e-03f,+1.18310072e-01f,-1.63910076e-01f,+1.73038676e-01f,
+5.72631992e-02f,+2.51968801e-01f,+1.10072143e-01f,+6.43007606e-02f,-1.60362944e-01f,
-5.30315675e-02f,+9.10416991e-02f,+3.44273746e-01f,+2.15505764e-01f,+2.98585445e-01f,
+7.86383376e-02f,+8.24530050e-02f,-1.02059022e-01f,-1.84708759e-02f,+1.33365661e-01f,
+3.48416567e-02f,+2.16006696e-01f,-5.14382832e-02f,+2.48848170e-01f,-2.12261709e-03f,
+3.14105302e-02f,+4.28774208e-02f,+6.23381734e-02f,+1.61037967e-01f,+2.21498832e-02f,
+8.65502283e-02f,-2.54191816e-01f,+1.15144834e-01f,-1.95065950e-05f,-1.23923697e-01f,
+3.92576963e-01f,+1.69870019e-01f,-2.76815593e-02f,-1.34355709e-01f,-1.03150811e-02f,
-6.04110472e-02f,+1.43213108e-01f,+1.11385524e-01f,+1.66781276e-01f,+2.68647730e-01f,
+8.90119150e-02f,+3.65501828e-02f,+4.66436334e-02f,+8.96853954e-03f,-1.08549474e-02f,
+1.09800808e-01f,+8.31166357e-02f,+7.95869753e-02f,+2.87774056e-02f,+2.76397496e-01f,
-7.72713274e-02f,+2.85333823e-02f,+6.37559518e-02f,+4.91045751e-02f,+2.16337312e-02f,
-5.69569953e-02f,-2.96378345e-03f,+6.52872324e-02f,+1.34614361e-02f,-3.56105156e-03f,
+1.57750964e-01f,+3.37452702e-02f,-7.52996877e-02f,+2.59902000e-01f,+7.07215071e-02f,
+9.19721648e-02f,+5.66450041e-03f,-9.23213735e-02f,+2.68895239e-01f,-1.17057361e-01f,
+5.66847138e-02f,+1.14246033e-01f,+4.33382988e-02f,-6.59027398e-02f,-2.48831268e-02f,
+3.31284106e-01f,-3.28803360e-02f,+7.07247555e-02f,+1.33386344e-01f,-1.63385905e-02f,
-1.55570945e-02f,+5.16354255e-02f,-3.27315070e-02f,+4.14930098e-02f,-8.78941491e-02f,
-6.04273938e-02f,+1.76531240e-01f,+1.70298681e-01f,-1.69330500e-02f,+1.31906644e-01f,
-1.07841184e-02f,-4.31754738e-02f,+2.60459930e-01f,-8.81481767e-02f,+6.32030070e-02f,
-2.66857874e-02f,-9.22188088e-02f,+1.20278433e-01f,+2.43017688e-01f,+7.61314258e-02f,
-1.19245395e-01f,+1.00590857e-02f,-4.18089367e-02f,-3.10357660e-01f,+1.30880103e-01f,
+7.20103532e-02f,-6.57613203e-02f,+5.38541749e-02f,-3.49415727e-02f,+2.92408187e-02f,
+7.25528970e-02f,-1.20433547e-01f,+1.03112459e-01f,-7.69976825e-02f,-7.56381974e-02f,
-1.03387404e-02f,+8.57644677e-02f,+1.50302589e-01f,+1.39423341e-01f,+1.34454235e-01f,
+1.09172486e-01f,-6.28523389e-03f,+1.83393687e-01f,+8.75878111e-02f,+5.61124161e-02f,
+1.09295800e-01f,+4.51230258e-02f,+1.01398170e-01f,-1.20278001e-01f,+6.09238446e-02f,
+2.51532383e-02f,-6.00676462e-02f,+1.80365313e-02f,-8.54604412e-04f,+9.69838947e-02f,
+1.23957612e-01f,+1.31015435e-01f,+4.24980149e-02f,-1.39809385e-01f,-1.34518713e-01f,
+1.66873217e-01f,+2.10588530e-01f,-8.85020941e-02f,+1.74677894e-01f,-2.33878016e-01f,
+1.75365299e-01f,-4.28944737e-01f,-4.51730415e-02f,+1.68136790e-01f,-9.93099287e-02f,
+2.73211509e-01f,+1.71943560e-01f,+8.98283869e-02f,-7.24225044e-02f,+1.07708186e-01f,
+2.12809250e-01f,-1.08280890e-01f,+6.60034046e-02f,+1.42241687e-01f,+1.88690335e-01f,
-2.00804904e-01f,+9.56063643e-02f,-7.38398582e-02f,+2.13733181e-01f,-8.41583312e-02f,
+8.93793112e-05f,+2.12908462e-01f,-1.51077807e-01f,-5.38953431e-02f,+8.97720158e-02f,
+3.93532366e-02f,+3.42512839e-02f,+1.73074305e-01f,+8.40628222e-02f,+1.30477220e-01f,
+1.33647949e-01f,+3.42559926e-02f,+1.66240036e-02f,-2.63094008e-02f,-8.29392765e-03f,
+5.07300943e-02f,+3.12990218e-01f,+6.72948435e-02f,+1.33419767e-01f,+4.32656705e-02f,
+1.07623197e-01f,+1.01263337e-01f,+1.56098783e-01f,+1.55797862e-02f,+1.14595830e-01f,
+9.40197557e-02f,+2.75163144e-01f,+1.34178519e-01f,-4.95309532e-02f,+3.37072089e-03f,
+9.82560366e-02f,+5.64416312e-02f,-5.03806584e-02f,-5.53826988e-02f,+3.36708874e-02f,
+3.07841331e-01f,+2.11245548e-02f,+1.81732938e-01f,-3.26046749e-04f,+8.22064951e-02f,
+2.63096809e-01f,+9.07777548e-02f,+1.04492679e-01f,+2.89890785e-02f,+1.62572905e-01f,
+1.90773904e-01f,-3.51424217e-02f,-6.48665428e-02f,-4.75262702e-02f,-1.48587599e-01f,
+1.87556371e-01f,-5.94860613e-02f,-6.60269335e-02f,-6.19054362e-02f,-6.66244477e-02f,
+1.17199637e-01f,-5.84244058e-02f,+7.71370158e-02f,-3.69974747e-02f,-1.86582461e-01f,
+1.47868723e-01f,+9.31492001e-02f,-3.67229804e-02f,-2.07621709e-01f,+6.15883507e-02f,
+2.29894236e-01f,+3.38394940e-01f,+5.72239757e-02f,+1.50659397e-01f,-9.38652754e-02f,
-6.86202524e-03f,+3.27525705e-01f,+4.11946028e-01f,+2.31483847e-01f,+2.84197927e-02f,
-1.71997324e-01f,-2.68440217e-01f,+1.15324073e-01f,-2.93921351e-01f,+2.44126786e-02f,
+5.49983308e-02f,+1.26932636e-01f,-6.49757236e-02f,+1.37265027e-02f,+3.83176096e-02f,
-8.78324136e-02f,+1.43186882e-01f,-4.10212219e-01f,+1.61651850e-01f,+4.22455817e-02f,
+4.22427654e-01f,+3.38618159e-01f,+1.80503190e-01f,-5.56452200e-02f,+3.85615453e-02f,
+6.23392388e-02f,-3.08445487e-02f,+5.62509358e-01f,+2.43518531e-01f,+2.55252957e-01f,
-8.96178111e-02f,+4.45750095e-02f,+2.81905830e-01f,-1.00144523e-03f,-2.86423806e-02f,
-1.06134318e-01f,+4.95298132e-02f,+1.32271931e-01f,+2.65461862e-01f,+5.83439432e-02f,
+1.63370177e-01f,+2.65318304e-01f,-1.19400829e-01f,+7.64262527e-02f,+1.01444267e-01f,
+2.28203937e-01f,+1.88161343e-01f,-1.39430717e-01f,-1.21964358e-01f,-3.38331051e-02f,
-1.18115984e-01f,+2.69198287e-02f,+2.80779600e-02f,+4.99431267e-02f,-5.94816916e-02f,
+1.08424850e-01f,+1.75293475e-01f,+4.87967432e-02f,-1.22619487e-01f,+1.08959742e-01f,
-1.55497796e-03f,+1.38503149e-01f,-9.34348032e-02f,+7.14608505e-02f,+2.21323654e-01f,
+2.51420915e-01f,-1.46291226e-01f,+1.66371167e-01f,+1.45937521e-02f,-5.63787997e-01f,
+3.85783166e-02f,+2.91147679e-01f,+2.91474372e-01f,+1.86811760e-01f,+1.79535523e-01f,
+2.91276336e-01f,+1.66969687e-01f,+1.60922706e-01f,-1.34087071e-01f,-3.93628189e-03f,
+1.69954732e-01f,+9.10721272e-02f,+1.35333821e-01f,-7.68601075e-02f,+2.70487517e-01f,
+2.27984995e-01f,+8.37553293e-02f,+1.82802081e-01f,-1.05590820e-01f,-1.61549538e-01f,
-6.25319853e-02f,-7.14031830e-02f,-6.56700581e-02f,+2.53962040e-01f,+1.66895434e-01f,
+3.48973036e-01f,+7.28943348e-02f,-5.57398014e-02f,-1.40465245e-01f,-5.00512645e-02f,
-1.60681054e-01f,+1.70761123e-01f,+5.22228144e-02f,+1.33698404e-01f,+3.79335195e-01f,
-3.54686603e-02f,+2.73886263e-01f,+1.57879978e-01f,+2.66577005e-02f,-1.86672762e-01f,
+6.74246475e-02f,+9.69032720e-02f,+1.73823804e-01f,+6.45017298e-03f,+6.91734850e-02f,
-1.27926739e-02f,-1.99568570e-02f,-1.33945644e-01f,+1.53703719e-01f,+2.66021699e-01f,
+1.57783136e-01f,+3.90974469e-02f,+2.16070965e-01f,-1.87059924e-01f,+5.91757119e-01f,
-4.90837134e-02f,+1.70144111e-01f,+1.51787549e-01f,+3.20441991e-01f,+9.21952277e-02f,
-1.57154620e-01f,+1.58863991e-01f,+1.20338060e-01f,+1.60076171e-01f,+1.74515381e-01f,
-8.07578638e-02f,+4.90132272e-02f,+2.05548629e-01f,-8.95681418e-03f,-7.07590654e-02f,
+2.33013257e-01f,+8.05526525e-02f,+2.11238950e-01f,-1.63716674e-02f,+3.34410310e-01f,
+9.25330371e-02f,-7.93526843e-02f,+5.61569333e-02f,+1.62047833e-01f,+3.31290036e-01f,
+1.39925689e-01f,+1.95221707e-01f,+3.70872207e-02f,-8.78912956e-02f,+3.11646163e-01f,
+7.29337633e-02f,-3.28463279e-02f,-2.08465889e-01f,+2.17879996e-01f,-9.52098593e-02f,
+1.66106876e-02f,+7.06473216e-02f,+1.75747707e-01f,-1.35952070e-01f,+3.88696268e-02f,
+2.30105549e-01f,+2.52748169e-02f,+1.35442212e-01f,+3.55342291e-02f,+3.14365514e-02f,
+9.58108995e-03f,+2.84416854e-01f,+1.01542622e-01f,-1.09694242e-01f,+3.74007709e-02f,
-1.77048758e-01f,+2.46016551e-02f,-3.86700183e-02f,-3.76066156e-02f,+6.73592240e-02f,
+1.46585688e-01f,-3.38020921e-02f,-3.60064171e-02f,+9.11123157e-02f,+7.33017325e-02f,
+1.59859449e-01f,+1.29663378e-01f,+2.68644810e-01f,+4.09858711e-02f,-8.38267505e-02f,
+8.30969140e-02f,+3.89227318e-03f,+2.30543092e-01f,+3.00668150e-01f,+2.16855511e-01f,
+5.41679263e-02f,-9.13100839e-02f,-1.69904046e-02f,+2.44273230e-01f,-8.99719149e-02f,
+7.86366239e-02f,+8.40299800e-02f,-1.36672243e-01f,+1.83018595e-01f,+3.40683311e-01f,
+4.99479584e-02f,-2.13372469e-01f,-1.47434235e-01f,+4.98149805e-02f,+3.52251679e-02f,
-2.48594180e-01f,-3.67738567e-02f,+1.58288389e-01f,+4.24242243e-02f,+9.55334082e-02f,
+2.99585402e-01f,+2.55348533e-01f,+1.55861512e-01f,+6.72474578e-02f,+1.64600626e-01f,
+1.64019614e-01f,-8.66238996e-02f,+1.60319299e-01f,+9.06703621e-02f,+6.56917244e-02f,
+1.65065616e-01f,+8.36268887e-02f,+2.97782481e-01f,+1.68238983e-01f,+6.52256608e-02f,
-7.32536986e-02f,+7.66071081e-02f,-1.01583637e-01f,+6.03369400e-02f,-7.91795030e-02f,
+1.66345626e-01f,+3.23352702e-02f,+1.38554588e-01f,-5.46372384e-02f,+1.28745213e-01f,
-3.86132635e-02f,-6.74580485e-02f,+3.86271030e-02f,+9.30084437e-02f,+1.98664352e-01f,
+1.37151420e-01f,+4.02121916e-02f,+9.86774564e-02f,+1.74248181e-02f,+1.33014098e-01f,
-6.32915199e-02f,+5.65869436e-02f,+8.45428333e-02f,+6.52430877e-02f,+1.47492647e-01f,
-1.06481768e-01f,+1.79990768e-01f,+1.23117171e-01f,+9.77567211e-02f,+1.59279387e-02f,
+5.50337173e-02f,+9.21097323e-02f,+1.30786970e-02f,+1.75982371e-01f,+1.60645634e-01f,
+2.25185961e-01f,+2.00017273e-01f,+1.64805532e-01f,-1.03661761e-01f,+8.09017122e-02f,
-6.90342858e-02f,+3.66147570e-02f,+2.81220935e-02f,+7.65433684e-02f,-1.13416404e-01f,
+4.66683656e-02f,+1.36219397e-01f,+2.78662760e-02f,-2.74761226e-02f,-8.14360902e-02f,
+2.72343643e-02f,+1.80798620e-02f,+2.56325692e-01f,-8.78413022e-02f,-3.92638221e-02f,
+1.33725340e-02f,-2.94979010e-02f,-6.04073368e-02f,-5.76988198e-02f,+1.82961166e-01f,
+1.06510234e+00f,-7.28875577e-01f,+1.31722670e-02f,+1.25679061e-01f,+7.56449625e-02f,
+6.43472746e-03f,-3.40369642e-02f,+1.87388778e-01f,+1.07897967e-02f,+1.05780981e-01f,
+2.15151325e-01f,+1.93976969e-01f,+1.42002761e-01f,+1.91691011e-01f,+8.50426108e-02f,
+8.12957957e-02f,+9.13154259e-02f,+1.44202232e-01f,+1.05046377e-01f,+1.27966806e-01f,
+2.44903147e-01f,+1.35398477e-01f,+3.20797153e-02f,+2.70251185e-01f,-5.79772517e-02f,
+8.70778859e-02f,-1.05656974e-01f,-3.32744494e-02f,+9.70305502e-02f,-1.30620927e-01f,
-9.12205726e-02f,+6.92697540e-02f,+3.62042248e-01f,-4.11888864e-03f,+3.32227536e-02f,
-7.36143470e-01f,-3.70304659e-02f,-1.54213747e-02f,+1.17162243e-02f,+3.69487517e-02f,
+3.44665289e-01f,-2.02160906e-02f,+2.08347395e-01f,+1.29787773e-01f,-5.34809232e-01f,
+9.73341390e-02f,+4.30952273e-02f,-3.55520658e-02f,+1.34927768e-03f,+1.75393268e-01f,
+9.90912244e-02f,+2.31784016e-01f,-6.41315877e-02f,-3.63786481e-02f,-2.33416595e-02f,
-1.00333236e-01f,+9.73117054e-02f,+2.35875189e-01f,+2.15058759e-01f,+1.02735549e-01f,
+5.08627355e-01f,-8.54035188e-03f,-2.75358632e-02f,+2.69318148e-02f,+1.98077127e-01f,
+2.15804532e-01f,-1.54737100e-01f,+2.91125387e-01f,+1.30184650e-01f,+1.11079291e-02f,
+9.26889330e-02f,-2.55338307e-02f,-2.00348437e-01f,+2.41058722e-01f,-1.06502131e-01f,
+1.76500436e-02f,+9.71150845e-02f,-1.40532991e-02f,-8.40048194e-02f,-4.12553959e-02f,
-1.88817438e-02f,+8.49151909e-02f,+4.50254343e-02f,-4.63119596e-01f,+1.92825422e-01f,
+5.91812283e-02f,+1.20835193e-01f,-2.93752202e-03f,+2.59943604e-01f,+8.73414502e-02f,
+3.96867581e-02f,+1.15040265e-01f,+2.31484234e-01f,+8.21459070e-02f,+7.37258494e-02f,
-7.60913193e-02f,+9.35974047e-02f,-7.86521647e-04f,+2.09209807e-02f,+9.20259655e-02f,
+5.61976790e-01f,-3.83557938e-02f,+1.06001027e-01f,+8.85681391e-01f,-3.94370928e-02f,
-7.73150697e-02f,+4.61153984e-02f,-1.29471906e-02f,+6.83995849e-03f,-5.47793657e-02f,
-3.06642968e-02f,+1.12861909e-01f,+4.63853963e-02f,+2.52332002e-01f,+1.57295257e-01f,
+8.82038400e-02f,+1.68152421e-03f,+1.67961508e-01f,-9.05919895e-02f,+7.05765933e-02f,
-1.47978542e-02f,-2.92519443e-02f,+1.14350744e-01f,+9.26852375e-02f,+8.85922313e-02f,
+6.06530309e-02f,+1.29819810e-01f,+8.86628404e-02f,+1.40147820e-01f,+1.35768577e-01f,
+7.13457108e-01f,+1.32193238e-01f,+2.11797357e-01f,+2.63322920e-01f,+1.17858879e-01f,
-2.04977784e-02f,+4.82098795e-02f,+1.85571257e-02f,+6.97893500e-01f,+1.84409857e-01f,
-1.94306225e-02f,+6.93360642e-02f,+6.39959499e-02f,+1.35621145e-01f,+4.23697084e-02f,
-3.76286060e-02f,+6.77764639e-02f,+2.95024794e-02f,+4.78075631e-02f,-3.47660445e-02f,
+2.83286944e-02f,-3.32482308e-02f,+6.78057177e-03f,+1.12426551e-02f,-3.30260694e-02f,
-8.06571636e-03f,-7.54562393e-02f,+2.11280301e-01f,-7.46698618e-01f,+1.06503464e-01f,
+1.00121908e-01f,-1.56552121e-02f,+2.93618012e-02f,-1.64325386e-02f,+1.14838615e-01f,
-4.39144149e-02f,-3.06418892e-02f,+1.34570654e-02f,+4.95497771e-02f,+2.03374788e-01f,
-2.78488118e-02f,-1.16726816e-01f,+1.07935756e-01f,+1.05086006e-01f,+3.21710035e-02f,
+5.27871810e-02f,+1.23308569e-01f,+1.27409473e-01f,+6.05849810e-02f,+3.69929448e-02f,
+1.76069766e-01f,+1.00760341e-01f,-6.88887417e-01f,-3.98346111e-02f,+9.22441632e-02f,
-1.65270572e-03f,+1.43518418e-01f,+2.51368940e-01f,-1.00172199e-02f,+1.53206557e-01f,
+8.91917571e-02f,+4.49235179e-02f,+7.84330666e-02f,-2.80507617e-02f,+1.05095003e-02f,
+3.29892375e-02f,+6.12944365e-02f,+1.24432765e-01f,-2.48731878e-02f,+4.63466765e-03f,
+7.60385022e-02f,-2.00613327e-02f,+1.88120112e-01f,+2.38118500e-01f,+7.81264678e-02f,
+4.75272164e-02f,-2.25616433e-02f,-3.07068904e-03f,+1.28811076e-01f,+1.97309300e-01f,
+2.28846772e-03f,+4.84467931e-02f,+6.30045310e-02f,+1.66838557e-01f,+8.72210935e-02f,
+7.53337368e-02f,-2.21411347e-01f,-2.73645553e-03f,-1.40992738e-02f,-7.89699852e-01f,
+1.43536627e-01f,+2.42233321e-01f,+7.51232505e-02f,+1.52358681e-01f,+1.06350482e-01f,
-6.88305274e-02f,+1.33517623e-01f,-6.63579926e-02f,-4.34781350e-02f,-5.50596900e-02f,
+7.21655712e-02f,+1.25441149e-01f,+1.54649451e-01f,+9.13393870e-02f,+8.88517946e-02f,
+1.15878470e-01f,+1.00804701e-01f,+7.14324191e-02f,+1.62441313e-01f,+8.41944069e-02f,
+2.47394115e-01f,+1.63728312e-01f,+1.36919245e-01f,+8.45892727e-02f,-2.01446399e-01f,
+6.81662410e-02f,+8.59421492e-02f,+6.73739752e-03f,+1.32521344e-02f,-5.15108407e-02f,
+1.46813110e-01f,+8.05002451e-02f,+5.45732677e-02f,+2.33225357e-02f,-3.73715200e-02f,
-1.79723408e-02f,+2.99828965e-02f,+1.32925004e-01f,+1.83723018e-01f,+1.04104184e-01f,
+3.52071822e-02f,+2.50040069e-02f,+6.61601648e-02f,-7.33899847e-02f,+5.20298444e-02f,
+3.65167409e-02f,+8.09414834e-02f,+3.03390641e-02f,-8.17878172e-02f,+1.22630060e-01f,
+9.49503481e-02f,+4.45030369e-02f,-1.80731807e-02f,+1.26075774e-01f,-4.45978083e-02f,
+7.72689506e-02f,+2.07769405e-02f,+5.14118932e-02f,+6.86187744e-02f,-2.06926614e-02f,
+3.99239957e-02f,+2.44116448e-02f,+1.83222517e-01f,+1.30044729e-01f,-8.81459378e-03f,
+4.54495549e-02f,-3.86788659e-02f,+2.26757936e-02f,+4.91262786e-02f,-7.96646699e-02f,
+5.70117533e-02f,-2.13505235e-02f,+4.99931984e-02f,-1.06805721e-02f,-1.59454383e-02f,
+2.02372909e-01f,-6.05965257e-02f,+4.04759757e-02f,+1.12568386e-01f,+1.00798987e-01f,
-5.96540421e-02f,+2.77256817e-01f,+2.52277311e-02f,+1.43591702e-01f,-2.59462476e-01f,
+5.99267706e-02f,+1.20776221e-01f,+1.89680129e-01f,-2.03904901e-02f,+8.21086392e-02f,
+9.95517224e-02f,+1.13373764e-01f,+7.89770558e-02f,+2.91897394e-02f,+6.37591556e-02f,
+9.93163362e-02f,-1.82790812e-02f,+7.12032095e-02f,+1.75118849e-01f,+7.60755762e-02f,
+9.93671566e-02f,-9.95917991e-02f,-7.10261241e-02f,+1.21834978e-01f,+1.86713599e-02f,
+3.15394878e-01f,+4.84760255e-02f,-2.56754160e-02f,+1.44402549e-01f,-2.80826371e-02f,
+4.89544310e-02f,+1.43713802e-01f,+7.73962662e-02f,+9.42317322e-02f,+1.00482870e-02f,
+5.51022552e-02f,+9.78958830e-02f,+6.53619319e-02f,+1.78656355e-01f,+1.45844951e-01f,
+8.70695114e-02f,+1.11271672e-01f,+6.50717178e-03f,+1.51392043e-01f,+1.93064645e-01f,
+8.31193998e-02f,+1.03758648e-01f,+7.24527612e-02f,+8.33842531e-02f,+7.38528594e-02f,
+6.73358813e-02f,+6.10017329e-02f,+1.51616871e-01f,+4.64943349e-02f,+1.37664273e-01f,
+1.21016167e-01f,+1.98992472e-02f,+4.21070233e-02f,+1.10581173e-02f,+4.85041626e-02f,
+1.90731227e-01f,+3.69322784e-02f,+1.56682014e-01f,+4.63394821e-03f,+1.06102251e-01f,
+1.94843188e-02f,+1.47425324e-01f,+1.34705096e-01f,-3.04301325e-02f,-1.88959762e-02f,
+3.67845185e-02f,+2.41855919e-01f,+3.00932024e-02f,+6.82091266e-02f,+1.05270594e-01f,
+7.72375315e-02f,+6.16210774e-02f,-1.93917025e-02f,-1.03464127e-02f,+2.02063695e-01f,
+1.00335881e-01f,+9.33960080e-02f,+8.92148986e-02f,+1.03951007e-01f,+3.18607867e-01f,
+2.76430454e-02f,+3.69193777e-02f,+1.89554825e-01f,-4.90711890e-02f,+2.36870274e-01f,
-5.94659373e-02f,+1.61447793e-01f,+1.24930061e-01f,+1.26365393e-01f,+1.41903516e-02f,
+4.16350625e-02f,+6.09286465e-02f,+2.09813416e-01f,-3.52702774e-02f,-4.42900807e-02f,
-3.88071276e-02f,+1.70276582e-01f,+9.45110321e-02f,+5.96566014e-02f,-4.97994162e-02f,
+1.00101888e-01f,+4.53152694e-02f,+1.88993628e-03f,+1.76296502e-01f,+1.09386951e-01f,
+1.77926615e-01f,+4.70521711e-02f,-1.61693782e-01f,-3.12819518e-02f,+2.95807514e-02f,
+1.13479188e-02f,+6.56488016e-02f,+5.61027043e-02f,+1.89911742e-02f,+1.46842226e-01f,
-7.17827119e-03f,+2.58824024e-02f,-1.02940220e-02f,+2.37061173e-01f,-4.70335111e-02f,
+2.66450085e-02f,+1.87248990e-01f,+1.03403605e-03f,-4.30559777e-02f,+2.24528447e-01f,
+1.51011750e-01f,+4.90609594e-02f,+7.84051344e-02f,+2.77912058e-03f,+1.02638163e-01f,
+9.15355235e-02f,+9.63008702e-02f,-9.72808301e-02f,+1.67180330e-01f,+1.87830269e-01f,
+1.17367141e-01f,+7.42839351e-02f,+6.61331043e-02f,+2.94509325e-02f,+1.19408965e-01f,
+1.98833011e-02f,+1.69047281e-01f,+1.22234024e-01f,+1.39424339e-01f,-4.13006544e-02f,
+1.57604426e-01f,+1.96928635e-01f,+1.48128673e-01f,+1.22205980e-01f,-4.50560972e-02f,
-6.16615824e-03f,-8.08784142e-02f,+1.37935251e-01f,-6.75147176e-02f,-8.38269740e-02f,
+1.22727320e-01f,+3.83758033e-03f,+1.35563374e-01f,+4.19909656e-02f,+1.74499787e-02f,
+5.61106727e-02f,+8.44872072e-02f,+1.01393975e-01f,+1.87323205e-02f,+2.31345780e-02f,
+1.65606156e-01f,+4.43638489e-02f,+2.15043314e-03f,+1.11247718e-01f,-1.30627723e-02f,
+5.18810488e-02f,+4.64361981e-02f,-2.87485812e-02f,-3.37339193e-02f,-5.96481152e-02f,
+8.22898448e-02f,+1.19273722e-01f,+1.46561816e-01f,-7.57343769e-02f,-5.50711229e-02f,
+6.69388324e-02f,+1.36150345e-01f,+1.08164765e-01f,+1.11716054e-01f,+8.02397951e-02f,
+9.41752195e-02f,+3.95647995e-02f,+3.60597111e-02f,+7.22489953e-02f,+5.22511862e-02f,
+2.75517032e-02f,+8.50856602e-02f,+8.51208940e-02f,-1.80417905e-03f,-1.24170375e-03f,
+1.14623070e-01f,+1.64922580e-01f,+1.21354014e-01f,+1.46867216e-01f,+1.54179588e-01f,
+5.31712249e-02f,+1.43157378e-01f,-2.70977933e-02f,+1.03778169e-01f,+2.19772190e-01f,
+1.09591298e-02f,+1.38460463e-02f,+2.20878884e-01f,+1.17391124e-01f,+3.04041244e-02f,
+5.68073988e-03f,+6.54619411e-02f,+2.43081134e-02f,+1.14510106e-02f,-4.92035598e-03f,
+1.57971635e-01f,+7.41657689e-02f,-1.17723607e-02f,+8.37104321e-02f,+7.69681856e-02f,
+1.04462236e-01f,+2.83541888e-01f,+1.71458304e-01f,+1.05761722e-01f,+9.04140919e-02f,
+7.96990395e-02f,+8.76206160e-02f,+1.05202563e-01f,+2.92771868e-02f,-5.08726612e-02f,
+2.19569989e-02f,+5.27601838e-02f,-3.60435992e-02f,+1.13326848e-01f,+1.58602938e-01f,
+1.29237220e-01f,+7.00424835e-02f,+1.10849246e-01f,+1.63240537e-01f,+9.52102318e-02f,
+5.26459403e-02f,-5.29098958e-02f,+1.36997506e-01f,+3.10971364e-02f,-3.97974020e-03f,
+4.42708563e-03f,-3.91374715e-02f,+7.82113969e-02f,+2.69194804e-02f,+1.29036129e-01f,
+1.48712367e-01f,+1.13654606e-01f,+7.20127150e-02f,+3.68742980e-02f,+8.11458826e-02f,
-7.55480304e-02f,+1.10221893e-01f,+1.71050087e-01f,+4.37884033e-02f,-7.76709691e-02f,
+4.55511287e-02f,+2.18792900e-01f,+4.52371500e-02f,+1.40078589e-01f,+5.81336394e-02f,
+5.02301045e-02f,-2.42094509e-02f,+1.00498870e-01f,+1.47435963e-01f,+3.09381336e-01f,
+1.52828246e-01f,+1.89062431e-01f,+1.40083238e-01f,-3.22170206e-03f,+9.51472670e-02f,
+7.96937477e-03f,+1.52380109e-01f,+4.84028682e-02f,+1.05033055e-01f,+1.21980242e-01f,
+4.94359247e-02f,+1.67912036e-01f,+1.47467516e-02f,+2.62362063e-02f,+9.57568809e-02f,
-3.48987454e-03f,+1.52422175e-01f,-1.94599498e-02f,+2.50390649e-01f,+1.04507208e-01f,
+8.61187745e-03f,+7.16731548e-02f,+2.73893811e-02f,+6.25517964e-02f,+5.43082319e-02f,
+7.23841563e-02f,+6.36806712e-02f,-7.43293464e-02f,+5.95309138e-02f,-7.02852011e-02f,
+3.60225886e-02f,-6.60995245e-02f,+1.62637815e-01f,+1.28210276e-01f,+3.66561599e-02f,
+6.70336187e-02f,+2.13872865e-01f,+2.63506081e-02f,-6.74304962e-02f,+1.80390373e-01f,
+5.64307459e-02f,+6.36606244e-03f,+9.82438698e-02f,+1.18631564e-01f,-1.05970182e-01f,
-6.81429869e-03f,-3.29529755e-02f,+3.70088778e-02f,+3.02911606e-02f,-1.65750012e-02f,
-4.93170582e-02f,-5.46372458e-02f,+5.67891821e-02f,-2.33228188e-02f,+1.47060305e-02f,
+6.16685040e-02f,+4.80565503e-02f,+9.11917016e-02f,-1.25788510e-01f,-5.54571562e-02f,
+4.96070161e-02f,+6.38913587e-02f,+6.19865619e-02f,+9.66755673e-02f,+6.51036650e-02f,
-1.44652659e-02f,+1.33556187e-01f,+1.36883840e-01f,+2.98525374e-02f,+1.59420058e-01f,
+9.11178589e-02f,+1.13354340e-01f,+1.19342424e-01f,+4.90999043e-01f,-3.25867772e-01f,
+5.11301234e-02f,+5.31045087e-02f,-6.44124765e-03f,-3.57479081e-02f,+9.93036553e-02f,
-1.96193485e-03f,-5.24618551e-02f,-2.92005986e-02f,-8.19877833e-02f,+1.83653757e-01f,
+1.23502970e-01f,+1.55794919e-01f,-7.66821671e-03f,+5.56113869e-02f,+8.83919448e-02f,
+8.50885212e-02f,+1.95289508e-01f,-9.37582999e-02f,+7.17954487e-02f,+1.09220691e-01f,
+2.03240231e-01f,+1.34449318e-01f,+6.13528639e-02f,-4.96081896e-02f,+1.27045363e-01f,
+2.00220406e-01f,+2.07213715e-01f,-1.34118497e-02f,-4.13351469e-02f,-1.52034853e-02f,
+1.58460170e-01f,+2.29961537e-02f,+8.46669544e-03f,-1.14189655e-01f,-1.16920069e-01f,
-2.17513051e-02f,+7.99009129e-02f,+1.38344198e-01f,+2.32332230e-01f,+2.60594517e-01f,
+1.80572063e-01f,-3.48037072e-02f,-3.99530411e-01f,-2.69690268e-02f,+1.03947155e-01f,
-6.76198024e-03f,+1.71728015e-01f,+1.75458081e-02f,+6.79147243e-02f,+1.96805090e-01f,
+5.83041599e-03f,+1.24381199e-01f,-2.04474702e-01f,-1.44542485e-01f,+4.23551016e-02f,
+1.84490252e-02f,+6.38666302e-02f,+1.03861958e-01f,+3.66274118e-01f,-2.93980092e-01f,
-6.23804517e-03f,+7.66590296e-04f,+1.52050257e-01f,+2.29341507e-01f,-9.00270864e-02f,
+1.15668520e-01f,+1.39889121e-01f,+6.98627383e-02f,-3.07232346e-02f,+1.02849551e-01f,
-1.37056157e-01f,+1.42688245e-01f,+9.48872045e-02f,-9.02941003e-02f,+3.05938452e-01f,
+4.37586457e-02f,+2.79919580e-02f,-1.26980394e-02f,+7.63370842e-02f,+9.63690355e-02f,
+1.37029037e-01f,-2.95907240e-02f,+2.19244845e-02f,-2.16913652e-02f,+1.20895214e-01f,
+2.41844691e-02f,+1.10085398e-01f,-2.32914072e-02f,-1.40327942e-02f,+1.06452011e-01f,
+2.55542487e-01f,+1.98866110e-02f,+1.53405532e-01f,+6.04372621e-02f,+1.23808630e-01f,
+1.07204229e-01f,-1.34476600e-02f,-1.09867059e-01f,+4.24697846e-01f,+4.05778997e-02f,
-1.67063175e-04f,+6.05810463e-01f,+5.86361848e-02f,+1.24075085e-01f,+2.42339764e-02f,
+1.06881581e-01f,+3.08688115e-02f,-5.83226979e-02f,-9.93265137e-02f,-9.78637487e-02f,
+1.13436073e-01f,+1.89743355e-01f,-1.18292300e-02f,+5.18020466e-02f,+2.21410450e-02f,
-2.09702682e-02f,+7.90800974e-02f,+1.32289752e-01f,+1.88744873e-01f,+7.93588609e-02f,
+1.08177125e-01f,-1.48782611e-01f,+9.25164111e-03f,+1.69598907e-01f,+3.88924442e-02f,
+1.97468236e-01f,-3.90835144e-02f,+3.56833339e-02f,+1.47875011e-01f,+2.40463972e-01f,
+1.82591975e-01f,+1.24930546e-01f,+9.68637243e-02f,+2.44284086e-02f,+8.29055756e-02f,
+2.40058582e-02f,+1.44585758e-01f,-3.94252799e-02f,-9.88677330e-03f,+1.17073007e-01f,
+9.99310538e-02f,+1.53831020e-01f,+3.25546078e-02f,+2.16935929e-02f,+9.20806676e-02f,
+5.74422702e-02f,-1.09589240e-02f,+4.44894731e-02f,+2.81091724e-02f,+1.18669376e-01f,
-1.36985302e-01f,-1.96556747e-01f,-1.30293407e-02f,+1.87038869e-01f,+6.44104332e-02f,
+2.26935878e-01f,-4.15623933e-01f,+4.26482260e-02f,+7.53209814e-02f,+6.93865344e-02f,
+2.54134052e-02f,+1.23561230e-02f,+4.97218035e-02f,+3.29308445e-03f,+1.55884594e-01f,
-1.11220688e-01f,+1.18597023e-01f,+7.23049343e-02f,-1.15511052e-01f,-3.49076767e-03f,
+1.70071319e-01f,+2.90483057e-01f,-2.94696563e-03f,+4.53847721e-02f,-1.30328819e-01f,
+7.05606788e-02f,-5.08178212e-02f,-8.69871397e-03f,+1.07568748e-01f,-4.81884703e-02f,
-5.14975078e-02f,-6.44313218e-03f,+6.46561608e-02f,+9.61269289e-02f,+5.14138043e-02f,
+4.60380800e-02f,+2.06938963e-02f,+1.36311427e-01f,+5.04933037e-02f,+2.06921667e-01f,
+1.87472701e-01f,+3.53695117e-02f,+5.62653579e-02f,+1.02845132e-01f,-1.02558866e-01f,
+1.26229927e-01f,-6.39022961e-02f,-2.65070293e-02f,-1.05061166e-01f,+3.09432507e-03f,
+1.04760088e-01f,+1.37775972e-01f,+3.39288497e-03f,+7.03370124e-02f,+8.04472342e-02f,
+1.26028687e-01f,-3.05960933e-03f,+2.89633460e-02f,+5.40144481e-02f,+2.01657519e-01f,
+2.23210365e-01f,-2.85290706e-04f,-3.16816159e-02f,+3.96891497e-02f,+9.80776399e-02f,
+1.50938198e-01f,+1.16411716e-01f,-9.69477370e-02f,+8.56554061e-02f,-9.24343988e-02f,
+3.71056721e-02f,-2.00909004e-02f,-8.03713500e-02f,+1.85566470e-01f,-1.25180542e-01f,
+2.55237613e-02f,+6.15955926e-02f,-6.04707189e-03f,+1.07399367e-01f,+5.39486064e-03f,
+8.63929316e-02f,+1.25528052e-01f,-2.75603104e-02f,+2.21603978e-02f,+1.26183286e-01f,
+3.43067423e-02f,-2.06552640e-01f,+1.41197100e-01f,+1.91628024e-01f,-2.89007369e-02f,
+2.17522845e-01f,+5.92085235e-02f,+8.49460512e-02f,+8.07844922e-02f,+1.64966732e-01f,
+3.83434929e-02f,-3.15873399e-02f,+6.56888634e-02f,+9.14949998e-02f,+3.33132297e-02f,
-2.98435660e-03f,-5.05641438e-02f,+6.69977814e-02f,+5.15404306e-02f,-7.19749369e-03f,
-3.50318034e-03f,-3.72132584e-02f,+7.89468363e-02f,+4.44115959e-02f,+1.62050381e-01f,
+8.06977823e-02f,-5.60767092e-02f,+1.14285521e-01f,-3.20542827e-02f,+1.16773345e-01f,
+8.24631378e-03f,+3.12793702e-02f,+7.33774668e-03f,+4.80308617e-03f,+3.98370735e-02f,
+2.79875528e-02f,+1.25277732e-02f,+2.85855401e-02f,+1.13407373e-01f,-6.60392046e-02f,
+2.42777243e-01f,+1.03777610e-01f,+1.08642848e-02f,-2.09232960e-02f,+4.90586124e-02f,
+6.91782758e-02f,+1.17290795e-01f,+1.73578486e-02f,+1.65776890e-02f,+1.22072719e-01f,
+1.65561542e-01f,+6.02079704e-02f,-2.01253756e-03f,+1.75216317e-01f,+3.34745906e-02f,
+2.21287608e-01f,-7.46963844e-02f,+8.57665166e-02f,+9.14105624e-02f,+2.54664514e-02f,
+1.41516387e-01f,+1.01040423e-01f,+3.76454219e-02f,+5.40094078e-02f,+1.85349613e-01f,
+5.20056672e-02f,+7.23837242e-02f,+1.04038365e-01f,+8.25328976e-02f,+3.40500847e-02f,
+3.09530236e-02f,-8.06998163e-02f,+1.35194749e-01f,-2.62468997e-02f,+6.83719739e-02f,
+2.83080060e-02f,+4.34519090e-02f,-7.89158642e-02f,+5.09164110e-03f,+2.55043134e-02f,
+1.09542869e-01f,+7.57294446e-02f,-2.32704002e-02f,+5.83232865e-02f,+3.70027088e-02f,
+4.56253476e-02f,+1.34021968e-01f,+9.07036960e-02f,+9.72120464e-02f,-4.67593111e-02f,
+1.46258399e-01f,+2.19593067e-02f,+8.19272399e-02f,+1.82609130e-02f,-2.06185225e-02f,
+1.33529812e-01f,+5.95851876e-02f,-7.50786588e-02f,+9.16721672e-02f,+3.35122384e-02f,
+7.54093006e-02f,+6.42066598e-02f,+1.27491593e-01f,+1.16573974e-01f,+7.13025546e-03f,
+1.20914631e-01f,-1.69184618e-02f,+2.48357933e-02f,+4.18479331e-02f,+2.66610049e-02f,
+2.25397199e-01f,+4.11362946e-02f,+5.41463718e-02f,+5.68082519e-02f,-8.56209267e-03f,
+1.67737901e-01f,+6.49788976e-02f,+2.38373250e-01f,-3.51385474e-02f,+1.19805351e-01f,
+4.83495630e-02f,+7.86895491e-03f,+1.63950756e-01f,+2.52230931e-03f,+1.46199502e-02f,
+1.23062328e-01f,+1.03531023e-02f,+1.11774998e-02f,+8.36912915e-02f,+5.53096160e-02f,
+1.34177253e-01f,+9.30501819e-02f,+7.85377249e-02f,+1.53452426e-01f,+5.13689704e-02f,
+7.54361451e-02f,+1.03683081e-02f,-2.57017203e-02f,+4.19953726e-02f,-2.69964468e-02f,
-5.67944013e-02f,+6.21083984e-03f,-2.19871074e-01f,+1.15370303e-01f,+3.59912105e-02f,
+1.50170639e-01f,+1.46449164e-01f,+2.56735057e-01f,+4.41601314e-02f,+5.79569899e-02f,
+1.01995565e-01f,+2.37709209e-02f,+1.53930232e-01f,-7.38128275e-02f,+4.07747887e-02f,
+3.64242047e-02f,+7.29947612e-02f,+2.34866440e-02f,+2.94599421e-02f,-6.09513707e-02f,
-2.77017467e-02f,-2.45866235e-02f,+3.36798519e-04f,+1.31192029e-01f,+3.43531184e-02f,
+9.70151499e-02f,+6.10890090e-02f,+4.90121059e-02f,+7.14785531e-02f,+2.36838788e-01f,
+6.68565333e-02f,+6.67302124e-03f,-2.87281591e-02f,+8.51299912e-02f,+6.90178052e-02f,
+9.01201218e-02f,-2.85769254e-02f,+3.83065231e-02f,+9.31978822e-02f,+1.24008708e-01f,
+1.47643566e-01f,+2.25710437e-01f,+6.09526634e-02f,+5.28952777e-02f,+1.05954207e-01f,
-1.06103281e-02f,+4.33323458e-02f,+6.80018663e-02f,+1.58618577e-02f,+1.46835549e-02f,
-2.84853857e-02f,+1.13305235e-02f,+1.16081528e-01f,+1.31467074e-01f,+1.29252836e-01f,
+4.86164726e-03f,-6.56440854e-02f,+1.06734730e-01f,-7.02365418e-04f,+2.15426032e-02f,
+8.08915347e-02f,+4.16491926e-02f,+7.59238526e-02f,+8.42185616e-02f,-4.37553739e-03f,
+1.51994824e-01f,+7.35531002e-02f,+1.13308383e-02f,+4.97882552e-02f,+1.85765196e-02f,
+2.09830571e-02f,+5.57291247e-02f,-2.66304007e-03f,+1.57381117e-01f,+1.29058689e-01f,
+9.74238887e-02f,-1.12528771e-01f,+4.45176885e-02f,+1.57889426e-01f,+1.40016019e-01f,
+4.45087105e-02f,+1.68628901e-01f,-8.12742189e-02f,+1.24896288e-01f,+6.23006970e-02f,
+5.57672195e-02f,-3.30225602e-02f,+1.34023964e-01f,+4.17399630e-02f,+1.84176296e-01f,
+8.68524015e-02f,+3.64872292e-02f,+8.36806893e-02f,+1.50192082e-01f,+8.85403305e-02f,
+1.30954415e-01f,-1.93309225e-02f,+2.10410301e-02f,+4.69986498e-02f,+7.30326995e-02f,
+9.76776406e-02f,+1.12943761e-01f,+1.43708497e-01f,+5.13227470e-02f,-3.67635638e-02f,
+2.61369464e-03f,+5.36551625e-02f,+8.88948292e-02f,+6.49426803e-02f,+1.35177732e-01f,
+9.27466229e-02f,-5.72897447e-03f,+6.82927296e-02f,-8.24369397e-03f,+7.47174248e-02f,
+1.51929289e-01f,+1.09292613e-02f,+4.99313325e-02f,-4.70305532e-02f,-1.07262481e-03f,
+7.83249065e-02f,+5.15955202e-02f,+2.23120913e-01f,+1.10365942e-01f,+1.10320300e-01f,
+1.34503543e-01f,+4.43872400e-02f,+4.87769619e-02f,+3.34168114e-02f,-2.53861286e-02f,
-1.63735524e-02f,+1.46125048e-01f,+5.47016039e-02f,+1.10807130e-04f,+5.54248393e-02f,
-3.13883759e-02f,-4.16164137e-02f,+1.10919259e-01f,+9.00136903e-02f,+3.00550200e-02f,
+5.90336211e-02f,+1.90949008e-01f,+1.02779500e-01f,+5.88527247e-02f,+3.03814281e-02f,
-5.03092632e-02f,+1.38025703e-02f,+1.03437014e-01f,-7.40807205e-02f,+9.27008167e-02f,
+7.21110776e-02f,+6.65259361e-02f,+4.98328768e-02f,+8.89710709e-02f,+1.58909902e-01f,
+5.25934398e-02f,+3.47093582e-01f,+2.46923015e-01f,+7.41017610e-02f,+6.77703470e-02f,
+7.96974003e-02f,+8.50780308e-03f,+6.87154979e-02f,+4.65670228e-02f,+1.53029472e-01f,
+1.64773464e-01f,+9.77401584e-02f,+1.21807363e-02f,+2.11045220e-01f,+1.97238997e-02f,
+3.19574736e-02f,+1.35002406e-02f,+8.28495249e-02f,+8.39180127e-02f,+7.37590939e-02f,
+7.98362121e-02f,+2.37160623e-02f,-8.44496340e-02f,+1.15266368e-01f,+1.07571207e-01f,
+8.16987976e-02f,+1.05111105e-02f,+5.32545894e-02f,+6.26945570e-02f,+6.40608743e-02f,
+1.44734129e-01f,+4.40681614e-02f,+1.23797162e-02f,+6.75732940e-02f,+2.51019150e-01f,
-4.97613624e-02f,+6.74685240e-02f,-3.81223415e-03f,+1.35552198e-01f,+2.38486938e-03f,
+8.28428380e-03f,+4.90122847e-02f,+3.54323834e-01f,+1.55595630e-01f,-6.75866976e-02f,
+9.33239385e-02f,+7.09691644e-02f,-6.54824376e-02f,-1.00440020e-02f,+4.40531708e-02f,
+3.71921435e-02f,+2.45751992e-01f,+1.48012817e-01f,+9.44257528e-02f,+8.22172835e-02f,
+6.60990030e-02f,-4.50494327e-02f,+5.40800951e-02f,-3.59704494e-02f,+1.10897673e-02f,
+1.00448370e-01f,+1.08171470e-01f,+1.33660272e-01f,+5.69052584e-02f,+1.46621019e-01f,
+9.03860331e-02f,+3.59446183e-02f,-5.88692240e-02f,+4.22070213e-02f,+7.17889220e-02f,
+4.41868417e-02f,+1.00257687e-01f,+1.56346802e-02f,+9.54863504e-02f,-4.68751416e-02f,
-1.92372629e-03f,+8.78807455e-02f,+8.03321674e-02f,-3.10966987e-02f,+4.97179991e-03f,
+1.64367318e-01f,+6.58066571e-02f,+4.72766832e-02f,-4.82892431e-02f,-6.17539324e-02f,
+5.56794629e-02f,-2.41655223e-02f,+1.33123964e-01f,-6.93694875e-02f,-5.99933730e-04f,
+5.68106994e-02f,+2.86894385e-02f,+7.51670972e-02f,+7.58242309e-02f,-5.19177504e-03f,
+4.13730405e-02f,+2.38503572e-02f,+6.25313669e-02f,+1.20106719e-01f,+1.29555883e-02f,
+2.41254792e-02f,-8.59436169e-02f,+6.00668788e-02f,-8.35216232e-03f,+6.13941438e-02f,
+1.74480408e-01f,-7.22309425e-02f,+7.36069605e-02f,+5.98366745e-03f,+6.01261146e-02f,
+3.09131332e-02f,+9.95767564e-02f,+1.00600898e-01f,+8.13142434e-02f,+7.54139572e-02f,
+2.17782855e-01f,+9.29340795e-02f,+6.41512573e-02f,+6.84295455e-03f,-1.65358782e-02f,
+1.55246090e-02f,-1.26082459e-02f,-1.38131246e-01f,+1.39506117e-01f,+7.60355145e-02f,
+5.69887348e-02f,+1.23607002e-01f,+2.70351823e-02f,-1.57486498e-02f,+9.20394585e-02f,
+5.87625317e-02f,-2.18475778e-02f,+1.16717033e-01f,+9.57114771e-02f,+3.13689783e-02f,
+8.94152746e-02f,-2.72027701e-02f,+6.73199445e-02f,+1.41889751e-01f,+3.83954006e-03f,
+7.43091106e-02f,+3.99127528e-02f,+3.35555081e-03f,+1.63817406e-01f,+6.29043952e-02f,
-6.34747222e-02f,+1.02941759e-01f,+1.55252308e-01f,+1.69806316e-01f,+4.53366227e-02f,
-1.01873033e-01f,-5.65969944e-03f,+1.54221728e-01f,+1.18007965e-01f,-1.41684311e-02f,
+9.02355835e-02f,+1.72223181e-01f,+6.05972931e-02f,-7.19840126e-03f,-7.72685185e-02f,
+5.83377033e-02f,-9.86179430e-03f,-2.97499401e-03f,+9.32340845e-02f,-3.84146872e-04f,
+2.10664168e-01f,+1.35134220e-01f,-1.05890697e-02f,+7.74177685e-02f,+7.11927190e-02f,
+8.28026384e-02f,+3.17108110e-02f,+1.95999201e-02f,+9.45207998e-02f,-9.32327062e-02f,
+3.55449095e-02f,+1.16887152e-01f,+1.52749345e-01f,+9.17856488e-03f,-4.05543335e-02f,
+5.78313544e-02f,+1.57105297e-01f,-3.64398248e-02f,+1.22322321e-01f,+1.17997818e-01f,
-1.07608112e-02f,+1.26483999e-02f,+4.64294888e-02f,+5.90884350e-02f,+1.38257146e-01f,
+1.39549807e-01f,-1.38378479e-02f,+6.49297237e-02f,+9.78983343e-02f,+3.12877931e-02f,
+2.91664243e-01f,+7.56095573e-02f,+8.75061527e-02f,+5.94862457e-03f,+4.49068062e-02f,
+8.13137516e-02f,+1.39494464e-01f,+2.39302576e-01f,+3.37184444e-02f,+1.21755809e-01f,
+1.30712822e-01f,+8.59240443e-02f,+9.85175148e-02f,+7.67769814e-02f,-5.30764880e-03f,
+6.78817257e-02f,+1.11344941e-01f,+4.58448231e-02f,-3.50610353e-02f,+2.57766657e-02f,
+1.25589281e-01f,+1.22377478e-01f,+2.16069892e-02f,+1.74915016e-01f,+1.19185515e-01f,
-1.74393933e-02f,+2.10989177e-01f,+5.54621257e-02f,+4.85486500e-02f,+5.38706779e-02f,
-6.87934551e-03f,-3.78033705e-02f,+9.60810930e-02f,-9.04320627e-02f,+6.48244545e-02f,
+1.65475696e-01f,+6.88338354e-02f,+4.93609607e-02f,+5.16290329e-02f,-2.75573228e-02f,
-1.97872035e-02f,+2.15113774e-01f,+3.86724249e-02f,+8.77335146e-02f,+1.08393058e-01f,
+5.77441826e-02f,+7.20117912e-02f,+3.70257092e-03f,+1.47974417e-01f,-5.06363623e-02f,
+4.65944409e-02f,+9.70425606e-02f,+1.38783619e-01f,+3.27485576e-02f,+4.25575450e-02f,
+7.33810067e-02f,+5.32290414e-02f,+7.98661411e-02f,+8.58913884e-02f,+1.14387177e-01f,
+2.63601225e-02f,+4.85122763e-02f,+2.88958778e-03f,-8.72054771e-02f,+8.45858008e-02f,
+8.80805925e-02f,+9.64668542e-02f,+1.24550007e-01f,-2.20401380e-02f,+3.08066476e-02f,
+2.82348432e-02f,+5.68011925e-02f,+2.68469360e-02f,+2.27003813e-01f,+1.27271656e-02f,
-7.30009377e-02f,+1.09165497e-01f,+1.08126618e-01f,+8.88931602e-02f,+4.14184891e-02f,
-4.51713018e-02f,-7.16881901e-02f,+7.40318373e-02f,+2.21674651e-01f,+8.61698762e-02f,
+2.53007486e-02f,+1.40620798e-01f,-1.32455425e-02f,+1.48557057e-03f,+5.20430580e-02f,
+1.02587961e-01f,-5.33269085e-02f,+7.28676841e-02f,+2.15787902e-01f,+1.88160520e-02f,
+7.20546618e-02f,-8.48841481e-03f,+6.45672455e-02f,+8.53711367e-02f,-5.89645617e-02f,
+7.86552727e-02f,+1.22302786e-01f,-3.75519060e-02f,+6.71411529e-02f,+1.00983195e-02f,
-4.55853948e-03f,+1.67344049e-01f,+1.04766525e-01f,+5.79874553e-02f,+1.81977630e-01f,
-3.71570252e-02f,-3.28163952e-02f,+8.50574970e-02f,+3.26345675e-02f,+2.79538967e-02f,
-2.87429858e-02f,+1.26079947e-01f,-9.76703130e-03f,+1.06053250e-02f,+5.10828337e-04f,
+5.78332916e-02f,-1.93057433e-01f,+1.36182442e-01f,+2.22012758e-01f,+1.50324106e-01f,
+1.01205677e-01f,+4.42054719e-02f,+3.98850590e-02f,+2.15416774e-02f,-6.80838451e-02f,
+1.60356238e-01f,+1.70416489e-01f,-7.66860768e-02f,+2.25393534e-01f,-6.32519126e-02f,
+7.15748444e-02f,+5.93881086e-02f,+6.00606017e-02f,+4.32501771e-02f,+2.83208609e-01f,
+4.33984622e-02f,-6.74275309e-02f,+4.48247343e-02f,-9.80297253e-02f,+3.25085176e-03f,
-1.08706160e-02f,+2.83132922e-02f,+4.00706008e-02f,+1.11646101e-01f,-8.68561957e-03f,
+3.99819762e-02f,+1.84620321e-01f,+4.93500456e-02f,-4.23882037e-01f,+1.07948393e-01f,
-1.24617755e-01f,+1.38647258e-01f,-3.21529433e-02f,+6.12283647e-02f,-3.50164473e-02f,
+1.28007665e-01f,+5.17751165e-02f,-1.89818889e-01f,+5.07065654e-02f,+4.50424440e-02f,
+1.49065703e-01f,+1.26921102e-01f,+1.29910901e-01f,-1.17074391e-02f,+9.43655148e-02f,
+3.69814746e-02f,+2.07053274e-01f,-5.61054051e-02f,+8.83064568e-02f,-4.10149992e-02f,
-9.63550701e-04f,+1.03721693e-01f,+6.93815276e-02f,+9.48336497e-02f,+1.09654300e-01f,
+1.96209744e-01f,-8.50844756e-02f,+1.60775855e-01f,-2.00113505e-01f,-2.25132778e-02f,
+9.07713696e-02f,+2.27885135e-02f,-6.55959845e-02f,+1.85590863e-01f,-3.11749652e-02f,
-4.03715968e-02f,-5.82085773e-02f,+1.13806672e-01f,-1.18531482e-02f,+1.98043555e-01f,
+2.62145419e-02f,+6.82624355e-02f,-2.97154225e-02f,-3.41087999e-03f,-2.29089102e-03f,
+9.42868441e-02f,+2.45269373e-01f,+2.28358611e-01f,+9.54331905e-02f,-5.84605969e-02f,
+8.61409027e-03f,+6.26701191e-02f,+1.53971657e-01f,-4.26808968e-02f,-2.21951231e-01f,
+1.67497784e-01f,+9.44266841e-02f,+2.33043879e-01f,+8.37453059e-04f,+1.79300651e-01f,
-2.47601215e-02f,+3.15345734e-01f,-6.92198053e-03f,-4.16564615e-03f,+1.28404692e-01f,
-1.48580298e-01f,+5.53445667e-02f,-2.51169384e-01f,+1.15475088e-01f,-1.62701398e-01f,
+2.77373120e-02f,+6.24130890e-02f,+1.59986824e-01f,+1.51578188e-01f,+3.75621170e-02f,
-1.42007507e-02f,+2.40182951e-01f,+2.78038204e-01f,+2.13815227e-01f,+5.72513677e-02f,
+4.62776661e-01f,-3.80285201e-03f,+1.14646358e-02f,-5.31870425e-02f,+9.34033245e-02f,
+1.04361773e-01f,+1.93076078e-02f,+1.97326802e-02f,-7.20575601e-02f,+1.85843796e-01f,
+2.11243451e-01f,-6.19694144e-02f,+7.87588209e-02f,-1.87187850e-01f,+2.21808523e-01f,
+1.64245769e-01f,+3.18210642e-03f,+1.06972925e-01f,+9.80965048e-02f,+9.93064791e-02f,
+1.32958889e-01f,+2.36882314e-01f,+6.56575561e-02f,-3.50430310e-02f,-3.02412789e-02f,
-1.46450147e-01f,+7.56323710e-02f,+1.09029800e-01f,-1.17686003e-01f,-3.01502403e-02f,
+9.59237888e-02f,+2.12292612e-01f,+1.06231295e-01f,-2.34832913e-01f,+3.12674791e-02f,
-1.13386728e-01f,-4.65242714e-02f,-6.08165376e-02f,+3.84204648e-02f,+3.35429497e-02f,
-2.03294620e-01f,+2.74392903e-01f,+9.77345183e-02f,-6.45889118e-02f,-8.92981712e-04f,
-4.20353748e-02f,+1.02601424e-01f,-7.91049078e-02f,-5.82883209e-02f,-4.70505580e-02f,
+1.36071980e-01f,+2.13813975e-01f,-8.70511010e-02f,-2.39234567e-02f,+1.12218324e-04f,
+3.97052281e-02f,-7.65430778e-02f,-2.84419600e-02f,+2.16455720e-02f,+2.28739932e-01f,
+2.20178757e-02f,-5.15535921e-02f,+1.80948824e-01f,+3.05254757e-01f,+3.16159368e-01f,
+4.33622599e-01f,+1.55870663e-02f,-3.63606401e-02f,+1.89951524e-01f,-6.06302498e-03f,
+1.57425374e-01f,+1.15692079e-01f,+2.87936628e-02f,+2.11333886e-01f,+2.19008431e-01f,
+4.37042862e-02f,+2.42600873e-01f,+1.86714739e-01f,+1.52476043e-01f,-1.46660268e-01f,
+1.29949570e-01f,+1.76732585e-01f,+1.83909670e-01f,+1.24166124e-01f,+1.56507716e-01f,
+9.34641361e-02f,-1.79831628e-02f,+2.43595578e-02f,+9.44343805e-02f,-3.09803113e-02f,
+3.99544723e-02f,+3.11471764e-02f,-4.55024689e-01f,+3.38252215e-03f,+6.79543689e-02f,
+3.94341536e-02f,+2.99268723e-01f,+9.37574506e-02f,+1.76682785e-01f,+1.73427463e-01f,
+5.64574637e-02f,+4.71665598e-02f,+6.24335604e-03f,-2.87619792e-02f,-2.13358060e-01f,
+1.21314570e-01f,+1.41166709e-03f,+4.74041514e-02f,+3.80253732e-01f,-1.82720244e-01f,
-1.11023881e-01f,+1.14677161e-01f,-2.09671874e-02f,+1.37734070e-01f,+2.64614932e-02f,
+8.73238519e-02f,+2.89896354e-02f,+1.46913365e-01f,+6.03294447e-02f,+3.38798583e-01f,
-2.56539583e-01f,-1.08979307e-02f,+1.71435595e-01f,-7.78403506e-02f,+1.26297832e-01f,
-3.47893015e-02f,-4.10754830e-02f,+6.83032945e-02f,-1.44055620e-01f,+1.70708790e-01f,
-1.31554957e-02f,+1.15964904e-01f,+8.54444057e-02f,+2.16638912e-02f,+9.02406871e-02f,
+4.80808020e-02f,-8.46597552e-02f,-1.28396451e-01f,-6.51586130e-02f,+2.73683041e-01f,
+1.64757848e-01f,-1.06286451e-01f,-1.65153667e-01f,-2.41919175e-01f,-7.31159747e-02f,
-5.32960370e-02f,-2.59393919e-02f,+8.43877494e-02f,+1.26613960e-01f,+1.73855543e-01f,
-5.96490949e-02f,+2.18251511e-01f,-1.06490366e-01f,+8.33439231e-02f,+1.80485919e-01f,
-2.20618546e-01f,-7.58811310e-02f,-1.47762708e-02f,-6.63742870e-02f,+8.81872550e-02f,
+2.47654647e-01f,+1.47638498e-02f,+6.13738857e-02f,-3.30985188e-02f,+8.49693865e-02f,
-5.93983680e-02f,-2.22078525e-02f,+1.21117324e-01f,+1.67833641e-02f,-1.56946063e-01f,
-4.63919826e-02f,+1.16722714e-02f,+1.44498661e-01f,+5.75399352e-03f,-7.29315728e-03f,
+1.40186294e-03f,+1.32873021e-02f,-9.27186310e-02f,-1.91115607e-02f,-6.91568851e-02f,
-1.15568399e-01f,+1.85559854e-01f,+1.38220355e-01f,+2.55228616e-02f,+6.61499128e-02f,
-1.43385857e-01f,+1.32017815e-02f,+3.71144377e-02f,+1.99346021e-01f,+4.11840202e-03f,
+1.57039091e-01f,+6.58507198e-02f,+1.55846160e-02f,+1.94820791e-01f,+5.85109293e-02f,
+1.65158197e-01f,-1.20461304e-02f,+2.99333949e-02f,+6.78479895e-02f,+3.37475032e-01f,
+4.00999002e-02f,-1.17633440e-01f,+1.10020421e-01f,+6.84777647e-02f,-2.14614451e-01f,
+1.29318058e-01f,-5.42636588e-02f,+2.14773379e-02f,+6.51736110e-02f,+1.48478113e-02f,
+5.02423197e-02f,-3.41533795e-02f,+8.77543390e-02f,+7.63412192e-02f,-7.52705261e-02f,
+2.37342328e-01f,+4.10494618e-02f,-1.14173271e-01f,-4.30438034e-02f,-5.42422533e-01f,
-4.28915650e-01f,+1.76595524e-01f,+1.40935704e-01f,-3.19284573e-02f,+2.81138897e-01f,
+9.55408160e-03f,+3.08842305e-02f,-9.77630354e-03f,-1.09655775e-01f,-1.15540117e-01f,
+2.40394309e-01f,-2.60380767e-02f,+2.32413888e-01f,-3.32324989e-02f,+7.22282901e-02f,
+6.21906407e-02f,-6.33465946e-02f,+9.79694948e-02f,+5.69649786e-02f,-4.57457080e-02f,
+1.83242321e-01f,-1.38406947e-01f,+4.86510277e-01f,+9.79762301e-02f,+3.23111653e-01f,
-7.62938568e-03f,-4.01406325e-02f,+2.21208692e-01f,+8.42752159e-02f,+1.39724374e-01f,
+2.57560700e-01f,+7.16170073e-02f,-5.06650470e-02f,+3.04834306e-01f,+5.68347052e-02f,
+2.14334339e-01f,+2.16849167e-02f,-6.72207102e-02f,+8.13044384e-02f,+2.85353452e-01f,
-8.64868313e-02f,+5.10186777e-02f,+1.52618941e-02f,+1.90438226e-01f,+1.12165339e-01f,
+1.98279113e-01f,+8.89127403e-02f,+4.87814657e-02f,+5.50457872e-02f,+9.63034630e-02f,
-2.59368699e-02f,+1.19606681e-01f,-4.15410176e-02f,+1.44497842e-01f,+6.37077615e-02f,
-3.79045308e-02f,+1.59503013e-01f,+2.16441751e-01f,+5.55285104e-02f,-7.05712959e-02f,
+7.63367712e-02f,-9.44898289e-04f,-1.50534123e-01f,+1.11138992e-01f,-7.76266446e-03f,
+9.02576074e-02f,+1.38089001e-01f,+7.96611831e-02f,+7.53439367e-02f,-5.13091199e-02f,
+2.25069337e-02f,+3.80839333e-02f,+1.23723038e-01f,+1.95360392e-01f,-9.09886137e-02f,
+2.60610990e-02f,+8.18622708e-02f,+6.26755878e-02f,+6.91384524e-02f,+6.32640198e-02f,
+9.77561846e-02f,-1.01220682e-01f,+8.05296451e-02f,+1.45592811e-02f,+1.27492443e-01f,
-3.25689130e-02f,+4.07182984e-02f,+9.35278460e-02f,+1.77024037e-01f,+1.80356249e-01f,
-7.76362419e-02f,+1.48549795e-01f,+1.23392768e-01f,+1.07811548e-01f,+1.66018512e-02f,
-4.65300819e-03f,-6.18712083e-02f,+9.93288383e-02f,+1.16392076e-01f,+1.94438890e-01f,
+5.89118935e-02f,+1.02645844e-01f,+9.09179524e-02f,-1.62177216e-02f,+1.89437822e-01f,
+1.17641389e-01f,+9.54489484e-02f,+9.78869721e-02f,+8.08076933e-03f,+6.24318421e-02f,
+8.47812817e-02f,-7.07119107e-02f,+7.50840381e-02f,+1.62325114e-01f,+1.59779146e-01f,
+5.94913103e-02f,+9.40587074e-02f,+1.72144666e-01f,+2.36783087e-01f,-4.45707031e-02f,
+1.63557947e-01f,+1.38886776e-02f,+5.22967875e-02f,+2.21848190e-02f,-1.60036311e-02f,
+9.06050876e-02f,-6.65625855e-02f,+1.80760309e-01f,+7.54166991e-02f,+3.42148840e-01f,
+7.42890611e-02f,-3.19520682e-02f,+2.01090053e-01f,+6.65294528e-02f,+1.15418322e-01f,
+5.33999354e-02f,+2.55735237e-02f,+2.13033944e-01f,+7.72482157e-03f,+6.50638863e-02f,
+1.76569715e-01f,+8.37348253e-02f,+1.01576783e-01f,+9.47701335e-02f,+2.53060870e-02f,
-8.25798512e-02f,+2.39405662e-01f,+2.46267747e-02f,+9.64181870e-02f,+1.53390855e-01f,
-8.18833634e-02f,+5.75580150e-02f,-2.10478604e-02f,-1.78262312e-02f,+5.99262454e-02f,
+9.57911909e-02f,+1.31950065e-01f,+7.51674548e-02f,-1.89493373e-02f,+1.65455788e-01f,
+1.79482654e-01f,+1.41753286e-01f,+9.01765302e-02f,-8.80846456e-02f,+8.72919783e-02f,
+4.09014598e-02f,+1.35690883e-01f,-2.89606787e-02f,-1.63671508e-01f,-1.98652204e-02f,
+9.82708409e-02f,-1.07091382e-01f,+4.04635705e-02f,+1.01578437e-01f,+2.52010047e-01f,
+1.47722736e-02f,+1.62765518e-01f,+3.63511413e-01f,-5.41854091e-02f,+1.21449970e-01f,
+4.09594961e-02f,+7.04590008e-02f,+7.32201338e-02f,+1.02563091e-01f,+2.42341887e-02f,
+1.09833919e-01f,-2.64519900e-01f,+1.21687986e-01f,-1.31772518e-01f,+3.57653014e-02f,
+5.16860560e-02f,+6.33959323e-02f,-1.02483526e-01f,+2.00555891e-01f,+1.74830019e-01f,
-1.22022599e-01f,+2.79104143e-01f,+8.80361274e-02f,-1.52066126e-02f,-2.22931542e-02f,
-1.33087426e-01f,+5.79629233e-03f,+3.66804413e-02f,+2.98468769e-03f,-2.12321654e-02f,
+5.11451662e-02f,+2.06491753e-01f,+1.82701111e-01f,+1.05254605e-01f,+1.92541569e-01f,
+5.71138673e-02f,+5.22098364e-03f,+1.73790812e-01f,+5.05981818e-02f,+5.02290539e-02f,
+1.09277003e-01f,-4.11689952e-02f,+6.84891269e-02f,+3.93237621e-02f,+1.73044965e-01f,
+1.97945222e-01f,+1.61970869e-01f,+1.33249655e-01f,+1.04940839e-01f,+1.86448991e-01f,
-1.00786611e-01f,+9.82553884e-02f,+1.41913205e-01f,+1.11471862e-01f,+8.06861669e-02f,
+2.84921303e-02f,+9.55917761e-02f,+7.26293102e-02f,+5.91081567e-02f,+1.01373278e-01f,
+9.40664411e-02f,-3.09158769e-02f,-1.33031800e-01f,-3.22976001e-02f,+7.90473595e-02f,
+1.44158348e-01f,+8.05939212e-02f,+2.99865454e-02f,+1.49507150e-01f,-2.12463457e-02f,
+5.04408814e-02f,+1.30707949e-01f,+1.82991594e-01f,+1.18338214e-02f,+4.09925170e-02f,
+1.31746963e-01f,+4.51768786e-02f,+7.13943411e-03f,+2.17550900e-02f,+1.68765187e-01f,
+2.09518760e-01f,+2.25171357e-01f,+1.41095370e-01f,-1.21610075e-01f,+1.22755677e-01f,
+5.63559830e-02f,+4.51157801e-02f,+3.69533822e-02f,+1.95890199e-02f,-8.24062303e-02f,
+8.41953829e-02f,+2.56557688e-02f,+1.24783009e-01f,+1.54044271e-01f,-6.03897776e-03f,
+6.95380718e-02f,-4.10630740e-02f,+4.83375415e-02f,+1.43309653e-01f,+9.77475494e-02f,
+4.77106385e-02f,+1.77650705e-01f,+1.21173874e-01f,+4.04950194e-02f,-3.78700369e-03f,
+1.25653446e-01f,+5.71641400e-02f,+2.13709146e-01f,+5.65312281e-02f,+9.47583914e-02f,
+3.39184888e-02f,+5.66799231e-02f,+1.54962689e-01f,+2.63768464e-01f,+1.91394269e-01f,
+5.15027046e-02f,+8.11064616e-02f,+1.19125858e-01f,+9.89715685e-04f,-1.21510103e-02f,
+6.40910342e-02f,+3.45102558e-03f,+7.72985294e-02f,+1.96182534e-01f,+5.09040505e-02f,
+6.85139671e-02f,+4.83279712e-02f,+1.10489242e-01f,-1.90030038e-01f,-1.94545224e-01f,
-3.15361354e-03f,+4.56144176e-02f,+5.39108925e-02f,+3.30356807e-01f,+3.83759290e-02f,
+1.90992713e-01f,+9.41557623e-03f,+1.28565535e-01f,+1.17484264e-01f,+3.04881126e-01f,
-4.56099696e-02f,-7.61666447e-02f,+1.23286448e-01f,+8.69246274e-02f,+8.01003203e-02f,
+5.44121973e-02f,+1.56726837e-01f,+6.64664730e-02f,+2.31412537e-02f,-1.27098605e-01f,
+2.03224584e-01f,-1.20742908e-02f,+1.45110026e-01f,-9.54774320e-02f,+7.37953410e-02f,
-2.72379015e-02f,+1.98058039e-01f,-1.18572272e-01f,+5.68023771e-02f,+1.45585328e-01f,
+1.99809745e-01f,+7.80152529e-02f,+3.36402692e-02f,+3.94654125e-02f,+6.93462491e-02f,
+2.04127297e-01f,-3.04524461e-03f,+1.56754643e-01f,+2.21593201e-01f,-6.05187826e-02f,
+1.80798974e-02f,+1.17238231e-01f,+6.60320744e-02f,+2.56200768e-02f,-3.16608623e-02f,
+1.04867689e-01f,+4.72084954e-02f,+2.53402263e-01f,+1.17921785e-01f,+9.53861177e-02f,
+3.61578792e-01f,+2.84757316e-01f,+9.00446996e-02f,-2.65061967e-02f,-5.35662994e-02f,
+1.53802857e-01f,-5.48513308e-02f,+1.07665248e-01f,+5.59971035e-02f,+2.05298454e-01f,
+1.51966050e-01f,+1.33376658e-01f,+1.50142565e-01f,+1.50053173e-01f,+1.40630618e-01f,
-7.02683674e-03f,+1.85199976e-01f,+1.23267829e-01f,+2.66313493e-01f,+2.62252182e-01f,
+1.69660240e-01f,+2.01659411e-01f,-4.60694451e-03f,+8.70814919e-03f,+1.22478932e-01f,
-4.79677916e-02f,+2.44205803e-01f,+3.15971375e-02f,-1.09825237e-02f,+1.92403331e-01f,
-2.41895206e-02f,+1.77673385e-01f,+3.07356387e-01f,+3.47812958e-02f,+1.55207545e-01f,
-1.01236925e-01f,-1.03494950e-01f,+9.67056230e-02f,+1.19787946e-01f,+4.78412248e-02f,
+2.39758477e-01f,+5.42432256e-02f,+1.00842163e-01f,+5.62554784e-02f,-2.66864114e-02f,
-2.25776471e-02f,+4.19807732e-02f,-1.07100107e-01f,+2.02661768e-01f,+9.31735933e-02f,
-1.45979941e-01f,+1.11046650e-01f,+2.63307929e-01f,+6.80247545e-02f,+1.72277689e-01f,
-4.13481444e-02f,-1.55941201e-02f,-3.12769823e-02f,+1.15744971e-01f,+7.74169043e-02f,
+2.12752312e-01f,+2.20629177e-03f,+7.52965510e-02f,-1.35316132e-02f,+2.79855043e-01f,
+6.22839071e-02f,-1.85510740e-02f,+3.73909366e-03f,+1.54912427e-01f,-3.08664232e-01f,
+1.62084609e-01f,+7.23489970e-02f,-7.58097619e-02f,+3.90530303e-02f,+2.82944173e-01f,
-1.22055933e-01f,-1.01761319e-01f,+8.86632577e-02f,+1.08778223e-01f,+2.31476307e-01f,
+6.21211939e-02f,+1.10490531e-01f,-2.83662885e-01f,+9.60200205e-02f,+1.10161260e-01f,
-1.09923005e-01f,+4.37249303e-01f,+2.17116013e-01f,-2.26238847e-01f,-1.35724461e-02f,
-5.62785156e-02f,-1.38012106e-02f,-1.59120783e-02f,+2.04597786e-02f,+6.24818057e-02f,
-8.56739376e-03f,+1.02374263e-01f,+2.36659884e-01f,+1.87649503e-01f,+1.77869380e-01f,
+1.10341914e-01f,+1.17906697e-01f,-1.00348787e-02f,+1.18812725e-01f,-2.41073947e-02f,
-1.21072540e-02f,+2.50380725e-01f,+1.87593866e-02f,-7.75900707e-02f,+2.51767129e-01f,
+6.41822517e-02f,+3.92808691e-02f,-3.56551632e-02f,+1.06661826e-01f,-8.03977326e-02f,
+2.86490500e-01f,+4.25397865e-02f,+7.09058493e-02f,+1.26873270e-01f,+1.42944232e-01f,
+2.48853296e-01f,+1.05365172e-01f,+2.29940787e-02f,+5.64326718e-02f,-5.34352995e-02f,
+6.15241900e-02f,+1.98557660e-01f,+1.52353510e-01f,+1.66845724e-01f,+7.69257173e-02f,
-3.03707160e-02f,-3.74715179e-02f,-4.75262672e-01f,-9.19023156e-02f,+6.18503764e-02f,
-6.66223094e-03f,-9.65507403e-02f,-1.70597643e-01f,+4.41735759e-02f,+1.29444972e-01f,
+8.86603631e-03f,+1.75838888e-01f,+1.07799508e-01f,+2.90818542e-01f,+4.13905680e-02f,
+4.44222838e-01f,+2.01566279e-01f,+9.60866176e-03f,+4.60577011e-01f,+1.80084288e-01f,
-3.01521480e-01f,+2.26158887e-01f,+1.06469892e-01f,-1.16094306e-01f,+1.10605620e-01f,
+4.50195968e-02f,-8.02931264e-02f,+1.04461111e-01f,+6.81518167e-02f,+7.56832361e-02f,
+1.48828179e-01f,+1.56926941e-02f,+2.75505394e-01f,+3.63938123e-01f,-2.38815635e-01f,
+5.96710555e-02f,-9.24559683e-03f,-9.07289460e-02f,-6.99654743e-02f,+2.07696687e-02f,
-3.14953551e-02f,-7.86162913e-03f,-8.54909942e-02f,+1.90885365e-01f,+2.14705290e-03f,
+7.36489668e-02f,-2.49395352e-02f,+1.00974344e-01f,+1.51164368e-01f,-1.46299928e-01f,
+8.46639350e-02f,+1.01360478e-01f,+3.00576568e-01f,+1.04357883e-01f,+1.61762267e-01f,
+1.30096436e-01f,+1.60208009e-02f,+2.44273283e-02f,+4.71797809e-02f,+2.09780037e-01f,
+2.13529080e-01f,-5.02881855e-02f,-1.65348351e-01f,+1.20596059e-01f,+2.19912991e-01f,
+1.17229275e-01f,+1.32798359e-01f,-1.60711780e-02f,+1.15518622e-01f,+2.34817505e-01f,
+9.89281759e-02f,+2.89022684e-01f,+6.14167638e-02f,+2.41749153e-01f,+1.14484522e-02f,
+1.23088658e-01f,+7.99892619e-02f,-2.03913659e-01f,+8.81165266e-02f,+9.59482193e-02f,
+2.48939157e-01f,+8.39273538e-03f,+7.21802786e-02f,+4.26350385e-02f,+1.73529744e-01f,
+2.41283044e-01f,+1.65890157e-01f,+1.21010996e-01f,+4.17818502e-02f,+9.42970663e-02f,
+7.74220601e-02f,-9.86331957e-04f,+1.47724268e-03f,+5.12555800e-02f,+3.11149564e-02f,
-8.73442665e-02f,+1.41789883e-01f,-1.77878380e-01f,+1.10129856e-01f,+1.82706639e-01f,
+1.78513557e-01f,+1.18507985e-02f,-2.66567171e-01f,-4.43124436e-02f,+1.92516580e-01f,
+1.66906804e-01f,+1.59766436e-01f,+2.10430726e-01f,+2.10004002e-02f,+9.47356895e-02f,
-3.50601156e-03f,+5.26903803e-03f,+4.14023586e-02f,+3.00406627e-02f,+9.26423222e-02f,
+1.27707198e-01f,+6.67021424e-02f,+7.50550330e-02f,+1.63246766e-01f,-3.40770893e-02f,
+1.46055251e-01f,+1.35234684e-01f,+1.00348607e-01f,+1.62777632e-01f,-3.93449888e-03f,
+2.48082966e-01f,+2.41530627e-01f,-6.84264451e-02f,+6.75970390e-02f,+1.99811652e-01f,
+1.72303423e-01f,+6.68134540e-02f,-2.20644832e-01f,-1.04241902e-02f,+4.73967865e-02f,
+5.63874878e-02f,+1.74192488e-01f,+1.48870707e-01f,+1.73592523e-01f,+1.94576681e-02f,
-1.03426456e-01f,+5.98229095e-02f,+4.13858891e-02f,+1.40701964e-01f,+1.81825429e-01f,
+9.77160856e-02f,-7.24699572e-02f,-4.32915241e-02f,+1.33023873e-01f,+1.06710561e-01f,
+1.58118829e-01f,-5.32158166e-02f,+2.85840809e-01f,+2.61583626e-02f,+5.50614223e-02f,
+3.54888976e-01f,+2.85272658e-01f,+1.02660157e-01f,+9.14406031e-02f,+6.40696809e-02f,
+1.56716004e-01f,-1.53123647e-01f,+3.57911229e-01f,+1.26532957e-01f,+2.01174058e-03f,
+1.84790134e-01f,-5.21390885e-02f,+8.47872347e-02f,-3.38318236e-02f,+3.23483162e-02f,
+7.44621158e-02f,+3.25035274e-01f,+1.65191174e-01f,+1.23215757e-01f,+1.29696980e-01f,
-1.05344817e-01f,+2.76538683e-03f,+1.47540748e-01f,+2.23305412e-02f,+5.12070023e-02f,
+1.66169345e-01f,-6.43689260e-02f,+1.97098494e-01f,+1.79079533e-01f,-6.73278747e-03f,
+1.69444233e-01f,+1.49481460e-01f,-4.19464754e-03f,+1.80579759e-02f,+6.50291294e-02f,
+4.42808233e-02f,+1.83783006e-02f,+3.18541259e-01f,+8.24037641e-02f,-7.56390020e-02f,
+2.59396851e-01f,-1.65251598e-01f,+1.27599547e-02f,+5.48119992e-02f,+6.95098564e-02f,
+1.03832260e-01f,-3.55431847e-02f,-1.72171459e-01f,+4.35840398e-01f,+8.43179747e-02f,
+1.46574527e-01f,-1.25197440e-01f,+5.52028120e-02f,+1.14145786e-01f,-3.84829752e-02f,
-3.96425985e-02f,-6.19800687e-02f,+1.71599135e-01f,-7.45089427e-02f,-2.69496348e-02f,
+1.46031901e-01f,+2.98691802e-02f,+3.16320993e-02f,+2.67201886e-02f,+1.05495818e-01f,
+1.16685078e-01f,+1.19768932e-01f,+1.35955766e-01f,+8.20138752e-02f,-3.04926876e-02f,
+1.13543570e-01f,-1.39391884e-01f,-4.99776863e-02f,-1.31926462e-01f,+2.12503284e-01f,
-6.64980849e-03f,+1.10357076e-01f,+1.06812522e-01f,-4.79039960e-02f,-1.82445329e-02f,
-9.14631877e-03f,+1.44140096e-02f,+2.35468954e-01f,+1.06879808e-01f,+5.69649786e-02f,
-6.18832223e-02f,+1.91165090e-01f,-2.63852566e-01f,+1.75251111e-01f,+1.98787674e-01f,
+8.28255787e-02f,-2.20724717e-01f,-7.26833716e-02f,+1.81775257e-01f,+9.82893929e-02f,
+1.67509586e-01f,+1.62142619e-01f,+1.96797419e-02f,+5.29925264e-02f,+1.54796571e-01f,
+1.27085805e-01f,+2.19499677e-01f,+1.76915854e-01f,-7.50211701e-02f,+8.50320607e-03f,
+1.19792782e-01f,-1.97206661e-02f,-2.44208425e-01f,+1.49470016e-01f,-3.67170811e-01f,
-1.57140717e-02f,+1.35317490e-01f,-3.16161633e-01f,+6.67408407e-02f,+8.13082457e-02f,
+1.53198153e-01f,+1.14499554e-01f,-7.02373087e-02f,+9.96114910e-02f,-1.15483096e-02f,
+4.02938342e-03f,+4.09380078e-01f,+1.41652599e-01f,+1.86332792e-01f,+6.79991161e-03f,
+6.84127957e-02f,-1.52672336e-01f,+8.57001469e-02f,-8.57632756e-02f,+7.14402050e-02f,
+1.34732738e-01f,-3.30202170e-02f,+2.07420345e-02f,+6.15588725e-02f,+1.70621574e-02f,
+7.01961443e-02f,+6.63518859e-03f,+2.64284074e-01f,+9.17164534e-02f,-5.50717600e-02f,
+1.02713868e-01f,+1.20501831e-01f,-1.88490704e-01f,+6.33288473e-02f,+9.48736966e-02f,
+9.53692347e-02f,+3.48699465e-02f,+2.80013204e-01f,-2.16877729e-01f,+2.85758041e-02f,
+8.13848525e-02f,+5.79201244e-02f,+3.06160957e-01f,+5.68493903e-02f,+1.56929135e-01f,
+4.56282757e-02f,-2.93117374e-01f,+1.05975837e-01f,-9.33661535e-02f,+4.38253693e-02f,
+5.55581190e-02f,+7.49194017e-03f,+3.74521017e-02f,+1.79605484e-01f,+4.89501469e-02f,
+1.04057595e-01f,-1.04323588e-02f,+3.46700773e-02f,+1.68945462e-01f,+1.41725510e-01f,
+8.56043696e-02f,+2.08240613e-01f,+1.40009806e-01f,-6.81796223e-02f,+1.03127092e-01f,
-1.31624322e-02f,-2.05206238e-02f,-1.73927829e-01f,-3.61081287e-02f,+1.46733999e-01f,
-2.09444650e-02f,+9.08248872e-02f,-3.79399061e-02f,+8.52618553e-03f,-6.16053902e-02f,
+6.44196896e-03f,-1.61159247e-01f,+6.23819698e-03f,-1.62770644e-01f,+6.90190569e-02f,
+1.68089438e-02f,+2.51069721e-02f,-3.51412892e-02f,-2.23496323e-03f,-9.45712626e-02f,
+7.21510872e-02f,+1.03096187e-01f,-1.04384743e-01f,+1.04745753e-01f,+1.76745996e-01f,
+1.38618097e-01f,-1.45317346e-01f,-2.35218182e-01f,+8.28705505e-02f,-1.21549331e-02f,
+2.25331690e-02f,+2.54802525e-01f,+3.41137163e-02f,+2.86284000e-01f,+6.79236278e-02f,
+7.13012889e-02f,+3.69540960e-01f,+7.43837804e-02f,+6.28506690e-02f,+8.80256966e-02f,
+1.10336103e-01f,+8.19054767e-02f,+4.36254079e-03f,+1.21682204e-01f,+1.80899292e-01f,
+7.29268044e-02f,+8.89618769e-02f,+2.63933185e-02f,+7.17185289e-02f,+5.04613593e-02f,
-6.89590536e-03f,-8.69772509e-02f,+2.44825095e-01f,+2.53350288e-02f,+2.93687801e-03f,
+1.90072596e-01f,+2.22141463e-02f,+2.11828901e-03f,-7.10662007e-02f,-1.19439930e-01f,
+1.14523046e-01f,+3.69929194e-01f,+2.35314406e-02f,+1.63719937e-01f,-1.85361635e-02f,
+7.75511190e-03f,+7.31072295e-03f,+2.89702453e-02f,+1.92009732e-01f,-9.89609770e-03f,
+2.30491519e-01f,+1.50556833e-01f,-9.84518155e-02f,-2.42394395e-02f,+3.31190437e-01f,
+1.03464939e-01f,+3.01040530e-01f,+5.45545630e-02f,+9.72978324e-02f,+4.71891798e-02f,
-1.58328265e-01f,+2.07562238e-01f,+1.24557801e-02f,-5.40147871e-02f,+5.22746369e-02f,
+1.16921529e-01f,+8.06744862e-03f,+8.14670473e-02f,-1.36099681e-01f,-1.07078515e-01f,
-6.02183454e-02f,-4.48552854e-02f,+2.33087942e-01f,+1.26016468e-01f,-1.12821236e-01f,
+8.02632719e-02f,+3.05425048e-01f,+5.41002527e-02f,+4.28126343e-02f,+1.15294717e-01f,
+1.97855663e-02f,-3.25868577e-01f,+1.01526111e-01f,-4.47199531e-02f,+1.36725558e-02f,
+6.49201274e-02f,+1.54219859e-03f,+2.72261817e-02f,+1.63225800e-01f,+2.59744376e-01f,
+9.69055817e-02f,+1.18900970e-01f,+6.97337463e-02f,+1.31379336e-01f,+8.62184688e-02f,
+1.76868424e-01f,+4.81302403e-02f,+5.80886528e-02f,-3.36671285e-02f,+1.03424981e-01f,
+5.27991168e-02f,+1.64959610e-01f,+8.08618665e-02f,-1.12058878e-01f,-2.60163117e-02f,
+1.78472042e-01f,+2.31316119e-01f,+2.66379327e-01f,+1.09949388e-01f,+5.29597455e-04f,
-4.57293876e-02f,-3.05393133e-02f,+7.70209963e-03f,+2.73680389e-02f,+1.73107699e-01f,
+1.99386925e-01f,+8.37529004e-02f,+9.17904451e-02f,+5.70944212e-02f,+8.70845988e-02f,
-2.21660182e-01f,+7.66394660e-02f,+2.03543678e-01f,-1.79259583e-01f,-7.79111497e-03f,
+2.28421632e-02f,-4.39364240e-02f,-2.14924902e-01f,+6.74363449e-02f,+1.75692260e-01f,
+3.91084075e-01f,+4.57871929e-02f,-1.04237989e-01f,+1.34098157e-02f,+1.54413730e-01f,
+3.75532825e-03f,+9.33737755e-02f,+2.70852178e-01f,-8.66957754e-02f,-1.03445008e-01f,
-4.75086942e-02f,+5.76891750e-03f,-2.29878247e-01f,+8.15739185e-02f,+3.32574248e-01f,
+2.88058341e-01f,+3.51168998e-02f,-3.39470953e-02f,+5.83409965e-02f,-8.41405243e-02f,
+9.05218348e-02f,-1.16609201e-01f,-2.31769025e-01f,+1.11803645e-02f,-1.79253723e-02f,
+9.05859992e-02f,-1.53356627e-01f,+1.60756677e-01f,-7.01066758e-03f,+9.45360363e-02f,
-1.11858569e-01f,-4.25163843e-02f,+2.07540303e-01f,-1.86348390e-02f,+7.50096813e-02f,
-1.73440706e-02f,-6.11375384e-02f,+1.51745319e-01f,-2.56113142e-01f,+1.11380093e-01f,
-1.04856596e-03f,+1.08104795e-01f,+5.97299216e-03f,+2.01969728e-01f,-7.23868906e-02f,
-9.06436294e-02f,+9.74322557e-02f,+2.62655914e-01f,+2.09139645e-01f,-1.25104636e-01f,
+8.47666636e-02f,-1.08730927e-01f,-1.11051388e-01f,-5.78589179e-02f,+2.64071524e-01f,
+1.01949030e-03f,+2.95821816e-01f,+3.41198564e-01f,+9.56300497e-02f,+9.74018201e-02f,
-1.99414063e-02f,+5.12055354e-03f,+6.22941665e-02f,-7.30236769e-02f,-1.61187261e-01f,
+1.16375349e-01f,+3.08544010e-01f,+7.74311498e-02f,+1.09763615e-01f,+9.06819925e-02f,
+6.07603006e-02f,+9.76685360e-02f,+1.15531228e-01f,-5.20150512e-02f,-1.00246621e-02f,
+5.80735318e-02f,+1.10046081e-02f,+4.97606285e-02f,+7.37869442e-02f,+4.06621620e-02f,
+1.26117602e-01f,+1.76716670e-01f,+3.53689566e-02f,-4.89473939e-02f,+9.62221771e-02f,
+8.35416391e-02f,+2.75291264e-01f,+1.01661108e-01f,-5.11064753e-02f,+1.19714141e-01f,
+3.40299845e-01f,+6.59129843e-02f,+2.57008802e-02f,-1.27416681e-02f,+3.84220071e-02f,
+3.10469954e-03f,-2.02479184e-01f,+2.33689860e-01f,+1.58959016e-01f,-7.02189356e-02f,
-4.22018766e-02f,+2.36674771e-02f,+1.98769763e-01f,+1.56007499e-01f,-7.11049885e-02f,
+1.85579434e-02f,+1.14975020e-01f,-2.50616278e-02f,+9.98389572e-02f,-1.33080006e-01f,
+2.72232324e-01f,+1.72733724e-01f,-4.96783592e-02f,+1.45743443e-02f,-1.39348716e-01f,
+1.35397926e-01f,+7.15206638e-02f,+1.92490313e-02f,+8.16192999e-02f,+1.12697594e-01f,
+4.77034263e-02f,+1.41916405e-02f,+1.47250667e-01f,-1.40647128e-01f,+8.66549611e-02f,
+8.48352537e-02f,-2.98418291e-02f,-1.18857488e-01f,+1.70042068e-02f,+7.17641786e-02f,
+1.51173815e-01f,+1.08077921e-01f,+1.63684115e-01f,+4.81925160e-02f,-6.90529346e-02f,
+2.41335481e-02f,-6.28045797e-02f,+2.03022733e-01f,+1.62953585e-01f,+1.11585647e-01f,
+1.24952070e-01f,+1.58325344e-01f,+8.02623853e-02f,+1.09982342e-01f,+2.01803178e-01f,
+8.65209550e-02f,-1.43083200e-01f,+9.83461216e-02f,+8.70370567e-02f,+1.00880161e-01f,
-9.17017609e-02f,+1.48420900e-01f,+9.90562662e-02f,+6.67406693e-02f,+8.66634175e-02f,
+2.07386445e-02f,+8.79947171e-02f,+5.40988669e-02f,+4.99753132e-02f,+8.74175653e-02f,
+1.82260230e-01f,+1.90638795e-01f,+7.80477077e-02f,-6.39243796e-02f,-1.83338985e-01f,
+1.62289158e-01f,-1.65892225e-02f,-8.61190334e-02f,+2.78605931e-02f,+1.56359851e-01f,
-2.56904550e-02f,-4.96902540e-02f,+1.92321345e-01f,+6.12058491e-02f,+7.34664351e-02f,
+1.95997030e-01f,+6.04835972e-02f,+3.83229665e-02f,+2.39869103e-01f,+1.91457614e-01f,
-9.02646184e-02f,+4.72681105e-01f,+1.87659040e-01f,+4.02907245e-02f,+4.94279228e-02f,
+1.31642625e-01f,+2.89999813e-01f,-1.99250691e-02f,+3.96769673e-01f,+5.34501895e-02f,
+1.23671450e-01f,-6.06470555e-02f,+7.25703733e-03f,+1.56669527e-01f,+1.38893630e-03f,
+6.08869409e-03f,+7.09172785e-02f,+1.98799729e-01f,-1.06285371e-01f,+1.48190916e-01f,
+1.77803457e-01f,+1.65973768e-01f,+1.41081050e-01f,-7.20387232e-03f,+2.96518914e-02f,
+2.17992701e-02f,+9.10942722e-03f,+1.19092382e-01f,+6.45227032e-03f,+1.59766167e-01f,
+5.71829863e-02f,+1.48302555e-01f,+1.44238025e-01f,+5.12440614e-02f,+7.41128400e-02f,
+5.34489006e-02f,+7.72454068e-02f,-1.51275322e-02f,+3.31985541e-02f,+3.16021927e-02f,
+2.81513512e-01f,+1.16597123e-01f,+1.14188448e-01f,+9.55154672e-02f,+1.13284186e-01f,
+6.34252420e-03f,+2.33402148e-01f,-1.84353832e-02f,-7.91712839e-04f,-4.00738157e-02f,
-4.25429121e-02f,+2.54722591e-02f,+2.16772094e-01f,-6.13659322e-02f,+2.73128157e-04f,
-9.86316651e-02f,+1.28533989e-01f,-1.38037384e-01f,+3.31815034e-02f,-7.14629143e-02f,
+6.83441907e-02f,+4.29028980e-02f,-2.13309601e-02f,+1.02573685e-01f,+2.49443412e-01f,
+2.52139449e-01f,-5.27812615e-02f,+2.25192457e-01f,+7.57401139e-02f,+7.03202784e-02f,
+1.13549694e-01f,+1.08793691e-01f,+3.40516061e-01f,-3.88728036e-03f,+5.98885082e-02f,
+1.41397730e-01f,-7.98108950e-02f,+4.73757908e-02f,+1.81100219e-02f,+9.71313491e-02f,
-2.67130625e-03f,+2.42766961e-02f,+2.02101737e-01f,+9.80326459e-02f,+1.55670226e-01f,
+5.37106358e-02f,+1.04348339e-01f,+1.76842421e-01f,-2.66742762e-02f,+8.72558132e-02f,
+2.15995573e-02f,+3.96003723e-02f,-2.23631989e-02f,+1.19021319e-01f,+1.30384967e-01f,
+7.74607733e-02f,+7.28835464e-02f,+2.14227922e-02f,+7.76394783e-03f,+7.41202012e-02f,
-8.63845572e-02f,-1.03232920e-01f,-7.01576471e-03f,-8.03680811e-03f,+7.57262483e-02f,
+1.80549733e-02f,+6.37046918e-02f,-1.00935712e-01f,+2.50390563e-02f,+2.52006929e-02f,
+9.93176103e-02f,+8.99326354e-02f,-1.02037460e-01f,+1.78572878e-01f,+1.10940866e-01f,
-1.07460313e-01f,+4.95070815e-02f,+2.44287208e-01f,+1.30954593e-01f,+8.04897263e-06f,
-3.26060853e-03f,+1.25472799e-01f,+6.32806569e-02f,+1.21690445e-01f,-5.16698733e-02f,
+1.33235618e-01f,+1.50031164e-01f,+1.94252506e-02f,-5.81496917e-02f,+2.30819091e-01f,
+1.09131992e-01f,-7.66517520e-02f,+1.58057913e-01f,+1.35001197e-01f,+9.30618420e-02f,
-1.78418145e-01f,+2.21010610e-01f,+5.82984760e-02f,+9.26790386e-02f,+4.42480436e-03f,
+7.44379824e-03f,+4.07476202e-02f,+6.18206896e-02f,+3.48124892e-01f,-9.94004384e-02f,
+3.02511360e-02f,+7.30742216e-02f,+5.48892468e-02f,-5.54061644e-02f,+7.19582364e-02f,
-2.72288889e-01f,-1.35488093e-01f,+1.37593627e-01f,+2.36556187e-01f,-3.79201360e-02f,
-1.64793488e-02f,+9.30705518e-02f,+3.39300744e-02f,-3.13676670e-02f,+7.25653619e-02f,
+1.37494221e-01f,+1.12094015e-01f,+1.14033334e-02f,+4.54109274e-02f,+8.60121027e-02f,
+1.14539921e-01f,+7.36124739e-02f,+1.16310477e-01f,+3.52194577e-01f,+5.86504713e-02f,
+2.51036361e-02f,+2.61541717e-02f,+2.77919006e-02f,+3.90448987e-01f,+1.76119402e-01f,
-2.32314363e-01f,+2.53091395e-01f,+7.12223947e-02f,-1.10820986e-01f,+4.74152938e-02f,
+1.18885010e-01f,+7.21945912e-02f,+4.79167663e-02f,+2.21595809e-01f,+4.84411418e-03f,
+1.83470860e-01f,+3.01818460e-01f,+1.43229395e-01f,+1.18636891e-01f,+1.62832528e-01f,
+3.83349508e-02f,+2.78061628e-01f,-1.04155041e-01f,+1.08531840e-01f,-1.33890910e-02f,
+2.24207882e-02f,+1.06947400e-01f,-5.07127605e-02f,-1.21302173e-01f,+2.81755929e-04f,
+9.80205014e-02f,-1.18095830e-01f,+3.07105724e-02f,-1.00997180e-01f,+1.97871625e-01f,
-4.77945246e-02f,+1.24238670e-01f,+5.13076000e-02f,+1.27355242e-02f,-7.75043890e-02f,
+7.57378638e-02f,-2.33305544e-01f,-3.72304209e-02f,-5.76094538e-02f,-1.80567920e-01f,
+6.44292682e-02f,-5.20231538e-02f,-1.90157205e-01f,+2.26222843e-01f,+9.07503292e-02f,
-7.65597075e-02f,-8.77202451e-02f,-1.55892029e-01f,-1.88185319e-01f,-1.57333612e-01f,
-2.50251964e-03f,+8.82076174e-02f,+1.76989567e-02f,+4.14514780e-01f,-6.88549131e-02f,
+6.55589625e-02f,-1.48167580e-01f,+3.18480551e-01f,+3.33442278e-02f,-3.88924740e-02f,
+2.84541491e-02f,-5.10812774e-02f,-9.52452421e-02f,+1.58111572e-01f,+1.11153528e-01f,
-2.29190011e-02f,+2.14443319e-02f,-1.15393028e-01f,+1.24311931e-01f,-1.30407855e-01f,
+1.69973344e-01f,-6.70147613e-02f,+1.04630232e-01f,-1.61590357e-03f,+2.02285200e-01f,
+2.05598235e-01f,-6.53631613e-02f,-1.84329003e-01f,-1.61471486e-01f,-3.68386544e-02f,
+3.74787092e-01f,+1.64826419e-02f,-3.99442762e-02f,+2.76045389e-02f,-4.00670096e-02f,
-7.28045627e-02f,-4.66310009e-02f,-1.38411343e-01f,+1.76171020e-01f,+5.90094700e-02f,
-1.02101520e-01f,+1.16063572e-01f,-5.82424253e-02f,-2.72804528e-01f,+3.14654917e-01f,
+3.03650856e-01f,+1.82233706e-01f,-1.31464332e-01f,+6.69770315e-02f,-5.39973862e-02f,
+1.79702807e-02f,+1.17520485e-02f,+2.10842624e-01f,+7.93034360e-02f,-7.85656869e-02f,
+4.78479937e-02f,-4.23987918e-02f,-1.18920006e-01f,-1.22916400e-02f,+1.10253304e-01f,
+5.50227985e-02f,+2.24839553e-01f,+3.45510021e-02f,+2.28997141e-01f,-6.37760432e-03f,
-4.37236354e-02f,+1.04466438e-01f,-7.69038275e-02f,-8.67899284e-02f,-1.32969975e-01f,
+3.90123129e-02f,+6.36608601e-02f,-2.69630224e-01f,-9.90961865e-02f,+1.54255822e-01f,
+6.51836619e-02f,+1.22806691e-02f,-1.14536462e-02f,+5.30162714e-02f,-5.48206680e-02f,
+2.71806389e-01f,+1.47876933e-01f,-7.71971494e-02f,+1.20244086e-01f,-4.04286087e-02f,
+1.98070914e-01f,+9.48693678e-02f,+5.10054231e-02f,-8.91039986e-03f,+3.25368643e-02f,
+5.04584275e-02f,+1.31602675e-01f,+2.12580785e-01f,+1.40648097e-01f,+8.46336260e-02f,
+3.39444689e-02f,-5.58261164e-02f,-3.12503241e-02f,+2.93807477e-01f,+6.87576234e-02f,
+1.85667276e-01f,+7.28889257e-02f,-1.52441293e-01f,+2.02162907e-01f,+1.30036781e-02f,
-1.00141339e-01f,-2.15167210e-01f,+5.31290233e-01f,-3.48753154e-01f,+8.90884623e-02f,
+2.92037457e-01f,-1.60893425e-02f,-1.52735651e-01f,+4.81344581e-01f,-9.66548279e-04f,
-1.19876582e-02f,+1.67670220e-01f,-9.47539583e-02f,+2.33752906e-01f,-2.01624632e-02f,
+4.90743220e-02f,+1.24108121e-01f,+8.34411755e-02f,-8.23667124e-02f,+9.08447057e-02f,
+2.05853373e-01f,+1.40359521e-01f,+4.59716767e-02f,+9.65119004e-02f,+3.81584227e-01f,
-8.31740797e-02f,+1.16937093e-01f,+1.74421612e-02f,+1.34885177e-01f,-1.76411811e-02f,
-3.77405621e-02f,+4.02989797e-02f,-6.21273220e-02f,+1.08393230e-01f,-1.46476269e-01f,
+1.75246119e-01f,-4.18758988e-02f,-1.41342565e-01f,+1.62254229e-01f,-4.58161645e-02f,
-1.46291822e-01f,-1.37869874e-02f,-2.12990232e-02f,+1.20977852e-02f,+1.75981477e-01f,
-9.87154245e-02f,+9.74267200e-02f,-3.60382557e-01f,-2.02513058e-02f,+6.30093962e-02f,
+8.47326368e-02f,-9.44543630e-02f,+1.11605704e-01f,+4.14936058e-02f,-1.46586314e-01f,
-4.71665859e-02f,-1.14030033e-01f,-1.22305617e-01f,-1.21810198e-01f,+2.06619248e-01f,
+1.45283770e-02f,+1.37017563e-01f,-2.41793856e-01f,-1.01615332e-01f,+1.65802449e-01f,
-4.33235057e-02f,+7.60715008e-02f,-3.09105039e-01f,+2.04926252e-01f,+2.49363631e-01f,
+8.75014067e-02f,+4.67628986e-02f,-1.01324655e-01f,-5.65953851e-02f,-4.81025092e-02f,
+2.26213969e-02f,+1.11238383e-01f,+2.49831453e-02f,+8.86556357e-02f,+2.21615672e-01f,
+3.02114920e-03f,+1.41634807e-01f,-9.03188810e-02f,+1.22855909e-01f,+1.91942424e-01f,
+1.55257642e-01f,+3.97453047e-02f,-5.63508868e-02f,+5.64736426e-02f,+3.93227711e-02f,
+2.23024145e-01f,+4.21055257e-02f,-7.53038079e-02f,-9.87777188e-02f,-4.77338918e-02f,
+4.94392604e-01f,+8.19454156e-03f,+1.12373106e-01f,-2.68593371e-01f,+2.49995068e-02f,
+1.01476945e-02f,+1.09454490e-01f,-1.56783655e-01f,+1.59389809e-01f,+1.14633039e-01f,
-9.94569063e-02f,-1.16053768e-01f,+1.59725174e-03f,+1.32210022e-02f,-1.01480670e-02f,
+1.88451707e-01f,+1.83673203e-01f,-2.71016732e-02f,+1.79088905e-01f,+1.04115927e-03f,
+3.23882215e-02f,-4.18527424e-02f,-1.67577431e-01f,+4.19638939e-02f,+2.16965854e-01f,
+6.47672042e-02f,+1.28506184e-01f,+1.31336436e-01f,+1.39982998e-01f,+1.35773435e-01f,
+1.13572657e-01f,-8.62455368e-02f,+2.93071102e-02f,-5.33284694e-02f,+1.65771171e-01f,
+1.53587580e-01f,-3.24856676e-02f,-1.92559150e-03f,+1.86479494e-01f,-1.20475963e-01f,
+2.27750257e-01f,-1.29028007e-01f,+6.75895298e-03f,-2.23846525e-01f,+7.82332718e-02f,
+1.30072847e-01f,-2.92177834e-02f,-3.18570323e-02f,-2.38724761e-02f,+3.28400582e-01f,
+2.71844920e-02f,+9.76501331e-02f,-3.31996754e-02f,-7.35787898e-02f,+3.14334720e-01f,
+1.99756965e-01f,-1.10340849e-01f,+3.37525122e-02f,+5.10312170e-02f,+1.22957692e-01f,
+1.14219479e-01f,-1.19882219e-01f,+9.26667228e-02f,+1.29346818e-01f,+4.26415727e-03f,
+2.46936157e-02f,-1.17824130e-01f,-4.64737304e-02f,+1.69304907e-01f,+2.64326453e-01f,
+2.50558615e-01f,-8.77449736e-02f,-8.10462087e-02f,+9.26988497e-02f,+8.99707824e-02f,
-2.17716709e-01f,-5.69975488e-02f,+2.11943891e-02f,+1.57957718e-01f,-6.46241307e-02f,
+3.43232661e-01f,+1.19671114e-01f,+1.14557929e-02f,+3.04962099e-01f,+1.57876089e-01f,
+1.72798380e-01f,+2.65409470e-01f,-1.56871974e-01f,+6.24199286e-02f,-6.69785365e-02f,
+9.41338241e-02f,+1.28898397e-01f,-1.67378843e-01f,+1.30282834e-01f,-4.11785021e-02f,
+2.42417604e-01f,+1.33176312e-01f,+9.64429080e-02f,+1.84453756e-01f,+4.98102270e-02f,
+6.55485764e-02f,+1.16886854e-01f,-6.73717856e-02f,-6.82282373e-02f,+2.18615048e-02f,
+1.19369410e-01f,+9.41785648e-02f,-2.46410772e-01f,-5.78748547e-02f,-2.62186110e-01f,
+6.19351724e-03f,+1.36332527e-01f,-2.01716516e-02f,-5.27875759e-02f,-1.53389703e-02f,
+5.01646064e-02f,+1.44188985e-01f,+2.92938590e-01f,-1.51887402e-01f,-4.76813456e-03f,
+2.93530226e-01f,+2.49658585e-01f,+4.78957593e-02f,-4.50376533e-02f,-6.77686036e-02f,
+2.82285791e-02f,+1.84279516e-01f,-2.10282013e-01f,-3.30128253e-01f,+4.00171056e-02f,
+2.19983712e-01f,+1.84670836e-01f,+4.52113431e-03f,-4.98319566e-02f,+7.52907246e-02f,
+1.64879903e-01f,-1.39309481e-01f,-1.93824574e-01f,-9.53486096e-03f,+9.57740173e-02f,
+4.29231487e-03f,+4.79862392e-02f,+1.34233050e-02f,+7.52091855e-02f,-7.42181540e-02f,
+9.22240689e-02f,-9.22720432e-02f,-3.63679826e-02f,+2.71113664e-01f,+1.45699859e-01f,
-3.58861196e-03f,+3.28926146e-01f,+1.99370340e-01f,-1.00323193e-01f,-9.56558585e-02f,
+1.72415361e-01f,+1.07573107e-01f,-2.09505305e-01f,-1.20748580e-01f,-2.77926195e-02f,
+2.77810916e-02f,+1.92261040e-01f,-2.02121562e-03f,+5.74056089e-01f,+2.49676660e-01f,
-3.75767276e-02f,+8.77494067e-02f,-1.35047182e-01f,-9.54874605e-02f,+4.91260178e-02f,
+2.33693734e-01f,+4.59356159e-02f,+1.61818385e-01f,-4.22745608e-02f,+5.54139353e-02f,
+9.84884873e-02f,+2.12221652e-01f,-9.39745009e-02f,+9.77636427e-02f,+1.62380785e-01f,
+1.09060155e-02f,+8.68105516e-02f,+1.96192205e-01f,+9.16313529e-02f,+7.06162304e-02f,
+5.34285465e-03f,+1.33180723e-01f,+1.56572953e-01f,+1.97775587e-02f,-2.54570302e-02f,
+1.84839591e-01f,-2.87049706e-03f,+1.33942619e-01f,+3.76190171e-02f,-2.20409092e-02f,
-7.01844366e-03f,+3.10832471e-01f,+2.18431018e-02f,-2.39608940e-02f,-4.28550653e-02f,
+3.36902887e-01f,+8.52280334e-02f,+2.28583843e-01f,+1.99044868e-01f,-4.79975305e-02f,
+1.62684441e-01f,-1.09727308e-01f,+1.49132267e-01f,-1.24346107e-01f,-1.05533831e-01f,
+3.46577056e-02f,+1.64863765e-01f,+1.24601074e-01f,+1.96879636e-02f,+1.39429554e-01f,
-1.74029972e-02f,+4.06125560e-02f,+1.27261102e-01f,-1.88580111e-01f,+1.14667915e-01f,
+3.43329683e-02f,-5.49930371e-02f,-6.51578158e-02f,+1.37910157e-01f,+1.09080173e-01f,
+1.13501986e-02f,-7.32651129e-02f,-7.87330419e-02f,+1.63984016e-01f,+3.06942035e-02f,
-8.61197785e-02f,-2.11519793e-01f,+1.14832014e-01f,+4.07860475e-03f,+1.09978773e-01f,
-7.29339495e-02f,+4.95590903e-02f,-7.89138004e-02f,+1.65564626e-01f,+8.90196413e-02f,
-1.59187466e-01f,+6.90304190e-02f,+1.65415242e-01f,+4.98490810e-01f,-6.72560036e-02f,
+1.03444465e-01f,+3.48519474e-01f,+6.51072711e-02f,+5.33595793e-02f,+1.67003244e-01f,
+6.53041676e-02f,-4.48174179e-02f,+3.46246883e-02f,+1.05958559e-01f,+7.46855810e-02f,
+6.89185336e-02f,+1.01591483e-01f,-2.71047711e-01f,-1.19736135e-01f,+4.25258838e-02f,
-3.53094116e-02f,+4.99089174e-02f,-1.85688473e-02f,-1.08076096e-01f,-1.45608008e-01f,
+3.50782603e-01f,+2.00112462e-01f,-2.97190137e-02f,-6.35604039e-02f,+1.20040014e-01f,
+2.78175861e-01f,+1.00240014e-01f,+1.03655502e-01f,+1.25696972e-01f,+1.52370244e-01f,
-1.80258621e-02f,+3.10962386e-02f,+2.38801509e-01f,-1.05101146e-01f,+1.02862753e-01f,
+5.19186631e-02f,-1.31479859e-01f,+1.25211552e-01f,+2.88685113e-01f,+1.70096710e-01f,
-1.27214760e-01f,-1.05934098e-01f,-3.31411399e-02f,-3.50325763e-01f,+3.61845158e-02f,
-1.69078223e-02f,+5.28152406e-01f,+6.47203550e-02f,+6.40581474e-02f,+1.62974577e-02f,
+3.98267014e-03f,+3.06512624e-01f,-5.65270782e-02f,-1.60453856e-01f,-5.48606366e-03f,
+1.98445559e-01f,+1.25883922e-01f,+1.20044790e-01f,+3.28365378e-02f,+1.20388329e-01f,
-3.65629122e-02f,+2.41119042e-02f,+1.74467012e-01f,+7.80414492e-02f,-4.91375476e-03f,
-8.59382376e-02f,+3.55202630e-02f,+2.84465402e-01f,-1.79886982e-01f,+1.39465630e-01f,
-3.80908735e-02f,+1.72573887e-03f,+5.58469743e-02f,+8.31020251e-02f,+2.40736127e-01f,
+5.54215349e-02f,-4.75626588e-02f,-4.35340628e-02f,-2.39410624e-02f,+2.61514455e-01f,
+1.03108652e-01f,+1.23809144e-01f,+1.34910762e-01f,+1.92544878e-01f,+1.07768632e-01f,
-2.37923399e-01f,+5.26513010e-02f,-3.43698114e-02f,+1.11080274e-01f,-3.92555781e-02f,
+2.49350667e-01f,+1.89541399e-01f,+1.61729053e-01f,+1.79946214e-01f,-6.63611759e-03f,
+4.26051579e-03f,+1.59649014e-01f,-4.10946310e-02f,-4.07519825e-02f,+1.84296407e-02f,
+3.46348360e-02f,+1.11531869e-01f,-1.25042647e-01f,-1.18925519e-01f,-3.60032469e-02f,
-1.77636484e-05f,+6.69855177e-02f,+1.58193782e-01f,+6.90716952e-02f,+1.11922905e-01f,
-3.87639068e-02f,+7.11763203e-02f,+1.14959545e-01f,+3.12561244e-02f,+5.00561036e-02f,
-3.40619124e-02f,+1.67278603e-01f,+1.34254828e-01f,+1.34972394e-01f,+3.42243314e-01f,
+2.77487516e-01f,+6.88960329e-02f,-2.90446356e-02f,+1.47642136e-01f,+1.97022542e-01f,
+7.73039535e-02f,+7.51022100e-02f,+2.88649231e-01f,+3.04161489e-01f,-6.88646808e-02f,
+2.51061261e-01f,+3.21423292e-01f,+1.94140092e-01f,+2.27325141e-01f,+9.58860591e-02f,
+6.19863346e-02f,-3.09889406e-01f,+2.05040112e-01f,+6.84982315e-02f,+1.48671463e-01f,
+2.96365172e-01f,-1.16389297e-01f,-2.00582877e-01f,+5.30711375e-02f,-5.55561110e-02f,
+6.48296550e-02f,+2.08119944e-01f,+4.39513300e-04f,+1.78423077e-02f,-9.01110321e-02f,
-3.21120210e-02f,+2.67694533e-01f,+4.89588007e-02f,-1.04441397e-01f,+1.11960173e-02f,
-9.56724398e-03f,-1.69608984e-02f,-4.25487868e-02f,+7.95429051e-02f,-1.13569379e-01f,
+2.40794212e-01f,+9.69699994e-02f,-1.11540169e-01f,+9.16899294e-02f,-1.59885481e-01f,
+7.83581585e-02f,-8.07320103e-02f,-6.54590651e-02f,+2.58432359e-01f,-6.52031228e-02f,
+4.70160320e-02f,+1.11939974e-01f,+2.14104339e-01f,-3.71736549e-02f,+3.29325832e-02f,
+1.24053180e-01f,+2.47834846e-02f,+3.00266780e-02f,+1.79533139e-01f,-1.43622486e-02f,
+1.51267141e-01f,+1.57102734e-01f,-3.84500697e-02f,-4.24196348e-02f,+1.41896769e-01f,
+7.49390498e-02f,+2.09589586e-01f,-1.71340168e-01f,-5.92388387e-04f,+1.62915215e-01f,
-1.35666862e-01f,-7.76658282e-02f,+1.93156064e-01f,+1.67419881e-01f,+6.03002822e-03f,
-4.50863987e-02f,-9.22854319e-02f,+1.30162969e-01f,+1.00933440e-01f,+1.59016594e-01f,
+1.92077115e-01f,+1.03371656e-02f,-5.71069084e-02f,-4.66603376e-02f,+2.80084033e-02f,
+3.05147190e-02f,+1.48378924e-01f,-9.42244604e-02f,-1.11742213e-01f,-9.53719094e-02f,
-8.42901543e-02f,+1.08671784e-01f,-4.87697609e-02f,+8.68961141e-02f,+4.62594032e-01f,
-1.16339989e-01f,+8.20028782e-02f,+1.02014199e-01f,-2.09957451e-01f,-1.04547031e-01f,
+4.50655147e-02f,+1.56456307e-02f,+1.65702607e-02f,-3.76835167e-02f,-5.27645499e-02f,
-1.42597675e-01f,+1.23912528e-01f,-3.59194092e-02f,-1.36184305e-01f,+1.66598707e-01f,
+6.42067567e-02f,-1.26154395e-03f,+1.15294810e-02f,-1.70249745e-01f,-1.11975312e-01f,
-6.58710077e-02f,+5.79876564e-02f,+4.98831533e-02f,-5.57002798e-02f,+1.50928944e-01f,
+7.68112689e-02f,+5.32178730e-02f,+4.07644324e-02f,+8.33099037e-02f,+4.61507700e-02f,
+8.74198750e-02f,+6.32748753e-02f,+2.55421340e-01f,+1.99221522e-01f,-3.18306774e-01f,
+7.75079802e-02f,+1.42665328e-02f,+1.14251010e-01f,-1.11633942e-01f,+7.89644346e-02f,
-1.24499336e-01f,+1.91528574e-01f,+3.10102776e-02f,+1.47122428e-01f,+1.08742662e-01f,
+9.67601016e-02f,+2.11585518e-02f,-3.74637172e-02f,+1.52803799e-02f,+2.37306163e-01f,
+4.90089767e-02f,-7.46236974e-03f,+7.33991712e-02f,+1.28254771e-01f,+6.19293377e-02f,
-5.98743930e-02f,+7.65423700e-02f,+2.13176385e-01f,+2.57642001e-01f,-2.75210012e-03f,
+2.45279521e-01f,-1.35208532e-01f,-9.30599868e-02f,+1.11944415e-01f,+5.98968677e-02f,
+1.57426193e-01f,-9.58708227e-02f,-8.66557434e-02f,+5.64407632e-02f,+7.73775205e-03f,
+2.16035709e-01f,+1.45931169e-01f,+1.82651550e-01f,+1.08055905e-01f,+2.37945810e-01f,
+9.87418890e-02f,+3.37582105e-03f,+3.03525239e-01f,-1.85444742e-01f,-5.84989227e-02f,
-8.23819339e-02f,+1.07947901e-01f,-1.18927866e-01f,+1.65983319e-01f,+2.05991380e-02f,
-2.24767774e-01f,+1.10933013e-01f,+2.38974184e-01f,+1.04260787e-01f,+1.49552822e-02f,
+2.43949652e-01f,-2.62859240e-02f,+1.07820690e-01f,+2.22273454e-01f,+1.02272630e-01f,
+4.24870551e-02f,+1.59427851e-01f,+1.08930126e-01f,+3.43225785e-02f,+1.17576316e-01f,
+8.14463869e-02f,-1.96097001e-01f,+4.51307893e-02f,-5.45486771e-02f,-1.63129643e-02f,
+8.33895348e-04f,+2.94698477e-02f,-4.52610292e-02f,+6.60628453e-02f,-2.93885082e-01f,
-2.22467318e-01f,+9.53557417e-02f,+3.08000445e-02f,-9.39443707e-02f,+2.71109849e-01f,
+8.82248655e-02f,+2.14163177e-02f,+1.68108881e-01f,+2.56306585e-02f,+1.02095418e-01f,
+1.76280901e-01f,-3.07872873e-02f,+2.37897545e-01f,+1.82484955e-01f,+2.29272261e-01f,
+1.70772702e-01f,-1.78844891e-02f,+1.38325080e-01f,+2.01351151e-01f,-1.13865905e-01f,
+6.23638667e-02f,+1.96362883e-02f,-6.96515217e-02f,+2.32954413e-01f,+2.23907486e-01f,
+3.10806092e-02f,+1.23145625e-01f,+1.13745570e-01f,-9.82460380e-02f,-3.14278365e-03f,
-1.15353137e-01f,-9.22433063e-02f,+1.83088049e-01f,+5.11234254e-02f,+1.68453585e-02f,
+9.11414903e-03f,-1.02836214e-01f,+5.60985170e-02f,+2.01199695e-01f,+8.07610974e-02f,
+3.28854561e-01f,-1.18551865e-01f,+1.12194538e-01f,+5.86312674e-02f,-2.11911555e-03f,
+8.02243650e-02f,+4.49219765e-03f,+9.93265510e-02f,+8.32419470e-02f,-2.02215388e-01f,
-4.52190004e-02f,+1.08740367e-02f,-1.05527416e-01f,+1.53028980e-01f,-1.51836008e-01f,
-1.17709011e-01f,+1.90467145e-02f,+8.70087296e-02f,+2.21274957e-01f,+6.89274594e-02f,
+4.48643118e-02f,+1.16555013e-01f,+6.66293688e-03f,+5.29892594e-02f,+2.30235949e-01f,
+2.54779875e-01f,-2.23654006e-02f,-1.14477158e-01f,+1.61820531e-01f,-6.14347607e-02f,
-1.00270323e-01f,+3.66886370e-02f,+4.40260395e-02f,-1.65191039e-01f,+1.67055279e-01f,
+3.63289751e-02f,-4.10316419e-03f,-1.96287036e-01f,+3.99950184e-02f,+1.49675608e-01f,
+2.25597307e-01f,-8.04237798e-02f,+2.98397318e-02f,+2.34257609e-01f,+5.27591594e-02f,
+1.16556793e-01f,+1.87863961e-01f,+5.66095524e-02f,+7.99256414e-02f,-1.17900977e-02f,
+1.26830870e-02f,+7.94362426e-02f,+1.46124884e-01f,+6.89983815e-02f,-6.04392812e-02f,
-6.13393895e-02f,+5.10316193e-02f,+2.24123091e-01f,+5.33817485e-02f,-1.33543951e-03f,
+5.44785149e-03f,+2.11077705e-01f,+2.13315636e-02f,+1.24345385e-01f,+8.63520578e-02f,
-5.95265962e-02f,+2.92426884e-01f,+3.18242498e-02f,+3.61582302e-02f,-9.22490656e-03f,
+2.00661361e-01f,-2.14456189e-02f,+1.12629719e-01f,-1.79350898e-01f,+2.72666007e-01f,
+1.15856260e-01f,-2.25141905e-02f,-8.24373290e-02f,+1.73193708e-01f,-1.36553884e-01f,
-7.91042745e-02f,+2.45237604e-01f,-4.73673902e-02f,+2.90319115e-01f,-2.94958754e-03f,
+1.11285701e-01f,-1.53447777e-01f,-3.19587849e-02f,+2.87239373e-01f,-3.87679785e-02f,
-4.21271026e-02f,+2.21074764e-02f,+2.36846641e-01f,-8.23565235e-04f,+4.34978642e-02f,
+4.48869057e-02f,+5.69892451e-02f,-6.41157031e-02f,+6.79749921e-02f,+2.05415115e-01f,
+1.40633330e-01f,-3.42003673e-01f,-3.56705487e-02f,-4.18306626e-02f,+5.07627279e-02f,
+9.02379900e-02f,+2.16044430e-02f,-1.14410408e-01f,+1.20789327e-01f,+2.34980881e-02f,
-1.00772105e-01f,-6.30331784e-02f,+1.42114997e-01f,-1.09756947e-01f,+6.60466850e-02f,
+3.40120971e-01f,+7.36570684e-03f,+1.95385933e-01f,+1.46341071e-01f,-9.67444032e-02f,
+2.92664338e-02f,+2.46506646e-01f,-9.67959240e-02f,+1.52255133e-01f,-8.40439275e-03f,
+1.09358624e-01f,-3.07676531e-02f,+9.37255025e-02f,+2.63607293e-01f,+4.64987680e-02f,
+2.77527235e-02f,-5.52238859e-02f,+4.13503386e-02f,+1.14434613e-02f,+6.86884075e-02f,
+1.83998510e-01f,+6.86845183e-03f,+1.30584583e-01f,-1.34478584e-01f,-1.17553964e-01f,
-1.09777242e-01f,+1.20932579e-01f,+2.04055503e-01f,+1.03906706e-01f,-3.39345001e-02f,
-4.71018814e-02f,+3.06399073e-02f,-1.35199785e-01f,+3.00761987e-03f,+1.40843183e-01f,
+3.23055051e-02f,+8.97861049e-02f,-4.81385775e-02f,+1.30134925e-01f,+4.72619198e-02f,
+2.43350282e-01f,-1.52767897e-01f,+4.86625396e-02f,-5.70722818e-02f,-1.45503357e-02f,
+8.74974132e-02f,-3.57017294e-02f,-3.38236652e-02f,+4.63810600e-02f,+9.11554042e-03f,
+8.40506852e-02f,-8.22508782e-02f,-2.45629880e-03f,+8.12761560e-02f,+2.30855152e-01f,
-5.78914285e-02f,-8.51041749e-02f,-3.25554027e-03f,-1.06311619e-01f,+8.32899213e-02f,
-2.56241530e-01f,+3.92414071e-02f,+9.13382415e-03f,+1.15148753e-01f,+1.02256080e-02f,
+1.45183414e-01f,+1.59908846e-01f,+6.90135732e-02f,+7.91415572e-02f,-6.22080453e-02f,
-1.25951115e-02f,+5.04974127e-02f,+3.99229601e-02f,-7.56371841e-02f,-2.06753522e-01f,
+7.85126444e-03f,-2.05978993e-02f,+1.91938385e-01f,+1.26856789e-01f,+5.54552078e-02f,
+1.35803521e-01f,-1.21725328e-01f,+2.27915347e-02f,-6.34348020e-02f,-9.11367312e-02f,
+8.34241807e-02f,+3.18779618e-01f,+2.54621714e-01f,-5.35105951e-02f,+6.38623312e-02f,
+1.21541537e-01f,+1.20178796e-01f,+1.28598049e-01f,-1.11549189e-02f,+1.77488804e-01f,
+5.54021746e-02f,+5.52480705e-02f,+1.65848061e-01f,+1.06241122e-01f,+2.16426462e-01f,
-6.08775616e-02f,-1.59616880e-02f,+1.59749374e-01f,-1.77360568e-02f,+9.72842202e-02f,
+2.68406689e-01f,-9.88363996e-02f,-7.00342432e-02f,-6.79508150e-02f,+2.23960891e-01f,
+2.12163866e-01f,+1.56584587e-02f,+9.64056626e-02f,-5.30965850e-02f,+1.89078569e-01f,
+3.20807286e-03f,-1.37348041e-01f,-9.30879936e-02f,+1.88403651e-02f,+7.44965449e-02f,
-1.33558899e-01f,-5.78743741e-02f,+2.66434308e-02f,+8.30036253e-02f,+8.30608383e-02f,
+1.01797231e-01f,+1.02919377e-01f,+3.11947726e-02f,+3.64773050e-02f,+6.23469241e-02f,
-6.43919781e-02f,+7.55773187e-02f,+3.16993557e-02f,+6.08416535e-02f,+2.94221994e-02f,
-5.69228418e-02f,-1.58152971e-02f,+2.68885165e-01f,-1.98830917e-01f,+1.12371102e-01f,
-8.36992040e-02f,+4.66643181e-03f,+3.95046473e-02f,+4.94815409e-03f,+2.59318858e-01f,
-2.10588668e-02f,+3.95076796e-02f,+9.36516672e-02f,+1.46252483e-01f,+2.40339339e-02f,
+1.35865360e-01f,-1.50336530e-02f,+1.58621389e-02f,+7.24543864e-03f,-2.89049651e-03f,
+2.73322277e-02f,+7.08291829e-02f,+1.14855595e-01f,-5.21691702e-02f,-4.15660590e-02f,
+1.83825895e-01f,+7.76837990e-02f,+1.35348886e-01f,+6.85535371e-02f,+1.65383190e-01f,
+2.31559262e-01f,+2.42412284e-01f,+7.49073327e-02f,+2.20642969e-01f,+5.18552512e-02f,
-1.04121514e-01f,+5.77608831e-02f,+2.95733195e-02f,-1.04190715e-01f,+1.32787675e-01f,
-1.23289965e-01f,-8.12674873e-03f,+2.75518354e-02f,-1.36695608e-01f,+4.90959659e-02f,
+7.75888935e-02f,-1.09885067e-01f,-1.09441360e-04f,-1.80729106e-02f,+7.89202303e-02f,
-8.01063776e-02f,-1.11926787e-01f,+1.02500498e-01f,+7.02555776e-02f,+1.19448761e-02f,
+1.52402043e-01f,+1.57451287e-01f,-1.04317173e-01f,+1.64928347e-01f,+4.04384062e-02f,
-1.48581117e-02f,-3.30279209e-02f,-4.99655772e-03f,-9.65709798e-03f,+1.19088128e-01f,
+3.08726043e-01f,-8.14221948e-02f,-2.87793688e-02f,-2.64201880e-01f,+8.13758746e-02f,
+1.34241521e-01f,+6.18143640e-02f,+7.79382065e-02f,+1.76288951e-02f,-1.06171429e-01f,
+2.37922184e-02f,+4.10279855e-02f,+1.78819582e-01f,-5.99581189e-02f,+7.11969286e-02f,
-7.16254339e-02f,+1.54658183e-01f,-7.75159569e-03f,+5.38637079e-02f,+1.94020644e-01f,
+1.48826897e-01f,+9.64771956e-02f,-6.41885698e-02f,+2.99468078e-02f,+1.88088477e-01f,
+5.66977076e-02f,-2.59111058e-02f,+1.84452131e-01f,+2.37510443e-01f,+1.32042840e-01f,
+7.98578709e-02f,+4.13632244e-02f,+1.94824748e-02f,-1.09565100e-02f,+2.13946551e-02f,
+9.23205242e-02f,+1.80162504e-01f,+1.48956060e-01f,+2.25346908e-01f,-3.07759512e-02f,
+4.16761413e-02f,+1.49971038e-01f,+8.50161910e-02f,+1.40793249e-01f,+1.33469820e-01f,
+1.18389256e-01f,+1.17282420e-01f,+2.38444284e-01f,+2.14876086e-01f,+9.27911103e-02f,
+8.76313001e-02f,-1.10672072e-01f,+3.62879895e-02f,-1.15458658e-02f,-7.99130946e-02f,
-3.40194106e-02f,+2.67170183e-02f,+4.30476405e-02f,+1.29666865e-01f,+1.43061072e-01f,
+1.28071263e-01f,-1.40880570e-01f,+1.01880804e-02f,+6.96817553e-03f,+1.16383143e-01f,
+1.78756237e-01f,-5.64910434e-02f,+4.83604185e-02f,+8.82659480e-02f,+6.54261336e-02f,
+2.15609938e-01f,+1.11290738e-01f,+9.02401134e-02f,+6.75080717e-03f,+7.54700452e-02f,
-5.95586374e-02f,-1.99605808e-01f,-2.51961619e-01f,+1.35041580e-01f,-8.77565444e-02f,
+6.89708665e-02f,-9.01026506e-05f,+9.87192541e-02f,+4.85619530e-02f,+7.42394850e-03f,
-6.71212673e-02f,-4.66414168e-03f,+7.65667558e-02f,+2.46730864e-01f,+1.09673060e-01f,
+7.02114254e-02f,+8.45465660e-02f,+4.02609296e-02f,+7.56951347e-02f,+6.07096665e-02f,
-7.42803328e-03f,-3.19914788e-01f,-2.44743139e-01f,+8.98101255e-02f,+2.05156311e-01f,
+1.28420694e-02f,+1.59818426e-01f,-9.26375911e-02f,+7.26410467e-03f,+1.79721788e-01f,
+1.06010744e-02f,+6.89557940e-02f,+6.64095953e-02f,+1.43240184e-01f,+1.03390671e-01f,
-8.18450451e-02f,+1.30268652e-02f,+1.48137093e-01f,-4.07281630e-02f,-2.70441407e-03f,
+1.58341795e-01f,+2.42074117e-01f,+1.93608165e-01f,+7.03294054e-02f,+7.22996145e-02f,
+1.09241106e-01f,+6.44594729e-02f,-4.31046784e-02f,+1.31356269e-01f,+3.94569896e-02f,
+2.40647629e-01f,+6.12477362e-02f,+1.61318276e-02f,-1.10206762e-02f,+1.32541373e-01f,
-1.59368992e-01f,+6.92306980e-02f,-1.06372377e-02f,+2.12632850e-01f,-4.08234894e-02f,
+1.40974209e-01f,+6.24565370e-02f,+1.02561913e-01f,-1.08859196e-01f,+1.27440855e-01f,
+3.73359382e-01f,-1.17392384e-01f,+7.37499027e-03f,+1.03104711e-01f,+9.74399298e-02f,
+7.53790811e-02f,+2.29256406e-01f,+6.52075186e-02f,+1.76127926e-01f,+1.75949678e-01f,
+4.09564599e-02f,-7.37378821e-02f,-8.41735527e-02f,+8.25811476e-02f,+2.33229816e-01f,
-2.64521074e-02f,+1.05185166e-01f,+9.85216051e-02f,+2.32820809e-02f,+7.23482072e-02f,
+9.30574685e-02f,+5.46846427e-02f,-1.01849511e-02f,+8.07035416e-02f,+9.16758031e-02f,
+4.68726717e-02f,+4.74984646e-02f,+7.41903931e-02f,+3.05736624e-02f,-1.33240712e-03f,
+7.23572150e-02f,+1.52179837e-01f,-3.90355587e-02f,+7.46433251e-03f,+1.03352852e-01f,
+1.94172248e-01f,+7.12920502e-02f,+1.20831639e-01f,-1.06899463e-01f,+9.29453075e-02f,
+4.67718728e-02f,+4.12121601e-02f,+4.23779450e-02f,-4.32366617e-02f,+1.65260509e-01f,
+1.70027927e-01f,+4.50832844e-02f,-4.85399552e-03f,+2.62158532e-02f,-2.69066310e-03f,
+1.60521269e-02f,+4.53687385e-02f,+4.29915451e-02f,+5.67050204e-02f,+6.81741089e-02f,
+1.34933507e-02f,-1.47376414e-02f,+1.04845323e-01f,+1.95387274e-01f,+6.25547618e-02f,
+2.71202959e-02f,-2.32751817e-02f,+8.80140066e-02f,+9.24980640e-02f,+7.18552992e-02f,
+1.45054147e-01f,+9.49948803e-02f,+5.51605970e-02f,+9.31809396e-02f,+2.81243697e-02f,
+7.40956739e-02f,+9.50458273e-02f,+1.51896924e-01f,-2.03718603e-01f,+4.80751134e-03f,
+2.77193654e-02f,-5.02615348e-02f,+3.98018993e-02f,-2.52917130e-02f,+1.56268328e-01f,
-5.72500415e-02f,-2.53937300e-02f,+1.37610123e-01f,-1.23738378e-01f,+1.37911037e-01f,
+1.03512339e-01f,+7.03402236e-02f,+1.13804534e-01f,-2.15697847e-03f,+5.58299990e-03f,
+3.91189083e-02f,+1.92852020e-01f,+7.41383508e-02f,+6.00042893e-03f,+1.91564765e-02f,
+9.04952809e-02f,+1.08927842e-02f,+1.19336866e-01f,+2.02024300e-02f,+1.53844148e-01f,
+3.07623651e-02f,+1.12281181e-01f,+7.30691925e-02f,+1.23486459e-01f,-8.91319215e-02f,
+7.15870112e-02f,+5.87478094e-02f,+8.41793492e-02f,+2.95077786e-02f,-1.05095305e-03f,
-1.17734894e-02f,+2.42939875e-01f,+7.69800618e-02f,+2.70802658e-02f,+1.42338738e-01f,
+5.36736138e-02f,+8.61196220e-02f,+9.25094336e-02f,+1.11269392e-01f,+9.01815817e-02f,
-7.30839744e-02f,-1.51718751e-01f,+1.13540336e-01f,+5.12971766e-02f,+2.88111214e-02f,
-1.10216409e-01f,-5.89049347e-02f,+4.47936840e-02f,+2.91574281e-02f,+4.79672700e-02f,
+7.86056519e-02f,+2.47221112e-01f,+4.96951304e-02f,+1.21850103e-01f,+1.11952372e-01f,
+1.06696531e-01f,+1.84696585e-01f,-2.59747151e-02f,+2.03816682e-01f,+1.63560331e-01f,
+2.21445262e-02f,+3.84843871e-02f,+4.60678414e-02f,+5.38263507e-02f,-3.07638496e-02f,
+3.25142220e-02f,-1.44077549e-02f,+1.74606383e-01f,+6.26499429e-02f,-7.00779026e-03f,
+5.08519858e-02f,-3.04695852e-02f,+7.61504173e-02f,+5.40887080e-02f,+2.14455575e-02f,
+3.89388390e-02f,+5.71616814e-02f,+1.34783596e-01f,+1.43905124e-03f,+5.82950711e-02f,
+1.15218014e-01f,+1.35889620e-01f,+1.09561779e-01f,+1.52091473e-01f,+4.91686426e-02f,
+1.48192510e-01f,+8.04721564e-02f,+6.63127080e-02f,+4.20351624e-02f,+2.86601223e-02f,
+1.51715919e-01f,+2.33717375e-02f,+1.04392804e-01f,+8.73082206e-02f,+6.12599179e-02f,
-2.09247824e-02f,+1.70289323e-01f,+3.78966443e-02f,+1.31649032e-01f,+8.74177366e-02f,
+9.75178368e-03f,+4.74400334e-02f,+2.06498386e-04f,-4.03064452e-02f,+9.22451355e-03f,
+1.14415869e-01f,+8.92960206e-02f,-5.20700775e-02f,+6.18041086e-04f,-3.24561521e-02f,
+4.87515517e-03f,+1.49930730e-01f,+9.74568129e-02f,+3.01577691e-02f,+3.44048627e-02f,
+6.23763800e-02f,-3.68977413e-02f,+9.29558501e-02f,+1.95833400e-01f,+1.27351686e-01f,
+1.29403964e-01f,+7.04750940e-02f,+1.64262578e-01f,-1.64091047e-02f,+1.15138717e-01f,
+8.35305750e-02f,+1.13421753e-01f,+3.76861207e-02f,+5.61977737e-02f,+9.20741931e-02f,
+9.30339321e-02f,+1.15774252e-01f,+7.62041211e-02f,+7.14814141e-02f,+1.50199935e-01f,
+2.56995689e-02f,+1.61917999e-01f,+1.04121141e-01f,+7.74430409e-02f,+5.34882806e-02f,
-9.99603420e-03f,-2.52436772e-02f,-9.39480513e-02f,+8.69864672e-02f,+7.20482692e-02f,
+4.80304062e-02f,+8.27332065e-02f,+8.48446265e-02f,+5.40208481e-02f,+4.00559418e-02f,
+4.74818163e-02f,-4.92537171e-02f,+1.18451335e-05f,+1.47978991e-01f,+9.63140931e-03f,
+9.33081135e-02f,+2.09462166e-01f,+2.05327589e-02f,+6.60289750e-02f,+1.21146537e-01f,
+1.89827327e-02f,-1.49444923e-01f,-2.47236956e-02f,+1.11883692e-03f,+6.61508963e-02f,
+8.02229941e-02f,+1.07987963e-01f,+1.14389218e-01f,+5.52779362e-02f,-6.02846686e-03f,
+8.27007666e-02f,+3.44613232e-02f,+2.00680234e-02f,+6.76994547e-02f,-2.83162519e-02f,
+1.24107897e-01f,+6.84774667e-02f,+5.52944280e-02f,+6.02500327e-02f,+1.47328705e-01f,
+7.04379678e-02f,+7.49521255e-02f,-1.08007276e-02f,+1.10836521e-01f,+2.70751677e-02f,
+5.25063612e-02f,+3.99335772e-02f,-1.38109297e-01f,+8.40363055e-02f,+7.22260997e-02f,
+5.78234419e-02f,-2.08911344e-01f,-6.19691424e-02f,+1.04725711e-01f,+1.30489379e-01f,
+1.55606985e-01f,+1.97033957e-02f,+7.26312771e-02f,+7.71725401e-02f,+4.19979729e-02f,
+1.35377288e-01f,+1.45182833e-01f,+1.05230622e-02f,+9.52644199e-02f,-2.33341660e-02f,
-2.74043549e-02f,+9.32193249e-02f,-6.48291931e-02f,+1.12865984e-01f,+1.19631022e-01f,
+1.04867809e-01f,+1.98498126e-02f,+1.67157307e-01f,-1.13093033e-02f,-7.97103420e-02f,
-3.58029678e-02f,-3.96299995e-02f,+1.34539977e-01f,+1.96553156e-01f,+4.12223302e-02f,
+7.60863796e-02f,+5.57925273e-03f,+9.12671238e-02f,+9.77319852e-02f,+8.16823095e-02f,
+4.83552879e-03f,+7.69089907e-02f,+2.92983148e-02f,+7.03350008e-02f,+3.57749825e-03f,
+1.29356548e-01f,+5.43143712e-02f,+2.87528671e-02f,+2.43562147e-01f,+1.26684546e-01f,
+9.53937694e-02f,+1.78521290e-01f,+1.16950199e-01f,+2.86830850e-02f,+5.99068664e-02f,
+1.50601476e-01f,+2.10530490e-01f,+8.75708535e-02f,+4.23087403e-02f,-1.89490020e-01f,
+6.92448616e-02f,+9.85675976e-02f,+4.16698260e-03f,+1.10016711e-01f,+3.96585539e-02f,
-1.24666005e-01f,+1.03838943e-01f,-6.36709034e-02f,-3.40198308e-01f,+1.07577428e-01f,
-1.57870546e-01f,+1.15755297e-01f,+1.53578609e-01f,+2.04716608e-01f,-3.83974724e-02f,
-1.34263039e-01f,+3.06425273e-01f,+3.18151116e-02f,-9.77875441e-02f,+2.67737538e-01f,
-2.33834162e-01f,-7.32870027e-02f,-5.05236052e-02f,-1.06176719e-01f,+1.71897970e-02f,
+1.49704188e-01f,-2.44192109e-01f,+4.47404355e-01f,+2.01753154e-01f,+3.13137211e-02f,
-7.84808472e-02f,-1.78677022e-01f,-1.08374417e-01f,-8.44506081e-03f,+4.01392013e-01f,
+3.77788931e-01f,+2.55894177e-02f,-2.98271179e-01f,-1.22757703e-01f,+5.54312132e-02f,
-1.12118796e-02f,+2.33494028e-01f,-8.11299086e-02f,+3.42286229e-01f,-1.03022553e-01f,
+1.88410759e-01f,-8.86060745e-02f,-2.48885304e-01f,-1.13747776e-01f,-8.67572501e-02f,
-1.07721508e-01f,+5.45570860e-03f,+3.90672207e-01f,-2.74288934e-02f,-1.51014552e-01f,
+1.54303089e-01f,+8.49435404e-02f,+1.18450029e-02f,-1.90921482e-02f,+6.65610060e-02f,
+4.83971357e-01f,+1.52891457e-01f,+3.58024091e-02f,+2.71409035e-01f,+1.85051292e-01f,
-3.41907054e-01f,-1.63435251e-01f,-1.68685392e-01f,-1.45329952e-01f,+1.79807451e-02f,
+3.44414003e-02f,-6.71645626e-02f,+2.47523546e-01f,+4.33327109e-01f,+4.60788496e-02f,
-2.85950392e-01f,+4.82710414e-02f,-1.36876121e-01f,-2.32723169e-02f,+1.84852019e-01f,
-1.82616055e-01f,+5.35652041e-02f,+1.81328535e-01f,+2.51676112e-01f,-4.84514311e-02f,
-1.35876983e-01f,-3.69002253e-01f,+2.40850091e-01f,+2.00282440e-01f,-5.58406860e-02f,
+1.29635289e-01f,+3.07188183e-01f,+9.26083028e-02f,-1.49078086e-01f,-1.89839616e-01f,
-1.81481153e-01f,-1.71438400e-02f,+8.93285722e-02f,-1.19887188e-01f,-2.05874324e-01f,
+8.02377760e-02f,+7.20597878e-02f,+2.15748981e-01f,-1.55291483e-01f,-1.03892587e-01f,
+7.36549348e-02f,-1.75789259e-02f,+3.34231883e-01f,-2.41384134e-01f,-9.06218775e-03f,
-5.07899113e-02f,+1.75467804e-01f,-3.57638150e-02f,-2.90556699e-01f,-3.83322430e-03f,
-9.26995873e-02f,-6.03665598e-03f,+1.56866193e-01f,+2.39966705e-01f,+2.42488414e-01f,
-2.49513611e-01f,-5.37204072e-02f,+1.27549097e-01f,+2.30090424e-01f,-8.68582353e-02f,
+5.55753231e-01f,+3.23986225e-02f,+2.05731928e-01f,-1.84677895e-02f,-1.75038636e-01f,
+2.79222578e-01f,-3.35532464e-02f,+3.51349950e-01f,-1.74998507e-01f,-8.50441232e-02f,
+5.69136925e-02f,-4.91762683e-02f,+4.37118530e-01f,+5.31220995e-02f,-1.76936254e-01f,
-2.06592768e-01f,+1.55675188e-01f,-1.33328766e-01f,+1.06296219e-01f,+8.64743963e-02f,
-2.51365513e-01f,-3.36902775e-02f,+2.80196190e-01f,-4.85581905e-02f,-6.98366985e-02f,
+8.33690166e-01f,-1.46002263e-01f,-1.31525487e-01f,+2.70788312e-01f,+1.34845763e-01f,
-8.66762251e-02f,+3.32084060e-01f,+9.63415205e-02f,-1.30781636e-01f,-1.76455572e-01f,
-9.04170424e-03f,-1.35564476e-01f,+3.01438093e-01f,+4.01088238e-01f,-2.27253988e-01f,
+1.66456372e-01f,+1.78771894e-02f,-1.16140157e-01f,-4.18588705e-02f,+4.81708907e-02f,
+2.46777525e-03f,+1.16770171e-01f,+7.29838163e-02f,-1.53541505e-01f,-2.96754777e-01f,
-5.72764240e-02f,+9.23283622e-02f,+1.76002651e-01f,+3.09244573e-01f,-1.37188867e-01f,
-1.04689606e-01f,-1.00782685e-01f,-1.70727327e-01f,-5.78315184e-02f,+1.40487134e-01f,
+3.32241446e-01f,+1.89942762e-01f,+4.29344028e-02f,-1.16744295e-01f,-2.87670344e-01f,
-6.32933974e-02f,-1.91983767e-02f,-8.22552294e-02f,-1.09900609e-01f,+1.99937522e-02f,
-2.11316034e-01f,-3.67077403e-02f,+7.61425793e-02f,-1.26547396e-01f,+1.58653781e-01f,
+7.21527711e-02f,+1.13188013e-01f,+1.65061489e-01f,+2.03839138e-01f,-3.79201397e-02f,
-1.70717001e-01f,-4.49748617e-03f,-6.28205016e-03f,-7.11062625e-02f,-3.32880110e-01f,
-3.02324481e-02f,-3.78294021e-01f,-5.51041886e-02f,-1.39389053e-01f,+2.94777840e-01f,
+3.15103352e-01f,-2.98038185e-01f,-3.52701731e-02f,+1.87130705e-01f,+6.01571798e-01f,
+2.62017194e-02f,+1.30645812e-01f,-7.18631670e-02f,-1.07714206e-01f,-1.83849156e-01f,
+1.56423807e-01f,+1.14356074e-02f,-4.30286489e-02f,-2.09294371e-02f,-1.46746203e-01f,
+5.20192921e-01f,+3.69698592e-02f,+2.65917042e-03f,+2.24238604e-01f,-6.84897602e-02f,
+9.96464789e-02f,-2.12265998e-01f,+2.83596039e-01f,-1.61281958e-01f,+3.58041599e-02f,
-3.65910903e-02f,-4.62319851e-02f,-1.12944052e-01f,-2.50202194e-02f,+1.80329651e-01f,
-2.03120634e-01f,-9.63291377e-02f,+1.13796189e-01f,-1.79197520e-01f,+1.43113449e-01f,
+7.80840889e-02f,-4.25829232e-01f,+5.09698913e-02f,+2.00417235e-01f,-2.31567577e-01f,
+2.41234735e-01f,+7.32800886e-02f,-5.02294824e-02f,-2.54079849e-01f,+1.19877337e-02f,
-2.64836371e-01f,+1.09979011e-01f,-9.34984013e-02f,-1.58464149e-01f,+4.76000458e-02f,
+9.77637693e-02f,+1.66232973e-01f,+1.15614243e-01f,+1.52853116e-01f,+2.65131950e-01f,
-7.94047341e-02f,+1.47920633e-02f,+4.39861193e-02f,+2.48360947e-01f,+3.03748511e-02f,
+5.07604852e-02f,+4.24869746e-01f,+3.81750241e-02f,-1.77745238e-01f,-3.31350446e-01f,
-1.24229185e-01f,+1.93990171e-01f,+1.41680658e-01f,+2.84642547e-01f,-1.86485931e-01f,
+1.41937211e-01f,+1.69371739e-01f,+1.46119699e-01f,+4.93380532e-04f,-3.33509035e-02f,
+1.15077846e-01f,+4.21341598e-01f,+3.87622982e-01f,-1.42837390e-01f,+1.61984250e-01f,
+3.64485681e-01f,+1.33176625e-01f,-3.59566510e-02f,+9.56634283e-02f,+2.65861064e-01f,
+1.80196688e-01f,-2.40668580e-02f,+2.65263081e-01f,+5.30497134e-02f,-3.21270451e-02f,
+1.80340558e-01f,-3.13754603e-02f,+1.51619300e-01f,-2.73364433e-03f,-3.52644771e-02f,
-3.48685309e-03f,-9.47431177e-02f,-2.65140808e-03f,+4.66025680e-01f,-1.58221982e-02f,
+1.70654476e-01f,+2.49919668e-01f,+8.88723135e-02f,+7.77675509e-02f,-4.96262237e-02f,
-4.47688922e-02f,+5.70906848e-02f,+1.66250750e-01f,-9.81713533e-02f,+2.92961877e-02f,
+1.41030252e-01f,-1.52765647e-01f,+1.45465478e-01f,+1.44405127e-01f,-1.01181597e-01f,
+3.96053158e-02f,-7.89606385e-03f,-1.13371655e-01f,+2.29067933e-02f,+2.17797354e-01f,
-9.81883239e-03f,-5.93335181e-02f,-3.66350174e-01f,-1.47617906e-02f,+4.30397317e-02f,
+1.23778451e-02f,-6.25415444e-02f,+5.39921857e-02f,-1.04923900e-02f,+1.04394248e-02f,
+2.35355183e-01f,-1.52753443e-01f,+1.77000180e-01f,+6.14382960e-02f,-2.55359620e-01f,
-5.40867373e-02f,-1.74858510e-01f,-4.36291173e-02f,+1.33065328e-01f,+3.95847671e-03f,
-6.63942099e-02f,+1.91823989e-02f,+6.28968105e-02f,-8.23222473e-02f,+1.02949284e-01f,
-9.17119682e-02f,+2.52129972e-01f,-5.15042432e-02f,+9.65984538e-02f,+7.23833591e-02f,
+8.45870525e-02f,+1.13072712e-02f,+2.52411067e-01f,+3.11148942e-01f,+3.08488399e-01f,
+2.04564378e-01f,+1.95442915e-01f,-6.19682204e-03f,-1.76187888e-01f,-5.91961481e-02f,
+1.46345943e-01f,+2.00698271e-01f,-1.20440654e-01f,+4.67792079e-02f,+4.47957218e-02f,
+5.20399772e-02f,-5.87458536e-02f,+1.74859092e-02f,+3.35913181e-01f,+5.82226634e-01f,
+1.86817989e-01f,+3.50534618e-02f,+1.53782293e-01f,+8.17334652e-03f,+9.14145559e-02f,
-1.29006863e-01f,+1.57958254e-01f,-6.82260543e-02f,+5.32320201e-01f,+1.32146524e-02f,
+5.57991154e-02f,-4.52465229e-02f,-1.08300693e-01f,-1.67397588e-01f,+1.96099997e-01f,
+1.94457114e-01f,+4.57671210e-02f,+1.53011069e-01f,+2.45619148e-01f,-1.08850561e-01f,
+7.84299821e-02f,+2.42596477e-01f,-1.01512633e-01f,+1.37275726e-01f,-6.53977543e-02f,
+1.01271555e-01f,+2.48566434e-01f,+3.07884775e-02f,-3.22579704e-02f,-1.66221678e-01f,
+9.06199217e-02f,+4.69407700e-02f,+1.44527569e-01f,+3.91640924e-02f,+1.08455881e-01f,
-3.74904759e-02f,+1.70591041e-01f,+1.61637291e-01f,-1.00771360e-01f,-2.27781281e-01f,
-6.20062556e-03f,+2.19666928e-01f,+5.81459552e-02f,+4.49069798e-01f,-2.28622481e-02f,
+2.41590366e-01f,-8.51851702e-02f,+1.36365881e-02f,+1.01311632e-01f,+1.94986120e-01f,
+8.85315090e-02f,+3.17611322e-02f,-2.46534180e-02f,-7.23009706e-02f,+2.74339408e-01f,
+1.02745555e-03f,-1.98690683e-01f,+1.34165064e-01f,+4.31514978e-01f,+1.53858215e-01f,
+1.41726723e-02f,+5.40767843e-03f,+2.13092208e-01f,+4.77353372e-02f,+2.31137693e-01f,
-3.99556495e-02f,-1.31007001e-01f,+2.78888792e-01f,+1.54312104e-01f,-1.51641831e-01f,
-1.19440466e-01f,-4.72194664e-02f,+4.12051305e-02f,-1.23213835e-01f,+1.81133896e-01f,
+2.77639180e-01f,-3.01866885e-02f,-1.32055089e-01f,+6.51687682e-02f,-5.33186384e-02f,
-1.21267751e-01f,+1.27053410e-01f,+9.19667333e-02f,+8.30782950e-03f,-8.16089846e-03f,
+6.22276217e-02f,+7.53991976e-02f,+2.95600742e-01f,+6.16085902e-02f,+4.04316373e-02f,
+1.45394579e-01f,+2.01678544e-01f,+1.51077099e-03f,+1.71202496e-01f,-6.96163848e-02f,
+1.70768751e-03f,+1.99943557e-02f,+6.91854358e-02f,-1.28605133e-02f,+1.56119660e-01f,
+1.64916426e-01f,-8.00630599e-02f,+6.17400467e-01f,-2.31203184e-01f,-1.30589485e-01f,
+2.96702325e-01f,-1.57317519e-01f,-1.15718178e-01f,+5.81032713e-04f,+1.07130922e-01f,
-5.12533858e-02f,-4.04996835e-02f,-3.79086770e-02f,-1.43517051e-02f,+2.85045296e-01f,
+5.08419313e-02f,-3.89694348e-02f,+3.44741464e-01f,+4.59968969e-02f,-5.65793514e-02f,
+1.14687607e-01f,+2.02929005e-01f,-1.89601168e-01f,+6.62788674e-02f,+1.59801081e-01f,
-6.93080947e-02f,-1.01644382e-01f,+8.61189365e-02f,+9.31859016e-02f,+1.99239463e-01f,
+3.17643248e-02f,+1.53218776e-01f,+7.10810442e-03f,+3.93378466e-01f,+9.63620655e-03f,
+5.49017824e-02f,+1.39674544e-01f,-1.02934688e-01f,+8.83024931e-02f,+1.16624780e-01f,
-1.55465871e-01f,+1.37443841e-02f,-2.22599655e-02f,+1.16117492e-01f,-1.55501485e-01f,
+1.13441356e-01f,+2.22700417e-01f,+1.84415095e-02f,-1.52508497e-01f,-2.23119408e-02f,
+2.09625542e-01f,+8.18262473e-02f,-2.81991780e-01f,+2.55414937e-02f,-1.05456442e-01f,
+1.16530053e-01f,+1.38574377e-01f,+4.29472119e-01f,-6.63248897e-02f,+2.32483551e-01f,
-9.87584516e-02f,+2.08956953e-02f,+1.94053967e-02f,+3.55189860e-01f,+1.31331742e-01f,
-7.27578327e-02f,+1.01158813e-01f,+5.97570986e-02f,+7.50420094e-02f,+1.44450203e-01f,
-3.77697684e-02f,-4.57366146e-02f,+1.91352621e-01f,-3.17701437e-02f,-1.31877974e-01f,
+9.58630741e-02f,-6.21008612e-02f,-1.01565778e-01f,-1.37481794e-01f,+2.88029034e-02f,
-7.75139453e-03f,+4.30431187e-01f,+8.21990073e-02f,+2.48955220e-01f,-1.34177161e-02f,
+3.82051840e-02f,+2.27197409e-02f,+2.27531716e-02f,+1.56491607e-01f,-3.25279869e-02f,
-2.30331466e-01f,-6.65582269e-02f,-4.92978981e-03f,+3.43365781e-02f,+1.37514547e-01f,
+1.16829127e-01f,-1.24460399e-01f,-4.29474562e-02f,+4.62877363e-01f,+2.42719110e-02f,
-6.22541048e-02f,+1.30798174e-02f,+1.25381485e-01f,-4.39452473e-03f,+1.01849265e-01f,
+2.80783921e-01f,+1.75865695e-01f,-1.25865579e-01f,-2.90335864e-02f,+4.93468225e-01f,
-1.12719625e-01f,+1.20154887e-01f,-1.05545312e-01f,+4.43146266e-02f,+1.40446499e-01f,
+1.30697638e-01f,+3.11828136e-01f,+1.61118567e-01f,+2.12821160e-02f,-9.23905075e-02f,
+5.05212963e-01f,-3.61201316e-02f,+7.73152113e-02f,+4.60674882e-01f,+4.39142883e-01f,
-8.51777345e-02f,-7.36474842e-02f,-9.09633040e-02f,-1.94223821e-02f,+4.24928516e-02f,
-2.73732722e-01f,+1.71052590e-01f,-5.55717312e-02f,+8.36440027e-02f,+1.45334005e-01f,
-2.47117244e-02f,+1.28435001e-01f,+2.27059890e-03f,+2.90047854e-01f,+1.11408964e-01f,
-1.49401635e-01f,+3.67576867e-01f,-4.39355895e-02f,+2.13031560e-01f,+1.08368695e-01f,
+9.22865979e-03f,+2.40229174e-01f,+1.18693337e-01f,+2.43657418e-02f,-2.94200983e-02f,
+2.72563636e-01f,-3.08609568e-02f,+2.81004131e-01f,-7.37688458e-03f,+1.04992464e-01f,
+8.73703361e-02f,-2.84359157e-01f,+1.13926060e-01f,-1.97745234e-01f,+2.17730805e-01f,
-1.44543424e-01f,+1.93938076e-01f,+3.46675776e-02f,-5.25169671e-02f,+1.47787616e-01f,
+9.20005981e-03f,-1.65076196e-01f,+2.46025175e-02f,+2.65534759e-01f,+3.16475220e-02f,
-1.38657883e-01f,+4.51543145e-02f,+1.60064727e-01f,-1.03490584e-01f,-7.06794113e-02f,
+8.19643885e-02f,-3.09036635e-02f,+2.72398233e-01f,+1.81120876e-02f,+1.52092189e-01f,
+1.32632986e-01f,+8.96899700e-02f,+6.33901283e-02f,-1.15620561e-01f,+1.33216038e-01f,
+1.01712175e-01f,-2.05386616e-02f,+1.20661259e-01f,-1.95926875e-01f,+2.63375305e-02f,
-4.09831032e-02f,-4.82351035e-02f,+2.18018383e-01f,-2.30078220e-01f,+1.90275490e-01f,
-1.82579726e-01f,+1.77937195e-01f,-7.92341009e-02f,+1.58023149e-01f,-6.13982119e-02f,
+7.46780485e-02f,-3.89958210e-02f,+1.48109328e-02f,-7.59611353e-02f,+8.76692086e-02f,
+2.48968545e-02f,-1.78772792e-01f,+8.25625211e-02f,+3.03251982e-01f,+1.97393470e-03f,
-1.98056936e-01f,-1.53670320e-02f,+5.86874038e-02f,+4.04996462e-02f,+6.85712546e-02f,
-5.84168620e-02f,-1.73294544e-01f,+3.82367551e-01f,+1.62657220e-02f,+2.46968791e-01f,
-8.90892893e-02f,+3.80363047e-01f,+1.20553084e-01f,-1.81724951e-01f,-1.71063408e-01f,
+5.77486716e-02f,+4.94572856e-02f,+7.31974794e-03f,-1.50167003e-01f,-2.06266530e-02f,
-1.75199136e-01f,+1.90390460e-02f,-2.13978142e-01f,+1.90758675e-01f,+2.61678159e-01f,
+2.82331333e-02f,-1.46690765e-02f,+4.12353575e-01f,+9.05937031e-02f,+1.00396655e-01f,
+4.79069687e-02f,+1.41308546e-01f,+3.16013284e-02f,-1.22848511e-01f,+1.46607175e-01f,
-1.35075495e-01f,+2.56469995e-02f,+4.63065505e-02f,+2.11335912e-01f,-1.65455118e-02f,
+1.31930411e-01f,-6.52037039e-02f,+6.39586970e-02f,+1.97551012e-01f,-4.46815863e-02f,
+3.27185750e-01f,-8.24556351e-02f,+3.25656892e-03f,-4.72239330e-02f,+1.45652846e-01f,
+2.18183339e-01f,+1.37000188e-01f,+7.56644830e-03f,-1.27616599e-01f,+1.45593464e-01f,
+2.35645443e-01f,-1.87898591e-01f,+1.46512017e-01f,+1.42069578e-01f,+1.29164355e-02f,
-7.13693649e-02f,+1.64348602e-01f,+1.48837313e-01f,-7.46876327e-03f,+7.81486183e-02f,
-8.49885121e-02f,-3.78996223e-01f,-1.30221978e-01f,-6.48157224e-02f,+1.49051622e-01f,
+5.52235320e-02f,+1.52936786e-01f,+3.92506346e-02f,+9.61891562e-02f,-1.78224836e-02f,
+1.19570665e-01f,-2.26506799e-01f,-5.93972467e-02f,-8.15342069e-02f,-1.64468989e-01f,
+1.68919429e-01f,+3.76034877e-03f,+6.21070378e-02f,+4.71215785e-01f,-7.02965409e-02f,
-5.35050631e-02f,+3.55814278e-01f,-2.49276608e-02f,+6.73962804e-03f,+1.01245865e-02f,
+1.80054586e-02f,+1.37286723e-01f,-5.58359288e-02f,-8.14565718e-02f,-8.40774551e-02f,
+4.07288782e-02f,+7.67769367e-02f,-8.57541263e-02f,-9.08684582e-02f,+1.24879051e-02f,
+7.01825619e-02f,-2.11566672e-01f,+4.50599462e-01f,+2.02708319e-01f,+3.08917075e-01f,
+3.38633806e-01f,-1.72209382e-01f,+2.48884112e-01f,+1.15317702e-01f,+1.28195748e-01f,
+1.37587816e-01f,+1.45716563e-01f,-9.07623991e-02f,-2.40853876e-01f,+1.16412573e-01f,
+8.60724077e-02f,+6.57501891e-02f,+6.49842918e-02f,-8.74432325e-02f,+1.81274772e-01f,
+2.04446502e-02f,-1.99663583e-02f,+2.39011481e-01f,+1.61591813e-01f,-1.96815893e-01f,
-1.05897576e-01f,+1.29854038e-01f,-2.51791496e-02f,+3.90414208e-01f,+8.99940431e-02f,
+1.09017186e-01f,-7.88447186e-02f,+1.18358500e-01f,-2.99222264e-02f,+7.10437223e-02f,
+1.14772692e-01f,+1.15043737e-01f,-8.35347995e-02f,+1.68430626e-01f,+2.54794121e-01f,
+1.28137887e-01f,+1.05562940e-01f,+1.64661929e-01f,-1.08729705e-01f,+6.23790175e-02f,
-1.22014299e-01f,-7.09998608e-02f,+2.17492014e-01f,-2.52423465e-01f,-4.33229888e-03f,
-2.36738428e-01f,+1.63054094e-01f,-2.96462029e-02f,-5.38278446e-02f,+4.15669829e-01f,
-6.31011426e-02f,-1.53263986e-01f,+3.13030392e-01f,+2.23610774e-01f,+3.26833725e-02f,
-5.69858477e-02f,+1.82003260e-01f,-1.15851320e-01f,-1.13692112e-01f,+1.18043341e-01f,
+1.63163878e-02f,+7.42378384e-02f,+5.44121675e-02f,+1.41929030e-01f,+5.26403338e-02f,
+1.33125633e-01f,+3.72245103e-01f,-1.68683141e-01f,+1.12620601e-02f,-1.46126643e-01f,
+2.28248313e-01f,+4.59919013e-02f,+1.38545468e-01f,-2.91674063e-02f,+1.50373206e-01f,
+1.11258170e-02f,+9.04888138e-02f,+1.58154786e-01f,-1.98655635e-01f,+2.63632406e-02f,
+1.35311112e-01f,-2.72396117e-01f,-1.39526322e-01f,+1.71370015e-01f,-1.01180025e-03f,
-3.17853619e-03f,-1.06146723e-01f,+2.05847159e-01f,-9.89863202e-02f,-3.01511046e-02f,
-2.62428224e-01f,-6.33216426e-02f,+1.91274747e-01f,+1.10853771e-02f,+1.84946015e-01f,
+1.74696241e-02f,+2.18841404e-01f,+3.29954803e-01f,+3.98535617e-02f,-1.94835681e-02f,
+9.25050527e-02f,+2.31165856e-01f,+3.78435776e-02f,-2.27181222e-02f,-8.45705271e-02f,
-2.10230313e-02f,+1.53920233e-01f,+1.32962167e-01f,+2.38427758e-01f,+9.49359611e-02f,
-1.31395310e-02f,+4.61288020e-02f,+2.55237460e-01f,+1.12972654e-01f,+8.47871676e-02f,
+6.54264316e-02f,+9.54146758e-02f,-4.65345345e-02f,+1.03674792e-01f,+1.16166603e-02f,
-9.51199532e-02f,+2.22996294e-01f,+6.23637885e-02f,+5.70390150e-02f,+2.65510567e-02f,
-7.95456755e-04f,+4.42111045e-02f,+2.80048043e-01f,+3.77185434e-01f,+1.51138365e-01f,
+5.59763983e-02f,-1.78904667e-01f,+1.05199508e-01f,+3.63642164e-02f,-1.12319827e-01f,
+1.39888600e-01f,-1.66827351e-01f,+3.26648429e-02f,+7.44222552e-02f,+1.01510264e-01f,
+5.94158433e-02f,-2.63972610e-01f,+2.15149764e-02f,+2.63545424e-01f,-3.49458188e-01f,
+6.05864599e-02f,-1.92041114e-01f,-9.70263705e-02f,+6.24992810e-02f,+1.17559684e-02f,
-3.18164736e-01f,+5.25226928e-02f,-1.46929637e-01f,+1.35790929e-02f,+4.05736454e-02f,
-8.96395743e-02f,-2.36725375e-01f,+1.25443622e-01f,-1.92908035e-03f,-1.08681932e-01f,
+3.34309071e-01f,+4.32030894e-02f,+1.11172296e-01f,+4.00091447e-02f,+1.17447942e-01f,
-2.60014050e-02f,-7.95579329e-03f,+4.15004976e-02f,+1.31352574e-01f,+1.80905759e-01f,
+2.72942573e-01f,+2.40048036e-01f,+1.20641984e-01f,+1.51524752e-01f,-1.19190842e-01f,
+1.10080950e-01f,+1.40018716e-01f,+1.81808487e-01f,-5.24144247e-02f,+1.14403203e-01f,
-9.33236107e-02f,-5.87883145e-02f,-2.64299451e-03f,+1.36881605e-01f,-6.35396913e-02f,
-7.49229118e-02f,+2.75645822e-01f,+8.59298557e-02f,+5.61099835e-02f,-7.08250776e-02f,
-1.92304388e-01f,+1.74423143e-01f,+5.83115146e-02f,-1.51609421e-01f,+3.03460192e-02f,
-6.57630637e-02f,+2.46450841e-01f,+7.74862543e-02f,+1.40015289e-01f,+3.89886081e-01f,
+7.60551319e-02f,-4.95698079e-02f,-5.79742528e-02f,+6.72126859e-02f,+1.94581836e-01f,
+5.73999062e-02f,-2.48665839e-01f,-6.04228750e-02f,+7.37438202e-02f,+1.46141425e-02f,
+1.70885399e-02f,+7.66173527e-02f,+1.02290042e-01f,+4.08940256e-01f,-1.05066933e-02f,
-2.18840167e-02f,+9.07824263e-02f,-3.43192928e-02f,+9.21324864e-02f,+1.57250702e-01f,
-3.14031132e-02f,+1.43374994e-01f,+3.73303033e-02f,+1.44307196e-01f,+1.72689214e-01f,
+1.25143096e-01f,-1.54534191e-01f,-3.10869124e-02f,-2.80319471e-02f,+1.33898437e-01f,
+1.09887019e-01f,-2.09777683e-01f,+1.49848118e-01f,-2.03536108e-01f,-6.13082610e-02f,
-1.53811857e-01f,+2.23437563e-01f,+1.90015942e-01f,+1.17967583e-01f,+3.16530429e-02f,
+1.34392172e-01f,+1.34147406e-01f,+1.77922305e-02f,-1.77452359e-02f,+3.08606774e-01f,
+1.72168046e-01f,-2.27006637e-02f,+5.53485453e-02f,+2.62162997e-03f,-1.32065684e-01f,
+6.52809143e-02f,+1.26494408e-01f,+5.16562024e-03f,+1.83835968e-01f,-3.11874170e-02f,
+1.12055086e-01f,+1.26810685e-01f,+6.38848394e-02f,+8.62508193e-02f,+1.45001233e-01f,
+5.32194600e-03f,+1.58434466e-01f,+7.90795870e-03f,+2.28355750e-02f,-2.55715221e-01f,
-4.16757055e-02f,+1.58032939e-01f,-8.89719129e-02f,-3.20972614e-02f,-1.74906120e-01f,
-4.97980975e-02f,+8.40327144e-03f,+2.35939041e-01f,+9.29177552e-03f,+2.35871166e-01f,
+3.25931191e-01f,-2.02326134e-01f,+1.61374927e-01f,-1.35660663e-01f,+1.25572696e-01f,
+1.62447110e-01f,-1.12959944e-01f,+6.58085644e-02f,+2.46996120e-01f,+8.56738240e-02f,
+1.16469920e-01f,+1.49446195e-02f,+7.66227841e-02f,-7.41103888e-02f,+7.79513791e-02f,
+7.20744208e-02f,+1.84957698e-01f,+3.18719782e-02f,+9.81828719e-02f,+1.21924482e-01f,
+1.36333317e-01f,+1.47971272e-01f,+2.73103058e-01f,-8.07664916e-03f,-2.02223897e-01f,
-9.93714109e-03f,+4.94319312e-02f,+8.90493467e-02f,+8.40209052e-02f,+2.16661751e-01f,
+5.39947078e-02f,-1.00015979e-02f,+1.72605395e-01f,+1.75266296e-01f,+9.83980894e-02f,
+2.58689672e-02f,+5.37777692e-02f,-5.02211414e-02f,+8.53752792e-02f,+6.24163598e-02f,
+2.85565294e-02f,+1.66964382e-01f,+2.48658080e-02f,-9.02870297e-03f,+4.44684923e-02f,
+6.18667565e-02f,-3.17012519e-01f,+1.60157412e-01f,-1.47363573e-01f,-4.34310645e-01f,
+2.42469653e-01f,+6.34031221e-02f,-4.72259112e-02f,+1.48235038e-01f,+4.35883589e-02f,
+1.48003966e-01f,+9.62774009e-02f,+1.75945595e-01f,+3.65802161e-02f,+1.26427040e-01f,
-1.16884105e-01f,-7.26441517e-02f,+1.73122987e-01f,-2.23323479e-02f,+1.23090066e-01f,
+1.08080544e-01f,+1.97013304e-01f,+1.71780214e-02f,+2.49647386e-02f,+1.12895831e-01f,
-3.77708487e-02f,-4.65204194e-02f,+1.23401051e-02f,+3.91025782e-01f,+1.56669259e-01f,
+1.31808504e-01f,+8.39493424e-02f,+7.52040744e-02f,+2.74048261e-02f,+3.06041185e-02f,
-5.21847745e-03f,+2.00667933e-01f,+7.23846927e-02f,+2.22490430e-01f,+5.76181933e-02f,
+1.28709525e-01f,-2.43303236e-02f,-1.97877898e-03f,-2.05281954e-02f,+2.90682942e-01f,
+1.20809719e-01f,+3.05742845e-02f,-3.35867843e-03f,+2.11234555e-01f,-2.00716347e-01f,
-1.40756428e-01f,+2.89700300e-01f,+5.68019226e-03f,-1.60762057e-01f,-2.56040152e-02f,
-2.06455037e-01f,-7.97756314e-02f,-1.21349860e-02f,+1.45840406e-01f,+1.09234713e-01f,
+3.91193032e-02f,+1.14764169e-01f,-8.40245858e-02f,-8.51724762e-03f,-3.62508595e-01f,
+3.20484340e-02f,+6.31456971e-02f,-1.82341069e-01f,+7.59421214e-02f,-8.11104849e-02f,
-2.45235905e-01f,-1.24648614e-02f,+1.25530362e-01f,+3.42611104e-01f,+1.40148863e-01f,
+8.48501399e-02f,-6.87834769e-02f,+6.74369112e-02f,-2.80653574e-02f,-2.86744386e-02f,
-3.69084142e-02f,-1.88154846e-01f,+5.64408228e-02f,-9.76492744e-03f,+2.70709217e-01f,
+8.24447945e-02f,-2.97800779e-01f,-3.42783295e-02f,-2.58155596e-02f,+9.62122008e-02f,
+4.09099013e-01f,-2.40553883e-04f,+4.78473715e-02f,-6.74699396e-02f,+3.44931245e-01f,
+1.48233041e-01f,+1.06103890e-01f,-6.25841394e-02f,-5.83432950e-02f,+1.05596825e-01f,
+1.67846568e-02f,-1.10566102e-01f,+1.88525215e-01f,+5.75150847e-02f,+2.25044955e-02f,
+5.07728681e-02f,+1.18727714e-01f,+1.19110867e-01f,-3.29163391e-03f,+5.77266663e-02f,
+2.79379606e-01f,+7.01877594e-01f,-7.15869740e-02f,-3.23800929e-02f,+1.93230048e-01f,
+9.07040294e-03f,-7.79785588e-02f,+9.50904191e-03f,-1.94454402e-01f,+1.97202548e-01f,
+1.14240602e-01f,+2.80939013e-01f,+1.75049007e-01f,-5.82908988e-02f,+1.06483839e-01f,
+8.69208798e-02f,+1.34912608e-02f,+2.00260743e-01f,-8.19864869e-03f,+6.75618229e-03f,
-9.16429143e-03f,+3.02582840e-03f,-1.02941573e-01f,+2.27795765e-01f,+9.68872011e-02f,
+6.48243278e-02f,-5.31657524e-02f,-1.75115332e-01f,+3.24776798e-01f,-6.07181229e-02f,
+1.35497749e-01f,+6.72984589e-03f,-2.52696946e-02f,-8.72561261e-02f,+1.10278623e-02f,
+1.09232642e-01f,+3.27415094e-02f,-1.83845282e-01f,+1.12219535e-01f,+5.59228212e-02f,
+1.15670316e-01f,-1.46478117e-01f,+8.47671703e-02f,-2.08109125e-01f,+6.22960329e-01f,
+1.25248376e-02f,+1.85404290e-02f,+1.50533855e-01f,+3.05550359e-02f,-2.62558199e-02f,
+2.16612324e-01f,+9.01066884e-02f,-4.69555631e-02f,-1.10756584e-01f,+1.63872793e-01f,
+1.73482746e-01f,-5.89870736e-02f,+1.29943505e-01f,+2.40976468e-01f,+1.56822205e-01f,
-3.49869691e-02f,+1.16228787e-02f,+1.51598910e-02f,+8.51317681e-03f,-3.22946578e-01f,
+1.10696241e-01f,+5.55510819e-02f,+3.26505639e-02f,-6.36486113e-02f,-3.80497612e-02f,
+3.51274610e-02f,+5.34993947e-01f,-5.92146292e-02f,-1.64344460e-02f,-6.56129345e-02f,
+2.58043170e-01f,+2.26590842e-01f,+2.55232930e-01f,+1.73650309e-02f,-1.95114642e-01f,
-4.86862697e-02f,+4.55528982e-02f,+1.36740878e-01f,+2.86983728e-01f,+5.02049662e-02f,
-2.85523236e-02f,-2.58470565e-01f,-1.75209522e-01f,+8.41974318e-02f,+1.81729108e-01f,
+8.78174976e-02f,+1.74715206e-01f,+2.64322191e-01f,+5.13137341e-01f,+9.31906328e-02f,
-1.17983066e-01f,+6.99146185e-03f,-2.26373702e-01f,+1.10500157e-02f,-7.82676563e-02f,
+3.55342716e-01f,-4.58345711e-02f,+4.28132087e-01f,+5.02840467e-02f,+2.66541801e-02f,
-1.26428083e-01f,-7.95751661e-02f,+7.09329993e-02f,+2.60814518e-01f,+1.04927637e-01f,
+9.08670425e-02f,+1.66932598e-01f,+2.39956137e-02f,+2.59157956e-01f,+6.05704524e-02f,
+1.94449276e-01f,-5.27440421e-02f,+1.15633070e-01f,+2.94086963e-01f,-1.21526709e-02f,
-4.07719938e-03f,-3.94384637e-02f,+2.53963117e-02f,+2.52603620e-01f,+1.54755386e-02f,
-1.59740523e-01f,+1.19834617e-01f,+8.61713290e-02f,+2.19289288e-01f,-1.10859051e-01f,
-1.53644845e-01f,+2.59859581e-02f,+1.88316777e-01f,+1.11623835e-04f,+1.09676681e-02f,
+2.73989499e-01f,-6.14279024e-02f,+2.26380005e-01f,+1.59036264e-01f,+1.57000437e-01f,
+9.38289315e-02f,-1.60092771e-01f,+1.18426450e-01f,-2.24419028e-01f,-3.27271760e-01f,
+1.62945762e-01f,-4.43557724e-02f,+9.66088474e-02f,+1.17390253e-01f,+3.49018872e-02f,
-2.07705826e-01f,+3.04536909e-01f,+2.63918992e-02f,+1.62759930e-01f,+4.40380156e-01f,
+1.29200339e-01f,-9.02648829e-03f,-2.84846246e-01f,+1.67639375e-01f,-1.57940105e-01f,
-3.81305185e-03f,-7.18291998e-02f,+2.46674579e-04f,+6.16637096e-02f,+4.23069149e-01f,
+3.08708753e-02f,+1.98534399e-01f,-1.71500266e-01f,+1.50907755e-01f,+1.23356119e-01f,
-7.77183101e-02f,-6.34775236e-02f,+4.73872274e-02f,+1.62760109e-01f,-4.15798649e-02f,
-8.23155493e-02f,-2.06696957e-01f,+6.16318941e-01f,-2.73876160e-01f,+2.03938022e-01f,
+6.65191785e-02f,-1.85952246e-01f,+4.82865833e-02f,+6.85446411e-02f,+8.81366730e-02f,
-4.98759151e-02f,+1.92746580e-01f,-7.26311952e-02f,+5.46857715e-01f,+2.05275014e-01f,
+9.33887288e-02f,+9.65105146e-02f,-2.65309185e-01f,+4.12825868e-02f,+3.32302675e-02f,
+5.13820387e-02f,+2.60261863e-01f,-1.48769272e-02f,+4.25757289e-01f,+2.27720439e-01f,
-1.59080222e-01f,+5.16117871e-01f,-1.25210546e-03f,-1.80425625e-02f,+4.59492803e-01f,
+1.47290424e-01f,+2.47975662e-01f,-1.95058838e-01f,-2.44776085e-01f,-5.76662794e-02f,
+1.13981918e-01f,-7.10193813e-03f,-1.93179220e-01f,-2.42516883e-02f,+1.10811824e-02f,
+8.97972509e-02f,+4.71079558e-01f,-3.68891418e-01f,-1.54223919e-01f,+4.28870097e-02f,
-6.08634837e-02f,+7.03554004e-02f,-8.08597915e-03f,+1.15006402e-01f,+3.48012224e-02f,
+9.73803103e-02f,-1.55817969e-02f,+7.54863545e-02f,+4.63216305e-02f,-4.21167128e-02f,
-7.89058805e-02f,-1.35830892e-02f,+1.98456451e-01f,+3.34485024e-01f,-1.05500631e-01f,
+8.99015218e-02f,-9.72638130e-02f,-1.12709008e-01f,+7.47941062e-02f,-5.25932834e-02f,
-1.65400326e-01f,+9.60516930e-02f,+5.03300168e-02f,+6.15965053e-02f,+1.63333416e-01f,
+2.39073500e-01f,+1.13448501e-01f,-3.81027043e-01f,-3.73048447e-02f,+6.72921166e-02f,
+1.42537793e-02f,-7.90550634e-02f,+1.08047523e-01f,+1.04781054e-01f,-1.77376658e-01f,
-1.26067862e-01f,-1.23570107e-01f,-7.62565807e-02f,+2.68059727e-02f,-1.74898654e-02f,
-6.22349568e-02f,+3.77410986e-02f,+1.53614387e-01f,+2.30920821e-01f,+1.12442970e-01f,
-1.19848311e-01f,-7.51914978e-02f,+2.71677524e-02f,-1.06433585e-01f,-8.24151710e-02f,
-3.95139381e-02f,-2.46424656e-02f,-6.16213568e-02f,+4.55699712e-02f,+1.36602357e-01f,
+9.53900963e-02f,+5.03819436e-02f,-3.59151572e-01f,-6.06549233e-02f,+5.45636155e-02f,
+2.07012128e-02f,+6.55184016e-02f,-8.50833878e-02f,-3.64663042e-02f,-1.82668895e-01f,
-4.12130989e-02f,+8.30213577e-02f,-1.34950534e-01f,+2.65134335e-01f,-1.48959562e-01f,
-1.91393882e-01f,+1.90118849e-01f,-6.62460411e-03f,+6.48035556e-02f,-3.97802480e-02f,
-3.28027636e-01f,+1.88143954e-01f,-1.31228223e-01f,+2.36534834e-01f,+1.19888097e-01f,
+1.13592453e-01f,+1.21143699e-01f,+7.66778290e-02f,-2.15760127e-01f,+1.99622121e-02f,
-4.24094684e-02f,+2.36234173e-01f,-5.18765338e-02f,+3.01534772e-01f,+2.21184254e-01f,
+8.98625795e-03f,-2.28950810e-02f,+1.04045868e-01f,-1.03904121e-01f,+2.03967124e-01f,
+8.22199732e-02f,+2.06586510e-01f,+2.19525695e-01f,-8.11766163e-02f,+1.19082496e-01f,
-3.77296619e-02f,+7.69616663e-02f,-3.47120240e-02f,+7.55614787e-02f,+2.35690996e-01f,
-6.84614107e-02f,+1.92471847e-01f,+5.18888459e-02f,-9.52438638e-02f,-1.52703479e-01f,
+2.19788868e-02f,+2.28273124e-01f,+3.60602103e-02f,+1.23369500e-01f,+5.05136559e-03f,
+3.56547296e-01f,-1.61877647e-01f,-4.99038212e-02f,+1.82097908e-02f,+2.21359432e-01f,
+1.91173404e-01f,+1.00231081e-01f,-7.81453922e-02f,-1.53819904e-01f,-4.47128922e-01f,
+1.08191729e-01f,+3.22550647e-02f,-3.72999571e-02f,-6.21645786e-02f,+2.36206442e-01f,
-5.73016331e-02f,-2.08905533e-01f,-8.93585980e-02f,-3.02765816e-01f,-3.84151414e-02f,
-2.65742233e-03f,+3.43877561e-02f,-2.59205788e-01f,+1.58112809e-01f,+2.83094466e-01f,
-7.49356998e-03f,+1.84901819e-01f,-2.90866140e-02f,-3.50373723e-02f,-9.54659283e-02f,
-1.47229448e-01f,-2.31992498e-01f,+1.94674823e-02f,-2.11042818e-02f,-6.88915700e-02f,
-1.40317962e-01f,-1.74078152e-01f,-1.60766095e-02f,+5.60152084e-02f,-3.13961767e-02f,
+2.92033821e-01f,+7.38295391e-02f,-1.53556287e-01f,+5.06646872e-01f,+2.66216338e-01f,
-5.31230643e-02f,-6.57916144e-02f,+5.76547503e-01f,+6.31961897e-02f,-6.89432472e-02f,
+1.71170741e-01f,+4.76484954e-01f,+6.50307257e-03f,-2.60425597e-01f,+1.25566497e-01f,
-2.40427509e-01f,+1.67802617e-01f,-1.24892697e-01f,+1.12389192e-01f,+8.52977410e-02f,
+3.50413382e-01f,+1.10957615e-01f,+1.52791813e-01f,+5.01306765e-02f,+5.48460595e-02f,
+6.67446665e-03f,+1.58123270e-01f,+9.48709175e-02f,+6.72784150e-02f,-3.25009003e-02f,
+2.15139881e-01f,+1.72268242e-01f,+1.30058736e-01f,+2.88810611e-01f,+2.38270566e-01f,
-7.10214600e-02f,-2.52503883e-02f,+2.35102013e-01f,-2.36438736e-01f,+2.41377726e-01f,
+1.74767628e-01f,+1.87544763e-01f,+2.06239343e-01f,-3.58862542e-02f,+2.29820490e-01f,
-2.30224609e-01f,+6.72126247e-04f,-2.07691804e-01f,+2.27115884e-01f,+6.82002455e-02f,
+9.01587401e-03f,+3.34540039e-01f,-5.78181334e-02f,+4.57287990e-02f,-1.65896073e-01f,
+2.30532020e-01f,+1.89070597e-01f,-1.22024044e-01f,+3.81863981e-01f,+1.01247482e-01f,
-2.60094386e-02f,+2.36868337e-01f,+1.26185147e-02f,+1.57437772e-01f,-6.82107508e-02f,
-1.47279371e-02f,+3.38897556e-01f,-2.09758654e-02f,+2.32365772e-01f,-3.18992466e-01f,
+1.42172156e-02f,+6.19434118e-02f,+2.91986853e-01f,+2.61864424e-01f,+1.88954249e-01f,
-1.11641690e-01f,+1.30278349e-01f,+5.55990823e-02f,+2.44478121e-01f,+2.70041883e-01f,
+8.64710361e-02f,+8.76294672e-02f,+2.01032713e-01f,+1.49873719e-01f,-2.37870932e-01f,
+1.75492689e-01f,+2.67874569e-01f,-3.04800030e-02f,+1.76046014e-01f,-5.17800525e-02f,
+2.83316135e-01f,+1.63604051e-01f,+1.49852991e-01f,-2.09791094e-01f,+9.06701833e-02f,
+3.37372087e-02f,-1.74316958e-01f,-1.68701962e-01f,+5.95207773e-02f,+8.99783373e-02f,
+6.06585853e-02f,+1.58843026e-01f,+1.39172683e-02f,+2.07045749e-01f,-1.51711166e-01f,
+1.66556507e-01f,-1.52851820e-01f,+3.36740799e-02f,-3.40996683e-02f,+1.42659053e-01f,
-3.53765450e-02f,+7.94291124e-02f,+2.10328385e-01f,-5.23803830e-02f,-1.44871414e-01f,
-1.22699313e-01f,+1.45861253e-01f,+1.50512010e-01f,+9.23392773e-02f,+4.03837562e-02f,
-2.60617305e-02f,-1.23788826e-01f,+6.15012348e-02f,+2.88599342e-01f,+1.11553304e-01f,
+2.84963936e-01f,+9.58271474e-02f,+4.37961407e-02f,+6.87901163e-03f,+3.33641097e-03f,
+1.86976157e-02f,+1.40109882e-01f,+4.21084203e-02f,+1.56225458e-01f,+9.51889381e-02f,
-5.71800694e-02f,+1.80072531e-01f,+3.87243554e-03f,+4.30209562e-02f,-5.74306119e-04f,
+9.59816426e-02f,+1.99221894e-01f,-1.26316110e-02f,+3.48280743e-02f,+9.69808474e-02f,
+6.39591694e-01f,+2.42110938e-01f,+2.34537572e-01f,+5.73535085e-01f,+9.64832827e-02f,
+5.33922911e-01f,-3.92994404e-01f,+3.41584757e-02f,+5.88118911e-01f,+2.40742788e-01f,
-1.71387836e-01f,-4.26282268e-03f,-8.94887373e-02f,-1.55037463e-01f,+3.19294810e-01f,
-3.43925029e-01f,+8.85402858e-02f,+3.22250962e-01f,-1.60563871e-01f,+3.31741422e-01f,
+1.80170476e-01f,-4.10782779e-03f,+3.32194269e-02f,-5.14266193e-02f,+8.77031591e-03f,
+3.05963382e-02f,-1.30776241e-01f,-8.94897897e-03f,+5.58930673e-02f,-1.54250208e-02f,
+2.09330380e-01f,+1.23389103e-02f,+3.03897828e-01f,-2.84748524e-01f,+1.18030436e-01f,
+1.99634060e-01f,+6.60008788e-02f,+2.58386154e-02f,+1.59068286e-01f,+1.42959535e-01f,
+2.16994926e-01f,+9.27713420e-03f,+1.28518371e-03f,+2.38808662e-01f,+1.24876343e-01f,
+2.25178152e-01f,+9.90833342e-02f,+4.45673317e-01f,-3.24556865e-02f,+6.55471608e-02f,
+2.53509462e-01f,-1.91390246e-01f,-1.60468854e-02f,+6.67892620e-02f,+1.39154047e-01f,
+1.49414763e-02f,+2.42967039e-01f,+1.59247890e-01f,-1.56489294e-02f,+2.21492699e-03f,
-2.46081680e-01f,-9.64315310e-02f,+2.82832477e-02f,+2.00516194e-01f,+2.35442385e-01f,
-3.02620884e-03f,+2.23326355e-01f,-3.09069127e-01f,+1.35027915e-01f,+1.61601931e-01f,
-1.90130338e-01f,+1.92166805e-01f,+2.14773551e-01f,+1.48610353e-01f,+2.24079490e-01f,
+6.98885024e-02f,+1.70478642e-01f,+1.89175501e-01f,-6.82614744e-02f,+1.88100804e-02f,
+1.26181051e-01f,+8.48638564e-02f,-1.74266666e-01f,+6.07895441e-02f,+5.57804294e-02f,
+1.06842145e-01f,+5.37287742e-02f,+2.43656412e-01f,-3.91550027e-02f,+3.17455381e-02f,
+9.67157260e-02f,-1.95699379e-01f,+2.38322407e-01f,+1.31675333e-01f,+4.38751467e-02f,
+1.21446714e-01f,-3.69617455e-02f,+3.85763720e-02f,-1.91134825e-01f,+1.46240052e-02f,
+4.66043428e-02f,+7.35387728e-02f,+4.48804855e-01f,-7.80202150e-02f,-2.72150278e-01f,
+6.23030365e-02f,-2.07091421e-02f,+3.03478651e-02f,+5.17188795e-02f,+1.85155869e-01f,
-2.73277555e-02f,-1.17252119e-01f,-1.87935323e-01f,+2.90491760e-01f,+2.79648125e-01f,
+4.48767431e-02f,+2.36616153e-02f,+3.44454050e-01f,+3.59416962e-01f,+4.98280711e-02f,
+3.79824430e-01f,+2.49420762e-01f,+1.42307088e-01f,+1.65551409e-01f,+1.61048681e-01f,
+1.65303469e-01f,-1.47224322e-01f,-6.46460056e-02f,+3.95954520e-01f,+6.97806627e-02f,
+1.06659070e-01f,+1.38934597e-01f,+1.65595070e-01f,-1.99838638e-01f,+2.32265219e-01f,
+1.01545528e-01f,-1.58555284e-01f,+8.55245665e-02f,+2.26194575e-01f,+3.64444286e-01f,
-1.74771264e-01f,+6.63520070e-03f,-3.56718808e-01f,+2.59497553e-01f,+1.10916093e-01f,
-9.54474732e-02f,+2.00996250e-01f,+1.51323482e-01f,-2.07466483e-02f,+8.56013969e-02f,
-4.04123962e-02f,+1.76684156e-01f,+1.55739143e-01f,+2.69343518e-02f,+1.50898760e-02f,
-2.60871765e-03f,-2.26486381e-03f,+2.12345436e-01f,+2.01131776e-01f,+1.72990337e-01f,
+1.12776674e-01f,+2.79179215e-01f,+2.69212991e-01f,+7.20199347e-02f,-2.24527031e-01f,
+2.26073399e-01f,+1.25995532e-01f,+7.64031410e-02f,+1.42641187e-01f,-6.43337294e-02f,
-1.70663714e-01f,+6.13761619e-02f,+1.49560109e-01f,+2.46057674e-01f,+8.14868882e-02f,
+2.44403437e-01f,+8.22856799e-02f,+9.33194235e-02f,+2.99159028e-02f,-8.24121386e-02f,
+1.09883614e-01f,+1.53444214e-02f,+2.61692286e-01f,-7.99315982e-03f,+4.89286445e-02f,
+1.00852840e-01f,+4.93511297e-02f,+1.70603003e-02f,-3.35510485e-02f,-5.07675633e-02f,
+2.39543736e-01f,+2.27033868e-01f,-5.94150573e-02f,-1.92337140e-01f,+4.03342545e-01f,
+1.42753616e-01f,-1.69028997e-01f,+4.10067104e-02f,+5.15993424e-02f,+3.73585746e-02f,
+1.29088443e-02f,-3.51131111e-02f,-3.49502601e-02f,-2.02869892e-01f,-1.95537717e-03f,
+7.15276301e-02f,+3.79452929e-02f,+1.37507945e-01f,-4.30947877e-02f,+2.98327692e-02f,
-4.48932126e-02f,-8.32828227e-03f,-1.59718052e-01f,-1.43476009e-01f,-7.08066076e-02f,
-4.03030924e-02f,-2.23887250e-01f,+3.55113298e-01f,-8.91517326e-02f,-6.82221428e-02f,
-9.75830927e-02f,+1.57204404e-01f,+1.89259276e-01f,-1.35045275e-02f,-9.04117748e-02f,
-6.65862337e-02f,+2.38929152e-01f,+1.01905175e-01f,-3.32489192e-01f,+6.97840750e-02f,
-2.54025757e-01f,+2.89954036e-01f,+9.81771797e-02f,+4.41427320e-01f,-4.59026806e-02f,
+3.04740787e-01f,-1.56621158e-01f,+1.28627375e-01f,+6.37818724e-02f,+6.19176477e-02f,
-1.86237112e-01f,+8.51024091e-02f,-6.01722300e-02f,-8.29816684e-02f,-1.35807768e-01f,
-2.23173559e-01f,-5.82907386e-02f,-2.79954877e-02f,+2.72431551e-03f,+2.42089808e-01f,
+3.16620357e-02f,+1.91400409e-01f,-1.77901834e-02f,-1.42252550e-01f,+2.21378222e-01f,
-7.55229667e-02f,+1.62518844e-01f,-1.66922808e-01f,-1.33645728e-01f,-1.17668407e-02f,
+1.50799125e-01f,-2.31144503e-01f,-1.67847455e-01f,+4.79358613e-01f,-8.97129774e-02f,
-3.46172005e-02f,+3.15573633e-01f,-1.69107839e-01f,+5.15016794e-01f,+2.66945034e-01f,
+1.41384453e-01f,+8.37926492e-02f,-8.44483823e-03f,+7.75578013e-03f,+1.85501322e-01f,
+7.06484616e-01f,+1.99879482e-01f,+3.14856432e-02f,+1.19566374e-01f,-4.37263362e-02f,
-1.79770902e-01f,+5.06008342e-02f,+2.00769342e-02f,+1.23567656e-01f,+1.39585748e-01f,
+9.07718763e-03f,-5.12919836e-02f,+9.76975486e-02f,+4.10457328e-02f,-5.49795777e-02f,
+1.61313593e-01f,-2.52721310e-01f,+1.91887468e-01f,+2.73367018e-01f,-2.24445641e-01f,
-8.13330635e-02f,+2.04430640e-01f,+3.43925580e-02f,+1.69324547e-01f,+1.92053780e-01f,
+9.64018628e-02f,+3.00282180e-01f,+6.64460193e-03f,-2.34993115e-01f,+3.37745175e-02f,
+7.87429065e-02f,+1.33960634e-01f,+2.17072636e-01f,-2.08099149e-02f,+2.98493891e-03f,
+8.58799517e-02f,-1.93578936e-02f,+1.57941192e-01f,+1.43875286e-01f,+2.30072513e-01f,
-8.28718916e-02f,-4.52548377e-02f,+2.14211211e-01f,+1.20357700e-01f,-7.03599676e-02f,
-7.77865052e-02f,-7.96151087e-02f,+2.13073362e-02f,+2.63537705e-01f,-2.00445622e-01f,
-9.05999541e-02f,-1.07589029e-02f,-3.24748337e-01f,-1.41381904e-01f,-4.63752188e-02f,
+3.04153771e-03f,+2.11918145e-01f,-5.20430505e-01f,+2.01823842e-02f,+2.55346477e-01f,
-5.01240119e-02f,-2.56991774e-01f,+6.22614659e-02f,-3.04569434e-02f,+2.09131002e-01f,
-4.80569005e-02f,-1.09540686e-01f,+3.18350345e-01f,+1.23951703e-01f,-2.13613939e-02f,
-2.36436784e-01f,+1.66666672e-01f,+1.52912304e-01f,+7.68535063e-02f,-1.86521783e-01f,
+3.14099640e-02f,-6.96852282e-02f,-5.32273948e-02f,+1.68339372e-01f,-1.36158392e-01f,
+9.53308791e-02f,-2.68795006e-02f,+6.72448310e-04f,-1.73271790e-01f,+1.64497152e-01f,
+7.76820108e-02f,+7.57567678e-03f,-1.33884028e-01f,+1.15838200e-01f,-4.98418808e-02f,
-4.69359905e-02f,-7.72531107e-02f,-4.54353243e-02f,-1.54002175e-01f,+2.37085223e-01f,
+1.06995478e-01f,-2.62934357e-01f,+1.39330596e-01f,+1.18243463e-01f,-3.00243944e-01f,
+3.76794666e-01f,-8.78113694e-03f,+1.05829969e-01f,-4.89577353e-02f,+2.03262523e-01f,
+8.86063427e-02f,-1.04886845e-01f,+1.56855166e-01f,+2.12492451e-01f,+4.38450962e-01f,
+4.08678241e-02f,+1.44173512e-02f,-9.24245939e-02f,+2.95813143e-01f,+9.96789187e-02f,
-6.63432330e-02f,+3.93194914e-01f,+9.87084135e-02f,+2.22596303e-01f,-1.41282424e-01f,
+4.61002886e-02f,-1.41911060e-01f,+2.00584587e-02f,+7.96529278e-02f,-8.46898928e-02f,
-3.68359625e-01f,-3.23775634e-02f,+3.87066267e-02f,-9.69067812e-02f,+4.58088592e-02f,
+1.91310018e-01f,+3.37936193e-01f,+1.56694561e-01f,+4.29914966e-02f,-1.31986648e-01f,
+5.28874621e-02f,-7.18866810e-02f,-2.36768737e-01f,+9.05802399e-02f,+1.75520882e-01f,
-8.44661798e-03f,+1.89393535e-01f,-1.09215463e-02f,+1.18904367e-01f,+1.70136362e-01f,
+5.67721054e-02f,-1.12856701e-01f,+7.91903585e-02f,-1.38304949e-01f,-7.61004314e-02f,
-2.13526487e-01f,+2.27035299e-01f,-1.43472686e-01f,-1.26956761e-01f,-2.32532565e-02f,
-1.43348411e-01f,+6.99927751e-03f,+1.63433194e-01f,-9.23193097e-02f,-5.09532206e-02f,
-6.17523640e-02f,+5.02711654e-01f,+8.74376297e-02f,-3.90052423e-02f,+6.03728415e-03f,
+1.34222433e-01f,+1.63457319e-01f,-5.16200252e-02f,-4.29905131e-02f,-9.47718509e-03f,
-1.22279264e-01f,-2.52432581e-02f,-1.07573420e-01f,+1.40665900e-02f,+8.69543701e-02f,
-3.51114571e-02f,-3.06960326e-02f,-2.17268378e-01f,+4.75726351e-02f,-5.21528684e-02f,
-1.18564948e-01f,+1.32623568e-01f,+5.23976870e-02f,-1.60980988e-02f,-1.73994317e-03f,
-2.30627917e-02f,+2.63024956e-01f,-1.30409628e-01f,-9.18253362e-02f,+1.97757289e-01f,
-4.13526706e-02f,+8.93764198e-02f,+4.68766876e-02f,+6.20490797e-02f,+1.53912485e-01f,
-7.81501085e-02f,-1.88856870e-01f,-2.84227729e-02f,+1.78195294e-02f,-2.55983293e-01f,
+4.14069369e-02f,+7.97641873e-02f,+6.89421445e-02f,+3.84604454e-01f,-1.77042156e-01f,
-9.87590924e-02f,-1.72147155e-01f,-1.16635680e-01f,-5.81454448e-02f,+1.42299339e-01f,
+1.22516274e-01f,+2.18051419e-01f,-3.06321830e-02f,+1.11711584e-01f,+2.00317483e-02f,
-1.66924119e-01f,+3.04269940e-02f,-8.13375711e-02f,+2.24837974e-01f,-8.45667869e-02f,
-1.40074655e-01f,+2.83339679e-01f,-7.65748769e-02f,-1.16408117e-01f,-1.46642864e-01f,
-1.78567693e-01f,+8.23842944e-04f,+9.86135080e-02f,+1.51998714e-01f,+5.99679910e-02f,
+3.18831533e-01f,+1.44105896e-01f,+1.81448415e-01f,+7.85107762e-02f,+4.49781418e-01f,
+5.79554401e-02f,-1.85326615e-03f,-6.23389594e-02f,+1.51611447e-01f,-3.67579125e-02f,
+2.04881370e-01f,+7.20819738e-03f,+1.46528199e-01f,-1.77599952e-01f,-1.98501989e-01f,
+2.13569850e-01f,-2.28906125e-01f,+1.14882953e-01f,+6.63947016e-02f,-7.57476687e-02f,
+3.16888958e-01f,-5.95431402e-03f,+1.39887452e-01f,+1.29630864e-01f,+2.31014751e-02f,
+1.93140477e-01f,+2.29993254e-01f,+4.27837484e-02f,-1.67232044e-02f,+1.30257830e-02f,
-1.41992122e-01f,-1.67023775e-03f,+1.44522622e-01f,+5.21174185e-02f,-2.29527038e-02f,
-8.94826185e-03f,+2.78119981e-01f,+5.71998656e-02f,+1.34332538e-01f,+8.25173184e-02f,
-1.42101437e-01f,+6.76113516e-02f,-3.58306505e-02f,+6.47216663e-02f,+2.15098590e-01f,
+1.31162088e-02f,+1.11137785e-01f,-1.72523528e-01f,-1.12977102e-01f,+3.55931446e-02f,
+2.37379402e-01f,+9.94219407e-02f,-3.25174667e-02f,+3.14943902e-02f,-3.20559856e-03f,
+6.83007836e-02f,-1.79506406e-01f,-8.40407163e-02f,-2.59870552e-02f,+2.69623231e-02f,
+2.25890484e-02f,+1.10379994e-01f,+1.21668883e-01f,+8.57638866e-02f,+1.69219896e-01f,
+1.20733939e-01f,+1.22995647e-02f,+1.80746198e-01f,-1.71325326e-01f,+2.91723102e-01f,
+3.40019405e-01f,+6.65986165e-02f,-1.06757898e-02f,+8.01478252e-02f,+2.75634468e-01f,
-6.53013065e-02f,+3.50555666e-02f,+1.78412050e-01f,+9.39847529e-02f,+2.66951695e-02f,
+1.67030126e-01f,-2.27599069e-02f,+6.34717867e-02f,+1.71899229e-01f,+1.90881893e-01f,
+1.09955072e-02f,+2.54454426e-02f,+1.80333674e-01f,+3.25306654e-01f,-8.09404179e-02f,
+2.17340700e-02f,+4.76575159e-02f,-1.47413984e-02f,-6.98388293e-02f,+3.82555015e-02f,
+3.04881513e-01f,+3.76234464e-02f,+1.15962431e-01f,+5.02869077e-02f,+4.44036201e-02f,
+5.58153950e-02f,+9.44604278e-02f,-2.25872010e-01f,-1.14510641e-01f,+5.16731963e-02f,
+2.97794551e-01f,+8.53760913e-02f,+5.08582070e-02f,-1.36597455e-01f,+2.74477243e-01f,
+5.93666583e-02f,+9.05813351e-02f,-2.81224847e-01f,+1.31767511e-01f,-1.00161791e-01f,
+1.13800764e-01f,+1.46194324e-01f,+1.16627149e-01f,-1.24760475e-02f,+9.87572521e-02f,
+1.91621572e-01f,-3.72557901e-02f,+1.80478469e-01f,+1.15730025e-01f,+7.74315046e-03f,
-7.17393383e-02f,+2.77826693e-02f,+7.35469013e-02f,-9.99288112e-02f,-4.00255024e-02f,
+1.42240256e-01f,-1.38211191e-01f,+2.51291007e-01f,+3.16583455e-01f,-1.08804844e-01f,
+1.04153454e-01f,-2.18546372e-02f,-5.81097528e-02f,-1.60709873e-01f,+2.87758023e-01f,
-1.80762331e-03f,+7.21238852e-02f,+7.56095499e-02f,+2.45187193e-01f,+2.04500377e-01f,
+1.57262478e-02f,+1.30447343e-01f,+1.59235001e-01f,+1.58220053e-01f,+8.09863955e-02f,
+4.60062772e-02f,+1.52560294e-01f,+1.14332497e-01f,+1.24274418e-01f,+1.48070112e-01f,
-1.83629487e-02f,+8.25579688e-02f,-5.92346899e-02f,-7.85890818e-02f,+4.90083583e-02f,
+1.52552351e-01f,+1.71435222e-01f,+7.02443197e-02f,+3.66110988e-02f,+1.45725412e-02f,
+1.95234850e-01f,+1.58976585e-01f,-2.41847280e-02f,+2.17491552e-01f,+7.00996295e-02f,
+1.52257308e-01f,+1.86319858e-01f,-1.42071187e-01f,+2.24045247e-01f,+3.20058167e-01f,
+1.21157628e-03f,-5.88275939e-02f,+7.37373307e-02f,+1.50487050e-01f,+1.75005302e-01f,
-1.94411706e-02f,-9.39448774e-02f,+2.02807672e-02f,+1.08941428e-01f,+4.20437939e-02f,
-2.33827919e-01f,+7.58839101e-02f,+4.82758321e-02f,+2.16784999e-02f,+5.50740659e-02f,
+3.11713427e-01f,-5.18596284e-02f,+2.38749012e-02f,+6.86311796e-02f,-1.74845144e-01f,
-4.12907712e-02f,+1.04541173e-02f,-8.65382329e-02f,+1.24807265e-02f,-1.90771874e-02f,
-8.35612118e-02f,+2.80630961e-02f,+1.89250916e-01f,+6.16030097e-02f,-8.20788788e-04f,
+1.47492317e-02f,-1.51574984e-01f,+3.45568985e-01f,+2.31043369e-01f,-1.07288145e-01f,
+4.52055782e-02f,-3.98323648e-02f,-6.85294578e-03f,+9.33174193e-02f,-3.57073583e-02f,
+5.64502142e-02f,-1.14887439e-01f,+1.20231293e-01f,+1.50681525e-01f,+5.05295768e-02f,
+9.71421525e-02f,+3.66585217e-02f,+1.45115018e-01f,+1.85936362e-01f,-2.16068383e-02f,
+7.35497661e-03f,+1.83889717e-01f,-2.67846533e-03f,+3.51664126e-01f,+5.29438211e-03f,
+2.28226855e-01f,-9.53632668e-02f,-5.42013235e-02f,-4.61304411e-02f,+1.83900237e-01f,
+1.76543683e-01f,-5.94348833e-03f,+7.85661042e-02f,+4.98717502e-02f,-5.43569475e-02f,
-3.50452960e-02f,+4.47304398e-02f,+3.81178362e-03f,-5.20877019e-02f,+3.14120293e-01f,
+1.74618423e-01f,+3.39888260e-02f,+2.68743490e-03f,+1.19800463e-01f,+1.06517933e-01f,
+6.87474683e-02f,+1.11718185e-01f,+6.47891909e-02f,+1.92191735e-01f,+1.42694707e-03f,
-5.62563762e-02f,-8.33217502e-02f,+1.51383847e-01f,-1.05689138e-01f,+2.30120480e-01f,
+8.25319365e-02f,+3.18420716e-02f,+1.07381672e-01f,+1.36950806e-01f,+5.99271692e-02f,
+1.96429014e-01f,-8.59614313e-02f,+8.22990760e-02f,+1.49390519e-01f,+8.10627639e-03f,
-8.29831958e-02f,+1.99423239e-01f,+9.18640494e-02f,+6.86150640e-02f,-1.32917203e-02f,
+1.58848539e-01f,+4.83287685e-02f,+2.73536712e-01f,+1.78917408e-01f,-3.60865206e-01f,
-2.76201336e-05f,-4.61405367e-02f,-7.54668042e-02f,-3.95547152e-02f,-1.02210224e-01f,
-6.11262396e-02f,+1.52019665e-01f,-2.32162476e-01f,+3.52652334e-02f,-1.44458815e-01f,
+2.90216766e-02f,+8.62985700e-02f,-4.47872244e-02f,+3.67343500e-02f,+9.99588147e-02f,
+1.81073636e-01f,+1.62707940e-01f,+3.09523702e-01f,+2.43690684e-01f,-2.25480702e-02f,
+1.00813247e-02f,-1.01480357e-01f,+1.22320116e-01f,-3.72741893e-02f,+4.50247414e-02f,
+7.39326924e-02f,-1.71650633e-01f,-1.14601173e-01f,+2.68307179e-01f,+3.38124305e-01f,
+1.53737932e-01f,+6.26890361e-02f,-1.40011773e-01f,+1.61742866e-01f,+7.87714347e-02f,
-9.15171504e-02f,+1.15254983e-01f,-8.12472701e-02f,+9.75355357e-02f,-4.28260528e-02f,
+2.60158279e-03f,-3.04955672e-02f,+3.36974040e-02f,-8.73943716e-02f,-4.65845987e-02f,
+1.26785919e-01f,+1.24179274e-02f,-1.38473257e-01f,-1.06879920e-01f,+2.82203667e-02f,
+5.88805936e-02f,+1.81787103e-01f,+3.38309765e-01f,+2.08009809e-01f,+9.88359749e-02f,
+4.77315113e-02f,+3.89372021e-01f,+1.18340001e-01f,-1.93181664e-01f,+5.66960834e-02f,
+1.75719246e-01f,-1.50582701e-01f,+2.92259771e-02f,+3.65372631e-03f,-3.82702053e-02f,
+1.14531629e-01f,-1.59699187e-01f,+1.46114618e-01f,+1.09720305e-01f,+1.08873835e-02f,
+9.88553092e-02f,+2.64818463e-02f,-3.46240541e-03f,+1.13479406e-01f,+1.39727131e-01f,
-7.43029034e-03f,+1.68262108e-03f,+1.14552416e-01f,+2.67642081e-01f,-1.23293865e-02f,
-1.07623927e-01f,-2.08653376e-01f,+2.63884813e-01f,-1.26763433e-01f,+2.18351722e-01f,
-6.85908087e-03f,+1.10963523e-01f,+6.51288107e-02f,-5.44749238e-02f,+2.18727544e-01f,
+1.45807430e-01f,+2.62877762e-01f,+1.23298429e-01f,+8.77772421e-02f,+6.71111196e-02f,
-8.69726092e-02f,+1.44847810e-01f,-8.27393681e-02f,+1.93294268e-02f,-2.47907508e-02f,
+1.21910602e-01f,+2.18877047e-01f,+1.33440182e-01f,+8.23215395e-02f,+3.02286018e-02f,
+6.88734874e-02f,+8.65566060e-02f,+3.28718722e-01f,+1.36296496e-01f,-7.25407302e-02f,
+7.74343461e-02f,+1.06069492e-02f,+1.09039456e-01f,-2.71431118e-01f,-2.70118862e-01f,
+3.12153175e-02f,+1.40628859e-01f,+1.11379907e-01f,+2.15831041e-01f,+2.06838474e-01f,
+1.53628178e-02f,-9.30312723e-02f,+2.36190553e-03f,-8.59835520e-02f,+2.04316065e-01f,
+5.89058921e-02f,+1.68299824e-01f,+1.67686999e-01f,+6.55754432e-02f,-1.02452181e-01f,
-2.63124444e-02f,-1.00248255e-01f,-1.98598057e-01f,+2.87535340e-01f,+1.54997304e-01f,
+1.39488399e-01f,-4.72047441e-02f,+9.32046324e-02f,+1.59562126e-01f,-8.57271403e-02f,
-7.08606094e-02f,+1.06659263e-01f,+4.02396321e-02f,+9.64926034e-02f,-4.97462451e-02f,
+2.26090029e-01f,+1.90782204e-01f,-9.23177674e-02f,+1.95302457e-01f,+2.53230900e-01f,
+3.36581886e-01f,+1.40286222e-01f,+1.01585358e-01f,+2.66203284e-02f,-3.91749516e-02f,
-7.54290372e-02f,+1.45857051e-01f,-8.35165381e-02f,+3.99547257e-02f,+1.16207771e-01f,
-3.66362512e-01f,+4.76963036e-02f,-8.48899707e-02f,+2.42495432e-01f,+1.52892366e-01f,
-4.23015431e-02f,-8.32250118e-02f,-1.11012444e-01f,+6.40186295e-02f,+6.28623366e-02f,
+1.49982020e-01f,+2.54410394e-02f,+1.52002841e-01f,+1.49045270e-02f,+2.30066571e-02f,
+5.87751009e-02f,-7.33462051e-02f,+6.65130392e-02f,+4.34992500e-02f,+7.37938359e-02f,
+1.67844623e-01f,+1.27902985e-01f,+1.90013558e-01f,-5.91666438e-02f,-3.24207209e-02f,
+1.41152948e-01f,-2.59305779e-02f,+1.29698321e-01f,+2.68323254e-02f,+2.52596401e-02f,
+5.06826118e-03f,-1.80709049e-01f,+2.52436966e-01f,+1.14221819e-01f,+9.99250412e-02f,
+2.50201583e-01f,-1.45261481e-01f,+1.10673141e-02f,+9.32014361e-02f,+5.26847783e-03f,
+1.67809233e-01f,+7.81936869e-02f,-8.41424093e-02f,+2.01969832e-01f,-1.80380031e-01f,
+7.62447119e-02f,+3.01098637e-02f,+2.63265371e-01f,+4.04711403e-02f,+3.62120010e-02f,
-3.44918855e-02f,+5.66055998e-02f,-6.64996654e-02f,+1.02973834e-01f,-4.45491001e-02f,
+1.59916803e-01f,+8.76625925e-02f,-5.43260714e-03f,+1.14845254e-01f,-1.46043655e-02f,
+9.80302989e-02f,+4.63225618e-02f,-1.29085869e-01f,+5.45305163e-02f,+2.68935366e-03f,
+2.02452257e-01f,+2.15298794e-02f,-5.74947819e-02f,+1.33487545e-02f,-1.93613485e-01f,
+1.10253394e-01f,+3.18070129e-02f,+3.98841351e-02f,+2.02650532e-01f,+5.40945642e-02f,
+1.91239908e-01f,+1.94518849e-01f,+8.41904953e-02f,+2.15601474e-01f,+1.54969096e-01f,
+1.53635636e-01f,-1.32128336e-02f,+2.72743255e-02f,+2.52129167e-01f,-6.42457157e-02f,
+1.35420218e-01f,-2.43015271e-02f,+2.83540457e-01f,-6.06255746e-03f,-2.55980760e-01f,
-2.00127691e-01f,-1.42170936e-01f,+7.46464776e-03f,+8.46113935e-02f,+1.68878697e-02f,
-2.28192568e-01f,-1.57423615e-02f,+7.53669664e-02f,+2.00327218e-01f,+1.60419494e-01f,
+1.16325006e-01f,+2.41116136e-01f,-1.52100548e-01f,+2.45486468e-01f,-3.69743332e-02f,
+3.24144185e-01f,+7.07972795e-02f,+2.43433982e-01f,+7.10282475e-02f,+1.34980664e-01f,
+9.04268101e-02f,+1.02795683e-01f,-5.57461567e-02f,-2.53901873e-02f,+3.68008204e-02f,
+4.94116955e-02f,+1.24262132e-01f,-3.47136445e-02f,+2.42029682e-01f,-1.14581153e-01f,
+2.52404436e-02f,+9.28174146e-03f,+5.85479476e-02f,+2.55617708e-01f,+1.14661932e-01f,
-8.19056947e-03f,+9.82136354e-02f,+3.04258227e-01f,+5.20619228e-02f,+7.44719058e-02f,
-5.30475676e-02f,-1.65440112e-01f,+3.49416286e-02f,+5.73172085e-02f,+3.39157097e-02f,
+6.85016438e-02f,+9.14125983e-03f,-3.92109454e-02f,+8.66845399e-02f,+1.05905443e-01f,
+2.19878882e-01f,+5.98951206e-02f,-1.33225173e-01f,+1.04364701e-01f,+1.74220905e-01f,
+1.56904697e-01f,-2.00465024e-02f,+6.68303519e-02f,-1.19459093e-01f,+6.31379858e-02f,
+1.01353623e-01f,+1.31575763e-01f,+1.10958464e-01f,+2.20963299e-01f,+9.61139053e-02f,
-9.68483090e-02f,+3.30305547e-02f,-3.83876748e-02f,+1.59044296e-01f,+6.02201186e-02f,
+6.26723766e-02f,+1.62428007e-01f,-1.04211956e-01f,+2.57171422e-01f,+1.93658814e-01f,
-4.65653948e-02f,+3.15078259e-01f,-1.47869021e-01f,+2.06518337e-01f,+1.47554845e-01f,
+1.27503857e-01f,-1.18068218e-01f,+1.00070342e-01f,+8.28222707e-02f,+4.83592637e-02f,
+2.69551903e-01f,-8.72005615e-03f,-8.48412663e-02f,-1.40759259e-01f,-2.09160149e-01f,
+1.76755294e-01f,-2.25205243e-01f,+1.36434957e-01f,-7.39959180e-02f,+2.49055132e-01f,
+2.35021427e-01f,-6.51617423e-02f,+3.99118438e-02f,+8.51925164e-02f,-7.36144334e-02f,
-2.20273897e-01f,+5.26496470e-02f,+2.79725380e-02f,-9.44011733e-02f,+1.91359848e-01f,
-1.69306964e-01f,+1.60331473e-01f,+1.29449099e-01f,+1.37591548e-02f,+3.30387384e-01f,
-1.20301828e-01f,+1.25365928e-01f,+4.13573086e-01f,-1.31786332e-01f,+3.76739092e-02f,
+2.72319287e-01f,+3.25312644e-01f,+2.34129384e-01f,-5.91209121e-02f,+4.71698977e-02f,
+6.51214570e-02f,+5.89847751e-02f,-4.07477468e-02f,+1.10850006e-01f,-6.08927161e-02f,
-6.24569766e-02f,+1.43542394e-01f,+1.76460922e-01f,+1.39567927e-01f,+2.47172322e-02f,
-1.16045261e-02f,+2.27652594e-01f,+2.21327273e-03f,-3.24344486e-02f,+9.40228552e-02f,
+9.13654640e-02f,+2.03134716e-01f,+1.15679368e-01f,+2.02355295e-01f,-3.08493767e-02f,
+8.22276697e-02f,+5.27329817e-02f,+1.26292765e-01f,+7.87655041e-02f,+2.02182576e-01f,
+5.08412905e-03f,+2.57459879e-02f,+3.55446078e-02f,-1.06737912e-01f,+1.59323335e-01f,
+6.72247931e-02f,+8.11428390e-03f,+1.43657088e-01f,+6.96335211e-02f,+1.69304863e-01f,
+1.17281437e-01f,-1.54379994e-01f,+1.39130890e-01f,-6.36052713e-02f,+1.20103043e-02f,
+9.16206860e-04f,-7.35805428e-04f,+1.36997357e-01f,-6.79424107e-02f,+2.23036595e-02f,
+8.42669904e-02f,-7.26947486e-02f,+1.45739228e-01f,-6.34899288e-02f,+6.25645891e-02f,
-8.27115774e-02f,+1.32237315e-01f,+7.88566023e-02f,-8.45450535e-03f,-3.53965722e-02f,
+2.58684754e-02f,-2.04680175e-01f,-9.19606462e-02f,+8.88244137e-02f,+6.15116283e-02f,
+1.25723794e-01f,-3.11083831e-02f,+2.20940495e-03f,+3.70471291e-02f,+1.31998062e-01f,
+5.53216711e-02f,-8.26309025e-02f,+2.04990909e-01f,+9.62863863e-02f,+1.11500695e-01f,
+1.46375611e-01f,+3.83840017e-02f,-1.00777589e-01f,+1.57022290e-02f,+5.71671985e-02f,
-4.04140837e-02f,+6.86167320e-03f,+1.77173749e-01f,+1.59471221e-02f,-1.41537366e-02f,
+1.03564493e-01f,+1.38825819e-01f,+1.97346490e-02f,-5.61886840e-02f,-5.81305362e-02f,
+1.44325897e-01f,+1.52073547e-01f,-2.10016713e-01f,+4.56923656e-02f,+1.06722422e-01f,
+2.67329533e-02f,+4.62184772e-02f,-1.53217642e-02f,+6.11072592e-02f,+8.06701034e-02f,
+2.66837813e-02f,+1.01954088e-01f,+1.59840018e-01f,+1.24498785e-01f,+1.29256070e-01f,
+2.54482552e-02f,+4.29133102e-02f,+1.09723195e-01f,+3.59158926e-02f,+1.47462890e-01f,
-4.38759243e-03f,-1.07199147e-01f,+3.25160823e-03f,+1.15678422e-01f,+1.73161030e-02f,
+2.80313753e-02f,+5.62544614e-02f,+6.49495944e-02f,+4.28559072e-02f,-3.55412588e-02f,
-5.34158498e-02f,+1.09454822e-02f,+1.17536560e-02f,+9.12456289e-02f,+9.53535363e-02f,
+8.89597684e-02f,+1.30213320e-01f,+9.76960957e-02f,+1.33705139e-01f,-2.36488394e-02f,
+1.69021857e-03f,-5.79890870e-02f,+8.51381272e-02f,+4.74727303e-02f,+1.13460384e-01f,
+5.75515628e-02f,+1.82221364e-02f,-8.73984918e-02f,+8.99641886e-02f,+1.38991484e-02f,
+7.37362681e-03f,-8.62748269e-03f,+1.13057368e-01f,+5.36688454e-02f,+3.07798404e-02f,
+5.48590235e-02f,+1.68146804e-01f,+8.14183578e-02f,+6.67376891e-02f,+9.03581679e-02f,
+7.93089718e-02f,+9.66432467e-02f,+5.87067008e-03f,+1.66466877e-01f,+1.03221349e-02f,
+3.64049083e-05f,-7.87749439e-02f,+1.70146301e-02f,+3.12231351e-02f,+7.91582316e-02f,
-6.83885766e-03f,+4.90693860e-02f,+2.51526326e-01f,+1.45503521e-01f,+4.74514849e-02f,
+3.20206791e-01f,-4.63078208e-02f,+1.25281848e-02f,+1.78498223e-01f,+3.19006592e-02f,
+1.53427526e-01f,+9.97880846e-02f,+9.82697904e-02f,+8.27856734e-02f,+4.16364847e-03f,
+3.68146747e-02f,+9.07939300e-02f,+4.53289077e-02f,+1.40526846e-01f,+9.48877167e-03f,
+9.39370841e-02f,+1.21405765e-01f,+5.05134240e-02f,+7.81816617e-02f,-9.24099460e-02f,
+6.02831393e-02f,+1.66075036e-01f,+7.69714117e-02f,-3.83839533e-02f,+2.35301390e-01f,
+5.73645011e-02f,+3.73978205e-02f,+8.48581865e-02f,+1.10447086e-01f,-7.13975057e-02f,
+2.17809454e-02f,+2.24475493e-03f,+7.19541088e-02f,-2.28216574e-02f,+4.19082567e-02f,
+7.29522407e-02f,-1.80143735e-03f,-1.34687349e-01f,+1.33255683e-02f,-3.79295051e-02f,
+1.37439147e-01f,+1.04986560e-02f,-9.94496699e-03f,+3.82053368e-02f,-1.15688508e-02f,
+2.41289139e-01f,+9.27980468e-02f,+4.29111980e-02f,+2.27762014e-01f,+2.69826800e-01f,
+7.77619705e-02f,+4.53111008e-02f,-5.76133281e-02f,-8.74407291e-02f,+9.00810733e-02f,
-3.70954089e-02f,-6.85649440e-02f,-4.00985889e-02f,+6.70947954e-02f,-1.20599620e-01f,
+3.77000161e-02f,+5.39520048e-02f,+1.07215822e-01f,+1.88347131e-01f,+9.69750956e-02f,
-7.87358508e-02f,+3.21433067e-01f,+5.24208285e-02f,+7.70783573e-02f,+7.25309248e-04f,
+1.04389802e-01f,-3.21894586e-02f,-2.53671139e-01f,+7.06984028e-02f,+1.03257023e-01f,
-4.13422808e-02f,-6.88927025e-02f,+2.52408367e-02f,-1.79468859e-02f,+1.20129688e-02f,
-4.01262902e-02f,-1.17152251e-01f,+1.57782614e-01f,+1.58429742e-01f,+2.76788652e-01f,
+1.67992428e-01f,-1.04373535e-02f,+8.80880505e-02f,+8.09365213e-02f,+3.69452164e-02f,
+9.39868987e-02f,+1.80406779e-01f,+1.43995956e-01f,+4.39402945e-02f,+1.14224799e-01f,
-5.90570318e-03f,+9.05146897e-02f,+1.56032711e-01f,+5.08617274e-02f,+1.88354209e-01f,
+8.87023807e-02f,+1.12171784e-01f,+1.51872858e-01f,+9.04299989e-02f,+4.02881652e-02f,
+4.27857460e-03f,+1.51424825e-01f,-4.66635078e-02f,+4.85083349e-02f,+1.85251072e-01f,
-1.87273771e-02f,+3.26666385e-02f,-2.25196145e-02f,+2.59511569e-03f,+1.46012530e-01f,
+1.58771798e-01f,+1.19512603e-01f,-1.10473514e-01f,+2.68594045e-02f,+5.22435680e-02f,
-5.07180989e-02f,+7.93038011e-02f,-2.93338411e-02f,+6.29789531e-02f,+9.12826210e-02f,
+4.84893657e-02f,-1.58860311e-01f,+6.67001456e-02f,+7.07488358e-02f,-7.02960789e-02f,
-1.77147537e-01f,+7.24356398e-02f,+2.66894907e-01f,+1.16479769e-01f,-5.91074973e-02f,
+2.61884689e-01f,+3.61300982e-03f,-5.11339642e-02f,+2.89108343e-02f,-1.22934304e-01f,
+4.74893227e-02f,+1.78702340e-01f,+1.79413125e-01f,+1.26651540e-01f,+1.36182427e-01f,
+1.09354578e-01f,+5.52100614e-02f,-9.65138078e-02f,+1.02161758e-01f,+1.26568198e-01f,
+1.57026902e-01f,+1.83324188e-01f,+8.66359472e-02f,-7.83887357e-02f,+1.59280613e-01f,
-2.31307615e-02f,-2.48335879e-02f,+2.28066370e-01f,+1.70114204e-01f,-3.79329063e-02f,
+6.76668286e-02f,+1.19108751e-01f,+7.75858611e-02f,+7.61882141e-02f,-4.40167971e-02f,
+1.49226740e-01f,+7.66692236e-02f,+6.38353750e-02f,-2.98489612e-02f,+6.54415712e-02f,
+1.16034649e-01f,+1.97640255e-01f,+1.94180198e-02f,+1.84629429e-02f,-1.16785076e-02f,
-5.27858548e-02f,+1.31253839e-01f,+1.49460077e-01f,+1.51899070e-01f,+9.36075822e-02f,
-1.02052316e-01f,+2.40851685e-01f,+3.09905469e-01f,+3.79312873e-01f,+2.00534463e-01f,
+1.38281081e-02f,-1.78378195e-01f,+7.76642337e-02f,+1.76321223e-01f,-2.92675823e-01f,
-2.61125248e-02f,-3.51750031e-02f,+1.04204975e-01f,+1.96764201e-01f,+8.22806358e-02f,
+1.09860554e-01f,+2.15897694e-01f,-1.12661093e-01f,+2.35799402e-01f,+3.82649004e-01f,
+9.72154215e-02f,+5.44302575e-02f,-5.04402697e-01f,-1.30127952e-01f,+2.15430230e-01f,
-9.21033099e-02f,+1.65230140e-01f,+1.60290375e-01f,-7.78467059e-02f,-1.33911729e-01f,
+3.61258537e-02f,+5.80647476e-02f,+4.89896163e-02f,+8.11925083e-02f,-9.80938971e-02f,
+1.20384105e-01f,+1.93197709e-02f,-3.06204259e-01f,+2.12088808e-01f,-1.41681340e-02f,
+1.88845500e-01f,-2.72972807e-02f,-1.75625160e-01f,+4.83726114e-02f,+2.43731234e-02f,
+3.63177666e-03f,-1.98528305e-01f,+1.78186893e-01f,-2.96965032e-03f,-1.20064825e-01f,
-1.65356442e-01f,+9.66423228e-02f,-2.39416674e-01f,+2.07725108e-01f,+3.48299325e-01f,
+1.77974328e-01f,+1.13187566e-01f,-5.45870475e-02f,+1.57510787e-01f,+1.74600333e-01f,
-4.19320092e-02f,-1.38035178e-01f,+1.04138680e-01f,-3.48292850e-02f,+7.32332841e-02f,
+2.95251161e-02f,+5.42069611e-04f,-5.94077259e-02f,-5.03652841e-02f,+9.40150768e-02f,
+1.55133963e-01f,-1.44275501e-01f,+4.21618447e-02f,+3.62059176e-01f,-2.15943173e-01f,
+1.69154108e-01f,-5.14262952e-02f,-1.10715695e-01f,+2.38131642e-01f,+1.42167628e-01f,
-2.53975302e-01f,+4.55916494e-01f,-3.68564203e-02f,+6.39360100e-02f,-9.57153365e-03f,
+4.13643122e-01f,+2.53191534e-02f,-1.56965435e-01f,+3.26688915e-01f,+5.56843765e-02f,
-7.45703503e-02f,+1.82138458e-01f,+1.12846717e-01f,+1.57397598e-01f,-1.89911842e-01f,
-2.57448524e-01f,-7.29643404e-02f,+1.50130153e-01f,+2.22152099e-01f,+2.02526674e-01f,
-5.30336611e-02f,+1.14993602e-01f,+2.26724342e-01f,+2.34588265e-01f,+2.45648801e-01f,
+1.95617989e-01f,+1.48103848e-01f,+3.29413950e-01f,-5.57270981e-02f,-1.04241118e-01f,
+1.72262713e-01f,-1.41244844e-01f,-3.32452804e-02f,+7.31859207e-02f,-1.09006718e-01f,
+3.06752741e-01f,+2.35836938e-01f,+2.84463912e-01f,-3.12546164e-01f,-1.00090317e-01f,
-1.23523429e-01f,-3.42266448e-02f,+1.88138440e-01f,+2.21947730e-01f,+2.83193171e-01f,
+3.29130441e-01f,+6.39118925e-02f,-4.84265298e-01f,+3.81286651e-01f,-6.89978078e-02f,
+3.85625064e-01f,-1.21410355e-01f,+4.23437446e-01f,+2.88290083e-01f,+1.97396368e-01f,
+8.67347568e-02f,+1.45254314e-01f,-2.28833165e-02f,+1.39954180e-01f,+1.45901874e-01f,
+3.97828147e-02f,+1.90836176e-01f,+1.47396341e-01f,+1.45252466e-01f,+2.20310807e-01f,
-4.97704178e-01f,+1.71425864e-01f,+5.65159082e-01f,-3.62941362e-02f,+3.34190637e-01f,
+5.81788272e-02f,+4.72969651e-01f,-5.27168959e-02f,+4.85014170e-02f,+1.34331927e-01f,
+3.01231921e-01f,+4.57657091e-02f,+7.51232579e-02f,-8.12721178e-02f,+5.26679933e-01f,
+1.81416783e-03f,+4.81743142e-02f,-1.00142911e-01f,-1.37389367e-02f,+1.53253838e-01f,
+1.49484336e-01f,+3.27882946e-01f,+1.44308642e-01f,+8.20817724e-02f,+4.33078371e-02f,
+2.13133067e-01f,+5.08628860e-02f,+2.26963222e-01f,-8.11103806e-02f,-1.77701399e-01f,
+1.39418125e-01f,+8.80238190e-02f,-1.51272919e-02f,-3.86111550e-02f,+3.20701241e-01f,
+3.06542087e-02f,-7.78943822e-02f,+9.48496237e-02f,-3.16008806e-01f,-2.08012298e-01f,
-3.53395343e-02f,-1.07171327e-01f,-1.89069994e-02f,+1.58350706e-01f,+4.87255484e-01f,
-1.64566383e-01f,-1.50733218e-01f,-1.32741794e-01f,+1.49749508e-02f,+1.41239554e-01f,
+1.46098593e-02f,+1.54221147e-01f,+1.31325260e-01f,-7.67239705e-02f,+2.71843374e-01f,
+1.20046087e-01f,+1.50663331e-01f,-6.17097318e-02f,-1.69031441e-01f,-1.66453823e-01f,
+1.69310207e-03f,+6.62637830e-01f,+1.12481140e-01f,+1.69210315e-01f,-1.34159639e-01f,
+2.20316797e-01f,+2.71550149e-01f,-1.34774372e-01f,+6.04220107e-02f,+4.56258841e-02f,
-2.88702417e-02f,+1.89076811e-01f,+1.58496171e-01f,+5.55833317e-02f,+3.13735485e-01f,
-1.67841613e-01f,-1.05067596e-01f,-3.79645675e-02f,-8.82163122e-02f,+1.99104130e-01f,
-4.23707396e-01f,+1.58826828e-01f,+3.26098442e-01f,+1.28511935e-01f,+5.01694018e-03f,
+3.43633920e-01f,-6.58635646e-02f,+2.27243468e-01f,+3.66154760e-01f,+4.61087637e-02f,
+1.82287991e-01f,+6.44217953e-02f,-3.65478322e-02f,+4.90986630e-02f,+5.17026857e-02f,
+1.21249191e-01f,-1.87024940e-04f,+1.03478506e-01f,+1.79710925e-01f,-9.89866704e-02f,
+1.01887576e-01f,-5.43085150e-02f,+4.68391255e-02f,-1.34637244e-02f,-8.82887095e-02f,
+8.25084150e-02f,-1.88185200e-01f,+7.09104761e-02f,+3.97911429e-01f,+9.60808992e-02f,
+6.42089546e-02f,+4.07820009e-03f,-1.53398871e-01f,+3.11364293e-01f,+2.24439144e-01f,
+3.17766145e-02f,+4.87056486e-02f,+1.30810544e-01f,-1.31798923e-01f,-1.19197942e-01f,
+1.93824112e-01f,-1.58514697e-02f,+1.38114288e-01f,+2.86016554e-01f,+3.43990594e-01f,
+2.05643147e-01f,+2.30076954e-01f,+2.46640995e-01f,+5.20764053e-01f,-1.93869304e-02f,
+9.67383310e-02f,-3.09091676e-02f,+2.68360138e-01f,-1.08495705e-01f,+3.28288645e-01f,
+3.34001631e-01f,+8.55751783e-02f,+5.43702692e-02f,+1.00236544e-02f,+8.95258337e-02f,
+3.02935746e-02f,+1.02277033e-01f,-4.59178723e-02f,-5.32122813e-02f,-8.83721933e-02f,
+4.21098880e-02f,-1.20285600e-01f,-1.34192809e-01f,+1.50144801e-01f,-2.29407847e-02f,
+1.55681014e-01f,-1.11124590e-01f,-1.58078372e-01f,-1.80096716e-01f,+1.84980094e-01f,
+1.75327435e-01f,+3.17595378e-02f,-1.05673000e-01f,-7.15604499e-02f,+3.63406911e-02f,
-6.42925054e-02f,+5.99183857e-01f,+3.51409972e-01f,-1.53257385e-01f,+7.02245608e-02f,
+1.92453101e-01f,+1.39975101e-01f,-1.89368084e-01f,-1.03654161e-01f,-9.17400867e-02f,
+7.43595064e-01f,-1.02139123e-01f,-8.41661990e-02f,-2.10064709e-01f,+1.30775437e-01f,
-8.17831382e-02f,-4.58084077e-01f,+6.87749386e-02f,+2.23358870e-01f,+2.37115100e-01f,
+4.87756655e-02f,+1.63340449e-01f,-1.48261413e-01f,+1.32109120e-01f,+1.48612047e-02f,
+3.60499084e-01f,-1.94624111e-01f,+2.49748766e-01f,-8.83388221e-02f,-1.01334125e-01f,
-6.18165955e-02f,+9.07464623e-02f,-1.08819090e-01f,+5.73129952e-02f,+3.20761114e-01f,
+4.03555304e-01f,+2.19561592e-01f,+5.72106503e-02f,+7.91472495e-02f,+1.66576579e-01f,
+3.58224139e-02f,-1.69580266e-01f,-1.52642593e-01f,+1.31080315e-01f,-1.79380447e-01f,
+2.79662222e-01f,-2.04725657e-02f,+1.58676147e-01f,-3.11235036e-03f,-1.24495573e-01f,
+4.91837949e-01f,+8.13457221e-02f,+9.68161970e-02f,-1.90665066e-01f,-1.05653238e-02f,
+3.19229509e-03f,-9.58366171e-02f,-5.04130535e-02f,+1.22013345e-01f,+1.79267094e-01f,
+1.02970183e-01f,+7.62937516e-02f,+6.49692863e-02f,-1.61564156e-01f,+5.29826209e-02f,
+2.37440556e-01f,-1.74103215e-01f,+4.15663458e-02f,-5.08075990e-02f,+3.79088819e-02f,
+1.20767698e-01f,-9.46292952e-02f,+2.22177371e-01f,+9.36704203e-02f,-1.06916130e-01f,
+1.39525697e-01f,-1.96591765e-01f,+2.57232130e-01f,-1.25020072e-01f,-1.21336542e-01f,
-1.38449267e-01f,-1.29243180e-01f,-2.84296386e-02f,-7.58536160e-02f,-4.68284115e-02f,
+9.39039811e-02f,+1.89530760e-01f,-1.75016597e-01f,+7.27138249e-03f,+2.94630557e-01f,
-3.91809121e-02f,+2.06306726e-01f,+3.72984618e-01f,-5.41163608e-03f,+6.05813526e-02f,
+2.12844685e-01f,+2.33503312e-01f,+1.97205350e-01f,+1.95447624e-01f,+1.37215048e-01f,
-2.73170825e-02f,+1.31251067e-01f,+2.14896962e-01f,-2.69439463e-02f,+1.72877058e-01f,
+1.20716460e-01f,-8.90368745e-02f,+1.37449712e-01f,+1.80414185e-01f,+2.60741025e-01f,
+2.04461828e-01f,+3.23152468e-02f,+6.07311837e-02f,-1.84228688e-01f,-2.08528548e-01f,
+3.35243344e-01f,+1.43275306e-01f,+1.41195422e-02f,+1.89143404e-01f,+1.34234726e-01f,
+5.81230998e-01f,-5.46578458e-03f,+2.17520788e-01f,+7.68951923e-02f,+1.66310534e-01f,
+3.02679449e-01f,-1.11325875e-01f,+1.73362076e-01f,-6.88193366e-02f,-1.20877422e-01f,
+1.74140945e-01f,+6.82873651e-02f,+5.78409359e-02f,+5.46404608e-02f,-2.81217340e-02f,
+4.22059037e-02f,+3.99443686e-01f,+1.14055939e-01f,-1.34166166e-01f,-1.33353680e-01f,
+1.75849989e-01f,-1.58629999e-01f,-3.22085321e-02f,+6.80910889e-03f,+3.13027084e-01f,
+1.06621243e-01f,+8.43248516e-02f,+4.27690029e-01f,+1.27022997e-01f,+1.22823671e-01f,
+9.70510915e-02f,+1.56004220e-01f,+4.60112572e-01f,+1.12150677e-01f,+1.42030511e-02f,
-5.09638973e-02f,+2.30706353e-02f,+6.40898794e-02f,+1.36826694e-01f,+2.62347907e-01f,
+3.85569513e-01f,+4.92872819e-02f,+9.10484418e-02f,-5.69957606e-02f,+3.31233777e-02f,
+3.07832390e-01f,-7.30817020e-02f,+3.33867073e-02f,+2.00127050e-01f,+4.39510196e-02f,
+2.07314447e-01f,+3.02311797e-02f,+4.33045849e-02f,+1.83446556e-01f,+2.01796040e-01f,
+4.20404598e-02f,+2.73957282e-01f,-2.05907047e-01f,+1.84433699e-01f,+1.82730258e-01f,
-1.24643534e-01f,-1.62015453e-01f,+2.68109977e-01f,-1.95865974e-01f,+8.17514509e-02f,
+5.22557981e-02f,+1.33335948e-01f,-5.03606871e-02f,+1.88719511e-01f,+2.08392069e-01f,
+3.48007023e-01f,-4.33734581e-02f,-8.48738253e-02f,+2.00326085e-01f,+2.96341747e-01f,
-4.89809245e-01f,+9.94808599e-02f,+2.66502835e-02f,+1.19431220e-01f,+2.49535486e-01f,
+1.44421458e-01f,+1.94341347e-01f,-4.16406244e-01f,+1.97211549e-01f,-4.81797755e-02f,
-1.53275907e-01f,+3.00307691e-01f,-1.25878051e-01f,-4.92544211e-02f,-1.55375257e-01f,
+1.35059794e-03f,+1.25467367e-02f,+8.25314373e-02f,-2.31937133e-02f,+5.41455345e-04f,
-6.31767139e-02f,+8.83957595e-02f,+2.50235379e-01f,-1.51556522e-01f,-5.78786135e-02f,
+1.64900944e-01f,-2.33763289e-02f,+1.50392652e-01f,+1.46031573e-01f,+2.18226090e-01f,
+1.07594460e-01f,+4.29227315e-02f,-1.27658658e-02f,+2.70568877e-01f,+1.59459695e-01f,
+2.90462404e-01f,+1.64574936e-01f,-1.71596780e-02f,-5.50959259e-02f,-3.60520184e-02f,
-3.47988941e-02f,+4.26656846e-03f,-6.51185066e-02f,-4.10371535e-02f,+3.00243516e-02f,
+4.19443250e-01f,+4.18634824e-02f,+3.23073030e-01f,+2.10878342e-01f,-6.95257857e-02f,
+1.14122026e-01f,+1.11708999e-01f,+1.69195920e-01f,-1.94707945e-01f,+3.40990983e-02f,
-2.07217753e-01f,-9.73692611e-02f,-1.23493135e-01f,+4.21951473e-01f,+4.86658625e-02f,
+1.25759095e-01f,-3.19600195e-01f,+3.63427438e-02f,+2.05555245e-01f,+1.38718084e-01f,
+1.25915959e-01f,+2.73398161e-01f,+1.77725822e-01f,-3.64034474e-02f,-1.83638856e-01f,
+1.45067185e-01f,-2.91729085e-02f,+1.73110738e-01f,-7.20608979e-02f,+2.51920581e-01f,
+1.22988513e-02f,-3.24188411e-01f,+2.12450951e-01f,+8.14977810e-02f,+2.15082616e-02f,
+1.49957761e-01f,+4.72921841e-02f,+2.62824863e-01f,+3.26106101e-02f,-1.97215248e-02f,
+1.62325799e-02f,+8.31586272e-02f,-1.60517935e-02f,-1.12402156e-01f,-1.63717102e-02f,
-6.43776581e-02f,-3.20361614e-01f,-1.04029872e-03f,-2.20557470e-02f,+2.89762765e-02f,
+2.03561887e-01f,+2.41339326e-01f,+3.40273768e-01f,-5.63809760e-02f,+3.88925135e-01f,
+1.61643513e-02f,+8.40840861e-02f,+7.90298581e-02f,+2.32234657e-01f,+2.37800479e-02f,
-7.31463358e-02f,+5.84619232e-02f,+1.74293499e-02f,+1.18716903e-01f,+1.53917581e-01f,
+3.86791706e-01f,-1.57718748e-01f,-1.43614233e-01f,+2.12451398e-01f,-7.84175619e-02f,
-2.71793082e-02f,+3.62854064e-01f,-3.55804414e-02f,-4.69095618e-01f,+1.61303267e-01f,
+5.89845404e-02f,+1.38133049e-01f,+3.31587166e-01f,+1.94440767e-01f,-9.06454995e-02f,
-2.00137496e-02f,+1.33136258e-01f,+2.43063062e-01f,+2.19153687e-01f,-1.58290684e-01f,
-9.12590250e-02f,+4.81532931e-01f,+8.14210102e-02f,+1.09976441e-01f,+9.00353305e-03f,
+2.01404214e-01f,+4.74178083e-02f,+1.81682520e-02f,+6.37142658e-02f,+1.73305839e-01f,
+1.69706479e-01f,-1.78759936e-02f,-5.27930260e-02f,+5.92717454e-02f,+4.94735315e-02f,
-1.44410795e-02f,+1.45445928e-01f,-2.34439992e-03f,+1.94877774e-01f,+1.97333079e-02f,
-1.17793456e-01f,-8.16548020e-02f,-1.26865119e-01f,-1.10520862e-01f,-7.50261545e-02f,
+4.38915417e-02f,+3.56568256e-03f,+2.35718176e-01f,+8.73431489e-02f,+2.20780671e-01f,
+1.31573647e-01f,-6.46274313e-02f,-1.25150993e-01f,+2.34537855e-01f,+7.56310895e-02f,
-1.23627223e-01f,+3.11100036e-01f,-1.34314701e-01f,-2.43302926e-01f,-2.71438006e-02f,
+3.73021573e-01f,+2.43953854e-01f,-1.30131707e-01f,+8.34655985e-02f,-1.41460016e-01f,
+2.36139409e-02f,-9.26122293e-02f,+8.55586082e-02f,+4.10108566e-02f,-1.88720971e-01f,
+1.46910310e-01f,+1.45326853e-01f,+1.16585363e-02f,+1.73920840e-01f,+7.80704468e-02f,
+1.30443946e-01f,+1.00015685e-01f,-3.11341919e-02f,+8.74841958e-02f,+3.82117853e-02f,
-2.26058774e-02f,-1.11931458e-01f,+5.69583252e-02f,+3.00823878e-02f,+1.28574401e-01f,
+1.09825023e-01f,-4.25870791e-02f,+3.35495807e-02f,-1.03477929e-02f,+3.79771069e-02f,
+4.62116897e-02f,+1.57644842e-02f,+2.14705274e-01f,+2.37175867e-01f,-4.64018807e-02f,
+5.82418181e-02f,+1.23957276e-01f,+9.28138420e-02f,+1.41138270e-01f,-3.36001180e-02f,
+3.15610111e-01f,+2.51939237e-01f,+7.29410052e-02f,+3.93900067e-01f,-1.68772303e-02f,
+3.44669558e-02f,+7.51208141e-02f,+9.77739990e-02f,-1.88098311e-01f,+2.22197294e-01f,
+2.03432739e-01f,-7.84245282e-02f,+1.44147933e-01f,+5.56292385e-02f,+1.80081427e-02f,
+4.21298388e-03f,+6.83266222e-02f,+6.44663721e-02f,-1.59212828e-01f,+9.60442871e-02f,
+5.51693998e-02f,-1.42676309e-01f,-4.96772602e-02f,-3.08181405e-01f,+1.65450722e-01f,
+4.99532372e-02f,-1.57773554e-01f,+2.50456095e-01f,+2.61518002e-01f,-9.61086079e-02f,
+8.90539289e-02f,+1.99817926e-01f,+2.10646257e-01f,+3.58249396e-01f,+8.20851177e-02f,
+4.46753323e-01f,-3.17745879e-02f,-1.87948674e-01f,+1.43051326e-01f,+1.80233106e-01f,
+7.88648948e-02f,-1.92600757e-01f,+5.10886423e-02f,-1.45131558e-01f,-1.52869686e-01f,
+6.58111945e-02f,-5.36897779e-02f,+1.95735782e-01f,-5.43167666e-02f,+1.01397760e-01f,
+2.51830757e-01f,+5.95190749e-02f,-1.67951763e-01f,+6.17443472e-02f,+3.58940177e-02f,
-1.59221515e-01f,+9.43159238e-02f,+2.36670971e-01f,+1.19392253e-01f,-1.20894007e-01f,
+2.30134547e-01f,+1.73725188e-01f,-4.10972722e-02f,-1.51904270e-01f,-6.61068559e-02f,
+4.20545995e-01f,-1.28507242e-01f,-1.33309979e-03f,+2.88477272e-01f,-2.04247646e-02f,
+1.93675816e-01f,-3.38132940e-02f,+8.31309780e-02f,+3.16417962e-02f,+2.53699630e-01f,
+1.43180981e-01f,-4.95060496e-02f,+1.65570766e-01f,+2.27000490e-01f,-1.19881779e-01f,
-6.21388108e-02f,+2.28106752e-01f,+1.45814091e-01f,+3.02216232e-01f,+2.07201734e-01f,
-2.46650904e-01f,+2.33822633e-02f,-1.68400928e-02f,+1.30631089e-01f,+1.03651229e-02f,
-3.17113777e-03f,+2.11417779e-01f,+2.24338278e-01f,-1.85986802e-01f,+1.10845052e-01f,
+4.48537767e-02f,+1.52333215e-01f,-1.65491015e-01f,+1.08054794e-01f,-1.25181088e-02f,
+1.21409021e-01f,+1.40952012e-02f,+3.86371225e-01f,-1.45250008e-01f,+1.15086071e-01f,
+1.33033842e-01f,+1.49868950e-01f,-6.70207478e-03f,+3.15105140e-01f,-1.62641317e-01f,
-3.60591449e-02f,+1.69410288e-01f,+1.40023053e-01f,-1.91769332e-01f,+1.29821926e-01f,
-4.04553562e-02f,+1.93147093e-01f,+2.94939969e-02f,-1.72201861e-02f,-9.79817212e-02f,
-8.88910517e-02f,+2.81292945e-01f,+6.23517185e-02f,+1.97038218e-01f,+5.99373877e-01f,
-9.34647471e-02f,+1.22553175e-02f,+2.31884390e-01f,+1.31714568e-01f,-6.10023104e-02f,
+2.22601488e-01f,+6.94217607e-02f,+4.83583510e-02f,+4.19411510e-01f,+1.23655066e-01f,
-1.35514781e-01f,+5.43597266e-02f,+5.44455945e-02f,+2.20565915e-01f,-2.00277828e-02f,
+1.99616849e-01f,+1.87319383e-01f,+2.12791711e-01f,+1.88595146e-01f,-7.22339936e-03f,
+1.22582711e-01f,-3.03723309e-02f,+1.24967014e-02f,+1.11292973e-02f,+4.21982676e-01f,
-1.52936786e-01f,+1.43895686e-01f,+6.20431416e-02f,+5.94251826e-02f,-6.37657195e-03f,
-1.15997382e-01f,+2.66121387e-01f,+1.05093092e-01f,+1.61804229e-01f,+1.82412937e-01f,
+1.40458867e-01f,-7.35982656e-02f,+3.45102362e-02f,+2.70997845e-02f,+2.48987786e-02f,
+2.36114413e-01f,-9.20455083e-02f,-1.53837785e-01f,-4.82300110e-02f,+1.50754496e-01f,
+1.01139709e-01f,+1.02441527e-01f,-9.29439217e-02f,-4.57931496e-02f,+1.81814566e-01f,
+3.37613493e-01f,+2.04210266e-01f,+1.90987453e-01f,-2.26446353e-02f,+1.63732588e-01f,
+6.28835112e-02f,-2.44938787e-02f,+1.08993545e-01f,-1.03164688e-01f,+1.06130354e-01f,
+2.32065544e-01f,+8.23557004e-02f,+4.06844653e-02f,+1.74952790e-01f,+1.04966007e-01f,
-9.19919610e-02f,+1.53532162e-01f,+4.56909984e-02f,+1.97110444e-01f,-6.75226226e-02f,
+1.01154566e-01f,+6.82620034e-02f,-5.19914255e-02f,+1.83050081e-01f,+2.28607520e-01f,
+1.78714190e-02f,+2.05651581e-01f,-2.73274016e-02f,-1.06616005e-01f,+3.68208349e-01f,
+2.43118376e-01f,-1.97999813e-02f,+2.01850280e-01f,+1.16629459e-01f,+1.89608797e-01f,
+1.30670622e-01f,-3.57378125e-02f,+6.36531636e-02f,-6.43981919e-02f,-6.00079335e-02f,
+1.78435206e-01f,+1.80915613e-02f,-3.33032727e-01f,+8.37327018e-02f,+1.65843278e-01f,
+2.95072747e-03f,+1.92704514e-01f,+6.84638787e-03f,-1.28164575e-01f,-1.55825347e-01f,
+1.66551508e-02f,-2.10387304e-01f,-8.70502889e-02f,-7.93395042e-02f,+3.57875109e-01f,
+6.38610870e-02f,+4.13960256e-02f,+1.66889414e-01f,+2.31538098e-02f,+2.77817249e-01f,
+5.17336316e-02f,+1.07053183e-01f,-4.75209653e-02f,+3.43972333e-02f,+2.13058516e-01f,
+1.41609550e-01f,+1.31064713e-01f,+2.11613461e-01f,-1.43063664e-01f,-1.61967259e-02f,
-4.42658216e-02f,+1.10587627e-02f,+2.26745009e-02f,+2.00426131e-01f,+2.21254565e-02f,
+1.45174414e-01f,-1.49313599e-01f,+7.17713311e-02f,+2.03717902e-01f,+6.56756535e-02f,
+3.89554203e-02f,-8.93400311e-02f,+8.17325711e-02f,+7.66870752e-02f,+2.32811466e-01f,
-3.07514407e-02f,+1.97266847e-01f,+4.03995588e-02f,+2.06930816e-01f,-7.09052533e-02f,
-4.36823070e-03f,+2.29278609e-01f,+1.65669665e-01f,+2.32165977e-02f,+5.40280156e-02f,
+1.35511190e-01f,-5.74746821e-03f,+5.33342771e-02f,+2.97813624e-01f,+5.71201816e-02f,
-1.02120429e-01f,+2.48775870e-01f,+9.94731411e-02f,+1.03826948e-01f,+3.51235643e-02f,
-2.34736912e-02f,+1.19231239e-01f,-2.29967162e-01f,+1.60939261e-01f,+3.39265205e-02f,
-4.68841940e-02f,+7.77125433e-02f,-5.74808344e-02f,+2.33667552e-01f,+2.96244919e-01f,
+6.41380623e-02f,+1.34416774e-01f,-1.50999486e-01f,+8.49785954e-02f,+3.71258110e-01f,
+2.57420563e-03f,-1.49664953e-01f,+1.31450534e-01f,-3.61254215e-02f,+2.50898957e-01f,
+8.95425901e-02f,+5.67973591e-02f,+3.11772022e-02f,-7.12570995e-02f,-9.29832757e-02f,
+6.62534963e-03f,+6.88848943e-02f,-1.02738418e-01f,+5.53541593e-02f,+1.73020184e-01f,
-8.74875560e-02f,+8.76318067e-02f,+8.75060037e-02f,+1.76445529e-01f,-2.37485170e-01f,
-6.04937673e-02f,+9.68086068e-03f,+1.26855616e-02f,+1.55206382e-01f,-5.65794520e-02f,
+1.34848669e-01f,-1.72981769e-02f,+1.67602569e-01f,+2.71439962e-02f,+9.86823440e-02f,
+2.74575472e-01f,+4.70686078e-01f,+1.02237038e-01f,-1.78501233e-02f,-5.12699224e-02f,
+3.06339711e-01f,-2.76634246e-02f,-9.25991982e-02f,+1.39511265e-02f,-1.57269686e-01f,
+1.87680110e-01f,+1.66972607e-01f,-6.21868223e-02f,+1.19548865e-01f,-5.46092689e-02f,
+7.65864030e-02f,-4.32510348e-03f,+2.61839271e-01f,+1.50728762e-01f,+2.51140535e-01f,
+1.10832313e-02f,-1.00613080e-01f,+1.33063391e-01f,+4.48587872e-02f,+1.80207063e-02f,
+3.60556617e-02f,+2.19565593e-02f,-1.84363484e-01f,+2.68250525e-01f,+2.40784720e-01f,
+1.07899338e-01f,+1.33524299e-01f,+1.44136176e-01f,+2.26848330e-02f,-3.19630816e-03f,
+4.16263133e-01f,-4.94284816e-02f,+1.32950708e-01f,+1.52554542e-01f,+2.31913075e-01f,
+9.91209075e-02f,-1.20248504e-01f,+1.96064457e-01f,+1.03531547e-01f,-3.73282991e-02f,
+3.45066213e-03f,-8.92811120e-02f,+1.95442498e-01f,+6.39112666e-02f,+2.61131912e-01f,
-4.57861274e-02f,+2.51664102e-01f,+6.64037019e-02f,+1.63729548e-01f,+1.76462799e-01f,
-8.47653225e-02f,+8.69976804e-02f,+1.35947600e-01f,+4.18235838e-01f,-4.41449210e-02f,
-5.92900701e-02f,-2.52735987e-02f,+5.17836154e-01f,-9.14941281e-02f,+8.54326412e-02f,
+8.70690122e-02f,+4.13341403e-01f,+4.59669590e-01f,-1.44853979e-01f,+7.92004392e-02f,
+3.04378331e-01f,+4.09689397e-01f,+3.07658523e-01f,+2.93507297e-02f,+1.61941964e-02f,
+8.10844917e-03f,-3.44568007e-02f,+1.63547337e-01f,+5.08126095e-02f,-6.95550665e-02f,
+5.05057275e-02f,+1.01001993e-01f,-3.58313359e-02f,-2.65912831e-01f,-6.15572743e-02f,
+2.67244037e-02f,+1.09089628e-01f,+1.90916985e-01f,+4.76516001e-02f,+3.26436609e-01f,
+2.18366459e-01f,+2.75302362e-02f,+1.02866448e-01f,+3.47579539e-01f,+5.48409037e-02f,
+1.67459017e-03f,-7.01974928e-02f,+4.14740527e-03f,-2.47537028e-02f,-4.16928679e-02f,
+6.23881705e-02f,+2.14861050e-01f,+6.53276071e-02f,+2.76029795e-01f,+2.10621282e-01f,
+1.81579381e-01f,+1.22065432e-01f,+2.81126291e-01f,+1.63930997e-01f,+5.29678166e-03f,
-2.38704741e-01f,-2.04259396e-01f,+9.01691765e-02f,+1.49481017e-02f,+1.42060593e-01f,
+9.82105806e-02f,+4.10862863e-02f,+6.80761188e-02f,-1.72543049e-01f,+2.57068902e-01f,
-1.68296788e-02f,+7.57696480e-02f,+1.59392968e-01f,+2.86152154e-01f,+8.66702991e-04f,
+7.92075321e-03f,+2.61519700e-01f,+4.70364630e-01f,-4.36618179e-02f,+2.54643947e-01f,
+1.72171414e-01f,+3.38396877e-01f,+6.02520518e-02f,-4.05844562e-02f,-2.38869414e-02f,
+2.78652519e-01f,-1.35969460e-01f,+2.50518080e-02f,+2.06178024e-01f,+2.86065042e-01f,
-3.05663813e-02f,+1.12862960e-01f,+2.58237034e-01f,-7.71016404e-02f,+2.96983570e-01f,
+1.05674259e-01f,-2.01396093e-01f,-9.36301276e-02f,-2.35850532e-02f,+2.75985599e-01f,
+1.38917685e-01f,-6.96178004e-02f,+2.15215221e-01f,+1.28094614e-01f,+4.18390892e-02f,
+7.66028091e-02f,-3.51877324e-02f,-4.33248430e-02f,+2.97715396e-01f,-1.33038396e-02f,
-5.65502308e-02f,-9.54196230e-02f,+2.94527054e-01f,-1.25795797e-01f,+5.18724442e-01f,
-1.89955328e-02f,+3.58121470e-02f,+2.45274618e-01f,+3.15777436e-02f,-1.52657665e-02f,
+1.38788417e-01f,+9.70235616e-02f,+3.12921226e-01f,+7.44928196e-02f,+8.72360468e-02f,
-1.13811284e-01f,+3.70596737e-01f,+1.75490201e-01f,+1.17773097e-02f,+5.71615212e-02f,
-1.22753270e-01f,+5.54451533e-02f,+2.06129253e-01f,+1.23321705e-01f,+4.93926480e-02f,
+2.63413433e-02f,+3.44654709e-01f,+1.66826323e-02f,-5.98038211e-02f,+1.72653973e-01f,
+4.64953572e-01f,+2.63355732e-01f,-1.13975234e-01f,-1.48949236e-01f,+6.53672293e-02f,
+9.93703902e-02f,+3.09499018e-02f,-3.23072001e-02f,+5.44694960e-02f,+4.50310186e-02f,
+4.04895917e-02f,-2.19781414e-01f,-3.89817134e-02f,-1.04650877e-01f,-3.99033129e-02f,
+4.82377931e-02f,+2.92649418e-01f,+2.24021167e-01f,-5.10500483e-02f,+2.77972549e-01f,
+2.02791512e-01f,-6.25418723e-02f,+4.25648317e-02f,+5.13744831e-01f,+5.89900389e-02f,
+2.84803480e-01f,-7.80819654e-02f,+9.99373049e-02f,+6.91406056e-02f,+4.72851276e-01f,
-1.34909824e-01f,+2.07657233e-01f,+7.29581490e-02f,+1.66154012e-01f,-1.01274669e-01f,
-4.78201099e-02f,-1.31476551e-01f,+1.14409454e-01f,+4.48666692e-01f,+1.00986242e-01f,
+3.85126263e-01f,+5.46940677e-02f,+1.79330766e-01f,+9.98102278e-02f,+3.62733513e-01f,
+4.49057296e-02f,+3.08349002e-02f,+1.98897466e-01f,+4.17576097e-02f,-2.09674332e-02f,
+4.08775806e-01f,+3.46482128e-01f,+2.36307263e-01f,+7.98351020e-02f,+3.01235914e-01f,
+2.44764406e-02f,+1.13182999e-01f,+1.55664504e-01f,+2.66395420e-01f,+2.97226608e-01f,
+1.44749850e-01f,+2.25153249e-02f,+4.58626091e-01f,+3.47388885e-03f,+2.62562603e-01f,
+3.56641591e-01f,+1.32464573e-01f,+1.62380114e-01f,+8.16088617e-02f,+2.32231975e-01f,
-1.21877631e-02f,+1.99172184e-01f,-1.31809190e-01f,+1.64742410e-01f,-1.12989070e-02f,
+1.93694919e-01f,+2.36982387e-02f,+4.13887165e-02f,-3.36155072e-02f,+2.97040325e-02f,
+2.37263460e-02f,+1.22884527e-01f,-7.30953142e-02f,+5.53487279e-02f,+5.37063405e-02f,
-7.38777742e-02f,-3.96103188e-02f,-4.37349789e-02f,+4.48937193e-02f,+1.63970485e-01f,
-1.65921152e-01f,+3.80868912e-02f,+1.21125646e-01f,+9.76682827e-02f,-1.00884743e-01f,
+2.08672076e-01f,-4.78732549e-02f,-2.14671623e-02f,+3.94438319e-02f,+7.85470009e-03f,
-1.12866536e-01f,+1.51977679e-02f,+5.25975646e-03f,-6.13971837e-02f,-3.51453349e-02f,
+3.88545096e-02f,-1.30353361e-01f,+8.24226961e-02f,-3.31501544e-01f,-1.77473307e-01f,
+4.63533886e-02f,-2.20249617e-03f,+1.77133996e-02f,+1.65979907e-01f,-1.76284775e-01f,
-7.34704733e-02f,-6.78202929e-03f,-6.63229898e-02f,+6.87732771e-02f,+8.73498917e-02f,
-2.41401538e-01f,+6.99914545e-02f,-4.62473296e-02f,+3.47852544e-03f,+9.61245224e-02f,
+2.18667269e-01f,-8.68708361e-03f,+3.63632739e-02f,+8.54113474e-02f,-5.34656309e-02f,
+1.53705999e-01f,+3.33671048e-02f,+2.91616678e-01f,+6.43095598e-02f,-4.03479375e-02f,
+1.24874078e-01f,+3.26845884e-01f,-7.44646937e-02f,+4.62456904e-02f,-3.11380252e-02f,
+1.42459616e-01f,-6.25375286e-02f,+2.33802781e-03f,-4.67587486e-02f,+6.98083341e-02f,
+4.28330302e-02f,+3.04739382e-02f,+5.92896268e-02f,+1.70014322e-01f,+2.36797184e-01f,
+6.78039938e-02f,-3.98284532e-02f,+5.00919186e-02f,-8.30799118e-02f,+1.73772320e-01f,
+1.33358806e-01f,+2.17058554e-01f,+1.06631622e-01f,+1.17279261e-01f,-1.74689442e-02f,
-1.97928045e-02f,+1.54571116e-01f,+1.34135857e-01f,+1.30106568e-01f,+2.39698160e-02f,
-1.95753321e-01f,-2.60096579e-03f,+6.98021352e-02f,+3.18365991e-01f,-2.36061394e-01f,
+2.33827978e-01f,+1.11712858e-01f,+1.98230688e-02f,-1.12547912e-01f,+1.56676784e-01f,
+1.50938913e-01f,+6.32768944e-02f,+1.43800005e-01f,+1.49972484e-01f,+1.37394413e-01f,
+7.91102201e-02f,+4.74816523e-02f,+6.08374104e-02f,+7.02748075e-02f,+3.03264856e-01f,
+9.27762017e-02f,+2.27315560e-01f,-4.11384217e-02f,+3.13069187e-02f,+7.63070136e-02f,
-2.06403702e-01f,+2.03445368e-02f,-6.43365383e-02f,+4.01734233e-01f,-3.12930532e-02f,
+1.36763975e-01f,+1.57669589e-01f,+6.58429414e-02f,-7.20617687e-03f,-5.58129549e-02f,
+5.44838645e-02f,+1.94574576e-02f,-3.40209454e-01f,+2.72754937e-01f,-3.83477099e-02f,
-5.29943816e-02f,-3.16725463e-01f,+5.99071831e-02f,+4.86595482e-02f,+1.12605415e-01f,
+6.59077093e-02f,+5.50947003e-02f,+2.37905875e-01f,+3.12633701e-02f,-2.03399032e-01f,
+2.51574814e-01f,-8.49443525e-02f,+1.96650624e-01f,+2.50084996e-01f,+1.30729109e-01f,
+9.15108100e-02f,-7.52556026e-02f,+7.56267756e-02f,+3.82621326e-02f,-1.13580842e-02f,
-2.17572898e-02f,+1.09811760e-01f,-6.42719716e-02f,+1.89860865e-01f,+1.84829578e-01f,
-1.12746619e-01f,+5.34199476e-02f,+3.01705487e-02f,+6.82486966e-02f,-1.85164720e-01f,
-7.76938722e-02f,+8.47960338e-02f,-1.96073428e-01f,+1.40283182e-01f,+1.87968656e-01f,
-4.54095714e-02f,+1.74139123e-02f,+2.53913343e-01f,+3.82363915e-01f,+8.89764577e-02f,
+2.80867089e-02f,-1.90534890e-01f,+5.12855574e-02f,+8.95756409e-02f,+1.10444896e-01f,
+2.34242469e-01f,+6.29507899e-02f,-1.16166696e-01f,+7.37825781e-02f,+5.54042086e-02f,
+3.47001813e-02f,-2.66891476e-02f,-2.04419240e-01f,-1.01584934e-01f,+2.73946732e-01f,
+8.89086425e-02f,-8.65069628e-02f,+2.42333673e-02f,+2.86364350e-02f,-4.40474562e-02f,
+2.28642210e-01f,-5.84759563e-02f,+3.22331786e-01f,+4.22037058e-02f,+5.16525321e-02f,
+1.19051412e-01f,+6.00967109e-02f,+1.57997102e-01f,+1.80966452e-01f,+2.66597092e-01f,
-1.30435154e-01f,-1.91142261e-01f,+5.26850522e-02f,+9.86112654e-02f,-1.49942994e-01f,
+5.56589141e-02f,+6.07829317e-02f,+9.14432555e-02f,-4.72239554e-02f,+1.25333011e-01f,
-9.17113125e-02f,+9.67287794e-02f,+3.24290961e-01f,-1.43695831e-01f,+6.13868758e-02f,
+1.04153246e-01f,+8.73276740e-02f,-1.13780759e-01f,+2.28714451e-01f,+4.90190871e-02f,
+3.85519676e-02f,+1.63222402e-02f,+2.84625053e-01f,+6.26915395e-02f,+1.13913991e-01f,
-1.02269381e-01f,+6.30527511e-02f,+2.17168895e-03f,-3.06358878e-02f,+1.28457710e-01f,
-2.45214403e-02f,-3.29197431e-03f,-6.59016613e-03f,+2.79228121e-01f,-5.57911396e-02f,
-1.42924547e-01f,+7.14779347e-02f,+1.49963543e-01f,-1.02581817e-03f,+1.57097504e-02f,
+1.28887758e-01f,-5.38556874e-02f,-4.04923744e-02f,+3.39511819e-02f,+3.06613028e-01f,
+9.17541608e-03f,-2.59999707e-02f,+4.39662859e-02f,+7.56902918e-02f,-1.02101274e-01f,
+3.57561521e-02f,-2.10022908e-02f,+9.07401517e-02f,-1.51936272e-02f,+7.63647482e-02f,
-6.08973578e-02f,+2.21332349e-02f,-6.47084266e-02f,+1.11830629e-01f,+2.09781408e-01f,
-5.55857047e-02f,+1.01733662e-01f,+1.01605296e-01f,+3.93872410e-01f,+9.83828902e-02f,
+8.73284936e-02f,+1.58748060e-01f,+2.55661875e-01f,+1.38957813e-01f,-1.62255123e-01f,
+3.95068377e-02f,+1.61008909e-02f,-1.08415401e-02f,+2.88726300e-01f,+1.34847686e-02f,
+2.65580579e-03f,+1.38592735e-01f,+9.72124934e-02f,-5.85176460e-02f,+3.45312655e-01f,
-4.26901616e-02f,-4.95779105e-02f,+9.83614549e-02f,+4.19220254e-02f,+4.88708913e-02f,
+1.09353781e-01f,+2.37146276e-03f,+5.18528596e-02f,-1.00355871e-01f,-1.55534204e-02f,
+1.41407564e-01f,-7.96053335e-02f,-4.93994243e-02f,+1.69428825e-01f,+2.77316440e-02f,
-2.17813831e-02f,+5.51134050e-02f,+8.48897696e-02f,+4.75835018e-02f,-8.72917771e-02f,
-1.91214588e-02f,-1.00977020e-02f,+1.14261888e-01f,+1.85557395e-01f,+1.20053869e-02f,
+7.06857741e-02f,-3.68788536e-03f,+6.40209243e-02f,-2.72921324e-01f,+2.51790509e-02f,
-1.38290539e-01f,+8.65769163e-02f,-1.59354389e-01f,+6.77861944e-02f,+1.51469141e-01f,
-7.77632073e-02f,-3.71728763e-02f,-8.20214078e-02f,-5.33851907e-02f,+1.63570091e-01f,
+2.43218333e-01f,+1.29452273e-01f,+8.72936025e-02f,+9.13804919e-02f,-3.79703641e-02f,
+7.19372928e-02f,-1.60635151e-02f,+6.12589493e-02f,-5.98922558e-03f,+1.76770650e-02f,
-2.78979857e-02f,+8.97168070e-02f,+6.13574460e-02f,+6.22343784e-03f,+2.73601979e-01f,
+8.03313553e-02f,-4.07187417e-02f,+4.10866477e-02f,+7.81349987e-02f,+1.72339529e-01f,
+1.29831031e-01f,+1.50751278e-01f,+1.98134884e-01f,+1.74877971e-01f,-8.38624090e-02f,
+6.93574199e-04f,-9.51020867e-02f,+1.14845067e-01f,+4.77338396e-02f,-9.91683528e-02f,
+9.15476456e-02f,+1.25844836e-01f,+8.24096128e-02f,+1.83707952e-01f,+2.67102242e-01f,
+4.85052951e-02f,+2.18725473e-01f,+5.61916716e-02f,+8.78081620e-02f,+5.08909747e-02f,
+1.36216193e-01f,+9.44139436e-02f,+7.88001716e-02f,+1.18488900e-01f,+1.54655874e-01f,
+9.83136147e-02f,-2.86502466e-02f,+7.03407750e-02f,+4.39062826e-02f,+1.42430052e-01f,
+1.45180941e-01f,-8.02747756e-02f,+7.16601685e-02f,-7.80189708e-02f,+1.37461826e-01f,
+4.13836613e-02f,+1.31524235e-01f,+3.66146378e-02f,+6.40968382e-02f,+3.64664532e-02f,
+2.30239645e-01f,+5.76064140e-02f,+4.65234555e-02f,+1.06979594e-01f,+1.98700055e-01f,
+1.05670795e-01f,+9.37521532e-02f,+3.34972404e-02f,+1.52506948e-01f,+7.15015158e-02f,
-7.87397381e-03f,+9.93107557e-02f,+1.48131117e-01f,+2.56507806e-02f,+2.49413535e-01f,
+5.28667495e-03f,+1.57802597e-01f,-8.68007839e-02f,+5.91997616e-02f,+1.35661125e-01f,
+4.19655293e-02f,-1.32349506e-01f,-2.14347452e-01f,+2.73996522e-03f,+8.63979086e-02f,
+5.53302560e-03f,-4.84668501e-02f,+8.66836756e-02f,+1.76968172e-01f,+9.52597260e-02f,
+6.54752403e-02f,+1.06666707e-01f,-9.02786478e-02f,+2.61004642e-02f,-4.68552038e-02f,
+2.80106604e-01f,-4.89635207e-02f,+2.50598133e-01f,-6.37016445e-02f,+2.35339385e-02f,
+6.90839589e-02f,+4.22006361e-02f,-8.86525214e-02f,+1.00893602e-01f,-3.64548042e-02f,
+7.20851496e-02f,+7.21397474e-02f,+8.17170192e-04f,-1.72685683e-01f,+1.11564167e-01f,
+1.81682929e-01f,+6.95800856e-02f,-4.67404444e-03f,+9.10127833e-02f,+1.70948282e-01f,
-8.71165469e-02f,+7.14729652e-02f,+6.66932464e-02f,+1.28966108e-01f,-1.53100984e-02f,
-1.42551388e-03f,+3.94255593e-02f,-3.02166283e-01f,+2.96797231e-02f,-2.45563611e-02f,
+2.37624452e-01f,+1.92597285e-01f,+1.05584122e-01f,+1.41077638e-01f,-9.88828987e-02f,
+6.66256845e-02f,+1.66584238e-01f,+8.09026940e-04f,+1.14094839e-01f,+1.21496268e-01f,
+9.21736136e-02f,+9.90874395e-02f,-5.39612062e-02f,+2.23500729e-01f,+1.90896749e-01f,
+1.46559849e-01f,-6.13678768e-02f,-1.21114083e-01f,+9.99090746e-02f,+2.09131720e-03f,
+2.02537730e-01f,-1.19487353e-01f,+7.03150406e-03f,-3.05510615e-03f,+4.87900861e-02f,
-1.10501453e-01f,+6.57417849e-02f,-1.33161455e-01f,+1.65982366e-01f,-1.92471296e-02f,
+1.27851754e-01f,+9.70523506e-02f,+8.05564746e-02f,+8.85739475e-02f,+6.38982430e-02f,
+7.73800984e-02f,-2.67460849e-02f,+4.59990613e-02f,-2.14766711e-02f,+2.79254377e-01f,
-2.41142921e-02f,+1.54932141e-01f,+7.99364150e-02f,-8.59766006e-02f,+1.10427365e-02f,
+2.82349080e-01f,+3.63342226e-01f,+7.04492554e-02f,+2.06738204e-01f,+4.90796641e-02f,
+9.84333381e-02f,+4.49706875e-02f,+8.81386623e-02f,+1.42052965e-02f,+1.49801522e-01f,
+3.07060897e-01f,+1.85188398e-01f,+1.68088093e-01f,+1.30701274e-01f,+8.77514035e-02f,
+2.73593128e-01f,+1.57016382e-01f,-3.09267477e-03f,-3.27673033e-02f,-1.52633041e-02f,
-1.74405187e-01f,+9.39362943e-02f,+7.50919580e-02f,+3.47162299e-02f,+1.91750243e-01f,
+3.07059567e-02f,+1.50487185e-01f,+1.17975347e-01f,-7.22221285e-02f,+1.11049749e-01f,
+2.80268714e-02f,+3.07118833e-01f,+4.07876708e-02f,+1.20158672e-01f,+1.11438900e-01f,
+8.76804963e-02f,+1.20827153e-01f,+1.72715820e-02f,+9.70042646e-02f,+1.19518399e-01f,
-1.13043308e-01f,+2.40415320e-01f,+9.87982564e-03f,+9.38135758e-02f,-1.36030108e-01f,
+1.02002263e-01f,+8.28697532e-03f,+2.52261639e-01f,+1.38159811e-01f,+1.88693121e-01f,
+2.08757922e-01f,+3.58581282e-02f,+8.23300332e-02f,+1.61207065e-01f,+3.52889784e-02f,
+1.35721549e-01f,-2.35002823e-02f,+1.45609483e-01f,-1.83280170e-01f,-1.04288556e-01f,
+1.55703127e-01f,-1.07145533e-01f,-8.25224742e-02f,+4.82643470e-02f,+2.59449403e-03f,
-1.49058118e-01f,-8.44751820e-02f,+9.93509293e-02f,+5.66249602e-02f,+1.59444824e-01f,
-6.53307587e-02f,+1.08605959e-01f,+1.39911443e-01f,+7.00463122e-03f,-1.47714660e-01f,
-4.18290719e-02f,+2.83081867e-02f,+1.68285891e-02f,-1.01740845e-01f,+1.48784354e-01f,
+1.23630650e-01f,-7.65846856e-03f,+1.98967919e-01f,+2.24533528e-01f,+1.12376988e-01f,
+1.61731929e-01f,+1.35736465e-01f,+1.79697603e-01f,+1.62557866e-02f,-4.73709404e-02f,
+1.66668177e-01f,+2.45764136e-01f,+1.09242588e-01f,+1.14713602e-01f,+6.75653964e-02f,
-6.46598116e-02f,+3.81986164e-02f,+4.30826768e-02f,+1.60944298e-01f,+1.77637845e-01f,
+3.77889812e-01f,-6.52441680e-02f,+3.76407467e-02f,+5.51149156e-03f,+1.89443976e-01f,
-6.49676472e-02f,+3.00277639e-02f,-9.89542007e-02f,-1.33531094e-02f,-1.19090136e-02f,
+1.21106960e-01f,+1.89322099e-01f,+2.02422440e-01f,+7.24391416e-02f,+1.14015475e-01f,
+2.48886824e-01f,-8.89267251e-02f,+7.66412988e-02f,+1.35480344e-01f,-5.38756400e-02f,
+1.20299295e-01f,+6.86990842e-02f,+1.17592633e-01f,-8.62781703e-03f,-1.02357946e-01f,
-6.42974973e-02f,-2.01874077e-01f,+1.96810499e-01f,-1.98471889e-01f,-1.00322820e-01f,
-5.63583747e-02f,-8.82056635e-03f,-2.20342837e-02f,+1.76291540e-01f,+7.03696162e-02f,
-8.12595338e-02f,+1.81818567e-02f,+1.95309535e-01f,+2.11658999e-01f,-2.71881018e-02f,
-4.97023314e-02f,+3.54807138e-01f,+1.41490623e-01f,+1.89201415e-01f,+9.82376859e-02f,
+1.79424554e-01f,+1.21042989e-01f,+1.66205183e-01f,+1.45486211e-02f,-1.09180883e-01f,
+2.06971131e-02f,-5.19725867e-02f,+1.83964387e-01f,+2.20614616e-02f,+9.73545983e-02f,
+5.72517216e-02f,-2.04748914e-01f,-2.14731827e-01f,+1.09819606e-01f,-1.70638673e-02f,
-2.59868711e-01f,-8.22325274e-02f,-1.80866063e-01f,+1.68196797e-01f,-1.02171116e-01f,
-1.96204707e-02f,-6.19742535e-02f,-1.96023926e-01f,+7.30227530e-02f,+2.32773155e-01f,
+9.36180800e-02f,-4.15394604e-02f,-3.77767225e-04f,-1.49063304e-01f,-5.95019385e-03f,
+6.15199842e-02f,+1.46960899e-01f,+1.59957409e-01f,+4.13812995e-02f,+7.59973750e-02f,
-9.88721922e-02f,+1.82035133e-01f,-2.31491365e-02f,+1.33009478e-02f,+2.00448349e-01f,
-2.87645727e-01f,+7.51265809e-02f,+1.59924552e-01f,+5.09521887e-02f,-7.34380335e-02f,
+1.47891685e-01f,+4.97690327e-02f,-1.87284157e-01f,-9.08437669e-02f,+1.57153234e-01f,
+6.84579611e-02f,+4.77422848e-02f,+3.30653042e-01f,+1.44225797e-02f,+2.85455789e-02f,
+1.53510302e-01f,-1.83220863e-01f,-4.92623635e-02f,-7.23404065e-02f,-1.03237487e-01f,
+6.21529892e-02f,+2.10478112e-01f,+5.21988720e-02f,-7.56506249e-02f,+1.17605872e-01f,
-5.46364374e-02f,-2.26191297e-01f,+1.13578968e-01f,+1.59544840e-01f,+9.76622254e-02f,
-4.77807410e-02f,-1.64642096e-01f,-7.88571760e-02f,+3.90347034e-01f,+3.31489332e-02f,
-2.23012771e-02f,-2.71140113e-02f,+1.71816677e-01f,-3.18261865e-03f,-1.77042976e-01f,
+1.78111523e-01f,+2.07822442e-01f,+1.92095876e-01f,+1.81276694e-01f,-1.50507996e-02f,
-2.06234694e-01f,-1.65389921e-03f,-6.51464984e-02f,+3.19669023e-03f,-1.60242304e-01f,
-2.73981869e-01f,+2.27570534e-02f,-1.13905221e-01f,+8.60691294e-02f,-1.83555612e-03f,
-1.91616833e-01f,-2.94863433e-02f,-2.56574117e-02f,+2.26110697e-01f,+7.12725595e-02f,
+1.28831372e-01f,-3.62552889e-02f,+3.06084275e-01f,+1.81207806e-01f,+7.13583454e-02f,
+1.78435296e-01f,+2.93298781e-01f,+5.06387539e-02f,-6.95686117e-02f,+1.14883550e-01f,
+1.61667794e-01f,+2.70655137e-02f,+1.19078003e-01f,+7.11987028e-03f,-5.04810326e-02f,
-5.34405932e-02f,-1.28190458e-01f,-1.70983955e-01f,+2.23666519e-01f,-3.61737043e-01f,
-5.14879934e-02f,+1.24677233e-01f,+1.78466514e-02f,-1.54639378e-01f,-4.48350050e-02f,
-1.02579229e-01f,-1.83224857e-01f,+1.44886628e-01f,+4.15198207e-01f,+1.46079317e-01f,
+9.63633731e-02f,+1.55623913e-01f,-9.15784203e-03f,+1.60011854e-02f,+7.24101067e-02f,
+7.00609833e-02f,+7.52038360e-02f,-5.11633791e-02f,+2.23963663e-01f,-1.04086339e-01f,
+3.59334387e-02f,+2.11350620e-01f,-3.36497054e-02f,-1.55345589e-01f,+1.34755209e-01f,
+9.44259837e-02f,-7.00351521e-02f,+1.44525111e-01f,-2.50432789e-01f,+2.91673448e-02f,
+1.01427838e-01f,-4.50765401e-01f,+1.92075104e-01f,+2.58221179e-02f,-7.18431249e-02f,
+2.44301096e-01f,+2.58498080e-02f,-8.48133396e-03f,+1.06524132e-01f,+1.52124390e-01f,
+1.46376371e-01f,-5.69580756e-02f,-1.16456766e-02f,-2.74839550e-01f,-1.94907740e-01f,
+6.08034134e-02f,-1.98843598e-01f,+4.13276553e-02f,-2.08649844e-01f,-2.87686959e-02f,
+6.28019720e-02f,-3.06191891e-02f,+2.10664243e-01f,-2.45792136e-01f,+1.03920542e-01f,
+1.42032485e-02f,-2.34142363e-01f,-1.60772912e-02f,+2.21965626e-01f,+4.35499281e-01f,
+2.22797900e-01f,+1.00242473e-01f,+3.92091542e-01f,+4.13871288e-01f,-1.99860111e-01f,
-2.59027660e-01f,-5.89659577e-03f,+5.47686068e-04f,+1.25673711e-01f,+1.46124482e-01f,
+9.71094221e-02f,-6.34143269e-03f,-1.58311576e-01f,+4.96243060e-01f,-3.83007348e-01f,
-3.15941721e-02f,-2.70488616e-02f,-7.50159798e-03f,-1.79800615e-01f,+1.85625643e-01f,
-7.38306483e-03f,+1.47226617e-01f,-2.56221265e-01f,+5.23241282e-01f,-1.69437036e-01f,
+2.62770534e-01f,-4.09033149e-01f,+4.99505177e-02f,+2.11957961e-01f,-3.45924884e-01f,
+1.64780110e-01f,+1.88433200e-01f,+3.58765088e-02f,+1.10290989e-01f,-2.25379691e-02f,
-5.70300072e-02f,+9.98475775e-02f,+2.03847244e-01f,+3.04877669e-01f,-1.39377877e-01f,
-1.53557882e-01f,+4.95386403e-03f,-1.64060146e-01f,-1.51081309e-01f,+1.15882263e-01f,
+1.19422354e-01f,-5.17769493e-02f,+1.01763895e-02f,+6.26790226e-02f,-1.67150885e-01f,
+1.89827353e-01f,-1.51341349e-01f,+3.84986967e-01f,+1.04494080e-01f,+9.52544957e-02f,
+2.43495807e-01f,+1.23979621e-01f,+5.30806221e-02f,-9.10303742e-02f,-2.29455292e-01f,
-1.89455688e-01f,-1.06714126e-02f,-2.28874639e-01f,-1.61742121e-01f,-7.33807385e-02f,
-1.30618632e-01f,-1.11561209e-01f,+1.00239798e-01f,+2.20548257e-01f,+1.25065267e-01f,
-1.78460076e-01f,+8.30973461e-02f,+3.55586886e-01f,-6.19130731e-02f,+4.63473946e-02f,
+3.84690352e-02f,+3.00885364e-02f,+3.65211397e-01f,-5.33239655e-02f,+1.12369940e-01f,
+2.90349782e-01f,+2.43934453e-01f,-2.48537660e-01f,-8.23372900e-02f,-2.46767122e-02f,
+6.74275830e-02f,-3.95105481e-02f,+2.33558029e-01f,-3.47056299e-01f,-1.16733864e-01f,
-1.85131833e-01f,-5.17453142e-02f,+2.39161402e-01f,-1.68728113e-01f,-3.82765859e-01f,
+3.37066233e-01f,+5.62214367e-02f,+2.85940558e-01f,+1.43388227e-01f,-9.31607336e-02f,
+7.23220184e-02f,-1.00142397e-01f,+1.06387623e-02f,+1.09742843e-02f,-2.35589612e-02f,
-5.42198271e-02f,+1.96306303e-01f,-9.88886282e-02f,-1.34973034e-01f,-1.27266735e-01f,
+8.14826563e-02f,+2.97356129e-01f,+1.50195271e-01f,-1.29300207e-01f,+1.96985919e-02f,
+9.93351266e-02f,-3.70196067e-02f,-6.69379607e-02f,-1.71380043e-02f,-2.29273364e-03f,
-9.42221656e-02f,+1.96931079e-01f,+1.40697479e-01f,-1.45808667e-01f,-1.39670506e-01f,
-4.00022380e-02f,+2.26493895e-01f,+1.69637740e-01f,-2.53932853e-03f,+1.72305495e-01f,
-1.12031348e-01f,+1.32911755e-02f,+4.68006022e-02f,+2.89831221e-01f,+3.18202376e-01f,
-4.81352061e-02f,+3.80903557e-02f,-1.30155250e-01f,+2.19471395e-01f,+2.85106152e-01f,
-4.72969934e-03f,+7.66639039e-02f,+2.24927943e-02f,+4.37356383e-02f,-1.12836339e-01f,
-8.00452977e-02f,-1.27986833e-01f,-1.29156440e-01f,+2.58536160e-01f,-8.39517489e-02f,
+1.05891041e-02f,+1.23347126e-01f,-9.66129228e-02f,-3.05400431e-01f,+9.02632624e-02f,
+3.51797223e-01f,-1.96802452e-01f,-5.65811107e-03f,-1.20394550e-01f,+1.29807442e-01f,
-8.95756856e-02f,+2.12653190e-01f,+1.94804668e-01f,+2.27046743e-01f,+1.25667434e-02f,
+6.76006079e-02f,+9.55216289e-02f,+2.60885745e-01f,+4.22475457e-01f,+2.41379112e-01f,
-2.15074584e-01f,+6.52701408e-02f,+1.03417426e-01f,-2.57904440e-01f,-1.03601694e-01f,
-1.25303924e-01f,+2.28358656e-02f,+2.58026272e-01f,+2.26158902e-01f,+1.28179729e-01f,
-5.79859763e-02f,-5.26525937e-02f,-8.04395601e-02f,+2.43452899e-02f,+8.24843943e-02f,
-7.08968565e-02f,+9.27529037e-02f,-6.15933165e-02f,+1.62858143e-01f,+2.60749280e-01f,
+1.66258141e-01f,-1.79168269e-01f,-1.72560457e-02f,-5.66782313e-04f,+1.55755416e-01f,
+9.10637230e-02f,-4.13807258e-02f,-3.12276244e-01f,+9.85009149e-02f,+5.02334833e-02f,
-2.91929275e-01f,+7.28106871e-02f,-1.18867651e-01f,-1.93606496e-01f,+2.16621086e-01f,
+9.86336991e-02f,-1.15719482e-01f,-2.06230834e-01f,-5.76836951e-02f,+4.26262915e-02f,
-8.98545757e-02f,+4.10894454e-02f,-1.66556180e-01f,-1.57783553e-01f,-1.12336181e-01f,
+9.03825834e-02f,-1.39087741e-03f,+3.13374847e-01f,+2.39788458e-01f,+1.95597827e-01f,
+2.22538710e-01f,+1.10103533e-01f,+4.19169739e-02f,+7.39329383e-02f,+4.40385312e-01f,
+2.91527033e-01f,+5.10895014e-01f,+1.90892100e-01f,-8.87803733e-02f,+1.84038728e-01f,
-6.89164698e-02f,+1.15389660e-01f,-1.65853485e-01f,-1.61228254e-01f,-1.66503787e-01f,
+2.27477804e-01f,+1.52828500e-01f,-9.05187055e-02f,+5.82819805e-02f,-5.41671291e-02f,
+1.89991057e-01f,+3.27341557e-01f,+4.60263103e-01f,-1.35044813e-01f,+2.77082026e-01f,
+3.88023295e-02f,+4.23861332e-02f,+2.12545380e-01f,-8.22317302e-02f,-2.54146792e-02f,
+3.20310183e-02f,+4.25401554e-02f,+1.19537003e-01f,-5.17702512e-02f,+2.18600556e-01f,
+2.21318647e-01f,-4.41055326e-03f,-7.05057830e-02f,+1.73103526e-01f,+1.35549068e-01f,
+8.53480957e-03f,-2.69782562e-02f,+2.05513351e-02f,-5.96964508e-02f,+3.15740183e-02f,
+1.49637461e-01f,+1.10559985e-01f,+2.35269472e-01f,-7.54809892e-03f,+8.53132457e-02f,
+5.14628664e-02f,+4.51064646e-01f,+3.39149535e-02f,-1.22942418e-01f,-1.15426987e-01f,
+1.01552367e-01f,-7.87481219e-02f,+4.41788323e-02f,-9.49253142e-02f,-1.79112956e-01f,
-9.13148299e-02f,+8.34373012e-02f,+3.84222507e-01f,+5.37066162e-02f,+3.53695780e-01f,
+3.55187923e-01f,-8.33342895e-02f,-7.60149956e-03f,-1.21562921e-01f,+1.37374908e-01f,
+2.10960209e-01f,+1.62499949e-01f,+1.09200805e-01f,+1.06405899e-01f,+3.00557792e-01f,
-7.11130947e-02f,+8.08252115e-03f,-2.17162013e-01f,-2.78271049e-01f,+3.90458852e-01f,
+1.81582391e-01f,+2.24967808e-01f,-3.58817913e-02f,+1.20536104e-01f,+1.90248072e-01f,
+1.45899698e-01f,+2.67005533e-01f,+2.86012411e-01f,+9.84433219e-02f,+2.09410712e-01f,
+2.05398887e-01f,+2.60248929e-01f,-4.71260756e-01f,-1.99170150e-02f,+5.68898246e-02f,
-2.02352807e-01f,-6.70637488e-02f,-2.18233481e-01f,+1.90317303e-01f,-1.95032060e-02f,
-6.25988841e-02f,+2.79758662e-01f,+3.28239381e-01f,+2.63875932e-01f,+2.04962596e-01f,
-1.60529122e-01f,+3.08105439e-01f,+3.33042108e-02f,-1.83794051e-01f,-7.81668797e-02f,
+2.40637094e-01f,-1.58923060e-01f,+2.14295685e-01f,+6.93330020e-02f,+1.15381822e-01f,
-4.13970044e-03f,-1.34641379e-01f,+2.27392837e-02f,-4.82550673e-02f,-1.94444712e-02f,
-6.19284203e-03f,+1.31956622e-01f,+8.79757777e-02f,-6.87296540e-02f,-9.40667316e-02f,
+1.14844374e-01f,+2.06488565e-01f,+8.01938549e-02f,+2.67892540e-01f,+1.31291732e-01f,
+1.74225226e-01f,+3.94534990e-02f,+2.24516075e-02f,-1.75801471e-01f,+2.21069336e-01f,
-3.03307567e-02f,+1.39871553e-01f,+1.07884638e-01f,-1.60504058e-02f,-2.27697729e-03f,
+3.10606629e-01f,+1.60777554e-01f,+1.93844676e-01f,-4.68921103e-03f,+3.48230898e-02f,
+1.08237341e-02f,+1.55539215e-01f,-1.15598500e-01f,+4.78447378e-02f,+5.53742498e-02f,
-4.33537923e-02f,+6.78826272e-02f,-1.24783471e-01f,-1.60484210e-01f,+1.12473026e-01f,
+1.60658568e-01f,+1.63020015e-01f,+3.86566013e-01f,-2.15924457e-01f,+1.08988002e-01f,
-1.01833493e-01f,+8.11778381e-02f,+1.86896957e-02f,-4.58990186e-02f,+6.39239550e-02f,
-4.35294509e-01f,+2.40622446e-01f,-8.65282118e-03f,-8.13286528e-02f,-1.61469579e-01f,
-6.97770715e-02f,-1.04950620e-02f,+1.27379984e-01f,-6.49565905e-02f,+8.77006277e-02f,
-9.54259783e-02f,-1.12932876e-01f,+2.73791581e-01f,+1.43156782e-01f,-1.58716604e-01f,
-2.01242380e-02f,-5.21346666e-02f,-1.68002680e-01f,+2.57466845e-02f,+4.04551774e-01f,
-1.18906081e-01f,-5.20672314e-02f,+1.36442995e-02f,+1.37552485e-01f,-3.23861390e-02f,
+1.16567336e-01f,+2.85854459e-01f,+1.04020968e-01f,+3.05317700e-01f,+1.84983373e-01f,
-1.60554573e-02f,+1.82095379e-01f,-1.67483538e-01f,+3.12463995e-02f,+1.73900202e-01f,
-8.72454047e-02f,-5.75837456e-02f,+2.11743191e-01f,+1.36865959e-01f,+1.66368157e-01f,
-4.49814275e-02f,+3.98854584e-01f,-3.18845809e-02f,+1.87971935e-01f,+1.20020740e-01f,
+1.02479517e-01f,-8.28829966e-03f,+1.75823629e-01f,+4.70809072e-01f,+1.08315170e-01f,
+4.71133403e-02f,+2.44076476e-01f,+4.37687673e-02f,+2.85203457e-01f,+2.45754838e-01f,
-2.43736893e-01f,-1.55196548e-01f,+1.18355788e-01f,-1.66616276e-01f,+3.73386703e-02f,
+5.96925795e-01f,+4.22879569e-02f,-7.52706379e-02f,+5.55222556e-02f,-2.29179766e-02f,
+5.41131049e-02f,+1.04809299e-01f,-4.56722490e-02f,+5.72031289e-02f,-3.90063412e-02f,
+4.74542119e-02f,+2.85973703e-03f,+3.40029895e-02f,+1.69640675e-01f,+1.21409714e-01f,
-2.73127556e-02f,+1.31619908e-02f,+3.46677490e-02f,+5.26603051e-02f,-2.66840905e-02f,
+1.24816395e-01f,-1.61468416e-01f,-3.83116864e-02f,-1.15549713e-01f,+7.00482577e-02f,
+2.64598988e-02f,+6.51898012e-02f,+8.59201327e-02f,+1.45921797e-01f,-5.22549227e-02f,
-2.60973210e-03f,-6.26512095e-02f,-4.05767895e-02f,+3.46716344e-02f,+1.24708913e-01f,
-1.44424796e-01f,+8.26369151e-02f,+4.54689041e-02f,-7.16941133e-02f,-1.29843503e-01f,
+1.18528910e-01f,+3.27827066e-01f,-1.04867928e-01f,+1.87558219e-01f,+7.03689381e-02f,
+1.92114517e-01f,+3.17494906e-02f,-1.19544799e-03f,-3.75035815e-02f,-5.52254692e-02f,
+3.02500278e-01f,-2.66508907e-01f,+2.76783528e-03f,-1.15817234e-01f,+6.61668256e-02f,
+2.35149905e-01f,+1.03720464e-01f,+1.33225337e-01f,+2.52606850e-02f,+1.92291856e-01f,
-1.35395423e-01f,-1.68579340e-01f,-5.10509387e-02f,-1.09681495e-01f,+1.17446162e-01f,
-1.63638894e-03f,-2.28933305e-01f,+4.72676456e-02f,+9.36815143e-02f,+4.16010529e-01f,
-3.62646319e-02f,+3.29677016e-02f,+3.72128844e-01f,-4.87642437e-02f,+2.62526959e-01f,
+2.30307922e-01f,+5.12936637e-02f,+2.34183520e-01f,+3.12543184e-01f,-2.59745061e-01f,
-1.32634863e-01f,+1.21180527e-01f,-9.22745243e-02f,-1.09988861e-01f,+1.24070086e-02f,
-1.42070502e-01f,+3.28813821e-01f,-1.46257326e-01f,+2.34001204e-02f,-1.55970842e-01f,
+2.31376916e-01f,+1.87074527e-01f,-1.89573795e-01f,-7.95538798e-02f,+4.67457563e-01f,
+1.81714371e-01f,-8.75862595e-03f,+4.41117324e-02f,+3.38601321e-01f,-2.06725195e-01f,
-5.09138182e-02f,+2.55163964e-02f,-1.33904889e-01f,+1.86283454e-01f,+3.77494060e-02f,
+1.76500604e-01f,+3.53718489e-01f,+6.06752187e-02f,-1.42577529e-01f,-7.93045908e-02f,
+8.43331069e-02f,+2.54599750e-01f,+6.86108097e-02f,-5.68323284e-02f,+1.36216342e-01f,
+2.26856694e-02f,+1.88105851e-01f,-3.37907556e-03f,-2.31564224e-01f,-4.65486757e-02f,
-1.62150785e-01f,-7.51622543e-02f,-4.73601669e-02f,+1.21021688e-01f,+7.96134174e-02f,
-1.01099454e-01f,+4.61383909e-01f,+2.53386825e-01f,-5.53152971e-02f,+4.13597584e-01f,
+5.14197201e-02f,-4.93515320e-02f,+2.83085406e-01f,+6.59815818e-02f,-2.56284662e-02f,
-2.60176212e-02f,+1.07554145e-01f,+2.45346412e-01f,-2.75334157e-02f,-8.97211116e-03f,
+1.36090443e-01f,+2.62754172e-01f,-1.20995026e-02f,-5.73058724e-02f,+3.58343333e-01f,
+2.70618796e-01f,+6.44644722e-02f,+2.58227110e-01f,-1.16669953e-01f,-1.16578462e-02f,
-7.07496926e-02f,+3.02354455e-01f,+1.27103388e-01f,-1.42026274e-02f,+4.33593169e-02f,
+4.44346070e-02f,+1.16002366e-01f,-5.50008900e-02f,+1.48283169e-01f,+3.11505854e-01f,
-1.93330660e-01f,+2.10524216e-01f,-1.68515310e-01f,+2.26573497e-01f,+8.59043226e-02f,
-7.24918991e-02f,+9.96168889e-03f,+1.76392183e-01f,+2.22571343e-01f,+2.84313798e-01f,
+5.79794161e-02f,-7.22960383e-02f,+1.72921181e-01f,+3.50981236e-01f,+1.01456326e-02f,
+1.32930920e-01f,-2.34766025e-02f,+2.07222939e-01f,+2.88910925e-01f,+1.75265968e-01f,
+2.11347848e-01f,-2.59273537e-02f,+2.58283526e-01f,+9.44186226e-02f,-2.15261400e-01f,
+3.42133313e-01f,-9.05618295e-02f,+1.29423831e-02f,+5.50189689e-02f,+1.74357101e-01f,
+2.98605889e-01f,+4.04337198e-02f,-2.40547932e-03f,+5.54805137e-02f,+1.27543584e-01f,
-9.59957242e-02f,+2.45055318e-01f,+9.66917798e-02f,-1.18574060e-01f,-2.09902853e-01f,
+8.00565854e-02f,+1.88643143e-01f,+7.05627277e-02f,+1.07493959e-01f,+2.30146259e-01f,
+2.01781690e-01f,+3.82862985e-02f,-9.40961167e-02f,+1.20891379e-02f,+1.69315841e-02f,
+3.47327381e-01f,-9.94663239e-02f,+3.05966139e-01f,+1.28355801e-01f,-3.34696984e-03f,
+5.77014647e-02f,+2.35985011e-01f,-1.30451806e-02f,+3.30268443e-01f,+8.93570930e-02f,
+8.04466195e-03f,+3.88745032e-02f,+9.63784680e-02f,+2.28426188e-01f,-9.88803282e-02f,
+1.04781672e-01f,+8.47238228e-02f,+5.38155362e-02f,+2.92895287e-01f,-4.54785340e-02f,
-2.71099180e-01f,-8.08226168e-02f,+8.53503421e-02f,+1.95655257e-01f,+3.00626814e-01f,
+2.81490982e-01f,+1.87580436e-01f,+4.45074812e-02f,-1.68071568e-01f,-1.07208183e-02f,
+1.61316290e-01f,-1.12674333e-01f,-7.02749267e-02f,+1.49906918e-01f,+8.78500417e-02f,
+2.16805398e-01f,+8.92670974e-02f,+4.40999679e-02f,+1.19493790e-01f,-1.92480162e-02f,
+4.11612451e-01f,-1.90308206e-02f,+9.65205356e-02f,+1.56495064e-01f,+1.09501658e-02f,
+1.93815306e-01f,+8.23980421e-02f,+1.42552704e-01f,-2.66843557e-01f,-1.44024625e-01f,
+5.64126559e-02f,-1.22093402e-01f,-2.32776254e-02f,-1.17955849e-01f,+9.59396437e-02f,
+3.42922240e-01f,+9.12623927e-02f,+1.23564504e-01f,-4.01961803e-02f,-1.15436874e-02f,
+1.83908507e-01f,+9.00149867e-02f,+1.11038424e-02f,-1.59931108e-02f,+1.79911166e-01f,
-7.66368285e-02f,-1.21989243e-01f,-2.91615576e-02f,-1.21184163e-01f,+3.75972986e-01f,
+4.70314063e-02f,-1.48493275e-01f,+1.35184795e-01f,+2.84791857e-01f,-2.04879325e-02f,
+8.25423449e-02f,+7.94900432e-02f,-1.72841042e-01f,+1.26140356e-01f,+9.30700675e-02f,
+1.22296296e-01f,+9.47128981e-02f,+6.94419369e-02f,+7.68580958e-02f,+2.08770689e-02f,
+2.20846042e-01f,+2.06730738e-01f,+3.14162523e-02f,+2.53956467e-02f,+5.01482897e-02f,
+8.05950761e-02f,+2.35412568e-01f,+1.99912697e-01f,+7.06194267e-02f,+1.70314506e-01f,
+3.03502418e-02f,-5.12041058e-03f,-6.64863363e-02f,+9.34875011e-02f,+3.63279909e-01f,
-1.59832343e-01f,-1.23249337e-01f,+2.78247297e-01f,+4.45420325e-01f,+1.27315179e-01f,
+1.58542559e-01f,+4.35923249e-01f,-2.75761753e-01f,+4.55715926e-03f,-1.72542095e-01f,
-1.35467574e-01f,-6.41173199e-02f,-1.23445608e-01f,+2.48762339e-01f,+8.09720606e-02f,
+1.07316047e-01f,-8.14139023e-02f,+2.49888703e-01f,+1.18824765e-01f,+1.53598711e-01f,
+2.45654747e-01f,+8.17150027e-02f,+1.92731425e-01f,-6.07485250e-02f,-2.57483521e-03f,
+1.85797229e-01f,+2.77528077e-01f,+1.33679450e-01f,+1.25637308e-01f,-2.87844241e-01f,
-7.68063068e-02f,+3.40377927e-01f,+2.67308921e-01f,+1.99951455e-01f,+2.83750623e-01f,
+5.43256737e-02f,+2.38746107e-01f,-1.52864024e-01f,-1.93468324e-04f,-2.49422178e-01f,
+2.06452847e-01f,+1.19025789e-01f,+2.05390498e-01f,-3.47135328e-02f,-3.22576310e-03f,
+2.07473814e-01f,+8.58995393e-02f,+9.12451670e-02f,-5.16037792e-02f,+3.55638713e-02f,
-2.73543317e-03f,+1.34037524e-01f,+6.23489171e-02f,-1.43269198e-02f,+2.52860021e-02f,
-2.37327367e-02f,-1.04668260e-01f,+1.72171026e-01f,+8.52998067e-03f,-1.09746538e-01f,
+1.27483353e-01f,+1.30551025e-01f,+1.28681764e-01f,+9.64091048e-02f,-5.60867377e-02f,
+7.52778575e-02f,-2.00208416e-03f,+8.43047500e-02f,+1.37145773e-01f,+2.18208849e-01f,
-1.13851257e-01f,-1.59467787e-01f,+3.37631553e-02f,+1.63671225e-01f,+7.05000907e-02f,
+1.14260286e-01f,+6.08187504e-02f,-7.69270435e-02f,+1.30712032e-01f,+4.36596014e-02f,
+1.23754539e-01f,+2.09361389e-01f,-1.22047765e-02f,+5.52005358e-02f,+3.14554602e-01f,
+4.29187305e-02f,+2.01220155e-01f,+1.08103186e-01f,+9.19209495e-02f,+1.35278463e-01f,
-9.06296521e-02f,-1.83844388e-01f,+1.18579775e-01f,+7.97512531e-02f,-8.08021799e-02f,
+3.20498168e-01f,+1.06182806e-01f,+2.17898130e-01f,-2.72264071e-02f,+2.10288703e-01f,
-1.31081969e-01f,+4.99873050e-02f,+9.21622962e-02f,+4.34075110e-02f,-2.11864382e-01f,
+4.09644932e-01f,+1.27770469e-01f,-6.40785545e-02f,+2.46890672e-02f,+3.08592379e-01f,
+2.31707945e-01f,+2.27247402e-02f,+3.48495424e-01f,+2.05646068e-01f,+6.04051948e-02f,
+2.77368218e-01f,+2.51497142e-02f,-1.51273236e-01f,-1.98399872e-01f,-8.20533261e-02f,
+7.31527060e-02f,-5.68591664e-03f,+3.32701981e-01f,-4.41435128e-02f,-5.90154417e-02f,
+5.52599914e-02f,+8.34359438e-04f,+1.79452628e-01f,+1.07418559e-01f,+9.04553607e-02f,
+3.09800327e-01f,+1.27344117e-01f,+7.54647180e-02f,+3.84197593e-01f,+8.46638605e-02f,
+1.04373299e-01f,+3.80662121e-02f,+1.45468354e-01f,+1.94624066e-02f,+1.17150195e-01f,
+1.54196532e-04f,+2.06826717e-01f,+3.87783013e-02f,+2.31959224e-01f,+9.12172869e-02f,
+2.97824740e-01f,+2.11014643e-01f,+1.31842256e-01f,+4.19430286e-01f,-1.04043320e-01f,
+1.12820365e-01f,+1.08568974e-01f,+1.03393860e-01f,-1.28234819e-01f,-1.33967564e-01f,
-1.96911059e-02f,+4.79740649e-02f,+1.81617931e-01f,+2.11774483e-01f,-3.01347505e-02f,
-7.78127238e-02f,+1.92055687e-01f,+9.45413187e-02f,+2.25108117e-01f,+5.18440083e-02f,
+1.98487684e-01f,-8.93356502e-02f,+3.81351441e-01f,-1.09434567e-01f,-2.08874457e-02f,
+1.34193581e-02f,+1.71755984e-01f,+1.86217874e-01f,+1.14633285e-01f,+1.85068145e-01f,
+2.14242250e-01f,+2.56060839e-01f,+1.71941090e-02f,-7.30181485e-03f,+1.16700485e-01f,
-2.55116429e-02f,+1.91135481e-01f,+1.56832531e-01f,-1.81099415e-01f,+1.26709774e-01f,
+4.21192963e-03f,+3.59833166e-02f,-1.54717624e-01f,+5.79413474e-02f,-3.59059758e-02f,
+1.40583381e-01f,-3.07121431e-03f,-2.94225484e-01f,+6.53002858e-02f,+1.70325428e-01f,
-3.81412134e-02f,-3.94140780e-02f,+1.08757161e-01f,-5.04404726e-03f,+2.67938256e-01f,
+5.62729575e-02f,+1.13613509e-01f,+1.20095119e-01f,-1.47155762e-01f,-1.61195084e-01f,
-1.97463125e-01f,+7.29478672e-02f,-2.37899460e-02f,-1.33690000e-01f,-9.43634063e-02f,
+8.67514610e-02f,+1.93479266e-02f,+2.96638310e-01f,+1.23989709e-01f,-3.74784470e-02f,
+1.01887286e-01f,+3.37657362e-01f,+4.29280013e-01f,+7.92128295e-02f,+5.23340963e-02f,
-6.63426295e-02f,+2.41133780e-03f,+1.93600714e-01f,-2.28679165e-01f,-1.52647138e-01f,
+3.34602743e-01f,+5.50860837e-02f,+5.37364883e-03f,-1.32851982e-02f,+9.91794616e-02f,
+3.78292724e-02f,+9.95191708e-02f,+2.93032259e-01f,+2.09910437e-01f,+4.91754636e-02f,
+1.96254537e-01f,+3.18518549e-01f,+9.16475430e-02f,+1.26036614e-01f,+1.26376152e-01f,
+2.33546153e-01f,+1.91462547e-01f,+3.80436853e-02f,+1.47500977e-01f,+6.12445117e-04f,
+1.16838448e-01f,-8.13874975e-02f,+6.21679537e-02f,+2.31651559e-01f,+2.36869585e-02f,
-2.69345582e-01f,+4.45172697e-01f,+1.91723093e-01f,+2.04530180e-01f,+4.01362479e-01f,
+1.02382869e-01f,+1.50188506e-01f,-8.07360932e-02f,+3.80575173e-02f,+3.05128694e-01f,
-8.46266076e-02f,+3.18203956e-01f,+1.17441975e-01f,-1.23695815e-02f,+1.84999973e-01f,
-1.67460218e-02f,+1.33256972e-01f,+4.94877636e-01f,+6.99499156e-03f,+2.25040093e-01f,
-2.28049025e-01f,+4.85793352e-02f,-1.37495205e-01f,+3.00784916e-01f,-2.37107903e-01f,
-3.49513710e-01f,+1.38055757e-01f,-8.70905444e-02f,-1.38461543e-02f,+4.79116328e-02f,
+1.55869558e-01f,+3.69829908e-02f,-2.93079734e-01f,+9.21147838e-02f,+4.27006960e-01f,
+2.20833495e-01f,-1.89778298e-01f,+1.12302318e-01f,+5.98710775e-02f,+1.48148218e-03f,
-2.44290918e-01f,-1.88608642e-03f,+6.95940182e-02f,-2.71013305e-02f,+2.33541757e-01f,
+1.04628600e-01f,+3.85470539e-02f,-2.57519811e-01f,+1.76262274e-01f,+1.58351630e-01f,
-1.01747453e-01f,-2.50930786e-01f,+2.53550913e-02f,+4.14780825e-02f,+1.83339894e-01f,
-6.22629337e-02f,-2.26782396e-01f,+3.09946239e-01f,-2.63166279e-02f,-5.81409223e-02f,
+5.98141737e-02f,-3.51322144e-02f,-1.13960530e-03f,-3.29124629e-02f,+1.05036125e-02f,
+1.33856386e-01f,+1.78395569e-01f,-1.01749904e-01f,+1.25195622e-01f,-4.92258668e-02f,
+3.69524620e-02f,+6.46052361e-02f,+2.38323167e-01f,-1.33300811e-01f,-3.16412114e-02f,
-3.93758602e-02f,-8.43461975e-02f,+1.92738846e-01f,+1.98659077e-01f,-2.43993364e-02f,
+3.49189609e-01f,+1.11433201e-01f,-6.54316917e-02f,+5.22250235e-02f,+6.94333389e-02f,
-1.28554612e-01f,+1.55522563e-02f,+3.94857973e-01f,+1.14478841e-01f,+2.59524465e-01f,
+3.10995311e-01f,-2.34595295e-02f,+4.11667600e-02f,+1.47834150e-02f,+2.78275698e-01f,
+1.25311196e-01f,+2.42586628e-01f,-1.60826415e-01f,+5.54593652e-02f,+3.98544401e-01f,
+3.72622401e-01f,+6.39486611e-02f,+2.11503208e-01f,+3.17780048e-01f,+1.54387906e-01f,
+1.62204802e-01f,-6.07998893e-02f,+2.78439105e-01f,+1.80837259e-01f,-2.25987539e-01f,
-1.58253670e-01f,+2.54820853e-01f,-5.24056554e-02f,+2.21174419e-01f,+2.14451522e-01f,
+2.78994292e-01f,+2.33183414e-01f,+7.67599344e-02f,+1.12458905e-02f,-3.31966542e-02f,
+1.48479462e-01f,-1.32793412e-01f,+1.56903323e-02f,+1.68341711e-01f,+1.32068694e-01f,
+8.93395096e-02f,+1.14345081e-01f,+9.76075605e-02f,+2.34203339e-02f,-7.09530711e-02f,
-2.50979252e-02f,-4.38053384e-02f,+5.32952696e-02f,+8.40009525e-02f,+2.89380580e-01f,
+3.33125368e-02f,-7.09617659e-02f,-8.93459320e-02f,-6.02889135e-02f,+1.35260016e-01f,
-1.96980610e-02f,-1.15189426e-01f,+1.00449227e-01f,+5.84795214e-02f,-1.64373200e-02f,
+2.96082616e-01f,+9.57273617e-02f,+2.01708451e-02f,+2.60694444e-01f,-2.88556144e-02f,
+1.60089612e-01f,+1.70296863e-01f,-5.43130701e-03f,-1.42345741e-01f,-9.56826732e-02f,
-2.22665351e-02f,-9.42135453e-02f,+2.36775391e-02f,-2.92596370e-02f,+8.80267546e-02f,
-8.50286558e-02f,+1.49895921e-01f,+3.13628428e-02f,+2.56468713e-01f,-2.86869761e-02f,
+1.66021526e-01f,+1.52500659e-01f,+2.24491790e-01f,+8.35558027e-03f,+9.56275389e-02f,
+2.00909778e-01f,+9.79682207e-02f,-1.88326389e-01f,+2.26988867e-01f,-2.12199807e-01f,
+8.68526027e-02f,+1.18706450e-01f,-1.02594174e-01f,-1.14878029e-01f,+1.78807043e-03f,
+1.71011433e-01f,+5.09930886e-02f,+8.26425031e-02f,-9.36542675e-02f,+1.94262147e-01f,
+1.63352326e-01f,+9.24269706e-02f,-1.18795894e-01f,-2.62850188e-02f,-5.58333565e-03f,
+1.45569250e-01f,-1.09340206e-01f,-2.66259443e-02f,+1.03890605e-01f,-2.53100872e-01f,
-1.83922872e-02f,+6.01636656e-02f,+7.61138126e-02f,-1.52719423e-01f,-1.92941446e-02f,
+1.43183139e-03f,+1.17473312e-01f,-3.74458320e-02f,+1.01768924e-02f,+1.85980722e-01f,
+7.41318008e-03f,+6.90024868e-02f,-2.43842360e-02f,+3.21390107e-02f,+4.60101441e-02f,
-3.27737123e-01f,-3.11167650e-02f,+1.21978417e-01f,-9.74698737e-02f,-4.57642227e-02f,
-1.04928128e-01f,+5.93624227e-02f,+1.57335714e-01f,-1.09057114e-01f,-3.01904976e-02f,
-1.09453261e-01f,+4.28945534e-02f,-5.99591285e-02f,-2.33591609e-02f,-2.52652131e-02f,
+1.39761433e-01f,+5.58216274e-02f,-5.53198606e-02f,+3.12318176e-01f,+2.32532695e-01f,
+1.32831827e-01f,+1.44041954e-02f,-6.41463101e-02f,-1.86507791e-01f,+2.14445707e-03f,
+1.58825397e-01f,+1.47298858e-01f,+1.11848451e-01f,-1.50637656e-01f,-9.95666161e-03f,
+1.28255427e-01f,+6.36879429e-02f,-4.36372533e-02f,+2.07589746e-01f,+1.03449374e-01f,
+2.46570393e-01f,-1.11130916e-01f,-4.89322282e-02f,+1.12096205e-01f,+1.37445658e-01f,
+9.78829563e-02f,-1.31418288e-01f,+1.62033975e-01f,+1.38261721e-01f,+2.89609451e-02f,
-7.77583644e-02f,+1.93969697e-01f,-5.90502918e-02f,+4.38018441e-02f,-5.37895821e-02f,
-7.69447396e-03f,+4.03140076e-02f,+3.91564667e-02f,-1.64887402e-02f,+6.19372912e-02f,
+1.95207164e-01f,+9.02155489e-02f,+7.70815462e-02f,+5.95166907e-02f,+5.35609983e-02f,
+2.36824229e-02f,+1.04509622e-01f,-5.32927513e-02f,-4.74193357e-02f,-5.88205531e-02f,
+2.73558982e-02f,-4.33036359e-03f,+9.56330299e-02f,+8.94308090e-02f,+1.71398610e-01f,
+9.33742821e-02f,-3.46509181e-02f,+1.92215621e-01f,+6.66288659e-02f,+8.21424499e-02f,
+1.99454963e-01f,-1.84814051e-01f,-5.35166748e-02f,+1.42341763e-01f,-3.42598408e-02f,
-6.33477652e-03f,+2.61336625e-01f,+4.61189859e-02f,+2.13711597e-02f,+2.04704612e-01f,
+9.85867064e-03f,-7.66151696e-02f,-4.28079665e-02f,-1.35928020e-01f,-1.07575543e-01f,
+1.81505196e-02f,-2.93381792e-02f,-6.03636764e-02f,-9.65640545e-02f,-1.36297449e-01f,
+1.08880088e-01f,-2.22026184e-02f,-5.57936989e-02f,+1.37560979e-01f,+1.48000591e-03f,
-2.96959076e-02f,+1.79967791e-01f,-1.83340564e-01f,-4.19960637e-03f,+6.66636080e-02f,
-6.61746413e-02f,+3.45744134e-04f,+1.30665395e-02f,-6.12147264e-02f,+1.90665394e-01f,
-5.85613176e-02f,+6.07120134e-02f,+7.66470004e-03f,-7.24033862e-02f,+5.47653027e-02f,
-1.18920863e-01f,+1.39404744e-01f,-1.72601223e-01f,-1.69674288e-02f,-9.98549610e-02f,
+1.05320141e-01f,-4.05684160e-03f,+5.44891581e-02f,-4.52182107e-02f,+1.34257212e-01f,
-1.87279284e-01f,+2.44532507e-02f,+8.39353204e-02f,-1.60003379e-01f,-1.76554956e-02f,
-8.13232269e-03f,+1.45626664e-01f,+5.62366582e-02f,-1.25976987e-02f,+5.37101403e-02f,
+5.66625223e-02f,+2.08518460e-01f,+7.64534324e-02f,+3.99713702e-02f,-1.38731346e-01f,
+8.30626208e-03f,-2.18784675e-01f,-9.33389142e-02f,+1.03081934e-01f,+2.60500535e-02f,
+4.47269604e-02f,+1.45893306e-01f,+1.11848526e-01f,+2.11409792e-01f,+1.34704202e-01f,
-3.73076089e-02f,-4.58966158e-02f,-4.79611643e-02f,+2.61230886e-01f,+8.40206910e-03f,
+1.29010946e-01f,-5.89512549e-02f,-3.37063298e-02f,+9.35984775e-02f,+3.06087583e-01f,
+1.41653538e-01f,-1.10881694e-01f,-6.80505997e-03f,+2.40496129e-01f,+1.18219517e-01f,
-1.14026882e-01f,+5.41837960e-02f,+9.54196230e-03f,-5.02527878e-02f,+9.62579176e-02f,
+3.97616997e-02f,-1.05510317e-01f,+8.50835443e-02f,-6.80731758e-02f,-2.17188839e-02f,
-7.78193399e-02f,-1.11518726e-01f,+6.19128756e-02f,+8.99214819e-02f,-7.07875863e-02f,
+1.69520289e-01f,+2.36086220e-01f,+8.14472586e-02f,-6.53990591e-03f,-1.31857648e-01f,
+8.57580304e-02f,-1.56773195e-01f,+1.24605015e-01f,-4.67900857e-02f,+9.07729268e-02f,
+2.27381855e-01f,+5.84145635e-02f,-5.26296124e-02f,-1.69221982e-02f,+1.49337903e-01f,
+2.85899997e-01f,-5.40149808e-02f,+1.44063070e-01f,-9.69300345e-02f,-2.05024227e-01f,
+7.89668262e-02f,+1.57409698e-01f,+1.89850718e-01f,+9.43446346e-03f,+1.09916933e-01f,
+1.16342165e-01f,-5.42240888e-02f,-1.58768445e-02f,+7.25906268e-02f,-5.40394969e-02f,
+8.32247511e-02f,-7.62494057e-02f,+1.08869731e-01f,+3.22226882e-02f,-5.40980101e-02f,
+8.36119801e-02f,+1.64911523e-01f,+1.34395540e-01f,+6.11657090e-02f,-1.05924986e-01f,
-3.18107605e-02f,+1.57005116e-01f,-9.35484022e-02f,+1.96804687e-01f,-1.63303033e-01f,
+2.06172854e-01f,+2.57065445e-02f,-5.86074404e-02f,-1.54337108e-01f,+1.17482550e-01f,
+2.07423344e-01f,+2.39384617e-03f,+1.94877774e-01f,+1.16936803e-01f,+1.92482561e-01f,
+1.06483668e-01f,+7.84230381e-02f,-1.36681711e-02f,+9.55146030e-02f,-1.78610489e-01f,
+9.11705047e-02f,+4.03491855e-02f,+2.32656553e-01f,+2.54818052e-02f,-2.51100981e-03f,
+8.01852643e-02f,+7.93855265e-02f,+1.78721637e-01f,+1.16003156e-01f,+1.97098292e-02f,
+1.02152884e-01f,-6.22320026e-02f,+2.80008197e-01f,+1.29608557e-01f,+2.79944278e-02f,
+1.50113329e-01f,-2.47372109e-02f,+1.72758624e-02f,-2.52981633e-02f,+1.13664024e-01f,
+1.68376397e-02f,+2.98986822e-01f,-2.51945369e-02f,+2.49398947e-01f,-1.28645152e-01f,
+7.68106990e-03f,-1.08329967e-01f,+8.74355212e-02f,+8.63707960e-02f,+3.96262258e-02f,
+4.32211719e-02f,-1.94706470e-01f,+1.09946065e-01f,+1.14401869e-01f,+8.66956264e-02f,
-2.04966981e-02f,+2.64010191e-01f,+1.35081202e-01f,+2.17716202e-01f,-5.46143316e-02f,
+5.83744235e-02f,-6.91714638e-04f,+2.01349810e-01f,-1.14542045e-01f,-8.47275928e-02f,
+3.77604272e-03f,+1.08661111e-02f,+2.27889176e-02f,+2.72023290e-01f,+7.33902827e-02f,
+5.95003590e-02f,+1.84945926e-01f,-3.11703514e-02f,-2.06716031e-01f,-2.48486213e-02f,
+1.52319342e-01f,-1.32833555e-01f,+4.27587703e-02f,+2.54777968e-01f,+1.26617044e-01f,
+7.12375268e-02f,-1.63670227e-01f,+7.66638964e-02f,+5.21973427e-03f,-1.30097782e-02f,
-3.50168496e-02f,+4.74824496e-02f,+1.10065825e-01f,+1.46764042e-02f,-2.22121961e-02f,
+9.73878875e-02f,-1.82694972e-01f,+1.07404262e-01f,+3.90282497e-02f,+1.83684558e-01f,
+3.07494551e-01f,+3.16942751e-01f,+1.29279599e-01f,-1.18766231e-02f,+3.16725373e-02f,
+1.01695992e-01f,-1.07459933e-01f,+1.19035795e-01f,+3.40086296e-02f,+2.18880828e-02f,
+1.11760475e-01f,+4.96999435e-02f,+5.40660173e-02f,+1.16667435e-01f,+7.26515055e-02f,
+2.00317577e-01f,+1.35280564e-01f,+4.35089739e-03f,+7.88539276e-02f,-1.10806311e-02f,
+7.89323915e-03f,+1.23738922e-01f,+1.60806119e-01f,+1.15740232e-01f,+1.62599519e-01f,
+1.93163946e-01f,+1.45008221e-01f,+7.12549388e-02f,+1.52219996e-01f,+1.83948919e-01f,
-3.64541123e-03f,+1.55118629e-01f,+1.19030111e-01f,-4.44864528e-03f,-7.19122216e-02f,
-3.57639156e-02f,+1.40533954e-01f,+4.37004417e-02f,-1.57247782e-01f,+2.33071655e-01f,
+3.78957726e-02f,+2.50187248e-01f,+4.23428193e-02f,+1.10998414e-01f,+1.53933913e-01f,
-1.29006803e-01f,+9.33484882e-02f,+4.06266097e-03f,+4.89444695e-02f,+1.97931007e-01f,
-3.82574275e-02f,+2.90340781e-01f,+4.66742888e-02f,+7.79254287e-02f,+2.36707136e-01f,
+5.87415285e-02f,+1.13527350e-01f,-4.78829211e-03f,-5.91987651e-03f,-2.61320993e-02f,
+1.11190170e-01f,+3.25675644e-02f,+1.18140802e-01f,+6.68393075e-02f,-4.32607047e-02f,
+1.08406276e-01f,-9.96277481e-02f,+1.52132481e-01f,+4.27086577e-02f,-4.41747159e-02f,
+1.60525084e-01f,+9.62060392e-02f,+1.52041838e-01f,+1.42712772e-01f,+1.08839214e-01f,
+5.61325364e-02f,+1.30587265e-01f,+4.63934205e-02f,+1.20030053e-01f,+1.56289563e-01f,
+6.71879202e-02f,+1.05268292e-01f,+4.24189046e-02f,+1.39270529e-01f,+1.16866365e-01f,
+8.58801454e-02f,+2.02750880e-02f,+5.98933212e-02f,+1.80921644e-01f,+1.90954909e-01f,
-5.98389506e-02f,+2.45102316e-01f,-4.43814062e-02f,-2.77872244e-03f,+1.64914474e-01f,
+6.05891086e-02f,-1.38946734e-02f,+1.67704403e-01f,+2.90990978e-01f,-2.71621887e-02f,
+1.24106519e-02f,+7.07583427e-02f,-3.94446179e-02f,+2.04514161e-01f,+1.18428223e-01f,
-2.03813557e-02f,+7.08028749e-02f,-1.36634782e-01f,+2.45719954e-01f,-1.28556415e-01f,
+1.00162543e-01f,+2.38354027e-01f,+1.40062600e-01f,+3.18523087e-02f,+5.16837873e-02f,
+1.06109701e-01f,+1.71792269e-01f,+1.16026781e-01f,+5.55642359e-02f,+8.08155835e-02f,
-5.19382916e-02f,-6.55152649e-02f,-8.55617598e-02f,+3.16399038e-02f,+8.43918175e-02f,
+1.11286990e-01f,+1.82374194e-01f,-6.69505447e-03f,-3.18154767e-02f,+6.13220297e-02f,
+1.54259756e-01f,+1.02289148e-01f,-8.63330625e-03f,+1.45769060e-01f,-1.22665964e-01f,
+5.53963520e-02f,-3.82769853e-02f,+1.56948432e-01f,+1.66921746e-02f,+1.01427510e-01f,
+1.20313270e-02f,-7.36966804e-02f,+1.48460306e-02f,-1.00015633e-01f,-6.34307191e-02f,
+3.17179352e-01f,+1.50290713e-01f,+2.23733366e-01f,+2.32811481e-01f,+6.81959465e-02f,
+3.08770448e-01f,+1.66411791e-03f,+1.47136301e-01f,+1.27755001e-01f,+1.75055876e-01f,
+1.67183667e-01f,+1.56821370e-01f,+7.01431781e-02f,+1.02451202e-02f,+1.01798721e-01f,
+7.90391490e-02f,+2.04319045e-01f,-1.04049504e-01f,+5.23446277e-02f,+1.70288190e-01f,
+2.73044757e-03f,+8.57680943e-03f,-2.82527227e-02f,+1.30102277e-01f,+3.10012475e-02f,
+2.83677399e-01f,+1.13725245e-01f,+2.67138660e-01f,+1.69518292e-01f,+4.26883763e-03f,
+1.43807963e-01f,+1.71413928e-01f,+1.65201381e-01f,+1.28970474e-01f,+2.10868269e-01f,
+2.36284316e-01f,-5.97036956e-03f,+1.25522241e-01f,+8.71492773e-02f,+1.41621932e-01f,
-5.14145009e-02f,+1.88261002e-01f,+9.90647152e-02f,+2.03198671e-01f,-6.42281398e-02f,
+3.59795541e-02f,+7.81843886e-02f,+9.19796973e-02f,-8.27684700e-02f,+8.66199750e-03f,
-2.05618352e-01f,+1.53022081e-01f,-2.86726076e-02f,+4.39377539e-02f,-8.98283273e-02f,
+4.37648334e-02f,-4.82312143e-02f,+9.33026150e-02f,+1.79344714e-02f,-7.13044554e-02f,
+2.69703984e-01f,-4.97440435e-02f,+3.14353108e-02f,+5.66523075e-02f,-6.17645010e-02f,
-1.19931191e-01f,+1.60972983e-01f,+1.27530009e-01f,-2.55931970e-02f,+1.81859300e-01f,
+1.43634692e-01f,+3.86021465e-01f,+1.74335063e-01f,+1.34327367e-01f,+9.64779630e-02f,
-2.09273375e-03f,+1.05551772e-01f,+1.40898198e-01f,+6.99933171e-02f,+1.57472506e-01f,
-8.94644950e-03f,+2.44930997e-01f,-1.49490774e-01f,+1.51853770e-01f,+1.75018504e-01f,
+5.13544008e-02f,+3.33854705e-02f,-1.90504435e-02f,+1.63846001e-01f,+2.30542481e-01f,
+2.10085720e-01f,+4.96690832e-02f,-4.00354527e-02f,-6.12517595e-02f,-8.20199996e-02f,
+1.59040660e-01f,-5.27138673e-02f,+8.19390118e-02f,+2.48989388e-01f,+2.41820700e-03f,
+8.97604898e-02f,+9.23979841e-03f,-1.12439832e-02f,-2.01631598e-02f,+3.56766359e-05f,
-1.02211542e-01f,+1.23837523e-01f,+4.39325958e-01f,+3.05373877e-01f,+5.32662809e-01f,
+3.84019725e-02f,+1.55581325e-01f,-1.77042529e-01f,-1.84731223e-02f,-2.28913218e-01f,
-2.13343166e-02f,+4.75530148e-01f,+3.80213320e-01f,+2.86127385e-02f,+7.23226070e-02f,
+1.74479932e-01f,+1.05689235e-01f,+8.70623291e-02f,-3.11415307e-02f,-9.55930799e-02f,
+2.31692091e-01f,-1.10343352e-01f,-7.83363059e-02f,-1.00353822e-01f,-7.50364885e-02f,
-1.01915179e-02f,-2.51891643e-01f,-1.37160301e-01f,+3.68460387e-01f,+1.87218767e-02f,
+1.84912458e-01f,+7.23877084e-03f,+1.78467721e-01f,+4.27464321e-02f,+2.87094355e-01f,
-1.24698363e-01f,+1.75369158e-02f,+1.92108843e-02f,+2.05799848e-01f,+1.22209460e-01f,
+3.00405920e-01f,-1.35342628e-01f,+6.70152828e-02f,+1.64079055e-01f,-1.64216444e-01f,
-1.95885263e-02f,+1.71319708e-01f,+2.50594437e-01f,-2.16226846e-01f,+1.06451236e-01f,
-4.89107631e-02f,-6.95808381e-02f,+4.91305105e-02f,-5.09583578e-02f,+1.26441896e-01f,
-2.97911316e-02f,+6.24018908e-01f,+4.03240532e-01f,+3.69394749e-01f,+1.01345651e-01f,
+1.78555936e-01f,+7.21635297e-02f,+1.46906182e-01f,+3.22889127e-02f,-8.65480527e-02f,
-1.14075668e-01f,-9.53292549e-02f,-3.99016514e-02f,+3.32218617e-01f,+3.23063135e-01f,
-7.79497772e-02f,+3.88819277e-02f,-2.32790336e-02f,+5.76591454e-02f,+5.75080849e-02f,
-5.93022965e-02f,-6.71577174e-03f,+2.06258204e-02f,+1.69459030e-01f,+4.67809811e-02f,
-4.44650315e-02f,+1.65935948e-01f,+1.74753129e-01f,-8.13383088e-02f,-2.07255185e-01f,
+3.02259754e-02f,+3.35270762e-02f,+2.17822716e-02f,+5.35357952e-01f,+5.78306131e-02f,
+3.69122684e-01f,+7.66516402e-02f,-9.97157693e-02f,+1.24130957e-01f,-7.84082115e-02f,
+1.16371274e-01f,-3.40087563e-01f,+1.02639362e-01f,+1.07573316e-01f,+8.30022916e-02f,
+2.42859930e-01f,+7.87527934e-02f,+3.22847337e-01f,+9.18798000e-02f,+1.15837669e-02f,
+1.57614835e-02f,+3.07722092e-01f,+2.78283320e-02f,+1.26452699e-01f,+1.14657395e-01f,
-9.76177026e-03f,-1.73187628e-01f,+4.79635179e-01f,-4.90071699e-02f,-5.58440536e-02f,
-7.33406544e-02f,+5.42131029e-02f,+9.11988467e-02f,+2.86808908e-01f,+2.67832965e-01f,
+4.01797086e-01f,+1.54602528e-01f,-1.56960979e-01f,+3.73542726e-01f,-1.14203759e-01f,
-5.56265824e-02f,+4.35810760e-02f,-6.97790645e-03f,+1.24669455e-01f,+2.49321051e-02f,
+1.35885328e-01f,+8.51533040e-02f,+1.52336329e-01f,+1.74970001e-01f,+6.38324767e-02f,
+3.38231564e-01f,-3.54690142e-02f,+2.02882081e-01f,+1.27246931e-01f,-2.82932788e-01f,
+2.04713956e-01f,+1.30801737e-01f,+6.66261911e-02f,-1.44857466e-01f,+1.37803435e-01f,
-5.42631261e-02f,+6.79569691e-02f,+3.22131366e-02f,-8.15168768e-02f,+1.64638594e-01f,
+1.37100704e-02f,+1.15308933e-01f,-9.12833810e-02f,+2.01869085e-02f,+1.16025854e-03f,
+1.01399727e-01f,+1.03156790e-01f,+4.14950371e-01f,+2.62803793e-01f,-2.06848547e-01f,
-1.53444335e-02f,+4.36290503e-01f,+5.43652028e-02f,+2.53223032e-01f,+6.67955130e-02f,
+1.52885839e-02f,+1.73345059e-02f,+4.01846021e-01f,+4.02545370e-02f,+5.46467826e-02f,
+3.40643764e-01f,+8.46462622e-02f,+1.95772141e-01f,-1.55599356e-01f,-6.25789985e-02f,
-1.67166546e-01f,+1.26208991e-01f,+1.00677654e-01f,+2.55949013e-02f,+6.56530976e-01f,
-8.07314366e-03f,+2.47460663e-01f,+1.39294446e-01f,-9.04814452e-02f,+4.89763506e-02f,
-2.32312337e-01f,-5.46366796e-02f,-1.01135569e-02f,+1.64501462e-02f,-1.16264872e-01f,
-8.58462378e-02f,+1.83236361e-01f,+4.15676445e-01f,-3.47999632e-02f,+1.63813129e-01f,
-1.25494778e-01f,+2.98822790e-01f,+2.76707590e-01f,+4.75080907e-01f,-2.57204715e-02f,
+1.48540288e-01f,+2.28349745e-01f,-1.11816660e-01f,+8.03671479e-02f,+1.20857716e-01f,
-2.20867231e-01f,-1.58763513e-01f,-1.65676430e-03f,-1.20527200e-01f,+6.34507164e-02f,
+1.54762015e-01f,+2.90548474e-01f,+1.80451721e-01f,+1.92224324e-01f,+1.21716484e-01f,
+2.29525372e-01f,-1.13794468e-01f,-3.22511554e-01f,+1.36624172e-01f,-1.93196774e-01f,
+7.35610902e-01f,-1.04471296e-01f,+5.15867397e-03f,-4.02814746e-02f,+5.29521443e-02f,
+1.63776800e-01f,+3.85029912e-01f,+6.64165542e-02f,+8.70432630e-02f,+8.43937546e-02f,
+1.53457627e-01f,+2.81334966e-01f,-1.32821307e-01f,+1.61264926e-01f,-1.64911583e-01f,
-3.22982520e-02f,-8.53301212e-02f,-1.38588354e-01f,+1.47198156e-01f,-8.99459869e-02f,
+4.75232191e-02f,-1.54999882e-01f,+6.64539784e-02f,+3.87575291e-02f,+1.92947909e-02f,
-1.61905095e-01f,-1.39061837e-02f,+3.04446071e-02f,+6.01987122e-04f,+1.65211651e-02f,
+9.71009806e-02f,+2.56274343e-01f,-9.39519107e-02f,+4.56592031e-02f,+4.56232540e-02f,
-1.20623177e-02f,+2.63106197e-01f,+2.84633152e-02f,-6.78221658e-02f,+1.50674909e-01f,
-1.05108405e-02f,-6.11923151e-02f,-8.21077600e-02f,+7.01813176e-02f,-7.84412771e-02f,
+3.06482941e-01f,-2.68341392e-01f,+2.44116947e-01f,-9.85486060e-02f,+4.76677269e-02f,
+2.47222349e-01f,-1.97598979e-01f,+7.33190179e-02f,+9.02810395e-02f,-1.15099169e-01f,
-1.26218140e-01f,-3.42099858e-03f,+1.41989693e-01f,+6.70965994e-03f,-1.31287398e-02f,
+2.93087345e-02f,+1.76092207e-01f,+3.52435976e-01f,+1.45832300e-02f,+2.61196375e-01f,
-1.54201137e-02f,-1.23245165e-01f,+2.39855886e-01f,+6.46321177e-02f,+1.52369142e-01f,
+1.53863514e-02f,+1.01444945e-01f,+1.30805820e-01f,-1.73107103e-01f,+5.23632839e-02f,
-7.09938176e-05f,+6.44667968e-02f,+5.25211692e-01f,+2.44487837e-01f,+1.77053824e-01f,
+3.55114549e-01f,+1.41294554e-01f,-4.99533191e-02f,+3.28905255e-01f,+9.00835991e-02f,
+1.89643890e-01f,-1.48936987e-01f,+3.78195405e-01f,+3.36369067e-01f,+6.24765083e-02f,
-1.04543403e-01f,+1.98728561e-01f,+9.52462032e-02f,+1.29335932e-02f,+6.90270588e-03f,
+5.72489873e-02f,+2.84240901e-01f,-5.12148850e-02f,+2.38305449e-01f,-1.00646280e-01f,
+3.95106971e-02f,-3.49556245e-02f,-7.10033625e-02f,+7.38514960e-03f,+1.06141299e-01f,
+1.08298874e-02f,+4.99201119e-02f,+1.93789363e-01f,+2.97026306e-01f,+7.92990699e-02f,
-1.13869727e-01f,+4.08846438e-02f,+1.32190719e-01f,+1.64141670e-01f,-9.61613059e-02f,
+3.02906603e-01f,+2.35906150e-02f,-1.66329190e-01f,-3.72304097e-02f,-1.89100906e-01f,
+8.17979053e-02f,+6.52581304e-02f,-8.34057778e-02f,+1.11668080e-01f,+7.68831223e-02f,
+2.00018793e-01f,-6.28580153e-02f,-6.05931282e-02f,-4.39698473e-02f,-1.51842445e-01f,
+1.27961084e-01f,+2.08283439e-02f,+2.41267711e-01f,+2.35514138e-02f,+2.27000579e-01f,
+4.97423522e-02f,+2.13666141e-01f,-6.06945679e-02f,+2.12025806e-01f,+7.37431794e-02f,
-3.33129540e-02f,+2.27258541e-03f,+4.44954485e-01f,+9.80251059e-02f,+1.29389048e-01f,
-4.15358059e-02f,+2.88483538e-02f,-3.88265960e-02f,-7.75234699e-02f,-1.60653219e-01f,
-4.24118266e-02f,+9.95479897e-02f,+2.05624357e-01f,+2.68613547e-02f,-2.63804384e-02f,
-1.62109062e-01f,-2.46347636e-02f,+9.03758511e-04f,-1.18627913e-01f,+1.42987818e-01f,
+3.35017204e-01f,+5.16001433e-02f,+1.72956690e-01f,+1.28342539e-01f,+4.48342673e-02f,
-7.12204278e-02f,-2.11801250e-02f,-4.74990681e-02f,+6.01113066e-02f,-1.05371758e-01f,
-1.02557847e-02f,+2.25531235e-02f,+4.55013394e-01f,+1.90607488e-01f,+1.05689153e-01f,
-1.15620084e-01f,+1.04421325e-01f,+9.27155167e-02f,+2.03190744e-01f,-9.88318920e-02f,
-1.31475091e-01f,+1.21006653e-01f,+5.63368499e-02f,+1.97357580e-01f,+3.27557296e-01f,
+1.71280187e-02f,-6.90851212e-02f,+1.69086680e-02f,+1.36264354e-01f,+2.29910731e-01f,
+3.08319420e-01f,+1.64274424e-01f,+3.95912528e-01f,-5.75516261e-02f,+1.09428719e-01f,
-1.58953264e-01f,-2.58020833e-02f,+2.22130299e-01f,-5.38872555e-02f,-1.08899064e-02f,
-1.07244603e-01f,+9.02611539e-02f,+3.75919999e-03f,-1.21681564e-01f,+2.15968311e-01f,
-1.05468594e-01f,+5.59931695e-02f,+4.20067757e-02f,+3.01696751e-02f,-2.25189719e-02f,
+1.55338436e-01f,+1.96422547e-01f,+1.77305993e-02f,+1.58591345e-01f,+1.95949867e-01f,
-4.45738733e-02f,+1.07432464e-02f,-3.45379720e-03f,+3.28941531e-02f,+8.23675692e-02f,
+4.34678793e-02f,+1.33653119e-01f,+1.08355075e-01f,+4.25011605e-01f,+2.76407808e-01f,
+3.21909338e-02f,-3.09831232e-01f,+1.30009770e-01f,-2.52322145e-02f,+6.50197864e-02f,
-1.06269093e-02f,+4.52966280e-02f,-3.53255868e-02f,+1.29805639e-01f,+7.60653522e-04f,
-1.72232538e-01f,+1.86612368e-01f,+1.04391940e-01f,-3.71517204e-02f,-2.88754739e-02f,
+5.99036738e-02f,+4.57943603e-02f,+3.24970447e-02f,-2.30042916e-02f,-6.41202554e-02f,
+9.42817330e-02f,+1.06584176e-01f,-1.67655237e-02f,+6.27009347e-02f,-6.91589564e-02f,
+5.55685610e-02f,+6.84134141e-02f,+7.56768286e-02f,-1.33365378e-01f,-1.04279462e-02f,
+1.03830963e-01f,+5.69304116e-02f,+1.74212120e-02f,+4.67530712e-02f,-2.63620005e-03f,
+5.83483353e-02f,+9.60767716e-02f,+1.32021904e-01f,+1.13478459e-01f,-1.92632098e-02f,
+2.41547450e-01f,+2.45613251e-02f,+1.13564141e-01f,-1.39513835e-01f,-3.68266180e-02f,
-1.62476748e-02f,+3.09754372e-01f,+2.56591756e-02f,+3.09350580e-01f,+4.91983920e-01f,
+3.06401789e-01f,+1.05459891e-01f,+1.70967340e-01f,-1.69792444e-01f,+1.55917093e-01f,
+5.82180545e-02f,+3.13974500e-01f,-9.58541706e-02f,+1.45642191e-01f,+2.95136729e-03f,
+5.09496443e-02f,+1.74178660e-01f,-2.38330305e-01f,-4.23944294e-02f,+3.37759525e-01f,
+2.18030408e-01f,+1.50470495e-01f,+1.60113186e-01f,+1.96544990e-01f,+5.63932210e-02f,
+1.55112475e-01f,+3.32925767e-01f,+2.22114742e-01f,-4.49632332e-02f,-8.69383216e-02f,
+3.00084740e-01f,-4.26365286e-02f,+1.79584160e-01f,+2.18412116e-01f,+2.70498246e-01f,
+4.31925952e-01f,-4.07906771e-02f,+3.13240662e-02f,+2.23450661e-01f,+3.89843844e-02f,
-1.12790734e-01f,-1.52578242e-02f,+8.02580044e-02f,-1.61375552e-01f,+2.19093680e-01f,
+5.67502603e-02f,+5.32615744e-02f,+7.23271593e-02f,+3.01328510e-01f,+3.24652374e-01f,
+1.31652206e-01f,+2.50827316e-02f,-8.60269461e-03f,+4.71942574e-02f,+2.24558562e-01f,
+4.06667814e-02f,+3.89468074e-02f,-8.83321103e-04f,+6.73879012e-02f,+3.48761678e-01f,
+2.21458286e-01f,+1.31096005e-01f,+1.60864502e-01f,+1.15611479e-01f,+3.35390389e-01f,
+2.52409419e-03f,-1.81987256e-01f,-2.47851834e-01f,+2.28107169e-01f,+2.64009416e-01f,
+2.59138793e-02f,+1.36165142e-01f,-4.43724841e-02f,-2.51426063e-02f,+2.61220247e-01f,
-9.90277808e-03f,+5.99849224e-02f,+1.71957582e-01f,+4.73531894e-02f,+8.10354501e-02f,
-3.13128605e-02f,+3.84954177e-02f,+6.54864758e-02f,-4.04716320e-02f,+1.27439931e-01f,
+7.54393190e-02f,+1.70120105e-01f,+1.70735598e-01f,-3.76043797e-01f,+2.55795032e-01f,
+2.01811522e-01f,+3.13930921e-02f,+1.83522731e-01f,+2.46879771e-01f,+1.73307523e-01f,
-9.34206136e-03f,+2.27340683e-02f,-1.32202044e-01f,-9.93061140e-02f,+1.33877441e-01f,
+8.17893445e-02f,-9.69121084e-02f,-1.06678559e-02f,+8.60331506e-02f,-5.93060181e-02f,
-1.69304177e-01f,-1.76842920e-02f,+1.82693109e-01f,-2.07776532e-01f,-1.10589713e-01f,
-2.11640939e-01f,+1.77164569e-01f,+5.81854396e-02f,+1.75899267e-01f,+3.21343467e-02f,
-2.26056855e-02f,+3.52738500e-02f,-1.14949392e-02f,+5.76345660e-02f,-1.31660849e-01f,
-1.12894595e-01f,-1.45128453e-02f,-8.48191679e-02f,-5.93466014e-02f,+1.57684699e-01f,
-2.47772485e-02f,-1.60188615e-01f,+1.72784209e-01f,+5.23412228e-02f,-1.22395255e-01f,
+6.66875318e-02f,+3.37649643e-01f,-1.40705690e-01f,-2.36092523e-01f,+1.92110285e-01f,
+1.93299970e-03f,+2.38454685e-01f,-9.85951200e-02f,+1.14142172e-01f,+1.34114251e-01f,
+2.48570498e-02f,+1.30803630e-01f,+1.99930504e-01f,+9.51078683e-02f,+3.06498520e-02f,
-1.04133196e-01f,+1.73350304e-01f,-1.17720746e-01f,+2.31825951e-02f,-8.42492506e-02f,
-9.65890735e-02f,-1.73787884e-02f,+1.03131831e-02f,-2.34852493e-01f,-2.36406121e-02f,
-2.68722117e-01f,+1.75491139e-01f,+1.31143883e-01f,-6.30821511e-02f,-1.46607533e-01f,
+1.09105743e-01f,-1.03338677e-02f,+7.44536594e-02f,+2.89695531e-01f,-2.34026372e-01f,
-7.44399950e-02f,-1.46254450e-01f,-1.08178534e-01f,+1.27539247e-01f,-3.36528756e-02f,
+1.22844525e-01f,+7.05751553e-02f,+1.31337598e-01f,+2.07945064e-01f,+9.45667848e-02f,
-1.37101971e-02f,+5.25504956e-03f,-5.66169098e-02f,+2.12150678e-01f,+2.76081115e-01f,
+1.72885805e-01f,+1.89970031e-01f,+1.46895066e-01f,-4.40542921e-02f,-8.21042359e-02f,
-1.28341839e-01f,+9.52387154e-02f,-7.53711686e-02f,+2.56287813e-01f,+5.60926050e-02f,
+5.05026728e-02f,-1.69508308e-01f,+2.72370547e-01f,-1.59641117e-01f,+3.61728370e-02f,
+7.75821730e-02f,-1.40656894e-02f,-6.20072894e-02f,-9.61464345e-02f,+1.63539685e-02f,
+2.99039453e-01f,+2.50732332e-01f,+1.10955782e-01f,+4.71862704e-02f,+1.26866028e-01f,
+1.45106455e-02f,-3.81416827e-02f,-2.59418339e-01f,+1.58970281e-02f,-2.61099070e-01f,
-6.51353076e-02f,+1.05394855e-01f,+8.07348341e-02f,-8.13671295e-03f,+3.51732105e-01f,
+1.42803237e-01f,+1.54790267e-01f,+9.65429470e-02f,+1.69682011e-01f,+3.06911796e-01f,
+3.13428938e-01f,-4.44137584e-03f,-2.95005322e-01f,-2.71520074e-02f,-5.46951592e-02f,
-5.24669588e-02f,-1.14250947e-02f,+1.42428562e-01f,-1.23672590e-01f,-5.10062417e-03f,
+1.49304241e-01f,+1.26034692e-01f,+8.05093199e-02f,+6.99210539e-02f,+9.00748521e-02f,
-5.20445332e-02f,+6.66849911e-02f,-5.23697538e-03f,-9.59783047e-02f,-1.02356784e-01f,
+3.61726545e-02f,+1.56331673e-01f,-1.58894017e-01f,-1.46874085e-01f,+3.61142121e-02f,
-3.08072558e-05f,+7.75668249e-02f,+1.41211778e-01f,+1.96524244e-02f,+1.60917222e-01f,
-4.94838543e-02f,-1.98531076e-01f,+1.94008172e-01f,+6.84395507e-02f,-1.78415515e-02f,
-9.87710655e-02f,-7.47091472e-02f,+8.17925334e-02f,+2.45075494e-01f,-2.26711094e-01f,
+3.12155914e-02f,+1.03094727e-01f,+3.80496308e-02f,-1.16347164e-01f,-5.60749844e-02f,
-3.33819725e-02f,+2.51446087e-02f,+2.12564431e-02f,+1.29335716e-01f,+4.37114341e-03f,
+1.63183078e-01f,+8.32589045e-02f,+9.74760428e-02f,-2.64831334e-01f,-1.95890125e-02f,
+5.15252352e-02f,+3.26483577e-01f,+1.35890663e-01f,+1.10179536e-01f,+5.53006232e-02f,
+1.11656912e-01f,+6.48841262e-02f,-1.20733373e-01f,+4.19926904e-02f,+1.13837406e-01f,
+1.68556213e-01f,+4.71729547e-01f,+2.62557328e-01f,-9.79938135e-02f,-9.93931741e-02f,
+1.41876703e-02f,+3.75280641e-02f,-1.91302240e-01f,-1.25730664e-01f,+1.64049357e-01f,
+4.93379608e-02f,+2.47770756e-01f,-1.07831314e-01f,-1.72182083e-01f,-1.38892218e-01f,
+1.11949928e-02f,+1.77308574e-01f,-6.27818853e-02f,+2.64351577e-01f,+9.32571068e-02f,
+7.38396775e-04f,-4.41370755e-02f,+1.10640541e-01f,-1.61974713e-01f,+4.53834869e-02f,
-4.72280830e-02f,+1.75669730e-01f,-4.11869101e-02f,-6.15712479e-02f,+2.80488938e-01f,
+5.55799231e-02f,+1.13619208e-01f,+7.20619559e-02f,+1.56124577e-01f,+3.12109422e-02f,
-9.15850773e-02f,+2.56072819e-01f,-3.36337276e-02f,-1.24199383e-01f,-3.62712219e-02f,
+4.85406667e-02f,+7.92230591e-02f,-3.09946947e-02f,+3.65468860e-01f,+2.65828490e-01f,
+8.83484185e-02f,-5.22132479e-02f,+5.16672470e-02f,+3.02498676e-02f,+8.27506930e-02f,
+1.59449026e-01f,+2.23703027e-01f,+2.30886526e-02f,+2.40882067e-03f,-1.69541895e-01f,
+5.33798896e-02f,+2.32593939e-01f,+1.79886863e-01f,-1.07740171e-01f,+1.22114249e-01f,
+2.75898799e-02f,+6.97148815e-02f,+2.20654067e-02f,+8.06914866e-02f,-1.93978950e-01f,
+7.59786218e-02f,+1.13528192e-01f,+7.50219077e-02f,+3.26069206e-01f,-1.81065872e-02f,
+3.99050750e-02f,+1.31980479e-02f,-1.07419796e-01f,-9.86550935e-03f,+2.28509068e-01f,
+7.70289153e-02f,+9.60076079e-02f,-4.80498597e-02f,+3.62530529e-01f,+1.55689865e-01f,
+1.03093170e-01f,+3.76574136e-02f,-1.40844792e-01f,+1.79898396e-01f,-5.91203906e-02f,
+7.47593446e-03f,-1.49661556e-01f,+2.52892911e-01f,+2.12177411e-01f,-7.92283714e-02f,
-1.19688772e-01f,+1.47560574e-02f,+1.57950401e-01f,+1.68214217e-01f,-1.04624875e-01f,
-1.58962235e-01f,-8.25446993e-02f,+6.09699860e-02f,+3.30351889e-01f,+5.77646494e-02f,
+1.58427641e-01f,+2.23559469e-01f,+1.68739200e-01f,+1.09498620e-01f,-1.83763757e-01f,
-1.24273665e-01f,+1.75618708e-01f,+1.03982680e-01f,+1.09716140e-01f,+7.79596046e-02f,
-3.07491645e-02f,-3.97863053e-02f,+2.49718457e-01f,-4.24753502e-02f,+2.17331767e-01f,
+1.33111194e-01f,+9.91347209e-02f,-2.36091569e-01f,+1.10718660e-01f,+5.23864180e-02f,
-5.14018582e-03f,+9.48902816e-02f,-1.39595829e-02f,+6.90255919e-03f,-1.06010705e-01f,
+1.40675887e-01f,-2.38911295e-03f,+1.26934022e-01f,+5.12971282e-02f,-6.01452142e-02f,
+1.51083216e-01f,-1.64984297e-02f,-1.19870104e-01f,+3.68354023e-02f,-8.92871916e-02f,
+3.89495268e-02f,+1.58343315e-01f,+2.67107133e-03f,-9.76865590e-02f,-1.53729826e-01f,
+5.57246916e-02f,+1.51250169e-01f,-2.28980839e-01f,+7.56884962e-02f,-4.10072226e-03f,
-4.23827693e-02f,-2.75530270e-03f,-1.00673246e-03f,+3.00112695e-01f,+8.90951231e-02f,
+7.19662830e-02f,+6.54481649e-02f,+1.78183183e-01f,+1.36674106e-01f,+3.15472037e-02f,
+1.19959213e-01f,+5.12397029e-02f,+2.00484432e-02f,-4.31529246e-02f,+2.53912121e-01f,
+2.85059530e-02f,+1.01933405e-01f,-1.98941424e-01f,+1.07422344e-01f,+1.39849409e-01f,
-1.95031971e-01f,+3.32978088e-03f,+1.61551684e-01f,+1.30204529e-01f,+2.37061158e-01f,
+2.14102194e-01f,-1.01082556e-01f,-1.04933241e-02f,+2.80991942e-01f,+5.70234582e-02f,
-9.18936431e-02f,-1.29181921e-01f,+9.81377363e-02f,-8.39814730e-03f,+1.92727461e-01f,
+2.38701940e-01f,+3.55073959e-01f,+1.99676275e-01f,+2.74984688e-01f,+1.06412686e-01f,
+4.17725407e-02f,-2.46328656e-02f,+3.36694241e-01f,+6.59527928e-02f,+1.70668572e-01f,
+1.82415694e-01f,+4.89342213e-02f,+9.76057872e-02f,+6.04178421e-02f,+1.39126807e-01f,
+4.40910876e-01f,+3.11554912e-02f,+8.02494511e-02f,+3.34426433e-01f,-1.16912395e-01f,
+1.56864062e-01f,+7.19688609e-02f,+1.75133392e-01f,+1.75395384e-01f,+7.10582733e-02f,
+7.91558158e-03f,-1.35531109e-02f,+3.87117155e-02f,-2.01396182e-01f,+2.07552254e-01f,
+2.88331002e-01f,+1.88406020e-01f,+4.33021560e-02f,+5.46278544e-02f,-2.46379040e-02f,
-2.41164193e-02f,+3.89774032e-02f,+3.36018533e-01f,-2.65515456e-03f,-1.60670474e-01f,
+8.09323788e-02f,+6.26272857e-02f,-9.84050408e-02f,+1.77388906e-01f,+3.79425809e-02f,
+6.16926812e-02f,+4.03925218e-02f,-2.55751014e-01f,-1.13746993e-01f,-2.81269616e-03f,
-2.02939004e-01f,+1.53569832e-01f,-5.63256703e-02f,+2.87523083e-02f,-2.10417673e-01f,
-6.48253039e-02f,-3.39013524e-02f,+3.03483278e-01f,+3.26510787e-01f,+3.40283275e-01f,
+2.28870716e-02f,+2.35343471e-01f,-8.12691450e-03f,+9.65539515e-02f,+1.09178439e-01f,
+3.06960661e-02f,-6.83232546e-02f,+1.15727365e-01f,-2.08547235e-01f,+7.23489001e-02f,
+7.27424696e-02f,+1.70729205e-01f,+7.72886425e-02f,-4.14978005e-02f,+6.31282404e-02f,
+3.55494797e-01f,-4.22786653e-01f,+1.89665943e-01f,-3.72056328e-02f,+2.41773456e-01f,
+1.98124424e-01f,-1.11037187e-01f,+2.73058593e-01f,+1.86477840e-01f,-5.22464961e-02f,
-2.70338226e-02f,+1.86370060e-01f,-7.17599317e-02f,+2.49136258e-02f,-1.09908544e-01f,
-3.22309285e-02f,+1.66809708e-01f,-1.01849370e-01f,+3.65089104e-02f,-1.13513492e-01f,
-7.81829655e-02f,+1.20493010e-01f,-9.60482210e-02f,+4.84360754e-02f,+4.50318716e-02f,
+3.99339907e-02f,+2.74153650e-01f,+3.37496307e-03f,+1.42087460e-01f,-2.92015616e-02f,
-1.32985428e-01f,-3.80554758e-02f,+7.57082626e-02f,-2.46000141e-01f,+1.12527432e-02f,
-4.66409743e-01f,-2.15879768e-01f,+4.36891727e-02f,+8.44519511e-02f,+2.82163844e-02f,
+1.23562105e-01f,+3.11893411e-02f,-3.79093066e-02f,+2.11436879e-02f,-2.10341632e-01f,
+1.75298542e-01f,-6.99419975e-02f,-4.56972308e-02f,+6.84769005e-02f,-3.93036231e-02f,
-9.18542296e-02f,+2.34701335e-02f,-5.17339306e-03f,+8.49769413e-02f,-2.45725419e-02f,
-7.15140533e-03f,+1.62947997e-01f,+8.59942734e-02f,+2.37695843e-01f,-4.73332331e-02f,
+9.20413733e-02f,+2.78644823e-02f,-2.31471285e-01f,+1.37556732e-01f,+2.09952563e-01f,
+8.04879367e-02f,-7.63627812e-02f,+1.22983873e-01f,+1.81589454e-01f,+2.91126430e-01f,
+1.18608013e-01f,-2.72494126e-02f,-1.04744481e-02f,-4.09813970e-02f,+1.11297861e-01f,
-9.12919044e-02f,+9.54189673e-02f,+2.16230735e-01f,+1.36986049e-02f,+8.84971544e-02f,
+9.00162607e-02f,-3.31417531e-01f,-5.29352911e-02f,-2.02348769e-01f,-2.28084549e-02f,
-2.20188290e-01f,+1.72420323e-01f,+2.21352309e-01f,+2.11912841e-01f,+1.85436130e-01f,
+1.35384321e-01f,+3.42023015e-01f,+8.00834075e-02f,-8.02844986e-02f,+2.64054164e-02f,
+4.51474497e-03f,+7.27989618e-03f,+3.92133482e-02f,+3.38530540e-02f,+1.04413435e-01f,
+2.97932267e-01f,+9.16808173e-02f,+3.70542817e-02f,+2.96320826e-01f,-1.03731170e-01f,
+1.66038141e-01f,+3.41611743e-01f,+1.16734549e-01f,-3.29816677e-02f,-6.92360997e-02f,
-6.72655478e-02f,+5.94438910e-02f,+7.65339062e-02f,-1.80158049e-01f,+1.20972902e-01f,
-1.38840556e-01f,+3.48530039e-02f,+5.58394305e-02f,+2.43078917e-02f,+9.91380494e-03f,
+2.16756895e-01f,-1.57962769e-01f,-1.02744959e-01f,-2.38152780e-02f,+1.14020314e-02f,
+1.75949350e-01f,+4.31840196e-02f,+1.23072743e-01f,-1.31076589e-01f,+1.29795656e-01f,
+2.50353307e-01f,+5.84753603e-02f,+1.24824837e-01f,+5.33807985e-02f,+4.86209020e-02f,
-3.36869687e-01f,-3.18721943e-02f,+1.56196609e-01f,+9.06261057e-03f,-8.84728953e-02f,
+1.11272307e-02f,+5.31492494e-02f,-5.00230528e-02f,+1.00705341e-01f,+6.40819445e-02f,
-5.13598658e-02f,-2.22360506e-03f,+2.45990396e-01f,+1.93957031e-01f,+2.74362564e-02f,
+1.67524189e-01f,-2.24553645e-01f,-5.98105136e-03f,-7.22240508e-02f,+6.92947954e-02f,
+1.00030378e-01f,+9.55413841e-03f,-1.71369463e-01f,-4.08742666e-01f,-4.99629341e-02f,
-1.81541488e-01f,+1.36761457e-01f,+1.08891875e-01f,+1.95191503e-01f,+1.66390985e-01f,
+1.25467941e-01f,-1.93188209e-02f,+1.91737786e-01f,+1.82986960e-01f,+3.59764416e-03f,
-9.90672559e-02f,+1.31456956e-01f,+4.31632474e-02f,+3.63657512e-02f,-7.46146441e-02f,
+2.34179050e-02f,-5.66582307e-02f,-8.00943822e-02f,+1.74888417e-01f,+1.61137238e-01f,
+7.35086622e-03f,+6.61656037e-02f,-3.48970562e-01f,+1.85376942e-01f,+2.30115950e-01f,
+5.71055152e-02f,-1.00029632e-01f,+6.73111109e-03f,+1.63870946e-01f,+2.54171997e-01f,
+2.05833092e-01f,-1.89581234e-02f,+8.41543451e-02f,-1.11028031e-01f,-7.25756511e-02f,
+2.77707696e-01f,+9.96556580e-02f,+5.22350222e-02f,-2.12589979e-01f,-9.32052881e-02f,
+1.08248472e-01f,-1.23931162e-01f,+2.06974521e-01f,+3.79199609e-02f,-1.17807627e-01f,
-9.68270823e-02f,-4.64983024e-02f,-2.96064522e-02f,-9.91247818e-02f,+2.10782234e-02f,
-1.14366107e-01f,+1.34627312e-01f,-9.59476382e-02f,+1.42428875e-01f,+2.89932042e-01f,
+1.58953235e-01f,+9.80410054e-02f,+1.99512035e-01f,+1.88980907e-01f,-2.71804690e-01f,
+1.84326708e-01f,+5.03744423e-01f,+2.46080514e-02f,-1.86730355e-01f,-1.92317635e-01f,
+1.30258784e-01f,+3.06391865e-01f,-2.70927757e-01f,+2.11340860e-01f,+1.32639483e-01f,
+2.41037458e-01f,+7.07595274e-02f,+2.28201896e-01f,-6.60642460e-02f,-1.37271464e-01f,
-1.33868381e-01f,-1.61650479e-01f,+6.30235821e-02f,+5.86818993e-01f,+5.39306737e-02f,
+1.44674033e-02f,-1.86563667e-03f,+4.93197441e-02f,-9.62782279e-02f,-3.16299766e-01f,
-3.94648165e-02f,+5.97719066e-02f,+1.42963752e-01f,+1.32494032e-01f,+2.52861798e-01f,
+1.52362034e-01f,+1.71264097e-01f,+1.11936647e-02f,+1.38724580e-01f,+1.42249301e-01f,
-7.70944580e-02f,-6.17444031e-02f,+4.10051122e-02f,+6.72434345e-02f,+2.31125936e-01f,
+1.09828912e-01f,+2.21653834e-01f,+9.80084762e-02f,+8.34621638e-02f,-1.25969425e-01f,
+1.48905933e-01f,-1.22206137e-01f,+9.01367217e-02f,+2.99162984e-01f,-3.74723300e-02f,
+6.46483079e-02f,+4.60232832e-02f,+1.04369543e-01f,+1.63523346e-01f,+7.13811144e-02f,
+1.19426936e-01f,+4.63155061e-02f,+2.11119339e-01f,-8.21975917e-02f,-3.55692301e-03f,
-2.87152398e-02f,+1.21625148e-01f,+4.70086746e-02f,+2.31692498e-03f,-1.41891569e-03f,
+1.33614063e-01f,-2.12872893e-01f,-1.64107382e-01f,+7.80946016e-02f,+9.31679085e-03f,
+2.12010875e-01f,+1.45181224e-01f,+1.37123674e-01f,+5.57405539e-02f,+2.97268089e-02f,
+1.90861344e-01f,+1.10260658e-01f,+1.98640808e-01f,+1.62669525e-01f,+1.37108237e-01f,
+5.81594296e-02f,+1.02197476e-01f,+5.42015284e-02f,+1.96691737e-01f,-1.40926003e-01f,
-9.45707038e-02f,-1.93181917e-01f,+1.32919464e-03f,-4.52159606e-02f,+2.59971283e-02f,
+1.38536375e-03f,+2.82849640e-01f,-9.98633727e-03f,-1.99545338e-03f,+1.77123785e-01f,
-3.47236060e-02f,-1.34176835e-01f,+2.13842958e-01f,-1.18508592e-01f,+6.56301454e-02f,
-2.75125764e-02f,+8.60992670e-02f,-3.54872160e-02f,+9.65684503e-02f,+1.96305275e-01f,
+6.58702552e-02f,-9.28067416e-02f,+9.74208713e-02f,-1.76535040e-01f,-9.31525081e-02f,
-5.93520552e-02f,-2.03832798e-03f,+1.61092967e-01f,-3.60621549e-02f,+5.69356792e-02f,
+1.10478006e-01f,+6.83304816e-02f,+2.63384104e-01f,+1.18207574e-01f,+2.33831361e-01f,
+2.12576985e-02f,+1.64401487e-01f,+1.62151858e-01f,+6.35471940e-02f,-4.93400805e-02f,
+2.26010829e-02f,+9.74882916e-02f,+1.57325432e-01f,+1.51652470e-01f,-4.66303192e-02f,
+2.53775060e-01f,+1.14610344e-01f,-1.36287093e-01f,+7.31198788e-02f,+1.70765445e-01f,
+9.48853325e-03f,+1.34790182e-01f,-1.80325150e-01f,-3.12946625e-02f,+2.96674520e-01f,
+8.08838382e-02f,-5.79188801e-02f,+1.88144639e-01f,-4.22488345e-04f,+1.51595131e-01f,
+1.37416586e-01f,+7.47350557e-03f,+5.28206229e-02f,-1.09005257e-01f,-3.21987295e-03f,
-1.05557568e-01f,+2.37147838e-01f,+1.50614753e-01f,+9.44166854e-02f,+1.08556114e-01f,
-1.80009082e-01f,-6.38391599e-02f,+1.04111940e-01f,+1.06130004e-01f,+9.63611677e-02f,
+2.56889373e-01f,+4.13366631e-02f,-7.09009841e-02f,+1.17530935e-01f,+2.53901154e-01f,
+2.74946224e-02f,+2.35705510e-01f,+2.15048313e-01f,+1.31495669e-01f,+2.80504555e-01f,
+6.25426173e-02f,+1.25203490e-01f,+1.68080702e-01f,-4.43551391e-02f,-2.61446863e-01f,
+1.48641899e-01f,+5.24959415e-02f,+1.37558952e-01f,+1.97976619e-01f,+2.34942627e-03f,
+2.12534249e-01f,+2.36973420e-01f,+1.05008796e-01f,+1.77918717e-01f,-5.56547008e-02f,
+1.23796109e-02f,+1.15564190e-01f,+4.34958428e-01f,-3.47884628e-03f,-4.39878255e-02f,
+5.21655306e-02f,+5.43331765e-02f,+4.88689691e-02f,-5.41425273e-02f,+1.71233535e-01f,
-9.94933844e-02f,+2.40709737e-01f,-5.17022749e-03f,+2.61849370e-02f,+1.14512462e-02f,
+3.44937682e-01f,-2.92434692e-02f,+2.43146256e-01f,+7.75609165e-02f,+7.42091238e-02f,
+4.87197451e-02f,+4.06595208e-02f,+1.51927084e-01f,-5.56238554e-03f,+9.77185369e-02f,
-2.30963062e-02f,+9.10842568e-02f,+1.90336883e-01f,-7.42325112e-02f,+1.54467598e-01f,
+1.66388214e-01f,+1.30753919e-01f,+3.32049668e-01f,+8.74492899e-03f,+1.34440854e-01f,
+1.11206062e-01f,+2.18815263e-02f,+1.57115925e-02f,+6.54752105e-02f,+1.29641697e-01f,
+3.60849127e-03f,+1.79531097e-01f,+2.12682150e-02f,+1.20467946e-01f,-2.40909651e-01f,
+1.29945651e-01f,+1.00165904e-01f,-7.13827461e-02f,+2.74644941e-01f,+1.58305407e-01f,
+7.35665932e-02f,-8.70620161e-02f,+1.83935612e-01f,+7.31078833e-02f,+2.71656156e-01f,
-3.59853655e-02f,+1.18716080e-02f,+2.46948525e-01f,+2.21018493e-01f,+1.80725187e-01f,
+1.08104818e-01f,+9.88639370e-02f,-1.23773023e-01f,+1.66262224e-01f,+7.56418705e-02f,
+8.00522491e-02f,-3.73952277e-02f,+1.08733010e-02f,-1.25904500e-01f,-7.45885149e-02f,
+1.24407642e-01f,+1.55338749e-01f,+4.28000718e-01f,+4.02086377e-02f,-4.15752642e-03f,
-8.21553171e-03f,+1.79468654e-02f,+7.97642618e-02f,+8.28823948e-04f,+8.38954560e-03f,
-3.34730856e-02f,+1.05530694e-01f,-1.40778413e-02f,+9.21052918e-02f,+1.12683073e-01f,
+2.23268539e-01f,-2.72067413e-02f,+1.86057970e-01f,+8.05047378e-02f,-2.55296081e-01f,
+8.76365006e-02f,+1.51264230e-02f,-7.43642673e-02f,+4.15259898e-02f,+1.21532388e-01f,
+2.35524103e-01f,+6.05319105e-02f,+1.39240650e-02f,-1.02587432e-01f,+8.73850286e-02f,
+1.17619067e-01f,+3.95316422e-01f,+2.56981561e-03f,-4.26252149e-02f,-7.59874433e-02f,
+2.23364308e-01f,+5.96295074e-02f,+1.46578312e-01f,+8.93262550e-02f,+7.76394829e-02f,
+1.37490814e-03f,-2.54888646e-02f,+1.57410577e-01f,+1.59893870e-01f,+1.13157749e-01f,
-1.25826538e-01f,+1.06904179e-01f,+1.26794904e-01f,+1.08000979e-01f,+5.36900014e-02f,
+5.58484755e-02f,+2.20057651e-01f,+1.77490294e-01f,-9.61167514e-02f,+6.28202036e-02f,
-1.77237056e-02f,+1.09370098e-01f,+1.32326424e-01f,+1.24118574e-01f,-1.14002496e-01f,
+3.66040207e-02f,+3.20387781e-01f,+1.66612267e-02f,-9.14329216e-02f,+1.08657636e-01f,
-3.69372629e-02f,+3.52333188e-01f,+3.71601909e-01f,-1.11026578e-01f,+3.87669876e-02f,
+8.17488655e-02f,-2.83186901e-02f,+1.61043614e-01f,+9.27627683e-02f,+3.52186225e-02f,
-1.91335067e-01f,+1.09233126e-01f,+4.37902510e-02f,-9.75741148e-02f,-1.30809117e-02f,
-1.35158077e-01f,+2.79465169e-01f,+5.92883006e-02f,+1.12344325e-02f,-3.56263705e-02f,
+1.13693736e-01f,-9.61997136e-02f,-1.58480883e-01f,+3.45719792e-02f,+1.42998278e-01f,
+1.46658599e-01f,+1.77047610e-01f,+1.43088847e-01f,+3.34091574e-01f,+3.96220565e-01f,
-5.37438951e-02f,+3.88560705e-02f,-1.74530912e-02f,+3.47386040e-02f,+2.52209514e-01f,
+9.16573498e-03f,+7.88740963e-02f,+1.21835656e-01f,+2.71623656e-02f,-4.54132482e-02f,
-1.43820047e-01f,+2.05602869e-02f,+7.08993673e-02f,+8.98824856e-02f,+3.33296768e-02f,
+1.57826379e-01f,-8.05384591e-02f,+2.44656410e-02f,+1.23362891e-01f,-1.99046340e-02f,
+4.32098657e-02f,-8.95097256e-02f,+8.23422223e-02f,+1.65404662e-01f,+1.77203611e-01f,
-2.67767292e-02f,-3.60110365e-02f,+1.03313886e-02f,+4.54815291e-02f,-2.01698542e-02f,
-2.82620825e-02f,-6.25273213e-02f,-6.40811399e-02f,+2.35376563e-02f,-6.66241487e-03f,
+2.19986185e-01f,+4.17820923e-02f,+7.24713579e-02f,+1.69727862e-01f,-4.50756354e-03f,
+3.36646527e-01f,-1.64994097e-03f,-8.85002688e-03f,+3.64443734e-02f,+1.22441128e-01f,
+7.91735873e-02f,+1.26979992e-01f,-8.59090872e-03f,+7.89117664e-02f,+2.04061344e-01f,
+3.01631447e-02f,+1.84609294e-01f,+7.36611858e-02f,-2.76754573e-02f,+1.58749655e-01f,
+1.28831595e-01f,+5.40878735e-02f,+8.17753151e-02f,-3.85372154e-02f,+1.37708485e-01f,
+9.20199156e-02f,+7.77172223e-02f,+5.12748286e-02f,+6.00643083e-02f,+1.14590250e-01f,
+1.75730020e-01f,+1.39566407e-01f,+9.27906930e-02f,-3.65940891e-02f,+1.78774014e-01f,
+1.55260460e-02f,+2.11488381e-01f,-9.23859850e-02f,-9.53536760e-03f,+2.41630673e-02f,
+1.53087348e-01f,+1.60223097e-02f,+8.68793577e-02f,+2.00642705e-01f,+4.40949947e-03f,
+2.81430721e-01f,+8.97848904e-02f,+7.28507489e-02f,+1.12848096e-01f,+1.58146083e-01f,
-1.96102411e-02f,-3.12337223e-02f,+8.26652348e-02f,+2.24774070e-02f,+2.14532077e-01f,
-6.74826093e-03f,-1.33910240e-03f,+3.44945937e-02f,-1.77728273e-02f,+4.01273556e-03f,
+1.47965565e-01f,+1.33729383e-01f,+1.32593349e-01f,+2.42391601e-01f,+9.13787112e-02f,
+1.21654943e-01f,+1.30582765e-01f,+3.64578217e-02f,-3.49840112e-02f,-1.38484836e-01f,
+1.12620845e-01f,+1.05445549e-01f,-6.05937429e-02f,+9.27458927e-02f,+9.94576067e-02f,
+2.25006565e-01f,-5.72381057e-02f,+1.79262370e-01f,+2.46995926e-01f,+1.38325945e-01f,
+1.22399516e-01f,-1.02097159e-02f,+8.81881081e-03f,+7.98493810e-03f,-5.78918159e-02f,
+8.00948814e-02f,-2.32249163e-02f,+1.12377986e-01f,+4.55687307e-02f,+6.37549162e-02f,
+1.22519113e-01f,+9.76973176e-02f,+2.57949650e-01f,+1.07797630e-01f,+1.16407506e-01f,
+7.20959306e-02f,-8.05706065e-03f,+1.28685459e-01f,-7.40942508e-02f,-5.17677814e-02f,
-1.11069188e-01f,+1.57721996e-01f,-1.28892474e-02f,+1.65473670e-01f,+1.29768461e-01f,
+1.03592224e-01f,+7.56118819e-02f,+3.85967665e-03f,+1.25091136e-01f,+1.08322136e-01f,
+2.81245410e-01f,+5.16682602e-02f,+4.86833341e-02f,+4.46590595e-02f,-9.29508135e-02f,
-1.06902465e-01f,+5.87788001e-02f,-8.94255117e-02f,+1.95685863e-01f,+6.93102926e-03f,
-1.18884541e-01f,-5.47379628e-02f,+2.42896348e-01f,+3.43080647e-02f,+1.40217200e-01f,
+3.95741723e-02f,-6.38432652e-02f,+7.90650919e-02f,+1.18851133e-01f,+8.05663392e-02f,
-1.03185721e-01f,+1.48461023e-02f,+1.13064423e-01f,-5.42508774e-02f,-3.54757123e-02f,
+8.43637437e-02f,+1.89625751e-02f,-6.85439853e-04f,+1.68038309e-01f,-3.65439355e-02f,
+4.67543714e-02f,+2.27102414e-02f,+1.51002437e-01f,+1.11257493e-01f,-5.05498722e-02f,
-9.97479036e-02f,+7.64347687e-02f,-7.46035725e-02f,+2.16292590e-01f,+3.32353227e-02f,
+1.78023856e-02f,+1.29466280e-01f,+1.08652718e-01f,-1.08596057e-01f,+2.79174335e-02f,
-2.13432056e-03f,-2.97614336e-02f,-7.17445696e-03f,+7.73331895e-02f,+2.52745841e-02f,
+1.86390609e-01f,+1.61377773e-01f,+1.07060760e-01f,+3.11853196e-02f,-6.60922825e-02f,
-6.12456277e-02f,+1.22588448e-01f,-1.04408138e-01f,-3.83094847e-02f,-6.20504469e-02f,
+9.41650197e-02f,-6.73968866e-02f,+2.24108830e-01f,+1.40506670e-01f,+1.78080648e-02f,
+1.41897947e-01f,-2.14444637e-01f,+1.63007274e-01f,-5.16930223e-02f,+5.84553704e-02f,
+8.81340727e-02f,+2.13943183e-01f,-6.31732941e-02f,-1.92592794e-03f,-2.06380002e-02f,
+9.21238437e-02f,+5.58652058e-02f,+1.09601421e-02f,+1.28487602e-01f,+9.25223306e-02f,
+1.46078020e-02f,-6.39852732e-02f,-6.60911724e-02f,+1.08188875e-01f,-5.52897295e-03f,
+7.85167217e-02f,+5.46519235e-02f,+5.61139807e-02f,+7.90882334e-02f,+1.05671287e-01f,
+1.24001525e-01f,-2.93815956e-02f,+1.98499843e-01f,+9.99633074e-02f,+7.02436641e-02f,
+2.00778499e-01f,+1.24954522e-01f,+6.37839735e-02f,+7.55758351e-03f,-6.89552501e-02f,
+1.05527401e-01f,+3.50600071e-02f,+3.77706029e-02f,+1.31157767e-02f,-1.29578561e-01f,
+1.44270286e-01f,-1.25082349e-02f,+6.90493360e-02f,+4.33470644e-02f,-2.51950342e-02f,
+8.03565830e-02f,+1.49496555e-01f,+1.77772671e-01f,-1.45002836e-02f,-2.70217098e-02f,
+9.72408727e-02f,+1.03386343e-01f,-3.05942111e-02f,+2.61208624e-01f,+9.82997119e-02f,
-1.20455138e-01f,+8.57708976e-03f,+2.72975247e-02f,-5.72846737e-03f,+7.69547448e-02f,
+1.54217020e-01f,+4.64233346e-02f,-1.14773288e-02f,+5.61278686e-02f,+6.68803975e-02f,
+5.32494523e-02f,+1.53927296e-01f,+1.24496460e-01f,-3.91740911e-02f,+7.92475864e-02f,
+6.58491999e-02f,+1.05926886e-01f,-8.44756737e-02f,+4.12284024e-02f,+1.23620436e-01f,
-4.85768095e-02f,-8.91982913e-02f,+1.91409871e-01f,+5.70629200e-04f,-7.47842714e-02f,
+1.71984240e-01f,-9.99674648e-02f,+1.09833464e-01f,+2.16712683e-01f,-1.90222431e-02f,
+5.41473888e-02f,+3.73986587e-02f,+1.98585391e-01f,+1.73729554e-01f,+1.39740750e-01f,
-6.88742250e-02f,-1.56924739e-01f,+1.55362310e-02f,+2.87568243e-03f,+4.25404571e-02f,
+7.47416308e-03f,-4.93725471e-04f,+1.25962511e-01f,+8.91663879e-02f,-3.25040855e-02f,
-6.60455227e-02f,+8.90747830e-02f,+5.82110994e-02f,-1.92880314e-02f,+7.65312314e-02f,
+2.07808912e-02f,+7.14507699e-02f,+2.77893215e-01f,-1.12668395e-01f,-6.41963556e-02f,
+8.21999535e-02f,+1.20778307e-01f,+3.34710851e-02f,+6.35468811e-02f,+1.53685659e-01f,
+1.81819517e-02f,-8.55493844e-02f,-2.42738146e-02f,+2.12761045e-01f,+2.58840248e-02f,
+6.50490373e-02f,+2.00063333e-01f,+1.61198512e-01f,+9.76364538e-02f,-4.61739935e-02f,
+1.53307438e-01f,-3.15356404e-02f,+1.25748903e-01f,+3.78665403e-02f,+5.86819984e-02f,
+8.17133859e-02f,+1.15813620e-01f,-8.64701346e-02f,+1.51498094e-01f,-3.57470512e-02f,
-5.54691106e-02f,+8.65584016e-02f,+1.76554918e-01f,-1.23123072e-01f,+1.24580376e-01f,
+5.98529689e-02f,+1.03295341e-01f,-1.07825600e-01f,+1.03519432e-01f,+2.44832765e-02f,
+7.26456940e-02f,+3.50743234e-02f,+1.65112048e-01f,+3.59667540e-02f,+2.08251745e-01f,
+3.41606550e-02f,-1.62396222e-01f,-4.14601415e-02f,+2.32195750e-01f,-5.01811802e-02f,
+2.06440836e-01f,+3.09285391e-02f,+6.48759604e-02f,+5.58967441e-02f,+7.53154978e-02f,
+4.61002737e-02f,+4.17539999e-02f,-6.06299900e-02f,+6.93501234e-02f,-1.82954725e-02f,
-7.74370059e-02f,+8.66563693e-02f,+1.12578876e-01f,+1.14305735e-01f,+1.88653573e-01f,
+1.39880687e-01f,+4.01678793e-02f,+1.56954750e-02f,+1.03874281e-01f,+1.37910709e-01f,
-5.60475700e-02f,+1.66290849e-02f,-1.07424418e-02f,+1.11320488e-01f,+1.91700280e-01f,
+7.17998818e-02f,-8.73539224e-02f,+2.97123287e-02f,+7.47454539e-02f,-2.48461366e-01f,
+6.69574887e-02f,+1.46316551e-02f,-1.14985183e-02f,+1.96681824e-02f,+1.62864789e-01f,
-9.29950774e-02f,+9.55076888e-02f,+8.89490843e-02f,+2.26254627e-01f,+1.26280442e-01f,
-2.51034014e-02f,+6.81314804e-03f,+1.09529339e-01f,+8.51020217e-02f,+2.14098081e-01f,
+8.44947025e-02f,-1.29210586e-02f,-8.76064748e-02f,+2.00602174e-01f,-5.98341301e-02f,
+6.04117140e-02f,+1.83868762e-02f,-5.58287650e-03f,+2.10283384e-01f,-6.21707141e-02f,
+1.79703146e-01f,+2.12460328e-02f,+8.15070048e-02f,+1.36777181e-02f,+1.39407218e-01f,
+1.20880678e-01f,+4.85870615e-02f,+1.00186147e-01f,+7.79507309e-02f,+7.19300508e-02f,
+1.27350807e-01f,+1.89637784e-02f,-1.10395677e-01f,+4.70146984e-02f,+2.72441417e-01f,
-1.41361043e-01f,+5.53587526e-02f,+8.34389180e-02f,+5.91487400e-02f,+1.02216437e-01f,
+1.42813846e-01f,+6.23185001e-02f,-4.53634299e-02f,+8.13189372e-02f,-7.58058205e-02f,
+8.11038613e-02f,+3.52188274e-02f,+1.41819775e-01f,-3.24629322e-02f,+3.33970115e-02f,
-1.09658511e-02f,+8.63044038e-02f,+2.30900556e-01f,+5.42059680e-03f,+2.15460420e-01f,
+1.54987991e-01f,-1.22671947e-01f,+1.33968353e-01f,-7.12988898e-02f,+3.20629291e-02f,
+1.09316476e-01f,+5.68044484e-02f,+1.98435813e-01f,-2.81686515e-01f,-2.84244008e-02f,
+2.53974535e-02f,+1.94453031e-01f,+1.87280089e-01f,+8.78493562e-02f,+2.91405559e-01f,
+9.99124125e-02f,-5.58385104e-02f,-1.24929532e-01f,+2.54143625e-01f,-1.24343961e-01f,
+2.06298247e-01f,+8.31372887e-02f,-4.51082177e-03f,+1.52861878e-01f,+1.61085412e-01f,
+2.72734433e-01f,+9.28435698e-02f,+3.61460857e-02f,+3.72382477e-02f,+5.34605049e-02f,
+1.17211364e-01f,-6.15007170e-02f,+3.69178429e-02f,+1.82348996e-01f,-7.73652941e-02f,
+4.77127470e-02f,+2.93137808e-03f,+8.37657601e-02f,-2.21934188e-02f,+6.60733692e-03f,
-1.29651532e-01f,+6.72398508e-02f,+2.18397081e-02f,-5.45587949e-02f,+1.61571428e-02f,
+6.29535168e-02f,+1.08975567e-01f,+1.01840533e-01f,+1.54329494e-01f,+1.97164658e-02f,
+2.66919620e-02f,-1.89523567e-02f,+1.47529736e-01f,+7.32328817e-02f,+1.18602842e-01f,
-4.60132919e-02f,+4.74708527e-02f,+1.37905916e-02f,-1.26198435e-03f,+2.07895245e-02f,
+1.16161078e-01f,+1.17039066e-02f,+6.29766062e-02f,+1.62877694e-01f,+3.05619407e-02f,
-7.03103235e-03f,+1.36414781e-01f,+2.99285293e-01f,-1.24813758e-01f,+2.17523449e-03f,
-4.75563155e-03f,-4.13142815e-02f,+5.57400845e-03f,+1.09757431e-01f,+2.43470326e-01f,
+1.29109686e-02f,-1.09986821e-02f,+9.63590201e-03f,+6.11537397e-02f,+2.14619622e-01f,
-1.02921672e-01f,+1.25569617e-02f,+2.48893753e-01f,+2.75763795e-02f,+8.63973349e-02f,
+3.12373877e-01f,-2.00806141e-01f,-2.87062544e-02f,+3.13502215e-02f,+2.30197206e-01f,
+9.12800804e-02f,+1.01905927e-01f,+1.74595386e-01f,+1.82571243e-02f,+1.24483528e-02f,
+7.45950267e-02f,+7.59078115e-02f,+1.50326058e-01f,+1.59024879e-01f,+1.24016114e-01f,
+1.04142554e-01f,+1.29085571e-01f,+1.23852402e-01f,+6.19690977e-02f,+5.82265146e-02f,
-2.76046693e-02f,-2.07364671e-02f,+8.40380117e-02f,+1.57275602e-01f,+2.04460341e-02f,
+1.33722916e-01f,-1.80402964e-01f,+7.21362606e-02f,+2.92936891e-01f,-6.54243827e-02f,
+1.35547936e-01f,+9.60287228e-02f,-2.69979779e-02f,+1.57614484e-01f,-1.43154368e-01f,
-8.12623352e-02f,-4.96496297e-02f,-5.26669621e-02f,+6.24174103e-02f,+9.02420580e-02f,
+2.59068936e-01f,+2.65533570e-02f,-2.35414386e-01f,+1.95943546e-02f,+2.03719720e-01f,
+2.28673354e-01f,+9.84717607e-02f,+5.16643263e-02f,+5.27034849e-02f,+5.30473553e-02f,
+1.24393083e-01f,+8.17659274e-02f,-1.56010259e-02f,-2.02559028e-02f,+4.09781635e-02f,
+1.72103077e-01f,-7.03306869e-03f,-2.14995397e-03f,-9.42283776e-03f,+5.11766300e-02f,
-9.66473669e-02f,+5.57956807e-02f,+6.99864104e-02f,+2.66955029e-02f,+4.83635208e-03f,
+1.15031563e-01f,+7.52222724e-03f,+1.20508082e-01f,+1.29075432e-02f,-9.41002276e-03f,
+5.05860150e-03f,+3.73767619e-03f,-9.21227187e-02f,+2.34207921e-02f,+1.11902378e-01f,
+6.00267053e-02f,+1.22719802e-01f,+8.13034028e-02f,-5.06367944e-02f,+2.40446292e-02f,
+1.62206486e-01f,+1.53227285e-01f,-2.57372167e-02f,+1.51225552e-01f,+1.22852273e-01f,
-8.67146701e-02f,+1.35893941e-01f,+2.57780179e-02f,-1.33506984e-01f,+4.49321903e-02f,
+9.90447029e-02f,+7.02592805e-02f,+3.40960957e-02f,-1.35802329e-01f,+1.10236064e-01f,
+9.98244956e-02f,+2.17801090e-02f,+1.03560865e-01f,+7.06350505e-02f,+1.31103816e-02f,
+6.02485873e-02f,+5.20566814e-02f,+1.48176789e-01f,-6.78859092e-03f,+1.02391109e-01f,
+6.78220987e-02f,+2.29336530e-01f,+5.15954979e-02f,+1.69174328e-01f,+8.11680928e-02f,
+8.30145460e-03f,+1.18471973e-01f,+1.94892615e-01f,-6.03466742e-02f,-6.79284558e-02f,
+1.26973214e-02f,+4.83099893e-02f,-2.06223235e-01f,-2.94766445e-02f,+8.80446807e-02f,
-5.33161743e-04f,+1.54253244e-01f,-3.79143730e-02f,+7.43734092e-02f,-6.39654770e-02f,
-6.20954894e-02f,+1.36916786e-01f,+6.19776249e-02f,+7.12323487e-02f,+5.25811091e-02f,
-3.67058963e-01f,+1.66152507e-01f,-9.97841805e-02f,+1.87989190e-01f,-1.24916613e-01f,
+1.33311346e-01f,+8.73625875e-02f,+1.39105394e-01f,-1.51520921e-02f,-1.15260698e-01f,
+1.22391842e-01f,-6.92602172e-02f,+2.12638706e-01f,-3.81878503e-02f,+1.72820851e-01f,
-2.64396556e-02f,+8.80668834e-02f,+7.35560209e-02f,+6.94553042e-03f,+2.01931283e-01f,
+2.84459621e-01f,+4.76439185e-02f,+1.99208662e-01f,-4.31274809e-02f,+1.86487913e-01f,
+1.09709688e-01f,-2.44021174e-02f,-4.58456054e-02f,+1.82247519e-01f,+1.84708655e-01f,
+8.16897303e-02f,-2.57619489e-02f,-1.02521069e-01f,+2.48136401e-01f,+1.73059374e-01f,
+2.56185848e-02f,-1.01924188e-01f,+5.16208559e-02f,-7.91171640e-02f,+1.97038110e-02f,
-5.14484867e-02f,-6.59986883e-02f,+7.22481078e-03f,+4.62263823e-02f,+6.51446283e-02f,
+4.00739424e-02f,+1.74284339e-01f,+9.12776738e-02f,+9.08724591e-03f,+1.73602588e-02f,
+1.10383146e-01f,+1.07927956e-01f,-6.84747621e-02f,+3.91366519e-03f,-2.70973090e-02f,
+1.94009528e-01f,+2.62112767e-01f,+7.10572153e-02f,+5.95083907e-02f,-1.67263616e-02f,
+1.52592510e-01f,-2.25933362e-02f,-1.30766049e-01f,-3.33129838e-02f,+3.59672420e-02f,
+4.38651852e-02f,-1.61147431e-01f,-1.77219734e-01f,-7.46710878e-03f,-4.66228984e-02f,
+1.80608347e-01f,+1.42420322e-01f,-7.06274956e-02f,+3.94938082e-01f,+1.59245580e-01f,
+2.52499282e-01f,+8.33161548e-02f,+1.62156284e-01f,+5.63318245e-02f,+1.11382142e-01f,
-8.56485963e-02f,+1.60245914e-02f,+6.33155182e-02f,+1.52188554e-01f,+5.01360092e-03f,
+1.12309478e-01f,+7.86232948e-02f,-6.70178458e-02f,-8.31748992e-02f,+1.55827045e-01f,
+2.55421344e-02f,+1.20286740e-01f,+9.14333835e-02f,+1.86704308e-01f,+1.96763113e-01f,
+7.36327991e-02f,+2.63117433e-01f,+4.66161370e-02f,+1.09699331e-01f,-7.31287012e-03f,
+2.48853326e-01f,-4.78845127e-02f,+1.77023739e-01f,+1.01164438e-01f,-8.18993226e-02f,
+1.90392524e-01f,-3.94978970e-02f,-1.52944967e-01f,+3.79770733e-02f,-7.94027150e-02f,
-1.98597550e-01f,+1.64018854e-01f,+9.59440321e-02f,+8.64714161e-02f,+3.23930949e-01f,
+1.23420879e-01f,-1.09213628e-02f,+3.21925402e-01f,+8.14106595e-03f,+1.46976858e-01f,
-6.25622738e-03f,+4.11657207e-02f,+4.57361788e-02f,+1.80461764e-01f,+8.15009326e-02f,
+5.34707345e-02f,+1.03448123e-01f,-9.69948694e-02f,+2.79340148e-01f,+1.00769080e-01f,
-1.35471329e-01f,+7.15366751e-02f,-4.06596363e-02f,+1.54911399e-01f,-1.50988787e-01f,
+4.91655199e-03f,+2.17692897e-01f,+8.34736004e-02f,-1.04065016e-01f,+8.25757235e-02f,
+2.05523297e-01f,-1.56067848e-01f,+1.10483286e-03f,-2.14527380e-02f,-1.05449997e-01f,
-9.21911076e-02f,+1.78254530e-01f,+6.90862983e-02f,+3.98933329e-03f,+3.53548490e-02f,
+9.46367383e-02f,+3.01697433e-01f,+1.83810797e-02f,+4.56671696e-03f,-2.58447677e-01f,
+6.84953183e-02f,-3.80823873e-02f,+1.00520454e-01f,+3.91021639e-01f,+8.86094868e-02f,
-4.61095050e-02f,+8.51965770e-02f,+1.74445435e-02f,+2.44124219e-01f,-3.79725266e-03f,
-3.79887484e-02f,+1.70967802e-01f,+9.56411958e-02f,+1.43973008e-01f,-7.53467977e-02f,
+5.78113310e-02f,+2.67991930e-01f,+1.45050008e-02f,+2.35548075e-02f,-4.46475424e-05f,
-9.23045427e-02f,+1.43996403e-01f,-2.05530435e-01f,+9.38584656e-02f,+1.83862001e-01f,
+9.18864831e-02f,+2.01062895e-02f,-9.60622448e-04f,+3.86744380e-01f,-2.69632321e-02f,
+1.68084621e-01f,+6.62206709e-02f,+1.33805096e-01f,+7.36201927e-02f,+1.90491855e-01f,
-5.47965169e-02f,+5.02403915e-01f,-6.49725320e-04f,-9.64866430e-02f,+6.90668076e-02f,
-1.44395335e-02f,+1.85866758e-01f,+1.27667844e-01f,-4.29525673e-02f,-5.84214441e-02f,
-3.51360440e-02f,+7.71501064e-02f,+7.00346082e-02f,+8.25167224e-02f,-1.41492277e-01f,
+1.16110027e-01f,+1.39536679e-01f,-1.49034690e-02f,-3.66957784e-02f,-1.76683530e-01f,
-9.30940211e-02f,+6.30128756e-02f,+3.13913614e-01f,+1.38011605e-01f,+2.84514368e-01f,
+2.14088395e-01f,+6.67502508e-02f,+1.58990286e-02f,+1.15137175e-01f,+1.23512819e-02f,
+1.41343683e-01f,+9.77334976e-02f,+2.03456193e-01f,+1.23099998e-01f,-1.02927640e-01f,
-1.59375500e-02f,-1.79243013e-02f,+2.11953476e-01f,+2.17154980e-01f,+2.11279944e-01f,
+2.50452042e-01f,-9.51064527e-02f,+4.79959697e-02f,+6.40884042e-02f,+1.26822822e-04f,
+1.22151591e-01f,+1.90866157e-01f,+1.07680839e-02f,+4.40623462e-02f,+2.14684680e-02f,
+1.19762264e-01f,+3.42022404e-02f,-1.55556515e-01f,+3.66822444e-02f,+8.69445801e-02f,
+3.89277637e-02f,+3.45943798e-03f,+1.02634163e-04f,+1.53216049e-01f,-1.57992542e-01f,
+8.74307007e-02f,+4.27048393e-02f,+3.18106800e-01f,+1.76520094e-01f,+1.11298658e-01f,
+1.31926237e-04f,-9.45158452e-02f,-1.49467681e-02f,+3.23339343e-01f,+3.05090398e-01f,
+3.04682720e-02f,-2.26069599e-01f,-2.08405793e-01f,+3.27723399e-02f,+2.17620119e-01f,
-1.18697867e-01f,+8.10995996e-02f,-6.99790716e-02f,-4.36020717e-02f,-7.96300396e-02f,
-1.18424356e-01f,-9.97736454e-02f,+1.62455857e-01f,+2.31740788e-01f,-7.58288428e-02f,
-8.95499531e-03f,+8.90188199e-03f,-3.03991027e-02f,+1.79320663e-01f,+6.39405921e-02f,
+1.43736273e-01f,+1.92961767e-01f,+1.25529826e-01f,+5.84799461e-02f,-8.69296044e-02f,
-1.27751343e-02f,+1.02335334e-01f,+1.10035479e-01f,-2.70934333e-03f,-2.46077657e-01f,
+1.18803039e-01f,+9.45691168e-02f,+3.04821074e-01f,+3.48771028e-02f,+4.98567410e-02f,
+1.88448459e-01f,+2.96483235e-03f,+9.64715481e-02f,+1.76120386e-01f,+1.24260783e-01f,
-4.27426733e-02f,-1.13542110e-01f,+1.84872076e-01f,-2.06340998e-01f,-3.11881304e-02f,
+4.51446213e-02f,-2.38421801e-02f,+7.37576410e-02f,+1.93164676e-01f,+1.74044460e-01f,
+4.22683097e-02f,+4.77536302e-03f,-4.33455519e-02f,+1.06173672e-01f,-1.74860179e-01f,
+2.71787316e-01f,-7.22496733e-02f,+5.31275682e-02f,+1.65477440e-01f,+9.18304101e-02f,
+6.92082196e-02f,+1.32315740e-01f,-3.02298591e-02f,-5.04504442e-02f,-1.13803111e-01f,
+1.26082420e-01f,+8.28395877e-03f,+6.73699528e-02f,-6.18822239e-02f,+9.08866078e-02f,
-1.03090852e-01f,-2.19088271e-01f,+3.24456245e-02f,-8.71286020e-02f,+7.51077682e-02f,
+1.32576898e-01f,+8.69015530e-02f,+2.23182648e-01f,+1.58284783e-01f,-2.46856059e-03f,
+3.04428667e-01f,+9.52426195e-02f,+7.57858604e-02f,-1.99997984e-03f,-3.85464691e-02f,
-6.28385767e-02f,+2.85336003e-02f,+1.33815140e-01f,+2.04577390e-02f,+1.87389016e-01f,
+8.08637217e-02f,+2.38517985e-01f,+1.74208302e-02f,-1.27451429e-02f,+1.52076691e-01f,
+2.42796466e-01f,+1.58271119e-01f,+7.88743868e-02f,+1.44319639e-01f,+1.20648565e-02f,
+1.19393133e-01f,-1.40198633e-01f,+1.23795442e-01f,+1.82766974e-01f,-9.52098668e-02f,
+8.05066824e-02f,+3.50878015e-02f,+1.09112099e-01f,-7.09564611e-03f,-1.23010762e-01f,
+9.05838162e-02f,+8.17995965e-02f,-4.09611091e-02f,-5.04957065e-02f,+3.18638861e-01f,
+1.13304242e-01f,+1.05344296e-01f,+1.14401229e-01f,-1.26099303e-01f,-2.39711568e-01f,
-1.55414045e-01f,+2.88727194e-01f,-4.17380184e-02f,-5.14938571e-02f,+2.00262755e-01f,
-5.26016299e-03f,-9.09003764e-02f,+7.89499581e-02f,+6.18521459e-02f,-7.18239918e-02f,
-1.31681502e-01f,-3.88484932e-02f,-2.07551867e-02f,+3.55311409e-02f,-1.65487677e-01f,
+4.84679081e-02f,+1.61945179e-01f,-1.40071392e-01f,+5.81649467e-02f,+1.13247521e-01f,
+1.73876602e-02f,-1.09749496e-01f,+1.07555494e-01f,-4.79282327e-02f,-2.16059834e-02f,
-1.98570341e-02f,+2.69126117e-01f,-8.98168534e-02f,-8.61660317e-02f,+4.36788425e-03f,
+1.21253252e-01f,+2.50909906e-02f,+1.08986326e-01f,+5.61597794e-02f,+1.08647540e-01f,
-8.51293951e-02f,-1.86919078e-01f,+1.12415574e-01f,+2.14040667e-01f,+9.05176178e-02f,
+4.39913049e-02f,+3.36372495e-01f,+2.59153098e-01f,+1.40380353e-01f,-2.37159804e-01f,
+6.78809881e-02f,+1.19399309e-01f,+7.47485682e-02f,+1.03822472e-02f,-6.67180121e-02f,
-3.92938219e-03f,+1.03948981e-01f,-4.56907973e-02f,+7.23843649e-02f,-2.11832374e-01f,
+1.94109187e-01f,-8.10070783e-02f,-7.45923892e-02f,+2.35170145e-02f,-1.47392616e-01f,
+2.58987606e-01f,+2.08577946e-01f,-7.24398866e-02f,+1.09767087e-01f,-2.24782959e-01f,
+2.04700023e-01f,+9.43097025e-02f,+2.40206599e-01f,+1.09551465e-02f,+2.05712169e-01f,
-3.00227161e-02f,+3.29920501e-02f,+4.82693911e-02f,+1.50436223e-01f,-2.78534293e-02f,
-2.63612159e-02f,+8.35726187e-02f,+3.41646641e-01f,+2.49701906e-02f,+2.35237837e-01f,
+7.88577422e-02f,-1.94468379e-01f,+1.19786020e-02f,+6.96811974e-02f,+7.05316514e-02f,
-3.45010869e-02f,+2.10908398e-01f,+1.37783006e-01f,+1.85221136e-01f,+3.64344120e-02f,
+2.40933716e-01f,-1.27949089e-01f,+1.22042090e-01f,+1.67753309e-01f,+2.41015241e-01f,
+1.29588485e-01f,+8.38190094e-02f,+9.50506181e-02f,+2.21228063e-01f,+1.24997251e-01f,
+3.01738411e-01f,+1.98927283e-01f,+2.31602803e-01f,+4.97706085e-02f,-9.79402661e-02f,
+1.19575359e-01f,+2.09879845e-01f,+1.77014261e-01f,+4.60627265e-02f,-8.50834232e-03f,
+5.55624031e-02f,+2.47583799e-02f,-8.61783475e-02f,-1.60805523e-01f,+1.38927817e-01f,
+1.43315136e-01f,+1.09458424e-01f,+6.04943149e-02f,+6.61123767e-02f,-1.01608373e-01f,
+3.11729282e-01f,-5.08426726e-02f,-9.25318971e-02f,-1.26266284e-02f,+4.06368868e-03f,
-2.26176102e-02f,+8.49404112e-02f,+1.01776421e-01f,-1.76710203e-01f,+1.99443147e-01f,
-2.46490669e-02f,+1.89230561e-01f,+1.05834924e-01f,+2.60167181e-01f,+1.69173077e-01f,
+1.82576910e-01f,-4.75007556e-02f,-5.22535713e-03f,-2.47128144e-01f,+1.93503752e-01f,
-9.03357863e-02f,+4.94867601e-02f,-1.49416700e-01f,+1.05252981e-01f,-5.93711622e-02f,
+1.22361943e-01f,+1.93567231e-01f,+1.88134965e-02f,+8.46630037e-02f,+1.40662640e-01f,
-2.12456379e-02f,+1.91662669e-01f,+1.42147597e-02f,-1.76318526e-01f,-2.59299055e-02f,
-4.25529294e-02f,+1.96355000e-01f,+2.53708102e-02f,-1.23424247e-01f,-1.59178853e-01f,
-8.63745436e-02f,+7.50008300e-02f,-3.37837636e-02f,+1.62920907e-01f,+3.79368477e-02f,
-1.15108127e-02f,+3.04692656e-01f,+2.10184649e-01f,-9.45551088e-04f,-6.02659434e-02f,
-3.09974477e-02f,+2.74822444e-01f,+1.01846583e-01f,+2.81115388e-03f,-9.61957872e-02f,
+1.33148551e-01f,-4.27394286e-02f,+2.63931621e-02f,+6.38053492e-02f,+6.37929887e-02f,
-1.35728613e-01f,-7.90447146e-02f,+6.70856908e-02f,+1.71343818e-01f,+9.33125168e-02f,
+1.46449894e-01f,-1.11651890e-01f,-1.82869554e-01f,+1.93965957e-01f,+1.20754540e-01f,
+4.71242368e-02f,+2.51485463e-02f,+6.66424409e-02f,-8.49854350e-02f,+2.97611132e-02f,
+2.62658447e-02f,+6.52471781e-02f,-4.18777168e-02f,-8.92546326e-02f,+1.02400616e-01f,
+2.01499090e-01f,-8.06822181e-02f,+8.83070752e-02f,-4.97366413e-02f,+4.76699844e-02f,
+2.90291876e-01f,+1.60347849e-01f,+1.87600210e-01f,-1.15108065e-01f,+2.47775447e-02f,
+7.29330555e-02f,+7.69471005e-02f,+1.23054840e-01f,+6.07620552e-02f,-1.37671605e-01f,
+7.64773712e-02f,+3.57278921e-02f,-1.17510520e-01f,+1.02030762e-01f,+2.77448893e-01f,
+1.28255710e-01f,+9.94771421e-02f,-6.30227029e-02f,+7.58507326e-02f,+5.82126565e-02f,
+2.86964532e-02f,+3.10395151e-01f,+1.10376902e-01f,+1.10684343e-01f,-4.92126569e-02f,
+7.07031637e-02f,+7.77415093e-03f,+2.56154925e-01f,+2.12561190e-01f,+2.97173619e-01f,
+1.40015617e-01f,+1.75762713e-01f,+8.69356394e-02f,-1.84868336e-01f,+2.06584204e-02f,
-2.40707800e-01f,-6.04964271e-02f,+1.66376516e-01f,-1.08630046e-01f,+6.69938326e-02f,
+1.78193282e-02f,+1.60041600e-01f,-1.49777547e-01f,+2.92009234e-01f,+4.83126566e-02f,
+2.64087647e-01f,+1.11966580e-01f,+5.45356125e-02f,-6.34411275e-02f,-7.98981041e-02f,
+1.36637753e-02f,-1.31336182e-01f,+1.17156856e-01f,-2.68726517e-02f,-3.48797925e-02f,
+3.77533734e-02f,+5.01512945e-01f,+7.91337416e-02f,+2.68335223e-01f,+9.88503080e-03f,
+4.55061831e-02f,+4.52489182e-02f,+3.35996717e-01f,+7.96639845e-02f,+1.57066062e-01f,
+1.10849373e-01f,+7.06606358e-02f,+2.07756236e-02f,+1.37211189e-01f,+1.07988276e-01f,
+1.43896595e-01f,+2.96487119e-02f,-3.12097687e-02f,+2.32632458e-02f,+2.86847670e-02f,
+1.41881127e-02f,+6.14107549e-02f,-6.87080100e-02f,+2.19148770e-01f,+6.68786541e-02f,
+3.11421812e-01f,+3.18630449e-02f,+3.26876752e-02f,+8.74142423e-02f,-1.09936617e-01f,
+2.46242806e-01f,+1.26822129e-01f,+6.26534522e-02f,+7.30850250e-02f,-2.36524623e-02f,
+3.62241827e-02f,-3.19153070e-01f,+2.76174784e-01f,+2.99934242e-02f,+1.78689975e-02f,
-2.33907681e-02f,+2.49593519e-02f,-9.25793350e-02f,+4.49621864e-02f,-1.68324858e-01f,
-1.81118950e-01f,+8.76738504e-02f,-3.82257774e-02f,-2.96743140e-02f,+9.88781527e-02f,
+1.51476622e-01f,-4.88797054e-02f,-6.54597655e-02f,+2.50338763e-01f,+1.58641383e-01f,
+1.18715214e-02f,+9.45186615e-02f,+2.93129385e-01f,-3.48391058e-03f,+2.04196349e-01f,
+4.14416892e-03f,-1.13976197e-02f,+1.26439586e-01f,+2.66191602e-01f,+2.37630174e-01f,
+9.71237421e-02f,-1.24684200e-01f,+1.21541753e-01f,+1.42868897e-02f,+3.88711542e-02f,
-6.92515373e-02f,+1.51236489e-01f,+9.73113328e-02f,+4.04637866e-02f,+9.77018774e-02f,
+2.75255293e-01f,+1.75561517e-01f,+7.44240433e-02f,+7.51987696e-02f,+1.18297264e-01f,
+9.24037844e-02f,+1.19786873e-01f,+5.27962744e-02f,+1.50804728e-01f,+7.68066570e-02f,
-5.66567853e-02f,-3.91601324e-02f,+2.72669226e-01f,+2.73969583e-02f,+1.02328725e-01f,
+1.38550043e-01f,+2.56257236e-01f,-1.02193300e-02f,-2.26836324e-01f,-1.72820613e-01f,
-1.18657984e-02f,+3.10430452e-02f,-1.86403305e-03f,+1.95963413e-01f,-1.11425333e-01f,
+2.15001591e-02f,-7.58154243e-02f,-1.11013725e-01f,-1.21359909e-02f,+2.13026345e-01f,
+9.76140201e-02f,+3.62172931e-01f,+2.49308795e-01f,+6.32873848e-02f,+1.75833091e-01f,
+1.90578215e-02f,+3.10426410e-02f,-1.04755804e-01f,+1.54547468e-01f,+2.16203153e-01f,
+6.55643865e-02f,+1.72535792e-01f,+1.10115185e-01f,-1.14678480e-01f,-1.99440375e-01f,
+1.34483576e-01f,+1.48697868e-01f,+2.05999687e-01f,+1.93232864e-01f,+3.50108415e-01f,
-2.24109739e-01f,-3.09197843e-01f,-2.03176320e-01f,+2.74231493e-01f,+4.26579595e-01f,
-1.56768784e-01f,+1.58046350e-01f,+1.35826379e-01f,+1.52202234e-01f,-3.19943130e-02f,
-6.01890497e-03f,+1.05249032e-01f,+5.27911246e-01f,+1.78776775e-02f,-2.24072084e-01f,
+2.76420534e-01f,+1.41687512e-01f,+2.70578057e-01f,+1.09489873e-01f,+4.46815640e-02f,
-1.24781439e-02f,+2.38153443e-01f,+8.97652209e-02f,+1.70412630e-01f,-8.25598165e-02f,
+6.96697161e-02f,-1.05054237e-01f,+1.17559984e-01f,+8.69162753e-02f,+2.42923856e-01f,
+1.03628851e-01f,+1.84931517e-01f,-1.17910855e-01f,+1.40073866e-01f,-9.41029713e-02f,
-5.41961454e-02f,+1.41272554e-02f,+5.15278578e-02f,-4.51024361e-02f,+2.77780741e-01f,
-4.88043427e-02f,-3.16401310e-02f,+1.59917757e-01f,+7.17269033e-02f,+1.27043761e-02f,
+1.17284283e-01f,+1.07482575e-01f,+1.19028119e-02f,-2.16570161e-02f,+4.27680388e-02f,
+8.44656080e-02f,+7.99368247e-02f,+2.39546224e-01f,+8.46591964e-02f,+1.80689514e-01f,
+8.55817795e-02f,-4.33097780e-02f,+7.06757531e-02f,-9.69306156e-02f,+6.92198724e-02f,
-3.38243693e-02f,+3.69954295e-02f,+1.49724573e-01f,+3.12149245e-02f,-7.56053627e-02f,
+3.92319597e-02f,-4.41077426e-02f,-1.75832242e-01f,+1.46512715e-02f,+2.62686551e-01f,
+4.79354933e-02f,+2.30239928e-01f,+1.18633255e-01f,+1.49071962e-02f,-5.01670316e-02f,
+1.24048531e-01f,-2.74659414e-02f,-3.28414470e-01f,+2.91960724e-02f,+7.64630549e-03f,
+3.18330228e-02f,+6.12022392e-02f,+2.93175697e-01f,+4.71933112e-02f,-3.83227430e-02f,
+3.13531250e-01f,-3.89440544e-02f,-6.85086474e-02f,+9.24588367e-02f,+6.31717518e-02f,
-8.37123245e-02f,+6.48971926e-03f,+1.56205043e-01f,-9.91113633e-02f,+1.51519209e-01f,
-4.40657921e-02f,+1.92615122e-01f,-1.16950259e-01f,-1.04662729e-02f,+1.95587620e-01f,
+1.84950586e-02f,+2.00245261e-01f,+1.22448966e-01f,-7.53551302e-03f,+4.05405238e-02f,
+3.16874295e-01f,-1.16180256e-01f,+1.92259327e-01f,+1.70595348e-01f,-1.03100955e-01f,
+3.70200276e-02f,-6.92183599e-02f,+3.21698701e-03f,-4.08335067e-02f,+4.06391732e-02f,
-1.04590602e-01f,-4.48023453e-02f,+1.11088201e-01f,+1.05094336e-01f,+1.25522643e-01f,
-1.38007462e-01f,-1.09824650e-02f,+3.88410501e-02f,+1.88358381e-01f,+2.60519888e-02f,
+2.32054651e-01f,+6.90014958e-02f,+1.05185784e-01f,+1.74885824e-01f,-5.10671996e-02f,
+9.64843705e-02f,+1.62648559e-01f,+1.28851384e-02f,+6.34384379e-02f,+2.11091220e-01f,
+1.73257545e-01f,+5.64551428e-02f,-4.02919762e-02f,-9.60978940e-02f,+8.20041895e-02f,
-9.52575803e-02f,-1.38776116e-02f,+2.51318485e-01f,-1.46932125e-01f,-9.41592501e-04f,
-4.44003269e-02f,-1.04917027e-01f,+2.72947788e-01f,+2.49250993e-01f,+7.28501305e-02f,
+4.56782132e-02f,+4.41420525e-02f,+6.08731061e-02f,+8.53427574e-02f,+8.94358829e-02f,
+1.06238566e-01f,-3.51280719e-02f,+8.80607218e-02f,+8.04104805e-02f,+8.08039680e-02f,
+6.93898425e-02f,+1.89338684e-01f,+5.54640554e-02f,+9.45992917e-02f,+2.60471731e-01f,
+1.86266914e-01f,-8.50469768e-02f,-3.75978239e-02f,+1.59052834e-01f,+3.18344921e-01f,
+1.06216213e-02f,+9.46017206e-02f,+1.32322833e-02f,+1.46236673e-01f,+7.94607922e-02f,
+2.59225070e-01f,+1.27016306e-01f,+2.77926862e-01f,+4.00188267e-02f,+1.34392291e-01f,
+2.01920822e-01f,+8.33414569e-02f,+1.79806963e-01f,+1.35115266e-01f,+1.50118738e-01f,
+9.97107774e-02f,+1.22669473e-01f,-2.70378646e-02f,+1.13699906e-01f,+1.90248236e-01f,
-2.46349752e-01f,-1.59631018e-02f,+2.18277693e-01f,-5.89396767e-02f,+4.00348864e-02f,
-1.15317553e-02f,+2.81932294e-01f,+1.63308218e-01f,+2.01034829e-01f,+3.44029590e-02f,
+1.50701880e-01f,+2.52293656e-04f,+1.27438545e-01f,-4.70399149e-02f,+6.35748506e-02f,
+9.38653946e-02f,+7.08461180e-02f,+2.74708271e-01f,-1.57509133e-01f,+5.93952015e-02f,
-8.81981999e-02f,+4.71210629e-02f,+1.58925757e-01f,+3.73998843e-02f,-3.72419469e-02f,
+1.30429655e-01f,+8.74906182e-02f,-2.51195449e-02f,+6.41397312e-02f,-1.01748437e-01f,
-1.84459444e-02f,+1.75349966e-01f,-2.71588694e-02f,+6.86612446e-03f,-7.81121403e-02f,
-9.75936055e-02f,+1.39338672e-01f,+7.93569833e-02f,+1.86701939e-01f,+3.61053622e-03f,
+1.04113184e-02f,+5.08109108e-02f,-7.06057623e-02f,+3.36589962e-01f,+4.02539931e-02f,
-3.15369889e-02f,-3.59108411e-02f,+7.54619390e-02f,+7.30674043e-02f,+2.00218603e-01f,
+1.38998374e-01f,+8.07195455e-02f,+1.15588069e-01f,+1.72982082e-01f,+1.73248604e-01f,
-3.94068286e-02f,+2.45275954e-03f,-1.06202923e-01f,-5.82415517e-03f,-2.81787328e-02f,
+4.79007177e-02f,+8.67013410e-02f,+1.58999622e-01f,+1.29763290e-01f,+2.48171166e-01f,
+1.99955422e-02f,+1.55723438e-01f,+1.60918772e-01f,-6.39720261e-02f,+3.94071974e-02f,
+2.73551255e-01f,+2.21510567e-02f,+1.30959049e-01f,+2.09358349e-01f,-5.16977534e-02f,
-4.76236232e-02f,-4.12250459e-02f,-2.95451935e-02f,-1.60585195e-02f,+2.89021462e-01f,
-6.38974756e-02f,+1.63835600e-01f,+1.29675001e-01f,-8.32443982e-02f,+2.58370358e-02f,
+9.45128053e-02f,+1.02527641e-01f,-3.25914868e-03f,+9.70407873e-02f,-8.60895775e-03f,
+2.13858560e-01f,+1.45283163e-01f,+2.63876677e-01f,-8.60404819e-02f,-6.83600828e-03f,
+4.85522486e-02f,+2.04351753e-01f,-1.58673912e-01f,-5.63258715e-02f,-9.47084092e-03f,
+3.15679044e-01f,+2.51809359e-01f,+5.46114258e-02f,+1.84852500e-02f,+2.10917369e-02f,
+1.02436036e-01f,-1.31872624e-01f,+1.33891806e-01f,+4.49821830e-01f,+1.68454662e-01f,
+1.09806336e-01f,+1.98700186e-02f,-1.91770599e-03f,+1.87279984e-01f,+8.04844573e-02f,
+5.64562753e-02f,+2.20088158e-02f,+4.30795491e-01f,-1.60714418e-01f,+4.99914996e-02f,
+2.94664562e-01f,+1.95205864e-02f,+1.32120937e-01f,-2.51831636e-02f,-2.50025392e-01f,
+2.05087692e-01f,-7.06005841e-02f,+1.40254721e-01f,+2.77770698e-01f,-6.62509259e-03f,
+1.14680566e-01f,+7.52062872e-02f,-2.01365687e-02f,+2.65499085e-01f,+2.48761743e-01f,
+2.68540472e-01f,+4.90410142e-02f,-1.18591800e-01f,+1.20241918e-01f,+6.08553141e-02f,
+1.03828184e-01f,+1.53721888e-02f,-9.42090005e-02f,+8.50912184e-02f,+7.75027722e-02f,
+8.87445658e-02f,-8.94125625e-02f,-8.56569037e-02f,+1.88279450e-02f,-4.18196470e-02f,
+5.89319691e-02f,-6.93332404e-02f,+8.60479176e-02f,+9.89305228e-02f,-1.22678317e-01f,
-2.64623258e-02f,+2.38073573e-01f,-1.84049401e-02f,-1.66488230e-01f,+2.91075766e-01f,
+1.20398797e-01f,+1.26578420e-01f,-6.72046393e-02f,-1.82668224e-03f,-6.14890754e-02f,
+1.66224942e-01f,+3.21686715e-02f,+1.78612798e-01f,-2.59806495e-02f,+1.57496203e-02f,
+2.62696147e-01f,-3.67584638e-03f,-6.36111759e-03f,-1.93113402e-01f,-9.83418617e-03f,
-1.10996261e-01f,-2.02917475e-02f,+6.70389310e-02f,+4.45780866e-02f,+4.55033332e-02f,
+1.73372969e-01f,+1.42549917e-01f,+2.58607659e-02f,+9.28636268e-02f,-1.87702358e-01f,
-4.71951291e-02f,-3.13028954e-02f,+1.74961358e-01f,+1.49768651e-01f,-2.80931182e-02f,
+3.65202129e-02f,-7.93826133e-02f,+1.22327484e-01f,+1.98384468e-03f,+1.91606492e-01f,
+6.61307424e-02f,-2.95243990e-02f,+1.37324467e-01f,-3.07487398e-02f,+5.37612997e-02f,
+2.42566451e-01f,+1.48501560e-01f,+2.26897955e-01f,+3.25680435e-01f,+1.25703678e-01f,
-8.25143829e-02f,+1.15260325e-01f,+1.74972326e-01f,+6.19638078e-02f,-2.19647408e-01f,
+6.83878502e-03f,+3.10657144e-01f,-5.94144203e-02f,+5.46787567e-02f,+8.90167132e-02f,
+1.75068695e-02f,-1.63710758e-01f,-6.92732912e-03f,+1.92270696e-01f,+1.57216728e-01f,
+5.76405078e-02f,+6.84726089e-02f,-9.03663188e-02f,+1.49569944e-01f,+8.10777023e-02f,
+3.59973013e-02f,+3.82285565e-01f,+1.15861341e-01f,+1.02096856e-01f,+2.45629385e-01f,
-8.57816637e-02f,+4.79175389e-01f,+1.89822644e-01f,+4.38775308e-02f,-1.04365960e-01f,
+8.45652595e-02f,-1.11533031e-01f,+1.38210673e-02f,+2.14093015e-01f,+1.89683482e-01f,
+8.08601454e-03f,-3.82913947e-02f,-2.06366703e-02f,-2.62271732e-01f,-1.78791538e-01f,
+3.81995797e-01f,-7.27984831e-02f,-5.87158315e-02f,+3.05662360e-02f,+7.99644068e-02f,
+1.90955043e-01f,+4.84495051e-02f,-3.94692048e-02f,-3.91012281e-02f,+6.82714656e-02f,
+4.41420972e-01f,+3.88088934e-02f,+7.94707313e-02f,+6.70569390e-02f,+2.12363258e-01f,
+3.70656257e-03f,+2.36207545e-01f,+2.34522074e-01f,-1.79185987e-01f,+3.40687968e-02f,
+1.49608836e-01f,+1.79054234e-02f,-1.10434934e-01f,+1.00612463e-02f,-3.60958837e-02f,
-9.04862881e-02f,+2.69027770e-01f,+1.04898982e-01f,+6.04115948e-02f,+7.70419510e-03f,
-4.37001288e-02f,+1.29291311e-01f,+1.50681227e-01f,-1.15639314e-01f,+1.76569358e-01f,
+1.24580696e-01f,-1.03814974e-01f,-1.70887392e-02f,-4.29035835e-02f,+2.45076567e-02f,
+2.44212061e-01f,-1.02373399e-01f,-4.69862372e-02f,+3.81925404e-02f,-6.47496507e-02f,
-2.89935134e-02f,-1.23835690e-01f,-1.00456499e-01f,-9.95386243e-02f,-5.32344393e-02f,
-2.18392566e-01f,+9.93778557e-03f,-1.91793162e-02f,-1.89821452e-01f,+9.92922038e-02f,
+3.74218047e-01f,+1.04990557e-01f,-2.61633098e-01f,+1.04981735e-01f,-5.60338385e-02f,
+2.78927445e-01f,+2.16762990e-01f,+1.08259454e-01f,+1.37760386e-01f,+3.14264074e-02f,
-8.75348225e-03f,-2.38127992e-01f,+2.05761507e-01f,+1.19212523e-01f,+1.00608133e-01f,
+1.18387617e-01f,+5.34795523e-02f,+1.64159462e-01f,+2.53274620e-01f,+1.95483863e-01f,
-1.39000461e-01f,+2.91792378e-02f,+9.25684348e-02f,+1.89136043e-01f,+1.52027637e-01f,
+6.14121668e-02f,-2.62620151e-02f,+7.24911317e-02f,-1.70874938e-01f,+6.75614998e-02f,
+6.99151903e-02f,+1.77368522e-01f,+1.11995719e-01f,-1.51570842e-01f,+5.38927913e-02f,
+1.17999449e-01f,+5.39756753e-02f,-7.60360584e-02f,+1.57267246e-02f,+9.95238498e-02f,
+5.78328483e-02f,-9.12237819e-03f,-1.66157454e-01f,+1.35774717e-01f,+4.35962193e-02f,
-1.04761347e-01f,-7.76927471e-02f,+4.87717241e-02f,+1.67343259e-01f,-9.12391988e-04f,
+1.81779191e-01f,+1.28001854e-01f,-1.27305940e-01f,+1.71887189e-01f,+9.35619846e-02f,
-4.09799367e-02f,+1.32869676e-01f,+7.60064721e-02f,+1.23462297e-01f,+3.74715328e-01f,
+1.49854571e-01f,+2.22824246e-01f,-8.42459425e-02f,-4.39904928e-02f,+1.69194996e-01f,
-3.01769115e-02f,+1.00998394e-01f,+1.19600836e-02f,+1.93206504e-01f,+2.45278731e-01f,
+1.03362240e-01f,+9.07561332e-02f,+1.51668146e-01f,+7.07860589e-02f,+1.56714872e-01f,
+2.01869175e-01f,-5.29533066e-02f,-1.29206240e-01f,-7.50503391e-02f,-7.06804320e-02f,
-1.18757710e-02f,-3.63285542e-02f,+1.75109163e-01f,+1.65039539e-01f,-5.66233099e-02f,
+1.14926718e-01f,+3.33096534e-01f,+2.65300572e-02f,+2.09514335e-01f,+1.16125189e-01f,
+8.75384435e-02f,+1.82476223e-01f,+1.06861241e-01f,+9.87683013e-02f,-2.14035511e-01f,
+1.27172664e-01f,+2.70653337e-01f,+1.28286928e-01f,-3.11694574e-03f,+7.18057230e-02f,
+1.26553327e-01f,+3.11781257e-01f,+4.25059572e-02f,-6.39608130e-02f,-3.87569964e-02f,
-1.08825907e-01f,+1.45671517e-01f,+7.46623427e-02f,+1.56452194e-01f,+1.64646842e-02f,
+3.46658006e-02f,+7.46705905e-02f,+1.71335235e-01f,+2.24325866e-01f,+4.22022343e-02f,
-7.41067752e-02f,-3.96102034e-02f,+2.30759725e-01f,+1.78429574e-01f,+7.41701424e-02f,
-1.04976647e-01f,+1.07819317e-02f,+2.29144748e-02f,-1.62324578e-01f,-1.15595698e-01f,
+8.75201523e-02f,-3.82095911e-02f,+4.93442975e-02f,+2.11485043e-01f,+2.49416366e-01f,
+4.07807268e-02f,-8.93028229e-02f,-6.66895956e-02f,+1.83828652e-01f,+1.14431441e-01f,
+2.50577442e-02f,+8.72585326e-02f,+6.36156276e-02f,+6.95276260e-02f,+4.07769866e-02f,
+3.47876027e-02f,-4.03135382e-02f,+4.68914658e-02f,-4.92430776e-02f,-2.39913557e-02f,
+5.80740906e-02f,-5.99291474e-02f,+4.18021269e-02f,+7.99468830e-02f,+1.20759226e-01f,
+1.16820306e-01f,+4.81070392e-02f,+2.71069799e-02f,+2.41020098e-02f,-6.21050186e-02f,
+7.97822401e-02f,+1.16621956e-01f,+3.08320045e-01f,+2.27703340e-03f,+4.20645252e-02f,
-1.11878123e-02f,+6.57502711e-02f,+3.19143757e-02f,+2.27238722e-02f,+1.82493225e-01f,
+1.05821103e-01f,-1.14577167e-01f,+2.07608137e-02f,-3.47808860e-02f,+1.26890093e-02f,
+1.16430178e-01f,+6.48523495e-02f,+6.89650252e-02f,+2.93573979e-02f,+2.21005768e-01f,
+8.95257294e-02f,+1.69967557e-03f,+8.39046761e-02f,+1.89392388e-01f,+8.74947570e-03f,
-2.56165296e-01f,+1.09860465e-01f,+1.83804840e-01f,+5.00240028e-02f,+4.20178734e-02f,
-1.69371367e-01f,+1.01481520e-01f,+1.11561958e-02f,+2.17519358e-01f,+1.54164970e-01f,
+1.01709954e-01f,+5.08720800e-02f,+7.52376467e-02f,-5.94117790e-02f,+3.43862809e-02f,
-5.96620850e-02f,+2.95297503e-02f,+1.38993695e-01f,+1.10131666e-01f,+7.74498060e-02f,
-3.59569341e-02f,+9.57254414e-03f,+1.63667545e-01f,+3.28184783e-01f,-4.44244035e-02f,
+1.91725865e-01f,+1.69327676e-01f,-2.03680843e-02f,+1.47682562e-01f,+1.03491195e-01f,
+2.12816402e-01f,+1.76647440e-01f,-3.94488424e-02f,-3.98253985e-02f,+1.01214208e-01f,
+1.23489693e-01f,-2.44256817e-02f,+1.50503749e-02f,-8.30373019e-02f,+7.75740966e-02f,
+1.23073325e-01f,+1.01203574e-02f,+5.56114651e-02f,+1.28864244e-01f,+3.82439350e-03f,
+3.67738865e-02f,+9.09301117e-02f,+2.40521535e-01f,+1.67882383e-01f,+6.15428612e-02f,
+1.05294056e-01f,+3.65018984e-03f,-2.70932540e-02f,+1.47741005e-01f,+4.66623493e-02f,
+2.41998658e-01f,+1.02084083e-03f,+1.09922394e-01f,+9.93798226e-02f,+1.34518035e-02f,
+3.64271641e-01f,-1.02154687e-02f,+5.77823855e-02f,+1.61567524e-01f,-2.97785047e-02f,
-5.94255552e-02f,-8.55006948e-02f,-4.77010831e-02f,+1.22579500e-01f,+2.18151119e-02f,
-1.94241598e-01f,-1.61941871e-01f,+2.45840177e-01f,+1.44706190e-01f,+1.82286054e-01f,
+1.07767738e-01f,+2.05708966e-02f,+1.62502095e-01f,+1.60312340e-01f,+1.90011531e-01f,
+1.21989243e-01f,-6.36889189e-02f,+5.23975678e-03f,+1.23884574e-01f,+1.71086732e-02f,
-5.93893193e-02f,+1.00959942e-01f,+2.41955966e-01f,+1.40550748e-01f,+3.44426520e-02f,
+2.05305979e-01f,-2.44242717e-02f,+7.98028931e-02f,+3.22560109e-02f,+9.37727019e-02f,
+1.62012473e-01f,-1.36488071e-03f,-5.74206561e-02f,+7.24800527e-02f,-2.49526933e-01f,
+2.37725407e-01f,+1.81976020e-01f,+8.08367804e-02f,+1.36179686e-01f,+1.03921108e-01f,
-4.19895388e-02f,-6.21882267e-02f,-1.12752743e-01f,+1.42783955e-01f,+2.37500593e-01f,
-3.40431333e-02f,+1.66634426e-01f,-3.31359208e-02f,+1.71766847e-01f,+1.26206502e-01f,
-2.08330140e-01f,-3.44348839e-03f,+1.22252867e-01f,+9.65854004e-02f,+7.28315413e-02f,
+1.95900664e-01f,-2.17628274e-02f,+9.42299291e-02f,-1.35802114e-02f,-1.68931305e-01f,
+2.69810438e-01f,-8.38703960e-02f,+1.38383448e-01f,-1.23902507e-01f,-3.34404320e-01f,
+1.40334815e-01f,+1.15831457e-01f,-4.52303961e-02f,+7.38636479e-02f,+1.02183789e-01f,
+7.40570799e-02f,+3.07279583e-02f,+1.89313158e-01f,+1.16221681e-01f,+8.40910822e-02f,
+6.49594292e-02f,+1.25765979e-01f,+4.21542637e-02f,-1.97751168e-02f,-6.96838424e-02f,
-8.25793669e-02f,+7.77801797e-02f,-5.63006885e-02f,-1.47419408e-01f,+1.11726627e-01f,
+3.64495784e-01f,+4.52539809e-02f,-8.24097022e-02f,+2.15893909e-02f,+2.20981196e-01f,
+2.77933210e-01f,+2.88990021e-01f,-6.45039827e-02f,-6.51482716e-02f,+2.89291143e-01f,
+1.17016442e-01f,-1.28293350e-01f,+2.27785185e-02f,+2.34305754e-01f,+7.10977614e-02f,
+1.51531130e-01f,-5.38026728e-02f,+2.16849625e-01f,-1.45693868e-01f,-1.02945287e-02f,
-1.96278095e-02f,-1.39266834e-01f,+2.52559185e-01f,+1.26361540e-02f,+2.49464586e-01f,
+9.12564024e-02f,+1.14563495e-01f,-3.10427118e-02f,+4.26993184e-02f,-3.56891789e-02f,
-4.28584255e-02f,-3.06983036e-03f,+7.32046133e-03f,-2.52500977e-02f,+4.34596799e-02f,
+8.74892808e-03f,-7.02295452e-02f,+6.01780461e-03f,+1.80290088e-01f,+1.86959192e-01f,
+8.40244666e-02f,-2.46164761e-02f,+2.05827802e-02f,-7.48911798e-02f,+1.02552518e-01f,
+1.56268165e-01f,+1.76100075e-01f,-1.66754760e-02f,+5.33238472e-03f,+5.15221059e-02f,
+4.61938716e-02f,-4.32650968e-02f,-1.60105545e-02f,+2.14487463e-01f,+6.28664792e-02f,
-1.00573406e-01f,+6.10729530e-02f,+1.04670092e-01f,-3.24294507e-03f,+4.58293222e-02f,
-1.40626132e-01f,-2.09366176e-02f,-8.55951943e-03f,-6.85083121e-02f,-1.22552730e-01f,
+1.69875603e-02f,+1.21708140e-01f,-3.34056914e-02f,+5.33233806e-02f,-1.72390401e-01f,
+1.71464123e-02f,+5.61976694e-02f,+1.69302836e-01f,+1.31084964e-01f,+6.81834966e-02f,
+1.50821507e-01f,+6.81120902e-02f,+1.67864393e-02f,+7.80489445e-02f,+1.99334174e-02f,
-6.67910324e-03f,+2.15867296e-01f,-1.10292220e-02f,+9.50165465e-02f,+3.99580273e-07f,
-5.71359619e-02f,+5.43710366e-02f,+4.28070016e-02f,+1.04584470e-01f,+8.22267979e-02f,
+1.16561644e-01f,-4.32894602e-02f,+2.71806806e-01f,-1.01047801e-02f,+7.91736040e-03f,
+1.17882349e-01f,-2.97032427e-02f,+1.89384878e-01f,+1.68636501e-01f,+2.61848003e-01f,
+1.84622541e-01f,-6.53519034e-02f,-1.07204236e-01f,-4.49599065e-02f,+1.05808377e-01f,
+5.70154414e-02f,+8.91114026e-02f,+7.91193824e-03f,+1.53224438e-01f,+1.08701885e-01f,
+4.40453775e-02f,-1.84018668e-02f,+5.72271794e-02f,+6.59485459e-02f,+1.54697672e-01f,
+6.89620078e-02f,-4.80983630e-02f,+2.06137329e-01f,-4.33152579e-02f,+1.09433658e-01f,
+1.07779078e-01f,+8.11717063e-02f,+4.04852144e-02f,+8.77749696e-02f,+1.13516003e-01f,
+1.29482165e-01f,-6.22244775e-02f,+9.98571813e-02f,+5.31688854e-02f,+1.02046430e-01f,
+8.01828802e-02f,+1.55362368e-01f,+1.97205245e-01f,-8.65695812e-03f,+1.03362933e-01f,
+5.58408424e-02f,+2.04288587e-02f,+2.08167791e-01f,+5.49758300e-02f,+7.84757957e-02f,
+1.36869565e-01f,+3.68334614e-02f,-2.33277902e-02f,+1.21320747e-01f,+8.58867913e-02f,
+1.50570914e-01f,+2.51115948e-01f,+5.33321407e-03f,+6.71916688e-03f,+1.74973935e-01f,
+1.27372310e-01f,+3.77910614e-01f,-2.48690750e-02f,-3.48237418e-02f,+2.00378761e-01f,
+8.72594342e-02f,+2.00802088e-01f,+1.16839908e-01f,-7.01623708e-02f,-1.41462032e-02f,
+5.65281473e-02f,-4.40987125e-02f,-2.17094533e-02f,+1.17149398e-01f,+6.68839887e-02f,
+5.18689714e-02f,-7.12955520e-02f,+9.34200063e-02f,+1.92131791e-02f,+1.65905043e-01f,
+8.95889699e-02f,+1.47092119e-01f,+8.23169872e-02f,+1.49958491e-01f,+4.15660255e-02f,
-3.77091281e-02f,-1.96329523e-02f,+2.56109536e-01f,+1.75384700e-01f,+1.75876588e-01f,
+1.96219161e-02f,+9.69675779e-02f,+9.18118134e-02f,+5.83426766e-02f,+5.28974598e-03f,
+1.89520210e-01f,+1.34567842e-01f,+1.13540679e-01f,+8.38595703e-02f,+4.92590405e-02f,
+7.33658373e-02f,+9.95586663e-02f,+2.80786725e-03f,+1.33505404e-01f,-1.42983511e-01f,
+8.20122734e-02f,+4.07652259e-02f,-5.35496064e-02f,+2.88151085e-01f,-6.07457571e-02f,
+2.02524997e-02f,+2.24884555e-01f,-1.48629829e-01f,-1.93747729e-02f,-7.64752552e-02f,
+1.06271632e-01f,+1.18437134e-01f,-2.43388414e-02f,-2.62411274e-02f,-1.07639462e-01f,
-2.25731488e-02f,-6.80856779e-03f,+7.34379813e-02f,-6.47152215e-02f,+4.76644710e-02f,
+1.65729269e-01f,+1.28950924e-01f,+8.24029595e-02f,+2.24275872e-01f,+5.18270954e-03f,
+3.75001691e-02f,-3.54710706e-02f,-3.63191403e-02f,+4.85865487e-04f,+2.84523338e-01f,
+8.94786119e-02f,+2.23338410e-01f,+2.77588934e-01f,+1.31320745e-01f,-9.52873379e-02f,
+2.73221079e-02f,+1.76600635e-01f,+1.90191671e-01f,+2.63959467e-02f,+2.43160576e-02f,
+4.33580503e-02f,-7.44852647e-02f,+2.08367273e-01f,+4.88471948e-02f,-3.01637203e-02f,
+9.07567888e-02f,+4.98485491e-02f,+9.45806876e-02f,+1.10511303e-01f,+2.08320484e-01f,
+2.05496714e-01f,+2.07995623e-02f,+2.07766946e-02f,-6.83530513e-03f,+1.68945879e-01f,
-6.92217201e-02f,+1.24544695e-01f,+1.00133345e-01f,+7.47822896e-02f,-5.20701446e-02f,
+1.25819802e-01f,-3.10425479e-02f,+6.79685269e-03f,-3.70598771e-02f,+1.78255081e-01f,
+1.53343484e-01f,+1.42132536e-01f,+2.05258369e-01f,+1.43465653e-01f,+7.34372810e-02f,
+9.43943039e-02f,+1.23555161e-01f,+3.95515598e-02f,+6.14781678e-02f,+1.04123913e-01f,
+1.41687140e-01f,+8.80164877e-02f,-4.71928827e-02f,+1.08362384e-01f,+5.60929812e-02f,
+5.87912500e-02f,+6.40078560e-02f,-9.65705439e-02f,+9.18546971e-03f,+2.43120432e-01f,
+2.06942245e-01f,+2.01217875e-01f,-3.15905176e-02f,+9.60018560e-02f,+1.15026392e-01f,
-5.29704541e-02f,+2.34302506e-02f,+9.70951244e-02f,-1.97129179e-04f,+1.47028267e-01f,
+2.30546638e-01f,-7.07281986e-03f,-5.04430989e-03f,+1.13349453e-01f,+6.29742295e-02f,
+3.36069278e-02f,-5.33086061e-02f,+4.75078337e-02f,-1.20141581e-02f,-6.45065904e-02f,
+5.45272194e-02f,-3.55342519e-03f,-2.80189160e-02f,-3.58942449e-02f,+1.39359564e-01f,
+8.77563581e-02f,+2.54975166e-02f,+2.20663130e-01f,+5.99952750e-02f,+1.19202770e-02f,
+2.43842393e-01f,+2.05689948e-03f,-1.86690278e-02f,+6.76555112e-02f,-7.66112283e-02f,
+5.48103228e-02f,+1.72128007e-01f,+1.27060562e-01f,+3.10108751e-01f,+6.85058609e-02f,
-6.53152540e-02f,-6.94951415e-02f,+6.00593500e-02f,+2.11667538e-01f,+1.67553369e-02f,
-1.38871577e-02f,+1.07363768e-01f,-2.15199310e-03f,+1.98254846e-02f,+5.30817360e-02f,
-1.11237049e-01f,+1.41998842e-01f,+8.51411074e-02f,+1.59443855e-01f,-6.28819913e-02f,
+2.36402247e-02f,+5.31405536e-03f,+1.82366043e-01f,-7.39069469e-03f,+1.27621323e-01f,
+6.88371137e-02f,+1.13280199e-01f,+1.22748204e-01f,+2.17293262e-01f,+3.38251330e-02f,
+1.55582011e-01f,+3.41052637e-02f,+1.38166636e-01f,-2.79680565e-02f,+1.11472018e-01f,
+2.10130692e-01f,+7.08998442e-02f,+1.30563453e-01f,+8.22680518e-02f,-7.00063631e-02f,
-1.01882778e-01f,+4.58581820e-02f,+8.82776454e-02f,+3.31089906e-02f,+1.03713475e-01f,
-1.70091942e-01f,+9.66893882e-02f,-1.81034610e-01f,-2.61674691e-02f,+9.28594768e-02f,
-3.77857126e-03f,-8.32175091e-02f,+3.75587754e-02f,+9.67711508e-02f,+9.24890712e-02f,
+1.82559833e-01f,-3.82411405e-02f,-1.01979282e-02f,-1.55123770e-01f,+1.73918493e-02f,
-2.00886671e-02f,-8.17626156e-03f,+2.24640165e-02f,+1.29919732e-03f,+1.24527030e-01f,
-6.92464039e-03f,+1.51910499e-01f,+6.06058650e-02f,-1.28309503e-01f,-1.20716915e-01f,
-3.95780057e-03f,+1.12560960e-02f,-5.48950881e-02f,-6.23844340e-02f,+2.15825409e-01f,
+1.28443986e-01f,-1.25878423e-01f,+8.10512379e-02f,-1.31681398e-01f,+2.41464064e-01f,
-1.69992432e-01f,-1.33251399e-02f,+8.89572427e-02f,+2.26578210e-02f,+1.83922984e-02f,
+4.41652536e-02f,+8.64379257e-02f,+8.04111734e-02f,+1.17745630e-01f,+7.45723546e-02f,
+1.47711754e-01f,-5.89829944e-02f,+1.54998854e-01f,+8.13973099e-02f,+1.33019447e-01f,
+1.09409049e-01f,+1.08945467e-01f,-1.93015873e-01f,-9.59271640e-02f,+7.33233094e-02f,
+1.74420133e-01f,+5.59252836e-02f,-1.34839565e-01f,+1.57406926e-01f,+3.47852744e-02f,
+8.21930692e-02f,+1.45864740e-01f,+1.96009199e-03f,-4.39864956e-03f,+9.57384408e-02f,
-5.32523170e-02f,+1.85253680e-01f,+1.08391240e-01f,+1.62660196e-01f,+6.54536337e-02f,
+2.37026680e-02f,+1.46853298e-01f,+8.14186037e-02f,+1.31136790e-01f,+9.10095125e-02f,
+8.41690451e-02f,+1.91750135e-02f,+1.05691239e-01f,+7.00647756e-02f,+1.31793439e-01f,
+4.43189684e-03f,-6.60449034e-03f,+5.67055717e-02f,+1.56605511e-03f,+4.01877649e-02f,
+1.72677219e-01f,+4.89034429e-02f,+2.23474264e-01f,-2.15710811e-02f,-1.16944432e-01f,
+4.62614261e-02f,-4.21767496e-03f,-7.62380511e-02f,+3.10970992e-02f,-2.20323540e-02f,
+1.04396328e-01f,+7.33975768e-02f,+9.06076729e-02f,+7.33852163e-02f,-2.39087224e-01f,
+1.64325107e-02f,-5.23149893e-02f,+1.76176339e-01f,-2.66610156e-03f,+1.12820670e-01f,
+8.90559405e-02f,+4.09460478e-02f,+3.15124281e-02f,+6.45199195e-02f,+6.36946782e-02f,
+4.97289039e-02f,+2.11849615e-01f,+5.54376096e-02f,-5.54128550e-02f,-1.90232582e-02f,
+4.14445281e-01f,+2.52795309e-01f,+1.03348650e-01f,+1.18725933e-01f,+1.65403858e-01f,
+8.74621719e-02f,+1.22069931e-02f,+2.27002949e-02f,+2.09126454e-02f,-5.41858450e-02f,
+4.10213955e-02f,+5.63652217e-02f,-1.04357332e-01f,+9.37113762e-02f,-9.98036657e-03f,
+1.05919383e-01f,+2.10913852e-01f,+4.12032939e-03f,-3.90059017e-02f,+2.15996340e-01f,
-8.79539922e-02f,-7.63530582e-02f,+2.58221537e-01f,-8.16541165e-02f,-1.20584279e-01f,
+7.44679198e-02f,+1.57245714e-02f,+3.07690408e-02f,-5.41772321e-03f,+1.08665623e-01f,
-7.96379298e-02f,+1.81334153e-01f,+1.81185603e-01f,+4.82720397e-02f,+1.12381488e-01f,
+9.62238386e-02f,-4.76582982e-02f,+1.40499592e-01f,+1.43905461e-01f,+1.96842119e-01f,
+1.42841926e-02f,-2.65594125e-02f,-2.01408625e-01f,-5.28499186e-02f,-6.01413921e-02f,
+1.27429767e-02f,+1.00857630e-01f,-7.30643645e-02f,+1.21343292e-01f,+1.26522720e-01f,
+3.72049510e-02f,-2.08719313e-01f,+9.89394076e-03f,+1.91343725e-01f,+5.84832812e-03f,
+1.52096540e-01f,+7.88298771e-02f,+1.86889902e-01f,-2.36585569e-02f,+1.04792818e-01f,
+3.48040089e-03f,+2.88048163e-02f,-7.56015927e-02f,-5.24629131e-02f,+6.40307739e-02f,
+5.74787632e-02f,-5.19178696e-02f,-1.27329022e-01f,+1.54956579e-01f,+1.11808024e-01f,
+1.25153363e-02f,+1.06057778e-01f,+1.51305243e-01f,-9.12172124e-02f,+2.30324447e-01f,
-1.08639166e-01f,+1.12460628e-01f,+1.26290873e-01f,-1.33787673e-02f,+7.94313326e-02f,
-1.46548569e-01f,+5.89597672e-02f,+9.02589783e-02f,-1.06530584e-01f,-1.32397097e-02f,
-4.55884039e-02f,+2.53220230e-01f,+1.67602181e-01f,+1.35716319e-01f,+1.54935867e-01f,
-1.51655786e-02f,+3.90035510e-02f,-1.71321016e-02f,+1.20594174e-01f,-1.11436203e-01f,
+2.03824919e-02f,-1.04750872e-01f,+1.26004294e-01f,+5.62568381e-02f,-9.28871408e-02f,
+2.17650592e-01f,+5.32783158e-02f,+2.35673875e-01f,+1.46045208e-01f,+1.68676898e-02f,
+1.44037351e-01f,-1.20679513e-01f,-1.14219882e-01f,+1.46259964e-01f,+1.73855618e-01f,
+8.36847275e-02f,-6.16971850e-02f,-1.66798323e-01f,-2.24284530e-02f,+1.11579500e-01f,
+8.85352194e-02f,+2.48117864e-01f,+9.15936679e-02f,-6.55232891e-02f,+9.34905633e-02f,
-2.62590535e-02f,+3.40636522e-02f,+8.32959190e-02f,+1.95429195e-02f,+5.01459986e-02f,
+1.94538474e-01f,+2.49348611e-01f,-2.70010792e-02f,+4.20692340e-02f,+1.84895664e-01f,
-5.36219217e-03f,+1.11737765e-01f,+2.19151780e-01f,+1.72024563e-01f,+1.03317469e-01f,
+2.41449624e-01f,+4.76846956e-02f,-9.33922175e-03f,+1.24232799e-01f,+1.89161733e-01f,
+6.46036193e-02f,+6.89047761e-03f,+7.81083032e-02f,-1.66423112e-01f,+9.34654251e-02f,
+8.07426050e-02f,+1.16030812e-01f,+7.18747750e-02f,-1.74021631e-01f,-3.71753946e-02f,
+7.91662186e-02f,+1.16756074e-01f,-4.19360101e-02f,+1.85384586e-01f,+7.05481842e-02f,
+6.17117845e-02f,+3.83488461e-02f,+3.11181452e-02f,+1.87100366e-01f,-4.30397838e-02f,
+3.20568472e-01f,+8.47106054e-02f,+2.80699190e-02f,-8.93439204e-02f,-9.55680832e-02f,
+5.42905070e-02f,-6.92392513e-02f,+1.72945678e-01f,+1.23902686e-01f,+1.56791322e-02f,
+1.70692086e-01f,-1.55178815e-01f,+2.97492772e-01f,+1.25190735e-01f,-2.50234045e-02f,
-8.86202604e-03f,-3.01016867e-01f,+2.52586268e-02f,+6.95337579e-02f,-1.03704417e-02f,
-3.41425568e-01f,-5.57182357e-03f,+2.47393563e-01f,+9.69490688e-03f,-6.86732493e-03f,
+7.07683042e-02f,+1.59391820e-01f,-4.69380543e-02f,+9.43167210e-02f,+1.39243640e-02f,
+1.68667376e-01f,-2.83404067e-02f,+1.26178235e-01f,+3.60680483e-02f,-1.85372010e-01f,
+5.13213575e-02f,+3.80855091e-02f,+1.31191730e-01f,+2.54959702e-01f,+2.15363517e-01f,
+3.86020690e-02f,+1.69375315e-01f,+3.37370001e-02f,+1.83559626e-01f,+5.44221774e-02f,
+8.54028463e-02f,+8.70306268e-02f,+2.85824955e-01f,+3.58352125e-01f,-1.80185750e-01f,
+1.27570048e-01f,+1.82633892e-01f,+2.78108805e-01f,+2.88716197e-01f,+1.28954157e-01f,
+3.21754634e-01f,-9.17776395e-03f,+9.60588604e-02f,+8.85393396e-02f,+2.36761212e-01f,
+1.18451938e-01f,+9.44767073e-02f,+6.83408231e-02f,+1.13407165e-01f,+2.84691840e-01f,
+4.91814576e-02f,+3.54719199e-02f,+1.63286045e-01f,+6.82468340e-02f,-1.21117663e-02f,
+1.37240306e-01f,+2.66790856e-02f,+3.10257882e-01f,+9.36613381e-02f,+1.56598017e-01f,
+1.83446765e-01f,-1.33127853e-01f,-2.80777104e-02f,-1.00020416e-01f,+1.77345634e-01f,
+2.09521353e-01f,+9.99170467e-02f,-2.13353947e-01f,+7.43527859e-02f,+3.77867550e-01f,
+5.09236865e-02f,+1.54943496e-01f,+1.89464480e-01f,+1.17637597e-01f,-1.11361466e-01f,
+5.66519834e-02f,+1.39029950e-01f,+2.72226986e-02f,+1.71826020e-01f,+2.65927818e-02f,
+1.08985908e-01f,-5.25403321e-02f,+7.25765899e-02f,+3.51830311e-02f,-1.29644975e-01f,
+2.26939395e-01f,+2.29249880e-01f,-7.96827748e-02f,+3.35456938e-01f,+6.47971183e-02f,
+1.23276860e-01f,+1.28693923e-01f,+6.76588714e-02f,-5.34830242e-02f,+9.53817666e-02f,
+1.01306356e-01f,+2.08466515e-01f,+2.81813424e-02f,-8.01675543e-02f,-2.68206894e-01f,
+9.70535725e-02f,-4.42472398e-02f,+1.37835905e-01f,+2.39620328e-01f,+1.40658841e-01f,
+5.39315976e-02f,-9.76995379e-02f,+1.27013862e-01f,-1.48494998e-02f,+1.50704235e-02f,
-3.95507105e-02f,+2.47815594e-01f,+2.32180119e-01f,-1.19154146e-02f,-3.84833217e-02f,
+8.31935406e-02f,+3.08131501e-02f,+1.87105060e-01f,-8.86550769e-02f,-3.18186134e-02f,
+1.11850128e-01f,+2.30350316e-01f,-7.07697943e-02f,-3.10325678e-02f,+2.34200180e-01f,
+2.97361940e-01f,+6.72122762e-02f,-2.09725350e-02f,+2.17983946e-02f,+1.64376929e-01f,
+9.69690830e-02f,-1.26654074e-01f,-5.73254563e-02f,+3.39446127e-01f,+1.29601419e-01f,
+5.54710440e-02f,-2.43332423e-02f,+1.22901931e-01f,+5.22114374e-02f,+1.21979058e-01f,
-1.54747218e-01f,-1.00077856e-02f,+8.87342095e-02f,-7.61425048e-02f,+8.86470675e-02f,
+1.99526083e-02f,+6.58883154e-02f,-1.86769944e-02f,+9.53572989e-02f,+2.71809489e-01f,
-6.04191646e-02f,+1.26748413e-01f,+2.47209132e-01f,+7.16702789e-02f,+2.77645588e-01f,
+9.36872065e-02f,+1.48902148e-01f,+2.08047271e-01f,+3.02710924e-02f,-1.55269615e-02f,
+1.10379845e-01f,+2.01121736e-02f,+2.08208874e-01f,+7.57235959e-02f,-1.85473576e-01f,
+2.00493500e-01f,-8.91262293e-02f,+1.21399336e-01f,-1.05694279e-01f,+5.33957072e-02f,
+1.36566862e-01f,-2.00414681e-03f,+1.14774659e-01f,+1.39618427e-01f,+9.96162146e-02f,
+1.89389437e-01f,+7.16425665e-03f,-2.69519761e-02f,+8.75188410e-02f,+1.81794271e-01f,
-1.99889764e-02f,+3.07289928e-01f,-4.29442488e-02f,+1.19594909e-01f,-5.66988774e-02f,
+8.01416561e-02f,+7.13461041e-02f,+7.73823559e-02f,+3.51830311e-02f,+3.16738069e-01f,
+2.56938301e-02f,+1.26609756e-02f,+2.99629048e-02f,+1.25100091e-01f,+2.29463086e-01f,
-3.62566747e-02f,-1.97176412e-02f,-5.48049547e-02f,-3.75200994e-02f,-2.41123438e-01f,
+5.18568307e-02f,-3.39549920e-03f,+7.48309586e-03f,+1.42519653e-01f,-7.05279261e-02f,
+8.80501419e-02f,-1.46952540e-01f,+2.38606542e-01f,+1.01914905e-01f,+9.94248390e-02f,
-2.58919373e-02f,+5.80283925e-02f,+1.92334250e-01f,+3.70932929e-02f,+7.78071657e-02f,
+1.37202561e-01f,+2.84579515e-01f,+2.00884249e-02f,+9.43521112e-02f,+1.56499669e-01f,
+2.03896567e-01f,+7.09684715e-02f,-6.04253821e-02f,+9.08312276e-02f,-2.19808459e-01f,
+1.71215788e-01f,+2.89733037e-02f,+7.74823204e-02f,+1.82556044e-02f,+1.71908125e-01f,
+7.70044923e-02f,+1.02282815e-01f,+7.19856098e-02f,+6.40841573e-02f,+2.44204789e-01f,
+4.75969911e-02f,+1.82886392e-01f,+9.01434943e-02f,-1.76241435e-02f,-1.48268919e-02f,
+1.25751913e-01f,+2.89941669e-01f,+8.76934156e-02f,+1.43261164e-01f,+6.91569299e-02f,
+6.63833842e-02f,-1.27941579e-01f,-1.24234417e-02f,-7.05139991e-03f,-4.04212475e-02f,
+1.47889733e-01f,+8.47155228e-03f,+1.59679893e-02f,+1.96174726e-01f,-3.08937430e-02f,
-9.46930572e-02f,-1.95972517e-01f,+4.36420664e-02f,-6.41739508e-03f,-1.31050438e-01f,
-1.10303044e-01f,+1.36696249e-01f,+7.28096738e-02f,-1.10861575e-02f,+1.02206342e-01f,
-6.21070676e-02f,+1.60201877e-01f,+6.22878671e-02f,+7.42326900e-02f,+2.37682760e-01f,
+4.87742908e-02f,+2.23451212e-01f,-1.07667796e-01f,+1.64897963e-01f,+1.55641407e-01f,
+1.05481744e-01f,+1.60540476e-01f,+1.85662448e-01f,+7.89899155e-02f,+2.00788453e-01f,
+2.60924637e-01f,-6.24059588e-02f,+2.46536657e-02f,+2.41689608e-01f,+1.69991195e-01f,
-2.57879477e-02f,+1.73217133e-01f,-2.19645072e-02f,-2.65109558e-02f,-2.35590171e-02f,
+3.02594509e-02f,+1.69344217e-01f,+3.18318129e-01f,+1.11124553e-01f,+8.78637061e-02f,
+1.25342011e-01f,+2.66962290e-01f,+1.58625260e-01f,-1.73463803e-02f,+1.61844753e-02f,
+8.96636844e-02f,+2.48194247e-01f,-7.18723610e-02f,+3.18068832e-01f,+3.88846286e-02f,
+6.60075843e-02f,+3.44994485e-01f,-4.46195081e-02f,+4.95565608e-02f,-1.18753113e-01f,
+2.08406731e-01f,-1.64956518e-03f,+3.71896997e-02f,-2.00731263e-01f,+4.12546657e-02f,
+1.32011843e-03f,+1.28323019e-01f,-4.99921553e-02f,+1.99052975e-01f,+1.05590992e-01f,
-4.04128544e-02f,+3.62452269e-02f,+1.18223429e-01f,+2.62175500e-01f,-4.65926789e-02f,
-7.44394958e-02f,+1.96581542e-01f,-6.43389225e-02f,+6.44973367e-02f,+2.55547285e-01f,
+6.66406527e-02f,+1.15404867e-01f,+3.01157143e-02f,+2.82792479e-01f,+1.63138062e-01f,
+7.89991468e-02f,+9.65843871e-02f,-2.35724133e-02f,-4.10991348e-02f,+2.66570151e-01f,
+1.76158682e-01f,+4.37412746e-02f,-7.75076523e-02f,+1.10822976e-01f,-1.10490009e-01f,
+1.75087273e-01f,+5.73308533e-03f,+1.65815264e-01f,+2.26306960e-01f,+5.62737025e-02f,
+4.08009179e-02f,-2.07456753e-01f,-1.32625744e-01f,+4.28704470e-02f,-9.34886411e-02f,
+9.24025029e-02f,-1.41365603e-01f,+1.70803621e-01f,-2.06884935e-01f,+2.41254419e-01f,
-2.14298844e-01f,-6.29184395e-02f,+7.34209968e-03f,+4.15069871e-02f,-1.15877211e-01f,
+5.51634701e-03f,+1.93613008e-01f,+2.06980318e-01f,-2.71722246e-02f,+1.12282261e-01f,
-2.94206198e-03f,+1.33619700e-02f,-7.09774494e-02f,-1.61112949e-01f,-2.10397281e-02f,
-6.50777994e-03f,+2.47764915e-01f,+9.88076851e-02f,+9.12571400e-02f,+8.90906230e-02f,
-1.54703915e-01f,+7.71093071e-02f,-3.43144871e-02f,+2.16849208e-01f,+1.04872130e-01f,
+6.79509714e-02f,-3.70476916e-02f,+3.88586037e-02f,+7.06726918e-04f,-1.13645904e-01f,
+9.91178751e-02f,+1.82233334e-01f,+7.50665218e-02f,-1.80054680e-02f,+1.78289846e-01f,
-1.56842604e-01f,+4.38059866e-02f,-3.04306690e-02f,+3.07812588e-03f,+2.02100500e-01f,
+2.93095380e-01f,+2.53504276e-01f,-1.01390416e-02f,-9.80179682e-02f,+1.15829885e-01f,
+1.79188535e-01f,+9.45378654e-03f,+1.12883061e-01f,+6.70950338e-02f,+1.53398454e-01f,
-1.23252399e-01f,+2.05411613e-01f,+2.21269339e-01f,-5.07101566e-02f,+1.39114663e-01f,
-1.67048071e-02f,-3.40478644e-02f,+2.51148522e-01f,-1.42538279e-01f,+1.76171303e-01f,
+1.10965952e-01f,-1.49882972e-01f,+1.74102530e-01f,-1.65337518e-01f,+2.12692648e-01f,
+7.06271157e-02f,+2.36703455e-01f,+1.73972711e-01f,+1.73081160e-01f,+1.16581231e-01f,
+3.91956829e-02f,-4.68384624e-02f,-4.41426933e-02f,-5.19926548e-02f,+8.47561136e-02f,
+1.81094185e-02f,+5.23101315e-02f,+1.69936404e-01f,+1.25008240e-01f,+4.98989336e-02f,
+1.65930986e-01f,+1.53508201e-01f,+2.23464161e-01f,+1.77208200e-01f,+1.58569992e-01f,
+1.75070584e-01f,+8.37168545e-02f,-1.72389209e-01f,+4.76302624e-01f,-1.13678416e-02f,
-7.25718960e-02f,+1.24593206e-01f,+5.34471981e-02f,+1.66071400e-01f,+3.73094380e-02f,
-2.52552748e-01f,+1.79489478e-01f,+2.62112230e-01f,-4.49708961e-02f,+6.68381751e-02f,
+9.88802910e-02f,+2.15085566e-01f,-8.47759843e-02f,+1.10761508e-01f,-2.61332273e-01f,
+6.08943701e-02f,+4.33441550e-02f,+1.90814525e-01f,+6.46435395e-02f,-1.12173349e-01f,
-1.59809694e-01f,+1.06676452e-01f,+1.89437866e-01f,-5.68490010e-03f,+1.13764860e-01f,
+2.67454445e-01f,+6.66757226e-02f,-8.86765271e-02f,-4.81839627e-02f,+1.40141606e-01f,
-4.66422662e-02f,+4.31617163e-02f,-1.68939352e-01f,-1.12243168e-01f,+1.75452054e-01f,
-3.74775082e-02f,-7.77374655e-02f,+6.35773782e-03f,+2.24780127e-01f,-5.03805019e-02f,
+2.67332606e-02f,+1.75687447e-02f,-4.69533950e-02f,+6.41437322e-02f,-1.11316055e-01f,
+1.35601893e-01f,+1.24010496e-01f,-9.06509832e-02f,-9.76719111e-02f,+7.21909553e-02f,
+1.27118342e-02f,+8.41798484e-02f,+2.89273579e-02f,-7.11059794e-02f,+9.10612121e-02f,
+9.46831016e-04f,+1.36840984e-01f,+3.59144025e-02f,+8.40419158e-02f,+2.46125143e-02f,
+8.03216845e-02f,+6.48836121e-02f,+5.19006401e-02f,-4.01686877e-01f,+5.82905337e-02f,
-1.37246743e-01f,-1.99621379e-01f,+1.09394863e-01f,+1.13247581e-01f,+5.63105643e-02f,
+7.99672082e-02f,+1.48985386e-01f,+7.26867467e-02f,+1.09029107e-01f,+9.28891525e-02f,
-2.20196649e-01f,-7.54994899e-02f,+1.83940269e-02f,-9.26937442e-03f,-7.70266876e-02f,
+1.34338751e-01f,-3.83720137e-02f,+2.66617626e-01f,-2.82486510e-02f,+8.14262182e-02f,
+2.20190272e-01f,+2.23556682e-01f,+1.15037210e-01f,+1.81500271e-01f,+1.59741834e-01f,
+8.95528793e-02f,+1.68142706e-01f,+1.68151841e-01f,-1.27555087e-01f,+1.14167385e-01f,
-1.01714037e-01f,-3.27083692e-02f,+1.14179343e-01f,+1.39492899e-01f,-6.89742761e-03f,
+5.86516410e-02f,+9.51105952e-02f,+1.75191969e-01f,+3.90415862e-02f,+2.69533899e-02f,
+2.11838111e-01f,-4.77038696e-02f,+6.41809404e-02f,-1.30238198e-02f,+4.06902909e-01f,
+1.17019657e-02f,-2.64930278e-02f,-1.25433043e-01f,-1.02451611e-02f,+5.95783331e-02f,
-2.70508751e-02f,+4.03393626e-01f,+1.95002601e-01f,+7.95727149e-02f,+1.18635215e-01f,
-1.88570991e-02f,+4.64524060e-01f,+2.82374546e-02f,+1.14197277e-01f,+1.10200435e-01f,
+3.47817779e-01f,+1.53695345e-02f,-2.55180180e-01f,-3.46905887e-02f,-1.33657038e-01f,
+2.29976222e-01f,+1.61110356e-01f,+1.28149107e-01f,+1.70399398e-01f,-2.07482412e-01f,
+1.22162476e-01f,+1.27703935e-01f,+2.18256801e-01f,+1.62541166e-01f,+1.00714035e-01f,
+2.85151660e-01f,+1.17731906e-01f,+4.51836213e-02f,+1.62544078e-03f,+1.19242430e-01f,
+1.38907433e-01f,+6.34027412e-03f,+7.56255351e-03f,+5.68730086e-02f,+1.20216452e-01f,
-1.31727534e-03f,+6.80453926e-02f,-9.73085128e-03f,+3.71597670e-02f,-3.64386514e-02f,
+5.67229390e-02f,+3.37601453e-01f,-1.05249867e-01f,+8.97518471e-02f,-1.38285020e-02f,
+1.91424266e-02f,-2.45567903e-01f,-1.87245421e-02f,-1.62879065e-01f,+1.52991578e-01f,
+7.30836242e-02f,-6.73562512e-02f,+1.29998952e-01f,-6.18894883e-02f,+1.70202136e-01f,
+2.84303099e-01f,-1.85120836e-01f,-2.27076914e-02f,+1.63817734e-01f,+1.53700605e-01f,
-7.00852871e-02f,+1.14742406e-02f,-8.06237310e-02f,+4.77481000e-02f,+2.20727008e-02f,
+2.80033387e-02f,+1.12455688e-01f,+1.27918661e-01f,-1.32653210e-02f,+9.80347767e-03f,
-5.29708937e-02f,-1.42455369e-01f,-7.28843063e-02f,+1.46056432e-02f,-9.78060216e-02f,
+1.53884649e-01f,+3.04796286e-02f,-6.25047013e-02f,-1.65834099e-01f,-3.20724919e-02f,
+1.16614789e-01f,+6.70489445e-02f,+9.23883170e-02f,+4.48445193e-02f,-5.58853485e-02f,
-2.29150727e-02f,+2.57894069e-01f,-4.70337411e-03f,-1.93123460e-01f,+4.30624299e-02f,
+2.63469845e-01f,+8.51751715e-02f,+1.04190364e-01f,+2.51526862e-01f,+6.23155273e-02f,
+5.74175082e-02f,+1.15835899e-02f,+1.50671512e-01f,+1.48469564e-02f,-5.14493771e-02f,
+9.91248339e-02f,+1.15104668e-01f,+4.07766886e-02f,+8.89210775e-02f,+6.09843992e-02f,
-1.12832515e-02f,+1.18199579e-01f,+6.43080175e-02f,+5.09767085e-02f,+8.87364447e-02f,
+8.08024779e-02f,-3.56437229e-02f,+1.66877359e-01f,+7.73777738e-02f,-2.53466535e-02f,
-1.44274428e-01f,-9.55200791e-02f,+3.62430438e-02f,-6.31177053e-02f,+8.47424865e-02f,
+1.27518535e-01f,+5.01227230e-02f,-5.15932851e-02f,+1.11454166e-01f,+6.75959438e-02f,
+3.56325954e-02f,-1.61857903e-01f,-6.17997758e-02f,+2.77721994e-02f,+1.79692000e-01f,
-2.03496404e-02f,-3.42214964e-02f,+1.03238799e-01f,+1.03516333e-01f,-3.36405262e-02f,
+2.43457742e-02f,+9.43336561e-02f,+5.92706650e-02f,-5.98196201e-02f,+3.79708782e-02f,
+8.61440450e-02f,+1.35226041e-01f,-1.39713109e-01f,+9.79188010e-02f,-4.14501838e-02f,
-8.49289671e-02f,+1.01538137e-01f,-6.56005591e-02f,-2.11967621e-02f,+1.54792324e-01f,
+3.11776161e-01f,-1.06379405e-01f,-1.76326260e-02f,+1.13665834e-01f,+2.98991054e-01f,
+1.35747641e-01f,+1.71647698e-01f,-3.79772484e-02f,-1.74264371e-01f,+9.52584520e-02f,
-1.05391387e-02f,-1.11894913e-01f,+1.05346680e-01f,-1.34847701e-01f,-1.33130595e-01f,
+8.77038315e-02f,+7.03684390e-02f,+1.26982212e-01f,+2.05853079e-02f,+8.71229246e-02f,
-1.96527708e-02f,+1.24129452e-01f,+6.49762005e-02f,-9.80108529e-02f,+2.09412083e-01f,
+5.50250597e-02f,+9.29378644e-02f,+7.47076869e-02f,+7.23852869e-03f,-5.64619564e-02f,
+1.41010225e-01f,+2.93100602e-03f,+3.23242433e-02f,+2.27444805e-02f,-6.64507644e-03f,
+1.38832301e-01f,+9.43524167e-02f,+9.82635468e-02f,+2.02907130e-01f,-1.23886809e-01f,
+1.77155122e-01f,-1.00899555e-01f,+6.77195862e-02f,-3.03680543e-02f,+1.64434761e-01f,
+8.21922943e-02f,+8.84071440e-02f,-1.22131824e-01f,+6.59781620e-02f,-2.41976991e-01f,
+3.17436265e-04f,+1.44809842e-01f,+1.89228743e-01f,-2.71863099e-02f,-6.57499358e-02f,
+5.80949076e-02f,+1.33766815e-01f,-1.31189436e-01f,+7.59899169e-02f,+1.15641363e-01f,
+9.10085589e-02f,+3.05525828e-02f,-3.86953801e-02f,+1.69135109e-01f,-7.53300786e-02f,
-6.12512976e-02f,-7.14326650e-02f,+1.71713799e-01f,+1.16735354e-01f,+3.21948916e-01f,
+1.03929743e-01f,+1.23899586e-01f,-4.98304367e-02f,+3.12918052e-02f,+9.89193171e-02f,
+4.39165272e-02f,+8.12323168e-02f,+8.89669582e-02f,+5.73551357e-02f,-1.04261778e-01f,
+2.62716389e-03f,+6.63151518e-02f,+1.45249546e-01f,+1.39961034e-01f,+6.95949569e-02f,
+2.12002799e-01f,+5.12373969e-02f,+1.33645907e-01f,+2.02903479e-01f,+1.03028409e-01f,
+6.37556380e-03f,+1.17592916e-01f,-2.47176439e-02f,+7.18123615e-02f,-6.94010630e-02f,
+1.26914233e-02f,+1.73568666e-01f,-1.72004551e-02f,+1.42339796e-01f,+3.62924673e-02f,
+2.69400328e-02f,+6.87734708e-02f,+4.64944318e-02f,+1.22662008e-01f,+1.73583239e-01f,
-6.58663362e-02f,+1.09842956e-01f,+2.07516000e-01f,-4.16154154e-02f,+4.34407592e-02f,
+1.57911722e-02f,+7.52558932e-02f,+2.48025060e-02f,+4.61768843e-02f,+1.02268472e-01f,
+4.59594540e-02f,-6.64898055e-03f,+2.06494421e-01f,+1.24857388e-01f,+7.35469908e-03f,
-5.62179796e-02f,+2.50932008e-01f,+3.31263930e-01f,+1.15780942e-01f,+1.78955019e-01f,
+2.71762222e-01f,+4.68017533e-02f,+3.24965864e-01f,+2.09555894e-01f,-3.44280340e-02f,
-4.78899330e-02f,+1.21376388e-01f,+6.25875145e-02f,+2.03343600e-01f,+2.87150815e-02f,
+1.88054979e-01f,+3.18912975e-02f,+1.19267561e-01f,+1.17377110e-01f,-6.07519038e-02f,
+7.31710121e-02f,+2.34894194e-02f,+1.54965848e-01f,+2.18491480e-01f,-9.35022160e-03f,
-2.06659973e-01f,+1.22532539e-01f,+6.98207319e-02f,+2.73497659e-03f,-4.85840440e-02f,
-4.01344933e-02f,+5.48331961e-02f,-1.51526406e-01f,+1.40787616e-01f,+1.94864914e-01f,
-4.51835990e-03f,+4.06884961e-02f,+7.23848715e-02f,+2.20659614e-01f,+4.20294516e-02f,
+1.05680019e-01f,-8.49529111e-04f,+1.69983402e-01f,+1.01686262e-01f,-4.56817895e-02f,
+2.01958045e-01f,-5.99379800e-02f,+1.11140810e-01f,-5.06078824e-02f,+1.74684147e-03f,
-1.39049795e-02f,+3.57970670e-02f,+7.53467679e-02f,+2.79862583e-02f,+3.03828921e-02f,
-9.90718417e-03f,+7.18226358e-02f,-1.98940746e-02f,-4.31574918e-02f,-1.06092185e-01f,
-2.32271269e-01f,-1.10276647e-01f,-1.31686166e-01f,+1.63113222e-01f,+1.64086476e-01f,
+2.51045406e-01f,+1.11758769e-01f,+1.84661865e-01f,+2.20753849e-02f,-9.28758085e-02f,
+6.74051046e-02f,-3.15895118e-03f,+2.17674002e-01f,+2.07149029e-01f,+1.55220732e-01f,
+2.32573375e-01f,+7.99260214e-02f,-2.23687515e-02f,-4.36390154e-02f,+9.36933681e-02f,
+5.35299145e-02f,+5.71789183e-02f,+2.30569482e-01f,-1.01518258e-03f,-4.85735424e-02f,
-7.25945160e-02f,+3.71405371e-02f,+1.71742022e-01f,-3.99848484e-02f,-1.24359407e-01f,
+1.79356933e-01f,-9.30029824e-02f,+1.49083465e-01f,+1.11706771e-01f,+3.55756171e-02f,
+6.65428042e-02f,+1.24559596e-01f,+2.38606408e-01f,+3.53641137e-02f,+2.61736304e-01f,
+1.10864207e-01f,+1.67469800e-01f,+8.78219008e-02f,-2.06032991e-02f,+1.34797409e-01f,
+9.10877511e-02f,+1.09879889e-01f,+2.12238207e-01f,+4.54006940e-02f,+1.29522443e-01f,
-2.86377203e-02f,+3.82017456e-02f,+1.23711817e-01f,+7.26622418e-02f,+6.39550313e-02f,
-8.95335618e-03f,+8.35746080e-02f,+1.36030957e-01f,+1.49403974e-01f,+9.07840803e-02f,
+9.53830685e-03f,+5.08879609e-02f,+2.89937644e-03f,+1.96681753e-01f,+1.85753420e-01f,
+1.85499433e-02f,+1.70522444e-02f,+1.60761520e-01f,+3.68220992e-02f,+1.17751315e-01f,
+5.32991427e-04f,+2.55294263e-01f,+1.67801633e-01f,+7.65165314e-02f,-2.95039229e-02f,
-8.46922174e-02f,-8.76371041e-02f,-4.37366441e-02f,+3.89895476e-02f,+3.17596719e-02f,
+3.17645401e-01f,+1.02364317e-01f,+8.42132345e-02f,-9.12623107e-02f,+1.91396117e-01f,
+1.58966444e-02f,-1.41784355e-01f,-9.59026255e-03f,+1.68066353e-01f,-2.80538108e-03f,
-1.22070489e-02f,+2.51314938e-01f,+2.73659796e-01f,+1.97552577e-01f,+5.87545149e-02f,
+1.78952308e-04f,+1.08132340e-01f,+6.66424334e-02f,-7.73878302e-03f,-3.14587280e-02f,
-1.46739751e-01f,+1.44696921e-01f,+1.06365867e-02f,+8.00725892e-02f,-1.01683356e-01f,
+1.38408750e-01f,+1.58253267e-01f,+5.64392023e-02f,-1.15246378e-01f,-1.00483991e-01f,
-2.52550710e-02f,+3.24216001e-02f,-1.79021433e-02f,+6.94379658e-02f,-9.95068997e-02f,
+1.55739356e-02f,+4.93592061e-02f,-1.61720980e-02f,+5.20161651e-02f,-3.67856249e-02f,
+8.53403658e-03f,-6.14888482e-02f,+5.36989644e-02f,+2.08773822e-01f,+5.00609539e-02f,
-2.96765156e-02f,+3.65502611e-02f,+1.38067409e-01f,+2.36706123e-01f,-5.82126826e-02f,
-6.49351403e-02f,+9.53415781e-02f,+5.17972894e-02f,+1.06956594e-01f,+1.49638057e-01f,
+1.33507073e-01f,+1.11227788e-01f,+1.20935524e-02f,+1.66383743e-01f,+2.47890890e-01f,
+4.99641635e-02f,+5.23667261e-02f,-4.88291793e-02f,-3.23607475e-02f,+1.10550359e-01f,
-1.65859148e-01f,+4.08719629e-02f,+8.18158835e-02f,+6.43272176e-02f,-6.59848973e-02f,
+1.94981545e-02f,-1.01267286e-02f,-9.93921235e-02f,+1.26782373e-01f,+5.50320596e-02f,
+1.49576738e-01f,+7.04204589e-02f,-2.75943391e-02f,+6.64971098e-02f,-4.85915765e-02f,
-1.15054235e-01f,-3.06977667e-02f,+5.47228148e-03f,+1.04098402e-01f,+2.67849654e-01f,
+1.15820572e-01f,+2.00821549e-01f,-1.38059899e-01f,+8.94253422e-03f,+2.32988242e-02f,
+2.65245825e-01f,-3.47102657e-02f,+1.15937978e-01f,+3.67117301e-02f,+5.93289733e-02f,
+1.74204037e-01f,+2.09747344e-01f,+1.26024187e-01f,-7.14747310e-02f,+2.20060304e-01f,
-5.54398336e-02f,+8.53247717e-02f,+2.07624540e-01f,+1.80026874e-01f,+8.90631229e-02f,
-7.99051076e-02f,-3.05199083e-02f,+2.81985346e-02f,+3.78123596e-02f,+4.33179401e-02f,
+2.45360788e-02f,+9.81504694e-02f,+6.28809780e-02f,-5.69065707e-03f,+1.41648464e-02f,
+1.23463638e-01f,+1.81185659e-02f,+5.52719198e-02f,+2.19377264e-01f,+6.74933568e-02f,
+1.23712033e-01f,+7.79199451e-02f,-2.23704297e-02f,+1.76103905e-01f,+1.02444835e-01f,
+8.62775669e-02f,-6.30972534e-02f,+2.10452333e-01f,+1.01362623e-01f,-5.44082336e-02f,
+2.64190622e-02f,+9.37718898e-02f,+1.08249143e-01f,+4.82245423e-02f,+1.34000540e-01f,
+1.51325300e-01f,+1.38582453e-01f,-2.46081427e-02f,+7.41495937e-02f,+1.30121633e-02f,
+2.73648471e-01f,+5.24079688e-02f,+6.23928457e-02f,+1.19934208e-03f,+1.06875658e-01f,
+1.30560130e-01f,+1.54263973e-01f,+2.28069216e-01f,+7.14031085e-02f,+4.85167019e-02f,
+3.20942737e-02f,+1.18342526e-01f,+4.63495217e-02f,+5.79697080e-03f,-1.82368644e-02f,
-8.56867358e-02f,+9.70242023e-02f,+1.62424743e-01f,-1.06117576e-02f,-7.14732483e-02f,
+1.58755295e-02f,+5.67527562e-02f,+4.29126360e-02f,+2.20404230e-02f,-9.08387359e-03f,
+1.02408499e-01f,+1.31301224e-01f,-8.72104615e-02f,+6.55885488e-02f,+1.12864539e-01f,
+5.27423322e-02f,+3.70078608e-02f,+2.98753530e-02f,+8.53966735e-03f,+2.14823201e-01f,
+1.46615371e-01f,+3.03053316e-02f,+1.00431964e-01f,+7.40306452e-02f,+8.39799419e-02f,
-1.10295303e-01f,+6.24492839e-02f,+1.53236017e-01f,+3.14487293e-02f,+4.82286327e-02f,
+1.21740475e-01f,-4.00503278e-02f,+1.06590644e-01f,-8.71443972e-02f,-9.63836536e-02f,
+6.82085380e-03f,+1.65113255e-01f,+1.59827471e-01f,+2.31722057e-01f,-1.34095207e-01f,
+2.16101915e-01f,+1.31861672e-01f,+3.66908424e-02f,+2.06673015e-02f,+1.12323567e-01f,
+9.98903364e-02f,-5.00484072e-02f,-9.82883126e-02f,+1.13209616e-02f,-5.19947149e-02f,
+1.15500011e-01f,+1.25004664e-01f,+3.10426712e-01f,-1.10601380e-01f,-2.96537638e-01f,
+5.15862145e-02f,+4.63711061e-02f,-1.01531409e-01f,+7.31906816e-02f,-5.89793660e-02f,
+1.57082587e-01f,-2.91339727e-03f,+1.81954980e-01f,+1.32694304e-01f,+1.62901267e-01f,
+9.51377004e-02f,+3.30339223e-01f,+5.67940548e-02f,+4.19608280e-02f,+2.24320292e-01f,
-6.27228245e-02f,+1.84719309e-01f,-1.43836262e-02f,+2.53470074e-02f,+3.15165520e-02f,
-1.04617756e-02f,+3.78527865e-02f,+9.87410545e-02f,+2.70615015e-02f,-7.64771476e-02f,
+5.96236251e-02f,+2.02204719e-01f,+8.71876776e-02f,+2.20279936e-02f,+2.52825934e-02f,
+5.84965535e-02f,+8.65627006e-02f,+1.74703047e-01f,+1.13144666e-01f,+5.94782047e-02f,
+5.33283316e-02f,+8.40012822e-03f,+3.72100845e-02f,+2.26728261e-01f,-2.74636634e-02f,
-2.89837182e-01f,+8.83514285e-02f,+1.42321335e-02f,+1.96457818e-01f,+1.76392168e-01f,
+1.55635715e-01f,+1.11202076e-02f,+1.44833967e-01f,+2.24098742e-01f,-2.75918609e-03f,
+1.76623821e-01f,+9.57514718e-02f,-3.63108516e-02f,-4.86352742e-02f,+1.20481424e-01f,
-5.34172654e-02f,-1.12628788e-01f,+5.20077348e-03f,-1.64688483e-03f,+3.11768036e-02f,
+6.88002352e-03f,-3.12348120e-02f,-5.67843113e-03f,+6.74597993e-02f,+6.38208236e-04f,
-1.77241899e-02f,-2.11151689e-02f,-5.97832911e-02f,+2.48562783e-01f,+7.07720988e-04f,
-8.86980444e-02f,+1.52535722e-01f,+4.93807159e-02f,+6.89070299e-02f,+4.56087589e-02f,
+4.18912210e-02f,-5.91939837e-02f,-4.96850088e-02f,-1.39754340e-01f,+2.16206938e-01f,
+1.46320071e-02f,+8.69555771e-02f,-3.66817638e-02f,-5.07562459e-02f,-4.79302965e-02f,
+1.64122567e-01f,+4.35362384e-02f,+8.92157853e-02f,+2.07295999e-01f,+1.35171607e-01f,
-2.49073673e-02f,-1.01236150e-01f,-7.71135511e-03f,+6.76529855e-02f,-2.06529964e-02f,
+1.23498991e-01f,-4.42767777e-02f,+3.29975672e-02f,+8.50105211e-02f,-1.11539438e-01f,
+1.10614456e-01f,+8.58085528e-02f,+1.28101349e-01f,+1.59509838e-01f,+2.87209209e-02f,
+6.34672418e-02f,-4.03734259e-02f,-7.97450915e-02f,+1.22679085e-01f,+1.35004535e-01f,
-1.73920933e-02f,+8.60634446e-02f,+2.45631889e-01f,+6.92023337e-02f,+1.25466526e-01f,
+1.83795959e-01f,+1.01461774e-02f,+2.26333668e-03f,+1.13501944e-01f,+1.03836216e-01f,
-8.68527070e-02f,-5.63159995e-02f,+2.91496545e-01f,+2.63180006e-02f,+3.57081485e-03f,
+2.51125723e-01f,+9.79367048e-02f,+1.14281289e-02f,-1.18194811e-01f,+1.48117855e-01f,
+1.76095068e-01f,+6.33122846e-02f,-5.52782044e-02f,+7.20193312e-02f,-1.18973479e-01f,
+1.92141280e-01f,-4.80196774e-02f,+1.79027885e-01f,+6.72438964e-02f,+2.25237757e-01f,
-1.16898365e-01f,+9.68662947e-02f,+3.19234505e-02f,+1.38027534e-01f,+5.16341366e-02f,
-1.15527131e-01f,+2.50962432e-02f,+6.89703822e-02f,+9.05757323e-02f,+2.07848977e-02f,
+2.35013366e-02f,+1.61387011e-01f,-1.09331487e-02f,+1.76423565e-01f,+2.00259998e-01f,
+1.37348935e-01f,+3.98307741e-02f,+7.37126619e-02f,+1.08137287e-01f,+5.95270954e-02f,
+2.71631461e-02f,+3.88742425e-02f,-3.61213721e-02f,-5.36578484e-02f,+2.19524920e-01f,
+5.04479781e-02f,+9.09985974e-02f,+1.42144457e-01f,-4.60242406e-02f,-1.37209132e-01f,
-7.62863532e-02f,+2.19568759e-01f,-6.18619611e-03f,-1.41044036e-02f,+2.04465017e-01f,
+1.61615778e-02f,+1.61894754e-01f,+1.76353484e-01f,+7.52367228e-02f,+1.88788354e-01f,
+1.27407864e-01f,+6.30562603e-02f,-5.27577521e-03f,+1.84238087e-02f,-4.37281430e-02f,
+1.24912135e-01f,+2.15206325e-01f,-6.82337508e-02f,+6.18831590e-02f,+6.51197061e-02f,
+7.87314475e-02f,+3.12531516e-02f,+1.21591024e-01f,-3.79477553e-02f,-1.20567074e-02f,
+2.39415050e-01f,-3.24768238e-02f,+3.95033173e-02f,-2.85886750e-02f,+1.16726339e-01f,
+1.76779926e-01f,+3.73272528e-03f,+3.91873829e-02f,+2.80872025e-02f,+5.81315197e-02f,
+1.21002339e-01f,-1.16857156e-01f,+1.15275793e-01f,+2.95060188e-01f,-2.03723982e-02f,
+1.19871236e-01f,+1.64375454e-01f,-9.22466367e-02f,-1.04020961e-01f,-1.03576500e-02f,
+8.19267482e-02f,+9.57872570e-02f,+3.13899368e-02f,+1.66227035e-02f,+2.01204419e-01f,
+4.93456684e-02f,+1.33688390e-01f,-4.21311893e-02f,+9.57509652e-02f,+5.60083054e-02f,
+1.48073018e-01f,+6.16883747e-02f,+8.64571054e-03f,-9.45031121e-02f,-1.58113942e-01f,
+4.36885171e-02f,+8.26364160e-02f,+2.60682553e-01f,-5.74726537e-02f,+5.98804317e-02f,
-2.78442502e-01f,+2.23634452e-01f,+1.14786454e-01f,-3.04172933e-02f,-1.35269508e-01f,
+8.72137249e-02f,-1.08795471e-01f,+5.76441251e-02f,+8.21539089e-02f,-1.89166546e-01f,
+1.65224314e-01f,+5.93585558e-02f,+4.76261266e-02f,-1.80598825e-01f,+1.39685392e-01f,
-2.86753848e-02f,+5.79947345e-02f,+9.26396474e-02f,+4.95934300e-02f,-2.92986184e-02f,
+1.90207243e-01f,+3.58258635e-02f,+1.39082596e-01f,+5.77388564e-03f,-7.75323212e-02f,
+2.39505619e-01f,+3.83391470e-01f,+5.94892818e-03f,+6.59356341e-02f,+4.15347097e-03f,
+1.59058362e-01f,+5.92781119e-02f,+2.48154208e-01f,+7.69325420e-02f,+9.07034054e-02f,
+1.49852782e-01f,-3.16846035e-02f,+9.71554294e-02f,+1.39620170e-01f,+6.31727651e-02f,
+4.84450832e-02f,+3.26941498e-02f,+2.21373346e-02f,+2.17295438e-01f,+3.07736099e-01f,
+5.95472902e-02f,+8.37768242e-02f,-9.26225483e-02f,+1.31704155e-02f,+1.24298207e-01f,
+1.63168818e-01f,+1.27676651e-01f,+8.34586322e-02f,-2.00523306e-02f,+8.05839226e-02f,
+6.55427203e-02f,+5.27766868e-02f,+1.05319381e-01f,+7.41145015e-02f,-3.46163064e-02f,
+9.36473310e-02f,-4.53948304e-02f,+8.26056674e-02f,+6.21317290e-02f,+1.62370294e-01f,
+3.52892369e-01f,+1.73146017e-02f,+8.70709568e-02f,+2.20829919e-01f,-5.58250807e-02f,
-4.84577864e-02f,+2.59521991e-01f,+7.63489008e-02f,+1.08000800e-01f,-1.31737515e-02f,
+9.49988980e-03f,+7.12794363e-02f,-2.55902167e-02f,+4.11749482e-02f,+1.47680342e-01f,
+1.19384773e-01f,+1.79917723e-01f,+1.88194543e-01f,-1.11598161e-03f,-1.23971865e-01f,
+4.47620684e-03f,-2.16214776e-01f,-1.48032993e-01f,-9.83956903e-02f,+1.12285130e-01f,
-1.21607959e-01f,+5.81684411e-02f,-5.75885409e-03f,+7.09415898e-02f,+1.16494574e-01f,
-1.62068427e-01f,-6.99621513e-02f,+5.82126118e-02f,-4.54525761e-02f,+2.15162665e-01f,
+3.23765948e-02f,+3.49839553e-02f,+1.27750888e-01f,+2.40416735e-01f,+2.46633098e-01f,
+8.04408640e-02f,+9.24508721e-02f,+1.03616148e-01f,+1.24415271e-01f,+8.92546773e-02f,
+8.53808522e-02f,-1.53214289e-02f,+3.88892367e-02f,+2.00080514e-01f,-1.34840729e-02f,
-7.36396527e-03f,-7.05743134e-02f,+2.32134029e-01f,+7.89346397e-02f,+9.82087478e-02f,
-3.42963520e-03f,+8.63874927e-02f,+5.09302085e-03f,-2.68535554e-01f,+2.00258754e-02f,
-1.31370742e-02f,+8.32061246e-02f,+2.21644342e-01f,+7.16590285e-02f,+1.40171424e-01f,
+1.06831215e-01f,+1.03548206e-02f,+6.58190846e-02f,+3.40534411e-02f,-3.31292264e-02f,
+2.38572881e-02f,-2.60825418e-02f,+2.89998017e-02f,+5.73261492e-02f,-9.07253176e-02f,
+7.89532214e-02f,+2.59302020e-01f,+3.55034173e-02f,+1.87924042e-01f,+1.38150513e-01f,
+1.51253550e-03f,+7.33548254e-02f,+2.37816647e-02f,+1.57099068e-01f,+2.19619185e-01f,
+1.30491316e-01f,+1.03844672e-01f,-2.49927249e-02f,+2.10669249e-01f,+5.15870973e-02f,
-1.36941180e-01f,+4.64919358e-02f,-9.01716202e-02f,+4.96162511e-02f,+3.81273441e-02f,
+1.10817686e-01f,+1.42210543e-01f,+7.27995411e-02f,+2.28139743e-01f,+6.06778264e-02f,
+3.06171000e-01f,+1.42972156e-01f,+1.27158657e-01f,+8.96292329e-02f,+7.29557574e-02f,
+5.49864098e-02f,-9.75860879e-02f,-1.01275533e-01f,+1.26836032e-01f,-2.17237370e-03f,
-1.35921696e-02f,-1.40578479e-01f,+6.94429353e-02f,+9.04518217e-02f,+8.22513252e-02f,
+1.78411633e-01f,+8.70364904e-02f,-1.48638878e-02f,+9.73566622e-02f,+1.31544201e-02f,
+2.91962773e-01f,+2.10058227e-01f,+1.56848386e-01f,-2.11772006e-02f,+1.06837720e-01f,
-6.12431280e-02f,-2.78506111e-02f,+2.69042123e-02f,+1.27001643e-01f,+1.17055759e-01f,
+1.43355593e-01f,-4.27997252e-03f,+1.89722940e-01f,-1.72685552e-02f,-1.00967832e-01f,
+1.21398069e-01f,-6.67389762e-03f,+1.51426569e-02f,+4.84512150e-02f,+8.83581862e-02f,
+1.26966968e-01f,+1.49808377e-01f,+9.24416557e-02f,+9.65777598e-03f,+5.22035435e-02f,
+2.47610137e-02f,+6.18094765e-02f,-5.69342263e-02f,+8.48849788e-02f,-9.43073183e-02f,
+2.45532706e-01f,-3.21745686e-02f,+8.42858627e-02f,-2.81844418e-02f,-7.85147995e-02f,
+6.26471192e-02f,-6.55004308e-02f,+2.02578932e-01f,+2.07504928e-01f,+1.63750798e-01f,
-1.71320438e-02f,+1.04818508e-01f,+7.38897771e-02f,+8.39644819e-02f,-1.80785492e-01f,
+7.69445077e-02f,+1.36729553e-01f,+7.01734573e-02f,+6.43825084e-02f,+3.59880291e-02f,
+1.05499372e-01f,+1.35651052e-01f,-1.30961999e-01f,+7.24526197e-02f,-1.42955435e-02f,
-1.18812043e-02f,+9.80677530e-02f,+7.94776157e-02f,+1.06918819e-01f,+1.18580990e-01f,
+2.36553624e-02f,+1.96617052e-01f,-6.49243072e-02f,+7.98690915e-02f,+1.56100661e-01f,
+8.64128321e-02f,+1.39477536e-01f,+2.52434667e-02f,+2.26227939e-01f,+2.29748324e-01f,
+1.03554063e-01f,+1.82013605e-02f,-3.18475105e-02f,+2.51221746e-01f,+4.76787910e-02f,
+8.45488235e-02f,+3.19402926e-02f,-3.47374007e-02f,+2.16044024e-01f,+1.73263028e-01f,
+1.81576796e-02f,+1.56436846e-01f,+8.67731646e-02f,+6.63363338e-02f,+1.44819906e-02f,
-2.01191716e-02f,+1.84365332e-01f,+8.49025920e-02f,-5.23584150e-02f,+5.50220869e-02f,
+1.49075747e-01f,+8.01742747e-02f,-1.23719154e-02f,+2.79007971e-01f,-1.62992310e-02f,
+1.07560344e-01f,+6.76240101e-02f,+1.74487025e-01f,-7.04123974e-02f,+4.16576825e-02f,
+7.98885971e-02f,+9.00262408e-03f,+4.03358079e-02f,+2.26850025e-02f,+1.68555140e-01f,
+1.28333449e-01f,-3.25942338e-02f,+1.61556199e-01f,+4.41462755e-01f,-9.54892859e-02f,
+7.67461881e-02f,+1.08146697e-01f,+6.22667409e-02f,+1.40922964e-01f,+1.19114414e-01f,
+3.49762179e-02f,-1.24404892e-01f,+1.75320968e-01f,+7.01622814e-02f,+1.45267949e-01f,
+5.47549427e-02f,+7.63624385e-02f,+2.04704255e-01f,+1.29512072e-01f,+5.88043593e-02f,
+1.85194284e-01f,+6.68694451e-02f,+1.79532781e-01f,+8.34006444e-02f,-7.34546483e-02f,
+3.97290960e-02f,+1.35519639e-01f,+6.87542334e-02f,-9.81714297e-03f,+5.74645251e-02f,
+8.80501717e-02f,+2.87779570e-01f,+1.92737877e-02f,+2.98663191e-02f,+1.20342784e-01f,
-3.56185883e-02f,+1.34530351e-01f,-2.34555397e-02f,+9.61500779e-02f,+3.25358450e-01f,
+1.11615621e-01f,-5.45186996e-02f,-1.89902484e-01f,+3.20149586e-02f,+1.28382230e-02f,
+3.24210227e-02f,+7.39652887e-02f,+1.65061831e-01f,+2.74244577e-01f,+5.20672202e-02f,
-9.67434421e-03f,+9.91176814e-02f,+9.59836617e-02f,-2.74754018e-02f,+9.76488367e-02f,
+1.61097720e-01f,+2.26983517e-01f,-9.86604169e-02f,-3.86129282e-02f,+2.88288295e-01f,
+2.22070113e-01f,+9.82289463e-02f,+9.77740660e-02f,-4.81611416e-02f,+2.23922074e-01f,
+5.82472272e-02f,+3.48211080e-01f,+1.14713505e-01f,+5.98386489e-02f,+8.29870161e-03f,
+1.11539237e-01f,-3.55697423e-02f,+3.34805921e-02f,-2.04527527e-02f,+9.07569099e-03f,
+2.38327906e-02f,+1.44089058e-01f,+4.56457287e-02f,+2.04911292e-01f,+2.57451832e-01f,
+1.99465588e-01f,+1.31429508e-01f,+2.08849221e-01f,+1.89918101e-01f,+9.21711102e-02f,
+2.51286626e-01f,+1.15490019e-01f,+7.87740499e-02f,+8.56437162e-03f,-2.11270340e-02f,
-6.67028949e-02f,+1.48263589e-01f,+1.21393591e-01f,-3.73133412e-03f,+1.90301146e-02f,
+1.16340116e-01f,-1.10209305e-02f,+6.34446070e-02f,+1.79004341e-01f,+2.02160981e-02f,
+1.08426072e-01f,+7.76935518e-02f,+7.38975480e-02f,+8.32891017e-02f,+2.04352081e-01f,
+8.47632438e-02f,+2.11238891e-01f,+3.62050503e-01f,-1.19424514e-01f,+3.42513360e-02f,
+1.19460769e-01f,-1.26001865e-01f,+7.99108893e-02f,+2.21555620e-01f,+1.54858425e-01f,
+4.33521532e-02f,+1.62633821e-01f,+1.47818506e-01f,-3.01257242e-02f,+1.87617764e-01f,
+1.12990089e-01f,-2.35473737e-02f,+5.74808232e-02f,+7.88125321e-02f,+2.22231131e-02f,
+2.03957811e-01f,+5.50868884e-02f,-3.97821106e-02f,+4.07632381e-01f,+1.42078456e-02f,
+2.74901599e-01f,+7.30342939e-02f,+1.51501462e-01f,+2.60594577e-01f,+7.35196471e-02f,
+1.21634848e-01f,-1.32028973e-02f,+5.87262586e-02f,-7.83292949e-02f,+2.59846658e-01f,
+1.90887868e-01f,+1.36081398e-01f,+7.43182376e-02f,+9.59481224e-02f,+4.04551066e-03f,
+2.51512369e-03f,-1.44114764e-02f,+3.03011071e-02f,+1.06590152e-01f,-6.62872419e-02f,
-9.81641933e-03f,+1.71416357e-01f,+1.14384852e-01f,+4.00514081e-02f,+2.28617221e-01f,
+7.80905783e-02f,+3.67529541e-02f,+1.18274108e-01f,-2.65730359e-02f,+3.99124533e-01f,
+2.48854056e-01f,+2.96469271e-01f,+8.39422569e-02f,+1.22287981e-02f,+1.27319127e-01f,
+1.17286108e-01f,+1.22326635e-01f,+2.29313225e-01f,+1.55424863e-01f,-6.39068079e-04f,
+4.99084108e-02f,+2.97437936e-01f,+5.23861460e-02f,+2.79411286e-01f,+1.08308010e-01f,
+7.38039091e-02f,+5.64865619e-02f,+4.02010418e-02f,+1.58624828e-01f,+2.55831927e-02f,
+1.81794483e-02f,-6.46933506e-04f,+6.53762370e-02f,+5.69454841e-02f,+6.07090518e-02f,
+1.42222762e-01f,+2.81924531e-02f,+2.67961890e-01f,-7.45910313e-03f,-9.31896418e-02f,
+2.03851327e-01f,+9.07460004e-02f,+1.24893002e-01f,-2.87680887e-03f,+2.50748433e-02f,
+1.38266951e-01f,+1.41961113e-01f,+1.73540682e-01f,+2.76089590e-02f,-1.31014481e-01f,
+7.96349347e-02f,+2.45163023e-01f,+2.22672552e-01f,+8.25659558e-02f,+1.11909397e-01f,
+1.15108015e-02f,+3.38984728e-02f,+5.65187410e-02f,+1.05402216e-01f,-9.24918875e-02f,
-8.16959292e-02f,+2.07590520e-01f,+2.12952882e-01f,-2.33057961e-01f,+4.54518385e-02f,
+6.46944717e-02f,+1.01004489e-01f,+2.15482444e-01f,+5.18158562e-02f,-6.26034290e-03f,
+2.43666053e-01f,+1.58737805e-02f,-2.83352402e-03f,+2.81405170e-02f,+3.25322822e-02f,
+7.69656003e-02f,+6.91759363e-02f,-5.64485379e-02f,+3.90074044e-01f,-5.59269562e-02f,
+5.50359860e-02f,+2.60985017e-01f,+1.82030112e-01f,-1.77453533e-01f,+1.24036528e-01f,
+2.44868640e-02f,-1.90137506e-01f,+1.39788762e-01f,+1.13457970e-01f,+9.33392122e-02f,
+1.22712836e-01f,+2.17605919e-01f,+9.08117369e-02f,+7.23292381e-02f,+1.36523649e-01f,
+1.98590323e-01f,+9.73837525e-02f,+1.21805951e-01f,+1.84002686e-02f,+2.04332277e-01f,
+7.44640008e-02f,+1.45220876e-01f,-1.59245983e-01f,+7.54881948e-02f,+2.60206848e-01f,
-1.51867941e-01f,+2.80526906e-01f,+8.87221172e-02f,+4.89321798e-02f,+1.94070026e-01f,
-3.76617559e-03f,+1.73645094e-01f,+1.50061160e-01f,+5.74113615e-02f,+9.55670029e-02f,
-2.03165542e-02f,-5.84581904e-02f,+3.85029763e-02f,-1.62589718e-02f,+1.44466564e-01f,
+2.00081430e-02f,+1.50511354e-01f,+1.12377353e-01f,+1.31076828e-01f,+8.11131597e-02f,
-2.23020669e-02f,+1.24215409e-01f,+1.42793655e-01f,-4.72372137e-02f,-5.15126027e-02f,
-3.53095420e-02f,-1.43388286e-02f,+4.27045934e-02f,+2.81663947e-02f,+3.25000361e-02f,
-2.43428387e-02f,+1.79582685e-02f,+3.92120257e-02f,-1.08816102e-01f,-4.14854884e-02f,
+3.80174331e-02f,-3.84176672e-02f,-2.96920925e-01f,+9.32593271e-02f,-5.01482263e-02f,
+6.41380027e-02f,+3.95878367e-02f,-7.00696558e-02f,+1.01956069e-01f,+3.93679179e-02f,
+1.15897484e-01f,-1.69883929e-02f,+2.43980989e-01f,+1.68849211e-02f,+6.29149377e-02f,
-7.52602890e-02f,+3.92897390e-02f,+3.27388793e-02f,-2.72709019e-02f,-3.41869891e-02f,
-1.06915779e-01f,-8.52395606e-04f,-1.30209357e-01f,-9.76004079e-02f,+1.88028459e-02f,
+4.45935652e-02f,+3.88073586e-02f,+1.00114182e-01f,+7.36662149e-02f,-5.69841005e-02f,
+9.22042131e-02f,+9.71805453e-02f,+1.00999489e-01f,+6.94742724e-02f,+1.46266133e-01f,
+3.59433405e-02f,-2.26831045e-02f,-6.39431477e-02f,-4.84464988e-02f,+1.33079097e-01f,
-2.01061219e-02f,-4.52169857e-04f,+2.43651886e-02f,-6.78625181e-02f,-2.68406104e-02f,
+2.96494573e-01f,+2.75846887e-02f,+1.65104102e-02f,+5.64223044e-02f,+8.80747959e-02f,
+3.17505524e-02f,+6.91089258e-02f,+5.19052260e-02f,+1.50776878e-01f,-1.62189946e-01f,
+1.12371959e-01f,+1.12108067e-01f,+1.52948037e-01f,+1.13587245e-01f,+2.23377541e-01f,
+5.59744313e-02f,-1.64458212e-02f,-2.28030216e-02f,+1.11307204e-01f,-1.06321760e-01f,
+1.05670974e-01f,+1.92221738e-02f,+2.61828601e-01f,+1.03626721e-01f,+2.09096864e-01f,
+2.65905201e-01f,+1.29291892e-01f,+2.52994113e-02f,+9.99765098e-02f,-1.57663599e-02f,
+3.45228612e-02f,+1.57644048e-01f,+1.59338191e-01f,+4.06870954e-02f,+7.80099556e-02f,
+1.46377727e-01f,-8.80400371e-03f,-1.54073443e-02f,+2.57698536e-01f,+1.30319491e-01f,
+7.49336332e-02f,-2.84058303e-02f,-8.46215859e-02f,+4.27888427e-03f,+6.43641651e-02f,
-2.34106988e-01f,+4.99780327e-02f,+2.84929313e-02f,+7.08584934e-02f,-1.01655023e-02f,
+7.63569921e-02f,-2.76419539e-02f,+1.28084928e-01f,+9.28203017e-02f,+1.16155883e-02f,
+6.17272295e-02f,+5.63534349e-02f,+1.73600763e-01f,+2.74220873e-02f,+1.32091995e-02f,
-4.62902077e-02f,+7.42501765e-02f,-4.58671935e-02f,+6.88908026e-02f,+1.46192580e-01f,
+1.01431191e-01f,+1.53476909e-01f,+1.45116448e-01f,-1.10007683e-03f,+1.06375717e-01f,
+9.21368077e-02f,-5.47677204e-02f,+7.69810453e-02f,+3.35727446e-02f,-1.49724349e-01f,
-9.07088667e-02f,-5.56944050e-02f,+7.53682628e-02f,+1.81118265e-01f,+6.90812096e-02f,
+1.44530132e-01f,-6.83301240e-02f,+1.72059715e-01f,+6.52659172e-03f,-4.19335254e-02f,
+5.93994260e-02f,-1.33137330e-01f,+1.86940670e-01f,+2.44821891e-01f,-5.52957989e-02f,
-6.28092140e-03f,+8.43188390e-02f,+1.82369445e-02f,-1.22214250e-01f,+2.92572469e-01f,
-8.58226046e-03f,-1.32536173e-01f,+1.26155302e-01f,+3.08561683e-01f,-1.67648308e-02f,
-4.36547324e-02f,+1.91370115e-01f,-1.19319968e-02f,+1.40861243e-01f,+1.34887889e-01f,
+5.51466085e-02f,+4.12811302e-02f,-4.02232818e-02f,+1.87518254e-01f,-6.90107048e-02f,
+6.37549758e-02f,-6.78962395e-02f,+1.57224625e-01f,+1.69185605e-02f,-2.01514252e-02f,
+1.51954442e-01f,+1.81788757e-01f,+6.99145533e-03f,+8.37265775e-02f,-3.89390741e-03f,
+1.36644423e-01f,+2.42260888e-01f,-3.33318077e-02f,+2.21018970e-01f,+1.29917160e-01f,
+6.18055128e-02f,+9.97970104e-02f,+1.21481217e-01f,+9.14337337e-02f,+1.79527178e-02f,
+1.60201877e-01f,+1.40784472e-01f,-3.67934350e-04f,+2.18236864e-01f,+2.77240723e-01f,
+8.30340534e-02f,-1.01959193e-02f,+7.07467049e-02f,+1.09818913e-01f,+8.01911205e-02f,
-8.25634599e-02f,+5.48132956e-02f,+2.17126027e-01f,+1.09474920e-02f,+2.09083080e-01f,
+6.18697070e-02f,+4.24678214e-02f,+4.68963124e-02f,+7.88109563e-03f,+5.07690124e-02f,
+6.07057149e-03f,+1.39099360e-02f,-1.53324723e-01f,+1.15925446e-01f,-2.47869678e-02f,
+4.77623306e-02f,-1.76153425e-02f,+1.16667584e-01f,+1.68967560e-01f,-8.70964751e-02f,
-2.41112448e-02f,+1.37072101e-01f,-1.79056227e-01f,+4.08341698e-02f,+6.96021542e-02f,
+7.16150329e-02f,+9.75517482e-02f,+2.82646529e-02f,-1.80782408e-01f,+7.87605941e-02f,
+2.82314986e-01f,+3.09676714e-02f,+1.73002183e-01f,+6.13947399e-02f,+9.25409272e-02f,
-6.65647686e-02f,+1.90838963e-01f,-3.18080261e-02f,+1.35710075e-01f,+6.71994537e-02f,
+9.62190330e-02f,+9.50111002e-02f,-5.11727445e-02f,+6.79721758e-02f,+1.03464521e-01f,
+1.73710763e-01f,-3.07056143e-05f,+6.74496638e-03f,+6.40336573e-02f,+1.34352043e-01f,
-6.68784007e-02f,+7.16312975e-02f,+2.16336459e-01f,+3.91158387e-02f,+1.92202762e-01f,
+3.21605876e-02f,+2.51322947e-02f,-9.17818844e-02f,+6.03864528e-02f,+4.06761356e-02f,
+6.64408132e-02f,-1.13955878e-01f,+7.29505643e-02f,+1.18599094e-01f,-4.84184325e-02f,
-2.11537834e-02f,-2.88806222e-02f,+1.74668610e-01f,+6.40400499e-02f,+4.08626981e-02f,
-2.06977278e-02f,-2.48562600e-02f,-2.58971453e-02f,-2.76277773e-03f,-2.71507595e-02f,
+3.40483069e-01f,+1.02839030e-01f,-1.54911652e-01f,+4.69330279e-03f,-1.62149727e-01f,
+5.12845106e-02f,+4.07210700e-02f,-3.15545835e-02f,+6.35265857e-02f,-1.20809404e-02f,
-2.30084155e-02f,-7.99117163e-02f,+2.85920352e-02f,+1.45878019e-02f,-8.37995857e-02f,
+3.06912184e-01f,-1.72760319e-02f,+4.23005596e-02f,-3.98322679e-02f,+2.01636449e-01f,
+6.49825931e-02f,+9.43447351e-02f,-4.36248779e-02f,+1.74593136e-01f,-1.55469120e-01f,
+1.14320457e-01f,-4.16701101e-03f,-2.37858966e-02f,-1.45954385e-01f,+8.36302042e-02f,
+5.78199513e-02f,+8.02185200e-03f,+2.01382652e-01f,+6.99142441e-02f,+8.23593792e-03f,
+2.29703128e-01f,-1.18559532e-01f,-3.49095687e-02f,+9.01829004e-02f,+8.35596696e-02f,
+1.22505747e-01f,-5.05163893e-02f,-8.44808528e-04f,-5.26861548e-02f,+1.17818639e-02f,
+1.59027293e-01f,-6.94361329e-02f,-5.19430339e-02f,+1.03095904e-01f,-1.03601009e-01f,
-6.66233152e-02f,+1.16668917e-01f,+2.14858696e-01f,+1.44441664e-01f,-4.72797342e-02f,
-1.52609453e-01f,+8.80457908e-02f,-1.56715512e-01f,+1.62237450e-01f,+2.14359928e-02f,
+2.58308321e-01f,-1.02317691e-01f,-2.80386824e-02f,-6.76446408e-02f,-1.76342979e-01f,
+1.43284440e-01f,-6.26273677e-02f,-4.87167910e-02f,-2.30359193e-03f,+8.78857076e-03f,
-1.31149292e-01f,+1.22899361e-01f,-1.82319246e-02f,+7.31865913e-02f,+3.54243219e-02f,
+1.86386272e-01f,+8.36322755e-02f,+4.45725508e-02f,+6.71488792e-02f,-9.29411203e-02f,
+1.99202180e-01f,-1.50565565e-01f,+4.34811674e-02f,-3.55921090e-02f,-8.13499838e-02f,
-1.18139721e-02f,-6.25307485e-02f,-2.38630809e-02f,+1.08644210e-01f,-1.09580711e-01f,
-8.04122090e-02f,-5.85876927e-02f,+5.76892942e-02f,+7.26335496e-02f,-1.07731767e-01f,
-1.45848230e-01f,+2.12085977e-01f,+8.91610757e-02f,+6.56839088e-02f,-1.81644782e-01f,
+1.47779450e-01f,+8.40133205e-02f,-1.74859628e-01f,-2.64364332e-01f,+3.66925411e-02f,
+1.27345666e-01f,-2.50302199e-02f,+8.87716487e-02f,+2.01790690e-01f,+1.64669290e-01f,
-1.09469958e-01f,+1.36444882e-01f,+1.32480368e-01f,-6.32740557e-02f,-2.38867151e-03f,
+1.18736655e-01f,+1.76196992e-01f,-2.72612628e-02f,-6.39197649e-03f,+4.14861813e-02f,
-2.34802850e-02f,+2.57002600e-02f,+1.67707458e-01f,+2.12163739e-02f,-5.85869029e-02f,
-1.59566849e-02f,+1.04480416e-01f,+9.34022143e-02f,+2.38555580e-01f,+1.15449922e-02f,
+1.43184196e-02f,-2.25924961e-02f,+7.36204488e-03f,+9.30258408e-02f,+3.53868678e-02f,
+4.82294783e-02f,+6.82311691e-03f,-1.86525006e-02f,-1.58789083e-02f,+1.72858998e-01f,
-7.65295774e-02f,+2.39652604e-01f,+1.03415690e-01f,+2.21922755e-01f,+1.00157045e-01f,
+9.86081269e-03f,+8.26198459e-02f,+1.49299815e-01f,+1.28661454e-01f,-1.22632235e-01f,
-1.85443744e-01f,-2.72680190e-04f,+8.09950288e-03f,-1.97739433e-02f,-6.61825389e-02f,
+2.48220246e-02f,+1.60065070e-01f,+8.59363228e-02f,+1.39752299e-01f,+1.22114513e-02f,
+4.30084728e-02f,+7.11890310e-02f,-7.03911483e-02f,-1.24925427e-01f,+3.85922566e-02f,
-4.38018590e-02f,-5.90837672e-02f,+2.58869797e-01f,+1.67220399e-01f,-1.83611110e-01f,
+7.85816237e-02f,+1.98229011e-02f,-1.71497613e-01f,+1.27871811e-01f,+4.77489680e-02f,
+6.98179826e-02f,+1.77422222e-02f,-5.08802310e-02f,+1.47158727e-01f,-5.08109443e-02f,
-9.26069468e-02f,+2.22142324e-01f,-2.03209668e-02f,+5.66413142e-02f,-2.76034951e-01f,
-5.19889854e-02f,-1.55927688e-01f,-4.76083606e-02f,+2.14466169e-01f,+6.23134198e-03f,
-6.41508102e-02f,+1.62311628e-01f,+1.02928631e-01f,-4.24986407e-02f,-4.69014645e-02f,
+2.34146208e-01f,-3.03848267e-01f,+1.81791242e-02f,-3.95053327e-02f,+6.65771663e-02f,
-6.32900745e-03f,+1.39415771e-01f,-1.84292808e-01f,+8.82645622e-02f,+2.36805901e-02f,
+2.62399409e-02f,-6.19928204e-02f,+1.19471913e-02f,-2.91970093e-02f,-8.53359103e-02f,
-1.01943780e-02f,-1.33161545e-01f,+2.56305397e-01f,-1.01662487e-01f,+7.12213442e-02f,
-7.01428810e-03f,+2.56985817e-02f,+2.23001942e-01f,-4.47342731e-02f,+9.81122106e-02f,
-7.89301544e-02f,+1.11375660e-01f,+7.34084994e-02f,-4.81128208e-02f,+3.47567409e-01f,
-5.85146919e-02f,+1.18729904e-01f,+8.44891816e-02f,+6.75091520e-02f,-1.74115337e-02f,
-2.32124209e-01f,+2.07070988e-02f,-1.38550982e-01f,+1.26641631e-01f,+9.93629768e-02f,
-1.18997052e-01f,+8.07655379e-02f,+7.66141713e-02f,+2.62971036e-03f,-6.22173510e-02f,
+9.19442847e-02f,-1.62656218e-01f,-6.51830509e-02f,+2.54896525e-02f,-2.39282802e-01f,
-2.19751775e-01f,-2.09247559e-01f,+7.19152167e-02f,+3.61450538e-02f,-1.14975281e-01f,
-8.07783380e-02f,+8.05161297e-02f,+4.78647351e-02f,+2.27078006e-01f,+7.48853758e-02f,
-7.24988710e-03f,+1.28390372e-01f,+1.92522824e-01f,+1.82840586e-01f,+7.39194974e-02f,
-2.84629643e-01f,-5.37040420e-02f,-2.90032625e-01f,-1.18342802e-01f,+4.83681895e-02f,
-1.41445458e-01f,-6.10839836e-02f,+8.90583207e-04f,+4.08681706e-02f,+2.46985078e-01f,
+8.63747299e-02f,-1.35003507e-01f,+2.54201919e-01f,+1.66398391e-01f,+1.57377928e-01f,
+7.89417773e-02f,-1.83586895e-01f,+1.98606566e-01f,+8.67090225e-02f,+4.58462536e-02f,
+1.35060370e-01f,+1.79720268e-01f,+1.68949708e-01f,+1.43870667e-01f,+1.75909936e-01f,
+1.50639907e-01f,+7.52771832e-03f,-1.32251114e-01f,+1.18234269e-01f,-2.12965626e-03f,
+9.92160589e-02f,-2.82429516e-01f,+1.12731587e-02f,-6.00207075e-02f,-1.27461657e-01f,
+7.45459422e-02f,+7.46100917e-02f,-1.33873090e-01f,-2.39794701e-02f,+1.69343781e-02f,
-1.09012507e-01f,-2.30994895e-02f,+7.52076227e-03f,+7.26708621e-02f,-1.44610286e-01f,
+1.36708677e-01f,+1.88879162e-01f,-1.72443017e-01f,-3.83249260e-02f,+1.67145245e-02f,
-2.03875490e-02f,-1.58198982e-01f,-1.67025059e-01f,-2.34225253e-03f,+9.45444964e-03f,
+2.13670120e-01f,-1.53866492e-03f,-2.95164566e-02f,-1.36703879e-01f,-2.40597531e-01f,
-9.59136784e-02f,-1.08771019e-01f,-1.36580274e-01f,+6.27251267e-02f,+6.32146522e-02f,
-5.97629324e-02f,+6.00075498e-02f,-2.79245079e-02f,+3.40497419e-02f,+3.13097745e-01f,
+3.25250700e-02f,-4.71085459e-02f,+3.47175747e-02f,-5.18055707e-02f,+1.38153777e-01f,
-6.40013581e-03f,-4.90584187e-02f,+1.74856514e-01f,-1.91616207e-01f,+2.10173532e-01f,
-2.75612921e-01f,+1.51287243e-01f,+4.80027087e-02f,+1.60046101e-01f,+1.30157590e-01f,
+9.40289944e-02f,-1.47019371e-01f,+5.32870293e-02f,+1.07869655e-01f,+5.68939857e-02f,
-1.14415199e-01f,+5.13598509e-02f,+3.49322967e-02f,-2.43750706e-01f,+1.04345053e-01f,
+1.40694126e-01f,-3.08028422e-02f,-7.04251602e-02f,+2.51350313e-01f,-1.79826334e-01f,
+1.46727517e-01f,+2.44932979e-01f,+1.54192761e-01f,-1.33774757e-01f,-1.03918901e-02f,
+5.68374023e-02f,-5.67473210e-02f,+6.25138804e-02f,+2.37910822e-02f,-2.84580048e-02f,
-5.55456318e-02f,+2.13366941e-01f,+6.20520301e-02f,+1.01721741e-01f,+1.65104374e-01f,
+5.00823818e-02f,-1.57217421e-02f,+9.54561085e-02f,+3.91843677e-01f,+3.81064236e-01f,
+8.25152732e-03f,+2.07775488e-01f,+9.00603309e-02f,+5.64754866e-02f,-2.09383801e-01f,
+4.59204651e-02f,-2.45502070e-01f,+2.03425869e-01f,+1.43612698e-01f,-8.57330710e-02f,
-1.22831933e-01f,+1.67232782e-01f,+1.99531943e-01f,-5.08583114e-02f,+3.51802766e-01f,
+1.31057292e-01f,+1.26063349e-02f,+6.24643778e-03f,+8.05862844e-02f,-4.38506342e-02f,
+8.37174952e-02f,-1.58325553e-01f,+1.32950926e-02f,-4.62216251e-02f,+6.84609935e-02f,
+1.65282741e-01f,-1.63543239e-01f,+1.71860486e-01f,+1.02061912e-01f,+2.48679236e-01f,
-1.45078702e-02f,+1.34075239e-01f,-2.74069399e-01f,+2.28812888e-01f,+4.49624211e-02f,
+2.00557619e-01f,+2.50885375e-02f,+1.11206368e-01f,+5.39525524e-02f,+1.60503253e-01f,
-3.00508607e-02f,+1.45745039e-01f,-4.41480651e-02f,+2.01144829e-01f,-9.96112004e-02f,
-3.62576097e-01f,+2.69893229e-01f,+1.33807272e-01f,-1.59795750e-02f,+2.62777150e-01f,
-1.42252166e-02f,-1.25028938e-01f,+3.57152373e-01f,-1.29721304e-02f,-3.28205228e-02f,
-4.99466024e-02f,+1.72773048e-01f,+3.34643126e-01f,+9.16672349e-02f,+4.62769903e-02f,
-3.56330983e-02f,+4.25164327e-02f,+1.70861185e-02f,+1.79820448e-01f,+2.53158379e-02f,
+1.28869027e-01f,-1.23954169e-01f,+3.77564393e-02f,-6.62034303e-02f,+2.45330408e-01f,
-9.79214385e-02f,+7.12644756e-02f,+1.63911715e-01f,+2.58505136e-01f,-1.25115300e-02f,
-1.25092983e-01f,-7.38177262e-03f,+4.09264117e-02f,-9.52377021e-02f,-2.97492109e-02f,
+3.54100503e-02f,+3.56734544e-02f,+1.58226296e-01f,+2.69499468e-03f,+4.18398768e-01f,
-2.00748920e-01f,-7.56448656e-02f,+4.53607813e-02f,+1.92972794e-01f,+1.92759056e-02f,
+2.31923684e-01f,+1.45029258e-02f,-6.60204366e-02f,+7.50613287e-02f,+4.47814427e-02f,
+6.17532469e-02f,+3.04712892e-01f,+8.09886456e-02f,-1.51962370e-01f,+1.67033300e-01f,
-3.38428020e-02f,+2.59134173e-01f,+6.21854030e-02f,-1.68007016e-02f,+1.59242958e-01f,
+1.29277319e-01f,+1.16804346e-01f,-2.71452162e-02f,+2.61802617e-02f,+2.11454451e-01f,
+1.11195177e-01f,-9.41694379e-02f,-7.70014375e-02f,+1.30967498e-01f,+1.49880171e-01f,
+1.29452333e-01f,+1.05601139e-01f,+1.64566547e-01f,-8.23731720e-02f,-1.24067284e-01f,
-7.96977431e-02f,+1.91038430e-01f,-3.16630334e-01f,-1.60829231e-01f,+1.43164545e-01f,
+2.81028729e-03f,+1.37824729e-01f,-2.16999352e-01f,+2.27418736e-01f,+1.80080339e-01f,
+7.12365508e-02f,-4.03272733e-02f,+1.67812154e-01f,+2.46134382e-02f,+2.16158256e-02f,
+4.89899181e-02f,+1.32180884e-01f,+1.34497687e-01f,+3.11197728e-01f,-6.21149614e-02f,
+2.82649577e-01f,+1.16932124e-01f,+4.46429886e-02f,-7.46245012e-02f,+8.49937499e-02f,
-5.39955050e-02f,+2.94626355e-01f,+9.35120955e-02f,-1.06843412e-01f,-2.10050836e-01f,
+4.52699900e-01f,+5.53756356e-02f,-2.59686977e-01f,+9.34890956e-02f,+1.79351121e-01f,
+1.15902513e-01f,+3.08795720e-02f,+2.90615261e-01f,-2.73107260e-01f,-1.84393272e-01f,
+2.39181742e-01f,-6.50691986e-02f,-4.41862829e-03f,-1.43993441e-02f,+1.47016466e-01f,
+1.63419545e-01f,-6.38810694e-02f,+1.03709009e-02f,+1.03253141e-01f,+1.34415746e-01f,
+4.22636122e-02f,+1.79899156e-01f,-2.05312207e-01f,-8.79047206e-04f,+7.87304714e-02f,
-7.19254231e-03f,-6.31516501e-02f,+1.19523615e-01f,+1.07723206e-01f,+2.41259441e-01f,
+6.65029045e-03f,+4.02229540e-02f,-1.48794219e-01f,-6.96931556e-02f,+6.40415307e-03f,
+1.45886317e-01f,+6.81845695e-02f,+1.88904926e-01f,+1.00612059e-01f,+1.08142518e-01f,
+8.93955007e-02f,+7.53084663e-03f,+1.42177213e-02f,-8.71235505e-02f,+6.62504584e-02f,
-1.81230083e-01f,-4.88705821e-02f,-2.28881035e-02f,-6.00575358e-02f,-5.52514289e-03f,
-3.77021283e-02f,-4.93217379e-01f,-1.33703038e-01f,+1.83311298e-01f,+3.04311514e-01f,
-8.69554058e-02f,+1.39517844e-01f,-4.85418625e-02f,-1.73723415e-01f,+2.57136021e-03f,
-5.41400388e-02f,-1.61875725e-01f,-2.07991935e-02f,-7.77766258e-02f,+2.69586832e-04f,
+5.43814600e-02f,-3.08558494e-01f,-9.67722684e-02f,+1.08212531e-01f,-5.91076277e-02f,
+2.17226774e-01f,+4.48910147e-02f,+5.43911755e-02f,+2.75166258e-02f,-7.37996995e-02f,
-3.53348665e-02f,-8.53369199e-03f,-1.07157230e-01f,-9.20236111e-02f,+1.23111039e-01f,
+3.83636743e-01f,+1.66738823e-01f,-1.68572918e-01f,+1.92866683e-01f,-6.48742914e-02f,
+4.58337218e-01f,+8.22529793e-02f,-6.69963881e-02f,+2.03625802e-02f,-1.05662189e-01f,
+2.09059998e-01f,+6.43747896e-02f,+1.17156819e-01f,-2.32274234e-01f,-5.90364076e-02f,
-3.11480779e-02f,+5.99647202e-02f,+2.91377679e-02f,+1.71931148e-01f,-1.88187119e-02f,
-3.14592987e-01f,+1.63487345e-01f,+1.99262515e-01f,-6.10314542e-03f,-5.99820241e-02f,
+3.17437470e-01f,+8.74641817e-03f,-7.07663074e-02f,+3.19047384e-02f,-7.24954754e-02f,
-3.05994172e-02f,+1.69039235e-01f,+2.56252348e-01f,+1.95076659e-01f,-1.72953188e-01f,
+8.36242661e-02f,+1.25388697e-01f,+1.42034128e-01f,+1.64679796e-01f,+2.67236322e-01f,
-1.78510010e-01f,+4.18390892e-02f,+3.53208929e-02f,+3.03934097e-01f,-8.83118212e-02f,
+1.00015081e-01f,+9.10864770e-02f,+3.67845455e-03f,+2.83763558e-01f,+1.32149652e-01f,
+1.09337807e-01f,-9.96900722e-02f,+9.55455303e-02f,+9.79133993e-02f,+2.39589185e-01f,
+1.13431625e-02f,+5.03607430e-02f,+1.64327204e-01f,+3.71321337e-03f,-2.16740221e-01f,
+4.34987962e-01f,+1.91225976e-01f,+1.70979686e-02f,-1.00955375e-01f,+2.63501734e-01f,
-1.63097888e-01f,-8.42379332e-02f,+4.51291323e-01f,+4.89825718e-02f,-6.43512756e-02f,
+2.86834866e-01f,+2.46937945e-02f,+9.22653228e-02f,+4.65583913e-02f,+9.34297964e-02f,
+4.82505858e-02f,+9.38288867e-02f,+5.07478528e-02f,-1.45718968e-03f,+5.25375903e-02f,
+8.76881629e-02f,+5.03794029e-02f,+6.08473048e-02f,-3.20333466e-02f,+2.13284224e-01f,
-4.05806229e-02f,+1.17051959e-01f,+7.64174154e-03f,+9.42018256e-02f,+1.07971519e-01f,
+1.40095666e-01f,-1.29455691e-02f,+1.41246915e-01f,-5.10946326e-02f,+8.29456151e-02f,
-3.46709192e-02f,+4.31406870e-03f,+1.09562293e-01f,+2.23957494e-01f,-1.36466771e-01f,
-3.06592342e-02f,+9.21292044e-03f,-1.32987825e-02f,+1.66435435e-01f,+1.57964334e-01f,
+1.58188492e-01f,-7.21358582e-02f,-5.37073147e-03f,-1.80738971e-01f,+2.61551291e-01f,
+2.74481792e-02f,+1.36063576e-01f,-5.13971001e-02f,+4.21438143e-02f,-6.14894973e-03f,
+3.65814306e-02f,+5.37559427e-02f,+6.18547164e-02f,-6.71688542e-02f,+5.59134260e-02f,
+1.26037493e-01f,+5.59660569e-02f,+2.09966972e-02f,+2.86344498e-01f,+1.04433537e-01f,
+4.02129143e-01f,+1.70464560e-01f,-1.65502697e-01f,-1.70270409e-02f,-5.53690009e-02f,
+1.95113216e-02f,+1.30330935e-01f,+6.63359091e-02f,+9.65517759e-02f,+4.51004766e-02f,
+2.43385762e-01f,+3.82876284e-02f,+1.26093715e-01f,+1.27117991e-01f,+3.68811101e-01f,
-1.98492736e-01f,-1.02496974e-01f,+1.98422447e-01f,+5.37252054e-02f,+9.44958255e-02f,
+7.93622211e-02f,+2.12071747e-01f,-8.03350508e-02f,+5.57401404e-02f,+1.71505213e-01f,
-4.36756527e-03f,-4.35860269e-02f,+1.45538151e-01f,+3.10996994e-02f,+8.79968107e-02f,
+5.36242425e-02f,+1.01214327e-01f,+1.45484293e-02f,+1.74547662e-03f,+2.76949722e-02f,
+3.23709175e-02f,+1.51483253e-01f,+1.10279463e-01f,+4.31079753e-02f,+1.15323499e-01f,
+1.99975073e-01f,+9.34524462e-02f,+3.35006304e-02f,-1.42409131e-01f,-1.28520012e-01f,
-3.13968994e-02f,+1.70133382e-01f,+3.77956852e-02f,+1.40559912e-01f,-7.96154663e-02f,
+1.30751252e-01f,+7.72020593e-02f,+1.88050285e-01f,-1.17498696e-01f,+7.54426420e-02f,
+1.11373238e-01f,+1.36685055e-02f,+3.19006778e-02f,-4.11756411e-02f,-8.89033675e-02f,
+1.19926125e-01f,-2.70863739e-03f,+2.05524475e-03f,+5.01019694e-02f,-1.38448132e-02f,
+1.83804706e-01f,+3.33046690e-02f,+2.00339496e-01f,-5.36487810e-02f,+1.77777037e-01f,
+3.84391040e-01f,+7.33971596e-02f,+7.55754635e-02f,+1.84934195e-02f,+4.10556719e-02f,
+3.83942872e-01f,+5.08539900e-02f,+3.11802000e-01f,+1.51452467e-01f,-5.63772433e-02f,
+1.12649381e-01f,+1.48245484e-01f,+2.24904232e-02f,+3.15742403e-01f,+1.50104150e-01f,
+1.86717603e-02f,+1.76401958e-01f,+2.88290344e-02f,+5.15504815e-02f,+1.57198906e-01f,
+1.67399883e-01f,+1.64560586e-01f,-8.76137391e-02f,-2.56606061e-02f,+2.22374289e-03f,
+1.20901130e-01f,+2.93202817e-01f,-7.16321841e-02f,+3.10046226e-02f,-2.23499686e-02f,
+6.52889982e-02f,+1.19758531e-01f,+1.68312892e-01f,+1.79436095e-02f,+1.03544861e-01f,
+2.05814958e-01f,+1.09682456e-01f,-6.15433268e-02f,+1.11001141e-01f,+9.61027965e-02f,
+2.46917009e-01f,+6.96674511e-02f,+6.92207515e-02f,+1.18341662e-01f,+5.00780903e-02f,
+4.71014529e-04f,+1.09602503e-01f,+1.02185473e-01f,+1.33770809e-01f,-1.98095471e-01f,
-5.79665266e-02f,+2.04464927e-01f,+2.08554134e-01f,-2.83078924e-02f,+5.25699258e-02f,
+3.07029057e-02f,-3.37314308e-01f,+2.20506191e-01f,+2.56085545e-01f,+9.25372317e-02f,
+1.01983085e-01f,+1.41011611e-01f,+6.17630631e-02f,-1.38578057e-01f,+4.57964651e-02f,
+2.46717528e-01f,+1.50460213e-01f,-7.12593421e-02f,-1.44342437e-01f,+1.08359084e-01f,
+9.44120530e-03f,+2.92939514e-01f,+6.94725364e-02f,+1.41466737e-01f,+2.58373648e-01f,
+1.79764569e-01f,+1.03228495e-01f,+1.71828523e-01f,+1.01652801e-01f,-6.41671345e-02f,
+1.90111667e-01f,+3.54045749e-01f,+1.08756386e-01f,+2.20388398e-01f,+6.37274832e-02f,
-1.24076381e-01f,+9.44877863e-02f,-1.26453573e-02f,-1.14559457e-02f,-1.26745626e-01f,
+1.08529963e-01f,-3.30929011e-02f,+1.02301769e-01f,+4.51041795e-02f,+8.45650658e-02f,
+7.82586485e-02f,+1.99762926e-01f,+2.21808985e-01f,+2.79250741e-02f,+5.89650385e-02f,
+2.46534213e-01f,+1.88821793e-01f,+2.95587748e-01f,+1.64496228e-02f,-1.19973116e-01f,
-3.02254641e-03f,+1.41918436e-01f,+5.29219136e-02f,+1.14050373e-01f,+1.10873513e-01f,
-5.93217984e-02f,+5.68654463e-02f,+9.05163065e-02f,+5.68743981e-02f,-5.12726344e-02f,
+2.49651998e-01f,+2.52957314e-01f,+1.59366518e-01f,+1.46128342e-01f,+1.32781286e-02f,
+7.20387250e-02f,-9.53136683e-02f,+3.34236678e-03f,+2.70612359e-01f,+6.45878166e-02f,
+1.40210882e-01f,+2.24614859e-01f,+1.36292174e-01f,-2.52816305e-02f,+5.51574454e-02f,
-3.13434809e-01f,+1.79972187e-01f,-2.30407100e-02f,+9.14633572e-02f,-1.25933364e-01f,
+2.54083741e-02f,+1.52634174e-01f,+9.10189822e-02f,+1.00963108e-01f,+1.28047794e-01f,
+1.56058520e-01f,-5.01851663e-02f,+5.93587160e-02f,+7.39396811e-02f,+2.20588997e-01f,
+1.61624864e-01f,+1.27222300e-01f,+1.09144315e-01f,+4.59758155e-02f,-1.27838358e-01f,
-2.51019657e-01f,-7.46400142e-03f,+2.28275463e-01f,+1.32475033e-01f,-9.97730345e-02f,
-1.73380062e-01f,+1.18068174e-01f,+1.79977804e-01f,-1.17093436e-01f,+1.41338632e-01f,
+9.69661102e-02f,+1.80359092e-02f,+8.55064839e-02f,-6.71620369e-02f,+1.27607593e-02f,
+1.15274638e-01f,+1.29398322e-02f,-1.30669087e-01f,-4.24907207e-02f,+2.25790769e-01f,
+3.69574606e-01f,+1.92718863e-01f,+1.15661416e-02f,+1.72468498e-01f,+3.20125997e-01f,
-8.56100693e-02f,+1.02281719e-01f,+1.41813472e-01f,+2.46213928e-01f,+2.15161011e-01f,
-4.93504480e-02f,+1.04406238e-01f,-1.84022132e-02f,+2.31133308e-03f,+1.23162366e-01f,
+1.01332761e-01f,+2.15556353e-01f,+1.32845923e-01f,+3.03460825e-02f,+2.29501165e-02f,
+2.21110880e-01f,+2.03402862e-01f,+2.00542495e-01f,+2.88506504e-02f,+2.02236280e-01f,
+1.79178357e-01f,-4.81665917e-02f,+4.93994467e-02f,+1.36602998e-01f,+2.18464173e-02f,
-9.72055942e-02f,-5.74841425e-02f,-1.10652067e-01f,-1.69984937e-01f,-1.00528985e-01f,
-7.96785951e-02f,-1.30775869e-01f,+1.30446434e-01f,+1.12797193e-01f,+9.99346524e-02f,
-1.25896767e-01f,-3.19575965e-02f,-7.50834495e-02f,+1.50258273e-01f,-4.46810462e-02f,
-7.41070136e-02f,+1.81815922e-01f,+9.45440400e-03f,+1.00566849e-01f,-1.61594436e-01f,
-2.06397012e-01f,+6.48532109e-03f,-1.70111716e-01f,+7.47983679e-02f,-7.93725923e-02f,
-1.82404853e-02f,-1.61546506e-02f,-4.87809703e-02f,-1.55795598e-02f,-7.37112164e-02f,
+4.45871539e-02f,+1.20539248e-01f,+2.52821922e-01f,+5.51345013e-02f,-1.09830014e-01f,
+2.58801103e-01f,+1.32355005e-01f,-1.13152951e-01f,+1.26702175e-01f,+4.56402525e-02f,
+6.37952164e-02f,+3.38621944e-01f,-1.13740884e-01f,+1.70910060e-01f,+3.23568061e-02f,
-2.24588349e-01f,+1.34065941e-01f,+1.06258832e-01f,-1.94855258e-01f,-3.31142813e-01f,
+9.44549963e-02f,+7.26272464e-02f,+3.04552373e-02f,+8.95050839e-02f,-4.19607013e-02f,
+3.37573141e-02f,+3.37996297e-02f,+2.16625929e-02f,-7.30614066e-02f,-7.98443332e-02f,
-1.62639946e-01f,-2.64660902e-02f,-6.45486787e-02f,+1.97014317e-01f,-5.21146245e-02f,
+1.47016421e-01f,-9.55333933e-04f,-4.88801859e-02f,+2.64840871e-01f,+2.53148049e-01f,
-1.73496515e-01f,+2.61207987e-02f,+1.00923046e-01f,+1.43778518e-01f,+3.78650642e-04f,
-2.46030107e-01f,-2.51173258e-01f,+1.44469857e-01f,+5.72080491e-03f,-9.15995762e-02f,
-1.10582896e-01f,+1.01643786e-01f,-2.14774415e-01f,+5.30234687e-02f,+6.67439103e-02f,
-2.04748705e-01f,+7.62074813e-02f,-8.31980258e-02f,-9.93584655e-03f,+1.08026892e-01f,
-5.70439845e-02f,+6.78670406e-02f,+6.42143041e-02f,+1.50932401e-01f,+8.08987916e-02f,
+7.67830685e-02f,+2.76374221e-01f,+5.69833890e-02f,+3.59860837e-01f,+1.68209985e-01f,
+2.75260080e-02f,+1.54737690e-02f,-2.89603844e-02f,+1.55883553e-02f,+1.97557136e-02f,
-1.12253418e-02f,+9.05282125e-02f,-3.09737977e-02f,+1.75238073e-01f,-3.12743783e-01f,
-1.18800811e-02f,+5.54426648e-02f,+2.78949976e-01f,+7.22643211e-02f,+4.12833951e-02f,
-1.20429456e-01f,+1.47236139e-01f,+1.69806719e-01f,+1.06251396e-01f,-8.58139619e-02f,
+1.03219792e-01f,+1.93449721e-01f,+2.76628166e-01f,+7.61318058e-02f,-2.45224088e-02f,
-1.08938627e-01f,+8.86335075e-02f,+1.47766516e-01f,+5.48916757e-02f,+1.18263783e-02f,
+8.90686437e-02f,+4.92292553e-01f,+2.02599183e-01f,+1.36679998e-02f,+3.89527567e-02f,
-1.94555018e-02f,+1.93498284e-02f,+5.10548413e-01f,+1.59042850e-01f,+1.80628136e-01f,
-9.48660970e-02f,-1.62306782e-02f,+1.53664917e-01f,+2.60444701e-01f,-1.37763992e-01f,
+2.05520183e-01f,+3.62753183e-01f,-1.49664767e-02f,+8.47977698e-02f,-1.70436800e-01f,
+1.41150802e-01f,-1.50009826e-01f,+7.32989684e-02f,+3.16193521e-01f,-1.58840511e-02f,
+2.90137619e-01f,-4.64562848e-02f,-3.46536003e-03f,+6.46709651e-02f,+2.23581810e-02f,
-6.01892769e-02f,-2.41115708e-02f,-1.20144673e-01f,-1.29362615e-02f,+6.63878322e-02f,
+9.59583838e-03f,+9.29439589e-02f,+2.45330222e-02f,-7.75586348e-03f,-4.05987464e-02f,
+6.09216318e-02f,-1.81685582e-01f,+3.06391209e-01f,+7.15129748e-02f,-2.12845998e-03f,
+1.01621687e-01f,-9.20609534e-02f,-5.77948056e-03f,+2.02482253e-01f,+8.29971805e-02f,
+3.48472834e-01f,-1.26145771e-02f,+1.33518577e-01f,+6.60296828e-02f,+2.60583032e-02f,
+1.43159598e-01f,+8.80395249e-02f,+9.81856212e-02f,+2.03248054e-01f,+2.11552188e-01f,
+1.22983098e-01f,-2.28621271e-02f,+2.72687495e-01f,+6.04436755e-01f,+1.28198573e-02f,
+2.54618555e-01f,-1.36139154e-01f,-1.10883586e-01f,-1.34839445e-01f,+7.96441734e-02f,
-1.76047176e-01f,+1.54214129e-01f,-4.94204909e-02f,+5.40822409e-02f,-4.05738093e-02f,
+2.66586423e-01f,+2.33223170e-01f,+1.11607186e-01f,+1.01692766e-01f,-3.44912931e-02f,
+8.42999145e-02f,+3.75020742e-01f,-7.32435286e-02f,-2.41204709e-01f,-1.98447406e-01f,
-1.34234577e-01f,-1.22955933e-01f,+1.98433492e-02f,+9.38378423e-02f,-1.34733021e-01f,
+2.22761016e-02f,+9.33887661e-02f,+1.30828232e-01f,-1.46963149e-01f,-2.47347891e-01f,
+1.75699040e-01f,+2.02621549e-01f,+1.53306529e-01f,+2.29004756e-01f,-1.99288577e-01f,
+3.59880738e-02f,+6.71566948e-02f,+2.61931181e-01f,+6.61634430e-02f,+6.08254820e-02f,
+6.07679375e-02f,+8.89079422e-02f,-2.91838236e-02f,+1.29295560e-02f,+5.31884804e-02f,
-7.81072006e-02f,-1.50174405e-02f,+3.76619324e-02f,-2.06576642e-02f,-5.26198819e-02f,
-3.62199806e-02f,+1.02987602e-01f,-1.23777784e-01f,-3.59530421e-03f,+8.26926082e-02f,
+1.59014743e-02f,-4.06992696e-02f,+2.36988753e-01f,-2.80226022e-02f,+2.15033621e-01f,
-9.19980779e-02f,+1.60604119e-01f,+1.68466687e-01f,+1.27533644e-01f,-8.84176046e-02f,
+2.69706715e-02f,+1.43948030e-02f,-2.56109722e-02f,-2.52776772e-01f,-1.67175718e-02f,
+2.36342456e-02f,+2.53719807e-01f,+2.44449750e-01f,+1.41920254e-01f,+7.88083151e-02f,
-1.25874728e-02f,-1.23464420e-01f,-5.70062995e-02f,+2.60174125e-01f,+2.44369537e-01f,
-2.63549298e-01f,+6.93864375e-02f,+1.28846854e-01f,+3.14119250e-01f,+1.19768843e-01f,
-1.92859711e-03f,+1.76667005e-01f,+5.08678555e-02f,+1.01777930e-02f,+1.75475731e-01f,
-2.24372093e-03f,+1.93019867e-01f,+4.84181084e-02f,-7.42491409e-02f,+1.84031680e-01f,
-1.41391531e-02f,+2.60031652e-02f,+4.91913036e-02f,-1.01590618e-01f,-7.53478184e-02f,
+1.14297429e-02f,+6.54471070e-02f,+1.31534114e-01f,-1.04057677e-01f,+1.20794289e-01f,
-5.53371683e-02f,-7.79367909e-02f,+1.52508961e-02f,+1.03331707e-01f,-5.43496311e-02f,
+6.75057545e-02f,+2.55444139e-01f,+2.08213314e-01f,+2.74386629e-02f,+4.45728712e-02f,
-3.59546539e-04f,+6.06593378e-02f,+1.40095815e-01f,-2.16984689e-01f,+2.20557153e-02f,
-1.28646651e-02f,+9.17670950e-02f,-2.82498077e-02f,+7.37812594e-02f,-1.05165146e-01f,
-3.77480209e-01f,+7.60229230e-02f,-7.09832832e-02f,+1.87323406e-01f,-1.35909051e-01f,
+5.13930134e-02f,+2.09072996e-02f,-1.74873397e-01f,+2.80425865e-02f,-1.38366614e-02f,
+1.10850051e-01f,+2.27210209e-01f,+1.05742551e-01f,-2.13763058e-01f,+1.50880709e-01f,
+3.34992297e-02f,+9.04328376e-02f,+1.17044263e-02f,+5.61793037e-02f,+1.14368208e-01f,
-1.38033494e-01f,-8.95763785e-02f,-1.25910968e-01f,+1.34843931e-01f,+4.87704873e-02f,
+1.69440761e-01f,+3.94278541e-02f,+1.69680808e-02f,+3.65987420e-02f,+1.11066870e-01f,
+1.60161816e-02f,+2.81024396e-01f,+2.21393034e-01f,-7.31908903e-02f,+8.87071341e-02f,
+1.61968082e-01f,-6.84844628e-02f,+9.55604836e-02f,-1.13830864e-01f,+2.45436519e-01f,
+6.92128241e-02f,+2.24810671e-02f,-1.51354462e-01f,+2.05007002e-01f,+5.88102303e-02f,
-1.13792971e-01f,+1.67234123e-01f,+1.21963080e-02f,+2.98375543e-02f,+2.11706787e-01f,
+2.46622739e-03f,+7.66498148e-02f,+8.23863968e-02f,-7.99604431e-02f,+1.52925579e-02f,
+1.44350752e-01f,+1.00748606e-01f,-1.80888265e-01f,-5.01194596e-02f,-1.80924743e-01f,
-1.59919932e-01f,+2.22793175e-03f,+1.16840594e-01f,+1.99582413e-01f,+1.00656368e-01f,
-9.80682522e-02f,+1.00700751e-01f,+2.17358530e-01f,+4.93327044e-02f,+1.27320588e-01f,
+1.87385809e-02f,+2.35718310e-01f,+8.65592137e-02f,+2.89645791e-01f,-1.21839270e-01f,
+4.91979495e-02f,+2.99348123e-02f,+1.80285394e-01f,+3.06091998e-02f,+3.84457633e-02f,
-1.99519694e-01f,+1.95718303e-01f,-1.42913356e-01f,+1.01392269e-01f,+2.64079422e-01f,
+4.44216318e-02f,+1.77274436e-01f,-6.02072924e-02f,+9.91277695e-02f,-1.12785161e-01f,
+4.99008633e-02f,+2.24890247e-01f,-1.24749526e-01f,-1.23498008e-01f,+7.37153813e-02f,
+4.91840355e-02f,+2.30949119e-01f,-9.33637843e-02f,-1.83381140e-01f,+3.86067927e-02f,
+2.50106812e-01f,+1.82945784e-02f,-2.40872186e-02f,+1.20449230e-01f,-2.04596534e-01f,
+1.27462909e-01f,+1.40729740e-01f,+5.46392687e-02f,+1.08255088e-01f,-5.87154645e-03f,
+4.91891615e-02f,+7.63995275e-02f,+9.46201980e-02f,+3.80535454e-01f,+2.09361240e-02f,
+1.70904592e-01f,-5.21375127e-02f,+1.25288144e-01f,-1.10316806e-01f,-7.01454580e-02f,
+4.78964150e-02f,-6.32266700e-03f,+8.58322680e-02f,-8.27625617e-02f,+2.00751856e-01f,
+3.24155763e-02f,+1.39319375e-01f,-6.86674044e-02f,+1.49415016e-01f,+2.45011136e-01f,
+1.83188185e-01f,+1.33352444e-01f,-7.21216202e-02f,+1.83579952e-01f,+1.10098951e-01f,
-2.01918542e-01f,+1.33376569e-01f,-3.91057916e-02f,-1.18354708e-01f,+7.01235561e-03f,
+5.99696580e-03f,-6.43000081e-02f,+1.28904656e-01f,+5.40649854e-02f,+1.08292095e-01f,
-1.97879039e-02f,+2.93636054e-04f,-7.91263208e-02f,-8.47941563e-02f,-1.56542599e-01f,
+1.84429958e-01f,+2.30058685e-01f,-9.08398777e-02f,-1.12487853e-01f,+1.47791177e-01f,
-2.40000375e-02f,-1.17526852e-01f,+2.28724554e-01f,+5.17125353e-02f,-3.18095535e-02f,
-7.70942122e-02f,+5.24485335e-02f,+1.41687080e-01f,+1.12155385e-01f,-3.80828157e-02f,
+1.85730144e-01f,+1.13793381e-01f,+1.10344186e-01f,-1.38288820e-02f,-3.14715691e-02f,
-2.13506639e-01f,+4.31393925e-03f,+8.81563127e-02f,+2.70638257e-01f,+5.96887320e-02f,
-5.45928963e-02f,-2.37256452e-01f,-3.90809700e-02f,+1.17608659e-01f,-7.38161756e-03f,
+6.38942048e-03f,+1.44856110e-01f,-5.32550039e-03f,-6.10755086e-02f,+2.63106614e-01f,
+8.35648477e-02f,+1.43568426e-01f,-1.12030804e-01f,+4.58177596e-01f,+3.34737673e-02f,
-2.72649936e-02f,+1.45867109e-01f,-1.64986983e-01f,-7.55090490e-02f,-8.91645439e-03f,
+1.23048335e-01f,-2.18335520e-02f,+1.88653633e-01f,-8.90238881e-02f,-1.17012411e-01f,
+2.39513516e-01f,-3.10482562e-01f,-9.55540016e-02f,-9.82617512e-02f,+1.43944249e-01f,
-1.57706514e-01f,-1.28366007e-02f,+1.12284586e-01f,+5.81200905e-02f,+1.14136837e-01f,
-5.78683913e-02f,+1.07130520e-02f,-2.27374807e-02f,+2.08540812e-01f,+4.09393050e-02f,
+3.42919603e-02f,-1.66014001e-01f,+2.79005640e-03f,-1.54685989e-01f,+1.52775526e-01f,
-1.43689839e-02f,+3.33406106e-02f,-1.09891765e-01f,-1.83571260e-02f,+1.01641268e-01f,
+8.70467052e-02f,+8.44135210e-02f,+2.31188331e-02f,-1.55402556e-01f,-2.54515428e-02f,
+1.68370288e-02f,-7.13289827e-02f,-2.04313904e-01f,+1.08464248e-01f,+7.84019679e-02f,
-3.17200311e-02f,+5.23750409e-02f,+1.00568749e-01f,-3.64325568e-02f,-6.01367913e-02f,
+6.29958659e-02f,-1.78473935e-01f,-1.82905197e-01f,+2.33149361e-02f,+1.04962282e-01f,
+6.78547099e-02f,+3.80031988e-02f,-1.38291270e-01f,+1.66656807e-01f,+1.28977090e-01f,
+2.82712393e-02f,-5.44320010e-02f,+3.58863860e-01f,+1.48987994e-01f,-7.51174316e-02f,
-1.11236773e-01f,+3.47744823e-01f,+5.19058108e-02f,+2.19790384e-01f,+5.41020744e-02f,
+6.58070445e-02f,+1.22950613e-01f,+1.38687506e-01f,-8.10180679e-02f,+6.86455891e-02f,
-4.29847427e-02f,-1.19689561e-01f,+6.67352881e-03f,-2.76016057e-01f,-4.73013781e-02f,
+2.55243242e-01f,+5.57996407e-02f,-1.26136661e-01f,-8.42819363e-02f,-2.13239521e-01f,
-1.34963049e-02f,-2.36660942e-01f,+2.30843395e-01f,+2.51171529e-01f,-1.35048047e-01f,
+1.05822250e-01f,+1.81514788e-02f,+2.88516909e-01f,-1.18110865e-01f,-1.70115173e-01f,
+9.74721909e-02f,+2.03860179e-01f,+1.53599773e-02f,+4.45669703e-02f,+8.75664577e-02f,
-5.12709841e-02f,-1.23996265e-01f,-1.93492491e-02f,-1.59595296e-01f,+1.65153816e-01f,
+1.07925728e-01f,+7.52594694e-02f,-4.38013971e-02f,+1.78544149e-01f,-1.32137820e-01f,
+3.04885149e-01f,+1.95685357e-01f,-8.07917677e-03f,+1.64712340e-01f,+2.35858895e-02f,
-7.72861540e-02f,+7.33961910e-02f,+3.48674767e-02f,-7.68887550e-02f,-5.80019958e-04f,
+3.31105709e-01f,-1.09435156e-01f,+4.09760959e-02f,+7.17511997e-02f,+5.94073348e-02f,
+1.09365858e-01f,+9.58800763e-02f,+8.63133445e-02f,+3.09369653e-01f,-5.99956177e-02f,
+6.16378374e-02f,-4.47104797e-02f,-4.20009829e-02f,-1.46466479e-01f,+1.42891318e-01f,
+3.28446090e-01f,+2.19166219e-01f,-1.36431791e-02f,-6.73259646e-02f,+1.41854078e-01f,
+9.68489144e-03f,+1.50528520e-01f,+1.69068113e-01f,-2.37912256e-02f,+3.04552931e-02f,
+2.74655610e-01f,+1.34211972e-01f,-5.41284531e-02f,+8.04140121e-02f,+1.61393985e-01f,
+6.00980595e-02f,+1.79147601e-01f,+7.09045455e-02f,+2.34467685e-02f,+5.98894618e-02f,
+9.36948583e-02f,+2.75038391e-01f,-1.98436738e-03f,+4.79151458e-02f,+3.56747210e-02f,
+1.19530626e-01f,+1.16190292e-01f,-2.35243663e-02f,+6.81222156e-02f,+1.12015858e-01f,
+1.90747119e-02f,-1.81490079e-01f,+8.88943374e-02f,+1.66289628e-01f,-1.66961506e-01f,
-7.67284557e-02f,+6.05337769e-02f,+8.93843397e-02f,-3.66332009e-02f,+9.76801757e-03f,
+1.18485130e-01f,+1.86484843e-01f,+4.71048094e-02f,-1.78327013e-04f,+2.16501430e-01f,
-2.08716486e-02f,+1.67575687e-01f,+1.13466308e-02f,+1.19805587e-02f,+2.72411883e-01f,
+1.05931237e-01f,-1.26157865e-01f,+2.04576001e-01f,+1.73225880e-01f,+2.28794944e-02f,
+1.71788365e-01f,+1.33185208e-01f,-2.80328244e-02f,+1.47571534e-01f,-1.00620706e-02f,
+2.85668299e-02f,+2.25947037e-01f,+5.11332937e-02f,+5.79287708e-02f,+4.41930164e-03f,
-3.61175872e-02f,+1.76917374e-01f,+1.70573324e-01f,+4.05711569e-02f,+4.30645533e-02f,
-3.48912925e-02f,-6.23423681e-02f,-2.34178957e-02f,+1.95041627e-01f,-1.17727689e-01f,
+1.22782566e-01f,-1.54614329e-01f,+2.58669872e-02f,+6.95074201e-02f,+1.91627145e-01f,
+1.90172698e-02f,+2.49667734e-01f,-4.93727587e-02f,+1.27841756e-01f,-4.46682470e-03f,
+2.96159461e-02f,+1.83390051e-01f,-2.42147315e-03f,+1.52209744e-01f,-2.52405286e-01f,
-3.69160436e-02f,+2.02514201e-01f,-1.00833036e-01f,+1.49018019e-01f,+3.55940014e-02f,
-2.17282131e-01f,+1.03686132e-01f,+7.57520553e-03f,+2.25782707e-01f,+1.50951207e-01f,
+2.40209982e-01f,+9.28691402e-02f,+7.97746982e-03f,+8.23494643e-02f,+1.99397672e-02f,
-9.62710567e-03f,-1.42058700e-01f,+5.75208776e-02f,+1.97094619e-01f,-1.31914571e-01f,
+1.79754570e-01f,-7.92539939e-02f,+9.79534984e-02f,+6.64323345e-02f,+1.62360400e-01f,
+4.02165838e-02f,+3.66613179e-01f,+2.54959583e-01f,+9.00936201e-02f,+1.54793277e-01f,
+1.17089324e-01f,+1.78504288e-01f,+2.76034832e-01f,+1.51846912e-02f,-1.70123547e-01f,
+7.70732760e-02f,+1.80629328e-01f,+1.15157396e-01f,-1.05946116e-01f,+4.84726653e-02f,
+1.62467524e-01f,-3.00337952e-02f,+2.07038939e-01f,+3.09974439e-02f,+1.56152606e-01f,
+1.10267520e-01f,-3.89121771e-02f,+1.97958827e-01f,+1.43790379e-01f,-7.17808679e-02f,
+3.79398614e-01f,-1.10836200e-01f,-8.14570934e-02f,+1.00725919e-01f,+2.16650918e-01f,
-5.00910096e-02f,+9.15278941e-02f,+7.53116682e-02f,-5.24949953e-02f,-1.53855026e-01f,
+8.91527832e-02f,+9.54288021e-02f,+1.63431436e-01f,+1.30428374e-01f,+9.37400684e-02f,
+1.40790567e-01f,-1.34344012e-01f,+1.78724632e-01f,+2.50611395e-01f,+1.37039170e-01f,
+8.71128496e-03f,-5.20061050e-03f,+6.52203290e-03f,+3.46519127e-02f,+6.30050339e-03f,
+3.39091867e-02f,+3.40115577e-02f,-5.44994548e-02f,-8.56930204e-03f,+5.72602786e-02f,
+4.48608212e-02f,+1.05832078e-01f,+1.99551487e-05f,+1.19495824e-01f,+2.52067834e-01f,
+2.58505434e-01f,+2.74149895e-01f,-1.44166388e-02f,+5.38370684e-02f,-1.70811862e-01f,
+7.92065710e-02f,+2.23433346e-01f,+2.42853343e-01f,+4.74429224e-03f,+3.23577821e-02f,
+1.03825061e-02f,+1.07862912e-01f,+6.67686388e-02f,+1.51007935e-01f,+2.07805157e-01f,
+8.91827338e-04f,+1.29508957e-01f,+1.10480166e-03f,-2.36846227e-02f,+2.20172241e-01f,
+1.29021913e-01f,+6.61440864e-02f,+2.14926630e-01f,+1.02820590e-01f,+2.72154175e-02f,
+1.74095929e-02f,+1.61178380e-01f,+9.11165401e-02f,+7.14034364e-02f,+8.95586535e-02f,
+1.15283534e-01f,+9.94608700e-02f,+6.45802096e-02f,-6.56600967e-02f,-8.28026682e-02f,
-5.77193964e-03f,+4.98967208e-02f,-1.26461089e-01f,-3.39407623e-02f,-2.61307531e-03f,
-6.68910444e-02f,+1.28231421e-01f,+1.69066701e-03f,+1.03723943e-01f,+1.05332658e-01f,
+7.68582076e-02f,+4.35010158e-02f,+8.29540566e-02f,-2.37779506e-03f,-5.14288098e-02f,
-6.10514954e-02f,+6.37587681e-02f,+5.17885061e-03f,+1.18595287e-02f,+2.55027145e-01f,
-6.07381389e-02f,+8.82596225e-02f,+5.97572885e-02f,+1.04510263e-01f,+1.23716153e-01f,
+8.90647843e-02f,-3.94284315e-02f,+7.19969124e-02f,+3.37539203e-02f,+7.01633394e-02f,
+1.94914907e-01f,+1.46374851e-01f,+3.48214842e-02f,+1.05812542e-01f,+2.09677190e-01f,
+1.75359905e-01f,+1.44743800e-01f,-9.88640338e-02f,+4.60970625e-02f,+7.40588531e-02f,
+4.98900823e-02f,+9.97672603e-02f,+9.18207318e-02f,+1.58736780e-01f,+1.32759269e-02f,
+5.80541529e-02f,+8.25378373e-02f,-7.05014318e-02f,-2.98997890e-02f,+2.02338651e-01f,
-5.81958853e-02f,+5.46401255e-02f,+1.27664864e-01f,-1.75703004e-01f,+6.69362247e-02f,
+6.41947240e-03f,+1.06759809e-01f,+1.78869143e-02f,+7.39509538e-02f,-6.10505566e-02f,
+1.33733630e-01f,+7.00472444e-02f,-9.95387435e-02f,+9.58842114e-02f,+6.79809526e-02f,
+2.14625269e-01f,-7.67857861e-03f,-1.85501665e-01f,+1.10595010e-01f,+8.05066302e-02f,
+9.10627320e-02f,-1.45550355e-01f,+1.66164160e-01f,+1.07816391e-01f,-4.46056239e-02f,
+9.06049758e-02f,+8.23070854e-02f,+7.36436844e-02f,+4.59112488e-02f,-2.66180877e-02f,
+1.57563567e-01f,+6.99118376e-02f,+6.20259866e-02f,-3.29436287e-02f,+1.48099199e-01f,
+6.72384501e-02f,-4.81691547e-02f,+3.28834988e-02f,-8.78185108e-02f,+3.51975635e-02f,
+1.62200317e-01f,+3.96220647e-02f,-3.80281173e-02f,-6.57318458e-02f,+6.77732527e-02f,
+3.33690308e-02f,+2.71501634e-02f,+2.02312171e-01f,-1.54033765e-01f,+1.83753252e-01f,
+1.47273824e-01f,+1.45925552e-01f,+8.38189349e-02f,+1.70317188e-01f,-7.66747538e-03f,
-3.51640247e-02f,+1.63354710e-01f,+1.25567332e-01f,+1.79222479e-01f,-5.23710735e-02f,
+2.00311065e-01f,+2.07088813e-01f,+2.12996617e-01f,+5.19801304e-02f,+1.39436647e-01f,
+2.25134678e-02f,-1.62608922e-03f,-5.12399524e-02f,-1.55448392e-02f,+1.00220349e-02f,
+1.69764578e-01f,+1.97570007e-02f,-5.16441371e-03f,-1.17095299e-01f,+4.23368290e-02f,
+5.95360771e-02f,+7.65212402e-02f,-1.43864959e-01f,+2.32667793e-02f,+4.98007461e-02f,
-3.71022262e-02f,+1.67205706e-01f,+2.44265467e-01f,+1.24099320e-02f,+2.35468727e-02f,
+5.91773838e-02f,+3.81526388e-02f,-6.56306604e-03f,-4.63080779e-02f,+2.05015704e-01f,
-1.34147882e-01f,+2.79782861e-01f,+7.03584030e-02f,+2.26829857e-01f,+6.67699426e-02f,
-5.71676157e-02f,+7.61614218e-02f,+1.10499319e-02f,+1.77896932e-01f,-2.59177312e-02f,
+6.45345375e-02f,-2.39826292e-02f,+2.59926587e-01f,+6.34431839e-02f,-1.53367460e-01f,
-1.71159193e-01f,-1.92765698e-01f,-8.36775601e-02f,+1.62380517e-01f,-5.53917722e-04f,
+1.11190647e-01f,+1.43878803e-01f,+6.66610748e-02f,+2.83202768e-04f,-7.62889534e-03f,
-4.59331945e-02f,+1.36216672e-03f,+4.40086484e-01f,-1.55524299e-01f,-1.57874227e-01f,
-1.40307620e-01f,+1.22069232e-01f,+1.44927353e-01f,+1.69156164e-01f,-2.17692107e-01f,
+4.08527479e-02f,-1.72996923e-01f,+1.09767420e-02f,+1.15948312e-01f,+2.26983666e-01f,
+1.27675176e-01f,+1.83089897e-01f,+1.91442631e-02f,-1.43089443e-01f,+1.56183153e-01f,
+1.55001327e-01f,+4.09986168e-01f,+9.43208709e-02f,+2.02531051e-02f,+6.55786097e-02f,
-1.34883747e-01f,-5.05600609e-02f,+1.01840071e-01f,+1.97405070e-01f,-2.46114917e-02f,
+5.49854152e-03f,-5.43125272e-02f,+2.39327297e-01f,-1.51356131e-01f,+2.56538158e-03f,
+1.37100145e-01f,+8.01536962e-02f,+7.20819607e-02f,+1.37696162e-01f,+2.27358893e-01f,
+2.44506588e-03f,+2.45343491e-01f,-2.58292118e-03f,-3.36906202e-02f,+7.20930248e-02f,
-1.34506702e-01f,+1.64941132e-01f,+1.20155655e-01f,+6.88511878e-02f,-3.03586479e-02f,
+1.04908787e-01f,-3.84377257e-04f,+1.51819929e-01f,-2.07577385e-02f,-6.74723461e-03f,
-1.01121515e-01f,-7.83675015e-02f,+1.09884152e-02f,-8.38426128e-02f,+1.31698832e-01f,
+3.78630683e-02f,+2.54145376e-02f,-2.47781962e-01f,-1.24608502e-02f,-2.00787917e-01f,
+4.44189087e-02f,+1.18347466e-01f,+3.30283463e-01f,+4.13094871e-02f,+1.27111804e-02f,
+2.15148911e-01f,-1.31818071e-01f,-7.35584423e-02f,+1.79172307e-02f,+2.43008748e-01f,
-1.47614956e-01f,+1.58354983e-01f,+3.07684451e-01f,-1.12407625e-01f,-1.04111470e-02f,
+1.49918422e-01f,+1.21450983e-01f,+1.87959716e-01f,+3.39762628e-01f,+6.42450154e-02f,
+1.60948783e-02f,+4.79988419e-02f,-1.97383109e-02f,-3.75737958e-02f,+2.59597778e-01f,
-1.47612887e-02f,+1.15252234e-01f,+3.36975828e-02f,-5.35090677e-02f,+1.90781564e-01f,
+2.36048982e-01f,+6.60418198e-02f,+6.27212822e-02f,+2.99533188e-01f,-1.20678261e-01f,
-1.19104244e-01f,+2.52850372e-02f,-1.99209049e-01f,+1.57983735e-01f,+8.98786634e-02f,
+4.13823545e-01f,-7.81257749e-02f,-1.95079803e-01f,-1.51730906e-02f,+1.19068705e-01f,
+7.73414299e-02f,+7.65075386e-02f,+3.70164931e-01f,+1.32437684e-02f,+2.09547177e-01f,
+1.77150056e-01f,+1.14356153e-01f,-3.92952785e-02f,+1.65685117e-01f,+2.18101874e-01f,
+1.90987125e-01f,+3.97754312e-02f,-2.37261839e-02f,+2.65151523e-02f,-2.90409863e-01f,
-1.39970973e-01f,+1.42529495e-02f,+2.32622504e-01f,+2.52407491e-01f,+3.63502115e-01f,
-4.14194427e-02f,+5.72404414e-02f,+1.12109981e-01f,+2.38162518e-01f,+1.53452411e-01f,
+1.07103102e-01f,+1.53008088e-01f,-1.96912792e-02f,+1.90369487e-02f,+6.94560036e-02f,
+3.61593723e-01f,+2.16946721e-01f,+1.05876304e-01f,+1.14567786e-01f,-1.39936328e-01f,
+1.70313373e-01f,+1.27462581e-01f,+8.47438648e-02f,-1.50441676e-01f,+1.96112767e-01f,
+3.06734927e-02f,-1.17111458e-02f,+5.39422631e-02f,+6.72632083e-02f,+2.29048043e-01f,
+1.98436677e-01f,+1.53168887e-01f,+2.96338290e-01f,+7.15662912e-02f,+2.78628141e-01f,
-2.67099310e-03f,+1.37097359e-01f,+2.78175771e-01f,+6.20978177e-02f,+1.71157643e-01f,
-4.09170724e-02f,+6.99707419e-02f,+2.78915882e-01f,+8.08093548e-02f,-2.63309255e-02f,
+1.19495884e-01f,+8.36064219e-02f,+7.16168657e-02f,+1.14472851e-01f,+1.13127276e-01f,
+1.07918225e-01f,-3.60638499e-02f,+9.06334668e-02f,-9.55298729e-03f,+1.78915948e-01f,
-1.18097790e-01f,+1.52336761e-01f,-1.74016207e-01f,-1.97249353e-01f,+2.70852774e-01f,
+1.25053674e-01f,+1.57337010e-01f,-5.40045649e-02f,+7.83143118e-02f,+2.15155303e-01f,
+1.15731478e-01f,+6.72085881e-02f,+1.14912968e-02f,+1.30453452e-01f,+5.87903447e-02f,
+2.45800763e-01f,+1.70358643e-01f,-8.65669250e-02f,-7.26580843e-02f,+2.38497462e-02f,
+1.51056662e-01f,+6.57855868e-02f,+2.62116253e-01f,-5.10170944e-02f,-3.60464901e-02f,
+1.42563909e-01f,+1.26198074e-02f,-3.87008525e-02f,-9.66713876e-02f,+1.39514236e-02f,
-2.61747241e-01f,+9.36265886e-02f,-1.92769226e-02f,-9.16193500e-02f,-1.58215746e-01f,
-3.26124400e-01f,+4.57860250e-03f,-1.13097973e-01f,+3.40509027e-01f,-1.07784331e-01f,
+1.80513486e-02f,+1.21046770e-02f,+1.96505859e-02f,-9.54624787e-02f,-1.69146061e-02f,
+2.65819848e-01f,+3.55207592e-01f,-1.45141885e-01f,+6.12590984e-02f,+3.73656899e-02f,
+4.65568125e-01f,+2.53895372e-01f,+2.60788053e-01f,+9.96661931e-02f,+3.72717343e-02f,
+1.34476259e-01f,+7.72167221e-02f,+1.07893139e-01f,+9.10020992e-02f,-5.78155518e-02f,
-9.56352428e-02f,+2.07980916e-01f,+8.92265439e-02f,+1.32991403e-01f,+9.67507884e-02f,
+2.29658902e-01f,+1.59493595e-01f,+4.91544493e-02f,+2.59012431e-01f,-4.82281074e-02f,
+2.49640435e-01f,+1.07133515e-01f,+4.38039601e-02f,-3.85324657e-02f,-4.84409602e-03f,
+3.09070140e-01f,-7.10212514e-02f,+2.07224533e-01f,+8.49635061e-03f,-4.71405461e-02f,
-1.44541651e-01f,+6.31820709e-02f,+1.08478270e-01f,-5.22617996e-02f,+5.02664708e-02f,
-1.40570328e-01f,+2.98113853e-01f,-1.93749070e-01f,-1.54440012e-02f,+6.79478124e-02f,
-4.49724421e-02f,-5.97574003e-02f,+2.81184465e-02f,+2.00119436e-01f,-4.25315276e-02f,
+2.96181202e-01f,+1.49425939e-01f,+1.19634576e-01f,+1.07600853e-01f,-1.53143600e-01f,
+1.47326842e-01f,+1.41078085e-01f,+1.60918534e-01f,+1.06592394e-01f,-6.92647025e-02f,
+7.90205896e-02f,+1.18790559e-01f,+1.73375428e-01f,+1.11394100e-01f,-5.80067784e-02f,
-7.53579885e-02f,-6.56317174e-02f,+1.40473202e-01f,-3.61697339e-02f,+1.27046764e-01f,
+1.11253045e-01f,+1.41843885e-01f,+8.72717202e-02f,-1.78818047e-01f,-5.22232652e-02f,
+2.24524170e-01f,-1.26644805e-01f,-1.36264302e-02f,-5.20551726e-02f,+2.63456702e-01f,
-1.81962669e-01f,+1.96968585e-01f,-2.89957784e-02f,+4.70172375e-01f,-9.92827863e-02f,
+2.41036694e-02f,+4.86905798e-02f,-4.00755089e-03f,-6.78412244e-02f,+1.68326631e-01f,
+1.26602694e-01f,+1.32803507e-02f,-1.20203029e-02f,+8.02553743e-02f,+7.99098015e-02f,
+1.02761790e-01f,-2.02516783e-02f,-1.13301903e-01f,+8.56234953e-02f,+2.29459330e-01f,
+9.25074890e-03f,-4.83643524e-02f,+5.90564078e-03f,+5.25408052e-02f,+1.23913683e-01f,
-3.71486880e-02f,+8.16795751e-02f,-5.73860481e-02f,-1.02226390e-02f,+2.70701963e-02f,
+3.59610558e-01f,-2.87494343e-02f,-1.55770421e-01f,-4.30347361e-02f,-2.86563989e-02f,
+1.34206697e-01f,-1.97126064e-02f,+1.67190552e-01f,+2.39663780e-01f,+6.56294152e-02f,
+9.63615924e-02f,-4.42918129e-02f,+1.26162954e-02f,-1.37386933e-01f,+1.74750537e-01f,
+1.79365650e-01f,+7.13077262e-02f,+5.80003262e-02f,+3.90099734e-02f,-8.49983562e-03f,
+2.16256216e-01f,+1.52857438e-01f,+3.76584493e-02f,-4.57453392e-02f,-5.63292727e-02f,
+2.65592188e-01f,+9.35878530e-02f,+2.95927823e-01f,+1.19491182e-01f,+6.09009005e-02f,
-6.51875660e-02f,-3.98526564e-02f,-7.48144016e-02f,+2.45778233e-01f,-3.11291171e-03f,
+2.46125013e-01f,-1.04881175e-01f,+1.00958072e-01f,-8.15985352e-02f,+5.55914566e-02f,
-1.14947304e-01f,+1.52353197e-01f,+1.64822921e-01f,-9.10408571e-02f,-4.57829908e-02f,
+7.91890174e-02f,+2.59202700e-02f,+1.50730208e-01f,+1.37659192e-01f,+1.74515069e-01f,
+3.56182717e-02f,+1.51247129e-01f,-2.29116306e-01f,+3.73482332e-02f,+2.38612771e-01f,
-1.21892475e-01f,-7.78017491e-02f,+1.71953693e-01f,-7.33464062e-02f,+7.99822733e-02f,
-9.86585021e-02f,-3.96585371e-03f,+8.17184970e-02f,-1.67418748e-01f,-8.96090344e-02f,
+2.42846161e-01f,+1.87043585e-02f,+1.51239783e-02f,+1.32903591e-01f,-7.74702504e-02f,
+1.95918173e-01f,-5.57360016e-02f,+1.79669544e-01f,+1.81276664e-01f,-1.69696257e-01f,
-1.91870436e-01f,+1.67672887e-01f,-1.82616606e-01f,-1.30495459e-01f,-1.55238524e-01f,
-5.07452488e-02f,+2.32090533e-01f,+3.56259593e-03f,+8.66385400e-02f,-1.01403543e-03f,
+9.44628641e-02f,-9.84434858e-02f,-1.30160123e-01f,+1.55401211e-02f,-6.67970255e-02f,
-2.35633627e-02f,+2.01381311e-01f,+3.65204185e-01f,-4.57388759e-02f,-1.91089720e-01f,
+9.51503664e-02f,+7.05897138e-02f,+1.25385568e-01f,-1.08752474e-01f,+1.21929012e-01f,
+1.92425385e-01f,+2.48574987e-01f,+1.15406342e-01f,+5.23229763e-02f,+2.77458690e-02f,
+8.55534077e-02f,-1.81797501e-02f,-7.56792203e-02f,+5.18339537e-02f,-7.26088881e-02f,
+3.81768972e-01f,+2.03738078e-01f,+3.30067240e-03f,-2.25684866e-02f,+1.13992594e-01f,
-4.21818122e-02f,+1.40291318e-01f,-1.34974405e-01f,-3.22654704e-03f,+2.36287281e-01f,
-2.28907034e-01f,+3.96361917e-01f,-1.68684199e-01f,+1.14457205e-01f,+2.64827609e-01f,
+6.77612722e-02f,-6.64180964e-02f,+6.42009079e-02f,+3.94378081e-02f,+1.84743747e-01f,
+5.92840556e-03f,+1.27237990e-01f,-9.86723602e-02f,-3.58709414e-03f,+1.07247509e-01f,
+6.02746569e-02f,+8.19642469e-02f,-2.12278962e-01f,+2.15118662e-01f,+5.69387563e-02f,
-2.03773417e-02f,+6.67809099e-02f,+2.47345179e-01f,+1.75061654e-02f,+7.52427503e-02f,
+5.70254140e-02f,-3.93516794e-02f,-4.34567630e-02f,+2.52956510e-01f,-1.64190624e-02f,
+1.84554800e-01f,+9.26031098e-02f,+3.40346932e-01f,-6.30319938e-02f,-1.51587009e-01f,
+9.72366631e-02f,-1.01374224e-01f,-2.00146809e-01f,+8.48984420e-02f,-1.37102559e-01f,
-6.56402707e-02f,+2.47281883e-02f,+5.74965635e-03f,+1.38321184e-02f,-2.02891871e-01f,
+7.30516911e-02f,+1.24632873e-01f,+3.78648527e-02f,+5.82683422e-02f,-1.31073836e-02f,
+2.32198760e-01f,+5.03588170e-02f,+7.47017264e-02f,-3.12673710e-02f,+5.84672717e-03f,
+1.27576320e-02f,+4.91378903e-02f,+6.74290210e-02f,+8.30864981e-02f,+2.47328684e-01f,
+5.07460460e-02f,+2.35027801e-02f,+6.20269915e-03f,+9.63641480e-02f,+2.51030713e-01f,
-7.19554797e-02f,+1.36194974e-01f,-8.26524347e-02f,+1.94946557e-01f,+1.59835920e-01f,
+4.69531752e-02f,-1.00270798e-02f,+5.61382398e-02f,+8.24448019e-02f,+1.73159227e-01f,
+3.49016249e-01f,+1.67328671e-01f,+1.73338428e-01f,-1.26495168e-01f,+2.69199997e-01f,
+2.38020495e-02f,+5.67832366e-02f,-5.00898771e-02f,+1.71147898e-01f,+1.75385267e-01f,
-4.38169271e-01f,-6.94944523e-03f,+5.07203452e-02f,+6.29488155e-02f,+5.99261820e-02f,
+2.13548258e-01f,+8.16331878e-02f,+9.60598793e-03f,+3.12515395e-03f,+1.05661146e-01f,
+1.15392394e-02f,-2.01690450e-01f,+1.40068904e-01f,+8.83164778e-02f,-3.46657005e-03f,
-2.72591949e-01f,-9.12006870e-02f,+7.85592645e-02f,-7.63133634e-03f,-4.68535945e-02f,
+1.35102391e-01f,+2.29526460e-01f,-1.04475506e-01f,+7.11411983e-02f,-2.61492748e-02f,
-6.96578100e-02f,+3.40475664e-02f,-1.47796437e-01f,+1.51205175e-02f,-1.04674935e-01f,
+5.78599945e-02f,+8.16646069e-02f,+2.46881172e-01f,-8.28903466e-02f,+1.69889275e-02f,
+2.82579046e-02f,-7.48543665e-02f,-1.95818935e-02f,+1.65972635e-01f,+8.35343748e-02f,
+1.86912984e-01f,-2.83098042e-01f,+3.27964723e-01f,+8.67799483e-03f,+5.58303185e-02f,
+8.60234126e-02f,+1.15116946e-01f,+3.85989025e-02f,-1.56276241e-01f,+1.63046718e-01f,
+2.50907123e-01f,+1.16943821e-01f,+4.39079516e-02f,+4.27341342e-01f,+1.09884143e-01f,
+8.95659849e-02f,+2.21828092e-02f,+7.38166720e-02f,+1.40371546e-02f,-2.88323332e-02f,
+1.95161089e-01f,+2.54045457e-01f,+4.98466566e-02f,+7.67555013e-02f,+6.23081364e-02f,
-6.03115521e-02f,+1.60685703e-02f,-3.56681272e-02f,+1.28117660e-02f,+7.43908435e-02f,
+3.26011889e-02f,-4.28804047e-02f,+8.02410096e-02f,+1.75951067e-02f,+1.15841635e-01f,
+2.07894728e-01f,+2.98283678e-02f,+1.29103094e-01f,+7.94900283e-02f,+1.08532093e-01f,
-6.47699982e-02f,+1.28103122e-01f,-4.78110882e-03f,+1.34019420e-01f,+1.30824387e-01f,
+7.36788660e-02f,+1.60246521e-01f,+4.61996794e-02f,+8.61496776e-02f,+7.45879263e-02f,
+7.18647838e-02f,+8.24188516e-02f,-1.45445183e-01f,+4.98166587e-03f,+5.02633005e-02f,
+1.36557728e-01f,+2.90115457e-02f,+1.21713147e-01f,+1.01460949e-01f,+3.57406065e-02f,
+1.99567318e-01f,+9.26128402e-02f,+1.92608029e-01f,-2.22459286e-02f,-8.59991834e-02f,
-1.33007571e-01f,+8.63097683e-02f,-1.25137959e-02f,-1.86456650e-01f,+2.36402497e-01f,
-2.05930293e-01f,-6.19515851e-02f,-4.35131565e-02f,+2.26591602e-01f,+1.40822858e-01f,
+1.43516243e-01f,+4.55619842e-02f,+7.63142556e-02f,-6.26732782e-02f,-1.79161429e-02f,
+2.16474190e-01f,+1.47405088e-01f,+9.98536944e-02f,+2.17980519e-01f,+2.14874998e-01f,
+5.72794974e-02f,-5.00819758e-02f,+8.23120326e-02f,+9.84169692e-02f,-2.41869926e-01f,
-8.35785419e-02f,+3.40208650e-01f,+1.23419665e-01f,+2.07920387e-01f,-1.06393266e-02f,
+1.18737243e-01f,+3.59382153e-01f,-3.57894110e-03f,-2.51024067e-02f,+4.07921374e-02f,
+4.14976031e-02f,+9.12771281e-03f,+1.21291861e-01f,+3.62395197e-02f,+1.48231745e-01f,
-8.76351669e-02f,-2.15769678e-01f,+1.61139965e-01f,-5.95542826e-02f,+5.55427819e-02f,
+1.65020108e-01f,+2.12770358e-01f,-1.04093276e-01f,+1.36863545e-01f,+9.74687934e-02f,
+9.67463180e-02f,+1.89100444e-01f,+2.78200358e-01f,+5.79846762e-02f,+6.99961632e-02f,
+8.07384327e-02f,-8.45941454e-02f,+5.83010428e-02f,+1.14260547e-01f,+2.77368240e-02f,
+1.08897448e-01f,+7.91393444e-02f,-3.74642946e-02f,+3.62856612e-02f,+1.79263994e-01f,
+2.01946720e-02f,+2.18770683e-01f,-1.79798417e-02f,-7.78782815e-02f,+1.63179353e-01f,
+1.21578448e-01f,-9.65645984e-02f,+2.22000539e-01f,+3.95864248e-02f,+5.52035607e-02f,
+2.02109724e-01f,-7.06531405e-02f,+3.07123959e-01f,+5.56826182e-02f,+3.98188472e-01f,
+2.84070849e-01f,+1.13246761e-01f,+7.93644786e-03f,+9.92209017e-02f,+1.21338382e-01f,
+6.27480745e-02f,+8.15971121e-02f,-1.49369228e-03f,+1.10509254e-01f,-1.07204691e-01f,
-2.36228891e-02f,-5.97394146e-02f,+2.19875336e-01f,+1.09445207e-01f,+1.37854129e-01f,
+9.98107623e-03f,+1.69060230e-01f,-1.30874058e-02f,+2.75637120e-01f,+1.68919206e-01f,
+2.76914816e-02f,+1.77623197e-01f,+9.43333283e-02f,+1.77722558e-01f,+4.62750718e-02f,
+1.29890889e-01f,-7.91732371e-02f,+6.36916906e-02f,+1.56450406e-01f,-1.35623821e-04f,
+1.70997605e-01f,+9.37048420e-02f,+1.99634105e-01f,+3.90647426e-02f,-5.55211082e-02f,
-1.26128912e-01f,-2.77066547e-02f,+2.24359468e-01f,+6.12588525e-02f,+1.55257329e-01f,
+2.15790629e-01f,+7.26604760e-02f,+1.20007075e-01f,-2.94785239e-02f,+2.19398186e-01f,
-7.64632598e-02f,-4.01174948e-02f,-1.90738235e-02f,-1.33437827e-01f,+1.57057261e-03f,
-8.92505888e-03f,+4.23997678e-02f,+7.89606199e-02f,+4.05756272e-02f,+1.31404117e-01f,
-4.27770875e-02f,+1.17131121e-01f,+2.19368488e-01f,+3.58711071e-02f,+1.36177585e-01f,
+2.10702553e-01f,-1.64435729e-01f,+1.98161379e-01f,-1.57238871e-01f,+4.62542661e-02f,
+2.39682365e-02f,+4.17280853e-01f,+1.81271657e-01f,+7.30902478e-02f,+1.83940396e-01f,
+3.49453315e-02f,+1.66425869e-01f,+1.97606340e-01f,+1.52878776e-01f,+7.89171234e-02f,
+3.62785518e-01f,-4.07210365e-02f,+1.41664281e-01f,-1.02297971e-02f,+1.77888751e-01f,
+1.57698259e-01f,+2.94210583e-01f,+8.63660499e-02f,+1.15542471e-01f,-3.21681052e-01f,
+3.61586243e-01f,-1.73346370e-01f,+1.09587818e-01f,+5.23677692e-02f,+1.49672385e-02f,
+2.80857980e-01f,+1.37070552e-01f,+1.18996568e-01f,+6.72083497e-02f,+8.63339305e-02f,
+1.73031256e-01f,+1.14146218e-01f,+7.26103932e-02f,+2.19585281e-02f,-7.60041783e-03f,
+9.50571671e-02f,+1.85806781e-01f,+2.60509513e-02f,+1.12873413e-01f,-4.70727496e-02f,
+1.25072241e-01f,+3.40575986e-02f,+5.76625653e-02f,+2.14763582e-01f,+2.11604446e-01f,
-3.56378183e-02f,+3.11529219e-01f,-3.58476378e-02f,-1.49487972e-01f,+1.00822978e-01f,
+1.31122708e-01f,+3.80390063e-02f,+4.33225036e-02f,-1.24198906e-01f,+1.72776461e-01f,
-2.79517248e-02f,+1.71697333e-01f,-3.70334424e-02f,+8.89379606e-02f,+8.74675140e-02f,
+1.62693560e-01f,+7.21718073e-02f,+3.10220957e-01f,-1.23778179e-01f,-1.48109019e-01f,
+1.46009892e-01f,-8.95246863e-03f,+2.24558003e-02f,-1.89241961e-01f,-4.15247045e-02f,
+2.70994335e-01f,-4.13110480e-03f,+7.48641640e-02f,+2.47615185e-02f,+1.32626221e-01f,
+9.22163203e-02f,+8.93736035e-02f,+1.71384901e-01f,+7.38653839e-02f,+9.71338376e-02f,
+1.76159382e-01f,+1.12749100e-01f,-1.72685422e-02f,+1.01111501e-01f,+2.96406560e-02f,
+1.73540294e-01f,+1.56516865e-01f,+1.79615114e-02f,-1.02346227e-01f,+1.66532159e-01f,
-1.59103870e-01f,-1.28543125e-02f,+6.06285632e-02f,+1.49591744e-01f,+1.85446903e-01f,
+1.46857411e-01f,+4.66371067e-02f,-1.97060443e-02f,+1.04517639e-01f,+1.05461068e-01f,
+5.95568568e-02f,+1.91672489e-01f,+4.92228530e-02f,+3.85969840e-02f,+2.90680416e-02f,
-2.08876714e-01f,-3.03492341e-02f,+1.30110383e-01f,+7.93394223e-02f,+9.52599272e-02f,
+1.39870215e-02f,+1.18075714e-01f,-1.39034819e-02f,+1.12981044e-01f,+5.25590628e-02f,
+3.18793863e-01f,+3.89204058e-03f,-3.80537822e-03f,+1.09680049e-01f,-1.03128582e-01f,
+1.01825036e-01f,-6.43976629e-02f,+4.50069718e-02f,-5.16527379e-03f,+3.12706679e-01f,
-2.65553594e-02f,+2.61357754e-01f,+5.34750968e-02f,+6.58526942e-02f,+6.61525056e-02f,
+6.84129249e-04f,+1.19121231e-01f,+1.47331074e-01f,+2.52088100e-01f,-1.38454303e-01f,
-1.15388766e-01f,-7.16375172e-01f,+3.82722348e-01f,+4.39737737e-02f,-1.69319317e-01f,
-8.11639503e-02f,-3.36926654e-02f,+3.99254620e-01f,-6.55398145e-02f,+1.12184830e-01f,
+2.01322630e-01f,-1.62941888e-01f,+1.02904379e-01f,-1.64850712e-01f,-1.24211051e-01f,
+1.89539030e-01f,+3.39351505e-01f,-3.96349020e-02f,-2.63877884e-02f,-1.49195477e-01f,
-1.26593867e-02f,+1.02617443e-01f,+1.49675831e-01f,+9.83209834e-02f,-7.42986277e-02f,
+2.77224302e-01f,+2.60033775e-02f,+7.74140731e-02f,+1.49395138e-01f,+1.57170221e-01f,
+1.62118167e-01f,-5.37426658e-02f,-1.49952069e-01f,-8.89618248e-02f,-5.61846793e-02f,
+1.27791449e-01f,-6.58396333e-02f,-8.73028114e-02f,+1.69462636e-01f,+7.03346655e-02f,
+1.83294252e-01f,+9.69403423e-03f,-3.22985575e-02f,+1.19395979e-01f,-5.61190099e-02f,
-6.54054107e-04f,-1.20010145e-01f,-9.13159624e-02f,+9.79546830e-02f,+2.27071568e-01f,
-5.45344613e-02f,-1.55709788e-01f,-1.55705109e-01f,+6.28829598e-02f,-1.06696919e-01f,
+1.11004159e-01f,-5.68275228e-02f,+1.07704088e-01f,+3.02456301e-02f,+2.72268325e-01f,
-1.86575070e-01f,-2.11196989e-02f,-1.94198862e-01f,+1.46422431e-01f,-1.21424660e-01f,
+1.01147756e-01f,-1.92310289e-01f,+3.73246133e-01f,-1.55685231e-01f,+1.07126430e-01f,
+2.21466631e-01f,+3.37111443e-01f,+2.29448393e-01f,+1.91535503e-01f,+1.69207513e-01f,
+4.33153436e-02f,+7.37774074e-02f,+2.59167582e-01f,+2.72037059e-01f,-3.64644319e-01f,
+5.52656539e-02f,+1.14051402e-01f,+1.55580565e-01f,-4.54530306e-02f,-2.00002030e-01f,
-1.54045587e-02f,-8.01393166e-02f,+2.46563956e-01f,+2.14089096e-01f,+1.07718930e-01f,
-3.39017510e-02f,+1.40216336e-01f,+1.08699001e-01f,+3.32034409e-01f,-2.45887429e-01f,
+3.74486446e-01f,+3.21395919e-02f,-2.17417002e-01f,+1.75580382e-01f,-3.25913802e-02f,
+7.20264763e-02f,+1.93524361e-01f,+2.29331076e-01f,+1.23677708e-01f,+5.01975417e-01f,
+8.84766951e-02f,-1.31595537e-01f,+2.43266210e-01f,-2.27007255e-01f,+3.15072834e-01f,
-4.91616316e-02f,+9.37888026e-02f,+3.03876996e-01f,+1.08037561e-01f,+4.70931977e-02f,
+1.88744769e-01f,+1.41722664e-01f,+2.00360015e-01f,-3.54136787e-02f,+3.59381437e-01f,
+1.84213801e-04f,+3.11637502e-02f,+1.82268098e-02f,+2.14557528e-01f,-7.32158497e-02f,
+2.38997266e-01f,-7.17560574e-02f,+2.14476764e-01f,-4.09979045e-01f,-4.50474545e-02f,
+2.58379668e-01f,-2.16868296e-01f,-1.70879811e-01f,+7.87473544e-02f,+2.59881429e-02f,
-2.26164028e-01f,+1.31747261e-01f,+6.88451901e-02f,-2.59896725e-01f,+2.60858059e-01f,
+5.71605924e-04f,+1.55004978e-01f,-2.63757020e-01f,+8.09153169e-02f,+2.05316901e-01f,
-4.07118239e-02f,+6.57150149e-02f,-2.20180735e-01f,+5.37358522e-02f,+1.09114975e-01f,
+2.30821729e-01f,-1.73904464e-01f,+1.37372717e-01f,-1.55840725e-01f,+2.51330763e-01f,
+1.20091647e-01f,+2.91756362e-01f,-3.63630682e-01f,+1.36591848e-02f,+2.63828207e-02f,
+3.47418189e-01f,+2.41075337e-01f,-3.23240668e-01f,-1.98578015e-01f,+2.47589305e-01f,
+5.80477975e-02f,+3.61338332e-02f,-1.72014967e-01f,+1.37115344e-01f,+2.53610104e-01f,
+1.88831478e-01f,+2.87285477e-01f,+1.50232181e-01f,-1.93144172e-01f,-3.31917964e-02f,
-9.98935774e-02f,+2.27226615e-01f,-1.02637999e-01f,+2.64534891e-01f,-3.82851139e-02f,
-8.15901086e-02f,+2.22488075e-01f,+3.11055034e-01f,-1.55282123e-02f,+2.17084199e-01f,
+1.21540375e-01f,+1.54669210e-01f,-7.06303045e-02f,+2.45716140e-01f,+1.79231748e-01f,
-4.34263319e-01f,+2.33534664e-01f,+4.81326908e-01f,+2.23270372e-01f,+1.50191620e-01f,
+1.43321395e-01f,+3.13969076e-01f,-7.11420551e-02f,+1.07169054e-01f,+6.30000979e-02f,
+1.10171828e-02f,+9.64123607e-02f,-2.38337532e-01f,+1.69463977e-01f,+1.59671411e-01f,
+3.30124915e-01f,+1.00349568e-01f,-1.74119696e-01f,+8.67234170e-03f,+7.96728581e-02f,
-1.83520645e-01f,+9.46325511e-02f,+7.36594200e-02f,+1.73466235e-01f,+1.19786911e-01f,
+1.33613301e-02f,+1.03265561e-01f,+6.93309447e-03f,+2.59272486e-01f,+9.80716720e-02f,
-1.49831139e-02f,+1.23428129e-01f,+1.77697420e-01f,+5.51721454e-01f,-1.22850694e-01f,
+4.79328027e-03f,+1.97727755e-01f,-1.12192519e-02f,-1.54872444e-02f,+3.99201810e-02f,
+8.83252695e-02f,-2.61538208e-01f,+2.80195475e-01f,+1.33553213e-02f,+1.61111459e-01f,
-5.28299250e-02f,+1.55910611e-01f,+6.20324314e-02f,+3.03982794e-01f,-9.40940753e-02f,
+6.25444055e-02f,+1.09521560e-01f,+4.67053771e-01f,-2.28017315e-01f,+1.46356374e-01f,
-7.42596807e-03f,+1.25354558e-01f,-2.06037723e-02f,+1.48071751e-01f,+5.00290871e-01f,
+1.29815400e-01f,-1.33777291e-01f,+1.13306448e-01f,-1.43065557e-01f,+1.32179469e-01f,
+3.11158657e-01f,-1.52463838e-01f,-2.05439508e-01f,+2.86151618e-01f,+8.50182120e-03f,
+2.18231037e-01f,+1.91922486e-01f,+2.24652454e-01f,-1.35461509e-01f,+1.82501778e-01f,
-1.03826635e-01f,+2.17785344e-01f,-4.82429825e-02f,-2.24409774e-02f,-6.40586615e-02f,
+2.89220303e-01f,-1.38020054e-01f,-1.39902160e-01f,-7.07605556e-02f,+7.71821439e-02f,
+1.85843572e-01f,+2.44827628e-01f,-8.46154839e-02f,+4.30907607e-01f,-2.63455044e-03f,
+8.53996202e-02f,-1.57579347e-01f,-9.24598351e-02f,+1.54981405e-01f,+8.69053453e-02f,
-3.66611741e-02f,+1.66671261e-01f,+2.70164371e-01f,-1.90417673e-02f,-4.16789111e-03f,
+2.12415785e-01f,+3.31394196e-01f,-1.47809938e-01f,-1.21115908e-01f,+1.47140160e-01f,
+9.35505182e-02f,-1.40027935e-02f,+1.27409175e-01f,+2.62047201e-01f,+1.01173587e-01f,
+4.17777628e-01f,-7.77118579e-02f,+2.01171264e-01f,+4.07698005e-02f,-8.23617652e-02f,
-3.33286151e-02f,+5.15582621e-01f,+2.90836804e-02f,+1.02834903e-01f,+2.90234059e-01f,
+7.06762671e-02f,-8.44022073e-03f,+5.31890243e-02f,-1.92228809e-01f,-1.53643325e-01f,
+4.31549877e-01f,+3.71088326e-01f,-1.54320776e-01f,+5.26248328e-02f,+3.45721424e-01f,
+5.40192332e-03f,+2.48399109e-01f,+1.40328631e-01f,+3.77050579e-01f,+4.43813682e-01f,
-2.14251745e-02f,+2.62650400e-01f,-8.53368044e-02f,-9.48832631e-02f,-1.65351629e-01f,
+2.75986910e-01f,+3.53895240e-02f,+1.34701237e-01f,+1.44393384e-01f,-2.32916120e-02f,
-1.04854710e-01f,+4.77698028e-01f,-2.00271010e-02f,+3.42563950e-02f,+2.49810964e-01f,
+1.53644338e-01f,-9.56807062e-02f,+7.92996585e-02f,-9.68891680e-02f,-9.95833352e-02f,
-1.79110810e-01f,+7.09172785e-02f,+1.44934252e-01f,+3.05605769e-01f,+4.95566241e-02f,
-1.79259107e-01f,+2.33659059e-01f,+5.72741404e-02f,+1.01219304e-01f,+1.14402920e-01f,
+2.12255642e-01f,-1.87148266e-02f,+2.04111382e-01f,-2.11745277e-01f,-1.73058853e-01f,
-1.76824294e-02f,+3.03545058e-01f,-7.81612918e-02f,+1.39061764e-01f,+2.97324061e-01f,
+2.21204922e-01f,+2.30319485e-01f,+1.22813620e-01f,-2.51239151e-01f,-4.04494852e-01f,
+2.59942383e-01f,-1.05147369e-01f,-3.87400478e-01f,-5.20521123e-03f,+1.93521306e-02f,
-1.22285914e-03f,+1.98853955e-01f,+1.29853049e-02f,+9.14810598e-02f,+2.55633425e-02f,
+9.22238752e-02f,+1.23511285e-01f,+1.78511754e-01f,+2.00952798e-01f,-9.86400023e-02f,
+9.16064829e-02f,+1.18293427e-01f,+1.91841096e-01f,+6.35065138e-02f,-1.38403445e-01f,
-6.92758709e-02f,+2.87187099e-01f,+1.75790474e-01f,+1.26516046e-02f,+3.00868377e-02f,
+1.34810567e-01f,+1.60117015e-01f,+1.56196281e-01f,+1.34908974e-01f,-9.80649516e-02f,
+6.92190230e-02f,+3.27250548e-02f,+2.60162771e-01f,+1.28279045e-01f,-4.28412333e-02f,
+6.08515404e-02f,+1.16899349e-01f,+1.39764339e-01f,+1.64284885e-01f,+1.37265444e-01f,
+3.06230754e-01f,+2.19512835e-01f,-1.59834996e-02f,+1.35683000e-01f,+1.65622726e-01f,
-1.66121349e-02f,+4.61109877e-02f,+2.32975483e-01f,+3.79390456e-02f,+3.47068757e-01f,
+2.09516376e-01f,-9.66757908e-02f,+1.38613939e-01f,-2.78088879e-02f,+1.59725964e-01f,
+1.35657370e-01f,+1.12806872e-01f,+4.60935503e-01f,+1.50341570e-01f,+2.15707406e-01f,
-1.81178719e-01f,+1.02922574e-01f,-2.00931374e-02f,+1.10543452e-01f,+2.55172938e-01f,
+2.21474245e-01f,-1.78475246e-01f,+4.16310281e-02f,+3.96488421e-02f,+9.95147899e-02f,
+8.91992375e-02f,+4.49999757e-02f,-3.57028633e-01f,+9.93008018e-02f,+3.05405017e-02f,
-1.75243884e-01f,+6.32568076e-02f,+1.54031187e-01f,+2.30293702e-02f,-3.57201844e-01f,
+1.25843778e-01f,+4.82533723e-02f,+3.64595391e-02f,-1.15710787e-01f,+4.79414016e-02f,
-2.50751595e-03f,+1.56016022e-01f,-1.13055743e-01f,+3.02219093e-01f,+1.62759885e-01f,
+2.12400123e-01f,+1.82748839e-01f,-5.73472045e-02f,+9.53909755e-02f,+1.03423826e-01f,
+1.85670480e-01f,+5.80060706e-02f,-1.01992525e-01f,-4.17218432e-02f,+5.71090020e-02f,
+2.46125713e-01f,+1.29842356e-01f,+2.06316829e-01f,+3.09946090e-01f,-6.95801247e-03f,
+3.02655160e-01f,+1.67897478e-01f,-2.65888162e-02f,+3.44144292e-02f,+1.98656425e-01f,
+4.40519750e-02f,-7.71883726e-02f,+1.54533132e-04f,+1.43872071e-02f,+1.18367858e-01f,
-5.45982830e-02f,-1.71478122e-01f,+2.41627946e-01f,+1.07952319e-01f,-3.70170064e-02f,
+4.72582020e-02f,+5.68051264e-02f,+3.33930552e-01f,+1.77139640e-01f,+3.86638552e-01f,
+3.36312175e-01f,-8.63228664e-02f,-1.58045664e-01f,-3.54860649e-02f,+1.65611580e-02f,
+2.47270137e-01f,+9.26146656e-02f,+8.76986533e-02f,-6.72022477e-02f,+8.42824802e-02f,
+9.82449427e-02f,-1.49767950e-01f,-1.99412018e-01f,+2.75272936e-01f,+6.21683225e-02f,
+1.75595418e-01f,+1.55943215e-01f,-1.57936513e-01f,-2.15958524e-02f,+1.57056689e-01f,
-2.12519795e-01f,+2.59098023e-01f,+2.12508142e-01f,+2.53111303e-01f,+1.48024365e-01f,
+3.64932388e-01f,+2.23998070e-01f,-2.62793452e-02f,+2.79417485e-01f,+3.49721909e-01f,
-7.23315924e-02f,+1.27222538e-01f,+1.57367140e-01f,+8.71489719e-02f,+1.32113740e-01f,
+3.11524808e-01f,+6.26086518e-02f,+2.68349081e-01f,+2.05870643e-01f,+1.80886704e-02f,
+8.25622752e-02f,+2.06260324e-01f,-1.07565438e-02f,-2.19653174e-02f,-9.71187428e-02f,
+1.97667226e-01f,+6.66652098e-02f,-2.97376513e-02f,+2.19696864e-01f,+1.35327369e-01f,
-1.14540279e-01f,+8.38953629e-02f,+2.78893203e-01f,+1.78277045e-01f,+2.48069540e-01f,
+8.10754672e-02f,+1.44805029e-01f,-1.87949285e-01f,+2.86742836e-01f,+1.63978934e-01f,
+3.92893463e-01f,+4.88022789e-02f,-4.63902317e-02f,+3.06551158e-01f,+1.53316170e-01f,
-3.43037248e-01f,-1.57888874e-01f,+1.32615358e-01f,+3.65905114e-03f,+5.62509056e-03f,
+4.20864560e-02f,+4.23422083e-03f,+1.55215681e-01f,+2.13077739e-01f,+1.94515899e-01f,
-1.03845768e-01f,-9.84550789e-02f,-6.33273721e-02f,+6.59757331e-02f,+2.26952508e-01f,
+2.77024388e-01f,+1.81231312e-02f,+6.89899400e-02f,+3.01526636e-01f,-7.53395557e-02f,
+4.40076664e-02f,+2.85183966e-01f,+9.33556110e-02f,+2.00115237e-02f,-9.59525779e-02f,
+2.25294784e-01f,+1.09598711e-01f,-1.58913672e-01f,+2.66751409e-01f,+2.72527695e-01f,
+2.97540933e-01f,+6.03382103e-02f,+4.49195579e-02f,+1.56737790e-01f,+4.09197845e-02f,
-5.35648279e-02f,-2.70269047e-02f,+2.77966380e-01f,-4.61446792e-02f,+3.08522850e-01f,
+1.05980426e-01f,+1.24619184e-02f,+5.15580177e-02f,+1.07236117e-01f,+1.90511495e-01f,
-2.36097768e-01f,+1.67543381e-01f,+3.50988537e-01f,-1.44896165e-01f,-1.49790019e-01f,
+3.55877668e-01f,+4.51749489e-02f,-1.78931415e-01f,+1.45985842e-01f,+2.12255254e-01f,
+1.34089030e-02f,-1.81609899e-01f,+9.68176574e-02f,+3.56926739e-01f,+6.78427657e-03f,
+1.48544461e-01f,-7.73174241e-02f,-6.66976199e-02f,-1.44788250e-02f,+1.00494161e-01f,
+1.12454921e-01f,+1.34322897e-01f,+2.43589148e-01f,+5.67254005e-03f,+2.61930227e-01f,
+1.49718791e-01f,+3.97552609e-01f,+3.76080006e-01f,+5.33700287e-02f,+2.84197718e-01f,
+2.70119965e-01f,+1.40942574e-01f,-6.83347881e-02f,-1.99346598e-02f,+3.72825354e-01f,
-3.04602776e-02f,+1.38673902e-01f,-1.09638870e-01f,+6.48291931e-02f,+1.38048932e-01f,
+1.68713197e-01f,+5.02547473e-02f,-6.12221323e-02f,+7.83864781e-02f,+8.33584964e-02f,
+1.89911388e-02f,+1.54236525e-01f,-1.67764595e-03f,+9.38857868e-02f,-2.79612597e-02f,
-8.48022252e-02f,+1.57022819e-01f,-3.52674071e-03f,+7.79540166e-02f,-3.29453014e-02f,
-2.93278066e-03f,+4.71409932e-02f,+1.23171359e-01f,+1.00659132e-01f,+1.75955266e-01f,
+1.97977256e-02f,-1.30172655e-01f,+2.51301944e-01f,+1.13823347e-01f,+7.77515322e-02f,
-1.40676768e-02f,+2.50196218e-01f,+8.46739709e-02f,+2.66281098e-01f,+3.50764953e-02f,
+1.60511672e-01f,+7.85661265e-02f,+2.37162821e-02f,-3.85210924e-02f,-9.88309979e-02f,
-8.35055932e-02f,-2.26603821e-01f,+1.62598923e-01f,+8.24487656e-02f,+2.94416361e-02f,
+2.48104438e-01f,+1.61081314e-01f,-8.24171305e-02f,+1.47810325e-01f,+1.89939458e-02f,
+2.55905092e-01f,+3.13535370e-02f,+1.43985758e-02f,+1.63745090e-01f,+4.22013253e-02f,
+2.73526549e-01f,-8.31028670e-02f,+1.13756182e-02f,+1.00899644e-01f,-3.80997360e-02f,
-1.43916011e-01f,+3.55147511e-01f,+2.02010721e-01f,-6.28324822e-02f,-1.00347772e-01f,
+4.19060476e-02f,+1.43117115e-01f,+3.43984634e-01f,+9.23497975e-02f,-4.12457064e-02f,
+2.03903258e-01f,+1.64134488e-01f,+1.53403774e-01f,-6.31904379e-02f,+7.36825839e-02f,
+1.86350316e-01f,+6.41572252e-02f,+7.61349350e-02f,+2.13754643e-02f,+2.95810372e-01f,
+2.12762766e-02f,+3.37932080e-01f,+2.22904846e-01f,+6.43728524e-02f,+1.46223575e-01f,
-1.32355243e-01f,+1.96378663e-01f,+1.01104833e-01f,+1.12679012e-01f,+1.78540811e-01f,
+6.28862619e-01f,+4.82449941e-02f,+6.24901801e-03f,+7.44775534e-02f,-3.77923064e-02f,
-1.44612016e-02f,+8.66572000e-03f,+2.60459453e-01f,+2.11974643e-02f,+2.02635571e-01f,
+7.72597715e-02f,+4.23699096e-02f,+3.39781903e-02f,+7.75287524e-02f,-1.06832318e-01f,
+1.72376111e-01f,+3.46360132e-02f,+7.41152391e-02f,+5.43112569e-02f,-6.00100048e-02f,
+3.41981649e-02f,-8.75868741e-03f,+1.45734817e-01f,+1.45228997e-01f,-8.19976553e-02f,
+1.87735602e-01f,+1.52874235e-02f,-5.27929254e-02f,+6.17095409e-03f,+4.24117260e-02f,
+5.62859848e-02f,+3.67132835e-02f,-9.39737037e-02f,+1.52612627e-01f,+1.45360231e-01f,
-1.14855282e-01f,+2.45326012e-01f,-5.87215684e-02f,-3.37343365e-02f,+2.36691222e-01f,
+1.20540693e-01f,+2.85227656e-01f,+3.44490819e-02f,+1.38386309e-01f,+8.22281018e-02f,
+7.40060583e-02f,-1.01073146e-01f,+6.37846142e-02f,+3.09635401e-01f,+1.14453271e-01f,
+6.00544736e-02f,+2.88696736e-01f,-7.46558532e-02f,+4.27876897e-02f,+2.41507754e-01f,
-1.18957616e-01f,+4.69678342e-02f,+1.78308517e-01f,+7.24550858e-02f,+2.39261925e-01f,
+1.23306647e-01f,+1.70616239e-01f,+2.42593795e-01f,+2.20071882e-01f,-4.02155519e-02f,
+1.73975810e-01f,-4.31291535e-02f,+2.56018728e-01f,+8.39017481e-02f,+1.55596912e-01f,
+2.71043628e-01f,-5.13464063e-02f,+1.57145262e-01f,-2.09177788e-02f,+1.31365433e-01f,
-9.88789573e-02f,+2.80836858e-02f,+1.23839989e-01f,+2.90597081e-01f,+2.75336266e-01f,
-6.01644032e-02f,-8.67866203e-02f,+1.91179141e-01f,+1.32696658e-01f,-1.14600196e-01f,
-4.99321632e-02f,+1.10785618e-01f,+1.61712363e-01f,+1.75925583e-01f,-9.48776901e-02f,
+6.06874702e-04f,-7.78909326e-02f,+1.18870907e-01f,-1.68136284e-01f,-1.64977670e-01f,
+2.11457491e-01f,+9.65808518e-03f,-1.86442081e-02f,+3.52856278e-01f,-3.79676633e-02f,
+1.81834280e-01f,+2.33486474e-01f,-1.00435063e-01f,-1.12365507e-01f,+1.80171698e-01f,
-5.94481602e-02f,+1.75431132e-01f,+1.28188699e-01f,+4.39999968e-01f,+4.07546580e-01f,
+1.75901443e-01f,+6.55377284e-02f,+9.97029319e-02f,+9.73792225e-02f,+1.64025083e-01f,
-4.55970094e-02f,+1.42551795e-01f,+1.23927869e-01f,-1.43303961e-01f,+1.73137948e-01f,
-1.02436682e-03f,-1.75324492e-02f,-8.48784950e-03f,+1.03551811e-02f,+4.72011231e-02f,
+9.45551842e-02f,-8.82965550e-02f,+1.37027323e-01f,-1.02478541e-01f,-1.33585513e-01f,
-1.55986827e-02f,+3.23370583e-02f,+1.53727978e-01f,-6.33877367e-02f,+6.14464022e-02f,
+3.81973609e-02f,-6.57560900e-02f,+3.11308522e-02f,+4.52297293e-02f,+1.64143637e-01f,
+7.64584541e-02f,-2.58159935e-02f,+3.08960974e-01f,+3.32363993e-02f,+2.35255748e-01f,
+2.53416985e-01f,+1.18108273e-01f,+1.82807058e-01f,+1.29267136e-02f,-1.03933483e-01f,
+8.63917619e-02f,+2.08019927e-01f,-9.59750190e-02f,+1.45340994e-01f,+6.21074624e-02f,
-6.17612079e-02f,+2.14463040e-01f,+3.60307753e-01f,-2.07660068e-02f,+1.44316539e-01f,
-6.78376481e-02f,+1.02569513e-01f,-1.19172826e-01f,-1.86085012e-02f,+1.03579164e-01f,
+1.01679303e-01f,+2.51312315e-01f,+1.82936221e-01f,+2.76593298e-01f,-4.57125120e-02f,
-1.25205830e-01f,+1.01965806e-02f,-7.01711997e-02f,+5.43549806e-02f,-2.64333170e-02f,
-5.67473993e-02f,+1.77179754e-01f,+1.77021384e-01f,-4.96022031e-02f,+6.27471656e-02f,
-4.49810131e-03f,+2.39008352e-01f,-3.73264551e-02f,+2.74238110e-01f,+6.53351098e-02f,
+2.66744077e-01f,+3.26692820e-01f,+1.10863470e-01f,+9.94304642e-02f,+1.54078305e-01f,
+2.73516681e-02f,-2.57262848e-02f,-9.47117154e-03f,-2.08644062e-01f,+1.18069993e-02f,
+1.18201211e-01f,-4.30387584e-03f,+9.86684710e-02f,-2.19510980e-02f,+3.40395957e-01f,
+8.00154638e-03f,-7.74255991e-02f,-9.67580359e-03f,+1.58582181e-01f,-1.21633038e-02f,
+2.66658992e-01f,+2.38557190e-01f,-1.61747150e-02f,+1.11015178e-01f,+1.12494277e-02f,
+2.32175902e-01f,+1.57950252e-01f,+1.68932125e-01f,-1.13885187e-01f,-1.65905491e-01f,
-3.60395387e-02f,+6.03476837e-02f,+2.11911187e-01f,+1.96422469e-02f,+2.25413695e-01f,
+4.91693355e-02f,+3.30164313e-01f,+1.36973515e-01f,+1.02823123e-01f,+1.31709933e-01f,
-9.01010036e-02f,-1.82689764e-02f,+2.31440350e-01f,-1.01975299e-01f,+2.87762910e-01f,
-9.34897885e-02f,+3.30958664e-01f,-1.52853608e-01f,-1.21545829e-01f,+7.41482824e-02f,
+5.73487319e-02f,+1.04792722e-01f,-9.89487693e-02f,+2.60839432e-01f,-1.34449480e-02f,
+1.86747447e-01f,-1.37625441e-01f,-2.50010230e-02f,+1.68193191e-01f,+1.20369747e-01f,
+2.75600046e-01f,+3.13746557e-02f,-2.99151614e-02f,+1.49993941e-01f,+2.61987429e-02f,
-1.08702943e-01f,+1.32542223e-01f,+2.06663251e-01f,+8.55507404e-02f,+5.93301728e-02f,
+6.89962581e-02f,+3.20358537e-02f,+1.35124967e-01f,+1.20528385e-01f,-4.26947884e-02f,
+4.14562970e-02f,+6.19548336e-02f,+1.59017920e-01f,+1.20347133e-02f,+1.02148592e-01f,
+8.34475532e-02f,-7.34487623e-02f,-1.50143281e-01f,-1.67716607e-01f,-3.77068259e-02f,
-5.13483323e-02f,+3.70019048e-01f,+7.60041103e-02f,+3.03908646e-01f,+8.70680884e-02f,
+1.33563682e-01f,+1.23403855e-01f,-6.41293749e-02f,-2.89643854e-01f,-1.67012498e-01f,
+4.58791293e-02f,+1.99543566e-01f,+1.38031647e-01f,-4.89312038e-02f,-2.84216646e-03f,
-1.71667054e-01f,+1.49907187e-01f,-1.33558750e-01f,+1.21329919e-01f,+4.98013437e-01f,
-1.47431627e-01f,+6.18426919e-01f,+2.68243141e-02f,-1.29656896e-01f,-3.59167382e-02f,
-2.35660300e-01f,+2.30701808e-02f,-1.54196426e-01f,+3.86374369e-02f,-6.36832863e-02f,
-5.75250536e-02f,+5.10551222e-02f,+9.00197867e-03f,+1.07055619e-01f,+2.90735006e-01f,
+1.76731214e-01f,-1.59905870e-02f,+2.17755958e-01f,+3.90420668e-02f,-1.93114012e-01f,
+8.30968171e-02f,-3.43459517e-01f,-2.84911785e-02f,+2.70448893e-01f,-1.74828812e-01f,
-1.30198061e-01f,-1.74518228e-01f,-1.27397805e-01f,-4.31530066e-02f,-4.40466255e-02f,
+1.01761175e-02f,+3.13032925e-01f,-8.58925208e-02f,+7.58500472e-02f,-8.88527259e-02f,
+2.86742201e-04f,+1.66965365e-01f,+2.43979752e-01f,+2.28117064e-01f,+7.10421754e-03f,
-2.06838716e-02f,+4.92739268e-02f,+6.74991310e-02f,+1.14183396e-01f,+3.54969315e-02f,
+2.62787100e-02f,+1.55405641e-01f,+4.19971555e-01f,-1.19294263e-01f,-3.06369483e-01f,
-6.36735857e-02f,+8.11226666e-02f,+3.45165461e-01f,-1.96980596e-01f,-1.54336348e-01f,
+5.18564619e-02f,+3.66554484e-02f,+4.89015579e-02f,+1.30289078e-01f,+8.95574912e-02f,
+5.95745966e-02f,-1.18186571e-01f,+1.48905873e-01f,-3.22609395e-02f,+3.47725183e-01f,
-1.98707320e-02f,+4.02395651e-02f,+1.15009569e-01f,-7.62551576e-02f,-1.15466319e-01f,
+6.24534339e-02f,-1.17579617e-01f,-8.60136896e-02f,-3.89630497e-02f,-2.40117311e-01f,
+1.63177297e-01f,+4.53878790e-02f,-2.60978509e-02f,+7.97366798e-02f,-1.17780454e-01f,
+3.40638369e-01f,+8.00521374e-02f,+3.34381908e-02f,+2.38523737e-01f,+5.07427901e-02f,
+2.63948776e-02f,+1.55435354e-01f,-7.03893527e-02f,-1.67548969e-01f,+3.43380566e-03f,
-1.54304178e-02f,+1.07063510e-01f,+2.83265859e-01f,+1.08288497e-01f,-4.60814647e-02f,
+5.63857630e-02f,+1.51105421e-02f,-7.46173644e-03f,+1.46985933e-01f,+4.78962325e-02f,
-1.32218614e-01f,+2.62973338e-01f,+1.23176336e-01f,+7.19386339e-02f,+1.77378818e-01f,
+2.76861191e-01f,+2.16564775e-01f,-4.35919985e-02f,-1.61321476e-01f,+1.76445499e-01f,
+8.23259205e-02f,+6.52772039e-02f,+1.01924799e-01f,+1.72314346e-01f,+8.82059783e-02f,
+1.57877192e-01f,+2.41724283e-01f,-4.53678370e-02f,+2.41067722e-01f,-3.09118014e-02f,
+5.39628603e-02f,+2.16835752e-01f,-1.11913367e-03f,+7.74448887e-02f,+2.89745741e-02f,
-6.76136166e-02f,-1.93888143e-01f,+5.79914898e-02f,+5.35950363e-02f,+1.71936601e-02f,
+4.54957485e-02f,+2.02127635e-01f,-2.40559682e-01f,+2.06166804e-02f,+4.17470187e-01f,
-2.56198086e-02f,+6.52329326e-02f,+4.04682644e-02f,-6.57876134e-02f,+2.26945743e-01f,
-1.03741571e-01f,+2.03446206e-02f,+1.67265102e-01f,+7.10911537e-03f,-2.42288318e-02f,
-1.32027477e-01f,+1.37800053e-01f,+3.53521779e-02f,+6.33153785e-03f,-5.49740493e-02f,
-4.83112643e-03f,+7.52753392e-02f,-9.00328457e-02f,+1.52402565e-01f,-2.83371261e-03f,
+5.72442338e-02f,+6.64735138e-02f,-5.26564568e-02f,+7.28603825e-02f,-9.68845934e-02f,
+5.30029945e-02f,-3.07574496e-02f,+4.11451429e-01f,-2.50501633e-01f,+1.14326432e-01f,
+3.47058296e-01f,+1.38017088e-01f,+7.95339607e-03f,+2.40609422e-02f,-1.12362891e-01f,
-1.60171002e-01f,-3.64053212e-02f,+1.06986538e-01f,-4.07822877e-02f,-7.22159371e-02f,
+1.93358120e-02f,-1.66472199e-03f,+1.81798309e-01f,+4.08473223e-01f,+1.47688121e-01f,
+1.41665578e-01f,-1.99347839e-01f,+2.29474250e-02f,+2.17635706e-01f,+2.12028599e-03f,
-2.12038979e-01f,+2.13822559e-01f,-2.47577041e-01f,+2.56319135e-01f,+3.85481000e-01f,
+2.32943967e-01f,-2.32176512e-01f,-7.79449269e-02f,+1.00153781e-01f,+2.21760705e-01f,
+1.05314506e-02f,+2.16534853e-01f,+2.84457719e-03f,+9.43293422e-02f,+7.62386695e-02f,
-1.95024639e-01f,-9.90866423e-02f,+4.09375131e-02f,-1.55642077e-01f,-1.07350193e-01f,
+1.28185883e-01f,-1.46301553e-01f,+1.00601405e-01f,-1.40274717e-02f,+6.57878490e-03f,
+4.67308670e-01f,-1.18012443e-01f,+1.15503751e-01f,-2.65805423e-01f,+2.50125695e-02f,
-3.56505290e-02f,-5.64830564e-02f,+6.37153536e-02f,+2.65252858e-01f,+3.18556130e-02f,
-3.59377563e-01f,-1.78835884e-01f,+7.65163219e-03f,-8.82215574e-02f,+1.64596498e-01f,
+1.91994742e-01f,+2.31294781e-01f,-4.09926288e-02f,-2.85563022e-01f,+2.40463391e-01f,
-1.39435185e-02f,+4.17671725e-02f,+2.37187997e-01f,+6.44722059e-02f,-6.23480491e-02f,
+2.50228550e-02f,+3.57947908e-02f,-1.87977590e-02f,-9.87805240e-03f,-6.12874553e-02f,
-5.63043654e-02f,-1.59475043e-01f,+1.10665344e-01f,+7.49085546e-02f,-1.80894911e-01f,
-1.07219601e-02f,-3.01587787e-02f,+2.05772370e-01f,+2.09289908e-01f,-2.19305325e-02f,
+3.25613073e-03f,-4.12987731e-02f,+2.34587356e-01f,+2.02358335e-01f,+4.79254052e-02f,
-1.90418258e-01f,-5.80946133e-02f,+1.85879767e-01f,-1.10773265e-01f,+1.01977937e-01f,
-1.76308937e-02f,+2.37697780e-01f,-1.70869067e-01f,-1.53633460e-01f,+5.49376190e-01f,
+2.14669526e-01f,-4.74847630e-02f,-1.23073965e-01f,+1.35498166e-01f,-9.13619399e-02f,
+6.08900115e-02f,-6.56223968e-02f,+1.35607809e-01f,-7.57015962e-03f,+1.88457772e-01f,
+4.63633686e-02f,+5.33423834e-02f,+7.08558783e-02f,+1.01957925e-01f,+2.68902004e-01f,
+8.41945931e-02f,+1.13023609e-01f,-7.16065988e-02f,-9.77631509e-02f,+8.95689204e-02f,
+6.11747280e-02f,+9.62833986e-02f,-5.16819186e-04f,+2.24510163e-01f,+5.12768142e-02f,
-5.55524267e-02f,-6.03683963e-02f,-3.23847607e-02f,-8.47639982e-03f,-7.54801705e-02f,
+1.90934747e-01f,+3.04713333e-03f,+1.44184723e-01f,-1.93556864e-02f,+1.35542184e-01f,
+4.99139316e-02f,+2.12790653e-01f,+7.33064786e-02f,+1.26723573e-01f,+8.03285986e-02f,
+8.00660998e-02f,-3.60721610e-02f,-1.16636008e-01f,-2.63143126e-02f,+7.73420259e-02f,
-2.50832587e-02f,+1.59835011e-01f,+1.84693933e-01f,+1.37836456e-01f,-5.26900850e-02f,
-2.25947592e-02f,+2.10300520e-01f,-1.14271045e-03f,+6.73954114e-02f,-6.29157946e-02f,
+8.25164914e-02f,+1.10938728e-01f,+9.29152966e-02f,+9.32084918e-02f,+1.79332197e-01f,
-4.17033434e-02f,+9.94177163e-02f,+7.90174603e-02f,-7.03885853e-02f,+9.31800306e-02f,
+9.37340781e-02f,-6.68296069e-02f,-2.32781041e-02f,-1.13084599e-01f,+1.50360614e-01f,
+4.80260476e-02f,-1.19432114e-01f,+1.37053626e-02f,+3.87973972e-02f,+3.35835591e-02f,
+2.00090289e-01f,+9.41051990e-02f,+1.85903702e-02f,+1.06575817e-01f,+1.96561813e-02f,
+1.94753543e-01f,+5.69714904e-02f,+2.81634945e-02f,+1.42952845e-01f,+1.76089227e-01f,
+1.46530181e-01f,+6.52534291e-02f,+9.05281603e-02f,+4.49582674e-02f,+8.60527828e-02f,
+8.69978443e-02f,-6.91158371e-03f,+4.79498841e-02f,+7.58633167e-02f,+3.62910447e-03f,
+5.23628807e-03f,-6.18725419e-02f,-3.25990058e-02f,+1.65913269e-01f,+6.94828629e-02f,
-3.45758274e-02f,+8.95669237e-02f,+7.03578517e-02f,+1.22732274e-01f,+1.51775390e-01f,
+7.42673799e-02f,-9.53482464e-03f,-1.88763849e-02f,+8.09228718e-02f,+1.40064701e-01f,
+6.98715299e-02f,-2.95244902e-02f,+1.53204173e-01f,+3.08413077e-02f,-7.07325414e-02f,
+4.83765714e-02f,-1.04725502e-01f,+1.87783733e-01f,+1.90828428e-01f,+1.81387722e-01f,
+3.29183728e-01f,+2.75286827e-02f,-8.64851922e-02f,-3.33608948e-02f,+2.39495918e-01f,
-3.60300094e-02f,+4.52236906e-02f,-3.54168601e-02f,+2.30688110e-01f,+5.09501807e-02f,
-3.81425768e-02f,-1.18972799e-02f,-3.31539959e-02f,+2.87370116e-01f,+2.11309433e-01f,
-5.51277138e-02f,+1.19864576e-01f,+1.65273055e-01f,+2.03417093e-01f,+5.21941110e-02f,
+7.13708773e-02f,+1.96515560e-01f,+1.71219572e-01f,+5.09191304e-02f,+1.36111334e-01f,
+1.33468717e-01f,+1.12782739e-01f,-4.02674451e-02f,+6.57880455e-02f,-2.84895767e-03f,
-3.71728055e-02f,-3.47706452e-02f,-4.31675650e-02f,-9.52642187e-02f,+1.93704702e-02f,
+1.61032528e-01f,-1.45793636e-03f,-1.76780261e-04f,+1.10647837e-02f,+3.80320810e-02f,
+1.10657685e-01f,-1.23220667e-01f,+1.83039144e-01f,+3.29495966e-02f,-1.19193718e-02f,
+1.25303026e-02f,+9.76284966e-02f,+8.69158953e-02f,+1.65162414e-01f,+2.89198011e-01f,
+3.34739648e-02f,+1.38257340e-01f,-2.66623665e-02f,+1.61967218e-01f,+8.28961730e-02f,
-5.11827283e-02f,+1.88097388e-01f,-9.77233723e-02f,-3.42431888e-02f,+1.10049263e-01f,
+2.54908532e-01f,+7.95930400e-02f,+1.63502231e-01f,+2.75207162e-01f,+2.23983884e-01f,
-2.32650395e-02f,+3.56120989e-02f,+3.00881173e-02f,+3.16072762e-01f,+1.71197399e-01f,
-1.26487287e-02f,+1.70831755e-01f,-9.74327549e-02f,-4.60814796e-02f,+1.10471331e-01f,
+2.31999066e-02f,+3.00963800e-02f,+2.91540511e-02f,-1.65893272e-01f,+1.17365293e-01f,
-2.19627712e-02f,+1.17473997e-01f,-2.51861718e-02f,+1.22942023e-01f,+2.22126096e-01f,
-2.19025940e-01f,+1.37982771e-01f,+3.08956373e-02f,-7.22991377e-02f,+5.95338270e-02f,
+2.27486923e-01f,+1.27134204e-01f,-3.01354635e-03f,-5.62258177e-02f,+8.92580748e-02f,
+1.18371420e-01f,-2.52096821e-02f,+1.05550371e-01f,+3.03170774e-02f,-1.96929239e-02f,
+5.84377460e-02f,-1.28260389e-01f,+2.35968903e-01f,-3.99273001e-02f,+2.58932203e-01f,
-5.12114028e-03f,+1.12818681e-01f,+1.24924101e-01f,+2.05323651e-01f,+9.27812606e-02f,
+1.03984335e-02f,-5.67118376e-02f,+1.75300419e-01f,+9.80314985e-02f,+1.18907198e-01f,
+1.01028278e-01f,+1.61046565e-01f,-8.05159584e-02f,-7.16620833e-02f,+1.60861954e-01f,
+4.16894779e-02f,-1.85018972e-01f,-4.81974473e-03f,-2.06764266e-02f,-4.82526161e-02f,
-5.79651110e-02f,+1.78168476e-01f,+1.04217499e-01f,-2.97315735e-02f,+6.26141429e-02f,
+4.83983313e-04f,+1.62024215e-01f,+2.69112825e-01f,-2.08143834e-02f,-1.96231097e-01f,
-8.43918789e-03f,+5.05584106e-02f,+2.01975793e-01f,+2.26518825e-01f,+5.13729155e-02f,
+1.21564493e-01f,-1.25911281e-01f,+2.17614248e-01f,-1.58736452e-01f,-7.43758604e-02f,
+9.77821127e-02f,+1.39069676e-01f,-6.90853447e-02f,-7.24306181e-02f,+8.02985877e-02f,
+2.25577936e-01f,+3.83108743e-02f,-9.91586782e-03f,+3.68991983e-03f,+2.54777651e-02f,
+1.63767144e-01f,+2.74428964e-01f,+1.17621131e-01f,+8.71374756e-02f,+2.03077912e-01f,
+1.71397820e-01f,-5.97710833e-02f,-2.38388889e-02f,+1.32920995e-01f,+4.17268872e-02f,
+8.46753791e-02f,+1.12595893e-01f,+2.24269517e-02f,+8.98523927e-02f,+4.93220016e-02f,
+5.49348854e-02f,+1.05910778e-01f,+1.13235593e-01f,+2.15024129e-01f,-1.21247442e-02f,
+1.59095794e-01f,+1.98444054e-02f,-7.49051198e-02f,-5.17172255e-02f,+9.37851965e-02f,
+8.28132704e-02f,+1.64742738e-01f,+1.88365772e-01f,+2.67231643e-01f,+9.05369520e-02f,
-2.24243447e-01f,+5.26028983e-02f,-6.77599385e-02f,+1.79180410e-02f,+4.23484147e-02f,
+1.06012762e-01f,+2.44519189e-02f,-8.28537270e-02f,+9.69005153e-02f,+1.19320333e-01f,
+1.46208480e-01f,+1.79029495e-01f,+1.45360947e-01f,+2.47070529e-02f,+9.29858238e-02f,
+2.00205054e-02f,+8.57577249e-02f,+1.71486884e-01f,-8.50662682e-03f,+1.43651679e-01f,
+1.16654433e-01f,+1.47745714e-01f,-2.60426570e-03f,+1.88230366e-01f,-1.61078289e-01f,
+2.00430855e-01f,+8.25298280e-02f,-3.89644280e-02f,+1.86221927e-01f,-1.22403443e-01f,
+1.76162377e-01f,-2.10797548e-01f,+1.70293331e-01f,+3.61456871e-02f,+1.39642153e-02f,
-1.73073485e-01f,-1.06991589e-01f,-1.35019362e-01f,+2.56109506e-01f,+9.35663730e-02f,
-1.25812322e-01f,+4.98640984e-02f,+8.26146528e-02f,-2.06011295e-01f,-1.41341135e-01f,
+2.22921669e-02f,+4.25707223e-03f,-6.64718747e-02f,-4.76333685e-02f,-5.29076532e-02f,
+9.10897255e-02f,+1.01198461e-02f,+1.36346743e-01f,+3.88991117e-01f,-1.05234282e-02f,
+3.14782076e-02f,-2.54349023e-01f,+6.44836053e-02f,-1.81600124e-01f,+2.30436310e-01f,
-1.60225537e-02f,+1.17311247e-01f,-2.56155372e-01f,+5.01824403e-03f,+9.15015787e-02f,
-6.94609014e-03f,+2.50267833e-01f,+1.53122604e-01f,-5.55207394e-02f,+1.15869887e-01f,
+7.16265440e-02f,-1.33037642e-01f,+7.47038499e-02f,-2.51637787e-01f,+2.60569602e-01f,
-4.20690686e-01f,-1.17270261e-01f,+2.16412500e-01f,+3.65990609e-01f,-1.92390662e-03f,
+1.72728419e-01f,+1.72621140e-03f,+1.32385477e-01f,+1.38075892e-02f,+2.03686386e-01f,
+9.04523060e-02f,-8.24331120e-02f,+1.81676716e-01f,-4.57654037e-02f,+3.12662572e-01f,
-5.85855171e-02f,+1.24413140e-01f,+1.31186128e-01f,+1.11966178e-01f,+1.98008850e-01f,
+6.46286458e-02f,-1.25845999e-01f,+9.08118933e-02f,+2.47828260e-01f,-9.13566723e-02f,
-2.07334682e-01f,+4.28750008e-01f,+9.83724222e-02f,-2.39049464e-01f,+1.12447143e-01f,
+1.22840866e-01f,-3.41209723e-03f,+1.03077531e-01f,+3.58755410e-01f,-3.82877700e-02f,
+1.76734149e-01f,+3.54775578e-01f,-1.78553220e-02f,+6.32537678e-02f,-3.28067765e-02f,
+2.32910708e-01f,+2.00289145e-01f,+3.12820405e-01f,+1.80453286e-01f,-6.90947622e-02f,
-5.58195822e-02f,+9.15619358e-02f,+9.84616578e-02f,-1.05088785e-01f,-1.60005406e-01f,
-3.27062234e-02f,-1.08335018e-01f,+1.24078438e-01f,+1.30049720e-01f,-3.66827935e-01f,
+7.38940537e-02f,+2.17507128e-02f,-9.45245624e-02f,+1.84563980e-01f,+2.54135311e-01f,
-2.15935230e-01f,+5.33546388e-01f,+1.35315225e-01f,-2.24463731e-01f,+2.30404347e-01f,
+3.10894579e-01f,+2.87577473e-02f,+2.17511684e-01f,+2.61750281e-01f,+6.84482157e-02f,
+2.96146452e-01f,+5.55030629e-02f,-2.79657841e-02f,+3.62568311e-02f,-4.79890443e-02f,
+9.19098631e-02f,-1.90432221e-01f,+9.27528273e-03f,+1.76649898e-01f,-3.79302017e-02f,
-2.11499527e-01f,+2.52779901e-01f,-2.26253077e-01f,-6.96461052e-02f,-4.16279584e-01f,
+1.05062902e-01f,+1.48769349e-01f,-9.81967896e-02f,+8.37055817e-02f,+1.88386917e-01f,
+8.32086429e-02f,+1.59699544e-02f,-7.27812797e-02f,-2.37039253e-01f,+3.14257666e-02f,
-2.08665460e-01f,+3.27799350e-01f,+2.92386085e-01f,-7.19401762e-02f,-2.06161633e-01f,
+5.02014766e-03f,+1.35976017e-01f,+1.10712580e-01f,-5.36956303e-02f,+2.09556326e-01f,
+3.00363619e-02f,+2.59112656e-01f,-1.80033073e-01f,-2.24256679e-01f,+3.39522541e-01f,
+9.06386375e-02f,+3.35708052e-01f,-1.63118735e-01f,+1.39045298e-01f,-2.68433820e-02f,
+1.48394585e-01f,+1.29805610e-01f,-8.39824080e-02f,-7.06049474e-03f,-1.31390229e-01f,
-2.86392458e-02f,+6.68634549e-02f,-9.96283889e-02f,+2.12375686e-01f,+7.16491938e-02f,
-3.06145996e-01f,+4.34408672e-02f,+8.05972051e-03f,+4.24807742e-02f,-3.74728680e-01f,
-1.35570452e-01f,+4.62711155e-02f,-1.74094111e-01f,+1.00032903e-01f,-2.21806932e-02f,
-2.10577846e-01f,-1.48425087e-01f,+2.50548750e-01f,+9.31571797e-02f,+2.56413490e-01f,
-6.60905093e-02f,-7.17139542e-02f,+3.20748419e-01f,+2.29725927e-01f,+2.84203798e-01f,
-6.16411753e-02f,+2.95179456e-01f,+2.48972550e-02f,-1.37020856e-01f,+5.31870387e-02f,
+3.09362840e-02f,-8.36368054e-02f,+8.78831297e-02f,-7.52524892e-03f,+2.27361560e-01f,
-1.68303698e-01f,-1.40735641e-01f,-1.93974242e-01f,+2.12502107e-01f,-1.71762154e-01f,
-3.78028527e-02f,+1.69685021e-01f,-7.49435648e-02f,+2.35158741e-01f,+4.11399215e-01f,
+2.09229052e-01f,+1.48127049e-01f,+3.43531668e-02f,+1.16589889e-01f,+1.25561833e-01f,
-7.14842081e-02f,-1.32375643e-01f,+1.36920124e-01f,+2.52534151e-01f,+1.74485892e-01f,
-5.12523428e-02f,-4.63061146e-02f,-2.60460615e-01f,+1.57932311e-01f,-1.98270530e-01f,
+3.84286605e-02f,-2.52593420e-02f,+2.17666458e-02f,+8.63673836e-02f,-5.36937080e-02f,
-1.38699487e-01f,-3.05692524e-01f,+1.81709319e-01f,-6.55254209e-03f,-9.08755660e-02f,
+1.04703389e-01f,-2.18055934e-01f,+1.25553831e-01f,-2.99728692e-01f,+1.53193146e-01f,
+1.23132057e-01f,+1.74617246e-01f,-3.01059317e-02f,+1.38608024e-01f,+2.25233987e-01f,
+1.05758972e-01f,+2.41872117e-01f,-3.20955403e-02f,+1.36663467e-01f,+2.07153545e-03f,
-1.34023726e-01f,+1.24717832e-01f,+1.15829811e-01f,+1.25122726e-01f,+1.36160150e-01f,
+4.44977582e-02f,+6.93702372e-04f,-7.27356225e-02f,+1.36103153e-01f,+3.67944501e-02f,
+8.61327574e-02f,+1.41827375e-01f,+1.53175667e-01f,-2.00966790e-01f,-1.36314601e-01f,
-1.72346368e-01f,+1.90010279e-01f,+9.62759554e-02f,+2.26642415e-01f,-8.56299177e-02f,
-1.35056093e-01f,-1.45084307e-01f,+9.40773729e-03f,-5.13172196e-03f,-1.40889093e-01f,
+9.59995985e-02f,+1.51818171e-01f,+1.73552334e-01f,+8.25570058e-03f,+7.84102678e-02f,
+3.34981352e-01f,-1.37898037e-02f,+1.27334118e-01f,+1.32945120e-01f,+1.24418676e-01f,
-9.11835730e-02f,-2.81699896e-01f,+4.77183908e-02f,-1.21863611e-01f,+2.19791651e-01f,
+1.46112084e-01f,+7.17312619e-02f,-3.25678170e-01f,-1.20149270e-01f,+9.75678302e-03f,
+1.23008080e-01f,+2.06116647e-01f,-2.05332980e-01f,+1.50838464e-01f,+1.70795754e-01f,
+2.92621970e-01f,-8.04072917e-02f,-3.27282250e-02f,+5.57041243e-02f,+2.54489165e-02f,
+4.62605417e-01f,+1.31940871e-01f,+1.19439714e-01f,+1.32123753e-01f,+1.89133614e-01f,
-2.66352952e-01f,+4.73738126e-02f,+1.32787466e-01f,+1.03216894e-01f,-5.26061840e-02f,
+3.54420841e-01f,+1.67956010e-01f,-1.68630585e-01f,-7.25370869e-02f,+5.51673412e-01f,
-1.67762607e-01f,-1.37880415e-01f,+2.96697795e-01f,-1.29207864e-01f,+2.10083053e-02f,
+1.70289233e-01f,+5.72933815e-02f,-1.25588283e-01f,+3.69323164e-01f,+1.03206918e-01f,
-8.67752805e-02f,+1.94969669e-01f,-7.95621946e-02f,+3.75032246e-01f,-1.16486633e-02f,
+5.16401380e-02f,+2.83568263e-01f,+2.38436773e-01f,+1.17737263e-01f,+1.64507732e-01f,
-2.50926358e-03f,+9.49323177e-02f,+5.97597361e-02f,+1.31768987e-01f,+4.57066037e-02f,
+1.75509021e-01f,+3.88960913e-02f,+8.15722272e-02f,-7.30458573e-02f,-1.52304620e-01f,
+2.35833526e-02f,-1.68526307e-01f,+1.20093942e-01f,+1.95399240e-01f,+1.07191898e-01f,
+1.47975579e-01f,-8.16678181e-02f,+2.82350600e-01f,+2.13146642e-01f,+4.20177206e-02f,
+1.88639238e-01f,+7.04505062e-03f,-1.76843807e-01f,+1.60776302e-02f,+4.53040265e-02f,
+1.45611316e-01f,+2.94102967e-01f,+2.19664082e-01f,+3.46238732e-01f,-6.18444942e-02f,
+7.44652450e-02f,+1.30094916e-01f,+2.77113527e-01f,-9.17424560e-02f,-1.63406115e-02f,
+3.05930618e-02f,-3.12108006e-02f,+1.56477317e-01f,-3.21208984e-02f,+1.63013622e-01f,
-1.01934016e-01f,-5.09471707e-02f,+1.70022562e-01f,+1.19222492e-01f,+7.74974525e-02f,
+2.59671330e-01f,+3.82652253e-01f,-4.72920202e-03f,+7.45348781e-02f,-5.35272155e-03f,
+1.67000040e-01f,+1.75727382e-01f,-5.53595871e-02f,+6.56783357e-02f,+7.10933120e-04f,
+4.26123217e-02f,-1.18809618e-01f,-2.55424470e-01f,+1.59679919e-01f,+1.50092691e-01f,
+4.68595065e-02f,+1.61058865e-02f,+2.49674499e-01f,+5.42765893e-02f,+7.66931102e-04f,
+1.62423506e-01f,+1.14174031e-01f,-2.31081564e-02f,+2.81318218e-01f,+1.03200726e-01f,
+3.44062686e-01f,+1.54653832e-01f,-7.60724917e-02f,+1.39644789e-02f,+1.11055478e-01f,
+1.02178276e-01f,-1.39493598e-02f,+2.72861958e-01f,-7.26989210e-02f,+2.22157285e-01f,
-2.35771954e-01f,+1.21966138e-01f,+1.15130462e-01f,+9.67745557e-02f,-3.73563655e-02f,
+1.32813931e-01f,+1.45412847e-01f,-1.81827828e-01f,+7.18056560e-02f,-2.93685533e-02f,
+3.57947052e-02f,-3.13260779e-02f,+1.22418657e-01f,+1.83103561e-01f,+1.45583570e-01f,
-1.59651294e-01f,+2.20553339e-01f,+2.48936042e-02f,-1.09416030e-01f,+1.82169080e-01f,
+1.19818754e-01f,+1.35458067e-01f,+9.89472196e-02f,+1.30388746e-02f,+8.31114277e-02f,
+3.47560108e-01f,+6.78397492e-02f,+2.82089144e-01f,+3.36271107e-01f,+2.20674410e-01f,
-3.99144087e-03f,+3.13880593e-01f,+8.45085979e-02f,+9.70764980e-02f,-1.17305160e-01f,
-5.38951643e-02f,-7.66466334e-02f,+3.89832351e-03f,-2.53950171e-02f,+5.92890270e-02f,
+4.13702019e-02f,-8.64714235e-02f,+3.45026515e-02f,-1.50121108e-01f,-6.86727613e-02f,
+6.60588518e-02f,+3.01299617e-02f,+7.29912370e-02f,+8.14684257e-02f,+8.43262970e-02f,
+2.45884359e-02f,-1.91827536e-01f,+3.64988476e-01f,+1.05315693e-01f,-1.67299241e-01f,
-1.85022399e-01f,-1.47557661e-01f,+1.91896960e-01f,+2.80669510e-01f,+1.55985311e-01f,
+4.78327498e-02f,+1.14992157e-01f,+1.44981578e-01f,+2.20840842e-01f,+8.54208395e-02f,
+1.71696737e-01f,+4.14059721e-02f,+1.77039802e-01f,-1.89451456e-01f,-1.79610401e-01f,
-2.20840797e-01f,-5.44712692e-03f,+9.37571600e-02f,+2.24353261e-02f,-3.53295542e-02f,
-1.71520505e-02f,+5.79796247e-02f,+2.15044066e-01f,+2.65091449e-01f,-9.07094255e-02f,
+6.98944554e-02f,+4.89448942e-02f,-1.83661714e-01f,-7.05016479e-02f,+1.35222375e-01f,
+1.51934341e-01f,+1.23755112e-01f,+1.16885968e-01f,+6.17628582e-02f,-2.22747073e-01f,
-4.00313847e-02f,-6.76184446e-02f,+2.33331442e-01f,+5.75237125e-02f,+8.93011540e-02f,
+3.17656994e-02f,+3.72642875e-02f,-1.16939805e-01f,+1.73030701e-02f,+2.57257968e-01f,
-1.44614920e-01f,+1.03977248e-02f,-4.60822992e-02f,-8.58697519e-02f,+1.24555878e-01f,
+5.63726686e-02f,-1.08732358e-02f,+1.69454172e-01f,+8.04005489e-02f,+7.52995163e-02f,
+2.36778751e-01f,-1.09949047e-02f,+2.58159786e-01f,-2.34541185e-02f,+5.30554019e-02f,
+8.81547630e-02f,+1.37246415e-01f,+2.33700037e-01f,-5.98227270e-02f,-2.25793123e-01f,
+1.90121502e-01f,+1.54220924e-01f,+2.99400240e-01f,-5.51941805e-02f,+2.69833039e-02f,
+2.58009791e-01f,-1.67848170e-03f,+2.34391004e-01f,+1.35560066e-01f,-6.78180382e-02f,
-1.22399684e-02f,+1.19187154e-01f,+3.39777470e-02f,-2.85580494e-02f,-2.66003728e-01f,
+1.98314071e-01f,+5.45910783e-02f,+9.57071036e-03f,+2.27866113e-01f,-5.16026579e-02f,
+2.71827698e-01f,+1.97531536e-01f,+6.05567805e-02f,+4.50102463e-02f,+3.11930310e-02f,
-1.79267272e-01f,+2.27113754e-01f,-7.32422248e-03f,+2.81874537e-01f,+1.81007624e-01f,
+7.42843002e-02f,+3.01628113e-01f,+8.68864823e-03f,-1.15226537e-01f,-1.85968983e-03f,
+2.45056618e-02f,+1.18066125e-01f,+3.09691532e-03f,-8.62445310e-02f,+1.39044523e-01f,
-8.49810150e-03f,+2.17597544e-01f,+5.91046251e-02f,+8.04046988e-02f,+1.56846821e-01f,
+6.98298067e-02f,+1.11418337e-01f,+2.94031888e-01f,+3.08291949e-02f,+3.07382822e-01f,
+2.58928444e-02f,+6.48406073e-02f,-1.45367727e-01f,-1.28143340e-01f,+2.55855352e-01f,
+9.10812523e-03f,+2.58471489e-01f,-6.32997006e-02f,+2.65082031e-01f,+1.13015756e-01f,
+2.48479754e-01f,+2.40557138e-02f,+1.28655747e-01f,-4.29159254e-02f,-1.77396014e-01f,
+2.16898546e-01f,+4.24699904e-03f,+2.26655900e-02f,+8.06303695e-02f,-1.39754796e-02f,
-3.94027494e-02f,-5.35052083e-02f,-8.88627470e-02f,-7.36229420e-02f,+2.63670594e-01f,
+5.22185341e-02f,+2.20919296e-01f,+1.45740405e-01f,-2.69204438e-01f,-3.91745083e-02f,
-4.78996569e-03f,+6.54571354e-02f,-1.89518347e-01f,-1.62683144e-01f,+2.30042562e-01f,
-6.89909607e-02f,+1.31945580e-01f,-1.13601930e-01f,+3.14015523e-02f,-1.14384815e-01f,
+2.87151694e-01f,+1.06264509e-01f,-8.95562246e-02f,+2.77160257e-01f,+2.58659814e-02f,
-2.42728796e-02f,+2.18471378e-01f,+6.66763261e-02f,-2.51174979e-02f,+4.23469692e-01f,
+9.24628675e-02f,+1.70432344e-01f,-5.93629666e-02f,+1.80568755e-01f,+4.73940186e-02f,
-6.37176558e-02f,-2.27459967e-01f,+2.61921575e-03f,-1.51997409e-03f,-1.64725557e-02f,
+2.15264261e-01f,+2.11638197e-01f,-9.22060013e-02f,+1.14968017e-01f,+2.65782923e-02f,
+7.86719471e-02f,+6.56502321e-02f,+1.53296232e-01f,+2.01467320e-01f,+2.57535547e-01f,
-3.80639136e-02f,-1.13764204e-01f,-2.79786531e-02f,+5.93461730e-02f,-1.62164797e-03f,
+2.09044348e-02f,+3.01057217e-03f,+1.50238469e-01f,+3.03513020e-01f,-2.73351278e-02f,
+2.55489573e-02f,+9.30502787e-02f,+6.40508011e-02f,+2.15863243e-01f,+2.17360273e-01f,
+1.25434905e-01f,+8.34058002e-02f,-3.30441333e-02f,+8.06753710e-02f,-1.37152612e-01f,
+1.56588793e-01f,+4.31974947e-01f,+2.25099012e-01f,+2.11807832e-01f,-8.79835710e-02f,
+1.81456253e-01f,+5.03459014e-02f,-2.17983238e-02f,-1.07265487e-01f,+1.84274092e-01f,
+5.23840003e-02f,+7.10279197e-02f,+8.88366252e-02f,+3.26196611e-01f,+2.56107688e-01f,
+4.92981710e-02f,+1.32580847e-01f,+1.84544668e-01f,+1.33092940e-01f,+2.45755732e-01f,
+6.47814572e-02f,-1.58956215e-01f,-1.92358643e-01f,+8.54526311e-02f,+1.60436466e-01f,
+3.19342017e-01f,+9.70139951e-02f,+2.10665151e-01f,-3.99024487e-02f,-3.40596102e-02f,
+2.93823898e-01f,+1.68758973e-01f,-1.09050371e-01f,-2.37581685e-01f,+1.68609723e-01f,
+1.46778986e-01f,-1.46026567e-01f,+1.10669965e-02f,-9.00741890e-02f,-1.20545648e-01f,
+1.01963721e-01f,-1.04812913e-01f,-3.08148235e-01f,+4.98653911e-02f,+1.40182897e-01f,
+2.96877120e-02f,+3.34590785e-02f,+1.85198620e-01f,+9.84947607e-02f,+1.12513788e-01f,
-1.56311259e-01f,+2.46969387e-01f,+1.89655125e-01f,+9.05349627e-02f,-7.27852434e-02f,
+4.12268229e-02f,-2.51096100e-01f,+9.42904875e-02f,+1.29345790e-01f,-1.77417740e-01f,
+3.40541340e-02f,+5.38187176e-02f,+1.10408030e-01f,+2.53968179e-01f,+6.53331429e-02f,
+3.50863263e-02f,-6.48999363e-02f,-2.13953093e-01f,-1.94570392e-01f,-1.10032037e-01f,
-9.05216020e-03f,+6.09509423e-02f,+3.24249379e-02f,-1.52953584e-02f,+2.55195070e-02f,
+3.51218954e-02f,+2.66877443e-01f,-1.25270158e-01f,+1.10932894e-01f,+2.84518242e-01f,
-1.53726935e-01f,+2.75996625e-01f,-5.73454313e-02f,+1.49023226e-02f,-4.45768535e-02f,
+1.89541742e-01f,+2.26996437e-01f,+2.59889036e-01f,+1.33186504e-01f,+6.24726564e-02f,
+2.27358103e-01f,-4.39352319e-02f,+3.40049714e-02f,+8.28751326e-02f,-7.24543929e-02f,
+1.52339295e-01f,+3.50643173e-02f,+1.23995900e-01f,+1.56998597e-02f,+2.21235398e-03f,
+2.90496171e-01f,-9.16100573e-03f,+4.19486612e-01f,+1.44664021e-02f,-1.06635138e-01f,
+8.51063728e-02f,+1.09964134e-02f,-2.54978351e-02f,-1.68778151e-02f,-7.92326629e-02f,
+2.06338331e-01f,+2.53389359e-01f,+7.61100501e-02f,+1.07570112e-01f,-8.33202153e-02f,
+1.15721285e-01f,-5.50011843e-02f,+1.65381745e-01f,+1.29806131e-01f,-1.91672951e-01f,
+1.44501939e-01f,+8.41885284e-02f,-2.16110677e-01f,-2.13790521e-01f,+9.85885859e-02f,
+1.28377065e-01f,-1.77076340e-01f,-2.47617498e-01f,+2.69943438e-02f,-2.15841696e-01f,
+1.02307409e-01f,+2.73104817e-01f,+4.70790148e-01f,+9.59939510e-02f,+9.02489424e-02f,
+3.13534141e-02f,+1.66176409e-01f,+3.30161788e-02f,+6.84190765e-02f,-9.46320742e-02f,
-4.13704477e-02f,+5.10551082e-03f,-1.64557453e-02f,+1.42241836e-01f,+1.29099086e-01f,
+3.64179969e-01f,-4.25547846e-02f,+2.49237344e-01f,-1.67356715e-01f,-2.49268841e-02f,
-1.75899565e-01f,+1.74317569e-01f,+3.67594033e-01f,+1.83040082e-01f,+1.93509702e-02f,
+1.59621209e-01f,-2.39261150e-01f,+1.97872311e-01f,+1.48127913e-01f,-1.53436974e-01f,
+2.63859689e-01f,+9.04351398e-02f,+3.91651481e-01f,-3.83816585e-02f,-1.37850607e-03f,
-6.77708164e-02f,+2.23660143e-03f,+1.18356444e-01f,+8.03419724e-02f,+1.05617695e-01f,
-1.02690369e-01f,+5.94501309e-02f,+3.86255682e-02f,+1.67834163e-01f,-1.54337615e-01f,
+1.28149509e-01f,+1.21720903e-01f,-4.41840552e-02f,+1.00401655e-01f,+9.82541516e-02f,
-1.33641392e-01f,+5.36604933e-02f,+6.92631081e-02f,-1.85193494e-02f,-5.19401915e-02f,
+1.18372440e-01f,-5.19965217e-02f,+8.04686099e-02f,-9.64238793e-02f,-1.30572751e-01f,
-1.12207178e-02f,-3.64360549e-02f,+1.38475047e-02f,+3.59036922e-01f,+2.93930620e-01f,
+2.42124468e-01f,+5.59467375e-02f,-2.17140019e-02f,+1.90955535e-01f,+2.09475204e-01f,
-2.85265520e-02f,+7.03888237e-02f,-2.03522176e-01f,+1.34769335e-01f,+4.65500169e-02f,
+7.67161921e-02f,+2.39801422e-01f,+1.72653105e-02f,-6.65579960e-02f,+1.75381489e-02f,
-1.24856785e-01f,-5.25264405e-02f,+1.83589496e-02f,-1.05594322e-01f,-2.45218053e-02f,
+2.37323239e-01f,-2.12525297e-02f,+1.00988477e-01f,+6.18342720e-02f,-3.63835134e-02f,
+5.75580113e-02f,+1.48149982e-01f,+1.65701985e-01f,+2.76000164e-02f,+1.40286535e-01f,
+1.95481554e-01f,+8.96749422e-02f,+1.63485017e-03f,+1.63688108e-01f,+1.06826581e-01f,
-3.65006328e-02f,-9.85377878e-02f,+9.69759151e-02f,+2.77634978e-01f,+1.96780592e-01f,
+5.83101027e-02f,-1.75231565e-02f,+2.59852201e-01f,+1.72689036e-01f,-1.35893404e-01f,
-2.01294646e-02f,+1.16051827e-02f,-9.29924659e-03f,+4.14472520e-01f,-1.02055497e-01f,
-1.32200802e-02f,+9.95934382e-02f,+8.49695429e-02f,+2.59397209e-01f,+1.51358366e-01f,
-1.19243361e-01f,+3.27237919e-02f,-2.65468415e-02f,+1.36848092e-01f,+7.39480555e-02f,
+2.12752610e-01f,+1.59805149e-01f,+7.79612139e-02f,-2.62444410e-02f,+1.26398191e-01f,
+2.69181192e-01f,+6.77432343e-02f,+1.66442972e-02f,+3.67603064e-01f,+2.38633573e-01f,
-6.16042651e-02f,+9.56447721e-02f,+1.90140754e-01f,+2.69525349e-02f,+5.88248000e-02f,
+1.90368652e-01f,+1.51224881e-01f,+2.24245749e-02f,+1.21605933e-01f,-6.37325346e-02f,
+8.66239611e-03f,+4.76506092e-02f,-3.51835862e-02f,+8.41759220e-02f,+1.47613093e-01f,
+1.06522813e-01f,+1.88072726e-01f,+9.38903987e-02f,-3.20870467e-02f,+1.98794082e-01f,
+3.92073005e-01f,+7.77824223e-02f,-6.57894984e-02f,+5.75927980e-02f,+5.86008057e-02f,
+4.27118778e-01f,+1.30383104e-01f,+2.64882952e-01f,+6.47998899e-02f,-6.59910962e-02f,
+6.98066056e-02f,+8.56991857e-03f,-1.64376587e-01f,+3.11525047e-01f,-1.17805980e-01f,
-7.10126311e-02f,+7.61758760e-02f,+3.80651712e-01f,+1.28816329e-02f,+9.35981944e-02f,
+8.21035802e-02f,-4.11775149e-02f,-1.44376373e-03f,+1.26579478e-01f,-6.68149590e-02f,
+1.67559251e-01f,-1.26998663e-01f,-5.38885081e-03f,+7.10396841e-02f,-2.83550452e-02f,
+6.07342012e-02f,+2.39054225e-02f,+1.56230377e-02f,-2.61864871e-01f,-4.96586598e-02f,
-5.05172275e-02f,+3.03926826e-01f,+1.79830432e-01f,+2.59430140e-01f,+8.06446001e-02f,
+1.78773493e-01f,+1.66947639e-03f,+3.06494571e-02f,+5.98097071e-02f,-3.45901959e-02f,
-1.17340527e-01f,-4.66272756e-02f,+2.72834510e-01f,+1.02674462e-01f,-4.67523634e-02f,
+7.54070505e-02f,-1.28042176e-01f,-6.65599704e-02f,+1.54044867e-01f,+1.94683626e-01f,
-1.23704039e-01f,+2.42757380e-01f,+2.42009684e-02f,+4.12970074e-02f,+2.44237185e-01f,
+1.58920005e-01f,-2.07419306e-01f,-3.27113494e-02f,-1.95694789e-01f,+6.01446591e-02f,
-1.33914113e-01f,-2.70608552e-02f,+1.51702389e-01f,+7.26884007e-02f,+7.47907013e-02f,
+1.16747297e-01f,+1.65680096e-01f,+7.69535750e-02f,+7.52161816e-02f,-8.88578743e-02f,
+1.31382510e-01f,+2.44093463e-02f,+3.53682153e-02f,+1.65658221e-01f,-6.63350001e-02f,
+4.28153463e-02f,+9.10453796e-02f,-2.70862319e-02f,+1.45555094e-01f,+1.57424867e-01f,
+3.09204131e-01f,+1.70851782e-01f,-2.48708472e-01f,+1.12064555e-01f,-2.36350134e-01f,
+1.39044523e-01f,+1.51869962e-02f,+2.88848668e-01f,+2.46410787e-01f,+5.48065221e-03f,
-1.61501616e-01f,-7.00664073e-02f,+1.14458166e-01f,+5.79590917e-01f,-1.25007674e-01f,
+1.74195811e-01f,-6.90851659e-02f,+3.59407477e-02f,+1.76782250e-01f,-2.55685210e-01f,
-1.92914773e-02f,-1.72522247e-01f,+1.58405244e-01f,+1.60995439e-01f,-6.67991117e-02f,
+3.16722281e-02f,+3.50332931e-02f,-2.49852732e-01f,+9.54340119e-03f,-2.51433134e-01f,
+6.00385368e-02f,-2.30556294e-01f,-3.53484266e-02f,-7.39455894e-02f,+3.38167310e-01f,
-2.88119376e-01f,+3.43523477e-03f,+1.49074808e-01f,+5.91010861e-02f,-1.15545109e-01f,
+2.20697243e-02f,+3.47086251e-01f,+2.50373688e-03f,+6.80807754e-02f,+4.74174730e-02f,
+2.96333551e-01f,+1.82531700e-01f,+5.37809841e-02f,+1.09810598e-01f,+1.41219527e-01f,
+1.56640112e-01f,-6.43822476e-02f,+2.90504128e-01f,+1.64954752e-01f,+4.54899788e-01f,
+1.38370350e-01f,-1.75054356e-01f,+1.26963601e-01f,+9.15058777e-02f,-8.27311277e-02f,
+1.20331742e-01f,-4.76344936e-02f,+1.18359469e-01f,-1.82742015e-01f,-4.79783416e-02f,
-1.08166851e-01f,-1.25697061e-01f,+2.60271020e-02f,-3.90272476e-02f,+5.55795478e-03f,
+1.28542647e-01f,+1.01293258e-01f,+1.22451968e-01f,-3.91173959e-02f,+2.91319042e-01f,
+1.20284773e-01f,+7.14425091e-03f,+1.87934458e-01f,-2.70438999e-01f,+2.25004032e-01f,
+2.66734138e-02f,-1.72831863e-01f,-1.68172996e-02f,-1.14889823e-01f,-1.79506317e-01f,
-1.00318110e-02f,+3.18740964e-01f,+2.97975570e-01f,+3.34956646e-02f,+5.01873381e-02f,
-4.74075135e-03f,+1.15546174e-01f,-3.13561596e-02f,-6.63972273e-02f,-1.22138269e-01f,
+9.41970572e-02f,+1.08109295e-01f,-2.58632936e-02f,+2.11510733e-02f,+2.33635545e-01f,
+1.58839837e-01f,+6.88700452e-02f,+5.01009002e-02f,+1.62830591e-01f,-1.16040977e-02f,
+1.49214379e-02f,-5.48670255e-02f,-8.60128850e-02f,+4.44830433e-02f,+2.18861431e-01f,
+1.96045607e-01f,+2.39709064e-01f,+2.04739064e-01f,+1.10314768e-02f,-1.40561864e-01f,
-1.68662250e-01f,+1.64548308e-01f,+1.66174620e-02f,+7.29831904e-02f,+1.41976224e-02f,
-1.39208004e-01f,-1.51572928e-01f,+1.01165861e-01f,-1.78977355e-01f,+6.17473796e-02f,
+2.47525901e-01f,+3.88893038e-01f,+5.89636108e-03f,+9.14712772e-02f,+5.73011860e-02f,
+1.54634537e-02f,+3.01502347e-02f,+2.11466759e-01f,-3.02897006e-01f,-1.17918983e-01f,
+1.47461951e-01f,-1.38755739e-01f,-6.31394982e-02f,-7.58677274e-02f,-1.16097167e-01f,
+1.24660917e-02f,-2.59559155e-02f,-1.06821187e-01f,+5.81017062e-02f,-4.96357605e-02f,
-2.16273323e-01f,+3.64458971e-02f,+4.18649077e-01f,+2.71286190e-01f,+3.02850604e-01f,
+1.94544479e-01f,+7.17932135e-02f,-1.72814399e-01f,+1.81537103e-02f,+1.78371780e-02f,
+3.37652899e-02f,+4.50743996e-02f,+7.35166669e-02f,+8.80285427e-02f,+1.50461113e-02f,
+1.31490037e-01f,-1.60195127e-01f,+2.70291746e-01f,+2.23929569e-01f,+6.97633177e-02f,
+1.04802310e-01f,+1.53622702e-02f,+5.65866418e-02f,-2.74899770e-02f,-8.48105624e-02f,
-1.51909575e-01f,-9.08925459e-02f,-5.02347611e-02f,+3.35931808e-01f,+1.70298874e-01f,
-2.43778005e-02f,-4.53313626e-02f,-1.28901884e-01f,-1.21703655e-01f,-3.19250263e-02f,
+1.72621414e-01f,-1.09428994e-01f,-2.07665160e-01f,-2.60310620e-01f,+1.92287967e-01f,
-1.61027029e-01f,+1.52640164e-01f,+1.58719867e-02f,+2.87040900e-02f,+2.05210716e-01f,
+2.16673255e-01f,+4.15449888e-02f,+1.73211053e-01f,+1.73562746e-02f,-1.00372396e-01f,
-7.99632370e-02f,+2.78218627e-01f,+2.12253749e-01f,+2.43147574e-02f,-1.14606895e-01f,
-7.55929053e-02f,+1.62714094e-01f,+1.33010685e-01f,-1.30945057e-01f,+2.03163624e-01f,
-5.94586395e-02f,+3.21425140e-01f,+3.31534147e-02f,-1.57747921e-02f,-3.49288136e-02f,
-2.77286451e-02f,-6.01745360e-02f,+4.15426791e-02f,+2.20625568e-02f,-9.87703949e-02f,
+1.92642003e-01f,+5.26955239e-02f,-1.30644828e-01f,-7.31087327e-02f,+6.34877533e-02f,
+2.23207757e-01f,-1.21378839e-01f,-1.27597703e-02f,-1.38842985e-01f,-2.32203454e-02f,
+1.48912184e-02f,-1.25109866e-01f,+2.55035728e-01f,+5.62061332e-02f,-4.92574312e-02f,
+3.81912403e-02f,+1.60959706e-01f,+1.31825373e-01f,-5.69556057e-02f,+2.42959529e-01f,
+3.65467101e-01f,+7.13712499e-02f,-1.81000933e-01f,+2.51324803e-01f,-1.58074990e-01f,
-3.80393700e-03f,+1.03664570e-01f,+4.80189174e-02f,+1.95496567e-02f,+2.43883338e-02f,
-2.60845013e-02f,+1.15552461e-02f,-3.88446040e-02f,-4.69301753e-02f,+1.34807706e-01f,
+1.07014909e-01f,+1.11733451e-02f,-1.83138177e-01f,+1.64252430e-01f,-7.01455325e-02f,
-5.42651638e-02f,-9.36219841e-02f,+7.37791806e-02f,-7.46446475e-02f,+2.85616666e-02f,
+1.66810736e-01f,+4.30655181e-02f,+6.53229654e-02f,+3.14578593e-01f,+9.70848501e-02f,
-5.47912046e-02f,+7.81241581e-02f,+7.05038235e-02f,+5.87056018e-03f,-1.55429551e-02f,
+1.79797783e-01f,+1.61271587e-01f,+2.22087830e-01f,-2.34685630e-01f,+1.40600905e-01f,
+1.01301126e-01f,-1.31397367e-01f,+1.58675492e-01f,+6.87002093e-02f,-3.33792567e-02f,
+1.26211807e-01f,-7.85789266e-02f,+6.67904988e-02f,+2.70773560e-01f,+2.72422880e-01f,
-1.29380718e-01f,-9.58885252e-02f,+2.23659530e-01f,+2.67210096e-01f,+7.98546225e-02f,
+6.88694790e-02f,+1.04455069e-01f,-3.80163677e-02f,-2.40248293e-01f,+8.43372792e-02f,
-2.63182342e-01f,+7.08460882e-02f,+9.47599337e-02f,+1.25704989e-01f,+1.04381062e-01f,
+2.33973674e-02f,+1.39828995e-01f,+7.32072294e-02f,+9.14082527e-02f,+9.90179777e-02f,
-1.07389735e-02f,+1.06062971e-01f,-5.06897457e-02f,+2.18257725e-01f,-4.12999839e-03f,
+8.56947601e-02f,+1.10552862e-01f,-1.38618648e-01f,+1.09014288e-01f,+9.73291788e-03f,
-6.75200149e-02f,+1.87100902e-01f,+1.47114217e-01f,+2.30268672e-01f,-9.41422284e-02f,
+7.39361942e-02f,+3.34425181e-01f,-1.07543334e-01f,+1.01502314e-01f,+4.19613421e-02f,
+6.14257902e-02f,+8.42288062e-02f,+1.37310773e-01f,-5.42894006e-02f,-2.05079496e-01f,
-6.81776032e-02f,-7.53843263e-02f,-6.80867955e-02f,+1.30455315e-01f,-9.16076899e-02f,
+2.04831496e-01f,-1.19911708e-01f,-1.35704845e-01f,+1.69336319e-01f,-3.16293612e-02f,
+6.87146708e-02f,+1.50963619e-01f,-1.69910505e-01f,-1.14519060e-01f,+2.09155791e-02f,
+9.64368880e-02f,-5.96385784e-02f,+1.81692600e-01f,+1.18754253e-01f,+4.04729992e-02f,
+2.09503815e-01f,+4.43179626e-03f,-3.79692279e-02f,-2.10250560e-02f,+1.07204929e-01f,
+1.93357438e-01f,-1.12486295e-01f,+5.50817773e-02f,+6.48847967e-02f,+1.48759022e-01f,
-1.69129014e-01f,+3.84248495e-02f,+7.75249377e-02f,+6.87861666e-02f,+1.28743574e-01f,
-1.32987246e-01f,-2.02528108e-02f,+1.91256195e-01f,+1.75793901e-01f,+2.35191718e-01f,
+6.73056170e-02f,+1.20885804e-01f,+1.50377035e-01f,-6.76901191e-02f,-1.75937871e-03f,
+1.24346167e-01f,+7.82205611e-02f,-2.34944914e-02f,-6.97540119e-02f,+1.71344697e-01f,
+2.96441197e-01f,-5.23039214e-02f,+1.31027609e-01f,+3.93740200e-02f,+2.80300695e-02f,
+1.97806761e-01f,+1.99573990e-02f,-1.23030208e-02f,+1.71370476e-01f,+2.28533134e-01f,
-3.00204188e-01f,+7.71718333e-03f,-8.24640095e-02f,-6.54164841e-03f,-6.66113496e-02f,
+2.75794864e-01f,+4.70912345e-02f,+7.51567781e-02f,-6.00236915e-02f,+5.04459031e-02f,
+4.27408479e-02f,+1.57841727e-01f,+1.20587625e-01f,-4.97741774e-02f,+9.14935768e-02f,
+1.01359166e-01f,+1.69451192e-01f,+1.36216268e-01f,+2.23675352e-02f,-1.38155045e-02f,
-1.50925934e-01f,-6.80635730e-03f,-7.93352574e-02f,+1.37472749e-02f,+1.17349960e-02f,
-1.04473971e-01f,+1.68466882e-03f,+1.69223890e-01f,-6.17835186e-02f,+5.43894712e-03f,
+4.17013243e-02f,-1.22423209e-02f,+1.88383013e-02f,-1.26489073e-01f,-2.33778413e-02f,
-3.86406970e-03f,-1.48247227e-01f,+1.26907036e-01f,+1.93640158e-01f,+1.00398645e-01f,
-2.07476124e-01f,+1.55596370e-02f,-1.71261102e-01f,-1.00545667e-01f,-2.79436111e-01f,
+9.06094164e-02f,+1.73978999e-01f,-1.60917476e-01f,+2.71813363e-01f,+8.03119540e-02f,
+3.56142819e-01f,+1.08556002e-01f,+4.06384692e-02f,+2.25686207e-01f,+1.11592144e-01f,
-5.53339627e-03f,-6.29597455e-02f,+2.50668675e-02f,+1.52057528e-01f,+1.04922161e-03f,
+5.09621613e-02f,+6.81126565e-02f,-1.30791813e-01f,+2.14261428e-01f,-1.29213035e-01f,
+1.13693021e-01f,-1.72186852e-01f,-2.33463272e-02f,-1.41458772e-02f,+1.99174479e-01f,
+6.37310892e-02f,+1.58423617e-01f,+5.64318150e-02f,+5.18384092e-02f,+1.74212992e-01f,
+2.28785202e-01f,+1.14629596e-01f,-4.68406007e-02f,+1.86642818e-02f,-5.40757738e-03f,
+1.01742178e-01f,-2.62618244e-01f,-1.64959505e-01f,+6.55690879e-02f,-1.44065455e-01f,
+1.36948019e-01f,+1.97544724e-01f,-2.04847101e-03f,+1.07108161e-01f,-2.24112496e-02f,
+4.28615324e-02f,+1.31790459e-01f,+4.69311625e-02f,-1.54163092e-01f,+2.75678057e-02f,
+4.01466042e-02f,-5.54723144e-02f,+7.57700652e-02f,+9.00072232e-03f,+2.38770209e-02f,
+1.12621553e-01f,+8.74634981e-02f,+1.28567219e-01f,+9.64685455e-02f,+2.87838101e-01f,
-2.49351258e-03f,-3.90874855e-02f,+1.39745742e-01f,+2.72271901e-01f,-1.01495311e-01f,
+6.96531013e-02f,+2.63658434e-01f,+4.92957570e-02f,-1.33362919e-01f,-2.05186769e-01f,
+5.82613349e-02f,+4.49407585e-02f,+5.65659851e-02f,+2.81333663e-02f,+2.09916368e-01f,
+2.74868100e-03f,+6.36392459e-02f,+6.71255440e-02f,-1.83887303e-01f,+1.01726271e-01f,
-1.58200011e-01f,-6.07048161e-02f,+1.21853566e-02f,+2.56093871e-02f,-1.24160893e-01f,
+1.52291367e-02f,+1.09962672e-01f,+1.65768892e-01f,+1.14393391e-01f,+1.67860296e-02f,
+9.27202702e-02f,+1.21813595e-01f,+6.14420213e-02f,+1.71081096e-01f,+6.46059662e-02f,
+2.93982029e-02f,+7.51828253e-02f,-1.45313129e-01f,+7.97843486e-02f,+3.60676423e-02f,
-1.78669661e-01f,-8.87704268e-03f,-8.08664337e-02f,-6.59038648e-02f,+1.92756996e-01f,
+9.49059241e-03f,+2.04735935e-01f,-1.04734123e-01f,+1.52512223e-01f,-3.61316081e-04f,
+6.55051693e-03f,+1.56271130e-01f,+1.23271591e-03f,+8.09445456e-02f,+8.45828205e-02f,
+6.92553166e-03f,-9.29597318e-02f,+1.08286381e-01f,+4.43371437e-06f,-9.61544961e-02f,
+9.12161246e-02f,-1.43462326e-02f,+5.70608675e-02f,+1.06611662e-02f,-4.37270366e-02f,
+1.39210988e-02f,+3.47794518e-02f,+2.94674467e-02f,+4.04718630e-02f,+1.55526986e-02f,
-3.91273014e-02f,+6.95353225e-02f,-2.36499831e-02f,-8.04446079e-03f,+1.14643417e-01f,
+1.19457617e-01f,+1.28355725e-02f,+1.60990015e-01f,-2.44466558e-01f,-4.75925133e-02f,
-4.35656719e-02f,+1.26280665e-01f,+7.68507048e-02f,-9.33927763e-03f,+8.79922956e-02f,
+6.26595616e-02f,-9.83442292e-02f,-6.07103817e-02f,-2.15374511e-02f,+1.08490428e-02f,
+4.11735699e-02f,+1.05253316e-01f,+8.84832442e-02f,+6.76873848e-02f,-1.21000819e-01f,
+7.36197010e-02f,-8.32181573e-02f,+1.45631716e-01f,+1.55602753e-01f,+1.28933415e-01f,
-8.33496675e-02f,+8.37471411e-02f,+2.01561898e-01f,+1.17807902e-01f,-3.49484161e-02f,
-2.73334309e-02f,-4.45332862e-02f,-1.14573464e-01f,+4.46076803e-02f,+9.24955159e-02f,
-8.63971561e-02f,-7.79505912e-03f,+1.81559652e-01f,-3.50643039e-01f,+3.13658506e-01f,
+9.07721967e-02f,-2.13972945e-02f,-1.10058092e-01f,-1.55574590e-01f,+9.93902832e-02f,
-3.08433222e-03f,+3.34095210e-02f,+9.28818658e-02f,+8.84368550e-03f,+2.63983399e-01f,
+1.22734107e-01f,+1.29379660e-01f,-1.93332136e-01f,+1.43576652e-01f,+8.40313509e-02f,
+2.24573445e-03f,+1.26821294e-01f,+8.29911008e-02f,+4.00025286e-02f,-1.32790536e-01f,
-5.67078665e-02f,+1.79519236e-01f,+2.04443052e-01f,+7.72158951e-02f,+7.46570304e-02f,
+8.96383747e-02f,+2.51216441e-01f,+1.90830395e-01f,+3.38139385e-02f,+7.94911012e-02f,
-1.15613297e-01f,+1.64592406e-03f,-3.95687819e-02f,+1.66936796e-02f,+1.76085010e-01f,
+9.97430235e-02f,+7.14021400e-02f,-7.56637454e-02f,+1.71896011e-01f,+2.40906760e-01f,
+1.81284621e-01f,+7.62503222e-02f,+1.18544176e-02f,+2.26663932e-01f,+9.74390581e-02f,
-1.32186621e-01f,+6.44352362e-02f,+1.34023633e-02f,+8.30089748e-02f,+1.79709733e-01f,
+8.64328220e-02f,+7.32339025e-02f,-1.43279135e-01f,-4.30050073e-03f,+9.27385762e-02f,
+1.86752290e-01f,+2.73690492e-01f,-2.87430324e-02f,+1.79760203e-01f,+1.06053250e-02f,
+9.17154551e-02f,-9.66871679e-02f,-2.94619389e-02f,+3.15016448e-01f,+7.04784915e-02f,
-7.66760495e-04f,+1.27279595e-01f,-4.73028161e-02f,-6.23834841e-02f,-2.48328894e-02f,
+1.54752359e-01f,-1.45796269e-01f,+2.48888414e-02f,-7.92367384e-02f,+7.53670111e-02f,
+7.38312677e-02f,+5.21355495e-02f,+7.99096748e-02f,-2.76334817e-03f,+1.45355716e-01f,
-1.15540110e-01f,+6.30967319e-02f,+6.81958022e-03f,+2.87672013e-01f,-1.26496032e-01f,
-1.15623668e-01f,+2.59383512e-03f,+1.61806867e-01f,+3.29913318e-01f,+1.33041933e-01f,
+1.08593673e-01f,+1.36380242e-02f,-1.63453996e-01f,-5.32259494e-02f,+1.03659285e-02f,
+5.40174395e-02f,+1.02009572e-01f,+8.18654299e-02f,-9.42559019e-02f,-5.66881374e-02f,
+1.85085207e-01f,+1.17086090e-01f,+3.12526058e-03f,-2.24957447e-02f,+1.09049983e-01f,
+1.03878215e-01f,+1.55905157e-01f,+2.24080477e-02f,+1.61628529e-01f,+1.38669506e-01f,
+1.38613015e-01f,-1.30187884e-01f,+1.87255308e-01f,-6.40288219e-02f,+9.19025168e-02f,
+1.92616554e-03f,+1.68696772e-02f,+6.30827844e-02f,+2.45965831e-02f,+1.52085230e-01f,
-6.52510598e-02f,+2.61756957e-01f,-8.04542005e-02f,+2.13733822e-01f,+6.58085942e-02f,
-1.37108386e-01f,+3.78677994e-02f,-2.13605016e-02f,+2.06738546e-01f,+2.35584497e-01f,
-7.90275633e-02f,-1.65694654e-01f,-2.60619000e-02f,-7.26078674e-02f,-5.35137840e-02f,
-6.21465482e-02f,+1.09485827e-01f,-4.50021364e-02f,-3.15819494e-02f,-1.07735924e-01f,
+3.63160484e-02f,+5.88132702e-02f,+1.81128811e-02f,-6.88023940e-02f,+4.40338664e-02f,
+1.97523355e-01f,+1.21989742e-01f,+1.52462544e-02f,+1.21818863e-01f,-5.72443008e-02f,
+2.27734111e-02f,-7.22121671e-02f,+3.56802583e-01f,+6.42828122e-02f,-2.90407777e-01f,
+5.85104004e-02f,+1.89879518e-02f,+6.04271740e-02f,+1.55403122e-01f,+1.14673495e-01f,
+1.71063527e-01f,+1.57965824e-01f,-5.05756913e-03f,+1.23159552e-04f,+3.46701071e-02f,
+1.06806280e-02f,+3.07083964e-01f,+4.29678112e-02f,+2.29403093e-01f,+1.64662465e-03f,
+1.28518641e-01f,-3.16018350e-02f,+5.17069437e-02f,-8.87649953e-02f,-3.91917862e-02f,
-8.30662623e-03f,-1.61455169e-01f,+9.34366584e-02f,-5.30189127e-02f,+6.85811639e-02f,
+3.27642895e-02f,-7.39690140e-02f,-2.62670927e-02f,+1.57345738e-02f,+5.00894375e-02f,
+2.50967860e-01f,+2.27588207e-01f,-1.72153879e-02f,+1.24314860e-01f,+1.76266693e-02f,
+1.16479069e-01f,+1.24323316e-01f,+2.72048097e-02f,-1.86681479e-01f,-3.44200619e-02f,
-8.80817622e-02f,+3.22023667e-02f,+2.80423909e-02f,+1.78030491e-01f,+5.87439630e-03f,
+3.57389934e-02f,+8.50542411e-02f,+1.59983590e-01f,+4.06491607e-01f,+5.62295839e-02f,
+1.31072402e-01f,-1.58543289e-02f,+1.17220171e-01f,-4.86691222e-02f,+7.56685063e-02f,
-4.28117886e-02f,+1.51624411e-01f,-1.14054456e-02f,-1.49083659e-01f,-5.17438538e-02f,
-4.88060527e-02f,+5.60835823e-02f,+1.45892844e-01f,+7.46648461e-02f,-5.23349009e-02f,
+2.44316272e-02f,+1.14541398e-02f,-2.77908929e-02f,-1.78544730e-01f,-6.67883232e-02f,
+8.77307504e-02f,-1.09800674e-01f,-2.74615679e-02f,+4.64484282e-02f,+1.47367045e-01f,
+1.54069904e-02f,+1.04180291e-01f,+1.20393001e-01f,+1.77010715e-01f,+2.12456092e-01f,
+1.27506539e-01f,-1.21734254e-01f,-5.72500527e-02f,+1.60447910e-01f,-6.51558712e-02f,
+3.63010950e-02f,+1.75630063e-01f,+1.10042607e-02f,+1.82213001e-02f,+1.79779857e-01f,
-2.81711835e-02f,-5.65574914e-02f,+6.06848709e-02f,+3.27849691e-03f,-2.58778632e-02f,
+9.81091633e-02f,+1.44905463e-01f,+2.48705726e-02f,+5.04489355e-02f,+4.52727126e-03f,
+8.21740180e-02f,+1.98316693e-01f,-2.65748315e-02f,+1.58498064e-01f,-1.40053615e-01f,
-6.36823103e-02f,+9.81887951e-02f,+1.49774790e-01f,+3.66894044e-02f,-5.48065528e-02f,
+2.41127342e-01f,+5.09097278e-02f,+1.59229770e-01f,+1.61082596e-01f,+1.41234115e-01f,
-1.53527874e-02f,-1.30891934e-01f,+1.16746373e-01f,+2.91400254e-01f,-1.72856450e-02f,
-6.28490746e-02f,+1.05394021e-01f,+2.01875433e-01f,+6.81595355e-02f,-1.28270045e-01f,
+3.16861756e-02f,+1.54255569e-01f,+1.21096291e-01f,-4.58475947e-02f,-1.39059395e-01f,
-1.41123220e-01f,-5.49509898e-02f,+1.08798191e-01f,-1.25907874e-02f,+1.86476260e-01f,
-8.66654590e-02f,+1.14762977e-01f,-1.52246654e-01f,+1.11481994e-01f,+1.86754256e-01f,
+3.74012440e-01f,+1.15196696e-02f,+2.00298592e-01f,-6.90628588e-02f,+1.02027049e-02f,
+5.27666882e-02f,-2.43801877e-01f,+2.08170995e-01f,-2.12011084e-01f,+1.74848646e-01f,
+2.86367416e-01f,+2.92470912e-04f,+3.74685712e-02f,+6.92144409e-02f,+6.50519282e-02f,
+2.96352208e-01f,+4.43987697e-02f,+3.84449922e-02f,-1.06197715e-01f,+2.65271127e-01f,
+1.59768164e-01f,+1.28440619e-01f,+2.83619463e-01f,+6.02357648e-02f,-5.79513609e-03f,
+2.12151203e-02f,+2.09722564e-01f,+2.98357885e-02f,+6.26048446e-02f,+1.04953475e-01f,
-7.29320943e-02f,+1.89596817e-01f,+2.41135731e-02f,+6.46171331e-01f,+3.32530886e-01f,
+1.41388163e-01f,+2.29307339e-02f,+1.42748505e-01f,+4.49686609e-02f,+6.06229082e-02f,
+9.56294164e-02f,-9.38621461e-02f,+7.20904246e-02f,+2.86246061e-01f,+2.85546482e-01f,
-4.85691540e-02f,+1.63396701e-01f,-1.23430908e-01f,-1.01691216e-01f,-7.78831169e-02f,
+1.96118549e-01f,+1.11227445e-01f,-9.75592136e-02f,-1.37697592e-01f,+1.69895217e-01f,
+3.29899676e-02f,+3.74215603e-01f,-2.40589991e-01f,+5.87307736e-02f,-1.68854073e-01f,
-3.05300713e-01f,+1.38404761e-02f,-3.49345326e-01f,+5.03274620e-01f,+1.12294190e-01f,
-5.88627011e-02f,-1.38050944e-01f,+8.11866596e-02f,-2.04636216e-01f,-6.32914752e-02f,
-1.15109690e-01f,+2.59547651e-01f,+8.72754380e-02f,+5.39452881e-02f,+2.37846583e-01f,
-8.68858323e-02f,-6.98183104e-02f,-1.60362005e-01f,+9.32932016e-04f,+2.44013861e-01f,
-3.35425772e-02f,-1.23676099e-01f,+2.22207308e-01f,+3.82563770e-01f,+1.11389056e-01f,
-9.16737840e-02f,+6.61762059e-02f,+1.03536151e-01f,-6.42839149e-02f,+1.25622287e-01f,
-3.92241962e-02f,+8.46295282e-02f,+2.89517790e-02f,-2.68859342e-02f,-1.84087381e-01f,
+2.13045757e-02f,-2.32253727e-02f,-1.17901348e-01f,-2.82806857e-03f,+4.12565544e-02f,
+2.05243826e-01f,+1.63122416e-01f,-1.86556488e-01f,+1.87673569e-02f,+4.84968983e-02f,
-4.78716046e-02f,+3.19818974e-01f,+1.06600344e-01f,+2.84335613e-01f,-6.47399724e-02f,
-2.07832549e-02f,+1.91787202e-02f,+2.82545481e-02f,+3.38330492e-02f,+1.61574990e-01f,
-8.05929899e-02f,+2.43984744e-01f,-1.22685991e-01f,+1.51812971e-01f,+1.51600912e-01f,
-1.93290979e-01f,+3.16611715e-02f,-7.80743957e-02f,+4.03483510e-02f,-3.41460556e-01f,
-1.38509244e-01f,+8.08068961e-02f,+1.98767275e-01f,-3.64346117e-01f,+8.97872970e-02f,
-5.14569692e-02f,-9.87849385e-02f,+2.53800750e-01f,+2.38323659e-02f,-1.34174004e-01f,
+2.72787184e-01f,-5.08987196e-02f,-1.36274248e-01f,+1.09047979e-01f,+1.22807443e-01f,
-2.69772895e-02f,-1.94207028e-01f,-1.19762629e-01f,+1.10430038e-02f,-2.06008628e-02f,
+1.79698080e-01f,-1.62918165e-01f,+1.66845113e-01f,-5.10465056e-02f,+1.43125087e-01f,
-1.50398746e-01f,+1.84609473e-01f,+1.18138820e-01f,+1.17550172e-01f,+1.85785383e-01f,
-5.85288331e-02f,+8.27023983e-02f,-1.17330536e-01f,-2.65681446e-02f,-8.74624997e-02f,
-1.34081364e-01f,+3.30447584e-01f,-2.96988308e-01f,+1.59916535e-01f,-4.29700524e-01f,
+2.58063097e-02f,+6.31383806e-02f,+2.77353674e-01f,+2.72834271e-01f,+2.06903532e-01f,
+1.05313197e-01f,-3.46532650e-02f,+5.11900306e-01f,+8.13747384e-03f,-1.52664274e-01f,
+1.26652077e-01f,-6.71720058e-02f,+3.39306183e-02f,+5.93861043e-02f,+2.38651678e-01f,
+1.65329054e-02f,+1.27678201e-01f,+1.47881985e-01f,+2.20593344e-03f,-1.68342680e-01f,
-5.42664826e-02f,+3.58813107e-02f,+4.68354020e-03f,+5.90606853e-02f,+2.04260841e-01f,
+6.58635125e-02f,+7.01533332e-02f,-5.72589450e-02f,-8.48562941e-02f,-1.48991838e-01f,
+2.75027882e-02f,-1.31897599e-01f,+1.08366378e-01f,-7.47269616e-02f,+1.09374672e-02f,
-6.87248185e-02f,+2.20011830e-01f,+1.93685219e-02f,+9.12900898e-04f,+1.68038994e-01f,
+9.12903249e-03f,-3.49885613e-01f,-6.22406043e-02f,-1.34695205e-04f,-3.52270812e-01f,
-1.23223171e-01f,-2.04445645e-01f,-4.42987122e-02f,+1.01076193e-01f,+1.98859498e-01f,
+8.41101706e-02f,+1.00647792e-01f,-4.39205915e-02f,+1.09303528e-02f,-2.53713936e-01f,
+6.55556023e-02f,+2.44486094e-01f,-1.45144016e-02f,-1.40481174e-01f,+2.16597319e-01f,
+3.51292431e-01f,-1.97083905e-01f,-2.57354796e-01f,+3.34569514e-01f,+2.81832367e-02f,
+7.24377632e-02f,+6.95053488e-02f,+1.09497495e-01f,+2.27931708e-01f,+2.55009811e-02f,
-4.03643101e-02f,+2.65756160e-01f,+2.17979357e-01f,-1.93198219e-01f,+1.95929840e-01f,
+1.73555780e-02f,+1.81638256e-01f,+2.74344180e-02f,-7.76300356e-02f,-9.17586405e-03f,
-1.06156990e-01f,+1.86795592e-02f,+2.45555997e-01f,+3.91473472e-02f,+3.57171625e-01f,
-3.40898573e-01f,-1.56089785e-02f,-3.25064957e-02f,+1.49598733e-01f,+2.81997263e-01f,
+2.14806665e-02f,-1.09296456e-01f,-4.55354862e-02f,-7.20997378e-02f,+2.51793027e-01f,
-4.68907803e-02f,+5.36473142e-03f,-7.59885320e-03f,-8.19560438e-02f,-2.50772722e-02f,
+1.92237105e-02f,-5.64712845e-02f,+3.35331522e-02f,-1.62478656e-01f,-1.96819548e-02f,
-7.55703226e-02f,+6.20390698e-02f,-1.56903267e-01f,-9.10735130e-02f,+3.62629220e-02f,
-3.02019864e-01f,-4.30325232e-03f,+1.01488074e-02f,+1.47968382e-02f,+5.05291462e-01f,
+1.55459866e-01f,+1.92191064e-01f,-3.70539352e-02f,+7.89318010e-02f,+2.31615901e-01f,
-1.18047381e-02f,-1.26184439e-02f,+1.10560052e-01f,+1.88098419e-02f,-4.66266554e-03f,
+1.00229271e-01f,+1.05804108e-01f,+1.40064582e-01f,-2.21601158e-01f,-1.18313134e-01f,
+7.83077553e-02f,-8.31648055e-03f,+1.53876081e-01f,+1.97428763e-01f,+3.61590534e-02f,
+3.03528637e-01f,+1.57126635e-01f,-3.75639424e-02f,+6.69659302e-02f,+9.57507174e-03f,
+8.15453902e-02f,-1.52516784e-02f,+1.95838243e-01f,+3.96973461e-01f,-1.26266479e-01f,
+7.86895901e-02f,+1.20394111e-01f,+1.71185702e-01f,-7.45056048e-02f,+1.24429271e-01f,
-1.76838055e-01f,+1.55791491e-01f,-2.10747972e-01f,+3.13082248e-01f,+1.55912086e-01f,
+6.62515089e-02f,+9.19530168e-03f,+4.04795855e-02f,+2.41066404e-02f,+1.82750121e-01f,
+9.70053226e-02f,+1.27662763e-01f,+8.52987617e-02f,-1.05101049e-01f,+1.17073812e-01f,
+1.90086767e-01f,+1.62958547e-01f,+9.67349038e-02f,+1.36264518e-01f,+8.62506405e-02f,
+3.09803128e-01f,-7.07142353e-02f,-1.62375227e-01f,-3.56235541e-03f,-1.63650781e-01f,
+6.45377338e-02f,-7.21403062e-02f,+1.76893994e-01f,-1.11906648e-01f,-8.75692889e-02f,
+7.17589334e-02f,+4.48008217e-02f,+1.06756605e-01f,+3.17892432e-01f,+2.32896224e-01f,
+4.89104800e-02f,+2.53099084e-01f,-1.01210706e-01f,+1.61767453e-01f,+2.37800134e-03f,
+2.23496661e-01f,+7.14958683e-02f,+3.80375594e-01f,+2.87151217e-01f,+2.26884440e-01f,
-1.63477242e-01f,+1.36583060e-01f,+6.99337795e-02f,+1.39113024e-01f,+1.23064786e-01f,
-2.97390893e-02f,+1.30532935e-01f,+5.37245333e-01f,-1.71846338e-02f,+5.01108468e-02f,
-6.89261928e-02f,+1.35214522e-01f,+8.40703398e-02f,+1.83983892e-02f,+1.13700047e-01f,
-2.22705796e-01f,+2.94895351e-01f,+2.31373422e-02f,+2.37747692e-02f,+1.70102030e-01f,
+7.83912092e-02f,+4.72366326e-02f,+5.28735444e-02f,-7.50293806e-02f,-4.65498194e-02f,
+4.55931341e-03f,+5.31258173e-02f,-1.18485309e-01f,+3.47312205e-02f,+2.15522517e-02f,
-5.70684187e-02f,+1.39215946e-01f,+6.81013316e-02f,+1.12257816e-01f,+7.75450543e-02f,
-2.33844906e-01f,+1.19820587e-01f,-1.80366188e-02f,-2.59113424e-02f,+7.01391473e-02f,
+8.39036033e-02f,-1.47383407e-01f,+1.36223659e-01f,+9.21079963e-02f,+4.58046831e-02f,
-6.40145019e-02f,+7.07816780e-02f,+1.17291196e-03f,+8.49875808e-02f,+1.84679538e-01f,
-1.17827810e-01f,+1.54244229e-01f,-9.29246619e-02f,+1.09891005e-01f,+6.41508922e-02f,
+3.89708951e-02f,+2.23655850e-01f,+1.94931537e-01f,+1.31501406e-01f,+7.45996609e-02f,
+1.75246298e-01f,+1.40538484e-01f,-1.86731324e-01f,+1.64771631e-01f,+1.66218862e-01f,
+4.44782525e-02f,+2.95715302e-01f,+1.23929083e-01f,+9.17615816e-02f,+1.79646134e-01f,
+1.17731616e-02f,-1.11055532e-02f,+8.33952427e-02f,+9.74798277e-02f,+4.09263879e-01f,
+9.78440163e-04f,+2.40070313e-01f,+3.84387001e-02f,+1.83506727e-01f,-9.67892930e-02f,
+3.36619467e-02f,+2.78874040e-01f,+1.73425257e-01f,+2.76901603e-01f,+4.86253016e-02f,
+1.06713958e-01f,-3.09937060e-01f,-3.25366333e-02f,-1.19691670e-01f,+2.54008949e-01f,
+1.00663900e-01f,+1.57297432e-01f,+4.49862890e-02f,+3.75043508e-03f,-4.70558554e-02f,
+1.04743809e-01f,+1.47003010e-01f,+1.04899131e-01f,+1.36853904e-01f,+1.66036282e-02f,
-6.98161423e-02f,-1.60216019e-01f,+1.58562716e-02f,+4.83116321e-02f,+2.68301785e-01f,
-3.96383740e-02f,+1.37305647e-01f,+2.30995178e-01f,+1.20643534e-01f,+4.31725830e-02f,
+1.04497090e-01f,+1.34456381e-01f,-2.50547249e-02f,+1.57736465e-01f,+1.67005852e-01f,
+3.10592782e-02f,+1.07628964e-01f,+8.02969038e-02f,-1.20054625e-01f,+3.68166149e-01f,
+1.34958237e-01f,-2.16189399e-01f,+4.96166684e-02f,-4.64109145e-02f,+1.44303506e-02f,
-1.10937096e-01f,-2.22111749e-03f,+2.76890844e-01f,+9.21372995e-02f,-1.72002017e-01f,
+1.26234069e-01f,+2.99397737e-01f,+1.48732260e-01f,-2.77212169e-02f,+1.09858550e-01f,
+1.38370976e-01f,+1.45774588e-01f,-8.83991048e-02f,+1.57479882e-01f,+2.76655346e-01f,
+2.75716856e-02f,+1.68622911e-01f,+6.23906776e-02f,+1.49584338e-01f,+9.92789641e-02f,
-5.19762300e-02f,+2.68766075e-01f,+2.65279680e-01f,+5.37683442e-03f,+1.42023757e-01f,
+2.17441455e-01f,+8.44084397e-02f,+2.19723564e-02f,-5.66561185e-02f,+2.91111171e-01f,
+2.47328654e-01f,+7.72112757e-02f,+6.54557869e-02f,+2.05859840e-01f,-4.15007956e-02f,
+1.15285791e-01f,-1.84925124e-01f,-3.95617727e-03f,+2.02583224e-02f,+6.84509650e-02f,
-5.94752245e-02f,+1.38489783e-01f,+4.84449118e-02f,+3.60850155e-01f,+1.27928689e-01f,
-1.10192699e-02f,-9.99507681e-02f,-5.34696169e-02f,+7.43295923e-02f,+7.57309943e-02f,
-1.15560710e-01f,-2.69149512e-01f,+1.70685798e-01f,+8.70228633e-02f,+4.86345887e-02f,
+3.16360205e-01f,-1.04160674e-01f,+8.05563480e-02f,-3.57309282e-02f,+2.94036448e-01f,
-3.25913392e-02f,+1.53243572e-01f,-1.28498316e-01f,+2.08889559e-01f,+3.93072218e-02f,
-1.54280409e-01f,+2.43365541e-01f,-8.81456118e-03f,+1.28758579e-01f,+2.36615077e-01f,
-1.16909835e-02f,+9.95452404e-02f,+1.16102219e-01f,-1.17574029e-01f,-2.64216572e-01f,
+3.21507096e-01f,+1.09249219e-01f,+2.74357706e-01f,+5.16546071e-02f,+1.34162039e-01f,
+2.13709027e-01f,+2.28652313e-01f,-8.85780621e-03f,-8.42085108e-02f,+3.45704079e-01f,
-7.61914775e-02f,+1.22737676e-01f,-9.96743590e-02f,+2.03264039e-02f,-1.44260854e-01f,
-8.23294558e-03f,+1.24887533e-01f,-7.34993294e-02f,+4.83652979e-01f,+8.73597711e-02f,
+1.57907546e-01f,-1.63077414e-01f,+3.33373070e-01f,-1.14128077e-02f,-1.24373911e-02f,
-2.32801378e-01f,+5.68700880e-02f,+1.26209691e-01f,+2.70462215e-01f,-8.32401440e-02f,
+7.20796958e-02f,+4.33693379e-02f,+2.44991288e-01f,+1.02678277e-01f,+9.71110072e-03f,
-9.24272556e-03f,+9.35932323e-02f,+7.91144073e-02f,+7.13518262e-02f,+5.28870039e-02f,
-2.82906383e-01f,-1.49989985e-02f,+2.46538952e-01f,+5.13640046e-01f,-2.62174457e-02f,
+2.06069718e-03f,+1.75511926e-01f,+4.40905124e-01f,+9.75881331e-03f,+3.35546955e-02f,
+1.40342293e-02f,-4.07144194e-03f,+6.90948442e-02f,-5.59122525e-02f,+1.05129920e-01f,
+6.47945777e-02f,+3.52364361e-01f,+1.76910222e-01f,-1.25565350e-01f,-1.81014210e-01f,
+5.73504083e-02f,+2.16859788e-01f,+2.37821266e-01f,+5.84977306e-03f,+4.62079979e-02f,
+4.92329709e-02f,+2.92284995e-01f,+7.58684725e-02f,-5.42192608e-02f,+5.78688309e-02f,
+1.97820514e-01f,+3.45253408e-01f,+4.46696356e-02f,+1.20147295e-01f,+1.76882222e-01f,
+2.35069633e-01f,+2.60549039e-01f,+2.38242775e-01f,+5.37860990e-02f,+1.57568365e-01f,
-1.30557537e-01f,-1.03050873e-01f,+1.39361303e-02f,+4.60985228e-02f,-2.13517081e-02f,
+1.37690961e-01f,+3.84779990e-01f,+5.59672788e-02f,+2.78140426e-01f,-4.86828573e-02f,
-1.32960334e-01f,-1.82033017e-01f,+2.31668800e-02f,+2.84533113e-01f,-1.61615461e-01f,
+4.15170752e-02f,-1.83749441e-02f,+1.97040603e-01f,-2.92265601e-02f,+2.76784539e-01f,
+2.10485116e-01f,+3.52487564e-02f,+1.24475874e-01f,+8.08750466e-02f,+1.48393869e-01f,
+1.96167678e-01f,-9.74560678e-02f,+1.49390716e-02f,-1.62612796e-02f,+7.72959292e-02f,
+4.70739067e-01f,+7.88269192e-02f,+1.60767455e-02f,-1.05088644e-01f,+1.39170229e-01f,
+1.64208323e-01f,-5.03544509e-02f,+4.16169539e-02f,+4.58060429e-02f,+3.24396968e-01f,
+1.65275827e-01f,-1.59838621e-03f,+2.06758440e-01f,-2.23613866e-02f,-6.63437173e-02f,
-1.55452862e-01f,+3.09874237e-01f,+6.96755275e-02f,+1.53728455e-01f,+1.37229204e-01f,
+1.20390140e-01f,+1.45017490e-01f,+1.40186653e-01f,-6.43318100e-03f,+2.28290811e-01f,
-7.46587431e-03f,+1.17301624e-02f,+2.01373622e-01f,+3.56722772e-01f,+4.12066817e-01f,
+1.54349551e-01f,+9.13729146e-02f,-3.99782620e-02f,+1.01787426e-01f,+6.13612682e-02f,
-2.97374669e-02f,+1.10459551e-01f,+4.97988947e-02f,+5.69585264e-02f,+2.03391388e-01f,
+1.72819912e-01f,+1.06175654e-01f,-1.38297096e-01f,-1.96343958e-02f,+4.73139733e-02f,
+6.99574724e-02f,+7.76921958e-02f,-1.06553413e-01f,-9.61697381e-03f,+9.64037627e-02f,
-2.39397008e-02f,-8.40313882e-02f,+1.13075182e-01f,+1.03370801e-01f,-8.68088156e-02f,
-1.57727495e-01f,-6.31429926e-02f,+5.99958487e-02f,+4.56085205e-02f,-2.02620775e-02f,
+5.55284284e-02f,+2.81512082e-01f,+3.23065668e-01f,-1.39913887e-01f,-8.11405107e-02f,
+6.36470690e-02f,-4.22908127e-01f,-1.68379739e-01f,-1.34445906e-01f,-1.88371390e-01f,
+1.73134342e-01f,+2.88332958e-04f,-1.26496762e-01f,-1.19720161e-01f,+1.57496437e-01f,
+7.55151063e-02f,+5.77239692e-02f,+2.11770460e-01f,+2.03810707e-01f,+1.23663336e-01f,
+1.61465615e-01f,+1.79819658e-01f,+4.99017015e-02f,-9.94735863e-03f,+1.19939763e-02f,
-1.08158244e-02f,+1.93590865e-01f,+1.29468471e-01f,+5.19573502e-02f,+1.50682658e-01f,
+2.94140130e-01f,+1.29719079e-01f,+1.78088829e-01f,-8.90702158e-02f,-9.11284387e-02f,
+2.30599150e-01f,-6.93127438e-02f,+6.33197874e-02f,+1.35350615e-01f,-1.63745657e-01f,
+1.75960287e-01f,+4.32814062e-01f,-3.04576140e-02f,+1.56940609e-01f,+7.50738606e-02f,
+1.31407408e-02f,-1.90322232e-02f,+2.59167645e-02f,+1.16784938e-01f,+8.45265538e-02f,
+1.71430305e-01f,-1.31423339e-01f,+2.21188053e-01f,+1.51709184e-01f,+1.41939521e-01f,
-1.47687271e-01f,+1.69668511e-01f,+1.31345823e-01f,+1.09847054e-01f,-1.72866806e-01f,
+1.12874679e-01f,-5.45044184e-01f,+4.26082313e-02f,+2.51494825e-01f,+1.57551765e-01f,
+8.59377980e-02f,-6.04712777e-02f,+5.65649830e-02f,+2.17805933e-02f,+1.10161506e-01f,
-1.68160088e-02f,+1.86213791e-01f,+9.33349773e-04f,+2.29984403e-01f,+4.81484050e-04f,
+4.22215015e-01f,+5.18852547e-02f,+8.30483288e-02f,-1.25744522e-01f,+3.12523618e-02f,
-1.64891183e-01f,-5.83164692e-02f,+2.70423979e-01f,-5.54456115e-02f,+3.37216944e-01f,
-3.69138643e-02f,-2.46369396e-04f,-1.42798051e-01f,+7.78356344e-02f,-4.62528728e-02f,
+8.96622911e-02f,+1.66892052e-01f,-9.31209177e-02f,+1.36114076e-01f,+1.69214621e-01f,
+9.87132490e-02f,+7.51498640e-02f,-4.27369811e-02f,-7.27555826e-02f,+4.72224921e-01f,
-1.00215495e-01f,+1.82871580e-01f,-1.65820211e-01f,-1.09998673e-01f,+1.99864641e-01f,
+1.12579919e-01f,+4.49498504e-01f,-1.22497045e-02f,+1.88927084e-01f,+6.06759153e-02f,
-1.88814908e-01f,+2.62821540e-02f,+8.06475580e-02f,+1.11041248e-01f,+1.02648027e-01f,
+1.27018750e-01f,+1.63387492e-01f,+1.46706671e-01f,+4.77217138e-02f,+7.27821738e-02f,
+1.49251372e-01f,+3.32249969e-01f,-2.55487263e-02f,+1.49136066e-01f,+1.61006048e-01f,
-1.05210409e-01f,-7.07972050e-02f,+2.65413374e-01f,+4.41332757e-02f,-2.08808094e-01f,
+1.40736192e-01f,+1.39871493e-01f,+4.60921496e-01f,+6.97157010e-02f,-4.17891927e-02f,
+1.18949212e-01f,+1.48546115e-01f,+2.78465867e-01f,+3.91609043e-01f,+9.57078487e-02f,
+9.14218798e-02f,+8.51965323e-02f,+2.58006066e-01f,+2.21875876e-01f,-6.87626377e-02f,
+2.06169516e-01f,+1.72323044e-02f,+9.07971188e-02f,+5.18302917e-02f,+4.25480753e-02f,
+2.98898607e-01f,-1.79729536e-02f,+2.39854679e-01f,+5.61849028e-02f,+2.34610178e-02f,
-1.20717719e-01f,+2.54411157e-02f,+1.18163548e-01f,+2.66911507e-01f,+7.62395635e-02f,
-1.08054951e-01f,+6.87205344e-02f,+6.53347224e-02f,+1.09195031e-01f,-9.56557170e-02f,
+2.75433552e-03f,+1.61220729e-02f,+1.89271197e-01f,+4.05730717e-02f,+1.56091779e-01f,
-1.11930408e-01f,+2.46800594e-02f,+5.51723801e-02f,+1.18121207e-01f,-1.06639616e-01f,
+4.13065553e-01f,+1.19075060e-01f,+1.22695498e-01f,-2.94754148e-01f,+3.00855994e-01f,
+9.47580207e-03f,-1.60646029e-02f,+2.28547961e-01f,+9.53708291e-02f,+9.50431377e-02f,
-1.64767981e-01f,+3.33108753e-02f,+3.33528280e-01f,-6.25356510e-02f,+1.00460947e-01f,
+2.00436443e-01f,+1.32216305e-01f,+9.81749967e-02f,+3.14124301e-02f,-1.55155316e-01f,
+2.07531944e-01f,-1.51952252e-01f,-9.07295942e-02f,+1.83028266e-01f,+2.17255607e-01f,
+9.10507664e-02f,-2.42247000e-01f,+1.68877617e-01f,+7.35884309e-02f,-6.97505102e-02f,
+2.91156054e-01f,-2.01235145e-01f,-9.05670896e-02f,+2.13601440e-01f,+1.12108596e-01f,
+1.70921087e-01f,-3.46568450e-02f,+2.83429831e-01f,+6.98476881e-02f,+1.64438233e-01f,
+7.77014866e-02f,+6.88783824e-02f,+9.23815742e-03f,+1.15599804e-01f,+3.07946932e-02f,
+4.53817368e-01f,+3.77077572e-02f,+1.10016815e-01f,-9.66061205e-02f,+3.99031520e-01f,
-1.17796890e-01f,-1.85908243e-01f,-2.97583733e-03f,+1.57094613e-01f,+1.59350261e-01f,
-1.20896786e-01f,-1.26259118e-01f,+5.99171408e-02f,+1.09999411e-01f,+4.53229725e-01f,
+1.00786097e-01f,+1.42964385e-02f,+9.07829329e-02f,-3.02660823e-01f,+3.01170517e-02f,
+8.22793469e-02f,+1.09339885e-01f,-8.05837568e-03f,+5.23628406e-02f,+1.29663765e-01f,
+2.07809851e-01f,-5.67383431e-02f,+1.58356747e-03f,-4.56974134e-02f,-8.17084238e-02f,
+2.23850653e-01f,+9.21719447e-02f,-8.02622288e-02f,+2.81120688e-02f,-1.32097267e-02f,
+5.58685400e-02f,+5.52241325e-01f,+9.01898518e-02f,+1.38630152e-01f,-5.16634211e-02f,
+4.96979393e-02f,-9.34246629e-02f,+1.00920707e-01f,+2.41087094e-01f,+1.95981935e-02f,
-2.98916269e-02f,-8.66611227e-02f,-3.52236144e-02f,+1.75417557e-01f,+1.18002497e-01f,
+1.47516713e-01f,+1.54669195e-01f,+7.30731012e-03f,+1.86845846e-02f,-2.01113299e-01f,
-9.21128541e-02f,+6.01430982e-02f,+8.68616551e-02f,+3.03971589e-01f,+2.22850561e-01f,
-1.26939729e-01f,+1.53948829e-01f,+1.58768430e-01f,-1.98670849e-01f,+1.68077931e-01f,
-2.13099465e-01f,+2.45179251e-01f,+9.62608233e-02f,+4.69058603e-02f,-8.83126259e-02f,
-3.93137448e-02f,-8.47774670e-02f,+4.78104465e-02f,+1.09991208e-01f,+1.32909626e-01f,
+2.83013154e-02f,+1.47699133e-01f,-1.66615888e-01f,+5.06810769e-02f,-9.47980136e-02f,
-1.30873427e-01f,+1.30368575e-01f,-1.64418370e-02f,-1.60596460e-01f,-5.76761477e-02f,
+2.83682585e-01f,-8.56453031e-02f,+1.15737304e-01f,-1.56845927e-01f,-3.66496295e-02f,
-1.30423252e-03f,+2.04210892e-01f,-8.63163099e-02f,+5.44741303e-02f,+5.84165081e-02f,
+1.32909670e-01f,+1.27938658e-01f,-1.66079439e-02f,+1.15440257e-01f,+3.69394496e-02f,
+1.25884667e-01f,+2.52188474e-01f,+2.75277972e-01f,-1.65943503e-01f,-6.47498369e-02f,
+1.79043725e-01f,+1.38062909e-01f,+3.50266248e-01f,-3.12513043e-03f,-9.00644138e-02f,
+3.08585674e-01f,+1.59292787e-01f,-7.62997121e-02f,+2.24022046e-02f,-3.21420953e-02f,
+2.39633545e-02f,-2.48215124e-02f,-3.09412498e-02f,-8.46218467e-02f,+4.16395925e-02f,
+6.79174960e-02f,-9.09981038e-03f,-1.97888687e-01f,-2.42642403e-01f,+2.41765797e-01f,
+1.48199528e-01f,-3.39868036e-03f,+1.13011286e-01f,-7.18393028e-02f,-4.41374406e-02f,
+3.10630292e-01f,-1.11281998e-01f,+3.26760113e-02f,+8.69243592e-03f,+2.39092544e-01f,
+3.36229913e-02f,-2.88641583e-02f,+1.33765414e-01f,+2.48189047e-01f,+2.28560507e-01f,
+5.35027031e-03f,+2.02301040e-01f,+2.11508453e-01f,+3.48456293e-01f,+3.40635091e-01f,
-5.74208461e-02f,-9.42564532e-02f,+2.40861513e-02f,-2.46580262e-02f,+1.21078603e-01f,
-1.56422958e-01f,+4.59032804e-02f,+4.34858687e-02f,-2.76036970e-02f,+3.02328914e-02f,
-8.03008974e-02f,+1.14852421e-01f,+4.45760079e-02f,+1.10797651e-01f,+1.21239386e-01f,
+8.52759778e-02f,+4.34316158e-01f,-2.72550937e-02f,+1.96907017e-02f,+1.79092668e-03f,
+9.04630497e-03f,+3.93743888e-02f,-1.27769023e-01f,+9.31231230e-02f,-1.03383306e-02f,
+6.05537817e-02f,-1.85161363e-02f,+2.92003807e-03f,+7.28345439e-02f,+6.04336150e-02f,
+2.89075375e-01f,+2.74732590e-01f,-2.09919773e-02f,+2.56540589e-02f,+1.44078672e-01f,
+1.40667409e-01f,+6.19144589e-02f,+6.77918196e-02f,+1.77780569e-01f,-9.76408124e-02f,
+1.03050575e-01f,-2.37327684e-02f,+5.67490496e-02f,+1.10766858e-01f,+7.83285722e-02f,
+9.79140308e-03f,+7.41010765e-03f,-2.63104867e-02f,+1.51327401e-01f,+1.58378556e-01f,
+1.19457208e-01f,+1.24627762e-01f,+3.02809924e-01f,+8.08866397e-02f,+3.70046765e-01f,
-1.49081901e-01f,+3.54048997e-01f,+8.95876810e-02f,+4.91525233e-02f,-2.29058340e-02f,
-5.92332100e-03f,+8.31229761e-02f,+1.40529796e-01f,-1.41738996e-01f,-1.77718088e-01f,
-7.00381994e-02f,+2.51722723e-01f,-9.09794308e-03f,+5.06440289e-02f,-5.43607250e-02f,
-3.74304736e-03f,-6.13002181e-02f,-4.18097600e-02f,-5.24402857e-02f,+2.79827356e-01f,
+1.54683962e-01f,+3.20827007e-01f,-1.09726429e-01f,-4.36342880e-02f,+3.34693193e-02f,
+1.68721840e-01f,-1.35889605e-01f,-3.78186703e-02f,-1.86015777e-02f,+1.94157392e-01f,
+3.30547765e-02f,+1.17663972e-01f,-1.39334835e-02f,-2.37587318e-02f,+1.05470054e-01f,
+1.42165676e-01f,+1.35333240e-01f,+1.95519820e-01f,-2.48227175e-02f,+2.73965240e-01f,
-1.28519639e-01f,+1.35475859e-01f,-1.12347588e-01f,-2.28651345e-01f,+5.56823835e-02f,
+2.95157963e-03f,+7.87585378e-02f,+2.91993737e-01f,-2.69760638e-01f,+1.60794444e-02f,
-7.01360703e-02f,-1.41268158e-02f,+1.23992220e-01f,-1.69645913e-03f,+1.55934030e-02f,
-1.18323006e-01f,-6.34855852e-02f,+1.52223021e-01f,+9.01998114e-03f,+1.84241056e-01f,
+4.43298817e-02f,-1.19283356e-01f,+4.43853922e-02f,-1.59361243e-01f,-5.76676382e-03f,
-6.59721717e-02f,+2.85454869e-01f,+9.01858881e-02f,-1.46811768e-01f,+2.44752049e-01f,
-4.67245793e-03f,-1.03084603e-02f,-1.58318788e-01f,+1.40228599e-01f,+4.97571714e-02f,
+1.55504584e-01f,+9.11613274e-03f,+2.19485551e-01f,+1.37320340e-01f,+2.45853558e-01f,
-7.20741823e-02f,-4.66631986e-02f,+2.18679890e-01f,-1.57010797e-02f,+8.46375152e-02f,
+2.00062290e-01f,-1.44919148e-02f,+1.66480869e-01f,-5.85064515e-02f,+3.97999845e-02f,
-3.08615696e-02f,+1.84026316e-01f,-6.67231753e-02f,+9.57677364e-02f,+1.99619029e-02f,
+1.87738519e-02f,-4.56347354e-02f,-4.62806150e-02f,-1.62622426e-02f,-7.77112544e-02f,
+1.05113700e-01f,+1.45479128e-01f,+3.29178274e-01f,+7.91276395e-02f,-6.16154214e-03f,
-1.10835016e-01f,+1.14753120e-01f,+3.73010248e-01f,-8.68262202e-02f,-1.37519225e-01f,
+7.96790048e-02f,+7.20114559e-02f,+3.15907359e-01f,+6.44046441e-02f,-7.26875737e-02f,
-6.84096441e-02f,+1.21958025e-01f,+1.52699679e-01f,-4.24471088e-02f,+2.60525737e-02f,
+4.07645945e-03f,-1.24087162e-01f,-3.19481529e-02f,+1.78432256e-01f,+7.85812177e-03f,
+1.58643931e-01f,+8.75595286e-02f,+1.72001585e-01f,-3.20416659e-01f,-2.57407188e-01f,
+1.29437819e-01f,+1.71394080e-01f,-9.08549130e-02f,+8.05881917e-02f,+1.26568228e-01f,
+2.06782788e-01f,+3.01196333e-02f,-1.83484778e-02f,+3.45829315e-02f,+6.98853703e-03f,
+1.64534613e-01f,+5.52706681e-02f,+6.27719164e-02f,+4.79953699e-02f,-3.91857885e-02f,
+3.84456329e-02f,-1.35719314e-01f,+4.08680514e-02f,+8.67761970e-02f,+1.38283312e-01f,
+1.40414432e-01f,+1.42534912e-01f,-2.47557223e-01f,+3.03248256e-01f,+1.09480180e-01f,
+1.06892414e-01f,-4.04931530e-02f,+3.80036831e-02f,+5.94013706e-02f,+1.60927936e-01f,
-4.93963920e-02f,-1.14728235e-01f,+6.98743537e-02f,-4.70140465e-02f,-1.00703752e-02f,
-9.25863981e-02f,+2.09098533e-01f,-1.45021468e-01f,-6.00126758e-02f,+2.92726427e-01f,
+1.84382915e-01f,+6.20689727e-02f,+8.30497071e-02f,-1.26750544e-01f,+5.88799082e-02f,
+2.82201562e-02f,-5.76215237e-02f,+2.68638618e-02f,+4.14245985e-02f,-1.88387986e-02f,
+1.45395353e-01f,+1.26472399e-01f,-5.59837222e-02f,-1.92876175e-01f,-1.01348767e-02f,
+4.14868966e-02f,+1.12973057e-01f,+5.43320924e-02f,-2.25637890e-02f,+2.40660496e-02f,
-1.08892592e-02f,+2.11748168e-01f,+2.08241642e-02f,+1.00873886e-02f,+1.54421180e-01f,
+1.10142022e-01f,-4.91000861e-02f,+1.90338090e-01f,+1.09621257e-01f,+6.12394549e-02f,
-4.70560528e-02f,+5.99013194e-02f,+8.04946125e-02f,+9.95765850e-02f,+2.86536604e-01f,
+8.01105611e-03f,+1.58659741e-02f,-3.91564779e-02f,+3.00330445e-02f,-3.89852747e-02f,
+2.61924058e-01f,+1.10065028e-01f,+1.19912125e-01f,+4.60305475e-02f,-4.96700332e-02f,
+5.80292530e-02f,-1.65190417e-02f,-3.81456874e-02f,+1.34329900e-01f,+2.85828346e-03f,
+1.05321757e-01f,+2.27749392e-01f,-6.53497949e-02f,+2.61450578e-02f,-5.64682931e-02f,
-5.52843884e-02f,+2.99752727e-02f,+1.53456360e-01f,+6.18261658e-02f,+5.74431680e-02f,
+8.56924523e-03f,-2.07174003e-01f,-4.17079777e-02f,+9.85156074e-02f,+1.97166979e-01f,
+1.27356067e-01f,+1.18503675e-01f,-2.05221400e-01f,-1.96422160e-01f,+1.08186118e-02f,
-7.65417740e-02f,+1.67781547e-01f,+1.13007702e-01f,-1.60383418e-01f,+6.14092685e-02f,
+2.09243283e-01f,+1.15994357e-01f,-1.18809961e-01f,+9.42433327e-02f,-3.00743133e-02f,
-4.44254391e-02f,+4.97061424e-02f,+5.90249114e-02f,+5.62090799e-02f,-2.44969383e-01f,
+2.26360217e-01f,-8.48722383e-02f,+3.59427626e-03f,+1.00052752e-01f,+3.90262082e-02f,
-7.99128860e-02f,+1.85188483e-02f,-6.78625852e-02f,+4.91514318e-02f,+1.90362170e-01f,
+3.05284802e-02f,-5.34113683e-02f,+5.10513261e-02f,-1.25215337e-01f,+6.77214041e-02f,
+1.78331777e-01f,+1.81818843e-01f,+6.95176888e-03f,-8.35799798e-02f,+1.06092356e-01f,
+1.29903078e-01f,+2.74472415e-01f,+1.98897883e-01f,+6.36625811e-02f,+2.43793041e-01f,
-8.92720222e-02f,-5.80787957e-02f,+1.55183256e-01f,+1.61530122e-01f,+9.52030569e-02f,
-1.40736133e-01f,+2.04280391e-01f,-2.90668458e-02f,+8.01373273e-02f,+2.63726056e-01f,
+3.31758633e-02f,+1.31723702e-01f,+9.71062556e-02f,+6.44769073e-02f,+7.16076717e-02f,
+4.78993207e-02f,-9.84114632e-02f,-2.78722215e-03f,-1.46698579e-01f,-1.62927464e-01f,
-4.56000958e-03f,+1.49228439e-01f,-8.06983337e-02f,+9.42910686e-02f,+1.97420910e-01f,
+5.47617748e-02f,+1.31912217e-01f,+1.37281150e-01f,+3.52854759e-01f,-3.66371386e-02f,
+1.08996741e-01f,+1.41358703e-01f,-4.71368246e-02f,+1.81102678e-01f,+6.97595105e-02f,
+4.54882905e-02f,+3.94858643e-02f,+7.15195313e-02f,+1.36254773e-01f,-5.79365343e-03f,
-2.67956164e-02f,-2.91959286e-01f,-3.63581255e-02f,-1.43838838e-01f,+2.33222954e-02f,
+6.08596280e-02f,+4.25046012e-02f,+1.11817226e-01f,+2.09246770e-01f,+1.84292212e-01f,
-8.53430014e-03f,-1.18130691e-01f,+5.98529056e-02f,+1.01511702e-01f,+2.20274210e-01f,
+1.21621892e-01f,+3.38630855e-01f,+6.17524534e-02f,+1.77276775e-01f,+1.09703548e-01f,
+1.53919637e-01f,+1.02966450e-01f,+7.57217184e-02f,-9.93376151e-02f,+7.44955093e-02f,
-1.81997880e-01f,+1.37759037e-02f,+3.02043408e-01f,+8.92847776e-02f,+2.88760304e-01f,
+1.64319500e-01f,+5.15433624e-02f,+1.27010450e-01f,-5.21791987e-02f,+1.71283573e-01f,
+3.57882269e-02f,+1.62537783e-01f,+2.36075073e-01f,-7.30696041e-03f,-2.61350069e-02f,
-1.11888098e-02f,-4.91938740e-02f,-2.13146601e-02f,+8.60022157e-02f,-1.02741659e-01f,
+4.66393270e-02f,+8.43768567e-02f,-4.81661893e-02f,-2.26744801e-01f,+5.86276017e-02f,
+6.37252927e-02f,+6.83056638e-02f,+1.41475469e-01f,+1.30687937e-01f,+9.60625336e-02f,
+2.31263027e-01f,+1.73831880e-01f,+1.48220565e-02f,+6.61415830e-02f,+2.83303205e-03f,
+1.81589156e-01f,+1.40831485e-01f,+1.32482737e-01f,+7.16704875e-02f,+9.20822546e-02f,
-9.46692005e-02f,+1.25217974e-01f,+2.79662218e-02f,+2.14111313e-01f,-2.45973691e-02f,
+5.42442463e-02f,-6.00002520e-02f,+1.20986141e-01f,+1.87246710e-01f,+6.78208843e-02f,
+8.43340605e-02f,+1.56909242e-01f,+2.07836539e-01f,+8.52825567e-02f,+4.03399207e-02f,
+1.51559291e-02f,+1.81140810e-01f,-3.74238826e-02f,+2.48434678e-01f,+1.08751722e-01f,
+1.55681372e-01f,+3.06653142e-01f,+1.18770786e-01f,-3.09454501e-02f,-6.37174100e-02f,
+2.24608049e-01f,+2.00632904e-02f,+1.62625119e-01f,-3.73725634e-04f,-5.45269484e-03f,
-3.12708132e-02f,+3.87621224e-02f,-2.44549681e-02f,+1.42733514e-01f,-1.35223409e-02f,
+1.43530145e-01f,-8.72831121e-02f,+1.93921698e-03f,+2.93889325e-02f,+5.30243851e-02f,
+1.01022050e-01f,-1.34667397e-01f,+3.61670777e-02f,-1.79547537e-02f,-5.27124107e-02f,
+1.39815599e-01f,+7.96516091e-02f,+1.27951503e-01f,+2.88773507e-01f,+4.57620211e-02f,
+1.10798404e-01f,-9.80938226e-02f,+2.07464144e-01f,-1.03855349e-01f,+2.87856292e-02f,
+1.26720116e-01f,-1.19794033e-01f,+4.54580598e-02f,-8.42085704e-02f,+1.23850673e-01f,
-6.23222552e-02f,+1.72326297e-01f,+3.75849642e-02f,+1.62628427e-01f,+2.76861608e-01f,
+3.48975584e-02f,+5.77687174e-02f,+4.25819345e-02f,+1.47397652e-01f,-2.03589164e-02f,
+2.24287972e-01f,+2.29150802e-02f,+2.15127498e-01f,-3.80413383e-02f,+1.35354757e-01f,
+7.56324753e-02f,-8.72299448e-03f,-2.50331908e-02f,+5.35661578e-02f,+7.07090497e-02f,
+8.17133784e-02f,+3.27076428e-02f,+1.66276097e-01f,+1.31181300e-01f,+1.38287852e-02f,
+8.50337744e-02f,+9.16214213e-02f,+3.20975706e-02f,+1.82873696e-01f,+6.88694641e-02f,
-9.01019350e-02f,+1.33494586e-01f,-7.55825080e-03f,-1.64378830e-03f,+1.16253421e-01f,
+1.33871719e-01f,+1.72053769e-01f,+5.90623282e-02f,+2.45746467e-02f,+1.15558088e-01f,
-1.22690410e-03f,-1.13858789e-01f,+1.19413592e-01f,+1.34383321e-01f,+2.99144864e-01f,
-1.46314353e-01f,+7.04821721e-02f,+2.24173203e-01f,+3.31328325e-02f,+1.23236850e-01f,
+1.34367585e-01f,+5.39037511e-02f,+2.88479298e-01f,+7.15365484e-02f,+5.53733595e-02f,
-1.33787375e-02f,+4.58565056e-02f,+1.29526258e-01f,-7.04881328e-04f,-1.11419998e-01f,
+6.38502231e-03f,-8.50808173e-02f,+4.50557061e-02f,+6.00047372e-02f,+2.68853996e-02f,
+2.92047262e-02f,+1.03544220e-01f,+6.87319413e-02f,+1.71842933e-01f,-1.06412731e-01f,
-4.69091199e-02f,+1.47931084e-01f,+5.53978682e-02f,+1.19414069e-01f,-1.28145218e-01f,
-6.17225841e-03f,+1.98287606e-01f,+2.32462108e-01f,+1.57908916e-01f,+6.53503910e-02f,
+2.19530780e-02f,+2.42162123e-01f,+1.38848841e-01f,+4.73621534e-03f,+1.02872103e-01f,
+1.58662260e-01f,+1.70817167e-01f,+2.05056444e-01f,-2.49049738e-02f,-5.99615164e-02f,
+7.41377398e-02f,+2.08043262e-01f,+5.83144575e-02f,+8.06169808e-02f,-7.30247190e-03f,
+4.18176576e-02f,+5.65323494e-02f,+2.19019111e-02f,+1.25673264e-01f,+5.33149205e-02f,
+1.02056496e-01f,+7.77137801e-02f,-1.18061397e-02f,+6.06954508e-02f,-7.41751567e-02f,
+6.51285872e-02f,+3.72324847e-02f,+6.77019060e-02f,-4.14169021e-02f,+1.34576529e-01f,
-6.23937929e-03f,+7.47428387e-02f,-1.70096233e-02f,+1.33443996e-01f,-4.15109172e-02f,
-5.23402952e-02f,+7.47402906e-02f,+1.13015369e-01f,+4.63750325e-02f,+9.36436653e-02f,
+2.70468816e-02f,+4.65292390e-03f,+6.42763451e-02f,+1.35034369e-03f,+5.68805151e-02f,
-2.79276669e-02f,+1.12679586e-01f,-3.83666679e-02f,+8.98150131e-02f,+2.30060015e-02f,
+1.29126564e-01f,+1.21814407e-01f,+1.15586706e-02f,-1.71744209e-02f,-6.63221255e-02f,
+2.69555181e-01f,+8.37002918e-02f,+2.01018855e-01f,+2.34115824e-01f,+2.30972141e-01f,
+1.87641919e-01f,+4.87395860e-02f,+1.01441130e-01f,+7.11127967e-02f,+7.29528964e-02f,
+1.77517802e-01f,-2.63065249e-02f,-1.01095490e-01f,-7.54591823e-02f,-1.10327840e-01f,
+2.70640268e-03f,+8.52599069e-02f,+7.67061953e-03f,+3.76823395e-02f,+8.86095315e-02f,
+2.31937319e-03f,+1.38233960e-01f,+1.14339732e-01f,-9.78939887e-03f,+1.20761827e-01f,
+2.10196413e-02f,+5.50119244e-02f,+8.08611512e-02f,+8.29175487e-02f,-1.23316357e-02f,
+6.23871051e-02f,+7.00894222e-02f,+5.81536293e-02f,-2.17819810e-02f,+8.62009302e-02f,
-2.41502207e-02f,+6.11438591e-05f,+9.70187262e-02f,+5.42542748e-02f,+1.63624182e-01f,
+1.73708513e-01f,+1.41199037e-01f,+9.98891592e-02f,+1.65807962e-01f,+1.06424846e-01f,
+7.97973871e-02f,+4.52681445e-02f,+5.68997897e-02f,+2.47889131e-01f,+5.20387199e-03f,
+1.39101863e-01f,+1.25829279e-01f,+4.75820489e-02f,-2.51352917e-02f,+2.13418547e-02f,
+3.58708687e-02f,+1.60855770e-01f,+4.81579751e-02f,+2.09799096e-01f,+6.21125940e-03f,
-9.31105670e-03f,-1.89233601e-01f,+4.98437509e-02f,-2.67323907e-02f,-3.31057459e-02f,
+1.53820813e-01f,+1.88843384e-02f,+1.35476574e-01f,+8.04302618e-02f,+4.88873348e-02f,
+2.79019382e-02f,-1.36807770e-01f,+1.19007803e-01f,-1.51764959e-01f,+5.16338721e-02f,
+2.16352716e-01f,-3.01577896e-02f,-1.32580578e-01f,+1.38678730e-01f,-1.35695441e-02f,
-5.04720174e-02f,+5.01467623e-02f,+5.43171056e-02f,+2.56675426e-02f,-2.74302252e-02f,
+1.52190268e-01f,+3.22700739e-02f,+5.97000048e-02f,+1.23562202e-01f,+3.64340134e-02f,
+2.93481559e-01f,-1.09311171e-01f,+1.28160194e-01f,-2.95355637e-02f,+8.85021016e-02f,
+1.11367814e-01f,-1.12327166e-01f,-1.85365304e-02f,+1.32639721e-01f,+7.14566633e-02f,
+2.00107023e-02f,-3.38519067e-02f,+1.12748876e-01f,-1.14186101e-01f,+4.04033750e-01f,
+4.17823233e-02f,-1.55952021e-01f,+1.07354023e-01f,+6.44772425e-02f,-7.64863715e-02f,
+7.72733837e-02f,+7.49431252e-02f,+9.60903764e-02f,+5.66634350e-02f,+1.91063628e-01f,
-1.55045697e-02f,+7.52578378e-02f,+1.89030822e-02f,+4.72647436e-02f,+6.25218004e-02f,
+7.67106339e-02f,+1.11136913e-01f,-1.45796403e-01f,+1.31822377e-01f,+1.93422716e-02f,
+1.82187138e-03f,+3.43499072e-02f,+1.73214301e-01f,+1.34591041e-02f,-5.53881414e-02f,
+2.52207350e-02f,-2.08822973e-02f,+1.07559562e-01f,+2.31931165e-01f,+1.07975543e-01f,
+3.79725844e-02f,-1.73743486e-01f,+9.14572030e-02f,+3.32682490e-01f,+1.75126627e-01f,
+9.81932785e-03f,+3.13812681e-03f,+5.88506721e-02f,+1.65406182e-01f,+9.59599316e-02f,
+2.09622890e-01f,-2.94839200e-02f,+2.24941429e-02f,+1.13341305e-02f,-6.51297495e-02f,
-5.91646731e-02f,+9.49703753e-02f,+4.38041911e-02f,+4.84271534e-02f,-2.86012828e-01f,
+6.94928616e-02f,+1.57439709e-01f,-2.16950430e-03f,-6.48780987e-02f,+2.25847229e-01f,
+3.04816267e-03f,+1.07072704e-02f,+7.52225742e-02f,+2.39659175e-01f,+7.70335197e-02f,
-4.30672280e-02f,+9.26408023e-02f,+1.60320491e-01f,+3.05024058e-01f,+1.70195475e-01f,
-4.52066585e-03f,+1.93327814e-01f,+1.98867396e-01f,-2.64997572e-01f,-1.59893528e-01f,
+1.64851591e-01f,-4.53752875e-02f,+1.45612761e-01f,+2.17913195e-01f,+6.86424375e-02f,
+3.85237843e-01f,+1.09102547e-01f,+2.11946279e-01f,+1.30542591e-01f,+3.81179713e-02f,
+1.66032732e-01f,-3.00376136e-02f,+1.18746519e-01f,+1.07326068e-01f,+8.11531767e-02f,
+3.39093916e-02f,+7.42458105e-02f,+1.36248440e-01f,+7.90906698e-02f,+1.49141803e-01f,
+1.65467188e-02f,+9.61511731e-02f,+1.44736513e-01f,+1.91666782e-01f,+4.85171974e-02f,
-1.42284501e-02f,+2.73275614e-01f,+1.25773996e-01f,-1.33021191e-01f,+2.49851719e-02f,
-6.71466142e-02f,-1.87497307e-02f,-1.06836051e-01f,-1.46972299e-01f,+6.10107556e-03f,
-7.20504299e-02f,+2.84523554e-02f,-1.29458725e-01f,+2.09030762e-01f,+8.70950073e-02f,
+1.85154185e-01f,-6.77720532e-02f,-1.13008149e-01f,-2.60645691e-02f,-3.98711711e-02f,
+3.57697234e-02f,+8.79427120e-02f,+1.29075246e-02f,+8.88137147e-03f,+2.84479916e-01f,
+1.78169429e-01f,+1.47677481e-01f,+3.14100869e-02f,-1.52984306e-01f,-1.22814596e-01f,
+9.07786563e-02f,-6.38851374e-02f,+1.66031137e-01f,-2.07590565e-01f,+2.12763563e-01f,
-1.19329013e-01f,-2.41875827e-01f,+1.45276099e-01f,+2.20362872e-01f,-1.05620483e-02f,
+6.13805791e-03f,-1.36359632e-01f,+6.53740484e-03f,+1.92482516e-01f,-6.41555637e-02f,
+1.89190432e-01f,+4.43089474e-03f,-1.52572263e-02f,-7.69374445e-02f,-4.28872816e-02f,
-2.44859472e-01f,-7.17582256e-02f,+1.05036937e-01f,+8.35329145e-02f,+3.61399427e-02f,
+2.22300291e-01f,+9.75353941e-02f,+2.45023653e-01f,-7.50822499e-02f,-2.02925310e-01f,
-2.83640102e-02f,-1.98066682e-01f,+6.06610328e-02f,+4.31999490e-02f,-1.22482687e-01f,
-2.21721917e-01f,-1.91573143e-01f,+1.96349069e-01f,-1.65966600e-01f,+1.23944841e-01f,
-1.11179687e-01f,-1.76302463e-01f,-2.20848516e-01f,+1.31818550e-02f,-1.20096104e-02f,
+1.83095541e-02f,-1.80362184e-02f,-1.99244156e-01f,-1.73702172e-03f,-9.72919986e-02f,
+2.19717145e-01f,+4.44410034e-02f,+9.26074106e-03f,+6.11937605e-02f,+2.59809699e-02f,
+5.38999140e-01f,+7.11914375e-02f,-4.55437243e-01f,-2.57712614e-04f,+1.51743097e-02f,
-2.62665451e-01f,-1.80773064e-02f,+9.01684072e-03f,-2.06763558e-02f,-1.22016884e-01f,
+1.97633103e-01f,+1.05100453e-01f,+1.37916207e-01f,-2.51919299e-01f,+2.38459930e-01f,
-1.27989829e-01f,+2.07605392e-01f,-1.03544123e-01f,+1.40390009e-01f,+1.48238510e-01f,
+8.74585211e-02f,+2.14222237e-01f,+3.03807948e-02f,+1.82171643e-01f,-7.03453727e-04f,
+8.08054209e-02f,+5.11223897e-02f,+3.28816026e-01f,+1.41391322e-01f,+1.23591974e-01f,
+4.96881269e-02f,-1.17374472e-01f,-5.48032597e-02f,+1.31620601e-01f,-2.83651024e-01f,
-3.64540130e-01f,+1.04160108e-01f,+1.74580496e-02f,+1.11135468e-02f,+5.32391071e-02f,
+2.22750053e-01f,+1.38076484e-01f,+4.01318595e-02f,-1.60441129e-03f,+5.66029772e-02f,
-1.50813654e-01f,-8.66816565e-03f,-2.27598071e-01f,+4.53763306e-01f,+5.30325919e-02f,
+7.30395922e-03f,+1.60209816e-02f,-1.47796720e-01f,-1.17208131e-01f,+6.33243844e-02f,
-5.50404862e-02f,-6.41381964e-02f,+3.02102953e-01f,-5.93767539e-02f,-7.20612928e-02f,
-9.31967981e-03f,+9.82151106e-02f,+9.65491682e-02f,-9.32591781e-02f,+2.71050155e-01f,
+1.69478655e-01f,-1.70658201e-01f,-8.91780481e-02f,+1.03983730e-01f,-6.36005476e-02f,
-3.26591671e-01f,-6.65543750e-02f,+1.45808205e-01f,+1.60754532e-01f,+1.20465823e-01f,
+5.40444441e-02f,+9.83378068e-02f,+1.82867348e-01f,+1.19887799e-01f,-7.41262734e-02f,
+1.26974760e-02f,+6.89062774e-02f,-1.00900857e-02f,+2.44911045e-01f,-3.42742167e-02f,
+2.91274358e-02f,-1.07786078e-02f,-1.05929606e-01f,+1.19993970e-01f,-6.38457015e-02f,
-7.46329315e-03f,+1.06141247e-01f,-4.41075474e-01f,-9.71844122e-02f,+2.83868968e-01f,
-7.42859840e-02f,+4.49150354e-01f,+3.60646918e-02f,+6.12435378e-02f,-3.20818692e-01f,
+1.78049102e-01f,-2.45004743e-01f,-1.83431786e-02f,-1.45038381e-01f,+3.98150086e-02f,
-8.11763629e-02f,-1.58878174e-02f,+1.67360812e-01f,+7.87038207e-02f,+7.45586827e-02f,
+1.10429421e-01f,-9.89630539e-03f,+2.90055931e-01f,+2.28363812e-01f,+1.18736289e-01f,
-6.82505444e-02f,+2.53579795e-01f,+3.98804955e-02f,-1.91708848e-01f,-2.15771288e-01f,
+3.49658243e-02f,+1.76088884e-01f,-1.78588524e-01f,+2.05381121e-03f,-1.38106123e-01f,
-4.37253639e-02f,-3.03546172e-02f,+2.65072674e-01f,+3.18146378e-01f,+1.07579236e-03f,
+3.31207573e-01f,-2.21259490e-01f,-1.70309633e-01f,+6.01244308e-02f,+1.51006982e-01f,
-9.28044841e-02f,+6.84659975e-03f,-2.43974216e-02f,+1.18258901e-01f,-2.44143661e-02f,
+8.80580395e-02f,-1.78279728e-01f,+2.61455864e-01f,+2.28733748e-01f,-5.42383380e-02f,
+3.41592252e-01f,-2.12729543e-01f,+2.28337154e-01f,-6.53750747e-02f,-9.89590809e-02f,
+2.51806825e-01f,+2.11977690e-01f,+9.22349840e-02f,+6.56217616e-03f,+2.33093739e-01f,
+4.51602526e-02f,-6.73131123e-02f,+1.21656641e-01f,+1.26263410e-01f,+3.48046064e-01f,
+3.33570950e-02f,+2.22988397e-01f,+1.91558823e-02f,+2.16443673e-01f,+4.75363173e-02f,
-5.88468425e-02f,+2.24569768e-01f,-7.91975111e-02f,+1.50182292e-01f,+3.21496040e-01f,
+9.36195850e-02f,-2.81490706e-04f,-9.97810289e-02f,+1.07080691e-01f,-1.07984990e-01f,
-7.01085851e-02f,+2.58996338e-02f,-1.86486855e-01f,+2.71713376e-01f,-9.96142346e-03f,
-7.34810233e-02f,-2.72921860e-01f,+2.64155702e-03f,-2.07720414e-01f,-3.78994010e-02f,
-4.00432497e-02f,-3.05052139e-02f,-4.31017764e-02f,-2.91841454e-03f,+1.26905203e-01f,
-2.07269490e-01f,-6.17169999e-02f,+1.48021085e-02f,+1.79087147e-01f,-1.64447531e-01f,
-1.75171345e-01f,-6.65692613e-02f,-8.60166401e-02f,-2.58395504e-02f,-6.85673440e-04f,
+2.40524381e-01f,+9.54776332e-02f,+3.36341232e-01f,+4.96522188e-02f,+7.51388818e-02f,
+6.91808984e-02f,-8.42248276e-03f,-1.22740949e-02f,+9.49540809e-02f,+8.70952085e-02f,
-4.81376976e-01f,-2.18881533e-01f,+2.37239286e-01f,+9.78637710e-02f,+9.01090913e-03f,
+1.58406705e-01f,+9.16455388e-02f,+1.82386324e-01f,+3.25856432e-02f,-2.22480312e-01f,
-8.83795172e-02f,+3.29511553e-01f,-2.74588019e-01f,+4.45998199e-02f,-2.14746520e-01f,
+1.67287752e-01f,-1.88326493e-01f,+7.01101720e-02f,-3.02772149e-02f,+6.64978474e-02f,
+4.58018668e-02f,+2.06660897e-01f,+1.00000843e-01f,+1.11365700e-02f,+3.94457169e-02f,
+4.09136862e-02f,+2.16387838e-01f,-1.92928016e-02f,+1.56940699e-01f,-4.24848199e-02f,
+2.00424373e-01f,+8.09080154e-03f,+2.75825799e-01f,+8.16060230e-02f,+1.52548042e-03f,
-2.03251373e-02f,+1.83714613e-01f,-3.43922749e-02f,+2.68028259e-01f,-1.72493622e-01f,
-5.84530085e-02f,+3.38162929e-02f,+1.10972255e-01f,+1.00637399e-01f,+8.94891620e-02f,
+1.28168628e-01f,+1.45972013e-01f,+1.20329484e-01f,+8.08586404e-02f,+2.13776588e-01f,
-7.44747370e-02f,-8.23983029e-02f,+1.96491659e-01f,+2.78100848e-01f,+3.22295763e-02f,
-1.93034649e-01f,-4.40686848e-03f,-8.03151950e-02f,-9.82809216e-02f,-1.26907036e-01f,
+8.39630961e-02f,+1.95973203e-01f,+7.82431215e-02f,+2.86883026e-01f,+1.17480032e-01f,
+4.77252394e-01f,+7.57590011e-02f,-8.13100487e-02f,+5.79471700e-02f,-8.29476640e-02f,
+9.72830802e-02f,-2.41179153e-01f,+1.00407749e-01f,+1.50872946e-01f,+4.32713516e-02f,
+7.29504451e-02f,-5.32081164e-02f,+9.16442499e-02f,+2.16226071e-01f,+3.03162145e-04f,
-6.07940145e-02f,-1.28332645e-01f,+7.60169029e-02f,+7.51908775e-03f,+1.63376868e-01f,
+1.51138902e-01f,+8.33592415e-02f,+2.57917196e-01f,-7.74870161e-03f,+2.02511903e-02f,
+9.71964933e-03f,+5.05496152e-02f,+2.60071009e-01f,+2.82533288e-01f,+3.88963073e-01f,
+4.32327181e-01f,+8.71747211e-02f,-5.38802817e-02f,-2.71110628e-02f,-8.50872099e-02f,
+1.51531339e-01f,-7.28071332e-02f,+7.14788958e-02f,-9.30441469e-02f,-1.93534076e-01f,
+2.71875829e-01f,+1.29487991e-01f,+7.29716346e-02f,+4.33492869e-01f,+9.29854736e-02f,
+1.95247784e-01f,+4.03355539e-01f,-6.58054873e-02f,+5.38385771e-02f,+2.75800288e-01f,
+1.44076660e-01f,+1.76226020e-01f,+2.48735286e-02f,-3.96723002e-02f,+1.16393715e-01f,
+3.12137514e-01f,+3.68943922e-02f,-4.72970866e-02f,+6.63489029e-02f,-3.14033777e-01f,
+1.37172759e-01f,-2.62617897e-02f,+1.16402976e-01f,-7.80070946e-02f,-1.57348484e-01f,
-2.57105902e-02f,-7.21607953e-02f,+4.48328137e-01f,-1.34352788e-01f,-2.71334052e-01f,
-1.89440891e-01f,+1.53002106e-02f,+3.04441661e-01f,-7.74280205e-02f,-7.01498194e-03f,
+1.57077432e-01f,-1.88773975e-01f,-1.14942692e-01f,-1.56105027e-01f,+2.48298287e-01f,
+1.32100612e-01f,-8.96017328e-02f,+1.78446412e-01f,+1.53574482e-01f,-5.85086308e-02f,
+1.09496236e-01f,-6.38347790e-02f,+1.13998361e-01f,-1.80013716e-01f,-1.29074782e-01f,
+4.47106063e-01f,+3.46180886e-01f,+4.67275381e-02f,+2.58481950e-01f,+6.66944310e-04f,
+1.81398928e-01f,-9.13622752e-02f,-4.50106300e-02f,+2.65582621e-01f,+3.81272852e-01f,
-2.58726813e-02f,-7.44086178e-03f,+1.05635272e-02f,+1.28151372e-01f,-3.11252456e-02f,
+7.34594315e-02f,+1.63421966e-02f,+2.79132396e-01f,-7.82640353e-02f,+2.14098439e-01f,
+1.14701344e-02f,-2.31340200e-01f,+1.38668850e-01f,-2.97164589e-01f,-1.57244742e-01f,
+1.82359070e-01f,+7.54111335e-02f,-5.44293523e-02f,-5.72860055e-02f,+2.39645645e-01f,
+9.88661796e-02f,+3.91314849e-02f,+2.34462753e-01f,-1.82248920e-01f,+6.73524141e-02f,
-3.73545177e-02f,+2.19145715e-01f,+9.30200610e-03f,+2.08606079e-01f,+1.18776672e-01f,
+7.38663450e-02f,-1.94019396e-02f,+1.89050466e-01f,+9.51561481e-02f,-2.36140098e-03f,
-3.43749523e-02f,+1.95350096e-01f,+2.00525925e-01f,+3.72654870e-02f,+3.89335811e-01f,
+2.24427003e-02f,+7.33043179e-02f,+3.02221656e-01f,+8.90943687e-03f,+4.69949663e-01f,
-7.58643597e-02f,-4.28898372e-02f,-6.72831014e-02f,+2.91849136e-01f,-3.99266541e-01f,
+8.35652724e-02f,-7.64602870e-02f,+7.42504820e-02f,+1.24859184e-01f,+2.31862664e-01f,
-8.64411592e-02f,+1.17691211e-01f,+1.05659449e-02f,+2.18964651e-01f,+1.70013636e-01f,
+4.13973518e-02f,+1.22838475e-01f,+2.12971374e-01f,+2.26814542e-02f,+2.87887186e-01f,
+5.45563817e-01f,-1.01725042e-01f,+8.75587836e-02f,+4.06010807e-01f,-1.10745542e-02f,
+3.53734165e-01f,+1.92988738e-02f,+1.37363747e-01f,-6.34784326e-02f,+6.82573467e-02f,
+1.07225679e-01f,+2.34373927e-01f,+6.44308627e-02f,+5.40175363e-02f,+2.17055619e-01f,
+1.95925891e-01f,+4.76770625e-02f,+1.44443721e-01f,-2.08595447e-04f,-1.87012777e-02f,
+2.41102241e-02f,+4.26565111e-02f,-3.34127471e-02f,+1.08887300e-01f,-2.06928134e-01f,
+2.54520386e-01f,-2.35044971e-01f,+2.61122823e-01f,+5.90940453e-02f,-1.54432982e-01f,
+2.53603220e-01f,+3.21398109e-01f,+3.32845598e-01f,+3.58143568e-01f,+5.12366556e-02f,
+2.80360114e-02f,+4.52412635e-01f,+7.47067705e-02f,+3.98210883e-01f,+1.59754381e-01f,
+2.66292602e-01f,+1.36722058e-01f,+1.57686904e-01f,-8.01294222e-02f,-5.86416684e-02f,
+2.10097253e-01f,+7.36923367e-02f,-1.11532025e-02f,-2.08143820e-03f,+4.21232544e-03f,
-9.97631103e-02f,-1.39424413e-01f,+4.78003658e-02f,+1.44064054e-01f,-3.71492356e-02f,
-1.64349765e-01f,-8.80817622e-02f,+1.73229814e-01f,+1.71110243e-01f,+1.65115103e-01f,
+1.05472632e-01f,+8.17644745e-02f,+2.58087456e-01f,-3.31356972e-01f,+1.46369740e-01f,
+8.54068547e-02f,+2.00629551e-02f,+1.05618931e-01f,+1.09838083e-01f,+1.88204631e-01f,
+2.62866318e-01f,-1.91170238e-02f,+3.21153730e-01f,-4.23101289e-03f,+5.11463396e-02f,
+2.15165630e-01f,+1.18425481e-01f,-1.06522992e-01f,+1.91221371e-01f,+1.87713042e-01f,
+9.17646009e-03f,+1.55725047e-01f,+2.91008353e-02f,-1.30290270e-01f,-1.23074062e-01f,
+5.07635772e-01f,+7.50342980e-02f,+1.10196725e-01f,+1.93066701e-01f,+4.18984920e-01f,
+5.33055440e-02f,+8.46195146e-02f,-7.21185058e-02f,-2.12820157e-01f,+2.18189403e-01f,
+5.06683625e-02f,-1.20201960e-01f,-9.20615438e-03f,+1.42977044e-01f,+1.02420496e-02f,
-3.24854441e-02f,+2.02712357e-01f,+8.43350887e-02f,+3.54880929e-01f,-4.98645939e-02f,
+7.81445503e-02f,-6.42584637e-02f,+4.58907902e-01f,+1.49991885e-01f,-2.39876658e-02f,
-1.10081546e-02f,+2.23735303e-01f,-6.38406798e-02f,-1.37800515e-01f,-3.02960351e-02f,
+4.23356265e-01f,+4.88671400e-02f,+6.01750426e-02f,+7.59769604e-02f,-7.71342963e-02f,
-7.86651578e-03f,+5.43009192e-02f,+9.61432308e-02f,+1.94266677e-01f,+2.10047916e-01f,
+8.18817616e-02f,-5.20608947e-03f,+9.75999162e-02f,+3.13173719e-02f,+5.75084798e-02f,
+1.20245308e-01f,+2.81111393e-02f,+5.29772714e-02f,+9.67377871e-02f,+2.08610192e-01f,
+9.39222798e-02f,+2.48213038e-01f,+1.88063398e-01f,+7.20349178e-02f,-1.09846540e-01f,
+2.13142373e-02f,-4.53644060e-02f,+2.57385373e-01f,+1.87985361e-01f,-1.19076073e-02f,
-6.15645535e-02f,+1.06780842e-01f,-3.43407579e-02f,+1.36002064e-01f,-7.17760697e-02f,
+1.18415460e-01f,+1.67431876e-01f,+8.22643414e-02f,+5.94499595e-02f,-6.31761700e-02f,
+1.13771975e-01f,+5.99151812e-02f,-1.89213604e-02f,-4.76924330e-02f,+1.25530371e-02f,
+3.59667577e-02f,-1.18589811e-01f,+7.38212839e-02f,-4.09728587e-02f,-1.01063162e-01f,
+3.24225694e-01f,+1.46400020e-01f,+2.71919101e-01f,+1.18306085e-01f,+1.28213629e-01f,
-7.58778527e-02f,+7.17848986e-02f,-5.72791658e-02f,+1.44348383e-01f,-1.02778740e-01f,
+7.77039304e-02f,+1.78440541e-01f,+3.86554524e-02f,+2.54360378e-01f,+6.26917556e-02f,
+4.52102870e-01f,+1.61842499e-02f,-6.41256049e-02f,+4.46704496e-03f,+1.73319206e-01f,
+1.91362187e-01f,+9.97919869e-03f,+3.08772296e-01f,-4.95060720e-03f,+1.30484670e-01f,
+2.43648961e-01f,+1.32285384e-03f,-8.68891478e-02f,-6.73903450e-02f,+1.03857857e-03f,
-9.46278777e-03f,-9.90869571e-03f,-1.37639046e-01f,+2.28604060e-02f,+2.81509161e-01f,
+1.37144461e-01f,+4.23608236e-02f,+7.45168403e-02f,+2.12278694e-01f,-5.82854217e-03f,
+1.72351718e-01f,-2.27190796e-02f,+1.35723874e-01f,+6.87579960e-02f,-7.76851848e-02f,
-2.07588244e-02f,+1.18045710e-01f,+8.50380063e-02f,+2.26753578e-02f,+8.69705528e-02f,
+8.31243619e-02f,+1.75738454e-01f,-6.29236475e-02f,-4.14486639e-02f,+5.60473911e-02f,
+1.06021389e-01f,+1.14610299e-01f,+1.23152591e-01f,+1.67251930e-01f,-2.52748132e-02f,
+1.31293550e-01f,+2.74344254e-02f,+5.68730086e-02f,+5.72307780e-02f,+1.28096402e-01f,
+1.91195920e-01f,+2.87773103e-01f,+1.37173161e-01f,+7.06139356e-02f,+1.39702484e-01f,
-5.41657209e-02f,+5.41760400e-02f,-3.09099644e-01f,+1.78395789e-02f,+1.49587011e-02f,
+8.32613334e-02f,+7.26453811e-02f,-1.55392542e-01f,+1.29324168e-01f,+9.77635682e-02f,
+5.02224639e-02f,-2.13568211e-01f,-1.70285746e-01f,-1.46110989e-02f,+3.03757548e-01f,
+1.55120730e-01f,+1.32939398e-01f,+1.33898810e-01f,-2.78197318e-01f,+2.35386118e-01f,
-8.64752289e-03f,+7.90571198e-02f,+1.55485049e-01f,+3.40288579e-01f,+1.62643328e-01f,
-4.41668592e-02f,-5.73858321e-02f,+4.96650040e-02f,+2.95525372e-01f,+1.72978684e-01f,
-1.66688263e-01f,+3.36977392e-01f,+1.53650353e-02f,+2.09783874e-02f,+1.51862472e-01f,
-1.20124541e-01f,+1.06126070e-01f,-2.13341769e-02f,+1.17734089e-01f,-7.53861442e-02f,
+8.49117488e-02f,-1.46267548e-01f,-3.40641707e-01f,+9.12598521e-02f,-2.38176156e-02f,
-8.21760818e-02f,+6.65396005e-02f,-2.11998731e-01f,+3.26604098e-02f,+2.80766785e-02f,
-1.43581063e-01f,-7.98337460e-02f,+4.69306350e-01f,-1.23661980e-01f,+7.02801943e-02f,
+3.09511274e-01f,+2.19498754e-01f,+8.53293315e-02f,-1.45424023e-01f,-3.79478604e-01f,
+5.96937388e-02f,+2.45941415e-01f,-9.69798192e-02f,-2.04179272e-01f,-9.25605595e-02f,
+1.16944619e-01f,+2.10543707e-01f,+1.80574358e-01f,+1.57968819e-01f,-6.41934797e-02f,
+7.61181414e-02f,+1.91398308e-01f,-2.44984007e-03f,-1.05387464e-01f,+1.58135131e-01f,
-1.78592131e-01f,+4.84164841e-02f,-1.20812505e-01f,+2.25873679e-01f,+1.13703817e-01f,
+2.18254956e-03f,+1.97359577e-01f,+3.41199599e-02f,-6.93828315e-02f,+1.49915412e-01f,
-2.21432909e-01f,+1.33932799e-01f,+2.66635746e-01f,+3.70927185e-01f,+5.71190774e-01f,
+1.03069574e-01f,+6.41934248e-03f,+2.84411937e-01f,-1.26224905e-01f,+2.52058446e-01f,
+2.08582759e-01f,-1.46499857e-01f,+7.77013153e-02f,-2.35086940e-02f,+6.81408644e-02f,
+3.93766863e-03f,-2.06139255e-02f,-7.76831508e-02f,-1.39137670e-01f,-1.90469474e-01f,
-5.11620492e-02f,+2.28143334e-01f,+1.55924305e-01f,-1.08778030e-01f,+1.07388601e-01f,
+1.51434079e-01f,+2.80426979e-01f,+8.63909796e-02f,-1.69919003e-02f,+2.07995787e-01f,
-6.49649790e-03f,+1.42016709e-01f,-2.08979044e-02f,-1.69952482e-01f,+8.92706141e-02f,
+2.72651821e-01f,+3.64956200e-01f,+1.64174139e-01f,-3.84556688e-02f,+3.81174646e-02f,
+2.94694919e-02f,+1.46413386e-01f,+2.26884216e-01f,+2.74120867e-01f,+5.12224846e-02f,
-1.01019375e-01f,+4.77513261e-02f,+5.59822433e-02f,-1.02566376e-01f,-1.27239097e-02f,
+9.66598094e-02f,+1.40646487e-01f,+1.66650236e-01f,+2.06533074e-01f,-8.36399943e-02f,
-1.21681485e-02f,+2.88827661e-02f,-5.97833693e-02f,+1.41393468e-01f,-6.73447363e-03f,
+8.00327398e-03f,+3.42328437e-02f,-5.77223822e-02f,+2.64535040e-01f,-2.72875242e-02f,
-9.60408896e-03f,+3.68539572e-01f,+3.30073945e-02f,+8.76385123e-02f,-9.85930711e-02f,
+1.44629642e-01f,+1.93892300e-01f,+8.30726251e-02f,-6.42194152e-02f,+1.29917070e-01f,
+1.03195339e-01f,-1.77337945e-01f,+2.81067248e-02f,+2.15602934e-01f,-1.87830597e-01f,
-9.75832995e-03f,-8.14403524e-04f,+2.18362495e-01f,+1.99156255e-01f,-1.33385509e-01f,
-1.30240485e-01f,-1.54047355e-01f,+2.36674860e-01f,+2.44099319e-01f,+1.05596572e-01f,
-1.07393928e-01f,-2.93905158e-02f,-3.09546310e-02f,+2.57586598e-01f,+3.63536961e-02f,
+9.91512164e-02f,-8.91931430e-02f,+7.56526887e-02f,+1.41838446e-01f,+1.40258387e-01f,
+4.64536659e-02f,+6.53870106e-02f,-1.96784258e-01f,+6.02119192e-02f,-3.43036503e-02f,
+3.76428962e-01f,+1.64502025e-01f,+1.54923156e-01f,+1.53497353e-01f,+1.22768186e-01f,
+4.19240482e-02f,+2.04790644e-02f,+2.43657865e-02f,-1.20270550e-01f,-6.75505921e-02f,
+1.97161928e-01f,-1.30720839e-01f,-4.49369736e-02f,-1.33501694e-01f,+2.44211964e-02f,
+1.11115560e-01f,+2.86265701e-01f,-6.52285367e-02f,-1.21798277e-01f,+8.99379700e-02f,
+1.00040130e-01f,+1.70638651e-01f,+2.55752474e-01f,+2.92466283e-01f,-9.34996679e-02f,
-9.17050708e-03f,+7.50276744e-02f,+3.73828150e-02f,+2.42936537e-01f,+1.70180559e-01f,
-9.94471982e-02f,+3.26908901e-02f,-2.41264552e-02f,+1.68976501e-01f,+1.99829683e-01f,
-3.51635879e-03f,-6.49903640e-02f,-1.20889425e-01f,+4.16650735e-02f,+2.86679953e-01f,
+6.34161159e-02f,+4.75486033e-02f,+1.40279651e-01f,-1.46670476e-01f,+4.15161885e-02f,
+6.13636617e-03f,+2.10162550e-02f,-5.16318493e-02f,-1.34435773e-01f,+1.66938245e-01f,
-2.18282267e-02f,+2.93441843e-02f,-1.58792697e-02f,-8.65150318e-02f,+1.62321940e-01f,
-1.43171683e-01f,-2.37269048e-02f,-3.06691043e-02f,+4.17120792e-02f,+5.70152886e-03f,
-1.08666711e-01f,+1.07146874e-01f,+5.60152046e-02f,-9.42324176e-02f,+8.20594504e-02f,
-1.63081530e-02f,+1.11984342e-01f,-1.48361981e-01f,-8.80301148e-02f,-5.70965484e-02f,
+1.96280703e-01f,-1.49598166e-01f,+2.84248829e-01f,+3.80386934e-02f,+2.61216283e-01f,
-2.20432326e-01f,+8.09855759e-02f,+2.20573079e-02f,-8.61354619e-02f,+1.07078720e-03f,
-6.24878481e-02f,-1.00941509e-01f,+4.04482335e-01f,-5.13959117e-02f,+1.29604250e-01f,
-4.28807549e-02f,+5.86175546e-02f,+2.43961096e-01f,+1.75990760e-01f,+3.04383427e-01f,
+5.17379493e-02f,-1.13083020e-01f,+1.33230790e-01f,-4.45603617e-02f,-3.01627100e-01f,
-3.65191773e-02f,+4.48722541e-02f,-1.75447598e-01f,-2.46732887e-02f,+1.43922836e-01f,
+1.23289779e-01f,+1.11392394e-01f,-5.70808351e-02f,+1.19065203e-01f,+7.54959583e-02f,
+1.74269691e-01f,+1.36836484e-01f,+6.80334270e-02f,-7.57051110e-02f,+1.83113903e-01f,
+1.58320025e-01f,+4.52650674e-02f,+1.90890208e-01f,-3.74246500e-02f,-8.37285817e-03f,
+2.87803888e-01f,+2.83570111e-01f,+6.51204139e-02f,+7.51644298e-02f,-9.13443118e-02f,
+2.60206401e-01f,-9.36183780e-02f,-1.68319151e-01f,+2.11366028e-01f,+2.54994452e-01f,
+1.58457592e-01f,+1.43980412e-02f,-8.18656236e-02f,-2.23319065e-02f,+1.47200152e-01f,
-5.77287115e-02f,+1.24777451e-01f,+5.04044220e-02f,+8.24825466e-02f,+2.52701342e-01f,
+3.08767319e-01f,+6.64419159e-02f,-1.59456823e-02f,-1.55960128e-01f,+7.95967504e-02f,
+1.13393776e-01f,+1.10203676e-01f,-1.86806042e-02f,+1.63925439e-01f,+1.00686051e-01f,
+4.27522212e-02f,+1.46519393e-02f,-4.65358347e-02f,+2.46269494e-01f,+5.04665971e-02f,
+2.41858288e-04f,+6.95685074e-02f,+2.69620474e-02f,+2.22232655e-01f,+1.07482970e-02f,
+5.97712509e-02f,+1.30303755e-01f,+1.67718768e-01f,+1.16173953e-01f,+6.42697886e-02f,
+1.27412483e-01f,+2.01646239e-01f,+1.07845142e-01f,-9.31926891e-02f,+9.23690200e-03f,
+4.37700301e-02f,+3.42402258e-03f,+1.14916012e-01f,-1.49393201e-01f,-4.88674827e-02f,
-8.66712187e-04f,+3.54090817e-02f,-6.94572628e-02f,-1.33290634e-01f,+6.20762520e-02f,
+1.97779328e-01f,+4.08505127e-02f,+4.12657149e-02f,+1.88527867e-01f,+2.10021287e-01f,
+4.34793346e-02f,-1.57490391e-02f,-1.60278212e-02f,+1.69867888e-01f,+1.50843114e-01f,
-2.76518036e-02f,+2.33084802e-02f,+1.44744366e-01f,+4.77198325e-02f,+1.09046800e-02f,
+1.06496707e-01f,+1.17398381e-01f,+8.85561705e-02f,+1.75599247e-01f,+2.51355350e-01f,
+2.67756253e-01f,+1.02686800e-01f,+6.65592030e-02f,+7.68014938e-02f,-9.67250839e-02f,
+1.08522251e-01f,-5.52457646e-02f,-3.36439088e-02f,+1.60354804e-02f,-2.55060732e-01f,
+1.25509903e-01f,+2.77748555e-02f,+1.20202422e-01f,+8.66479427e-02f,+1.38886012e-02f,
+1.18937254e-01f,+9.92340595e-03f,-1.23134889e-01f,-1.45760566e-01f,+3.14366519e-02f,
+1.84737802e-01f,-6.17487654e-02f,+2.98348039e-01f,-1.35623366e-01f,-5.76289482e-02f,
+1.12404898e-01f,+8.75051469e-02f,+1.46411002e-01f,+1.24299712e-02f,-3.37962434e-02f,
-8.85224342e-03f,+1.47371411e-01f,-7.15899989e-02f,-3.71756703e-02f,+7.80927017e-02f,
+1.62371308e-01f,-2.02858195e-01f,-8.15397650e-02f,+2.20813692e-01f,+2.89409589e-02f,
-4.64856960e-02f,-1.42991155e-01f,-2.04668120e-02f,-8.30770656e-02f,+1.41485885e-01f,
+8.80296454e-02f,-8.46535712e-02f,+5.62045388e-02f,-7.57143600e-03f,+7.99113438e-02f,
+7.40215629e-02f,+2.59886775e-02f,-1.61810055e-01f,+2.10176468e-01f,+6.25739694e-02f,
+1.37982562e-01f,-4.04744670e-02f,-6.25753626e-02f,+6.43269718e-02f,-5.18832030e-03f,
+3.13186735e-01f,-2.06167787e-01f,-1.41640112e-01f,-1.39499485e-01f,+2.18218416e-01f,
-7.42544904e-02f,+2.35070214e-01f,+1.28111109e-01f,-2.70141792e-02f,+8.95682275e-02f,
-8.50615725e-02f,-1.34068683e-01f,-3.19180563e-02f,+7.67766237e-02f,-1.12015866e-01f,
+1.07861266e-01f,+3.90311033e-02f,-4.57313238e-03f,+1.69291973e-01f,-7.64431581e-02f,
+7.97330365e-02f,+1.11251548e-01f,+9.42524150e-02f,-4.61839922e-02f,-6.20012097e-02f,
+1.30243286e-01f,-6.75079301e-02f,-1.83313359e-02f,+1.91183567e-01f,-1.66814789e-01f,
+1.43548444e-01f,+2.02504434e-02f,+1.14218429e-01f,-3.07978094e-02f,+3.90903093e-02f,
-7.36975074e-02f,+1.01340853e-01f,+1.76025450e-01f,+2.71990925e-01f,+4.94795963e-02f,
+3.14955115e-01f,+2.15181693e-01f,-1.22680254e-01f,+4.99766245e-02f,+4.76242155e-02f,
+1.15096658e-01f,+8.29687119e-02f,-9.23505202e-02f,+6.75722212e-02f,-9.92144868e-02f,
+3.00734073e-01f,-5.97693250e-02f,+1.02573648e-01f,-1.47601194e-03f,-1.34220511e-01f,
-6.82493811e-03f,-2.76094247e-02f,+3.88221815e-02f,-7.82281384e-02f,-9.56165940e-02f,
-6.94365576e-02f,+2.90531576e-01f,+1.60345733e-01f,+3.92091237e-02f,-3.44507068e-01f,
+4.64101695e-02f,+1.25534713e-01f,+4.76544127e-02f,+4.45859618e-02f,+2.71741934e-02f,
-6.11326247e-02f,-1.48181662e-01f,+3.41137409e-01f,-8.83324221e-02f,+1.48168858e-02f,
+3.97874564e-01f,+6.79980293e-02f,+1.72299713e-01f,+4.63445224e-02f,+1.68599546e-01f,
+4.77154814e-02f,+5.40219136e-02f,-5.35985045e-02f,+1.32326096e-01f,+2.10070680e-03f,
-6.50544688e-02f,-4.41537723e-02f,-2.95463856e-02f,+5.97883016e-02f,-2.48639416e-02f,
+2.71431774e-01f,-3.78712527e-02f,+1.20891385e-01f,-2.86168996e-02f,+1.01755969e-01f,
+6.69620484e-02f,+8.82249698e-02f,+1.03692813e-02f,-9.28165987e-02f,+1.08944178e-01f,
+5.54874316e-02f,-1.89944264e-02f,-8.82505029e-02f,-1.06104314e-01f,+3.88702974e-02f,
+1.21979825e-01f,+1.97066009e-01f,+1.67232975e-01f,+6.29250109e-02f,-3.28708328e-02f,
+3.16639617e-02f,+2.88294196e-01f,+1.61593929e-01f,+2.39068270e-02f,-6.13218471e-02f,
-2.33554989e-01f,-3.20803523e-01f,+1.27826873e-02f,+4.14737433e-01f,+1.98449910e-01f,
+1.95437387e-01f,+9.69620198e-02f,+7.49266893e-02f,+2.02571794e-01f,-4.51438911e-02f,
+2.19589993e-01f,+8.21602419e-02f,-4.90235053e-02f,+1.08753741e-01f,-1.16336301e-01f,
+1.72471832e-02f,+2.38407880e-01f,+9.10143256e-02f,-1.97344452e-01f,+1.34894595e-01f,
+6.96524978e-02f,-1.28945217e-01f,+4.42455560e-01f,-4.41505462e-02f,-1.29571810e-01f,
+5.80356456e-02f,-1.17374189e-01f,+7.19067007e-02f,-2.01526672e-01f,+1.88684031e-01f,
+5.04236259e-02f,+1.17759593e-02f,+1.63295016e-01f,+2.86458671e-01f,+1.04062352e-02f,
+1.42950118e-01f,-2.22725108e-01f,+2.06384748e-01f,+1.91856131e-01f,+2.03781530e-01f,
-2.57764868e-02f,+2.08033457e-01f,+1.74141303e-02f,+2.30026901e-01f,-3.63157019e-02f,
-4.76034507e-02f,-1.69909671e-02f,+2.45516989e-02f,+2.18479969e-02f,+8.56874660e-02f,
+2.25519434e-01f,-2.98229903e-01f,-1.01723790e-01f,+7.96227250e-03f,+1.47593692e-01f,
-8.40405654e-03f,+2.78470755e-01f,+1.77984029e-01f,+7.63384402e-02f,+1.53576374e-01f,
+8.93329009e-02f,-1.46831751e-01f,+4.33401987e-02f,+1.02566950e-01f,+2.62624800e-01f,
+9.73138884e-02f,+1.57206878e-01f,-1.00014098e-01f,+2.91411102e-01f,+1.37770817e-01f,
-6.50611520e-02f,-2.34240815e-01f,-9.92775112e-02f,+1.08024903e-01f,+2.08510552e-02f,
-1.08058386e-01f,+6.88263401e-02f,+5.28699383e-02f,+2.09431261e-01f,-1.12902470e-01f,
+8.99382830e-02f,+1.41123414e-01f,+1.04079634e-01f,+8.17794260e-03f,+1.41116247e-01f,
+6.59259036e-02f,+4.31643538e-02f,+1.28563657e-01f,+1.99878275e-01f,+2.24885773e-02f,
-1.71945933e-02f,+2.50662684e-01f,+3.59546803e-02f,+1.37935719e-02f,-5.13501167e-02f,
+1.75315496e-02f,-1.82256520e-01f,+1.79859120e-02f,-4.45158854e-02f,-4.82379124e-02f,
-2.93294024e-02f,+2.27409989e-01f,+2.15645298e-01f,+1.26416966e-01f,-1.42770216e-01f,
+1.10806964e-01f,+5.85384816e-02f,+1.37144938e-01f,+3.31512420e-03f,+2.43616059e-01f,
+1.12070059e-02f,-2.04701815e-03f,-3.24446708e-02f,-3.21397185e-02f,-2.78897658e-02f,
-5.28838523e-02f,+8.32821205e-02f,+2.45702658e-02f,+1.13609344e-01f,+3.51886861e-02f,
-1.17605953e-02f,+1.43476173e-01f,+2.16895044e-02f,+1.79336518e-01f,+1.23707473e-01f,
+6.53494522e-02f,+8.21666867e-02f,-4.77764942e-02f,+2.55493462e-01f,-9.58639830e-02f,
+2.96824485e-01f,+1.48296073e-01f,+3.38979922e-02f,+2.64248401e-01f,+1.35852695e-01f,
+6.80635571e-02f,+1.66838169e-01f,+1.66837424e-01f,+1.96543559e-01f,+1.63864484e-03f,
+3.45847458e-02f,-1.93003863e-02f,+3.33690286e-01f,-4.93915528e-02f,+1.28112286e-01f,
-1.33967446e-02f,-1.12844794e-03f,-3.24215516e-02f,+1.45294154e-02f,+1.01363352e-02f,
+2.09289361e-02f,-7.92901143e-02f,+1.68471113e-01f,-1.58470795e-02f,-8.90415311e-02f,
-1.34569481e-01f,+3.99196260e-02f,+1.61514491e-01f,+9.06556472e-02f,+4.28543277e-02f,
+1.11031480e-01f,+2.92384662e-02f,-7.28649423e-02f,+4.57008416e-03f,-1.37766480e-01f,
+9.89287272e-02f,+1.26847932e-02f,+3.38597260e-02f,+5.48769496e-02f,+3.83181274e-01f,
+9.07038525e-02f,-2.02722177e-01f,-1.23822759e-03f,+1.39358953e-01f,+1.15884945e-01f,
+6.48415461e-02f,+3.80515098e-03f,+3.07809487e-02f,+3.15747410e-02f,+1.61657343e-04f,
+2.07851245e-03f,+7.18765631e-02f,+1.24842152e-01f,+2.36581534e-01f,+9.66464803e-02f,
-3.56071480e-02f,+1.74535677e-01f,-2.26599257e-02f,-6.19833451e-03f,-1.03652030e-01f,
-2.44451374e-01f,+1.12683892e-01f,+1.22310065e-01f,-1.90564489e-03f,-8.50787908e-02f,
+3.36381095e-03f,+4.13907059e-02f,+1.87626123e-01f,+1.41629323e-01f,-9.81006920e-02f,
+3.62834940e-03f,+3.84435281e-02f,+1.16248183e-01f,+1.58983663e-01f,+1.43860132e-01f,
-3.02880593e-02f,+1.56236723e-01f,+1.80031300e-01f,-1.60415992e-02f,-1.16706148e-01f,
-1.77316219e-02f,+9.32020694e-02f,+1.97904184e-01f,+2.70319581e-01f,-3.31687555e-02f,
+1.20308429e-01f,+1.00445300e-01f,-1.61197353e-02f,+1.72969893e-01f,+2.17370242e-01f,
+2.67969549e-01f,-8.05820227e-02f,-1.40692845e-01f,+9.30325389e-02f,+1.01423204e-01f,
-1.20322881e-02f,+1.62750214e-01f,+1.97622880e-01f,-1.55364191e-02f,-8.39653015e-02f,
-2.32320249e-01f,+1.91355467e-01f,-2.36199424e-01f,+1.95056438e-01f,-2.78467014e-02f,
+1.40277550e-01f,+1.03051022e-01f,+1.32250473e-01f,+9.74534228e-02f,-2.71864869e-02f,
-5.56972474e-02f,-1.05620645e-01f,+1.32574037e-01f,+5.04439836e-03f,+1.71441332e-01f,
+2.96968609e-01f,+4.68473881e-02f,+6.46054074e-02f,+1.12457380e-01f,+1.22612625e-01f,
+3.41831505e-01f,-3.17019895e-02f,+2.25234509e-01f,+9.12353098e-02f,+6.90781027e-02f,
-1.41317815e-01f,+1.94199592e-01f,-7.92534649e-02f,-5.46210222e-02f,-6.54765517e-02f,
+1.61954328e-01f,+1.30704597e-01f,-7.12815300e-03f,+1.17088065e-01f,+6.74823746e-02f,
-9.76011390e-04f,+2.51034256e-02f,+4.74559478e-02f,+5.44964969e-02f,+1.62474215e-01f,
-1.61112964e-01f,-2.02537164e-01f,+6.90804124e-02f,+8.76018852e-02f,+1.31751403e-01f,
-1.82052180e-02f,+1.41701713e-01f,+1.66956976e-01f,-6.64734021e-02f,+2.46980175e-01f,
-4.37170416e-02f,-5.18014356e-02f,+3.20892520e-02f,+1.55846298e-01f,-9.11864713e-02f,
+1.73485681e-01f,+1.89571559e-01f,+3.82173322e-02f,+4.78478484e-02f,-2.01102257e-01f,
-1.55295189e-02f,+7.38399923e-02f,+2.71761030e-01f,-2.15065833e-02f,+2.84446939e-03f,
-1.61882550e-01f,+6.27130046e-02f,+7.35164136e-02f,-1.00726448e-02f,+9.04220641e-02f,
-1.24840878e-01f,+1.02263875e-01f,+1.73089996e-01f,+2.39345968e-01f,-1.74993780e-02f,
+1.15242014e-02f,-7.28921369e-02f,-1.02677066e-02f,+8.09205547e-02f,+2.18304113e-01f,
+2.04723567e-01f,+2.59368084e-02f,+4.94220778e-02f,-5.60563616e-02f,-6.36617988e-02f,
+9.62387770e-02f,+1.66161638e-02f,+9.26771387e-03f,+6.29579350e-02f,+1.20915666e-01f,
+1.21067554e-01f,-1.12956651e-01f,+4.02844287e-02f,+1.81409955e-01f,+7.45051056e-02f,
+2.10043862e-01f,+1.43647119e-01f,-8.87209848e-02f,-4.53890413e-02f,+2.58720458e-01f,
+2.36024842e-01f,+7.80883655e-02f,+5.17471768e-02f,+3.10684681e-01f,-1.80830397e-02f,
-5.11785187e-02f,-1.17109239e-03f,+1.24045990e-01f,-1.25411838e-01f,+6.81337491e-02f,
+8.61187726e-02f,+3.96163277e-02f,+4.54983748e-02f,+1.05562143e-01f,-1.28222197e-01f,
+1.38888314e-01f,+8.98658335e-02f,+1.50369674e-01f,+1.88584954e-01f,+7.50918835e-02f,
-7.39454776e-02f,+2.38130558e-02f,+4.69255336e-02f,-1.56869709e-01f,-1.11746714e-01f,
+3.24977845e-01f,+5.45237437e-02f,-1.75599083e-02f,+3.23667340e-02f,+5.35772294e-02f,
+3.15829456e-01f,+6.21392718e-03f,+3.05616185e-02f,+1.42899286e-02f,+7.34825432e-02f,
+2.76599377e-01f,+1.58325866e-01f,+8.87801051e-02f,-2.06193663e-02f,-6.98384345e-02f,
+2.53832638e-01f,-1.14065230e-01f,-2.05214024e-02f,+1.46330401e-01f,+3.41300964e-02f,
+1.07403517e-01f,+6.73100948e-02f,+1.26510635e-01f,+7.06154406e-02f,-4.68293652e-02f,
+1.75328419e-01f,+1.12429596e-01f,+2.14564592e-01f,+1.90021262e-01f,+2.25189745e-01f,
-1.05280103e-02f,+5.47760027e-03f,-1.37926251e-01f,-1.76655143e-01f,+4.33659218e-02f,
-6.40588626e-02f,+1.55972198e-01f,+1.42815799e-01f,+3.88545468e-02f,-3.91662605e-02f,
+2.05125492e-02f,+8.89239609e-02f,+5.07407114e-02f,+2.14093477e-01f,-8.68691131e-02f,
+2.57472634e-01f,+4.09352690e-01f,+1.14063011e-03f,+6.18434586e-02f,+3.65999974e-02f,
+1.28537426e-02f,+1.19116776e-01f,+2.36437544e-01f,+1.45947799e-01f,+9.82929990e-02f,
+1.05088852e-01f,+9.83482748e-02f,-1.01545841e-01f,+3.48668635e-01f,-7.27789253e-02f,
+1.45249039e-01f,+2.30288431e-01f,-3.63639519e-02f,+3.22749883e-01f,+2.11377695e-01f,
+1.36667505e-01f,+1.04362696e-01f,-1.39501005e-01f,+2.22440977e-02f,+2.51309812e-01f,
+1.32549837e-01f,+8.53873193e-02f,+1.66409701e-01f,+1.85489967e-01f,+2.51069497e-02f,
-6.98129982e-02f,+4.84420806e-02f,+3.77022475e-02f,+4.59439754e-02f,+2.25784816e-02f,
-3.24279457e-01f,+3.86082120e-02f,+2.79920310e-01f,+6.67383820e-02f,+3.10999304e-01f,
+5.08149415e-02f,+9.96124148e-02f,+3.10954601e-01f,+7.79353231e-02f,+9.59767215e-03f,
-8.65478441e-03f,+1.11489251e-01f,+1.66968796e-02f,+1.46504819e-01f,+1.73129439e-01f,
+2.11151272e-01f,+1.38077691e-01f,+7.22777545e-02f,-1.08132241e-02f,-9.17548910e-02f,
+1.48547217e-01f,+7.84144402e-02f,+2.84134299e-02f,+1.76895589e-01f,+1.81402430e-01f,
+6.19630069e-02f,+2.84289420e-02f,-1.55614451e-01f,+1.13970503e-01f,+1.27236262e-01f,
+1.17840558e-01f,+8.57682526e-02f,+9.57939923e-02f,+3.36326957e-02f,+5.22029884e-02f,
+6.88491538e-02f,+3.11801940e-01f,-2.03309190e-02f,-2.43752426e-03f,-5.32279760e-02f,
+4.98333946e-02f,-3.34203355e-02f,+7.48233944e-02f,-1.09985307e-01f,+5.22639640e-02f,
+2.54845828e-01f,+1.58384129e-01f,+1.26155410e-02f,+1.50797158e-01f,+6.12207055e-02f,
+2.42001414e-01f,+2.13597730e-01f,-5.14049679e-02f,+2.76235002e-03f,-2.58866660e-02f,
+2.17308536e-01f,-5.26562333e-02f,+1.39159337e-01f,+1.03013450e-02f,-2.66351700e-01f,
-2.41173655e-02f,-1.48381606e-01f,-3.01805642e-02f,+1.33915380e-01f,+2.60903060e-01f,
+5.58337159e-02f,+2.06537858e-01f,-1.43261848e-03f,-1.16394304e-01f,+1.17296368e-01f,
+1.34024501e-01f,-1.22710563e-01f,+6.86611831e-02f,+3.29756620e-03f,-2.90175360e-02f,
-4.25761826e-02f,+7.73000941e-02f,+3.49760950e-01f,+9.31828916e-02f,+3.24311033e-02f,
+6.74433038e-02f,-7.22880661e-02f,+1.10998221e-01f,-6.62141154e-03f,+4.50500011e-01f,
+7.96101540e-02f,+2.92376671e-02f,-7.15360716e-02f,+2.56182253e-02f,+1.29619360e-01f,
-8.47140849e-02f,+1.01295225e-01f,+1.77051902e-01f,+1.31127670e-01f,+1.75772309e-01f,
-5.59567846e-02f,-1.52029693e-01f,+7.81428590e-02f,+1.57464743e-01f,+1.59777522e-01f,
+4.70047863e-03f,+1.69862226e-01f,+1.08485222e-02f,+2.66066015e-01f,-2.50884801e-01f,
+3.09388041e-02f,+1.89271614e-01f,+1.48330986e-01f,+1.47299409e-01f,-1.07109852e-01f,
+1.83777496e-01f,+2.88515031e-01f,-1.65742747e-02f,+2.38314226e-01f,+9.33280364e-02f,
+3.17917280e-02f,+7.39507601e-02f,+1.10320322e-01f,+1.29465640e-01f,+1.52767047e-01f,
-5.57472222e-02f,+1.79421112e-01f,+3.26068550e-01f,+2.61162311e-01f,-1.29703702e-02f,
+9.97234955e-02f,-4.86378819e-02f,-9.40279588e-02f,-1.10900905e-02f,+1.17037281e-01f,
-1.30771548e-02f,-1.04660377e-01f,+1.04281455e-01f,+1.20211318e-01f,+1.78433303e-02f,
+4.93726917e-02f,+2.89779097e-01f,+5.53057902e-02f,+1.40735433e-01f,-2.03553379e-01f,
+8.43203068e-02f,+1.79255441e-01f,+1.13643348e-01f,+4.18104082e-01f,+6.04493096e-02f,
-2.05271468e-02f,+1.63561851e-01f,+3.12560260e-01f,-1.53573239e-02f,-1.06139950e-01f,
+1.77120969e-01f,-2.42265701e-01f,+1.37554437e-01f,-2.28216797e-02f,+1.37930304e-01f,
+1.77152008e-01f,-1.30484477e-01f,-6.19917400e-02f,+1.80149764e-01f,-6.58994243e-02f,
+9.48509492e-04f,+9.42106694e-02f,+5.45287915e-02f,+1.45406261e-01f,+2.91463822e-01f,
+5.26444800e-02f,-1.38925433e-01f,+6.03100285e-02f,+9.22832265e-03f,-1.23936452e-01f,
-5.89346252e-02f,+1.19975127e-01f,-5.76568991e-02f,+2.19955221e-01f,+1.41440615e-01f,
+2.51747876e-01f,+9.62288156e-02f,+3.00495923e-01f,-2.22001784e-02f,+1.57545179e-01f,
+1.80562302e-01f,+9.92813483e-02f,-2.50869058e-02f,+1.38529554e-01f,+1.49696216e-01f,
+2.77269036e-02f,-1.23979030e-02f,+9.47096720e-02f,+1.23866880e-02f,+1.93460975e-02f,
+7.11699799e-02f,+2.34498587e-02f,-1.09104134e-01f,+1.38105318e-01f,-6.30605640e-03f,
-2.50398926e-02f,+8.62038806e-02f,-1.44374877e-01f,+5.16476035e-02f,+1.79888755e-02f,
-5.33570983e-02f,-2.71667652e-02f,+6.42555356e-02f,-4.33937460e-02f,+3.63076553e-02f,
-7.20555559e-02f,+2.43143849e-02f,+3.18331867e-02f,+1.57467261e-01f,+1.74140424e-01f,
-4.61179391e-02f,+1.56472445e-01f,-7.66717363e-03f,+1.85728632e-02f,+4.07425053e-02f,
-1.95598364e-01f,+1.54615298e-01f,-3.74306110e-03f,+1.48428440e-01f,+4.61036451e-02f,
-6.41412735e-02f,+1.44362682e-02f,-6.54001608e-02f,+7.22171441e-02f,-1.20907128e-01f,
+8.66658520e-03f,+2.95944344e-02f,-4.85878326e-02f,-2.19742700e-01f,+2.45784506e-01f,
-1.49873182e-01f,-1.14259355e-01f,+7.96864033e-02f,+8.81637037e-02f,-3.71513329e-02f,
-5.90612367e-02f,+1.84631478e-02f,+9.61100385e-02f,+3.14707831e-02f,+2.76275396e-01f,
+1.03194267e-01f,+9.35796276e-02f,-1.25024438e-01f,+1.87311828e-01f,-9.50669125e-02f,
+1.44126385e-01f,-6.67378530e-02f,+5.90054393e-02f,-5.77385761e-02f,+3.02698612e-01f,
+2.16706336e-01f,-3.44978720e-02f,+1.95136163e-02f,+1.24290273e-01f,+2.34492809e-01f,
+8.29038173e-02f,-2.52738744e-02f,-2.12778989e-02f,+1.60500124e-01f,+1.47948563e-01f,
-1.89905241e-02f,-1.56489640e-01f,+1.25817999e-01f,+1.48228735e-01f,-5.73587827e-02f,
-4.01855037e-02f,+1.29927665e-01f,+6.50979504e-02f,+1.06404833e-01f,-8.22788924e-02f,
+1.14487059e-01f,+2.34604720e-02f,-1.83553379e-02f,+4.84462306e-02f,-7.18510598e-02f,
-4.45091613e-02f,+2.16299817e-02f,+8.47927555e-02f,+5.80626838e-02f,+2.31615901e-01f,
+1.40372038e-01f,+1.49432972e-01f,+1.26353623e-02f,+1.16737522e-01f,-8.98568258e-02f,
+1.12591572e-01f,+4.25212532e-02f,+4.67332453e-02f,-1.76475104e-02f,-2.80889601e-01f,
-1.02538407e-01f,+6.82775164e-03f,+4.97068278e-02f,+7.35671222e-02f,+1.18951000e-01f,
+1.12148337e-01f,+1.07799381e-01f,-1.33750364e-01f,+3.03072222e-02f,-6.86982423e-02f,
+1.15280516e-01f,+1.62100211e-01f,+1.40395928e-02f,+1.28342032e-01f,-3.84222418e-02f,
-2.30953023e-01f,-8.88087004e-02f,-3.93346697e-02f,+5.96315004e-02f,-3.29615176e-02f,
+1.23232611e-01f,+2.66894519e-01f,-1.82156339e-01f,-2.22519979e-01f,+2.20158454e-02f,
+2.61676669e-01f,+1.76334269e-02f,-2.94514466e-02f,+9.49987471e-02f,+7.76087046e-02f,
+1.97279230e-01f,-7.88952783e-02f,+9.92045924e-02f,+1.02461956e-01f,+5.43892533e-02f,
+1.18288681e-01f,+8.15216750e-02f,+4.20674421e-02f,+1.73011079e-01f,+1.37183264e-01f,
-1.48353577e-01f,+1.44207761e-01f,+1.56106606e-01f,+1.32273585e-01f,-9.65964645e-02f,
+1.54488683e-01f,-1.83791026e-01f,+9.47102457e-02f,-6.27569035e-02f,+6.09353185e-02f,
-7.44364113e-02f,+1.63832664e-01f,+2.00459778e-01f,+3.15147638e-02f,-1.68703392e-03f,
+5.17535880e-02f,+1.61952987e-01f,-5.59800901e-02f,-2.09548920e-02f,+7.42313564e-02f,
+1.64519213e-02f,+4.33650911e-02f,+1.28674796e-02f,+1.92098077e-02f,+1.45301747e-03f,
+3.00094616e-02f,+1.59229115e-01f,-1.09024383e-02f,+7.63213113e-02f,+3.82522047e-02f,
+4.05313559e-02f,+3.81450325e-01f,+1.14635438e-01f,-5.28678186e-02f,-3.79908457e-02f,
-1.65614471e-01f,-5.31776622e-02f,+9.60985422e-02f,+6.79395348e-02f,+2.60674767e-02f,
+4.69795167e-02f,+4.14542444e-02f,+7.36162439e-02f,+5.58715761e-02f,+2.47370794e-01f,
+2.64259540e-02f,+1.98545963e-01f,+1.65415317e-01f,-6.32089898e-02f,+1.37094706e-01f,
+1.67111471e-01f,+1.14808224e-01f,+1.82761624e-01f,+1.33384556e-01f,+1.01685978e-01f,
+1.41205862e-01f,+9.20235813e-02f,+9.23261195e-02f,-2.45462488e-02f,-1.00276917e-02f,
-7.83651695e-02f,+1.08077869e-01f,+1.15301870e-01f,+1.46499574e-01f,+2.23887265e-02f,
+2.11836487e-01f,+1.36826098e-01f,+9.28478688e-02f,+2.38865614e-01f,+1.30205721e-01f,
+4.92047109e-02f,-2.03030650e-02f,+1.22648589e-01f,+3.45027703e-03f,+2.93447543e-02f,
-1.18608102e-01f,-1.09293222e-01f,+5.12666069e-02f,-6.71090856e-02f,+9.59163308e-02f,
+1.07741527e-01f,+6.07905909e-02f,+2.49871872e-02f,+8.87557939e-02f,-3.59290093e-02f,
-1.48644103e-02f,+8.61354396e-02f,+1.27031863e-01f,-5.38416356e-02f,-1.75605062e-02f,
+2.47845173e-01f,-7.01355487e-02f,+6.99067116e-02f,+9.33681130e-02f,+7.90800080e-02f,
-2.21502900e-01f,+4.98889200e-02f,+1.68364733e-01f,+2.36121371e-01f,+1.32529661e-02f,
+6.15657941e-02f,+2.81370375e-02f,+6.13150038e-02f,+1.73447862e-01f,+1.03846723e-02f,
+1.46757752e-01f,+6.41634911e-02f,-4.65707295e-02f,+1.29326284e-01f,+1.92341879e-01f,
+2.99515016e-02f,-1.29736289e-01f,+1.17411487e-01f,+2.44797822e-02f,+2.18017071e-01f,
-8.75541493e-02f,-1.58972979e-01f,-8.27855542e-02f,+4.72794659e-02f,+1.69550508e-01f,
+1.48358345e-01f,+1.87986717e-01f,+1.66889414e-01f,-6.10345341e-02f,+2.43705530e-02f,
-1.88632607e-02f,-1.15859650e-01f,+1.97852962e-02f,+5.68554476e-02f,+7.14461207e-02f,
+1.28607571e-01f,+6.35657534e-02f,+1.79651439e-01f,+9.84884053e-02f,-1.05203673e-01f,
+2.01662853e-01f,-5.11320820e-03f,-5.43957390e-02f,+7.67812207e-02f,+5.93424588e-02f,
+2.70513967e-02f,-2.28703991e-01f,+2.93809861e-01f,+1.11090615e-01f,-6.63916469e-02f,
+6.10424466e-02f,+1.67799696e-01f,+1.74086481e-01f,-4.10260148e-02f,-1.14099391e-01f,
+4.38340046e-02f,-5.10732941e-02f,+8.42442177e-03f,+1.75048411e-01f,-9.17764287e-03f,
-9.03482884e-02f,-6.56910241e-02f,+2.77821749e-01f,-9.49181322e-06f,-6.29884601e-02f,
-6.98779970e-02f,-8.91346410e-02f,+1.32237449e-01f,+2.76156247e-01f,+6.71834350e-02f,
+2.36367062e-02f,+5.87591641e-02f,+2.39565328e-01f,+3.35510708e-02f,-8.97953063e-02f,
+1.38191590e-02f,+5.52329160e-02f,+1.57043189e-02f,+1.13328092e-01f,+2.13992655e-01f,
+3.09119318e-02f,+1.24614397e-02f,-1.55993372e-01f,+9.77396742e-02f,-2.13946179e-02f,
+3.09557598e-02f,-1.79075494e-01f,+1.22478306e-01f,+1.68608189e-01f,-1.02061465e-01f,
-1.05754785e-01f,+7.89633766e-02f,+1.05881780e-01f,+2.00778425e-01f,+5.15825599e-02f,
+1.59527764e-01f,+2.56725132e-01f,-5.86691238e-02f,+1.92348704e-01f,-4.96429279e-02f,
+1.99206486e-01f,-9.09308046e-02f,+2.97291717e-03f,+3.72516625e-02f,+2.36444503e-01f,
+8.99896696e-02f,+8.40189308e-02f,+2.28694547e-02f,+5.61064668e-02f,+7.37597719e-02f,
+2.19721764e-01f,-1.43032551e-01f,+1.60249893e-03f,+4.59234305e-02f,+3.82899977e-02f,
-2.33327299e-02f,+1.45423949e-01f,+2.53605336e-01f,+2.00202838e-01f,-1.09168209e-01f,
-2.18558237e-02f,+1.55094430e-01f,+1.30368337e-01f,+1.46171078e-01f,+2.23720185e-02f,
-9.07570347e-02f,+4.36059833e-02f,+1.16296306e-01f,+2.76919097e-01f,+8.89641196e-02f,
-1.78054646e-01f,-1.22145444e-01f,-5.15290052e-02f,+7.62336254e-02f,+1.44578457e-01f,
+3.24213207e-02f,-1.01657532e-01f,+1.48102656e-01f,+1.34256959e-01f,+2.81473994e-01f,
+4.62177470e-02f,-8.50887820e-02f,+2.23175451e-01f,+6.43001636e-03f,+1.65599361e-01f,
-1.06546804e-01f,+1.69489205e-01f,+1.49305582e-01f,+9.32831839e-02f,+1.61734909e-01f,
+9.74236652e-02f,+1.25058994e-01f,+1.13467224e-01f,+2.19357446e-01f,+1.69335186e-01f,
-1.76194295e-01f,+4.56642419e-01f,+2.15247995e-03f,+3.14734966e-01f,+7.98961148e-02f,
+9.08029601e-02f,+2.92203296e-02f,+1.85689554e-02f,+1.31247103e-01f,-1.91137820e-01f,
+3.44264269e-01f,-6.17723279e-02f,+1.84970438e-01f,-2.05223653e-02f,+1.12070508e-01f,
+4.56275381e-02f,+1.12689734e-01f,+7.69896656e-02f,-2.36972541e-01f,-2.17575088e-01f,
+3.15991640e-01f,+1.56429857e-01f,+5.23665659e-02f,+2.42125735e-01f,-1.03123881e-01f,
+8.00757930e-02f,-5.46597429e-02f,+1.99788153e-01f,+5.87556697e-03f,-1.05390668e-01f,
+4.54209782e-02f,+3.76873434e-01f,-1.74555272e-01f,+2.33850017e-01f,-9.47019160e-02f,
+3.01271826e-01f,+1.00616859e-02f,+5.96609083e-04f,-6.69416189e-02f,+2.43116897e-02f,
+1.18571565e-01f,-1.47135362e-01f,+8.30003917e-02f,-1.24776058e-01f,+3.12463325e-02f,
+1.79888140e-02f,+1.32284701e-01f,+1.10952929e-01f,-1.11044794e-02f,+1.85662821e-01f,
-7.26324460e-03f,-1.01814054e-01f,+2.06665471e-01f,+2.89383948e-01f,-5.04641458e-02f,
+1.61255643e-01f,-3.29715461e-02f,-1.13222398e-01f,+3.33983116e-02f,+2.83792347e-01f,
+1.32817835e-01f,-2.10604984e-02f,+1.18578434e-01f,+1.68611780e-01f,+3.42520595e-01f,
+1.89681888e-01f,-1.24485366e-01f,-3.65673471e-03f,-2.11668555e-02f,+8.13226104e-02f,
+1.08644940e-01f,+2.47080907e-01f,+1.25829160e-01f,-1.43637275e-03f,+2.66166300e-01f,
-8.22973177e-02f,-3.49434540e-02f,+7.24028051e-02f,+2.50882238e-01f,+4.32113521e-02f,
-6.19915277e-02f,+7.16484562e-02f,-1.68394670e-01f,+1.49921715e-01f,+8.83617625e-02f,
+2.15327412e-01f,+7.69924819e-02f,+1.91081747e-01f,+2.50793457e-01f,+1.33320987e-01f,
+1.27739161e-01f,+4.42129597e-02f,+1.44943312e-01f,+9.80642661e-02f,-8.22676942e-02f,
-1.45542011e-01f,+8.74709636e-02f,+1.91115737e-01f,+1.88261956e-01f,+7.04209208e-02f,
+2.39332039e-02f,-1.83584452e-01f,+1.81491286e-01f,+8.61796066e-02f,+3.56545389e-01f,
+3.27083200e-01f,-2.86382996e-02f,+2.10516900e-01f,+1.02882475e-01f,+1.00803422e-02f,
+1.71893194e-01f,+2.18877524e-01f,+6.22136705e-02f,+1.18877955e-01f,-3.29302587e-02f,
+1.04911951e-02f,+1.04706891e-01f,+2.51870275e-01f,+5.89860007e-02f,+1.99165165e-01f,
+2.05706172e-02f,+1.33545607e-01f,-6.58912063e-02f,+2.52331644e-01f,+1.74774528e-01f,
-5.71303777e-02f,-1.19241565e-01f,-5.11657521e-02f,+4.37814325e-01f,+1.14200383e-01f,
-2.08549231e-01f,+4.44547646e-02f,-1.16706580e-01f,+1.54490650e-01f,-2.38475636e-01f,
+1.88687474e-01f,+7.70952553e-02f,+1.28629819e-01f,+1.31397486e-01f,-1.95558388e-02f,
+2.20155075e-01f,-7.52691254e-02f,+5.87028675e-02f,-1.01179041e-01f,+2.15023719e-02f,
+9.24432054e-02f,-1.96236596e-01f,+1.79179922e-01f,-2.09272310e-01f,+2.52771676e-01f,
-5.73234260e-02f,-1.10511919e-02f,-1.53394744e-01f,+1.44208416e-01f,-2.96801212e-03f,
+3.83210480e-02f,+1.04905315e-01f,+1.08112738e-01f,-6.23132773e-02f,+4.65791523e-02f,
+3.89878117e-02f,-1.15174390e-01f,+1.21462025e-01f,-1.91561386e-01f,+1.52701801e-02f,
+1.38778374e-01f,+9.50044319e-02f,-6.29720241e-02f,-1.77514330e-01f,-1.36273339e-01f,
+2.01561861e-02f,+2.31159717e-01f,-2.80878842e-02f,+1.02070376e-01f,+1.02099121e-01f,
-6.41938001e-02f,+1.25234891e-02f,-2.72661317e-02f,+1.07047141e-01f,-1.09793656e-01f,
+5.42177744e-02f,-8.84293318e-02f,+4.55549173e-02f,+2.77709305e-01f,+1.16978534e-01f,
+1.74236536e-01f,+3.60091999e-02f,+5.34227416e-02f,+7.15833604e-02f,+2.63938587e-02f,
+9.84655768e-02f,+1.21537216e-01f,+1.88557208e-02f,+1.45201743e-01f,+1.62898675e-01f,
+1.49360940e-01f,+8.51629451e-02f,+2.29839489e-01f,+1.84296533e-01f,+1.82890669e-01f,
+1.46106452e-01f,+2.08672807e-01f,-1.10338539e-01f,-3.00254095e-02f,+1.28536075e-01f,
+1.29765242e-01f,-1.89296920e-02f,-1.80380587e-02f,+1.78628251e-01f,+1.20324381e-01f,
+2.50354230e-01f,-5.54842129e-02f,+4.30197902e-02f,+1.46056697e-01f,+3.56439361e-03f,
+6.74686059e-02f,+2.70380110e-01f,+3.93444523e-02f,-1.72301993e-01f,+3.00517082e-02f,
-6.88694697e-03f,-2.17430264e-01f,-2.49905869e-01f,-1.63457751e-01f,-1.32964224e-01f,
-5.98058924e-02f,-4.88868058e-02f,+3.96809354e-03f,+3.16724330e-01f,+3.59817564e-01f,
-4.06060696e-01f,+2.77537525e-01f,+1.26695976e-01f,-2.07743287e-01f,+8.22640881e-02f,
-2.89875239e-01f,+1.20599486e-01f,+6.46531582e-02f,+7.70356730e-02f,-1.42785564e-01f,
+1.75728574e-01f,+1.40768081e-01f,+1.07527211e-01f,-2.03495651e-01f,+1.05226740e-01f,
+7.54313469e-02f,-5.91507480e-02f,+1.28879949e-01f,+8.62137228e-02f,+2.78342873e-01f,
+3.28281671e-01f,+1.74244493e-01f,+5.98545820e-02f,+2.18643159e-01f,+6.94496883e-03f,
+2.06798986e-01f,+2.71450523e-02f,+2.01120436e-01f,+1.56846777e-01f,+1.64632738e-01f,
+9.46651548e-02f,+2.39058003e-01f,+9.27687213e-02f,-3.90044414e-02f,-1.21128418e-01f,
+1.20532967e-01f,+1.12689026e-01f,-2.67569758e-02f,+2.05804288e-01f,-1.16359908e-02f,
+1.00651905e-01f,+1.53124928e-01f,-9.48148891e-02f,+6.83668256e-02f,+3.02365184e-01f,
-8.24348852e-02f,+1.46594578e-02f,+5.95305823e-02f,+1.06281154e-01f,+1.06114060e-01f,
+9.80900042e-03f,+1.11715168e-01f,-2.20460579e-01f,+1.35537148e-01f,+2.47379735e-01f,
-6.58591092e-02f,+3.92220095e-02f,+6.45922050e-02f,+2.17167586e-01f,+8.70078579e-02f,
-7.78134027e-03f,-4.03121747e-02f,+1.55153945e-01f,+3.35550122e-02f,-1.60395086e-03f,
-1.01046123e-01f,+1.05367571e-01f,+9.61725935e-02f,+1.83510005e-01f,-1.90621391e-02f,
-1.41848415e-01f,+5.26866354e-02f,-1.70538872e-01f,-8.48714449e-03f,+6.11041598e-02f,
+1.18818611e-01f,+1.12934910e-01f,+1.70205608e-02f,+2.42927954e-01f,+3.35897356e-01f,
-2.65977103e-02f,+1.15105011e-01f,-1.21102370e-01f,+7.16101974e-02f,-2.08039999e-01f,
+3.67018320e-02f,+2.01976374e-02f,-3.83431427e-02f,+1.24780729e-01f,+3.16892378e-02f,
+3.20364505e-01f,-1.56896502e-01f,+3.82342041e-02f,-5.42048253e-02f,+1.15521431e-01f,
+2.74917367e-03f,+2.56306883e-02f,+1.94148466e-01f,-2.30193622e-02f,+1.36582837e-01f,
+2.03080371e-01f,+2.12817147e-01f,-1.02979138e-01f,+4.47880067e-02f,+8.30440000e-02f,
+2.17639565e-01f,+8.23275745e-03f,+1.75807178e-01f,+1.32342458e-01f,+8.97436962e-02f,
+1.48331001e-01f,-4.01860336e-03f,-1.02182493e-01f,-1.11753613e-01f,+1.09099440e-01f,
-2.48057991e-02f,-2.41847131e-02f,+7.52475038e-02f,-1.40513787e-02f,+2.17412382e-01f,
+2.06083134e-02f,+1.95490018e-01f,-2.62528118e-02f,-2.02271655e-01f,+1.66951850e-01f,
+1.20267130e-01f,-1.60435960e-01f,+7.09373280e-02f,+3.32208425e-02f,+2.26467729e-01f,
-6.25069588e-05f,+1.40253916e-01f,-5.62454164e-02f,+5.22722080e-02f,+1.61777884e-01f,
-1.99307442e-01f,-6.82734326e-02f,+2.89284177e-02f,+2.37517178e-01f,+7.87803903e-02f,
+1.16016917e-01f,-5.58660850e-02f,-1.48346260e-01f,+5.11518531e-02f,+2.11501732e-01f,
+9.10476670e-02f,+6.18813708e-02f,-2.38179311e-01f,-2.03941856e-02f,+3.28073651e-03f,
-5.84322959e-03f,+2.03981936e-01f,+2.96334535e-01f,+3.08688246e-02f,-1.31407335e-01f,
-1.22460790e-01f,+4.66886535e-02f,-2.36341190e-02f,-1.33609936e-01f,-2.96121463e-02f,
+8.28089416e-02f,+6.58908114e-02f,+1.01825602e-01f,-7.35156611e-02f,+1.06287725e-01f,
+3.80404256e-02f,-1.43229440e-01f,+5.75436614e-02f,-4.44285981e-02f,+1.18653655e-01f,
-8.22033212e-02f,-1.19915251e-02f,-9.58212018e-02f,-1.62098244e-01f,+1.12575531e-01f,
-1.16329885e-03f,+2.29928434e-01f,+8.24229419e-02f,+1.06482171e-01f,+1.30732641e-01f,
+2.21851423e-01f,+1.68118089e-01f,+8.80518258e-02f,+1.17943577e-01f,+4.99939919e-02f,
+5.25428988e-02f,-1.68145839e-02f,+1.69977978e-01f,-4.54808213e-02f,+1.03070624e-01f,
-1.57148391e-01f,+1.10062160e-01f,-4.15974706e-02f,-1.37592271e-01f,+1.30156264e-01f,
+1.65708259e-01f,-9.46573541e-02f,+3.66553105e-02f,-1.13939159e-01f,+3.89759764e-02f,
+1.83039710e-01f,+2.09922403e-01f,+2.63602585e-02f,+1.81189314e-01f,+1.71471208e-01f,
-1.07529536e-01f,+2.72996370e-02f,+1.23448238e-01f,+5.21397740e-02f,-2.07322851e-01f,
+5.43443263e-02f,+3.50568891e-02f,-2.25324114e-03f,+2.32574090e-01f,+7.91396797e-02f,
+1.58777479e-02f,-3.96742560e-02f,-1.27428640e-02f,+4.86328863e-02f,+2.70302389e-02f,
+1.72256291e-01f,-1.32328039e-03f,+5.32430522e-02f,+7.39023313e-02f,+2.67768204e-01f,
+1.85206234e-02f,+1.35028260e-02f,-1.31390423e-01f,-7.35928416e-02f,+4.01011715e-03f,
+1.16740949e-01f,-7.85806924e-02f,-7.86001459e-02f,+2.35232145e-01f,+1.18081659e-01f,
-2.70982888e-02f,+1.15670994e-01f,+1.63614303e-01f,+5.81340156e-02f,-4.85811718e-02f,
-6.04571328e-02f,-9.93056782e-03f,+2.89343055e-02f,-4.01686784e-03f,+8.11443701e-02f,
-1.15508296e-01f,+9.80055556e-02f,+2.48823971e-01f,+3.10080182e-02f,+3.47467303e-01f,
-2.02540699e-02f,+6.45484179e-02f,+1.08719051e-01f,+2.11335402e-02f,+3.91816124e-02f,
-8.36656690e-02f,-1.42613593e-02f,-2.67619580e-01f,+2.37000227e-01f,-4.15356569e-02f,
-8.18040818e-02f,-1.13621145e-01f,-3.43628973e-02f,+6.12446591e-02f,+8.77619535e-03f,
+1.02061093e-01f,+1.98534533e-01f,-5.96132353e-02f,-8.65005702e-03f,+1.59630790e-01f,
+5.37460521e-02f,+1.94608629e-01f,+1.70502931e-01f,+1.36467144e-01f,-2.13482380e-02f,
-2.66130771e-02f,+4.33552526e-02f,+9.77571234e-02f,+1.96437910e-01f,+2.23772298e-03f,
+9.95457470e-02f,+1.12971790e-01f,+1.08948775e-01f,-4.34445664e-02f,+1.42510757e-01f,
+4.92087938e-02f,-2.27876659e-02f,-1.23705924e-01f,+1.10094674e-01f,+6.83513135e-02f,
-2.95460057e-02f,-1.43107727e-01f,-1.64023995e-01f,+1.29774928e-01f,+1.08102433e-01f,
+7.78739853e-03f,+3.44963282e-01f,+1.69641912e-01f,+1.17050663e-01f,+1.03539281e-01f,
+1.99581057e-01f,+3.24992627e-01f,+7.38976225e-02f,-5.35983145e-02f,+9.25165042e-02f,
+1.72517255e-01f,+3.38588804e-02f,+5.92848063e-02f,+1.76287014e-02f,-3.89573984e-02f,
-1.71038002e-01f,-1.88434566e-03f,+1.29545197e-01f,-2.21829027e-01f,+1.69893324e-01f,
-8.64504022e-04f,-5.95475361e-03f,-4.30800579e-02f,+8.05990323e-02f,+3.29623856e-02f,
+2.35009581e-01f,+9.89539996e-02f,+7.82389846e-03f,-2.25686207e-02f,+1.27629429e-01f,
+1.35120854e-01f,+3.46419290e-02f,+4.92728762e-02f,+1.11969821e-01f,+1.52998507e-01f,
+2.17481062e-01f,+2.36112606e-02f,+7.51125291e-02f,+1.90421417e-01f,+1.25780717e-01f,
+3.49673741e-02f,+7.45840520e-02f,+1.46690905e-01f,+8.60034004e-02f,+8.21599290e-02f,
+8.28696322e-03f,-1.84123427e-01f,+8.28589033e-03f,+8.19454193e-02f,-3.54892388e-02f,
-1.52413108e-04f,-1.20932050e-02f,-1.23797990e-01f,+4.15372215e-02f,+1.15022920e-01f,
+2.13723421e-01f,-3.60074528e-02f,+1.10352889e-01f,+5.55151515e-02f,+6.18909821e-02f,
-8.39146599e-02f,+1.18607946e-01f,+1.79706037e-01f,+2.50460040e-02f,+6.59197718e-02f,
+1.38791606e-01f,-6.74243346e-02f,-2.72357725e-02f,-1.40953764e-01f,+8.40712935e-02f,
+1.50414005e-01f,+1.20630294e-01f,+4.24779393e-02f,+1.54006675e-01f,+2.47968838e-01f,
-1.74713135e-02f,-2.34095063e-02f,+3.27759892e-01f,+1.58086032e-01f,+1.30875066e-01f,
-1.06355235e-01f,-8.48850757e-02f,+7.10598677e-02f,+9.88964923e-03f,-4.24556136e-02f,
-5.97481355e-02f,+1.02248110e-01f,+2.76631117e-01f,-5.36242202e-02f,+1.07303612e-01f,
+1.67813703e-01f,+2.05151550e-02f,-7.69172702e-03f,+5.49400635e-02f,+9.20371562e-02f,
-5.03418073e-02f,+1.24760300e-01f,-4.71789502e-02f,-1.34324774e-01f,+1.18145287e-01f,
+2.40133274e-02f,-6.33080751e-02f,+1.32781669e-01f,+1.09890103e-01f,+3.59495021e-02f,
-5.28338552e-03f,+1.07951723e-01f,+9.48723331e-02f,-4.81812805e-02f,+2.38881990e-01f,
+8.42818618e-02f,-4.00567614e-02f,+2.09324718e-01f,+3.83357294e-02f,+1.16790228e-01f,
+1.44799471e-01f,-8.45903996e-03f,-4.49453220e-02f,+2.73441244e-02f,+3.12781185e-01f,
-7.70137832e-02f,+2.36129969e-01f,+1.57786787e-01f,+8.46103132e-02f,+1.46194682e-01f,
-9.89567265e-02f,+1.40231967e-01f,-3.39976810e-02f,-5.46150878e-02f,+4.30587530e-02f,
+1.38629347e-01f,+2.80712353e-04f,-2.96310365e-01f,+2.16455936e-01f,+5.35283377e-03f,
+6.54583201e-02f,-4.57132272e-02f,+1.67114865e-02f,-2.67305374e-02f,+2.36407682e-01f,
+9.63428542e-02f,-1.04442336e-01f,+4.00826149e-02f,-7.98966922e-03f,+8.94554406e-02f,
+1.11557350e-01f,-1.84969064e-02f,-3.56510766e-02f,+7.26789534e-02f,+1.02859750e-01f,
+2.96857525e-02f,+1.95168760e-02f,-7.53749311e-02f,+1.99554991e-02f,+1.05766982e-01f,
+1.43012062e-01f,-7.15650991e-02f,+2.85234749e-02f,-3.03828064e-02f,+7.46481642e-02f,
+3.97426635e-02f,+6.58351835e-03f,-6.99852593e-03f,-2.24405974e-02f,-3.49136442e-02f,
+2.01168105e-01f,+2.38442943e-01f,+4.82080132e-02f,+1.63623735e-01f,+1.40989289e-01f,
+8.17143247e-02f,+5.27987108e-02f,+1.63703442e-01f,+3.88377234e-02f,-9.63318869e-02f,
+2.18688712e-01f,-2.25609288e-01f,-3.41797201e-03f,+1.92150190e-01f,+2.67270952e-01f,
+6.19504340e-02f,-4.40984499e-03f,+1.26213714e-01f,-1.50048524e-01f,+2.24003922e-02f,
+6.76734298e-02f,+1.27776518e-01f,+1.66088432e-01f,+1.41839787e-01f,+1.25263140e-01f,
+8.40831250e-02f,+1.15530245e-01f,+3.44538838e-02f,-5.16700419e-03f,+5.52898198e-02f,
+1.49031416e-01f,+1.08789261e-02f,-1.08314380e-01f,+3.93143296e-02f,-1.98347010e-02f,
+2.20937163e-01f,+1.41463280e-01f,+3.35528195e-01f,-8.51787813e-03f,+9.68029946e-02f,
+2.48340052e-02f,+1.30394012e-01f,-2.25800917e-01f,+1.45297021e-01f,+5.61085492e-02f,
+2.82170400e-02f,-3.39738578e-02f,+1.10260084e-01f,+1.55948654e-01f,+3.18180807e-02f,
-4.97494601e-02f,+3.70073617e-02f,-4.43614498e-02f,-9.09192115e-02f,+5.19784130e-02f,
+2.50245422e-01f,+1.25877321e-01f,+2.05524698e-01f,-1.19249389e-01f,+5.75097688e-02f,
+1.17557213e-01f,+1.00352831e-01f,+4.01881129e-01f,+2.54957736e-01f,+5.27758859e-02f,
+1.78627416e-01f,+1.26176342e-01f,+1.05802454e-01f,-5.61771542e-02f,-3.48723084e-01f,
-1.03805512e-01f,-1.71903923e-01f,+1.02271184e-01f,+1.45448774e-01f,+9.02453959e-02f,
-1.02089578e-02f,-2.03577541e-02f,-9.09814090e-02f,+4.10863906e-02f,-2.23788470e-02f,
+1.60568636e-02f,-8.68289452e-03f,-5.50718186e-03f,-1.07247502e-01f,+1.13318548e-01f,
-2.87337415e-02f,+6.96612671e-02f,-1.67710315e-02f,+2.18199328e-01f,+1.10765792e-01f,
-7.98219889e-02f,-8.63961577e-02f,-9.83819738e-02f,+1.11448236e-01f,-1.73872277e-01f,
-5.27089275e-02f,+4.10479978e-02f,+2.03507558e-01f,+2.49634013e-02f,+2.75477320e-01f,
+1.36972278e-01f,+2.79251903e-01f,-5.04762009e-02f,-1.92418322e-01f,+8.83783177e-02f,
+1.65718541e-01f,+4.80666682e-02f,-4.44635674e-02f,-5.32773435e-02f,+1.38237989e-02f,
+2.59784400e-01f,+1.12146392e-01f,+2.96056330e-01f,+4.68141139e-02f,-2.34980345e-01f,
-7.17189088e-02f,+4.05011922e-02f,+1.46258458e-01f,+2.82895833e-01f,+8.49322975e-02f,
+1.32132947e-01f,+8.47856924e-02f,+1.21415660e-01f,+2.72382021e-01f,-4.69039530e-02f,
-1.06149644e-01f,+1.60989225e-01f,+1.69342756e-02f,+2.52349257e-01f,+2.75516286e-02f,
+2.89159209e-01f,+2.88320005e-01f,+2.88723446e-02f,+1.89470708e-01f,+8.97567794e-02f,
+2.12003008e-01f,+3.96505706e-02f,-1.79443970e-01f,+4.02133726e-02f,-1.42954662e-01f,
+6.16449080e-02f,+2.36411719e-03f,+9.71089453e-02f,+1.53662726e-01f,+5.18130884e-02f,
+1.68044269e-01f,-4.93002608e-02f,+3.09593864e-02f,+1.06892899e-01f,+1.89699996e-02f,
+2.30331972e-01f,-3.95343482e-01f,+3.82231432e-04f,-8.93393252e-03f,-1.92322642e-01f,
+2.72886634e-01f,+1.53831035e-01f,-1.45774996e-02f,-2.46664539e-01f,+1.05965488e-01f,
+1.40838310e-01f,+7.23914206e-02f,+1.18042842e-01f,+8.63369256e-02f,-1.95614677e-02f,
-1.22362293e-01f,+1.90608725e-01f,+5.23444675e-02f,-2.70851422e-02f,+1.00938603e-01f,
-5.43823019e-02f,+1.14889495e-01f,-1.11235991e-01f,+2.33832330e-01f,+9.01920944e-02f,
+3.89060974e-02f,-2.25436866e-01f,-1.03810690e-01f,-1.02415152e-01f,+3.07234153e-02f,
-2.94362068e-01f,-3.14545669e-02f,+1.02646329e-01f,-3.22348550e-02f,-2.77714264e-02f,
-1.75153627e-03f,+7.54826609e-03f,-1.67352945e-01f,+1.40374392e-01f,+2.68888980e-01f,
+1.94083884e-01f,-1.31063297e-01f,+1.04166441e-01f,-5.18641882e-02f,+9.53273326e-02f,
+2.23172661e-02f,-1.31542310e-01f,+2.09437668e-01f,+1.47123262e-01f,+7.83262998e-02f,
+1.43968448e-01f,-6.69383630e-02f,-1.65628288e-02f,+1.10999301e-01f,-4.35362197e-02f,
+2.78705209e-02f,-6.09402694e-02f,+2.89944947e-01f,+9.96558294e-02f,+4.41198349e-02f,
+2.43084669e-01f,+1.96946431e-02f,+9.38816443e-02f,+9.19119418e-02f,+6.01183251e-02f,
+1.59527585e-01f,+1.91751599e-01f,-1.04516812e-01f,+3.03608418e-01f,+7.59578198e-02f,
-6.56881630e-02f,+1.13327816e-01f,-1.00781247e-02f,+1.52431503e-01f,+2.40280524e-01f,
+1.77586585e-01f,-5.40264957e-02f,+3.43107954e-02f,+1.46523193e-01f,+4.87102009e-02f,
+1.21736065e-01f,-1.86581239e-02f,+1.86855465e-01f,-8.35304856e-02f,+7.48870894e-02f,
+8.86162370e-02f,-7.13343918e-02f,+2.86284517e-02f,+3.94637585e-02f,+1.52926520e-01f,
-9.78880674e-02f,+7.47345611e-02f,-3.83491591e-02f,+7.50187263e-02f,-1.61369383e-01f,
-1.62236672e-02f,+1.49960089e-02f,+4.19930788e-03f,+2.56704003e-01f,+9.20585021e-02f,
+2.56642699e-02f,-8.96723792e-02f,-2.81789675e-02f,-7.37165138e-02f,-2.59130076e-02f,
+7.08261132e-02f,+3.23445529e-01f,+1.94522145e-04f,+7.64705315e-02f,-2.12198928e-01f,
+9.57605168e-02f,-7.59015083e-02f,+1.73598930e-01f,+1.95037380e-01f,+1.20455287e-01f,
-6.48494735e-02f,+4.70200777e-02f,-8.52511078e-02f,-5.89567870e-02f,+2.24322870e-01f,
+1.25590354e-01f,+1.72966328e-02f,+1.31976977e-02f,+1.25653774e-01f,+2.85633728e-02f,
-1.86507571e-02f,-3.73082608e-02f,+4.70171459e-02f,-8.51873681e-02f,+1.89348925e-02f,
+4.25838143e-01f,+1.79364815e-01f,+1.65376589e-01f,-8.74224976e-02f,-1.86817832e-02f,
-7.65291452e-02f,+1.90632805e-01f,+1.38886109e-01f,+2.40292177e-01f,+1.96089432e-01f,
-5.38411923e-02f,-7.11324997e-03f,+9.04071927e-02f,-1.47275075e-01f,-7.49376835e-03f,
+6.58775643e-02f,+1.80211022e-01f,+1.49210915e-01f,+3.15144882e-02f,+1.13247655e-01f,
-3.27749886e-02f,+8.27018928e-04f,+9.86788124e-02f,+9.24885124e-02f,+2.36559391e-01f,
+9.68182012e-02f,-1.84237495e-01f,+2.49021679e-01f,+2.75078639e-02f,-5.83774131e-03f,
+4.82978746e-02f,-1.13094814e-01f,+4.75276448e-02f,+2.14192525e-01f,-1.02314226e-01f,
-4.85713258e-02f,+1.46579534e-01f,+1.83695033e-01f,-3.11490265e-04f,+1.78144217e-01f,
-8.55318177e-03f,+1.81765378e-01f,+1.16305359e-01f,+2.71781813e-03f,-8.29620808e-02f,
+3.51217482e-03f,+1.79864973e-01f,-9.80028361e-02f,+8.18482488e-02f,-4.93776426e-02f,
+3.10926706e-01f,+6.28329664e-02f,-1.40106842e-01f,+6.12853318e-02f,+9.84715372e-02f,
-4.57341149e-02f,+1.43913552e-01f,-8.67759436e-02f,+1.29314670e-02f,+1.98299691e-01f,
-1.34913893e-02f,+2.05033924e-02f,-4.68712784e-02f,-4.13809195e-02f,+3.14196259e-01f,
+1.10839777e-01f,+6.93782121e-02f,+6.44293847e-03f,+1.33831084e-01f,+1.42336786e-01f,
-3.03139072e-02f,-9.01906751e-03f,+7.00033978e-02f,+3.32167372e-02f,-6.54105768e-02f,
-1.15127891e-01f,-1.69833377e-01f,-1.86118931e-02f,+7.36514032e-02f,-2.03016654e-01f,
+1.23716816e-02f,-1.31401764e-02f,+5.35560362e-02f,+1.02636412e-01f,+3.39745432e-01f,
+2.27383301e-01f,-1.20815553e-01f,+1.76308081e-01f,-1.38390869e-01f,+1.75229218e-02f,
+9.92479771e-02f,+1.96670797e-02f,+1.87281415e-01f,+1.87785104e-01f,+8.18158593e-03f,
-3.46609503e-02f,+1.08891256e-01f,+1.96845546e-01f,+1.57747194e-01f,+6.83085471e-02f,
+2.54015297e-01f,+1.77641302e-01f,+5.53453229e-02f,-1.69562642e-02f,-6.54017329e-02f,
-1.78112497e-03f,+8.28816667e-02f,+7.41864592e-02f,-7.43762255e-02f,-2.67116297e-02f,
+6.32832898e-03f,-4.10497934e-02f,+6.26187364e-04f,-2.11360320e-01f,-8.41218457e-02f,
+1.94251969e-01f,+9.67810303e-02f,+3.90997976e-02f,+8.37035403e-02f,+1.02540210e-01f,
+4.28085364e-02f,+7.30508268e-02f,+8.82918239e-02f,+1.33976579e-01f,+2.28236258e-01f,
+2.78763592e-01f,+3.91845815e-02f,+5.00175916e-02f,-1.27775595e-02f,+9.51873511e-02f,
+8.31166189e-03f,-8.51114392e-02f,-2.41440460e-02f,+8.60000551e-02f,+4.46367078e-02f,
+3.31703238e-02f,-1.87692031e-01f,+9.18124150e-03f,+2.17794493e-01f,+1.17383607e-01f,
+1.19742006e-01f,-1.27945885e-01f,+2.59609103e-01f,-2.80263927e-02f,-1.02651663e-01f,
+1.06487699e-01f,-4.55645919e-02f,+1.70876637e-01f,+1.64710302e-02f,+5.71057312e-02f,
-3.38903666e-02f,+8.62667486e-02f,-5.63061871e-02f,+1.77934021e-02f,+5.09705916e-02f,
+1.43086389e-01f,+1.22840516e-01f,+9.51927097e-04f,-2.08206266e-01f,+9.35508832e-02f,
-1.15586203e-02f,-8.99807885e-02f,+4.14529257e-02f,+1.18146718e-01f,+9.58097801e-02f,
+9.10043344e-02f,+9.12644416e-02f,+7.35907033e-02f,-2.10460320e-01f,+2.02184364e-01f,
+4.50953981e-03f,-5.81226982e-02f,-3.44906338e-02f,+1.09475307e-01f,-5.71249761e-02f,
-1.33220851e-01f,+2.18276769e-01f,+1.31286392e-02f,+1.26926929e-01f,+1.50741518e-01f,
+1.27308592e-01f,+2.35489398e-01f,+6.60497099e-02f,+1.30717590e-01f,+1.09889194e-01f,
+9.45083201e-02f,+9.64902565e-02f,-7.55488947e-02f,+1.91945098e-02f,+1.22537911e-01f,
-8.46664011e-02f,+1.99100636e-02f,+1.37320474e-01f,+1.70280576e-01f,+1.04343846e-01f,
+4.86851856e-02f,+2.05279946e-01f,-4.51050960e-02f,-1.62859067e-01f,-4.65454906e-02f,
-8.72923061e-02f,+8.29209462e-02f,-3.19658890e-02f,+4.33015451e-02f,+6.94667846e-02f,
+8.38955417e-02f,+9.95598286e-02f,+1.18653454e-01f,+1.20006315e-01f,+6.86781555e-02f,
-4.37694718e-04f,+9.38099772e-02f,+6.49601892e-02f,+1.80968046e-01f,+7.75462314e-02f,
+1.95808038e-01f,-7.46917352e-02f,-5.58365583e-02f,+9.37873870e-02f,+1.61509171e-01f,
-1.75996125e-02f,-1.32737294e-01f,+1.51299134e-01f,+5.83136044e-02f,+5.05755618e-02f,
-1.49454782e-02f,+5.85040115e-02f,+1.13326274e-01f,+1.80035487e-01f,+8.43326282e-03f,
+2.17361357e-02f,+1.79907575e-01f,+3.37042511e-01f,+7.15400577e-02f,+2.44780868e-01f,
+3.52595210e-01f,-1.88726664e-01f,-9.05590281e-02f,+5.02914749e-02f,+1.74829736e-01f,
-9.28217024e-02f,+2.15746537e-01f,+1.74636468e-01f,+1.15166306e-01f,+7.79226050e-02f,
+1.37358025e-01f,+1.24186091e-01f,+1.27085477e-01f,+2.67344955e-02f,+1.50153995e-01f,
-8.42964463e-03f,+8.15225095e-02f,+6.86419532e-02f,+9.29087773e-02f,+1.10705331e-01f,
+7.05093741e-02f,+6.86296821e-02f,-7.68214613e-02f,+6.97960854e-02f,-7.37211928e-02f,
+9.65069532e-02f,+6.45055175e-02f,+1.22271694e-01f,-1.04139566e-01f,-6.50734454e-02f,
-1.24217324e-01f,+1.30293250e-01f,-8.32362939e-03f,-1.51730344e-01f,+1.48593992e-01f,
-7.24203587e-02f,+4.49850559e-02f,+3.46457027e-02f,-7.66530186e-02f,+2.03553081e-01f,
+1.20551884e-01f,+7.90852755e-02f,-3.71431224e-02f,+2.07784638e-01f,-9.23110545e-02f,
+9.85213220e-02f,-1.75715163e-02f,+2.69821286e-01f,-1.74317956e-02f,+1.42064467e-02f,
+2.51056224e-01f,-3.61737824e-04f,-5.31233987e-03f,-2.44666040e-02f,+1.74691603e-02f,
-9.26371142e-02f,+1.08981160e-02f,+5.73546859e-03f,+1.43151894e-01f,+3.94772030e-02f,
+2.71221101e-02f,+1.48455635e-01f,+1.40089720e-01f,+1.66081116e-01f,+2.43541092e-01f,
+2.05671355e-01f,+1.25173599e-01f,+7.31428936e-02f,+1.85265735e-01f,+2.19702020e-01f,
+2.17767745e-01f,+1.99485078e-01f,+1.23893157e-01f,+6.84023872e-02f,-5.43156788e-02f,
-3.47137041e-02f,-3.23715620e-02f,+1.84787676e-01f,+5.35275526e-02f,+6.52982742e-02f,
+1.03506811e-01f,+2.03204766e-01f,+6.31375834e-02f,-2.95665078e-02f,+8.40872079e-02f,
+1.32513657e-01f,-1.39258116e-01f,+1.81958616e-01f,-2.86072623e-02f,+1.48541421e-01f,
+7.28482604e-02f,+7.40288943e-02f,+7.13547617e-02f,+2.91205104e-02f,+2.31356807e-02f,
+9.68602970e-02f,+9.67534110e-02f,+3.27618122e-02f,-1.19427927e-01f,+9.48232412e-02f,
-2.72401311e-02f,+1.00794181e-01f,+9.98317674e-02f,+7.16666356e-02f,+8.71171206e-02f,
-1.61339462e-01f,+1.02792419e-01f,+1.58480272e-01f,+1.99990526e-01f,+8.54037851e-02f,
-2.80923955e-02f,+6.86783865e-02f,+9.08343419e-02f,+1.28912956e-01f,+7.37996250e-02f,
+1.01357631e-01f,+4.55883741e-02f,+1.51258752e-01f,-4.02585678e-02f,+2.12723926e-01f,
+3.15487206e-01f,+7.21366554e-02f,+2.21933320e-01f,-8.01383108e-02f,+6.37089834e-02f,
+4.84165102e-01f,+7.89441243e-02f,+1.03896283e-01f,+5.76706491e-02f,+4.63577062e-02f,
+4.07115631e-02f,+1.63363621e-01f,-1.51366591e-01f,+2.46093243e-01f,+9.27777961e-03f,
+3.82181481e-02f,+2.14478433e-01f,+3.19428384e-01f,-3.80482189e-02f,-2.61499994e-02f,
+1.26963407e-01f,-1.64657936e-01f,-8.03393684e-03f,-2.74359565e-02f,+4.94107865e-02f,
+1.34551274e-02f,-7.37242261e-03f,+2.25780740e-01f,+3.99978459e-02f,+1.34736434e-01f,
+2.36325607e-01f,+2.73510993e-01f,+1.70346260e-01f,+1.16562940e-01f,+2.24934760e-02f,
+1.44055933e-01f,+3.25366735e-01f,+1.89136658e-02f,+1.89860538e-02f,-1.60722937e-02f,
-4.66916487e-02f,+1.10446773e-01f,+6.49919584e-02f,+1.76443622e-01f,-7.33839124e-02f,
-2.83971056e-02f,-1.64868291e-02f,+6.67063892e-02f,+1.98365122e-01f,+1.15030259e-01f,
+7.88877308e-02f,+4.32454124e-02f,+9.69159603e-02f,+2.71715019e-02f,+1.00923039e-01f,
+1.59357026e-01f,-8.79339799e-02f,-1.12181328e-01f,-2.66363230e-02f,+9.86453705e-03f,
+4.69722338e-02f,-5.70678897e-02f,+3.77377197e-02f,+2.16505334e-01f,-3.60695273e-02f,
+1.61869168e-01f,-1.32141421e-02f,+3.13823335e-02f,-1.45500049e-01f,+2.55367935e-01f,
-7.11925626e-02f,-2.12218128e-02f,-1.33726716e-01f,-2.72635883e-03f,+8.79763514e-02f,
+1.68698832e-01f,-1.01532131e-01f,+1.03022262e-01f,+9.58257616e-02f,+1.18088007e-01f,
+9.06868279e-02f,+1.14935488e-01f,-6.05712309e-02f,+7.85423219e-02f,-1.33722305e-01f,
+1.09142505e-01f,+5.64146228e-02f,-2.35200562e-02f,+1.57135084e-01f,+7.54818171e-02f,
+1.66684225e-01f,-1.49999678e-01f,+2.93096155e-01f,-2.96468288e-02f,+2.57756328e-03f,
-6.08082488e-02f,+7.97010064e-02f,-4.04040180e-02f,-8.31137821e-02f,+3.62607181e-01f,
+1.31079793e-01f,+1.93132788e-01f,+4.62403819e-02f,-1.40819252e-01f,+2.08406791e-01f,
+4.55913171e-02f,+1.40655577e-01f,+9.84372869e-02f,+3.71832103e-01f,+1.51046962e-01f,
+1.92236647e-01f,+1.62780166e-01f,+1.98039889e-01f,+9.93061960e-02f,-8.90946165e-02f,
+5.74606620e-02f,-9.03724805e-02f,-1.56496078e-01f,+3.21639813e-02f,+8.35303739e-02f,
-3.80989946e-02f,+2.89667044e-02f,+9.42205340e-02f,+1.83694676e-01f,+9.09121633e-02f,
-8.79987329e-02f,+3.23798284e-02f,+4.07568589e-02f,+3.03349674e-01f,+7.60408863e-02f,
+7.77155310e-02f,-3.27210538e-02f,+9.82055590e-02f,+4.86443192e-02f,-3.09571207e-01f,
-4.05679867e-02f,-2.18899235e-01f,-1.31185904e-01f,+5.56193925e-02f,+2.86694821e-02f,
-6.12339601e-02f,-8.87097493e-02f,+2.07386419e-01f,+2.29959395e-02f,+8.20888877e-02f,
+1.82134882e-01f,+8.60949680e-02f,+5.69004081e-02f,+1.37206078e-01f,+8.57434869e-02f,
+1.02436639e-01f,+1.45759396e-02f,+4.30381596e-01f,+2.24949345e-02f,+2.57504708e-03f,
+5.73679432e-02f,+1.08406752e-01f,+2.42614429e-02f,+1.04001157e-01f,-5.12255132e-02f,
+2.09908336e-01f,+1.75974425e-02f,+3.15837786e-02f,+1.95543319e-01f,+2.04713736e-02f,
-6.00753236e-04f,-1.91329971e-01f,+1.19625054e-01f,+1.13571197e-01f,+2.55127639e-01f,
+5.00436984e-02f,+1.66065991e-01f,+1.12981148e-01f,+1.09289456e-02f,+7.44757280e-02f,
+1.73450500e-01f,+2.27764137e-02f,+2.75622699e-02f,-2.71238461e-02f,+6.55407384e-02f,
-1.55468494e-01f,+2.12487787e-01f,+4.66823101e-01f,+1.48701563e-01f,-2.04194523e-02f,
+1.20138027e-01f,+7.92812929e-03f,+2.84091622e-01f,+1.13094106e-01f,+3.67562287e-02f,
-2.01280620e-02f,-8.54064599e-02f,+1.44836590e-01f,-2.44627550e-01f,-5.94225572e-03f,
+1.33619726e-01f,-2.15490371e-01f,+2.64360756e-01f,-3.52866426e-02f,+2.98823506e-01f,
-9.01486054e-02f,+1.37861207e-01f,+6.38536960e-02f,+4.48279567e-02f,+8.17078128e-02f,
+1.97033361e-01f,-2.26940643e-02f,-1.08293615e-01f,+3.42703313e-02f,+8.36476684e-02f,
+5.12208678e-02f,-2.12218463e-01f,+2.59347975e-01f,-3.12482957e-02f,+1.27083138e-01f,
+9.57594439e-02f,+2.71294385e-01f,+5.73242940e-02f,-6.84774369e-02f,+5.64013869e-02f,
+2.70366013e-01f,+1.29809052e-01f,-5.94164757e-03f,+8.00163373e-02f,+7.31513277e-02f,
-9.78383720e-02f,+9.93895009e-02f,+1.47811035e-02f,+7.77174309e-02f,+1.33650213e-01f,
+1.43189535e-01f,+5.47202490e-02f,-5.08173220e-02f,+9.05216038e-02f,+2.50142425e-01f,
+5.46714850e-02f,-7.71351624e-03f,-1.83195293e-01f,-3.90125476e-02f,+4.86459360e-02f,
+6.41772747e-02f,+7.50601217e-02f,+6.99011534e-02f,-1.33808464e-01f,-1.77384719e-01f,
+3.67204957e-02f,-1.88687146e-02f,-1.85142923e-02f,+1.28110042e-02f,+5.72182611e-02f,
+3.75696272e-03f,-4.01108563e-02f,+1.43606246e-01f,+1.42694697e-01f,-3.21795084e-02f,
+8.11565518e-02f,+9.57145095e-02f,-1.27428472e-01f,-1.92372486e-01f,+1.43597096e-01f,
+1.96459681e-01f,-6.79824650e-02f,-4.64687794e-02f,-8.69674832e-02f,+7.51440823e-02f,
-4.34680432e-02f,-7.70779625e-02f,+6.09932207e-02f,+1.31287742e-02f,-1.05229072e-01f,
+1.30491793e-01f,+1.31015405e-01f,+3.52792531e-01f,+7.95339122e-02f,-6.02044761e-02f,
+1.46366999e-01f,+5.64622208e-02f,+8.19899887e-02f,+1.07648142e-01f,+3.25481258e-02f,
+1.21101715e-01f,+1.82051549e-03f,+2.01616660e-01f,-1.55351475e-01f,+1.07273683e-01f,
-1.73287392e-02f,-8.64619482e-03f,-1.09377630e-01f,+3.32760930e-01f,+7.84525722e-02f,
+1.67203188e-01f,-8.15002322e-02f,+6.07993603e-02f,+1.23399436e-01f,+1.44564822e-01f,
+1.21973120e-01f,-4.52255420e-02f,+1.78381979e-01f,+8.55256692e-02f,-1.01915570e-02f,
-1.48625206e-02f,+2.06474930e-01f,+1.13036834e-01f,-2.96135340e-02f,+9.46329236e-02f,
+1.26842231e-01f,-9.22946334e-02f,+1.23586833e-01f,-4.56086472e-02f,+1.53828740e-01f,
+1.81932244e-02f,+1.16259307e-01f,+3.12952399e-02f,+2.18276516e-01f,-4.10752892e-02f,
+7.72970840e-02f,+2.59192521e-03f,+2.92546511e-01f,+1.40279248e-01f,-3.68431397e-02f,
+2.66238302e-02f,-2.53219962e-01f,+1.15085170e-01f,-9.99513734e-03f,-1.89265870e-02f,
+1.43094942e-01f,+2.31385872e-01f,-5.02313040e-02f,-1.70496807e-01f,-3.85023177e-01f,
-1.64282948e-01f,+1.30024776e-01f,+9.92685556e-03f,-1.82308331e-01f,-6.20795600e-02f,
+1.31399989e-01f,+1.22728243e-01f,-6.24258220e-02f,-5.96160255e-02f,+9.77215171e-02f,
-1.47984521e-02f,+3.54711592e-01f,+1.42596334e-01f,+2.08771229e-01f,+1.42050311e-02f,
+5.45073599e-02f,+7.56890560e-03f,+4.92008552e-02f,+2.16046780e-01f,+5.24597391e-02f,
+5.69337048e-02f,-3.71704996e-01f,+1.69073299e-01f,-8.66457745e-02f,+1.83160543e-01f,
+5.06591499e-02f,+3.87846380e-02f,+8.74347165e-02f,+1.02189677e-02f,+1.32612064e-01f,
+8.85873139e-02f,+2.63441890e-01f,+9.92120802e-02f,+1.94432542e-01f,+1.04850993e-01f,
+1.04118861e-01f,+2.42086146e-02f,+1.92307889e-01f,+6.92148060e-02f,+4.31381278e-02f,
-1.42436042e-01f,-1.33444369e-01f,+5.63460216e-02f,+2.40900576e-01f,+8.31010863e-02f,
-1.40984446e-01f,+1.02142952e-01f,-4.64964882e-02f,-8.92707631e-02f,-1.35150563e-03f,
+1.86591849e-01f,-4.42501679e-02f,+1.89980641e-01f,+1.83051918e-02f,+1.61754377e-02f,
+4.36782464e-02f,+3.95399854e-02f,-5.40103875e-02f,-7.49442205e-02f,+3.75232920e-02f,
+1.98222827e-02f,-5.10924775e-03f,+6.09471425e-02f,+1.91943184e-01f,+8.14541206e-02f,
+4.29187454e-02f,-1.84896439e-01f,+8.58541578e-02f,-6.32275119e-02f,-5.79294227e-02f,
+2.99173504e-01f,+1.09522127e-01f,-5.83580360e-02f,+4.06572856e-02f,-6.89048171e-02f,
+6.62577525e-02f,+4.21598740e-02f,+7.34071434e-02f,+1.02052212e-01f,-6.13935199e-03f,
+1.19451605e-01f,-1.12025663e-01f,+1.00677922e-01f,-1.32936833e-03f,+5.16778827e-02f,
+1.59898773e-01f,+3.05336803e-01f,-9.39039439e-02f,+1.11707605e-01f,+6.09420240e-02f,
-8.57498869e-02f,-3.46660689e-02f,-3.50794918e-03f,+9.99605954e-02f,+2.54480004e-01f,
-1.54025674e-01f,+5.40073998e-02f,-1.63986355e-01f,+1.38159484e-01f,-1.36065409e-01f,
+1.64662838e-01f,+4.63962778e-02f,-7.61701018e-02f,-7.33997896e-02f,+6.11812621e-02f,
-1.68078765e-01f,+1.01907559e-01f,+2.42435075e-02f,+1.61909595e-01f,+1.52279705e-01f,
+1.22407265e-01f,+9.75275859e-02f,+2.36493304e-01f,-4.53838110e-02f,+1.76531658e-01f,
+1.33357450e-01f,+5.49259968e-02f,-3.31092149e-01f,+2.25747406e-01f,-1.39097035e-01f,
+1.96733568e-02f,+1.76976696e-01f,-1.36228070e-01f,-4.47970703e-02f,+3.45004760e-02f,
+8.44904333e-02f,+2.96581149e-01f,+1.03149347e-01f,-1.54843420e-01f,+2.87144799e-02f,
+1.17315166e-01f,+6.88418671e-02f,+2.64158696e-01f,+1.86022017e-02f,-2.23403677e-01f,
-1.47945791e-01f,-7.32861310e-02f,-6.69260044e-03f,+1.82274923e-01f,-9.84529871e-03f,
-9.75386053e-02f,+3.21120284e-02f,+7.23322257e-02f,+1.83637321e-01f,+2.31134653e-01f,
+1.67362671e-02f,-1.36181444e-01f,-8.55280235e-02f,+9.43363458e-02f,+2.03693926e-01f,
+4.43818010e-02f,+2.51493156e-02f,+1.61422491e-01f,+7.07644969e-02f,+3.12170144e-02f,
+1.96941290e-02f,-6.09390326e-02f,+6.33148551e-02f,-5.03372028e-02f,+1.93355769e-01f,
+2.64492244e-01f,+1.07197158e-01f,+7.33148977e-02f,+5.10133104e-03f,-1.17895961e-01f,
-1.05760405e-02f,-3.52140218e-02f,+6.80597574e-02f,-5.89992180e-02f,+3.48102689e-01f,
-5.13853207e-02f,-9.01843831e-02f,-1.28878102e-01f,+9.27150100e-02f,+8.31003040e-02f,
+6.91796094e-02f,-2.64288604e-01f,-1.26197457e-01f,+1.45347059e-01f,+3.28239473e-03f,
-2.47612938e-01f,+1.03089884e-01f,+1.49337977e-01f,+1.26927719e-01f,+1.89635694e-01f,
+3.02040845e-01f,-8.14205315e-03f,-1.19895943e-01f,-2.82224063e-02f,+1.40954107e-01f,
+4.61898074e-02f,-7.08261505e-02f,+8.28789696e-02f,+1.09281294e-01f,+1.89164117e-01f,
+3.72521840e-02f,-1.12745762e-01f,+1.92587018e-01f,-8.32558349e-02f,-4.65222001e-02f,
+2.73458939e-02f,+8.67162719e-02f,+5.01903951e-01f,+8.14391002e-02f,+3.27520259e-02f,
+1.29359663e-01f,+9.64961275e-02f,+2.06906721e-02f,-2.84183860e-01f,-1.44993206e-02f,
+9.22951102e-02f,+4.45457622e-02f,-1.30507767e-01f,+2.10500434e-01f,+9.95297655e-02f,
+1.08948164e-01f,-2.99355313e-02f,+2.17924938e-02f,+1.42029092e-01f,-8.24419111e-02f,
+1.60185508e-02f,+1.28821939e-01f,+8.56945440e-02f,+2.09482700e-01f,+3.91273797e-02f,
+2.56864786e-01f,+8.23185369e-02f,+7.45943785e-02f,+5.14311381e-02f,+7.22572953e-02f,
+1.18354112e-01f,+1.63575619e-01f,+3.37887323e-03f,+1.18966274e-01f,+1.03084125e-01f,
+5.50766923e-02f,-5.09394221e-02f,+1.41289428e-01f,+2.29368016e-01f,+9.66641977e-02f,
+1.21059373e-01f,+1.43169254e-01f,+1.33492291e-01f,+2.16353208e-01f,+1.15227528e-01f,
+1.76293865e-01f,-1.06196720e-02f,-9.37793404e-02f,+1.54529884e-01f,+4.70009707e-02f,
-1.00511983e-01f,+2.28760373e-02f,+8.54472071e-02f,+4.45869528e-02f,+8.58776271e-02f,
+1.62346419e-02f,+8.21085125e-02f,+1.64032102e-01f,+1.07792877e-01f,+1.49778351e-01f,
+5.77642233e-04f,+1.64780185e-01f,+9.87409726e-02f,+1.29694834e-01f,+1.34945989e-01f,
+9.19249058e-02f,+7.65948731e-04f,+1.43958092e-01f,+2.06909612e-01f,-1.53779117e-02f,
+5.46190403e-02f,+8.69826674e-02f,-1.48251221e-01f,-8.40331540e-02f,+2.03583576e-02f,
+2.16702670e-01f,-4.81354864e-03f,+8.57207328e-02f,+3.32914032e-02f,+5.95237426e-02f,
-6.70186197e-03f,+2.48026773e-02f,+2.23838929e-02f,+8.02025273e-02f,+1.12617508e-01f,
-9.78397354e-02f,+8.30846932e-03f,+1.62686631e-01f,+1.59947023e-01f,+1.44613842e-02f,
+5.69941662e-02f,-2.82701571e-02f,-4.36139479e-02f,+1.86712593e-01f,+1.13150373e-01f,
-7.83418566e-02f,+1.98831428e-02f,+2.46776361e-02f,+8.87961760e-02f,+1.31746918e-01f,
+1.20950483e-01f,+4.17630784e-02f,+1.35534257e-01f,+7.54271680e-03f,+2.40592092e-01f,
-1.64118275e-01f,+9.10029933e-02f,+1.53415063e-02f,+1.71775818e-01f,+4.93830889e-02f,
+8.26120228e-02f,+3.60454470e-02f,+6.35269517e-03f,-8.84748250e-02f,+1.72718838e-02f,
+1.85805887e-01f,-8.56698304e-03f,+8.38544369e-02f,+6.49909228e-02f,+5.51026594e-03f,
+1.43227637e-01f,+2.85664592e-02f,+2.00116798e-01f,+1.79573983e-01f,+3.55899371e-02f,
+6.97841421e-02f,+9.72785056e-02f,-9.88016091e-03f,+2.31735766e-01f,+6.81155026e-02f,
+9.26702544e-02f,+8.44240263e-02f,+1.35508195e-01f,+1.74795017e-01f,+6.77215904e-02f,
-1.26896396e-01f,-5.94651662e-02f,-6.25865683e-02f,+2.72765700e-02f,+5.00885732e-02f,
+1.23924389e-01f,-2.04524156e-02f,-6.69993907e-02f,-1.12956371e-02f,+1.24604039e-01f,
+2.86339968e-01f,+2.99791582e-02f,+1.06315672e-01f,+1.12727843e-01f,+9.85398814e-02f,
+5.58266975e-02f,+5.58287241e-02f,+3.27130407e-02f,+1.66438580e-01f,+5.25377579e-02f,
+2.07469091e-01f,+1.44733593e-01f,+4.10919525e-02f,+1.22292833e-02f,+9.94448364e-02f,
+3.93376388e-02f,+3.28235626e-02f,+9.56314504e-02f,+9.34229791e-02f,+1.46446377e-01f,
+1.11257799e-01f,+6.08988889e-02f,+7.78255835e-02f,+2.63659917e-02f,+7.24266022e-02f,
-2.40649786e-02f,+1.70341313e-01f,+7.26671293e-02f,+8.42209458e-02f,+6.04086444e-02f,
-4.06949520e-02f,+9.77815241e-02f,+1.28624380e-01f,+1.22438923e-01f,+3.18483487e-02f,
+2.23471075e-01f,+1.27530336e-01f,+1.01271914e-02f,+9.11683515e-02f,+6.09179661e-02f,
+1.21283211e-01f,+5.68063483e-02f,+5.50426506e-02f,+2.80796494e-02f,+5.61544821e-02f,
+8.70959684e-02f,+9.79026482e-02f,+1.03930021e-02f,+2.27913246e-01f,-5.90388253e-02f,
-4.75311838e-02f,+1.10041402e-01f,+3.06356251e-02f,+1.69660583e-01f,+9.68485475e-02f,
+2.14426368e-02f,+1.90396234e-01f,+1.22806601e-01f,+1.22292191e-01f,+1.15129076e-01f,
+7.90619031e-02f,+1.20824650e-01f,-2.30269823e-02f,+1.37130812e-01f,-5.70307337e-02f,
-1.83208343e-02f,+2.12187562e-02f,-5.77152707e-02f,-5.68679627e-03f,+9.94831175e-02f,
+1.10210694e-01f,+1.30219996e-01f,+2.21642971e-01f,-1.92580570e-03f,+1.99377522e-01f,
+3.68739739e-02f,+1.11076929e-01f,+5.01086563e-02f,+5.04346266e-02f,-1.46105215e-01f,
-9.61870328e-03f,+5.57944216e-02f,+1.32265747e-01f,+2.76492350e-02f,+1.13512278e-01f,
+5.41870184e-02f,+1.15641721e-01f,-6.49911910e-02f,+1.02948040e-01f,+7.02403933e-02f,
-4.89993440e-03f,+1.69676710e-02f,-1.22967437e-02f,+3.88866253e-02f,-1.49600226e-02f,
+8.08839127e-03f,+9.19125304e-02f,-1.21249512e-01f,+8.75982642e-02f,+1.09673172e-01f,
+1.03972703e-02f,-8.85410681e-02f,+2.32000500e-02f,-2.59199999e-02f,+2.15314310e-02f,
+1.80021241e-01f,+1.13389447e-01f,-4.51191626e-02f,+1.64523363e-01f,-3.99245508e-02f,
-5.76179214e-02f,+3.58523801e-03f,+2.53746323e-02f,+5.29758446e-02f,-5.32858493e-03f,
+6.62106127e-02f,+2.29274090e-02f,-1.47378203e-02f,-1.83596332e-02f,+2.73117483e-01f,
+1.62669346e-01f,-8.32625926e-02f,-1.00485228e-01f,-1.20754801e-01f,+5.31784929e-02f,
+4.21171114e-02f,-2.45617069e-02f,+1.45859465e-01f,+1.85465030e-02f,+1.32943302e-01f,
+8.60716328e-02f,+1.66848436e-01f,+4.32795398e-02f,-8.67042914e-02f,+7.06811249e-02f,
+9.94375497e-02f,-8.05655122e-02f,+3.96756679e-02f,+1.80587485e-01f,+1.22291502e-02f,
-9.83136985e-03f,+1.99245978e-02f,-5.08111194e-02f,+1.28657445e-01f,+5.02977669e-02f,
+1.72883555e-01f,+8.47103298e-02f,+2.49297082e-01f,-1.15485862e-01f,+1.31210476e-01f,
+1.25912219e-01f,+1.45224318e-01f,+1.18259393e-01f,-3.23793031e-02f,+1.54513329e-01f,
+2.35568434e-01f,+8.83879978e-03f,+2.16829292e-02f,+1.54386148e-01f,-2.36255978e-03f,
-6.95821792e-02f,+5.79043664e-02f,+2.33423873e-03f,+1.16380677e-01f,+1.25189751e-01f,
+1.74185112e-02f,+6.60066158e-02f,+1.74004696e-02f,-8.92947242e-02f,+4.36078608e-02f,
+1.29803136e-01f,+8.89902189e-02f,+1.29205599e-01f,+2.95865506e-01f,+1.09106399e-01f,
+2.00651005e-01f,-4.49776240e-02f,+1.30927861e-01f,+2.89753437e-01f,+1.18216738e-01f,
-3.37173566e-02f,-6.06403239e-02f,+2.03669116e-01f,+1.24897666e-01f,+8.98358226e-02f,
+1.35979265e-01f,+9.27768126e-02f,+1.92828685e-01f,+1.86886206e-01f,+9.87309664e-02f,
+2.69656405e-02f,+4.13166098e-02f,-2.78138882e-03f,+3.40525538e-01f,+4.28826511e-02f,
-4.06464562e-02f,-2.06775237e-02f,-1.01309814e-01f,+1.81237310e-02f,+3.46253619e-05f,
+6.83999434e-02f,-2.01648381e-02f,+3.79053444e-01f,+1.35302410e-01f,+1.84524968e-01f,
+6.16284758e-02f,+3.00028641e-02f,+1.84217364e-01f,+7.24735260e-02f,-7.51449391e-02f,
+1.36824176e-01f,+3.88944289e-03f,-7.79702701e-03f,+9.24840793e-02f,+7.43498653e-02f,
+4.25508209e-02f,+2.32840508e-01f,+1.30046710e-01f,+1.15579970e-01f,+6.76517636e-02f,
+1.93625525e-01f,+2.86625206e-01f,-7.74580473e-03f,-4.13119569e-02f,+3.08939040e-01f,
+3.92470956e-02f,+8.70003924e-02f,+2.73511142e-01f,+6.02392219e-02f,-3.25030200e-02f,
-2.13782802e-01f,-4.18266542e-02f,-9.61400941e-02f,+8.37179720e-02f,-2.84922626e-02f,
-5.00486270e-02f,-1.52676506e-02f,+5.26604354e-02f,+2.55664617e-01f,-7.43262544e-02f,
+2.66450256e-01f,+3.53947356e-02f,+1.40150458e-01f,+1.16941087e-01f,+1.44772589e-01f,
+1.11011202e-02f,+8.00145492e-02f,-2.18110994e-01f,+5.31061180e-02f,+1.94057330e-01f,
+1.38041943e-01f,+1.89125970e-01f,-6.86421022e-02f,-3.17291990e-02f,+2.33830765e-01f,
-9.74093005e-02f,+2.09726512e-01f,+7.22011924e-02f,+1.18721187e-01f,+4.85806540e-02f,
-8.40674862e-02f,+1.80724502e-01f,-8.58372971e-02f,+2.22405016e-01f,-1.76893398e-01f,
+1.81767251e-02f,+1.65402979e-01f,+1.17009923e-01f,+1.39832854e-01f,-7.95146748e-02f,
+1.33521333e-01f,-1.26611084e-01f,-1.01732038e-01f,+6.42286688e-02f,-1.64214388e-01f,
+4.83201966e-02f,+5.55941202e-02f,+6.26265779e-02f,+1.11804627e-01f,+6.96798488e-02f,
+1.37383163e-01f,+4.80275191e-02f,+1.80070609e-01f,+1.98970035e-01f,+1.90357074e-01f,
+9.11410674e-02f,+5.03131077e-02f,+2.36750320e-01f,-1.41055912e-01f,+8.19384158e-02f,
+1.69157118e-01f,-9.91503447e-02f,+1.64808915e-03f,+4.37228754e-02f,+1.72387943e-01f,
+7.65683725e-02f,+5.40169142e-02f,+2.89444655e-01f,+6.36242554e-02f,-4.71461518e-03f,
+1.23964481e-01f,-1.49407471e-02f,+1.85574502e-01f,-1.70598432e-01f,-1.65440459e-02f,
+1.71308041e-01f,+2.42909059e-01f,+9.04869437e-02f,+1.02653258e-01f,+2.60961652e-01f,
+5.11954501e-02f,+1.29393384e-01f,-9.16267484e-02f,+1.48405820e-01f,-1.55012375e-02f,
+1.95664875e-02f,+4.88960892e-02f,+8.84487703e-02f,+7.52238333e-02f,+6.99121132e-02f,
-3.86666767e-02f,-8.99599046e-02f,+1.17348723e-01f,+8.60943459e-04f,+5.93365394e-02f,
+2.10132241e-01f,+6.79405704e-02f,+2.51730502e-01f,+1.15493052e-02f,+1.70767233e-01f,
+2.57789344e-01f,-3.59059013e-02f,+1.34981498e-01f,+3.11409067e-02f,+2.62792557e-01f,
+1.13172144e-01f,+7.78194517e-02f,+8.90874043e-02f,+3.59194455e-05f,-1.49868309e-01f,
+1.84157938e-01f,+2.30961427e-01f,-1.03580177e-01f,+1.31150618e-01f,+1.22200467e-01f,
+1.59508288e-01f,+6.20749108e-02f,+2.00399131e-01f,+1.10422559e-02f,+1.60957232e-01f,
+8.46192762e-02f,+1.09644674e-01f,+1.28650695e-01f,-2.07237732e-02f,+7.81655610e-02f,
+1.24802001e-01f,+8.10089037e-02f,+2.23874807e-01f,+1.38675094e-01f,+3.36580247e-01f,
+8.74878690e-02f,+6.03513680e-02f,+2.10135221e-01f,+1.68919787e-01f,+1.55577555e-01f,
+4.05205898e-02f,+1.12949997e-01f,+2.39382014e-01f,+1.31039649e-01f,+1.73628464e-01f,
+7.01238960e-02f,+2.88917720e-02f,+2.06677560e-02f,-1.41134098e-01f,+6.31615892e-02f,
-1.40193310e-02f,-1.18068997e-02f,+1.22741535e-01f,+9.33860987e-02f,-1.52410075e-01f,
+3.36892903e-02f,+1.52590036e-01f,+1.53475404e-01f,+5.78272268e-02f,+2.68477708e-01f,
+1.42938480e-01f,+1.50446510e-02f,+1.14750758e-01f,-1.00709987e-03f,+9.09493640e-02f,
+5.04241064e-02f,+1.49725050e-01f,-2.33564209e-02f,+1.41750351e-01f,+1.50723204e-01f,
+1.93849623e-01f,+8.64184275e-03f,+2.34597400e-01f,+2.07814008e-01f,+1.46278128e-01f,
+1.25825435e-01f,-4.72257892e-03f,+9.61178169e-02f,+1.32603243e-01f,+7.37763420e-02f,
-6.23542257e-02f,+1.07401393e-01f,+1.18517838e-01f,+1.30565420e-01f,+1.30353883e-01f,
+1.75619170e-01f,+2.61873268e-02f,+1.42494142e-01f,+2.83554018e-01f,+1.77430019e-01f,
-1.32436957e-02f,+1.62321940e-01f,-1.54075295e-01f,+1.22086167e-01f,+4.56971442e-03f,
+8.65953863e-02f,-6.88790902e-02f,+1.02258503e-01f,+3.85545008e-02f,-2.72692386e-02f,
+4.18587402e-02f,+1.90034047e-01f,-2.10280158e-02f,+1.38766795e-01f,+3.61463845e-01f,
+1.14488274e-01f,+7.96820074e-02f,+6.35178536e-02f,-1.51079521e-01f,+9.16919336e-02f,
+1.63904086e-01f,+2.28314966e-01f,+6.40326142e-02f,-7.14083388e-02f,+2.70781815e-01f,
+1.31835073e-01f,+4.76652049e-02f,+1.46373957e-01f,-9.70153895e-04f,+1.67841703e-01f,
-4.02117297e-02f,+6.63756803e-02f,+1.05158940e-01f,+3.23205180e-02f,+1.37465358e-01f,
+6.17718673e-04f,-5.91706485e-02f,+1.71949923e-01f,+6.16442040e-02f,+1.00936312e-02f,
+2.51465082e-01f,+2.79843420e-01f,+8.38981755e-03f,+8.02509412e-02f,-4.83610034e-02f,
+5.93479574e-02f,-7.91794155e-04f,+2.17052400e-01f,+7.94096664e-03f,-1.15914196e-02f,
+9.99141186e-02f,+7.15763913e-03f,+1.43226618e-02f,-7.87999108e-02f,+1.35203078e-01f,
+2.49737218e-01f,+2.42910847e-01f,+1.15318604e-01f,-1.94143411e-02f,+1.23008713e-01f,
+1.21007554e-01f,+2.61132449e-01f,+1.18649878e-01f,+6.91267401e-02f,+3.24138105e-01f,
+8.45785311e-04f,+7.42423981e-02f,+1.25753522e-01f,+6.77904263e-02f,+5.91154285e-02f,
-8.72313883e-03f,+1.81233987e-01f,+1.40292168e-01f,+8.17748457e-02f,+1.98811635e-01f,
+2.45917719e-02f,+4.91480939e-02f,+1.83946922e-01f,+1.82164609e-01f,+2.63716102e-01f,
+1.00299925e-01f,+6.24719709e-02f,+4.54818159e-02f,+2.01397792e-01f,+1.60836175e-01f,
+7.85748214e-02f,+3.27648938e-01f,+1.14950076e-01f,+2.38263402e-02f,+1.10149547e-01f,
+2.96366699e-02f,+3.70990783e-02f,-1.58515692e-01f,+1.17893510e-01f,+1.55583471e-01f,
-2.01219339e-02f,+1.93489045e-01f,+3.16135809e-02f,+1.60075471e-01f,+7.08009698e-04f,
+1.45811453e-01f,+1.00853369e-01f,+2.39815772e-01f,-7.62520358e-02f,-5.30295670e-02f,
+5.39060682e-02f,+7.14472076e-03f,+1.53917506e-01f,-1.15065686e-01f,+1.07405767e-01f,
-1.42796580e-02f,-4.10899557e-02f,+2.49580089e-02f,-7.88288489e-02f,-1.69304654e-01f,
+1.23648167e-01f,-9.43787489e-03f,-3.96617353e-02f,-1.84028104e-01f,-2.09041044e-01f,
+3.16365927e-01f,-3.23050112e-01f,+5.36341295e-02f,+3.03092021e-02f,-8.87949988e-02f,
-5.34715839e-02f,+3.16725112e-02f,-4.06031795e-02f,+1.47218993e-02f,+2.18512658e-02f,
-2.87574902e-02f,-2.78637022e-01f,+6.40327930e-02f,+2.33510017e-01f,-3.40869948e-02f,
+1.41697441e-04f,-1.99308693e-02f,+4.87648249e-02f,+9.64051038e-02f,+3.72438170e-02f,
-1.05386078e-01f,+1.18081801e-01f,-3.70361395e-02f,+1.15313053e-01f,+1.02690108e-01f,
+4.60456945e-02f,-3.67043796e-03f,+1.68806896e-01f,+6.71670884e-02f,-2.35986188e-01f,
-5.43305762e-02f,-2.45382994e-01f,+2.12720767e-01f,-1.56240631e-02f,+1.52054681e-02f,
+7.08985552e-02f,+3.95282835e-01f,+1.33722335e-01f,-9.09609273e-02f,-5.74846305e-02f,
-1.67557195e-01f,+2.62683514e-03f,-2.38084787e-04f,-7.74880201e-02f,+1.69965342e-01f,
+1.59879506e-01f,+4.59930524e-02f,-4.85165268e-02f,+3.71643901e-02f,+1.08580761e-01f,
-1.16850911e-02f,+2.54005730e-01f,-3.03676748e-03f,-6.05613999e-02f,+1.03841551e-01f,
-1.24945706e-02f,+3.09043646e-01f,+1.27534539e-01f,-7.15447515e-02f,-5.62835531e-03f,
+2.05603987e-01f,+8.18282738e-02f,-1.46823777e-02f,+1.72789887e-01f,+8.47161561e-02f,
+2.50971198e-01f,+9.10295397e-02f,-5.21100461e-02f,+5.15927449e-02f,-7.17408210e-02f,
-8.23615771e-03f,+5.38041629e-02f,-9.59372744e-02f,-1.49527416e-01f,-9.60456729e-02f,
-1.64946407e-01f,-6.10350408e-02f,+6.72794580e-02f,+1.92744937e-02f,+8.67711306e-02f,
+1.81776613e-01f,+2.44467705e-01f,+2.75215954e-01f,+9.56615880e-02f,+9.19658914e-02f,
+6.87991753e-02f,-4.80205826e-02f,+1.12839915e-01f,+1.72061369e-01f,+9.71822143e-02f,
+1.76559657e-01f,-2.63825078e-02f,+1.81302547e-01f,-9.89678949e-02f,-8.03107023e-02f,
-1.53155774e-01f,+2.08653539e-01f,+3.13206166e-02f,-1.03249729e-01f,+4.96006310e-02f,
-1.00233607e-01f,+4.51610163e-02f,+1.09187365e-02f,+6.75994456e-02f,+1.17835611e-01f,
+3.38625312e-01f,-1.65406931e-02f,-2.41689906e-01f,+1.11985862e-01f,+8.72103032e-03f,
+2.93430299e-01f,+6.16511889e-02f,-1.37919694e-01f,-7.86356106e-02f,+4.60485145e-02f,
+4.64992821e-02f,+1.39790162e-01f,+4.01930064e-01f,+1.06407925e-01f,+1.33428406e-02f,
+5.01921214e-02f,+2.12348595e-01f,+2.02095360e-02f,+1.79599404e-01f,+1.05728902e-01f,
+2.86274739e-02f,+3.71571332e-02f,+6.44526705e-02f,+1.26371726e-01f,+8.02194551e-02f,
-4.33305651e-02f,-1.28025740e-01f,-8.43022466e-02f,+1.38199225e-01f,-4.93993573e-02f,
+1.02797002e-01f,+2.39394590e-01f,+4.81961109e-02f,-1.44471779e-01f,-5.89303812e-03f,
+6.00743704e-02f,+9.58227441e-02f,+2.38025010e-01f,-2.93836091e-02f,-6.51225150e-02f,
+1.35057375e-01f,-6.72865938e-03f,-4.49045897e-02f,-1.08656190e-01f,+1.07354909e-01f,
-3.20105046e-01f,-3.05069294e-02f,+1.55710906e-01f,+1.40240297e-01f,-1.27806449e-02f,
+1.35161251e-01f,-1.56468585e-01f,-3.23037095e-02f,-2.55729049e-01f,-2.29585413e-02f,
+8.70000720e-02f,+1.54114574e-01f,+2.63316065e-01f,+1.81476995e-01f,+5.93424477e-02f,
+7.31985494e-02f,-4.30056592e-03f,-2.18088645e-02f,+2.60453999e-01f,+2.08781540e-01f,
+3.38398740e-02f,-7.71354809e-02f,+1.52673468e-01f,-1.86121881e-01f,-9.04874578e-02f,
+2.23694816e-01f,-9.04635862e-02f,+1.74157932e-01f,-1.18490607e-02f,-1.08603336e-01f,
+6.33854419e-02f,+2.34056979e-01f,+1.99926138e-01f,-1.57536060e-01f,-6.78694323e-02f,
+8.38922113e-02f,-1.03589527e-01f,-3.31762130e-04f,-8.87531228e-03f,+1.12970322e-02f,
+7.60840951e-04f,+1.32082507e-01f,+1.79782175e-02f,+1.44216701e-01f,+5.07073820e-01f,
-3.85260326e-04f,-1.11159094e-01f,+1.04556300e-01f,-6.14910163e-02f,-1.35876730e-01f,
+1.79835498e-01f,+2.60165818e-02f,+2.89256155e-01f,-7.41473958e-02f,-5.21753989e-02f,
-2.67029405e-01f,+1.71097994e-01f,-8.57187584e-02f,+7.84130916e-02f,-5.33227101e-02f,
+2.20480546e-01f,+6.85252100e-02f,+1.10142538e-02f,+1.62100211e-01f,+1.71250328e-01f,
-1.74089625e-01f,-1.14665218e-01f,+1.87831566e-01f,+3.93105336e-02f,+1.20762430e-01f,
+5.07157408e-02f,-1.71287075e-01f,-1.95441231e-01f,+2.79181361e-01f,+2.57573605e-01f,
+9.35694799e-02f,-3.57714929e-02f,+6.70109168e-02f,+2.31858045e-01f,-2.71501392e-01f,
+8.31251964e-03f,+9.21390578e-02f,-5.44704013e-02f,-1.00751650e-02f,+2.68093705e-01f,
+1.41543038e-02f,+8.76042992e-02f,+7.44802952e-02f,+4.97979065e-03f,+2.53313810e-01f,
+1.04659162e-01f,-1.52895480e-01f,+1.00773484e-01f,+2.34519858e-02f,+2.25222945e-01f,
-1.68775886e-01f,+1.30235523e-01f,-1.67947784e-02f,+4.27076742e-02f,-2.20434815e-02f,
+1.42526954e-01f,-4.80832271e-02f,-1.64036438e-01f,-1.70519471e-01f,+7.62780905e-02f,
-1.06508508e-02f,+1.08533651e-01f,+9.00733694e-02f,-1.84306905e-01f,-5.29390760e-03f,
-1.32934332e-01f,+4.69694994e-02f,+1.57759592e-01f,-7.41767362e-02f,-4.97775227e-02f,
-9.07793790e-02f,-1.09582894e-01f,+7.85837397e-02f,+1.57952249e-01f,-7.50666391e-03f,
+1.10367447e-01f,+1.36181638e-01f,-4.07600850e-02f,-1.92045778e-01f,-2.23555788e-02f,
+9.69797671e-02f,-1.86830980e-03f,+6.45466745e-02f,+1.04194820e-01f,-1.62250951e-01f,
-3.55015770e-02f,+7.57177398e-02f,-1.56267390e-01f,-1.02191165e-01f,+2.51555834e-02f,
+7.96819851e-02f,-4.26201411e-02f,-1.72010556e-01f,+6.17679767e-02f,+3.67536210e-02f,
-1.74792141e-01f,+1.64502487e-03f,-2.83159083e-03f,-9.29480493e-02f,+1.05137810e-01f,
+2.89591223e-01f,+3.13933432e-01f,-3.16696018e-02f,+1.09439872e-01f,+1.34960145e-01f,
+3.20549533e-02f,+1.97383016e-01f,+3.04226801e-02f,+6.68540969e-02f,+6.03896566e-02f,
+1.49287388e-01f,+1.91527143e-01f,+5.70025109e-02f,+3.00828516e-02f,+6.66603297e-02f,
+3.67747813e-01f,-9.32329819e-02f,+7.74820335e-03f,+2.84882970e-02f,+6.82878345e-02f,
+7.88377225e-02f,+1.59102187e-01f,+1.46565512e-01f,+1.66278630e-01f,-5.85739538e-02f,
-2.92124283e-02f,+1.74580589e-01f,+3.13449204e-02f,+1.42002165e-01f,+1.69316381e-01f,
+3.86667773e-02f,-3.66216041e-02f,-1.51406443e-02f,-1.36573941e-01f,+1.55370727e-01f,
-1.83028691e-02f,+8.83112252e-02f,+5.07272780e-02f,+2.42273152e-01f,+1.01668112e-01f,
+1.38720587e-01f,-1.87917084e-01f,+1.30193383e-01f,-7.61862621e-02f,-2.19920278e-02f,
-1.11798281e-02f,-1.10147491e-01f,+5.30961715e-03f,+2.76900027e-02f,+4.94293682e-02f,
-1.11383133e-01f,+7.76064098e-02f,+2.12689005e-02f,-9.73077938e-02f,-9.22365934e-02f,
+1.67254716e-01f,+1.31755516e-01f,-6.59312159e-02f,+3.24517846e-01f,+1.87449664e-01f,
+2.25327983e-01f,+1.11364424e-01f,+2.09294468e-01f,+1.72811285e-01f,+5.53344898e-02f,
+2.27224827e-02f,+6.88601658e-02f,+1.82057410e-01f,-1.72480885e-02f,+1.70219555e-01f,
-6.71245903e-02f,-1.93387754e-02f,-1.14353292e-01f,+8.76947939e-02f,+1.40793145e-01f,
+7.67838806e-02f,-7.50225559e-02f,-1.37677819e-01f,+8.81797001e-02f,+6.56858236e-02f,
+2.29282621e-02f,+3.15975919e-02f,+2.82278508e-02f,+9.48434472e-02f,+2.29864448e-01f,
+1.01072662e-01f,-4.56381366e-02f,-1.30045325e-01f,+2.30418853e-02f,+3.38784158e-02f,
+9.23944488e-02f,+5.42226322e-02f,-2.92322040e-02f,+1.59673095e-01f,+3.93000767e-02f,
+2.76708037e-01f,-5.15362583e-02f,+5.64131653e-03f,+2.49973312e-02f,+5.74698746e-02f,
-2.82480456e-02f,+2.14480549e-01f,+2.80524999e-01f,+1.63284659e-01f,+2.64011800e-01f,
+1.12546675e-01f,+2.40005910e-01f,-4.21066172e-02f,+1.71671584e-01f,+1.12786151e-01f,
+4.33844924e-02f,-2.14808285e-01f,-3.18064056e-02f,+1.72451332e-01f,+1.23440042e-01f,
+2.05499247e-01f,-5.32508269e-02f,+6.26199841e-02f,-1.16539396e-01f,+8.27675536e-02f,
+7.98953250e-02f,+1.02902777e-01f,+3.27300802e-02f,+1.14156671e-01f,+9.52545777e-02f,
-9.59968418e-02f,+1.05379120e-01f,+1.71080115e-03f,-2.86052488e-02f,+2.92281836e-01f,
+9.82606485e-02f,+2.99722105e-02f,-5.97324893e-02f,-1.02417395e-01f,-6.09832034e-02f,
-3.30825076e-02f,+1.11190163e-01f,+1.82765186e-01f,-1.95494872e-02f,+2.42226258e-01f,
+1.26443371e-01f,+1.22601703e-01f,+7.51961991e-02f,+3.07868607e-02f,+1.82806909e-01f,
+1.03546835e-01f,+4.21224177e-01f,+1.17471024e-01f,-1.35348424e-01f,+1.57457273e-02f,
+1.91505030e-01f,-4.72448813e-03f,+1.32761464e-01f,+1.36479974e-01f,-7.64643401e-02f,
+1.84714273e-01f,+2.54504591e-01f,+8.01907405e-02f,+7.83105791e-02f,+1.23638578e-01f,
+1.16200365e-01f,+2.20582224e-02f,-3.21085192e-02f,+2.05459222e-01f,+2.26466849e-01f,
-1.11866472e-02f,+1.47546813e-01f,+1.52577177e-01f,+3.77444699e-02f,+1.65062472e-02f,
+2.02565014e-01f,+1.17591433e-01f,+1.61186039e-01f,+1.17479734e-01f,-9.28768665e-02f,
+6.56613484e-02f,+1.88357681e-01f,+1.27270907e-01f,+8.56472999e-02f,+2.37141922e-01f,
+2.93049693e-01f,-8.50281715e-02f,+6.55359179e-02f,+8.52547772e-03f,+6.31286651e-02f,
-3.33678089e-02f,+1.91825226e-01f,-7.56055787e-02f,+3.07040215e-02f,-4.62117903e-02f,
+1.42734766e-01f,+2.45103445e-02f,+1.76374003e-01f,-6.82128593e-02f,-1.49809001e-02f,
+1.61785454e-01f,+1.47650555e-01f,-6.13036714e-02f,+1.79674640e-01f,+2.73394972e-01f,
+2.04525784e-01f,-2.50063725e-02f,+2.89605230e-01f,+1.08473532e-01f,+6.62238076e-02f,
+7.30041191e-02f,-2.24326532e-02f,+1.68914050e-01f,+5.61478063e-02f,+2.14695215e-01f,
-2.33625397e-01f,+1.65187776e-01f,+2.86297679e-01f,+1.12247624e-01f,+1.66653812e-01f,
+1.63324833e-01f,+5.54718934e-02f,-2.90683545e-02f,-1.82793308e-02f,+2.45914534e-01f,
-4.40501124e-02f,+1.68524176e-01f,-2.15129703e-02f,+1.89609528e-01f,+5.79193793e-02f,
+7.21429661e-02f,+1.24709092e-01f,+1.10347569e-01f,+3.25254351e-01f,-8.93410370e-02f,
+1.41788587e-01f,+1.99970216e-01f,-1.69489548e-01f,+2.30903774e-02f,+3.78421471e-02f,
+7.82199278e-02f,-3.43813859e-02f,+1.14353381e-01f,+6.29112124e-02f,-7.70003274e-02f,
-1.39163330e-01f,-6.13326877e-02f,+1.13290086e-01f,+1.01208016e-01f,+1.37095064e-01f,
+1.35120258e-01f,-7.41450042e-02f,+2.81989515e-01f,-2.92107929e-03f,+5.81965744e-02f,
+1.85283482e-01f,-5.21272123e-02f,-4.31650411e-03f,+1.90815747e-01f,-1.41014159e-01f,
-3.69419418e-02f,-9.32990015e-03f,+2.36873507e-01f,-8.74965787e-02f,+1.16230920e-01f,
-2.13318523e-02f,+1.46370709e-01f,+1.90949306e-01f,+7.97940493e-02f,+2.08404344e-02f,
-1.30226374e-01f,+9.78243649e-02f,+1.26567096e-01f,-2.65235696e-02f,+1.82138592e-01f,
+1.71364769e-01f,+1.21177882e-01f,+4.14487384e-02f,+1.33065626e-01f,+2.43623585e-01f,
-1.15256622e-01f,+1.94610693e-02f,+5.61698489e-02f,+5.07384837e-02f,+2.00858638e-01f,
+1.29124269e-01f,+5.96123673e-02f,+8.54641050e-02f,+2.72699475e-01f,+5.10571152e-02f,
-8.71919543e-02f,+1.45569459e-01f,+2.52919942e-01f,+1.30917147e-01f,+2.64260262e-01f,
+5.19504026e-02f,-9.34297517e-02f,-3.99204455e-02f,+1.56802341e-01f,+9.82423276e-02f,
+1.37694255e-01f,+4.96045426e-02f,+2.34112784e-01f,+3.17422077e-02f,-1.25079766e-01f,
+3.48797999e-02f,-1.27292827e-01f,+1.46369040e-01f,+3.03107709e-01f,+1.15718141e-01f,
+3.44238251e-01f,+2.32650399e-01f,+5.52542955e-02f,-1.12619527e-01f,+1.07731752e-01f,
-1.41063124e-01f,-1.11082681e-01f,+1.44390494e-01f,+2.20407471e-01f,-4.78483289e-02f,
+9.63189974e-02f,-1.11272320e-01f,+1.62052289e-01f,+7.63002736e-03f,-2.47082729e-02f,
+2.08413884e-01f,+1.70607176e-02f,+5.18019125e-02f,+1.93278298e-01f,+2.49603949e-02f,
+7.11203516e-02f,+1.53039405e-02f,+1.57063559e-01f,+1.35856820e-02f,+5.40549271e-02f,
+7.02077076e-02f,+8.43664724e-03f,-1.34299591e-01f,+1.56737790e-01f,+1.93416759e-01f,
+3.43567133e-01f,+1.07713945e-01f,+7.95009583e-02f,+2.80955173e-02f,+1.52471364e-01f,
+6.33002967e-02f,-5.00943102e-02f,-1.34694036e-02f,-1.48081273e-01f,-1.16161471e-02f,
-2.56527588e-02f,-1.76704258e-01f,+8.55805725e-02f,+1.46130353e-01f,+7.81241134e-02f,
+8.68781358e-02f,-9.41697881e-02f,-1.50743827e-01f,-1.05264433e-01f,-8.90650824e-02f,
+1.25808656e-01f,+3.53949890e-02f,+1.37302712e-01f,-6.92423582e-02f,-1.01788202e-02f,
-2.94478796e-02f,+2.49867421e-02f,-4.58215401e-02f,+1.55382510e-02f,-1.43143430e-01f,
+7.32567236e-02f,+8.30201358e-02f,-4.94399704e-02f,+2.00990159e-02f,-7.60515705e-02f,
+1.15595251e-01f,+2.37271637e-01f,-2.08890159e-02f,-8.54467973e-02f,+2.27096193e-02f,
+9.51931402e-02f,-5.36787622e-02f,-1.22953057e-01f,-3.19815986e-03f,-7.17930612e-04f,
-4.71492203e-05f,+1.46323130e-01f,+4.67919298e-02f,+2.95147628e-01f,-2.95991451e-01f,
+2.12672293e-01f,+1.57334194e-01f,+6.26893282e-01f,+9.65123251e-02f,+2.87663758e-01f,
+2.27041185e-01f,-1.46008953e-01f,+1.17072634e-01f,+1.55604392e-01f,-2.43204646e-02f,
+4.84608226e-02f,-6.50365204e-02f,-7.19673932e-02f,+7.68316537e-02f,+1.53806761e-01f,
-2.57760286e-02f,-7.01983571e-02f,-1.95655346e-01f,+3.77161354e-02f,+1.94719121e-01f,
+5.43004423e-02f,+3.46052870e-02f,-6.19652383e-02f,+1.02546280e-02f,+3.59834999e-01f,
-1.41069353e-01f,+1.43243432e-01f,+1.58061892e-01f,+3.00249636e-01f,-2.71023232e-02f,
+1.47803664e-01f,+4.22467776e-02f,+1.28705978e-01f,+2.65021145e-01f,+1.40880257e-01f,
+2.57674485e-01f,+8.13793093e-02f,+2.84991264e-02f,+4.08904962e-02f,+1.45434022e-01f,
+5.52750453e-02f,+7.24535212e-02f,+2.56342925e-02f,+7.67347291e-02f,-8.43287483e-02f,
+6.69155419e-02f,+6.52268231e-02f,-7.56469555e-03f,+1.23352446e-01f,+1.40363306e-01f,
+1.40024588e-01f,-1.52467579e-01f,+6.10190704e-02f,+2.12190766e-02f,+9.61719155e-02f,
+3.11388820e-01f,+2.64732271e-01f,-7.50760511e-02f,+1.15400953e-02f,-6.68811351e-02f,
+6.18919134e-02f,+2.65381008e-01f,-4.74835820e-02f,-1.31117776e-01f,+1.14443474e-01f,
-6.13798499e-02f,-2.03509465e-01f,+5.89866750e-03f,-3.52037251e-01f,+6.36681467e-02f,
+3.85401994e-02f,+3.39666784e-01f,+1.02105722e-01f,+1.44236103e-01f,+1.05319224e-01f,
-2.52592593e-01f,+2.09512189e-01f,+8.89921039e-02f,+3.25121999e-01f,-5.48409112e-03f,
+2.31983699e-02f,-3.32803905e-01f,+4.45416868e-02f,-6.42249882e-02f,+3.91721278e-01f,
+5.41344404e-01f,+1.03565231e-01f,+1.95945486e-01f,+1.06057726e-01f,+2.02466086e-01f,
+4.30936106e-02f,+1.92208335e-01f,+5.26145361e-02f,+1.29017264e-01f,+8.57557282e-02f,
+2.56699906e-03f,-4.01368067e-02f,+6.68159649e-02f,+4.60513942e-02f,-6.67176209e-03f,
-2.55613551e-02f,+1.70013085e-01f,-1.41103312e-01f,+1.87685177e-01f,+9.32708904e-02f,
+9.11874920e-02f,-1.20513886e-01f,-1.51743203e-01f,+4.39630374e-02f,+3.86323303e-01f,
-4.41798940e-02f,+1.52086109e-01f,-5.43027930e-02f,+6.12166896e-02f,-6.14057407e-02f,
+7.36401081e-02f,-1.90627612e-02f,+9.65028033e-02f,-1.42068893e-01f,-2.52739359e-02f,
+7.73945227e-02f,-5.21255992e-02f,-3.75826098e-02f,+4.97699231e-02f,+7.85355177e-03f,
-2.18666922e-02f,-1.05293319e-01f,-1.29094347e-01f,-5.18169366e-02f,+5.29249273e-02f,
+3.11079770e-01f,+9.58519131e-02f,+2.86351820e-03f,+9.69358981e-02f,-7.79225603e-02f,
-1.63616873e-02f,+2.76765049e-01f,+2.23241940e-01f,+1.57535285e-01f,+4.70476076e-02f,
-7.48650823e-03f,-1.41909361e-01f,+3.48947011e-02f,+3.95528898e-02f,+1.15407519e-01f,
+1.16442278e-01f,+4.37104292e-02f,-2.59023041e-01f,-9.50330645e-02f,+1.95582435e-01f,
-2.40092818e-02f,+1.54393747e-01f,-2.51731634e-01f,+1.91053614e-01f,+3.09903234e-01f,
-3.83913405e-02f,-3.48263457e-02f,-9.61174294e-02f,+1.03299811e-01f,+4.19884384e-01f,
+1.49016663e-01f,+2.36218378e-01f,+4.98509079e-01f,-1.86185956e-01f,+2.81576246e-01f,
-1.14051856e-01f,-1.68162867e-01f,-3.22504908e-01f,+7.26838261e-02f,+1.61821589e-01f,
-8.09273198e-02f,+1.24693409e-01f,+6.12552725e-02f,+1.50666729e-01f,+2.33901501e-01f,
+1.24669872e-01f,-9.54623967e-02f,-1.58613417e-02f,+2.25916021e-02f,+7.23061115e-02f,
+3.60432535e-01f,+8.59669372e-02f,+1.42997906e-01f,-7.48910382e-02f,+7.57576227e-02f,
-3.65276486e-02f,+1.45689949e-01f,+1.16809078e-01f,-1.90063924e-01f,-9.36343893e-03f,
-1.55197620e-01f,+4.01009709e-01f,+6.23230077e-02f,-1.60888974e-02f,+7.28531107e-02f,
+1.32761866e-01f,+1.00847870e-01f,-6.07032701e-02f,-4.13924828e-02f,-1.30109742e-01f,
+9.75892618e-02f,-9.11144465e-02f,+1.54855937e-01f,-2.96740457e-02f,-2.07337037e-01f,
-3.26065645e-02f,-4.26907763e-02f,+4.15649228e-02f,+7.42737353e-02f,+5.37519380e-02f,
-2.55761705e-02f,+6.75206184e-02f,-6.87732249e-02f,+1.60429478e-01f,+8.95237327e-02f,
-1.20110819e-02f,+1.75840423e-01f,-1.83736384e-01f,-6.81553334e-02f,-1.52460322e-01f,
+1.50478452e-01f,+4.83757891e-02f,-1.48797587e-01f,+1.83093280e-01f,+3.72665524e-02f,
-1.24832943e-01f,+4.84457463e-02f,+2.92007700e-02f,-2.32683152e-01f,+2.27727577e-01f,
+1.24702595e-01f,+5.91921993e-02f,-5.61216585e-02f,-1.90353334e-01f,-2.03824803e-01f,
+8.78743678e-02f,-1.69055641e-01f,-3.44648063e-02f,-1.83473811e-01f,+5.54750152e-02f,
-8.31156131e-03f,+1.56041533e-01f,-1.78854272e-01f,+5.23101017e-02f,+2.10309297e-01f,
+1.22779891e-01f,-5.21398038e-02f,-8.21777806e-02f,-1.82333998e-02f,-1.07906349e-02f,
-1.02620900e-01f,+5.29825836e-02f,+6.19107001e-02f,+1.27325952e-01f,-1.35399215e-02f,
-3.01849723e-01f,-5.64280190e-02f,+5.39385453e-02f,-2.33465478e-01f,-6.07753396e-02f,
-1.50012314e-01f,+6.13135174e-02f,+2.72009224e-01f,+4.73740220e-01f,-6.35633767e-02f,
-4.06154841e-02f,+1.23699389e-01f,+3.91890854e-02f,-3.11122060e-01f,-1.38409123e-01f,
+1.76894695e-01f,+1.38404757e-01f,-1.63323916e-02f,+9.64982882e-02f,+1.14900261e-01f,
+6.83508217e-02f,+1.97151885e-03f,+3.79063413e-02f,+1.42040133e-01f,-1.31854773e-01f,
+1.73155870e-02f,+1.79843783e-01f,-5.59946559e-02f,+2.54385620e-01f,+2.22547129e-02f,
+6.94190040e-02f,+1.39616236e-01f,+8.90582129e-02f,-4.32994254e-02f,-6.42967038e-03f,
+1.18813038e-01f,+2.91858226e-01f,+5.09034507e-02f,+1.08179770e-01f,+3.32201384e-02f,
+2.34677400e-02f,-1.31788447e-01f,+7.35242888e-02f,+1.17819898e-01f,+9.36227366e-02f,
+6.61039799e-02f,+1.09147035e-01f,+2.38943875e-01f,+1.14650801e-01f,+9.67568085e-02f,
+5.11458963e-02f,+2.77430266e-02f,+9.32766274e-02f,+1.02428958e-01f,+3.14784124e-02f,
-1.62767489e-02f,+1.41126826e-01f,+5.72251752e-02f,+1.74128059e-02f,+1.08458802e-01f,
+9.53335389e-02f,+7.61685595e-02f,-6.34655431e-02f,+5.67151345e-02f,+1.71518996e-01f,
-1.28527405e-02f,+1.21056795e-01f,-1.67877693e-02f,+9.10862312e-02f,-1.09522820e-01f,
-6.24160767e-02f,-3.00872684e-01f,+2.08618626e-01f,-5.72075211e-02f,-1.38504967e-01f,
-5.07340543e-02f,-1.27745971e-05f,-5.18473126e-02f,+1.54239461e-01f,+1.15697868e-01f,
-6.89606890e-02f,+9.40108895e-02f,+1.26625476e-02f,+9.76424515e-02f,-3.63927782e-02f,
+5.73210455e-02f,+2.72590127e-02f,-7.58599043e-02f,-5.92943057e-02f,+1.12489387e-01f,
-1.42462164e-01f,+9.97306313e-03f,+1.27226347e-02f,+2.05049083e-01f,-4.78774961e-03f,
-1.10630557e-01f,+5.65107018e-02f,+4.19014692e-02f,+7.84766078e-02f,-8.42602551e-02f,
+5.14067411e-02f,+8.57945010e-02f,+3.53525095e-02f,+5.81138767e-02f,+1.92576405e-02f,
-5.56762964e-02f,+8.13505277e-02f,+4.92864512e-02f,+7.25091994e-02f,+6.94354624e-02f,
+7.83596337e-02f,+1.44437710e-02f,-1.61336754e-02f,+1.17759369e-01f,+7.45138004e-02f,
+5.40420115e-02f,-3.74132767e-02f,+3.89095992e-02f,+5.30331321e-02f,-1.66683560e-04f,
-8.18433911e-02f,+1.14329919e-01f,-1.34519711e-01f,+3.00806947e-02f,-3.37707847e-02f,
+1.17401585e-01f,+9.96716041e-03f,+4.48129922e-02f,-2.03822836e-01f,+9.02568921e-02f,
-4.18366976e-02f,+8.85453299e-02f,+1.42874479e-01f,+9.24724936e-02f,+4.58097719e-02f,
+1.82257012e-01f,+1.95646212e-02f,-3.96315195e-02f,+2.79849190e-02f,-1.20560288e-01f,
-2.96008557e-01f,+2.61427965e-02f,+6.29617721e-02f,+1.49462089e-01f,+2.31785789e-01f,
+2.14261673e-02f,+1.18540227e-01f,-1.10694580e-01f,+3.67858969e-02f,+1.61339104e-01f,
+1.75784633e-01f,-9.03552771e-02f,+7.30607808e-02f,+2.22380117e-01f,-9.70329493e-02f,
-1.62900444e-02f,+5.12459353e-02f,+7.44250566e-02f,+2.09018856e-01f,-1.25055194e-01f,
+1.63365081e-01f,+1.57185465e-01f,-1.38333231e-01f,+5.65441698e-02f,+6.73021153e-02f,
+1.66356891e-01f,+5.31432629e-02f,+6.55696988e-02f,+3.08550820e-02f,+1.72862917e-01f,
-3.20884101e-02f,+1.45114258e-01f,-1.73063073e-02f,+9.16191339e-02f,+1.30901799e-01f,
+1.45287765e-02f,-1.15957096e-01f,+4.34566624e-02f,+9.46185887e-02f,+2.11586356e-01f,
+6.78036362e-02f,-6.86984360e-02f,+9.31909755e-02f,+1.89711258e-01f,+6.30560964e-02f,
+1.08546853e-01f,+5.27586751e-02f,+2.25548476e-01f,+2.95486636e-02f,+4.82213348e-02f,
+1.65113747e-01f,+2.54681170e-01f,-2.22436171e-02f,+3.81807804e-01f,+1.45318806e-01f,
+3.30610946e-02f,+2.13611975e-01f,+4.19660192e-03f,+3.75486091e-02f,+1.09676477e-02f,
+1.13864735e-01f,+2.37712841e-02f,-9.50510427e-03f,+5.42936213e-02f,-8.70004743e-02f,
+1.28692895e-01f,+5.88448979e-02f,+8.82661641e-02f,+4.12966497e-02f,+6.82660937e-02f,
+2.46920377e-01f,+3.21940742e-02f,+3.77699360e-02f,+1.55392587e-01f,-2.34392658e-02f,
-1.08208627e-01f,-1.31203845e-01f,+6.04482368e-02f,+4.27627005e-02f,+1.11934558e-01f,
+3.27825367e-01f,+1.54849663e-01f,+3.42989080e-02f,-1.56810135e-02f,+1.82193756e-01f,
+1.78042144e-01f,+3.19176346e-01f,-8.31357688e-02f,+5.29955737e-02f,-2.79458705e-02f,
+2.09245048e-02f,+1.13375455e-01f,+1.46178246e-01f,-4.00999412e-02f,+1.77869469e-01f,
+1.32080376e-01f,+1.01599462e-01f,+1.16738021e-01f,+2.78212689e-02f,+2.91245431e-01f,
+7.30575919e-02f,+6.97659627e-02f,+1.12195775e-01f,-4.77984780e-03f,-5.76911541e-03f,
+4.25407253e-02f,-1.87470056e-02f,-1.17034234e-01f,+8.30625370e-02f,+9.39045399e-02f,
+1.01064220e-01f,-2.23319709e-01f,+7.42717162e-02f,+7.56243691e-02f,+6.07827492e-02f,
+5.41187674e-02f,-5.13642430e-02f,+1.39367223e-01f,+1.24917485e-01f,+1.68277740e-01f,
+1.26842126e-01f,+1.18903525e-01f,+5.94071895e-02f,-5.39006758e-03f,-1.00546908e-02f,
+6.93694800e-02f,+7.56963342e-02f,+1.16688065e-01f,+7.46065304e-02f,+1.42445594e-01f,
+1.11521482e-01f,-8.66757799e-03f,+6.22357130e-02f,+1.44106857e-02f,+4.46654335e-02f,
-2.55397171e-01f,+1.07719503e-01f,+1.89348206e-01f,+5.00226170e-02f,+7.44295120e-02f,
+1.63770869e-01f,+2.45050102e-01f,+2.62290031e-01f,-1.08781919e-01f,+9.52526182e-02f,
+1.41504943e-01f,-7.12171942e-02f,+7.12346882e-02f,+5.32701761e-02f,+5.60338609e-03f,
+6.85540540e-03f,+7.44153485e-02f,-1.09470479e-01f,+5.89425452e-02f,+9.40799341e-02f,
+2.61151165e-01f,+1.65829808e-01f,+1.63170233e-01f,-1.14867508e-01f,-2.06172019e-02f,
-2.71174554e-02f,+1.47179663e-01f,+1.61995873e-01f,+8.18186030e-02f,+5.74572422e-02f,
+9.20681730e-02f,-5.31655923e-02f,+5.64192384e-02f,+1.12400442e-01f,-1.69901606e-02f,
+2.51810178e-02f,+1.57135308e-01f,+6.23392984e-02f,+1.59726188e-01f,+1.71554074e-01f,
+1.37610987e-01f,+1.34512678e-01f,+4.38368730e-02f,+5.67073599e-02f,+4.45965417e-02f,
+6.31817430e-02f,+1.54437006e-01f,-1.55939206e-01f,-1.09302870e-03f,+1.05284423e-01f,
+3.31973404e-01f,+5.77973726e-04f,+5.58903441e-03f,+1.55814022e-01f,+4.75643240e-02f,
+9.39669684e-02f,+3.65978591e-02f,+1.94673669e-02f,+4.36872952e-02f,+2.22246334e-01f,
+1.01636484e-01f,+7.75093064e-02f,+6.83435351e-02f,+9.34973434e-02f,+9.41475704e-02f,
+3.93831208e-02f,+1.57841548e-01f,+3.79165746e-02f,+1.79604352e-01f,-5.93305640e-02f,
+1.17676824e-01f,+7.03303516e-02f,+1.26716746e-02f,+1.71228081e-01f,-6.58087879e-02f,
+6.87872767e-02f,+1.16883643e-01f,+1.91389754e-01f,-5.50896116e-02f,+1.98742881e-01f,
+2.01048955e-01f,-8.14940501e-03f,+5.21213375e-02f,+3.67242806e-02f,+5.19590750e-02f,
+1.09795846e-01f,-1.18561707e-01f,+2.23791122e-01f,+4.52566817e-02f,+1.12496465e-01f,
+7.50472918e-02f,+7.25697353e-02f,+2.37183291e-02f,+1.01806380e-01f,+1.15511678e-02f,
+1.38751999e-01f,+6.26541227e-02f,+3.84372532e-01f,+4.32003923e-02f,-9.95710343e-02f,
+1.56113550e-01f,+3.17663662e-02f,+2.75369808e-02f,+5.55934086e-02f,+4.90013324e-02f,
+2.82108318e-03f,+1.78877801e-01f,+9.66774821e-02f,+1.48871422e-01f,-4.60419580e-02f,
+3.02413143e-02f,+1.84650913e-01f,+1.25739187e-01f,-2.06590611e-02f,+4.89301272e-02f,
+1.23449728e-01f,+1.75128356e-01f,+1.36250257e-01f,+6.52002692e-02f,+8.79876241e-02f,
+5.44850305e-02f,+9.08368267e-03f,-1.96435407e-01f,+1.08410820e-01f,+1.93856105e-01f,
+3.60432379e-02f,+1.03691496e-01f,+4.08120491e-02f,+2.10425124e-01f,+1.64584503e-01f,
+4.23621051e-02f,+5.42648509e-02f,+1.27543136e-01f,+5.41757867e-02f,-2.21723993e-03f,
+1.31693650e-02f,+9.80330408e-02f,+1.97675172e-02f,+4.76823933e-02f,+7.30668977e-02f,
+6.55804574e-02f,+3.25211406e-01f,+5.97442761e-02f,+8.04653615e-02f,+6.40919507e-02f,
-2.82206498e-02f,+8.65624398e-02f,+1.12479798e-01f,-1.96592547e-02f,+1.38175160e-01f,
+1.63287565e-01f,-1.88720226e-02f,-1.15980551e-01f,+2.26968616e-01f,+7.56225968e-03f,
+2.87226047e-02f,-3.84147018e-02f,+1.03386596e-01f,+1.15156896e-01f,+1.21989891e-01f,
+1.39626235e-01f,+1.07089184e-01f,+1.14215948e-01f,+2.13612124e-01f,+1.90910146e-01f,
+1.23339310e-01f,-4.07039858e-02f,-1.93495274e-01f,-2.59546004e-02f,+3.78557146e-02f,
+1.01126134e-01f,-6.93131015e-02f,+1.20454952e-01f,+7.93705136e-03f,+2.07081035e-01f,
+5.06580016e-03f,+9.82599556e-02f,+1.04395881e-01f,+1.39085278e-01f,+1.86828226e-01f,
+5.84140234e-02f,+5.42285107e-02f,+1.68743566e-01f,+2.11829960e-01f,+1.37860000e-01f,
+8.11017305e-02f,+2.01769471e-01f,+8.70318040e-02f,+1.03826448e-01f,+1.43742219e-01f,
+2.08828244e-02f,-8.10257718e-02f,+1.98570359e-02f,+2.10854039e-01f,+6.44704029e-02f,
+1.01230085e-01f,-8.10461789e-02f,+7.53756613e-02f,+5.29041588e-02f,-3.13115381e-02f,
+1.57382514e-04f,+6.02195747e-02f,+1.23831399e-01f,-1.77602202e-01f,+1.95712335e-02f,
+5.81998900e-02f,+4.75754477e-02f,+1.89999163e-01f,+2.17576176e-01f,+2.08872944e-01f,
+2.94799898e-02f,+1.19699501e-01f,+7.43442699e-02f,+1.07909724e-01f,-3.09689213e-02f,
+3.26450109e-01f,-6.09713327e-03f,+1.57751679e-01f,+6.45939335e-02f,+8.07774253e-03f,
+1.85202703e-01f,+5.38308434e-02f,-5.07336110e-02f,-4.93067168e-02f,+4.90259156e-02f,
-3.55425873e-03f,+1.00387633e-01f,-3.77626419e-02f,+2.29507446e-01f,+4.72265184e-02f,
+2.04827920e-01f,+6.38478920e-02f,+1.76995784e-01f,+1.04598410e-01f,+1.66187882e-01f,
+1.26815766e-01f,+2.52377689e-01f,+8.25150833e-02f,-2.40908638e-02f,-4.91108634e-02f,
-1.44254100e-02f,+7.87659660e-02f,+2.90051755e-02f,+7.48904198e-02f,+1.95056275e-01f,
+1.81292176e-01f,-8.26073997e-03f,+1.83228746e-01f,+1.06645837e-01f,+6.54238090e-02f,
+6.86123669e-02f,+6.60992274e-03f,+5.04267588e-03f,+1.28756136e-01f,-1.93469543e-02f,
+1.14253191e-02f,+1.37652293e-01f,+9.17434916e-02f,+6.18012920e-02f,+1.33797318e-01f,
+1.38616487e-01f,-5.74496351e-02f,+1.71631053e-01f,+2.85825804e-02f,+1.26066193e-01f,
+1.44416705e-01f,-1.97292753e-02f,+5.75282685e-02f,+1.15212403e-01f,+3.75448197e-01f,
-2.77991798e-02f,+2.05356017e-01f,+1.01162151e-01f,+8.62210616e-02f,+3.84450667e-02f,
+5.43983355e-02f,+3.23288068e-02f,-7.59140868e-03f,+7.66996443e-02f,-3.95687260e-02f,
-1.00575894e-01f,+1.41090497e-01f,+1.56453982e-01f,+5.62060066e-02f,+1.41479507e-01f,
+2.50055641e-01f,+7.63069978e-03f,+2.13003486e-01f,+2.21983492e-02f,-3.75695378e-02f,
+3.68870385e-02f,+1.08201213e-01f,+3.92660797e-02f,+9.80222411e-03f,+4.68947142e-02f,
+1.56913668e-01f,+3.01352460e-02f,-5.03512146e-03f,+1.17733344e-01f,+2.52059791e-02f,
-3.26263383e-02f,+6.78294674e-02f,-1.76461209e-02f,+2.15460323e-02f,+1.60522699e-01f,
-4.01183181e-02f,+4.82784919e-02f,+2.08439142e-01f,+2.41692543e-01f,-1.24668837e-01f,
-3.33533958e-02f,+2.75366083e-02f,+4.39064689e-02f,+4.57843021e-02f,+1.26904622e-01f,
+3.11813504e-01f,+2.40560099e-02f,+1.57570671e-02f,+7.28816688e-02f,+4.52161804e-02f,
+1.34803772e-01f,+4.93142493e-02f,+1.70944363e-01f,+2.75621265e-02f,+1.88226141e-02f,
-3.12290248e-02f,+1.63958758e-01f,+1.83572054e-01f,+3.05240583e-02f,-3.32119763e-02f,
+1.25539213e-01f,+1.25277668e-01f,+3.39132994e-02f,+1.30846158e-01f,+2.23800633e-02f,
+8.51926953e-02f,+5.48408255e-02f,-2.27450188e-02f,+2.16026604e-01f,+1.98537007e-01f,
-9.25391316e-02f,+8.22730362e-02f,+3.26689854e-02f,+9.47062448e-02f,+3.19767624e-01f,
+1.77765682e-01f,+9.06507894e-02f,+1.63816214e-01f,+8.96502286e-02f,+1.00189306e-01f,
+6.33407459e-02f,-7.07388967e-02f,+9.86708030e-02f,+6.28687218e-02f,+1.10099830e-01f,
-3.70343029e-02f,+1.95515826e-02f,+1.13665506e-01f,+5.83367608e-02f,+1.56366587e-01f,
+1.90934345e-01f,+1.04213543e-02f,+1.05855726e-01f,+1.89413548e-01f,-1.04940593e-01f,
+5.50177693e-02f,+1.02163740e-01f,-4.17718031e-02f,+8.02895650e-02f,+8.84249434e-02f,
+2.80022975e-02f,+5.03664240e-02f,+9.77059007e-02f,+1.66070126e-02f,+1.15870364e-01f,
+2.03430101e-01f,+1.22089848e-01f,+1.07526556e-01f,+8.67376328e-02f,+6.20900430e-02f,
+8.61003399e-02f,+8.76326337e-02f,-6.58280477e-02f,+9.47263986e-02f,+1.29872963e-01f,
-2.88128220e-02f,+1.19671650e-01f,+4.18068953e-02f,+1.51457831e-01f,+3.92307602e-02f,
+4.29142192e-02f,-2.33991835e-02f,+2.59246200e-01f,+2.48352855e-01f,-6.30922168e-02f,
+4.84529184e-03f,-5.04135676e-02f,+6.39123619e-02f,+1.30398810e-01f,+1.69843569e-01f,
+2.98261922e-02f,+6.55718893e-02f,+9.80404690e-02f,+5.40632270e-02f,+2.40915474e-02f,
+1.06729805e-01f,+4.21391353e-02f,+6.44154698e-02f,+1.39711693e-01f,+2.76626591e-02f,
-3.33135389e-02f,-7.62056708e-02f,+2.03784034e-01f,-5.94270276e-03f,-9.90184257e-04f,
-1.41122949e-03f,+9.53605492e-03f,+7.05147088e-02f,+7.97987822e-03f,+1.59360707e-01f,
+3.26137953e-02f,-3.21325690e-01f,+1.87183306e-01f,+1.87913507e-01f,-1.00469485e-01f,
+8.79727900e-02f,+6.25149608e-02f,+4.31916043e-02f,-5.83477467e-02f,+2.21232906e-01f,
+9.31716934e-02f,-3.92837748e-02f,-1.35029526e-02f,+9.26360786e-02f,+9.73843485e-02f,
-1.67335585e-01f,-8.36884603e-02f,+1.96905434e-01f,-1.32523358e-01f,-1.07259296e-01f,
+1.56711936e-01f,-4.50852774e-02f,+1.84712801e-02f,+2.25943550e-02f,-1.22785188e-01f,
+2.99113810e-01f,-1.16919108e-01f,-1.22614548e-01f,-1.85788259e-01f,+1.13454960e-01f,
-6.07409365e-02f,+1.34103060e-01f,-4.46001999e-02f,-6.72535896e-02f,+7.45634809e-02f,
+8.42635408e-02f,+1.06769793e-01f,+1.41123354e-01f,+8.44160616e-02f,-7.99034759e-02f,
+1.80905119e-01f,+1.74559429e-01f,+1.23023754e-02f,-1.75590426e-01f,-8.24078098e-02f,
+5.89449182e-02f,+1.29442841e-01f,+5.67346998e-02f,+8.05821717e-02f,+2.10854486e-01f,
+6.21319525e-02f,-7.21723167e-03f,-6.69939220e-02f,-7.97329396e-02f,+1.66862700e-02f,
+3.91536504e-02f,-1.40485555e-01f,+4.25677523e-02f,+1.88105762e-01f,+8.43544528e-02f,
+1.54423177e-01f,+1.88632116e-01f,-1.64371971e-02f,-1.21066952e-02f,-1.64312851e-02f,
+4.44663176e-03f,+1.19393289e-01f,-8.20154399e-02f,-2.42253523e-02f,+2.10358631e-02f,
+2.22138509e-01f,-3.60239670e-02f,+1.17601037e-01f,+1.46631360e-01f,+1.08642757e-01f,
-7.50295669e-02f,+9.15760770e-02f,+6.77269623e-02f,+1.83833092e-02f,+4.14288118e-02f,
-1.65927723e-01f,+1.29284058e-02f,-7.28092641e-02f,-8.66605490e-02f,+1.13190360e-01f,
-3.14085111e-02f,+1.67128593e-01f,+4.87121288e-03f,+5.04104160e-02f,+1.14919670e-01f,
-2.34569699e-01f,+6.97705522e-03f,-5.45266084e-02f,+1.03077948e-01f,+8.21033567e-02f,
+9.38643664e-02f,+1.73908874e-01f,-1.02985710e-01f,+9.46334302e-02f,+8.09183344e-02f,
-5.79898544e-02f,+5.97500540e-02f,+5.31252623e-02f,+1.31461397e-01f,+1.14271306e-01f,
-2.87645403e-02f,+4.14608151e-01f,-1.64709270e-01f,+1.01833893e-02f,+1.41638756e-01f,
+8.79622921e-02f,+1.19168170e-01f,-8.86570886e-02f,+2.17108443e-01f,+1.55943036e-01f,
+1.26956096e-02f,-1.19716570e-01f,-1.34785652e-01f,+5.53706810e-02f,-1.34295627e-01f,
+7.61228651e-02f,-5.33610284e-02f,+7.23817870e-02f,+2.26344019e-01f,-9.59228072e-03f,
-6.82570189e-02f,+1.71325848e-01f,+2.39909992e-01f,+3.67413228e-03f,-1.23117184e-02f,
+5.02993725e-02f,-1.84849408e-02f,+9.29726139e-02f,+8.39025229e-02f,-1.83925647e-02f,
+7.76239783e-02f,-8.02429542e-02f,+6.62966743e-02f,+6.84671476e-02f,-5.71749881e-02f,
-2.86102556e-02f,+1.07296899e-01f,+1.00898936e-01f,+1.68302640e-01f,+1.29151464e-01f,
+1.02518283e-01f,+3.95689420e-02f,-1.05296392e-02f,+7.72368461e-02f,+8.69294703e-02f,
+2.14678161e-02f,+4.45972793e-02f,-5.85851297e-02f,+4.70655710e-02f,+1.77189901e-01f,
+5.35179786e-02f,-3.97673659e-02f,-6.71350285e-02f,+1.01970129e-01f,+1.49646372e-01f,
-4.83815409e-02f,+1.83810830e-01f,+1.10467389e-01f,+5.96605353e-02f,+1.99548095e-01f,
+4.94798757e-02f,-2.97388453e-02f,+2.80994866e-02f,-5.63994236e-02f,+1.45192007e-02f,
+9.67259184e-02f,+9.65511426e-02f,+9.23747718e-02f,-1.31668612e-01f,+1.95726916e-01f,
+4.14276123e-02f,+1.25970736e-01f,+2.30325684e-02f,+9.60511640e-02f,+8.08444321e-02f,
-1.98232271e-02f,+1.03518248e-01f,+1.26834735e-02f,+1.59448698e-01f,+2.02983454e-01f,
+7.07654059e-02f,-6.94839433e-02f,+1.55179545e-01f,+1.90893523e-02f,-8.33973959e-02f,
+8.62320662e-02f,-1.00092180e-01f,+2.45272070e-01f,+5.81232198e-02f,+4.85855602e-02f,
+8.83388221e-02f,-1.08326942e-01f,+1.26791269e-01f,-2.99400538e-02f,-4.10616770e-02f,
+5.44556528e-02f,+2.20522910e-01f,+6.85564056e-02f,+5.06523661e-02f,+1.08531497e-01f,
+8.55185539e-02f,+1.82979941e-01f,+1.26465097e-01f,+6.47212639e-02f,+2.08100572e-01f,
+1.23716399e-01f,-2.17739679e-02f,-9.90715772e-02f,+1.59938857e-02f,+9.43487808e-02f,
+1.40984729e-02f,+8.32530856e-02f,-7.71633023e-03f,+1.63614884e-01f,-5.38865523e-03f,
-3.24102156e-02f,+1.60415307e-01f,+1.51319159e-02f,+1.62331462e-01f,+6.08562827e-02f,
+6.94210902e-02f,+1.87452018e-01f,+3.90586667e-02f,+1.29885882e-01f,+1.98179886e-01f,
+4.65880819e-02f,+7.96119571e-02f,-3.87936644e-02f,+4.63902242e-02f,+1.95884496e-01f,
+1.04542889e-01f,+7.67620699e-03f,+7.75718987e-02f,+4.70843799e-02f,-1.93373878e-02f,
-2.24016677e-03f,+1.06076315e-01f,-1.23132467e-01f,+5.28355353e-02f,-1.40925974e-01f,
+9.55981016e-02f,+1.27788991e-01f,+7.63370395e-02f,+2.77938005e-02f,+4.42784056e-02f,
+5.95407374e-02f,+2.72865966e-02f,+3.26323807e-02f,-2.96924319e-02f,+4.11184244e-02f,
+1.67411700e-01f,+5.90842180e-02f,-3.62963229e-02f,+2.48786099e-02f,+1.32347178e-02f,
+1.87199593e-01f,+1.32518858e-01f,+6.37397692e-02f,+5.98695055e-02f,+8.79102498e-02f,
+9.83730927e-02f,+2.11830400e-02f,+1.45209894e-01f,+1.91204041e-01f,+7.27057606e-02f,
-7.73453563e-02f,+2.10530564e-01f,-3.24612781e-02f,+7.54847452e-02f,+8.16086754e-02f,
-8.92686564e-03f,+1.18551902e-01f,+1.12608954e-01f,+1.13939010e-01f,-1.26062125e-01f,
-7.49374405e-02f,+9.83330682e-02f,-7.21538290e-02f,+1.87112298e-02f,-1.95939485e-02f,
+1.05772212e-01f,-1.38598114e-01f,-2.76829582e-03f,+2.02620119e-01f,+8.44175294e-02f,
+2.47567445e-02f,+1.65928319e-01f,+5.86168393e-02f,+7.51941651e-02f,+3.84729058e-02f,
+9.56089944e-02f,+7.74855167e-02f,-1.29552916e-01f,+1.61369562e-01f,+7.13351220e-02f,
-4.10140119e-02f,+8.33850950e-02f,-1.07719891e-01f,+1.20274082e-01f,+2.00376272e-01f,
+2.07027346e-01f,+1.06924698e-01f,+2.20806852e-01f,+6.77148327e-02f,-1.24719776e-01f,
+6.81464672e-02f,+1.51716517e-02f,+5.56538533e-03f,+1.94159240e-01f,+3.02031413e-02f,
+2.70725816e-01f,-1.10343024e-02f,+7.55102113e-02f,+4.39683013e-02f,+1.03410542e-01f,
+6.77538738e-02f,+2.45727040e-02f,+8.61091092e-02f,+7.65485018e-02f,+5.92951439e-02f,
+3.42170715e-01f,-6.76774979e-02f,+1.00563942e-02f,+1.55636728e-01f,+2.23443229e-02f,
+1.51115641e-01f,+6.54125661e-02f,+1.39839470e-01f,+1.64426584e-02f,-6.81266040e-02f,
+3.13626267e-02f,+1.37422770e-01f,+2.36571804e-02f,+9.64824408e-02f,+2.56405473e-01f,
+8.32223818e-02f,+2.13215128e-02f,-2.42883861e-02f,+1.04385614e-01f,-6.40209764e-03f,
+2.45056495e-01f,-6.67566508e-02f,+1.00802764e-01f,-1.76807940e-01f,-9.74916965e-02f,
-3.52384336e-02f,+1.22561529e-01f,+3.00533384e-01f,+1.68046415e-01f,+7.08351880e-02f,
+5.76581061e-02f,+5.81151769e-02f,+1.86701775e-01f,+1.10081129e-01f,+8.75124037e-02f,
+1.73940491e-02f,+9.91384387e-02f,+6.55585155e-02f,+1.90302953e-01f,+6.95352480e-02f,
+1.10690026e-02f,+1.15298189e-01f,+5.85881919e-02f,+9.77626741e-02f,+1.77269444e-01f,
+6.56777099e-02f,-2.37202574e-03f,+1.46272331e-02f,-4.69896346e-02f,-1.45918667e-01f,
+3.83718237e-02f,+1.44744162e-02f,+6.75959364e-02f,-6.39669448e-02f,+4.65471111e-02f,
-3.01378872e-02f,-7.33709484e-02f,+1.61335558e-01f,+7.85427317e-02f,+9.59264189e-02f,
-1.55227743e-02f,+1.18921839e-01f,+1.45411223e-01f,+2.18456075e-01f,+3.71480244e-03f,
+1.46863222e-01f,+2.28538942e-02f,+2.56177634e-01f,+2.42837727e-01f,-1.01092286e-01f,
-1.27887636e-01f,+4.20257561e-02f,+1.34964675e-01f,+1.11325949e-01f,+9.82127190e-02f,
+8.93847719e-02f,-5.45473769e-02f,+1.78844392e-01f,+4.51880023e-02f,+1.19705416e-01f,
+3.92680652e-02f,+4.94450703e-02f,+8.35845619e-02f,+1.01172134e-01f,+1.37893334e-01f,
+1.53669223e-01f,+3.36383253e-01f,+1.20938078e-01f,+6.97065741e-02f,+4.20035943e-02f,
+8.50925501e-03f,+1.20137177e-01f,+1.49606258e-01f,+7.45348930e-02f,+6.44701123e-02f,
+5.09511940e-02f,+2.44822025e-01f,+1.23602711e-02f,+4.99414615e-02f,+4.12744517e-03f,
-2.21377313e-02f,+1.60807386e-01f,+5.26448637e-02f,+6.53686970e-02f,+1.38602793e-01f,
+7.60266855e-02f,-1.94876060e-01f,+4.21556346e-02f,+2.26321518e-02f,+7.62443095e-02f,
+1.21743739e-01f,+1.12859815e-01f,+1.74948245e-01f,+9.53651369e-02f,+3.99850532e-02f,
-2.52160542e-02f,+8.96619260e-02f,-5.80463335e-02f,+2.45598644e-01f,-5.37776276e-02f,
+2.39221510e-02f,+2.01403737e-01f,+2.58173179e-02f,+1.64250478e-01f,+9.26127359e-02f,
+2.67141499e-02f,-1.02480501e-01f,+2.57881582e-01f,+6.39449507e-02f,+4.99858819e-02f,
-1.17219128e-01f,+2.18659922e-01f,-2.27305125e-02f,+1.03724115e-01f,+8.02951828e-02f,
+2.27191925e-01f,+2.91067529e-02f,+1.35799021e-01f,+1.23700278e-03f,+2.52720982e-01f,
+1.02441587e-01f,+5.45959845e-02f,+7.59074688e-02f,+1.32200802e-02f,+4.17464823e-02f,
+1.70906976e-01f,+9.10992771e-02f,+1.28814265e-01f,+1.14329070e-01f,+1.36056012e-02f,
+2.20391676e-01f,+6.90991804e-02f,+1.08157799e-01f,+3.67822424e-02f,-2.46632285e-02f,
+7.94409662e-02f,+5.67441359e-02f,+3.57913855e-03f,+2.50596572e-02f,+3.67512219e-02f,
+7.13284686e-02f,+5.84131964e-02f,-4.61701304e-02f,+2.35789604e-02f,+1.57666951e-01f,
+1.75098896e-01f,+1.10292427e-01f,+1.70746952e-01f,+6.56334963e-03f,+9.06454474e-02f,
+7.52475783e-02f,+1.03704870e-01f,+2.39123151e-01f,+4.05917466e-02f,+1.31024912e-01f,
-6.85497299e-02f,+2.03338534e-01f,+1.11898310e-01f,+1.19714573e-01f,-1.14628062e-01f,
-1.77751973e-01f,+4.69509661e-02f,+2.07902007e-02f,-9.03813392e-02f,-6.18667826e-02f,
+8.91036987e-02f,+1.45228788e-01f,+1.31102279e-01f,+2.70288467e-01f,+2.62470031e-03f,
+7.05825612e-02f,+1.13640711e-01f,+3.24595831e-02f,-9.85487923e-02f,-1.64211653e-02f,
-9.26419045e-04f,-1.48891304e-02f,-1.31347601e-03f,+7.43472278e-02f,+3.54326814e-02f,
+6.58098459e-02f,+1.16656832e-02f,+9.44555327e-02f,-3.18962544e-01f,-1.26606552e-02f,
+4.80860565e-03f,+1.31245181e-01f,+1.40581086e-01f,+6.69205412e-02f,-2.33537555e-02f,
+2.42125001e-02f,+8.00834298e-02f,-1.32645428e-01f,+6.24033660e-02f,+1.69259429e-01f,
+3.07926472e-04f,-1.29280519e-02f,+4.34018411e-02f,+2.61100322e-01f,+1.08355969e-01f,
+7.69991353e-02f,+6.37863278e-02f,+1.09012909e-01f,+7.38187730e-02f,+1.26810474e-02f,
+1.74897745e-01f,-7.01177269e-02f,+2.06668619e-02f,+7.56604522e-02f,+7.98969269e-02f,
+6.42109662e-02f,+1.68301910e-01f,-3.97947505e-02f,+4.31380980e-02f,+8.15886557e-02f,
+1.38786122e-01f,+1.15994036e-01f,+3.24922577e-02f,+6.43786415e-02f,-5.66819869e-03f,
+8.41956139e-02f,+1.19917870e-01f,+1.45591795e-01f,+1.52002752e-01f,+5.21244062e-03f,
-1.33193567e-01f,+5.27475402e-02f,+2.57920086e-01f,+1.32924989e-01f,+1.45141214e-01f,
+1.42832920e-01f,+1.14749871e-01f,+1.59286946e-01f,+1.76070295e-02f,+9.50292721e-02f,
+1.11933917e-01f,+3.01549494e-01f,+2.55673885e-01f,+7.79407397e-02f,+3.16358954e-02f,
+5.22961058e-02f,+2.94139087e-02f,+2.76724510e-02f,+8.20983499e-02f,+6.78239092e-02f,
-1.45865092e-03f,-2.72395760e-02f,-1.30972266e-01f,+5.15061803e-02f,+6.52401894e-02f,
+3.02964058e-02f,+1.14724979e-01f,+1.24829985e-01f,-2.92202849e-02f,-4.23093978e-03f,
+1.69036627e-01f,+1.10259838e-01f,+2.04829335e-01f,+2.23684460e-01f,+1.52330771e-01f,
+7.55800977e-02f,+1.14414744e-01f,+1.02198543e-03f,+7.40438551e-02f,+2.24039890e-02f,
+1.33826032e-01f,+1.92357153e-02f,+1.73886806e-01f,+8.09388310e-02f,+2.15618879e-01f,
+1.10686570e-01f,+2.32614323e-01f,-1.33597036e-03f,+7.58922845e-02f,+3.95896286e-02f,
+2.38194585e-01f,+2.76544482e-01f,-3.06757372e-02f,+9.57344249e-02f,+2.39620116e-02f,
+5.28431796e-02f,+1.44829720e-01f,+7.25938566e-03f,+6.87105507e-02f,+1.19689241e-01f,
+1.20527402e-01f,-6.65649250e-02f,+6.55195415e-02f,-6.14015684e-02f,+1.39686301e-01f,
-1.74393388e-03f,-2.92510614e-02f,+1.08805306e-01f,+2.77017225e-02f,+1.10204227e-01f,
+2.59525031e-02f,+6.07603416e-02f,+2.17080340e-01f,+8.31796154e-02f,-3.18899495e-03f,
+1.75768137e-01f,+1.45615920e-01f,+1.51004553e-01f,+9.76749584e-02f,-8.19357485e-02f,
+8.22787434e-02f,-3.63111645e-02f,+9.50476676e-02f,+8.63743946e-03f,-9.70537886e-02f,
+3.54551002e-02f,+7.41554722e-02f,+3.34491521e-01f,-1.27461940e-01f,+1.13586828e-01f,
-5.37051409e-02f,+1.26099989e-01f,+1.12141460e-01f,+5.82742952e-02f,+3.52634452e-02f,
+1.15914186e-02f,-1.38651254e-02f,-6.24021254e-02f,+7.39008263e-02f,+7.93495774e-02f,
+1.15215115e-01f,+6.09741174e-02f,+4.11688797e-02f,+7.59226084e-02f,+5.98522313e-02f,
+9.95493308e-02f,-1.82746965e-02f,+5.34485169e-02f,+1.50563478e-01f,+1.06396601e-01f,
+3.22116073e-03f,-4.29024696e-02f,+1.38220862e-01f,-1.05295055e-01f,+5.97880669e-02f,
+1.72476962e-01f,-2.94435099e-02f,-1.44725204e-01f,+1.27676755e-01f,+1.37238547e-01f,
-7.11111352e-02f,-7.09073758e-03f,+8.56586695e-02f,+1.46668807e-01f,+7.42166713e-02f,
+7.25277439e-02f,+1.08810291e-01f,-3.62869762e-02f,+7.12010711e-02f,+1.03365265e-01f,
+9.96839851e-02f,+1.07984900e-01f,+2.08514947e-02f,+9.84273180e-02f,-8.27962160e-02f,
+2.16806471e-01f,+2.82082587e-01f,+2.88043581e-02f,+2.74066851e-02f,+2.82007679e-02f,
+4.14582230e-02f,+5.30120209e-02f,-8.87059122e-02f,+1.65288702e-01f,+1.29721507e-01f,
+1.03915989e-01f,+4.61851098e-02f,+1.36155128e-01f,-4.24381904e-02f,+1.97165415e-01f,
+1.60574183e-01f,+1.84710522e-03f,+8.74538347e-02f,+1.46053582e-01f,+1.07152678e-01f,
+1.85708597e-03f,+8.20128769e-02f,-1.71578699e-03f,+7.84120932e-02f,+3.97960842e-02f,
+1.32351100e-01f,+7.49859065e-02f,+1.30245700e-01f,-4.23899703e-02f,-6.63938224e-02f,
+1.57598928e-01f,+1.45901471e-01f,-8.08842480e-03f,+1.06071495e-01f,+8.46997276e-02f,
+9.52268839e-02f,+1.09793119e-01f,+6.37152418e-02f,-1.53355107e-01f,+2.71696243e-02f,
+7.24613592e-02f,+9.57504734e-02f,+2.34895460e-02f,+1.74980378e-03f,-1.32560626e-01f,
-1.98506899e-02f,-1.06193870e-01f,+1.24972999e-01f,+1.39209464e-01f,+2.46349171e-01f,
+1.80737320e-02f,-8.83820560e-03f,+2.66701132e-01f,+5.64059764e-02f,+2.02674970e-01f,
+2.96559185e-02f,-2.01140083e-02f,+3.51837054e-02f,-6.27196804e-02f,+1.35778949e-01f,
+2.34222218e-01f,+8.92833062e-03f,+7.05950558e-02f,+6.80446774e-02f,+1.18626398e-03f,
+1.10954188e-01f,-1.11050420e-01f,+7.70477802e-02f,+1.67868793e-01f,-4.69940417e-02f,
-1.71300173e-01f,+1.54260948e-01f,-8.73745233e-02f,+1.13626113e-02f,+4.27933820e-02f,
+6.18444271e-02f,-5.33678010e-02f,-1.15414290e-02f,+1.47507444e-01f,+1.22003153e-01f,
+1.65474072e-01f,+1.14518374e-01f,+3.23573798e-02f,+7.82117695e-02f,+2.01472104e-01f,
-8.14537257e-02f,+9.48344618e-02f,+1.87454239e-01f,+4.68863212e-02f,+9.78202298e-02f,
+1.38732269e-01f,-1.05059937e-01f,+1.19442135e-01f,-4.02342901e-03f,+1.73637629e-01f,
+1.36832178e-01f,-3.51916142e-02f,+3.80802639e-02f,+2.13913620e-01f,-5.49935400e-02f,
-1.50898620e-01f,+1.71343073e-01f,+1.63809136e-02f,+6.44037426e-02f,-3.14807706e-02f,
+4.26177941e-02f,-2.36940198e-02f,+2.39068586e-02f,+1.24672815e-01f,+9.88461226e-02f,
+1.95628092e-01f,+1.27723753e-01f,-3.26347016e-02f,+3.39741968e-02f,+1.35134786e-01f,
-2.23167643e-01f,+2.49027461e-02f,+6.53425828e-02f,-2.10192308e-01f,+1.15359500e-01f,
+8.05748776e-02f,+9.33034718e-02f,+9.69172418e-02f,-1.97964422e-02f,+3.11770779e-03f,
+2.90075988e-02f,+1.50345340e-01f,+1.11147109e-03f,+3.79889272e-02f,-1.13409668e-01f,
+1.36921942e-01f,+1.10771775e-01f,+2.74186790e-01f,-2.67194714e-02f,+1.53698444e-01f,
+1.48048341e-01f,+3.81060541e-02f,-3.62648107e-02f,+3.31627913e-02f,+1.78640008e-01f,
+1.57631248e-01f,-9.55775846e-03f,-3.47972326e-02f,+1.59160942e-01f,+1.58293441e-01f,
+8.08881745e-02f,+1.09976746e-01f,+5.42984642e-02f,+1.00552723e-01f,-2.11485382e-02f,
+3.64345349e-02f,+1.73903495e-01f,-7.03691989e-02f,+7.72185773e-02f,+6.76870793e-02f,
+8.03852826e-02f,-9.75972116e-02f,+1.39279187e-01f,-2.57549826e-02f,-1.05212266e-02f,
+3.22593972e-02f,-1.02660380e-01f,+1.34180486e-01f,-1.07569091e-01f,+1.56895965e-01f,
+1.83855981e-01f,+3.44050452e-02f,+1.63930625e-01f,-4.95616086e-02f,+2.01376855e-01f,
+3.24726515e-02f,+1.05838738e-01f,+1.58987775e-01f,+1.92746848e-01f,+1.34822831e-01f,
+7.26798028e-02f,+7.40088671e-02f,+6.04481949e-03f,-1.21020906e-01f,+1.60659943e-02f,
-4.96271029e-02f,+1.18398055e-01f,+3.00851464e-02f,+1.17755383e-01f,+1.64569393e-01f,
-5.13945483e-02f,+2.91141327e-02f,+7.69216120e-02f,+1.17763542e-02f,+1.23668417e-01f,
+7.36711547e-02f,+1.04197292e-02f,+3.83751690e-02f,+1.09759822e-01f,-3.18550952e-02f,
+2.41907537e-02f,+2.18507443e-02f,+7.39962561e-03f,-3.78047116e-02f,+4.16277871e-02f,
+1.01774380e-01f,+5.24290698e-03f,-1.76925004e-01f,+8.92814770e-02f,+4.90810238e-02f,
+2.92944554e-02f,+1.92051843e-01f,-4.08111922e-02f,+5.82881793e-02f,+2.00881034e-01f,
-3.44070196e-02f,+2.44357903e-03f,+7.05219731e-02f,-6.54833689e-02f,+4.51183133e-02f,
+6.67045563e-02f,-2.57767271e-02f,+2.31517598e-01f,+1.80691574e-02f,+1.64166480e-01f,
+6.26482815e-02f,+8.49879980e-02f,-1.05083644e-01f,+8.09095800e-02f,+3.13333310e-02f,
+4.73321415e-02f,+2.27138847e-01f,+1.51368186e-01f,+1.16967991e-01f,-1.94641110e-02f,
+1.28585920e-01f,+2.91542977e-01f,+8.73572826e-02f,+9.73306522e-02f,+1.14564233e-01f,
+1.47449300e-02f,+5.77962697e-02f,+6.96260389e-03f,+1.76857919e-01f,+2.02804625e-01f,
+1.60148546e-01f,+1.14616737e-01f,+2.85489470e-01f,+2.17951089e-01f,-6.07257821e-02f,
-3.04611642e-02f,-1.02666974e-01f,+1.55641556e-01f,+2.61197805e-01f,-6.75301924e-02f,
+1.96228117e-01f,+3.15599926e-02f,-7.37630203e-02f,+3.74077633e-02f,-1.31893270e-02f,
+9.47056115e-02f,+1.71920493e-01f,+1.13353021e-02f,+2.44310033e-02f,+7.73341730e-02f,
+1.33572951e-01f,-7.42815137e-02f,-2.01928653e-02f,+2.20241509e-02f,+3.78799103e-02f,
-6.16806895e-02f,+1.30577832e-01f,+5.48586622e-02f,+6.69187084e-02f,+1.09707840e-01f,
+9.32503790e-02f,+4.26652282e-02f,-1.03948340e-02f,+1.48638086e-02f,+6.11885749e-02f,
+2.07531154e-02f,+5.83777856e-03f,+1.02509195e-02f,+1.46898016e-01f,+2.21797347e-01f,
-3.41558345e-02f,+5.23465499e-02f,+1.39832124e-01f,-1.30946189e-02f,+2.52766728e-01f,
+1.67610385e-02f,+5.36364876e-02f,+1.63209334e-01f,-4.60254438e-02f,+9.37443376e-02f,
+1.76878005e-01f,+1.00126669e-01f,-3.45880575e-02f,+3.87559906e-02f,+6.12687618e-02f,
+1.10714249e-01f,+1.08360924e-01f,+5.77240158e-03f,+8.43627825e-02f,+1.08506247e-01f,
+1.97130516e-01f,-3.00952923e-02f,+1.85673222e-01f,-2.26364564e-02f,+1.26592755e-01f,
+3.84220108e-02f,+1.33109674e-01f,+3.32634561e-02f,-4.90996987e-02f,+5.51199913e-02f,
-5.42840883e-02f,-7.30866508e-04f,+2.29122072e-01f,+8.96160603e-02f,+5.66015169e-02f,
-1.59537852e-01f,-3.29374569e-03f,+3.35896350e-02f,+1.42321363e-01f,-3.51188220e-02f,
+2.92347819e-02f,+1.89795569e-01f,+1.57349166e-02f,+8.22174102e-02f,+8.65641758e-02f,
-1.25018537e-01f,+8.37934762e-02f,+9.51114967e-02f,+1.69935673e-01f,+1.27307072e-01f,
+1.02562107e-01f,+1.52396441e-01f,-2.16856841e-02f,-5.51619790e-02f,+1.79155588e-01f,
+1.13177247e-01f,+1.69864133e-01f,+3.66399139e-02f,-7.50279203e-02f,-5.74139766e-02f,
+3.34726237e-02f,+1.27053291e-01f,-1.20339930e-01f,+7.43871853e-02f,+1.50827378e-01f,
+2.43220001e-01f,+6.03337809e-02f,-9.66297835e-02f,+7.76469260e-02f,-1.05871774e-01f,
-2.82728225e-02f,+1.15330424e-02f,+4.22048829e-02f,+1.43688917e-01f,+1.27502277e-01f,
-4.01725508e-02f,-1.02469429e-01f,+7.60610253e-02f,-3.17753218e-02f,+9.77004543e-02f,
+2.11641248e-02f,+8.11886862e-02f,+1.68706939e-01f,-8.94076526e-02f,-5.14027029e-02f,
-5.47989691e-03f,+7.28011057e-02f,+2.28900444e-02f,-2.65445635e-02f,+1.09326743e-01f,
+1.63674563e-01f,+8.72342139e-02f,+1.22881569e-01f,+2.79882848e-01f,+7.51569569e-02f,
+1.29173130e-01f,+1.02072664e-01f,+2.00831983e-02f,+6.24193400e-02f,+8.82250220e-02f,
+4.45753671e-02f,+7.06166029e-02f,+2.69584041e-02f,+5.92145175e-02f,-3.40176038e-02f,
-2.57292837e-02f,-3.47250670e-01f,+8.49340856e-02f,-1.08035365e-02f,-3.38056497e-02f,
+2.27215335e-01f,+6.70150071e-02f,+1.40133604e-01f,+6.30508736e-02f,+5.95947020e-02f,
+6.91008046e-02f,+1.52176201e-01f,+1.15109645e-01f,-1.80773083e-02f,+2.05357701e-01f,
+1.12392068e-01f,+1.60985053e-01f,-3.95748951e-02f,+6.11301744e-03f,+2.42474917e-02f,
+1.09102271e-01f,+1.37822613e-01f,+4.30474207e-02f,+7.07625449e-02f,+1.24057487e-01f,
+1.08125091e-01f,+1.55314565e-01f,+7.12462887e-02f,-7.80730247e-02f,+1.38565749e-01f,
+1.20149262e-01f,+9.70277283e-03f,+8.36504027e-02f,+3.14111531e-01f,-4.80593778e-02f,
+1.19892657e-01f,+1.07347421e-01f,-1.31740533e-02f,-1.29759297e-01f,+8.57484937e-02f,
-1.06545411e-01f,+7.91093428e-03f,+1.47032648e-01f,+7.42696598e-02f,+8.23225975e-02f,
+1.40256789e-02f,+8.83132517e-02f,+1.76650122e-01f,+8.27434510e-02f,+1.54976370e-02f,
+9.97554138e-02f,+1.26414821e-01f,-3.77636473e-03f,-2.18313560e-02f,+1.32972106e-01f,
+2.38833293e-01f,+3.19140404e-02f,-1.77635685e-01f,+1.06365830e-01f,+1.67626649e-01f,
+1.14606522e-01f,+7.09949881e-02f,+1.01224296e-01f,-6.46049157e-02f,+2.68162098e-02f,
-1.89172383e-02f,+9.57021862e-02f,+7.47648031e-02f,+1.23653173e-01f,+7.01333338e-05f,
+1.39467251e-02f,-7.33107850e-02f,+7.76725411e-02f,-8.39470327e-02f,-1.95652072e-04f,
+2.87234318e-02f,+1.43808737e-01f,+6.50217012e-02f,-1.00166991e-01f,-5.26400059e-02f,
+1.26622170e-01f,+1.41552716e-01f,+5.50038405e-02f,+4.06353399e-02f,-2.64501087e-02f,
-7.00001046e-02f,+9.34522226e-03f,-7.76693001e-02f,+2.99167559e-02f,+1.05618969e-01f,
+1.94911778e-01f,+8.75194594e-02f,+1.69336826e-01f,+7.90367946e-02f,-4.37173508e-02f,
+6.95201978e-02f,+8.70555490e-02f,+4.42367094e-03f,-7.50757679e-02f,+6.85360357e-02f,
+2.48323858e-01f,-4.32207715e-03f,+2.36762151e-01f,+7.94484019e-02f,+1.51899114e-01f,
+1.16502583e-01f,+1.25955433e-01f,+9.70454589e-02f,+1.90944791e-01f,-1.03069022e-02f,
-9.76931080e-02f,-8.24872851e-02f,+8.70759971e-03f,+1.28738374e-01f,+6.03796914e-02f,
+4.95037064e-02f,+1.62965521e-01f,+4.23889197e-02f,-1.13261901e-01f,+6.08166121e-02f,
+4.37378921e-02f,+3.80378142e-02f,+9.38959569e-02f,+1.40449226e-01f,+1.22832574e-01f,
-6.89838380e-02f,-1.28693152e-02f,+1.00934524e-02f,+8.18239152e-02f,-3.44575383e-02f,
+2.70569593e-01f,+3.59661654e-02f,-9.42884907e-02f,+1.51454031e-01f,+6.01908751e-02f,
+6.56847134e-02f,-1.67452265e-02f,+1.39091551e-01f,+1.53145060e-01f,+1.35792062e-01f,
+1.51764363e-01f,+1.13446914e-01f,+8.33688155e-02f,+2.12769642e-01f,+9.54168141e-02f,
+9.42056328e-02f,+2.54094005e-01f,-3.22457999e-02f,+1.11356206e-01f,+2.19777644e-01f,
+4.98639327e-03f,-5.08839935e-02f,+7.41610900e-02f,+6.65546744e-04f,+1.63931698e-02f,
+3.21559794e-02f,-2.67236494e-02f,+1.60062462e-01f,-7.25612789e-02f,+1.48024157e-01f,
+2.10985631e-01f,+1.32895127e-01f,-1.09625287e-01f,+9.24711898e-02f,+6.88748881e-02f,
+1.00120090e-01f,+5.57030030e-02f,+1.38762325e-01f,+1.59601912e-01f,+1.11643046e-01f,
+5.69563545e-02f,+2.25292109e-02f,+8.03380981e-02f,+1.53840542e-01f,+8.29905942e-02f,
-1.46069508e-02f,+4.01619934e-02f,+9.73930582e-02f,+2.26025864e-01f,+1.12884462e-01f,
-6.67790547e-02f,+1.96335465e-03f,-7.15020299e-02f,+1.41323164e-01f,+2.49629933e-02f,
+1.01675168e-01f,-2.46581510e-02f,+2.18974188e-01f,-1.57896169e-02f,+2.09532440e-01f,
+1.07303813e-01f,+8.36463124e-02f,+7.16920272e-02f,-4.37415764e-02f,+4.38903319e-03f,
+1.27619609e-01f,-3.18805911e-02f,-1.74517408e-01f,+2.06108004e-01f,+2.52453517e-02f,
-1.31425127e-01f,+2.39584938e-01f,+3.59575637e-02f,-1.00307181e-01f,-8.08870867e-02f,
+1.85957000e-01f,+8.33015516e-03f,-1.05448835e-01f,-1.22414129e-02f,+1.88997447e-01f,
-3.22448858e-03f,+5.80110922e-02f,+6.75680935e-02f,-1.39573097e-01f,+3.43150422e-02f,
-2.12680817e-01f,+1.63862199e-01f,+2.66519208e-02f,+3.78531516e-01f,+1.96655422e-01f,
+1.18008688e-01f,+5.27733266e-01f,+2.71944284e-01f,+9.60721299e-02f,-8.16472471e-02f,
-2.05665544e-01f,+1.38156682e-01f,-3.33112516e-02f,+1.76118389e-01f,-7.62423798e-02f,
-1.23800419e-01f,-2.04408288e-01f,+1.44081593e-01f,+1.30889444e-02f,+2.19515100e-01f,
-1.39461875e-01f,+8.73443708e-02f,-4.10088487e-02f,+1.76133975e-01f,+2.13776335e-01f,
+2.34394327e-01f,+2.40855694e-01f,+6.55691549e-02f,-1.78684115e-01f,-4.19108337e-03f,
+2.68500328e-01f,+1.15335964e-01f,-4.33251485e-02f,+3.39314751e-02f,+3.00068557e-01f,
+7.73800835e-02f,-1.12478845e-01f,+1.82939976e-01f,+8.29138048e-03f,+6.13433383e-02f,
+3.48797031e-02f,+4.16102916e-01f,+9.15668085e-02f,+3.05571735e-01f,+1.24010861e-01f,
+4.75731678e-02f,+1.25390142e-01f,-1.39960861e-02f,+1.93021186e-02f,-1.69628635e-01f,
+1.49434716e-01f,+2.91277263e-02f,+6.50869012e-02f,+2.85979033e-01f,+1.21791959e-01f,
+1.26784831e-01f,-4.99675237e-02f,+3.65901478e-02f,+1.83657840e-01f,+1.51244909e-01f,
+1.53544888e-01f,-4.53053564e-02f,-2.52445370e-01f,-3.59061733e-02f,+5.31633571e-02f,
+2.38479868e-01f,+5.09718880e-02f,+1.02838993e-01f,-7.43304053e-03f,+2.57602215e-01f,
-9.33560058e-02f,+1.39472103e-02f,+1.25664234e-01f,+2.03684215e-02f,+1.41214177e-01f,
-1.39576122e-01f,+2.32049823e-03f,+3.49328786e-01f,+1.51400179e-01f,-1.45053059e-01f,
-6.71194941e-02f,-2.82189958e-02f,-1.66077521e-02f,-2.41798200e-02f,+1.16383381e-01f,
+5.01287058e-02f,+1.45723477e-01f,+1.11445002e-02f,-2.87280887e-01f,+5.94273843e-02f,
+1.95625708e-01f,-1.19106457e-01f,-5.89530841e-02f,+3.82972471e-02f,+2.14422986e-01f,
-2.04121456e-01f,-4.12818417e-03f,+3.71518821e-01f,-4.51187342e-02f,+2.51221180e-01f,
+8.64341110e-02f,+1.24727204e-01f,+2.20419303e-01f,+1.01012029e-01f,+4.52130428e-03f,
+1.99059471e-01f,+8.88867155e-02f,-1.91236794e-01f,+3.94884534e-02f,+9.50734988e-02f,
-4.11908567e-01f,+1.25850784e-02f,+8.03716108e-02f,+8.69951025e-03f,+3.48835617e-01f,
-2.88292877e-02f,+1.00460447e-01f,+1.36351913e-01f,-2.98993923e-02f,+4.26742658e-02f,
+6.52695820e-02f,+1.11602649e-01f,+6.50380477e-02f,+3.01312387e-01f,+2.12966010e-01f,
+2.64024496e-01f,+1.15052693e-01f,+2.55278975e-01f,-1.46680042e-01f,+2.28274420e-01f,
+1.05655663e-01f,+1.56244799e-01f,+1.80276766e-01f,+1.10949859e-01f,+1.04846805e-01f,
-2.78491914e-01f,+2.44602531e-01f,+4.75131944e-02f,+1.12404495e-01f,+2.18894780e-02f,
-6.48155436e-02f,-5.63200302e-02f,-3.46425571e-03f,+1.50163740e-01f,+1.87028781e-01f,
+1.74832806e-01f,-6.56138211e-02f,-4.40677255e-03f,+3.73182207e-01f,-7.16429055e-02f,
-2.28034295e-02f,+2.43391588e-01f,+1.88175775e-02f,+1.64453566e-01f,+4.91123348e-02f,
+2.68286884e-01f,-1.17442340e-01f,-2.19654068e-02f,+2.07491875e-01f,+5.74642851e-04f,
+7.21141696e-02f,-6.09560385e-02f,-2.27548294e-02f,+1.28547058e-01f,+4.88884598e-02f,
+2.21136302e-01f,+1.72836035e-01f,+6.03482127e-02f,+9.23729837e-02f,+1.73860237e-01f,
+3.19226593e-01f,+1.89526439e-01f,+2.79127777e-01f,+9.18479338e-02f,-1.73762143e-01f,
+2.16249317e-01f,-1.91698968e-02f,+1.72686771e-01f,+3.95381078e-02f,+1.87479526e-01f,
-2.60933507e-02f,+1.71078146e-01f,+1.79682270e-01f,+1.72053056e-03f,+3.31710011e-01f,
+3.21121484e-01f,+1.53776258e-01f,+6.16604201e-02f,-1.38451040e-01f,+1.09890774e-02f,
+2.91123837e-01f,+5.34005538e-02f,+1.38127714e-01f,-4.81379963e-02f,-3.38528343e-02f,
-2.25566756e-02f,-2.96593934e-01f,+2.76902884e-01f,+9.44221579e-03f,+2.05112711e-01f,
+2.26078555e-01f,-1.96653068e-01f,+2.88663596e-01f,+8.48550349e-02f,+3.02236408e-01f,
+2.69977659e-01f,+8.22179839e-02f,+6.35478795e-02f,+1.54674856e-03f,+1.61451787e-01f,
+7.93583766e-02f,+2.87180752e-01f,-1.58604793e-02f,-3.34297717e-02f,-1.97267421e-02f,
+5.25608771e-02f,+3.07843298e-01f,-2.67418861e-01f,-6.27572387e-02f,+7.40092546e-02f,
+2.83120442e-02f,-7.52468854e-02f,+3.54798473e-02f,+3.87933776e-02f,-8.87118876e-02f,
-8.71586055e-02f,+1.97097823e-01f,-7.93327093e-02f,+4.91144881e-02f,+7.52451122e-02f,
-1.25016561e-02f,+1.16602965e-01f,+2.46927515e-01f,+7.62033975e-03f,+9.21157375e-02f,
-1.64585724e-01f,-1.58272550e-01f,+2.93837786e-02f,+7.84919187e-02f,+1.98428452e-01f,
+3.78444165e-01f,+2.20864594e-01f,+6.02698065e-02f,+1.16393782e-01f,+9.06570926e-02f,
-5.34032211e-02f,+1.09211251e-01f,+1.80868596e-01f,+4.82481817e-04f,+2.94002712e-01f,
-5.12792282e-02f,+1.42827809e-01f,+1.57390069e-02f,+1.50614202e-01f,+1.67373940e-01f,
+1.61810726e-01f,+1.11327752e-01f,+8.61806497e-02f,+2.16437474e-01f,+6.62515014e-02f,
+2.52883397e-02f,+1.83102265e-01f,+1.60626382e-01f,-2.66747549e-02f,+1.43524244e-01f,
+7.78225586e-02f,+2.02253222e-01f,+2.63386488e-01f,+3.53524387e-02f,+2.96029568e-01f,
+1.60078943e-01f,-1.06411934e-01f,+1.90848589e-01f,+3.46761127e-03f,-3.04019991e-02f,
+1.33814961e-01f,+1.61019295e-01f,-2.08356053e-01f,+1.26000479e-01f,+7.01066107e-02f,
+2.16633201e-01f,-3.23400907e-02f,-2.85781454e-02f,+1.10026971e-01f,+4.34643775e-02f,
-1.36707261e-01f,+2.02032909e-01f,+2.19038188e-01f,+4.82990220e-03f,+3.00364848e-02f,
+4.26778346e-02f,-1.36124436e-02f,+3.69029008e-02f,-3.37471776e-02f,+8.42859522e-02f,
-4.33349498e-02f,+1.41428337e-01f,+2.14700013e-01f,+1.08259216e-01f,+5.15123829e-02f,
+1.70629263e-01f,-1.49303526e-01f,+1.84267014e-01f,+2.34384552e-01f,+1.22785028e-02f,
+2.37948895e-01f,-1.94615475e-03f,+1.04361502e-02f,-1.99396014e-02f,+4.97802682e-02f,
+1.32112056e-01f,+1.13150075e-01f,+9.89758670e-02f,-6.65499736e-03f,-9.08406917e-03f,
-5.76041937e-02f,+1.45824075e-01f,+2.14459181e-01f,+1.73335031e-01f,+7.94468541e-03f,
+1.35545567e-01f,+9.04726610e-02f,+1.86845228e-01f,-4.26280089e-02f,-2.58358531e-02f,
+8.33091810e-02f,+2.00683132e-01f,+7.14233443e-02f,-3.43381763e-02f,+6.07306808e-02f,
-2.28174746e-01f,+4.52935696e-02f,+1.79558948e-01f,+1.69878080e-02f,+2.51433700e-01f,
-1.52372301e-01f,-5.29566221e-02f,-4.84641381e-02f,-1.24462845e-03f,+1.96094900e-01f,
+1.03492677e-01f,+2.13649586e-01f,+1.16868846e-01f,+8.09666440e-02f,+1.18268386e-03f,
+3.18882614e-02f,+1.73053488e-01f,-1.82002306e-01f,-8.94603133e-02f,-1.42732412e-01f,
+1.59368128e-01f,+1.80068523e-01f,+6.97473213e-02f,-1.62167534e-01f,-1.48016959e-01f,
+7.92251006e-02f,+3.71404625e-02f,+2.35753238e-01f,+2.85351113e-03f,+8.28851387e-02f,
+6.21884704e-01f,+1.86206609e-01f,+9.04262289e-02f,+6.78559244e-02f,+3.00514668e-01f,
-7.59909824e-02f,-2.31821731e-01f,+4.90206666e-02f,+3.13696861e-02f,+5.04962914e-02f,
+8.16373751e-02f,+1.03543788e-01f,-5.46749867e-02f,+6.16443343e-02f,-8.31840783e-02f,
+1.68370530e-01f,+6.46596700e-02f,+1.39062390e-01f,-1.97038706e-03f,+1.94571525e-01f,
-8.44011530e-02f,+4.13559787e-02f,+1.15150340e-01f,-1.26088068e-01f,+1.27475649e-01f,
+2.04988033e-01f,+4.04470600e-02f,+6.34197518e-02f,+2.50807911e-01f,-7.87472352e-02f,
+6.74183220e-02f,+1.49497753e-02f,-8.93855393e-02f,-3.12367361e-02f,+7.59448707e-02f,
-9.13369060e-02f,+1.11587219e-01f,+1.62630662e-01f,+1.66439101e-01f,+2.70032048e-01f,
-5.87522946e-02f,-4.43429500e-02f,-5.15070371e-03f,+1.11836242e-02f,+2.82251537e-01f,
+9.62935016e-03f,+4.54201072e-01f,+5.13840169e-02f,+6.51996359e-02f,+1.24083450e-02f,
-1.14157028e-01f,+2.48197019e-01f,+1.31496415e-01f,+1.29910901e-01f,+1.34755164e-01f,
+2.75886923e-01f,+3.30662310e-01f,-4.35176045e-02f,+5.33008203e-02f,+3.84648070e-02f,
-1.22292839e-01f,+1.88329935e-01f,+8.71974677e-02f,+1.17220879e-01f,+7.04496130e-02f,
-1.12480382e-02f,+1.37594417e-01f,+1.44474447e-01f,-3.74875516e-02f,+1.12739876e-02f,
+8.34856108e-02f,-8.65064338e-02f,-4.50328588e-02f,-7.76416063e-02f,+2.33160228e-01f,
+3.08761504e-02f,-1.66400179e-01f,+6.40604496e-02f,+1.74400926e-01f,+3.76036316e-02f,
+3.31867009e-01f,+2.55980462e-01f,+1.86943367e-01f,-2.68087775e-01f,+1.89591572e-01f,
-1.05601080e-01f,-5.24405614e-02f,+7.63230249e-02f,-8.77265539e-03f,+8.37445632e-02f,
+3.81166749e-02f,+1.96936458e-01f,+1.27643710e-02f,+8.43959227e-02f,-2.24833563e-02f,
-1.03727527e-01f,-5.99593334e-02f,+9.29531008e-02f,+2.69254185e-02f,+7.25711063e-02f,
+1.99502129e-02f,+1.37055650e-01f,+9.92549807e-02f,+2.29202420e-01f,+1.43429011e-01f,
-1.74910054e-02f,+1.44661561e-01f,+1.06981307e-01f,+4.41409528e-01f,-6.06657863e-02f,
+1.18110679e-01f,+8.82150978e-02f,-6.59474432e-02f,+5.84071316e-02f,+1.36938855e-01f,
+8.76599476e-02f,-4.65054810e-02f,+1.41413748e-01f,+1.17159449e-02f,+7.90399387e-02f,
+1.34874895e-01f,+6.07073419e-02f,-7.22793117e-02f,+2.95673534e-02f,+4.73033777e-03f,
+9.10358280e-02f,-7.16087297e-02f,+8.22810456e-02f,+2.28876591e-01f,+9.15764198e-02f,
+1.89843789e-01f,+1.36193544e-01f,+1.00236207e-01f,+1.67208500e-02f,-2.22693995e-01f,
-2.87172925e-02f,-1.27197906e-01f,+1.10008292e-01f,-1.42291542e-02f,+1.42599285e-01f,
+1.29160970e-01f,+1.98172450e-01f,+8.27763081e-02f,-2.72417888e-02f,+7.89430812e-02f,
+7.55708478e-03f,+2.11931244e-02f,+1.25134036e-01f,-2.05517128e-01f,-5.04415631e-02f,
+9.45043191e-02f,+5.73172048e-02f,-1.16366316e-02f,+1.50554523e-01f,+9.93349925e-02f,
+9.91835818e-02f,+1.74702257e-02f,+1.13265350e-01f,-2.60755233e-03f,+5.86908497e-02f,
+4.73400112e-03f,+1.32403210e-01f,+2.04945300e-02f,+6.66451966e-03f,+1.54537320e-01f,
+4.71455492e-02f,+1.26619995e-01f,-5.55763096e-02f,+9.33759958e-02f,+1.10182419e-01f,
+2.06579372e-01f,+1.41073778e-01f,+1.36454657e-01f,+7.11816102e-02f,+1.55922890e-01f,
+1.08794332e-01f,+4.00205217e-02f,-7.07101971e-02f,+9.31800082e-02f,+1.83041945e-01f,
-1.20158322e-01f,-1.44450720e-02f,+4.95643727e-02f,+1.49379522e-01f,+1.86613575e-01f,
+1.39269963e-01f,+1.24457620e-01f,+7.30601922e-02f,+3.91060673e-02f,+1.11859560e-01f,
-1.14874050e-01f,-9.09589976e-02f,+1.04409717e-01f,+1.13897562e-01f,-4.60753627e-02f,
-1.67006165e-01f,+2.70022154e-01f,+1.49962559e-01f,+1.53767467e-01f,+1.48414940e-01f,
+2.24926680e-01f,+2.03616232e-01f,-8.07480663e-02f,+2.54087448e-01f,+6.07849956e-02f,
+5.39829582e-02f,+2.58535653e-01f,+4.00817115e-03f,+1.57196179e-01f,+1.18595056e-01f,
-1.28806740e-01f,-1.96559832e-01f,+1.23430669e-01f,+2.25050062e-01f,+2.08492130e-01f,
-1.78641662e-01f,+1.20562121e-01f,+1.87766142e-02f,-8.84013996e-02f,+1.56046629e-01f,
+1.37977481e-01f,+1.38008790e-02f,+8.73368531e-02f,+7.04699978e-02f,+1.70159161e-01f,
+5.88226542e-02f,+1.80083234e-02f,+3.72309610e-02f,+2.12736279e-01f,+9.16487277e-02f,
-4.09999862e-02f,-1.64521083e-01f,-1.10372767e-01f,+8.57118070e-02f,+1.58515960e-01f,
+1.05193220e-01f,+8.78520161e-02f,+1.37591287e-01f,-2.07987055e-02f,+2.38002222e-02f,
+7.19495192e-02f,+3.28940690e-01f,-1.17137156e-01f,-5.32337613e-02f,-8.55900755e-04f,
+2.34658644e-01f,+1.94761932e-01f,+1.00850768e-01f,-1.38083309e-01f,+1.61344707e-01f,
-6.56350553e-02f,+1.11899570e-01f,+2.36607324e-02f,+3.97286415e-02f,-6.65730163e-02f,
-5.42534888e-03f,+2.46222854e-01f,+3.84112373e-02f,+2.28292465e-01f,+1.93530381e-01f,
+2.84841470e-02f,-1.13665946e-01f,-2.05762051e-02f,+4.02983688e-02f,+7.88535029e-02f,
-6.10742085e-02f,+1.86020821e-01f,+1.13615662e-01f,-9.88215506e-02f,+2.66611800e-02f,
+9.87493843e-02f,+1.59270298e-02f,-5.62494099e-02f,+3.15848626e-02f,-1.06130198e-01f,
+1.03456602e-01f,+2.46123951e-02f,+2.11296920e-02f,+1.72390454e-02f,+4.69110534e-02f,
+1.33560747e-01f,-3.81840914e-02f,-1.27815589e-01f,+4.06397041e-04f,+4.85615106e-03f,
+5.22932149e-02f,+6.67994618e-02f,+1.15560301e-01f,+3.83584470e-01f,-1.61348209e-02f,
+1.66626096e-01f,-3.30642462e-01f,-8.84682536e-02f,-2.63938993e-01f,-6.86279312e-02f,
-3.20584774e-02f,-6.80930391e-02f,+2.51260530e-02f,+5.66285431e-01f,-1.72299340e-01f,
+2.43609250e-01f,-2.06321329e-01f,-2.53193617e-01f,+3.60089950e-02f,+5.25569916e-02f,
-1.50088906e-01f,+5.53066254e-01f,+3.72368246e-02f,-6.76594153e-02f,-1.91521257e-01f,
+2.49011025e-01f,-1.09062009e-01f,-6.51636720e-02f,+2.64556289e-01f,-2.68323451e-01f,
-2.18934827e-02f,+1.32155210e-01f,+4.14308235e-02f,-2.28407353e-01f,+5.16126454e-02f,
+1.88433155e-01f,+8.46061110e-02f,-1.14819951e-01f,+8.77543837e-02f,-1.23750910e-01f,
+9.29436460e-02f,+1.19453691e-01f,+1.00660428e-01f,-8.77305120e-02f,+2.65627414e-01f,
-1.41317606e-01f,-1.69376493e-01f,-1.16577871e-01f,+1.19154360e-02f,+5.19465469e-02f,
-2.62874421e-02f,+2.52305657e-01f,+2.24686384e-01f,+5.20381033e-02f,+2.06861421e-02f,
-1.23212701e-02f,+1.58545196e-01f,-1.67551059e-02f,+1.45933032e-01f,-2.72063702e-01f,
+8.89571831e-02f,-2.40858823e-01f,-7.67323971e-02f,+9.63366311e-03f,-9.40060094e-02f,
+5.29950522e-02f,-6.25523552e-02f,+1.05734013e-01f,-1.26650319e-01f,-3.46900314e-01f,
-1.15716957e-01f,+1.03817970e-01f,-1.16128415e-01f,+6.01754077e-02f,+3.39469127e-02f,
-2.56253104e-03f,+2.72892993e-02f,+4.31696363e-02f,+1.31675109e-01f,-3.66117544e-02f,
-1.69876710e-01f,+1.12308696e-01f,+2.31012073e-03f,+4.44714308e-01f,+5.85039631e-02f,
-1.25284180e-01f,-2.03674361e-01f,+5.83007149e-02f,+2.64253765e-02f,-2.42106602e-01f,
-1.48441777e-01f,+2.04848513e-01f,+6.01500133e-03f,-1.47034079e-01f,-1.45434946e-01f,
-1.16361149e-01f,+1.50324985e-01f,-7.90006369e-02f,+3.62575620e-01f,+1.83833465e-01f,
+2.17442408e-01f,+2.25458860e-01f,-7.59394665e-04f,+1.16923414e-01f,-3.05163022e-02f,
+1.13100335e-01f,+1.67502295e-02f,-2.19577521e-01f,+2.31028721e-02f,-1.31684514e-02f,
-1.36448756e-01f,+2.02657431e-02f,-1.13026068e-01f,+4.63244975e-01f,+1.10787004e-01f,
+1.31826818e-01f,+1.92368463e-01f,-2.36069769e-01f,+1.86298192e-01f,+1.15932070e-01f,
+1.30623072e-01f,-6.82008639e-02f,+9.04524475e-02f,-1.35630835e-02f,-3.67268771e-01f,
-1.08802520e-01f,-2.22576670e-02f,-1.48251057e-01f,-2.47896582e-01f,+3.81365232e-02f,
-1.32914558e-01f,+1.67743072e-01f,-1.83162540e-02f,-1.28611371e-01f,+1.38911428e-02f,
-1.86580181e-01f,-2.03433454e-01f,-2.68567167e-02f,+5.11047363e-01f,+2.46318907e-01f,
+1.77013531e-01f,-3.38471942e-02f,-4.01372351e-02f,+1.98173821e-01f,+1.65049151e-01f,
+1.06339842e-01f,-5.82351955e-03f,-3.18701076e-03f,-3.32724601e-01f,+3.32224816e-01f,
+2.91398406e-01f,-7.83886164e-02f,+1.88177302e-02f,+2.09906802e-01f,-6.64050430e-02f,
-8.85895193e-02f,+8.00320506e-02f,+7.83025399e-02f,+1.34951070e-01f,+2.43350174e-02f,
+1.80892289e-01f,-1.75545186e-01f,-6.37690211e-03f,+7.21032917e-02f,-1.77082345e-01f,
+3.14850695e-02f,+1.52196258e-01f,-3.95303965e-01f,-2.50213295e-01f,+3.15236561e-02f,
+6.04958721e-02f,+1.75519869e-01f,+8.56649801e-02f,+5.99415824e-02f,-1.15264103e-01f,
-4.94183525e-02f,+9.32013094e-02f,+1.59784883e-01f,+1.64363921e-01f,+1.14368446e-01f,
-1.73234358e-01f,+3.25691402e-02f,-4.66146618e-02f,+2.73097396e-01f,-8.36939961e-02f,
-2.97302119e-02f,+8.02740008e-02f,+3.07871103e-02f,-2.32014328e-01f,+7.80138895e-02f,
-6.34040907e-02f,+1.13036916e-01f,+2.22879350e-01f,-1.42299145e-01f,-5.49197420e-02f,
+1.34980962e-01f,-3.18226628e-02f,+5.35481721e-02f,+3.53508145e-02f,+1.03009827e-01f,
-1.32441133e-01f,-4.31665368e-02f,-3.31087112e-02f,-1.01762794e-01f,-1.27653137e-01f,
-6.38595819e-02f,-9.87479538e-02f,-2.91803718e-01f,-3.42260674e-02f,+2.16743201e-02f,
-1.84712626e-04f,+1.37744574e-02f,-1.05780706e-01f,+5.83419576e-02f,-1.09733805e-01f,
+1.70424413e-02f,+2.83971548e-01f,+4.59506735e-02f,+1.04247898e-01f,-2.32207865e-01f,
+1.70102537e-01f,-7.43383914e-02f,-7.55558088e-02f,+2.88632780e-01f,+1.27808169e-01f,
+3.66206691e-02f,+1.34102166e-01f,-2.76496351e-01f,+1.05492212e-01f,+2.86368225e-02f,
+3.12202841e-01f,+9.14047658e-02f,+1.28423899e-01f,+1.74136892e-01f,+7.05101155e-03f,
-3.88940834e-02f,+2.26178378e-01f,+2.42508724e-02f,-8.36871266e-02f,+3.91091406e-02f,
+1.52621582e-01f,-7.54017532e-02f,-5.67582473e-02f,-2.66527414e-01f,-1.24450661e-01f,
+5.57634756e-02f,-8.74511302e-02f,+5.28911650e-02f,-1.07281804e-01f,+1.12536348e-01f,
+1.08182244e-03f,-4.57024015e-02f,-5.91510683e-02f,+8.92775655e-02f,-1.46202231e-02f,
+2.17559084e-01f,-3.43365818e-02f,-1.36797093e-02f,-2.45701559e-02f,+5.55532845e-03f,
-2.06270099e-01f,+3.98554914e-02f,+9.25741624e-03f,-8.87720510e-02f,-2.15927929e-01f,
-7.23754242e-03f,+3.91304940e-02f,+1.10500261e-01f,+1.31447896e-01f,-4.90737818e-02f,
+3.75650101e-03f,-1.03531912e-01f,-1.19944839e-02f,+1.34875014e-01f,+5.95681332e-02f,
-1.38738990e-01f,+9.62409675e-02f,-1.82081357e-01f,+1.33102044e-01f,+1.09831139e-01f,
+1.31841391e-01f,+2.13316455e-01f,+2.85391390e-01f,-1.90588340e-01f,+1.17577584e-02f,
+1.41272888e-01f,+2.42024168e-01f,+7.76791200e-02f,+5.09541668e-02f,-9.02947038e-02f,
+2.72435427e-01f,+7.19622895e-02f,+2.13779405e-01f,+1.05494715e-01f,+1.15304671e-01f,
+7.62627497e-02f,+3.27874929e-01f,-1.70443520e-01f,-4.13325764e-02f,+2.41360709e-01f,
+3.99142243e-02f,+2.61093527e-01f,+1.94114208e-01f,+6.36827499e-02f,+1.52968153e-01f,
+2.53929168e-01f,-7.49575645e-02f,+1.24400266e-01f,-3.07878107e-02f,+1.71215907e-01f,
+2.42527172e-01f,+2.49784350e-01f,+1.03338987e-01f,+1.61989570e-01f,-2.92810462e-02f,
-7.06380932e-03f,+1.24933876e-01f,+2.60268338e-02f,+6.59692734e-02f,+2.06534099e-02f,
+1.62482083e-01f,+1.76123828e-01f,-2.07511991e-01f,+5.15075363e-02f,+2.26458073e-01f,
-1.18104080e-02f,+3.56699154e-02f,-9.27747339e-02f,+8.36429819e-02f,-3.81982364e-02f,
+3.32285285e-01f,+2.02363897e-02f,+2.59348661e-01f,+5.93853556e-02f,-4.26822202e-03f,
+1.35901898e-01f,-1.16923302e-01f,+2.72582054e-01f,+1.01591162e-01f,+1.78718194e-01f,
+2.69621946e-02f,+2.24017605e-01f,+4.33366299e-02f,+4.45711911e-02f,-5.69127165e-02f,
-2.73080736e-01f,+4.64177020e-02f,+1.72627062e-01f,+5.98445348e-02f,+1.60487909e-02f,
+1.23576954e-01f,+8.49034488e-02f,+1.51682690e-01f,+2.39992112e-01f,-6.43573925e-02f,
+2.94946227e-02f,+1.45049468e-01f,+9.16425046e-03f,+5.38582951e-02f,+1.66012328e-02f,
+1.12698391e-01f,+1.41596392e-01f,-1.65737327e-02f,+2.98387259e-01f,+7.07573667e-02f,
+4.61587943e-02f,-2.04573885e-01f,+1.92532450e-01f,-1.21573202e-01f,-1.32096745e-02f,
-1.25626859e-04f,+8.96765441e-02f,+2.83457674e-02f,-1.16587847e-01f,+9.47135985e-02f,
-1.25920743e-01f,+9.89937335e-02f,+3.05075884e-01f,+1.85352013e-01f,+1.95940405e-01f,
+2.07433805e-01f,+1.17200509e-01f,+4.56448197e-02f,+1.84221655e-01f,+7.49732032e-02f,
+1.40655458e-01f,+2.69492000e-01f,+2.61230201e-01f,+1.54783070e-01f,-2.97894239e-01f,
+2.39884317e-01f,-1.03766516e-01f,+1.90843284e-01f,-1.27849832e-01f,+2.08119750e-01f,
-3.68548706e-02f,+2.86298186e-01f,-1.33733228e-01f,-6.45558536e-02f,-5.15461266e-02f,
-1.91766992e-02f,+1.37858704e-01f,+1.89455688e-01f,-6.53675618e-03f,+3.41590345e-01f,
+1.70296580e-01f,+1.37801915e-01f,+2.20690638e-01f,-1.22018024e-01f,+1.49507463e-01f,
-3.66972461e-02f,+4.46930900e-02f,-1.36306658e-01f,+2.13576436e-01f,+4.96012643e-02f,
-1.48192719e-01f,+1.78956613e-01f,+4.07009423e-02f,-1.98624417e-01f,+2.94937015e-01f,
-8.70101526e-02f,+1.37299318e-02f,+1.75127223e-01f,+3.37027729e-01f,+2.32324645e-01f,
+1.01270854e-01f,+2.59318918e-01f,+1.78626031e-01f,-3.02145779e-02f,+2.82151103e-01f,
+1.42453546e-02f,+1.59741729e-01f,+2.98262149e-01f,+4.97338101e-02f,+9.23711061e-02f,
-4.42252047e-02f,+1.66419009e-03f,-3.47218335e-01f,-5.56414276e-02f,+2.60764714e-02f,
+1.00443758e-01f,+2.82595009e-01f,+7.80082792e-02f,+7.01806648e-03f,+1.74331903e-01f,
+6.59011528e-02f,-9.15833786e-02f,+8.61319527e-02f,-9.32551548e-03f,+1.40176669e-01f,
+2.51142859e-01f,-3.85808498e-02f,+1.87863529e-01f,-2.68588476e-02f,+3.24869156e-01f,
+1.85351551e-03f,+4.94160615e-02f,-4.08747839e-03f,+3.57730165e-02f,+1.29000485e-01f,
+1.03399344e-01f,-1.05792575e-03f,-2.04465747e-01f,+1.57256588e-01f,-3.08989678e-02f,
-7.73833245e-02f,+5.59227057e-02f,+3.35396603e-02f,-9.73105952e-02f,+1.67458802e-01f,
+2.51064926e-01f,-4.96312650e-03f,+6.06245659e-02f,-2.82826424e-01f,+1.84658840e-01f,
+2.29262501e-01f,+4.60388474e-02f,-1.71432532e-02f,+1.90049186e-01f,+2.51030535e-01f,
+1.61606476e-01f,+8.34992304e-02f,-7.04353899e-02f,+1.35592371e-01f,-6.33843616e-02f,
+1.97778836e-01f,-4.46843989e-02f,+5.54270251e-03f,-9.98817980e-02f,-1.23243906e-01f,
-2.20468864e-02f,+3.21139723e-01f,+7.63195828e-02f,-3.51331793e-02f,-9.39564332e-02f,
+9.03993323e-02f,+1.12335101e-01f,+2.05762714e-01f,+8.16762671e-02f,+3.30577642e-02f,
+6.28298149e-02f,-1.45158723e-01f,-6.13505580e-02f,-9.95277613e-02f,+1.15362816e-01f,
+1.33392319e-01f,+8.99531320e-03f,+2.94795632e-02f,-4.70024385e-02f,+2.45258436e-01f,
+5.21133952e-02f,+3.12446147e-01f,-4.30471897e-02f,-1.16039641e-01f,+8.21400508e-02f,
+1.02264300e-01f,+1.26840875e-01f,+9.59554091e-02f,+1.39764816e-01f,+2.11837947e-01f,
+1.80496927e-02f,+6.62675723e-02f,-1.26278505e-01f,+3.17311049e-01f,+1.59392461e-01f,
+2.87392378e-01f,+2.70730257e-01f,-1.99236628e-02f,+1.41682580e-01f,+1.52071029e-01f,
+1.34829149e-01f,+1.83529243e-01f,+4.89758961e-02f,+5.62454984e-02f,+1.66192666e-01f,
-2.97873735e-01f,+2.57154077e-01f,-4.61881012e-02f,-1.39153719e-01f,+3.03488582e-01f,
-9.19150710e-02f,+1.20136924e-01f,+1.12582549e-01f,+1.08947285e-01f,+1.48134530e-01f,
+1.53770760e-01f,+6.26653060e-02f,-6.38542930e-04f,+6.07961556e-03f,+7.04145133e-02f,
-1.19921513e-01f,-8.44068527e-02f,+7.30084479e-02f,+1.13722272e-01f,+1.09750792e-01f,
+6.29542349e-03f,-3.84559222e-02f,-1.83369696e-01f,-2.20741883e-01f,+1.72580317e-01f,
-6.92187026e-02f,+4.28820439e-02f,+1.31735196e-02f,+4.05055910e-01f,+1.70577660e-01f,
+6.26432672e-02f,+5.11604138e-02f,+2.87871838e-01f,+3.12399399e-02f,+9.65011213e-03f,
+3.34126991e-03f,+1.37966961e-01f,+1.38810143e-01f,+7.46275485e-02f,+3.10781635e-02f,
+6.63310215e-02f,+2.03521147e-01f,+1.22425728e-01f,+5.16918413e-02f,-5.88463917e-02f,
-4.42828052e-02f,-4.35316972e-02f,+1.21759899e-01f,+6.55818358e-02f,+8.75993259e-03f,
+2.53766179e-01f,-8.14022571e-02f,+1.07936608e-02f,+1.52982682e-01f,+3.05516720e-02f,
-1.15147699e-02f,+1.55778512e-01f,-2.46525705e-01f,+2.32042000e-01f,+1.38387665e-01f,
+2.15622559e-01f,+1.22907512e-01f,-1.47655547e-01f,+1.04454808e-01f,-5.32391481e-02f,
+6.94004819e-02f,+9.35874600e-03f,+2.00273134e-02f,+8.93200412e-02f,-1.57057736e-02f,
-8.01366866e-02f,+3.14036310e-01f,+1.25749692e-01f,-7.43518248e-02f,-2.09219139e-02f,
+5.08392118e-02f,-3.71471010e-02f,+1.94336101e-01f,+2.60318816e-01f,+5.43134034e-01f,
-1.49473660e-02f,-2.76701391e-01f,-2.80071571e-02f,+1.33294538e-01f,+1.37458295e-01f,
-1.56689003e-01f,+2.33892366e-01f,+3.49707343e-02f,+4.87915799e-02f,+4.61051427e-02f,
-4.46736515e-02f,+4.18717377e-02f,+7.07602575e-02f,+1.47777408e-01f,+5.41112237e-02f,
-4.64692228e-02f,+1.42617766e-02f,-1.22682370e-01f,+1.65081814e-01f,-1.79065447e-02f,
+2.04322830e-01f,+2.24856343e-02f,+1.03562057e-01f,+5.51700667e-02f,-5.81744239e-02f,
-6.19778261e-02f,+8.02835673e-02f,+3.00883919e-01f,+7.91629031e-02f,+3.83346304e-02f,
+8.73549655e-02f,+1.45604014e-01f,+9.85814109e-02f,+2.05982149e-01f,-7.23482519e-02f,
+6.21384941e-02f,+1.09043285e-01f,-1.12533979e-01f,+1.43629476e-01f,+4.39931303e-02f,
+1.90695539e-01f,-4.07674275e-02f,-5.88221755e-03f,+1.62157565e-01f,+8.58843625e-02f,
-4.62528355e-02f,-9.39027742e-02f,+2.38165557e-01f,-3.85158285e-02f,-1.14411183e-01f,
-3.06057990e-01f,+1.35528535e-01f,+8.21365695e-03f,+6.72713667e-02f,+2.59173602e-01f,
-2.31546201e-02f,-6.19558655e-02f,+1.07576298e-02f,+1.85045213e-01f,-1.50245622e-01f,
+3.59631963e-02f,-1.01702930e-02f,+2.40288768e-02f,+8.08959231e-02f,+5.54842614e-02f,
+1.96968131e-02f,+9.94651318e-02f,-8.20454806e-02f,+2.74074733e-01f,+1.70833752e-01f,
+4.41287756e-02f,+3.42312045e-02f,-6.95054233e-02f,+2.04112828e-01f,+8.09421763e-02f,
+1.41731292e-01f,+3.77267674e-02f,+3.85368615e-01f,-9.79996547e-02f,+5.03596701e-02f,
+1.34138754e-02f,+8.09690729e-02f,+1.24748804e-01f,-8.01142529e-02f,+1.23602487e-01f,
+2.61048913e-01f,-2.92463601e-02f,-7.21234903e-02f,-1.59488693e-01f,-1.37047693e-01f,
+5.42395785e-02f,+1.04193613e-01f,-9.03733298e-02f,-9.82846022e-02f,-4.74296650e-03f,
+1.34791166e-01f,-1.82930812e-01f,-2.70858239e-02f,+1.13882825e-01f,-4.64677289e-02f,
+8.94058645e-02f,-1.57080933e-01f,+3.48894522e-02f,+6.16462305e-02f,+1.14553738e-02f,
+1.55184388e-01f,-4.25553359e-02f,+1.85153186e-01f,+9.58338752e-02f,+3.36078584e-01f,
-3.99940386e-02f,-2.02758700e-01f,-1.40366942e-01f,+1.09170422e-01f,+5.07491305e-02f,
-1.85574051e-02f,+2.11649984e-01f,+1.53523609e-01f,-8.74478966e-02f,+1.85321540e-01f,
+6.74027875e-02f,+6.41048774e-02f,+1.16441227e-01f,+1.62429348e-01f,+1.35559201e-01f,
-1.24581292e-01f,+1.15926392e-01f,+5.08820973e-02f,+5.22595160e-02f,+1.11007482e-01f,
-1.08231738e-01f,-1.05077140e-01f,-5.95884025e-02f,+1.40604213e-01f,+1.18642300e-01f,
+1.07067466e-01f,+3.85227166e-02f,+1.10820420e-01f,+1.23753354e-01f,-5.15234880e-02f,
-4.02191207e-02f,-5.78857735e-02f,+2.42525190e-01f,+2.43519232e-01f,+2.68075019e-01f,
+5.86985908e-02f,+2.97199398e-01f,+1.37753025e-01f,+2.59731710e-01f,+8.79399925e-02f,
+7.87778646e-02f,+1.26657952e-02f,+1.08960964e-01f,+1.40057817e-01f,-4.09753844e-02f,
-1.83569193e-01f,+1.65966852e-03f,+1.05864126e-02f,+1.09419681e-01f,+6.15804754e-02f,
+1.42893285e-01f,+7.98364952e-02f,-2.78894991e-01f,+7.61977211e-02f,+1.07328013e-01f,
+1.66660577e-01f,+7.30891852e-03f,-4.43046801e-02f,-1.77782446e-01f,-2.18674645e-01f,
+8.79828036e-02f,+2.62273308e-02f,-3.32571156e-02f,+8.43902603e-02f,+2.08883703e-01f,
+1.83276817e-01f,+8.10418203e-02f,+4.58883606e-02f,+9.23930258e-02f,+1.36707947e-01f,
+4.87580895e-02f,+3.47454220e-01f,+1.63641110e-01f,-5.91886528e-02f,+2.04247192e-01f,
-1.32770566e-02f,-1.52633101e-01f,+2.91163288e-02f,-1.76318958e-01f,-2.56705284e-01f,
-1.35737792e-01f,+1.11779191e-01f,+6.83065057e-02f,-1.23186387e-01f,-1.05902039e-01f,
+2.28327557e-01f,+5.91075867e-02f,+3.11127882e-02f,-1.17950924e-02f,-2.15242937e-01f,
+2.86727808e-02f,-1.45431921e-01f,+4.10677120e-02f,+1.13572501e-01f,+7.55509883e-02f,
+2.13431958e-02f,+8.63421112e-02f,+2.07729384e-01f,+1.89998373e-01f,+3.43891308e-02f,
+8.43815878e-02f,+9.76606607e-02f,+9.27277654e-02f,+9.01020539e-04f,+7.47802779e-02f,
-1.44999020e-03f,-2.15952899e-02f,+1.31067470e-01f,-2.92361200e-01f,+2.94779122e-01f,
-9.62550789e-02f,+2.02432990e-01f,-1.27438093e-02f,+2.33226448e-01f,+5.13436506e-04f,
-4.81333286e-02f,+6.23002946e-02f,-4.10402045e-02f,+1.29429132e-01f,-3.88461016e-02f,
-8.49015117e-02f,+6.21255161e-03f,-1.63453668e-01f,+2.51198351e-01f,+1.87071618e-02f,
+1.11341946e-01f,-8.21531042e-02f,-3.36409099e-02f,+3.57890241e-02f,+1.34664387e-01f,
+6.99640485e-03f,-2.06682477e-02f,-2.26007059e-01f,-2.43718047e-02f,+7.86096826e-02f,
+3.73895139e-01f,+2.85737723e-01f,+1.29635081e-01f,+8.27206820e-02f,-1.08267151e-01f,
-1.49431333e-01f,+1.77698240e-01f,-7.41947442e-02f,-2.37117395e-01f,+1.15315586e-01f,
-2.41348613e-02f,+2.56776512e-01f,+1.72321650e-03f,-1.71156287e-01f,+7.61585161e-02f,
+1.60940245e-01f,+5.75274155e-02f,+1.68704286e-01f,+2.80629881e-02f,+2.23115459e-01f,
+2.12264240e-01f,+5.22570349e-02f,+9.16180685e-02f,+2.04481538e-02f,+2.42556557e-01f,
+1.06431268e-01f,+1.39889732e-01f,+1.56291619e-01f,+1.51178256e-01f,+3.15555185e-02f,
-1.64975151e-01f,+2.06713080e-01f,+4.19068858e-02f,-4.01618592e-02f,+2.00308144e-01f,
+1.06812328e-01f,+9.82493237e-02f,-1.45429224e-01f,-1.54986948e-01f,+2.26343423e-01f,
-9.85719040e-02f,+2.25892708e-01f,-1.74462512e-01f,+1.23914696e-01f,-3.15048592e-03f,
+1.79339156e-01f,+2.41644142e-04f,+6.05378523e-02f,-4.79780845e-02f,+1.44961149e-01f,
-3.64999510e-02f,-3.44394445e-02f,+8.25568885e-02f,-1.22827455e-01f,-8.32128227e-02f,
+1.81768209e-01f,+8.44507515e-02f,+1.02007538e-01f,+8.04565400e-02f,-1.21439613e-01f,
+2.01145262e-01f,+1.40547067e-01f,-1.10589355e-01f,-7.12591782e-02f,+1.38162881e-01f,
+5.11966869e-02f,+9.70826000e-02f,+5.13631254e-02f,+6.19705729e-02f,-5.63452616e-02f,
+7.87168518e-02f,+7.64798447e-02f,+9.15537104e-02f,+2.44910605e-02f,+1.66335240e-01f,
-2.75740633e-03f,-3.95671904e-01f,-8.58501811e-03f,-2.36454755e-02f,+2.59105235e-01f,
+2.52517790e-01f,+3.19529533e-01f,+1.46697298e-01f,+7.63538256e-02f,+4.01751744e-03f,
-1.18606336e-01f,-5.41446470e-02f,+2.50321209e-01f,+1.57140553e-01f,+2.61656404e-01f,
+2.60732323e-01f,+2.09976025e-02f,-8.73699337e-02f,-1.91778820e-02f,-3.26685421e-03f,
+1.32909223e-01f,+5.86911552e-02f,+6.31427094e-02f,+7.83070251e-02f,-1.35696903e-01f,
+7.12211430e-02f,+1.91353902e-01f,+4.08659913e-02f,+2.85039824e-02f,-4.19028662e-02f,
+1.59537256e-01f,-1.68772065e-03f,+1.28562972e-02f,-4.74593565e-02f,+1.49863688e-02f,
-6.87198807e-03f,+4.72314879e-02f,-3.09410319e-02f,+2.04092801e-01f,-3.25561203e-02f,
-2.74839369e-03f,+4.01348807e-02f,+1.08482733e-01f,+1.14382625e-01f,-2.27582842e-01f,
+5.81060909e-02f,-1.16684719e-03f,-5.15697198e-03f,+4.31849509e-02f,+1.13843687e-01f,
+5.64004630e-02f,+8.01766813e-02f,+3.47848097e-03f,+1.74395353e-01f,+3.68285894e-01f,
+5.94222695e-02f,+8.16417783e-02f,+2.76996195e-02f,+3.96103263e-02f,-1.30924135e-02f,
+1.25628859e-01f,+4.68971655e-02f,-3.02985008e-03f,-1.97318345e-02f,-2.46591106e-01f,
+2.50036474e-02f,+9.87919942e-02f,-2.45444756e-02f,+7.49466866e-02f,+1.12639062e-01f,
+9.21457931e-02f,+2.05569025e-02f,+1.91226806e-02f,-4.61926349e-02f,+1.05757490e-02f,
+1.06416464e-01f,+2.45505363e-01f,+6.13649711e-02f,+7.42779002e-02f,-1.19061768e-01f,
-5.42502366e-02f,+6.06707633e-02f,-1.31377205e-01f,+4.03908938e-02f,+1.25788346e-01f,
+1.26123577e-01f,+6.83559328e-02f,+9.32153091e-02f,+1.31771222e-01f,+9.61912125e-02f,
-3.38072106e-02f,+3.62832509e-02f,+1.89032808e-01f,+1.17584869e-01f,+2.61219561e-01f,
+9.15352106e-02f,+1.09373249e-01f,+1.19393848e-01f,+4.44882587e-02f,+2.08155677e-01f,
+3.23439598e-01f,+1.72412656e-02f,+1.79223254e-01f,+7.35358149e-02f,+1.67111993e-01f,
+1.85339749e-01f,-1.52878324e-02f,+1.69801429e-01f,-4.91767889e-03f,+1.35815188e-01f,
-4.91284057e-02f,-6.93569928e-02f,+1.23012111e-01f,-5.68957068e-02f,+3.61708216e-02f,
+9.91768986e-02f,+1.66287571e-01f,+9.82355624e-02f,+7.95983747e-02f,+1.22808412e-01f,
-4.77513485e-02f,-1.52911106e-02f,-4.05628718e-02f,+1.16358563e-01f,+1.15336500e-01f,
+9.83194709e-02f,-1.36505932e-01f,-4.40625772e-02f,-5.03235683e-02f,+1.38820082e-01f,
-2.46359892e-02f,-1.43956751e-01f,+8.66591632e-02f,+1.69317290e-01f,+2.63048768e-01f,
+1.76823303e-01f,-7.96120800e-03f,+3.47754717e-01f,+9.01379734e-02f,+1.54115394e-01f,
+8.68669525e-02f,+1.58920407e-01f,+4.23874706e-02f,+6.93608820e-02f,-1.00477077e-02f,
+3.91663387e-02f,+1.50984168e-01f,-5.80960475e-02f,-1.75735980e-01f,+1.03119850e-01f,
-1.64815500e-01f,+3.21291983e-02f,+4.30578366e-03f,+1.07225046e-01f,+4.38257083e-02f,
+6.60218224e-02f,+8.95199925e-02f,+1.17186964e-01f,+1.31597281e-01f,+8.12351182e-02f,
-7.39024905e-03f,+2.56058246e-01f,-3.18448134e-02f,+8.85657817e-02f,-6.15490973e-02f,
+1.13662928e-01f,-6.49636090e-02f,-5.53679140e-03f,+4.99654599e-02f,+5.50360493e-02f,
+1.52579948e-01f,+2.02407435e-01f,+2.43186533e-01f,+1.18874036e-01f,+7.66270161e-02f,
+2.90340304e-01f,+2.01112628e-01f,+2.00018361e-01f,+1.08212292e-01f,+7.47447535e-02f,
+7.63018876e-02f,-3.15615684e-02f,+9.37477350e-02f,+2.11798325e-01f,+2.00281277e-01f,
-1.41439959e-01f,+1.01849558e-02f,+2.34454289e-01f,-6.54152781e-02f,+1.20642655e-01f,
+1.94916606e-01f,+1.36338696e-01f,+1.55302614e-01f,+3.56042795e-02f,-6.10169023e-02f,
+5.61117530e-02f,+1.32649809e-01f,+3.89427058e-02f,+3.51418257e-02f,-1.17055528e-01f,
+3.84914353e-02f,+4.10425477e-03f,+6.88199699e-02f,+3.43833327e-01f,+6.55227304e-02f,
+6.02423847e-02f,+1.39535591e-01f,+1.07608274e-01f,+7.57829919e-02f,+5.59089445e-02f,
+5.50054945e-02f,-4.84925508e-02f,-5.57261445e-02f,+1.68943271e-01f,+1.78613961e-01f,
+1.20222725e-01f,-7.85979256e-02f,+1.39928877e-01f,+1.00342572e-01f,+1.33127883e-01f,
+1.65630057e-01f,+8.07665735e-02f,+2.40410976e-02f,+1.28298968e-01f,+3.34451124e-02f,
+4.87692580e-02f,+1.64389774e-01f,-2.94130463e-02f,+5.87515235e-02f,+2.35652983e-01f,
+1.29641235e-01f,+2.29345873e-01f,+3.70399952e-02f,+1.67498365e-01f,+5.03348783e-02f,
+5.49625009e-02f,+1.14919528e-01f,-4.54358160e-02f,+1.26949325e-01f,+2.02608570e-01f,
+1.84272647e-01f,-3.69623303e-02f,-2.45213564e-02f,-4.94955629e-02f,+2.02464592e-02f,
+2.03411102e-01f,+3.43926728e-01f,+5.94776236e-02f,+2.35371999e-02f,-2.67140809e-02f,
+9.78903770e-02f,+7.87790343e-02f,-7.86808506e-02f,-7.80437365e-02f,+9.27306712e-02f,
-2.78649926e-02f,+1.85813103e-03f,+1.25648871e-01f,-1.13648929e-01f,+1.41957834e-01f,
-2.59087496e-02f,+3.19768526e-02f,+1.30636141e-01f,-1.74862351e-02f,-4.25441861e-02f,
+1.95511673e-02f,-6.14261851e-02f,-2.94555277e-01f,-3.73326279e-02f,+2.75160018e-02f,
+9.77186412e-02f,-1.39740914e-01f,+1.06335513e-03f,+3.58592086e-02f,+1.51464224e-01f,
+7.78302327e-02f,-1.23826638e-01f,+3.39556664e-01f,+2.19956357e-02f,+2.84455210e-01f,
+1.69439182e-01f,+1.37451872e-01f,+2.29558244e-01f,-1.87133681e-02f,+1.46803498e-01f,
-1.50404111e-01f,+1.10760406e-01f,-4.90911724e-03f,+8.61450881e-02f,+2.40181491e-01f,
-1.73919067e-01f,-1.10692620e-01f,-6.44949153e-02f,-8.79001915e-02f,+1.46607250e-01f,
+2.30751500e-01f,+8.07268173e-02f,-4.00088821e-03f,+6.82780985e-03f,+6.20053522e-02f,
+1.21131502e-01f,-5.98984808e-02f,+1.94451347e-01f,+1.37748301e-01f,+1.08045280e-01f,
+9.80039015e-02f,+1.08933687e-01f,-1.04443483e-01f,+1.03055254e-01f,+6.43980131e-02f,
-4.22510281e-02f,+2.96127703e-02f,+9.16792303e-02f,+7.63918534e-02f,+6.56171963e-02f,
+5.28135942e-03f,+1.40218616e-01f,+1.03032678e-01f,+1.26627550e-01f,+1.23275481e-01f,
+2.27690022e-02f,-9.37069952e-03f,+1.18641011e-01f,+5.70496023e-02f,+2.82546766e-02f,
+9.85477120e-02f,+1.41588420e-01f,+2.33397737e-01f,-6.61237687e-02f,-1.34231165e-01f,
-1.82185099e-01f,-5.98246343e-02f,-1.88995572e-03f,-3.61474380e-02f,-3.65090859e-03f,
+2.86901165e-02f,-6.50363043e-02f,-9.59905908e-02f,-1.82426289e-01f,-9.26295854e-03f,
-8.38714465e-03f,-5.89019619e-02f,-2.55216837e-01f,+3.20498124e-02f,+1.64280608e-02f,
+5.14564663e-02f,-3.65786590e-02f,-1.43343493e-01f,+1.46610336e-02f,-8.94126594e-02f,
-9.08010602e-02f,-2.75578890e-02f,-2.61687130e-01f,+7.86089674e-02f,+4.12764885e-02f,
-1.05897211e-01f,-1.53231591e-01f,+1.96553066e-01f,+2.62043178e-01f,+1.45627469e-01f,
+4.32795249e-02f,-6.04702570e-02f,-2.28004195e-02f,-4.98457626e-02f,+4.90485020e-02f,
+1.10094257e-01f,-8.78572464e-02f,-1.11996539e-01f,+3.91281426e-01f,+1.71181470e-01f,
+1.04074299e-01f,-1.01456702e-01f,+2.67133564e-01f,+7.94600844e-02f,-7.02490360e-02f,
+2.69234717e-01f,-1.46394834e-01f,+2.95491666e-01f,+2.55406857e-01f,+6.33150265e-02f,
+3.64123851e-01f,-6.22816710e-03f,-3.22801203e-01f,+5.09419246e-03f,+2.11410329e-01f,
+1.48769900e-01f,-7.51032913e-03f,-1.03825048e-01f,+4.51919958e-02f,-1.35302067e-01f,
+2.79724859e-02f,+1.99930623e-01f,+3.02985162e-01f,+7.64666647e-02f,-1.46609291e-01f,
-9.42623168e-02f,-8.64286907e-03f,+1.99582875e-01f,+3.36357839e-02f,+8.59660432e-02f,
+2.48591602e-01f,-5.15821166e-02f,+9.17558894e-02f,-2.54979823e-02f,+2.83906758e-01f,
+4.20303792e-01f,-6.05634302e-02f,+2.00888216e-01f,-1.95993513e-01f,-2.66204663e-02f,
+7.44127259e-02f,+7.08536729e-02f,+1.51430234e-01f,-5.25924787e-02f,+6.56220093e-02f,
+2.51713581e-02f,+2.04796251e-02f,-4.20861281e-02f,-2.85631977e-02f,-3.57881844e-01f,
+2.80773252e-01f,-5.95408455e-02f,+1.11446403e-01f,-6.77643940e-02f,-1.17817782e-01f,
-9.62372273e-02f,-9.06924233e-02f,-3.95600349e-02f,-6.90324157e-02f,-1.06290905e-02f,
+2.17887282e-01f,+1.65773153e-01f,+2.65271008e-01f,+2.88269162e-01f,-1.36766896e-01f,
+4.40922260e-01f,+1.11681923e-01f,-1.28980935e-01f,+5.48489243e-02f,+2.75505949e-02f,
+9.25094858e-02f,-2.48204246e-02f,-3.03053111e-02f,+1.17676720e-01f,-9.16371271e-02f,
-8.20740014e-02f,+6.75750747e-02f,+3.22918557e-02f,+4.99073230e-02f,-1.61461651e-01f,
-1.85629241e-02f,+1.22592822e-02f,+1.03982218e-01f,+3.72063071e-02f,+5.19773811e-02f,
+8.39200914e-02f,+5.85236922e-02f,-5.02223633e-02f,+1.61603719e-01f,+5.07279217e-01f,
+2.09972113e-01f,+5.89841008e-02f,+1.04811296e-01f,-7.52348676e-02f,+8.39611739e-02f,
-1.37463203e-02f,-1.38237923e-01f,+1.87735520e-02f,+4.23628032e-01f,-4.08595391e-02f,
-1.04587965e-01f,+1.06241509e-01f,-2.50541657e-01f,-5.30476347e-02f,+2.30258614e-01f,
+3.35763246e-02f,+7.79030472e-02f,-8.29444602e-02f,-1.08363137e-01f,-2.28947148e-01f,
+1.81312114e-01f,+1.53397480e-02f,+1.82454422e-01f,+2.73289442e-01f,+6.20651357e-02f,
+1.96664020e-01f,+2.44165808e-02f,-2.06685543e-01f,-1.93250269e-01f,+5.08520268e-02f,
+1.30291898e-02f,-1.89556509e-01f,+9.28804278e-02f,+2.77509959e-03f,+1.46069646e-01f,
-2.30215602e-02f,+1.47517502e-01f,+5.96225336e-02f,+2.65337586e-01f,+1.49126470e-01f,
-2.16540266e-02f,-1.69449225e-01f,-1.08377919e-01f,+4.79354784e-02f,-2.06947982e-01f,
+1.93453074e-01f,-2.00555846e-01f,-6.58846870e-02f,-2.79121455e-02f,+1.00061402e-01f,
+9.09127966e-02f,-1.03961676e-01f,+4.23918337e-01f,+2.14658603e-02f,+1.53977633e-01f,
-6.25114664e-02f,+1.12081267e-01f,-6.41517639e-02f,+2.01200351e-01f,+1.22717299e-01f,
+1.23314947e-01f,+5.98419785e-01f,+7.17726350e-02f,-8.80875885e-02f,+7.25230426e-02f,
-1.46126464e-01f,+1.96361452e-01f,+5.67099638e-02f,-2.27781579e-01f,+2.70290226e-01f,
+1.41696632e-01f,-6.70463368e-02f,+3.49917039e-02f,-8.68817791e-02f,-1.66679546e-01f,
-1.11934572e-01f,+3.23167555e-02f,-3.46579216e-02f,+1.35308951e-01f,-1.82203963e-01f,
+1.69285119e-01f,+3.80695276e-02f,+1.85226917e-01f,+1.21119116e-02f,+1.68725327e-01f,
-4.68747057e-02f,+9.81263444e-02f,+1.79128900e-01f,-2.99395062e-02f,+1.47393923e-02f,
-5.88387065e-02f,-1.55197680e-01f,-1.41899258e-01f,+1.12813823e-01f,+7.89271593e-02f,
-1.28815517e-01f,-1.50440916e-01f,-1.08166642e-01f,-4.15254459e-02f,-1.32882804e-01f,
+1.79681167e-01f,+1.34528041e-01f,+1.94545195e-01f,+2.96494633e-01f,+1.40889892e-02f,
-2.76251733e-01f,-1.22769224e-03f,-2.01715808e-02f,-1.21342018e-01f,+6.14306815e-02f,
+3.62326130e-02f,-9.86532494e-02f,-2.01502755e-01f,-8.24799016e-02f,-2.23112255e-01f,
-4.43972722e-02f,-3.00238989e-02f,+5.99153154e-02f,+1.13783360e-01f,-1.09490111e-01f,
-1.40154436e-01f,+2.63388127e-01f,+4.07999717e-02f,+8.33634287e-02f,-2.59922057e-01f,
-2.68456917e-02f,+4.67165820e-02f,+9.48000252e-02f,+2.42656887e-01f,-3.18631865e-02f,
+5.38242534e-02f,+9.30838808e-02f,-1.56777546e-01f,-9.73863974e-02f,+2.39230134e-02f,
-1.11442715e-01f,+6.84509352e-02f,-3.90493274e-02f,+1.80332422e-01f,-1.15624480e-01f,
-1.28194079e-01f,+6.33146688e-02f,-2.10832700e-01f,+4.31051552e-01f,-1.06440470e-01f,
+3.57868522e-02f,+1.95679188e-01f,-1.04138933e-01f,+3.64601538e-02f,-1.92604601e-01f,
+1.20123170e-01f,+5.04726991e-02f,-1.28949091e-01f,+1.34078667e-01f,+2.63143592e-02f,
+5.48602007e-02f,+6.68745786e-02f,-4.38209921e-02f,+7.13960230e-02f,-1.44519106e-01f,
+1.86478779e-01f,+1.95944667e-01f,-7.32935145e-02f,-1.88586116e-02f,-5.61537035e-02f,
-1.93632215e-01f,+3.33296098e-02f,+2.08855085e-02f,+2.96649095e-02f,+1.10683464e-01f,
+2.64662266e-01f,-5.40893292e-03f,-5.10564186e-02f,+1.54860094e-01f,+2.05174327e-01f,
+3.67902741e-02f,+9.70104989e-03f,+4.46800180e-02f,+1.41446395e-02f,-1.61611855e-01f,
-1.68214012e-02f,+1.05082756e-02f,+3.08327883e-01f,-1.09440818e-01f,+1.02694832e-01f,
+1.17279813e-01f,-1.54310139e-02f,-4.31970954e-02f,-1.43779725e-01f,+1.49998829e-01f,
+2.98029501e-02f,+4.41352390e-02f,-1.35210335e-01f,+8.97478592e-03f,+1.39697492e-02f,
-1.41868547e-01f,+5.20301200e-02f,-4.08663675e-02f,+2.06742316e-01f,+4.33118008e-02f,
-5.84474578e-03f,+1.92189917e-01f,-1.79093912e-01f,-1.25359327e-01f,-1.76921472e-01f,
-1.73510127e-02f,+3.79140824e-02f,+8.80875215e-02f,-6.42019510e-02f,-5.50498627e-02f,
-2.42799446e-01f,-4.10059234e-03f,-1.06180944e-01f,-8.07224661e-02f,+6.82111382e-02f,
+4.81668860e-02f,+7.88382068e-02f,+2.76044399e-01f,+4.93237786e-02f,+3.64204161e-02f,
-8.56531188e-02f,+2.42664233e-01f,+2.33976897e-02f,-1.34001616e-02f,-1.05570614e-01f,
-8.71646567e-04f,+3.33309956e-02f,+2.97969207e-03f,-3.72632295e-02f,-2.47731537e-01f,
-6.45662248e-02f,-2.18509380e-02f,-2.45047867e-01f,+1.12079449e-01f,+1.25385463e-01f,
-1.22799635e-01f,+2.78798733e-02f,-9.17291269e-02f,-1.52879814e-02f,+3.42050523e-01f,
-9.23497975e-02f,-3.56840603e-02f,+2.81764120e-01f,-1.14564203e-01f,+4.19521406e-02f,
+5.93131222e-02f,+7.30956346e-02f,+2.85839196e-02f,+9.47869718e-02f,+2.74435014e-01f,
-2.85493791e-01f,+3.08801793e-02f,+1.09281674e-01f,+5.05134046e-01f,+9.04967859e-02f,
+2.21949462e-02f,+6.25629425e-02f,+7.78852105e-02f,-8.36711451e-02f,+1.88760981e-01f,
+6.03885651e-02f,+2.44875386e-01f,-4.58848625e-02f,-1.89916328e-01f,+2.70918697e-01f,
+2.69630730e-01f,+7.47895911e-02f,+1.94088966e-01f,+4.72960658e-02f,+1.23614538e-03f,
-8.38636011e-02f,+2.06098408e-01f,+2.25539818e-01f,+1.26903921e-01f,+2.82598361e-02f,
-1.77674890e-01f,-9.59121287e-02f,-7.62081593e-02f,-1.12917893e-01f,+2.58492470e-01f,
+2.26330578e-01f,-7.05110878e-02f,+4.50223510e-04f,-1.70149896e-02f,-1.92207694e-01f,
+1.35095892e-02f,+9.73529555e-03f,+6.43573403e-02f,-6.54254034e-02f,+1.92294657e-01f,
-3.59001681e-02f,+1.55448765e-01f,+1.72865540e-01f,-1.81684438e-02f,+4.20769006e-01f,
+5.85401319e-02f,+9.58162621e-02f,+1.57166198e-01f,+9.96151716e-02f,-1.01636328e-01f,
+7.31237009e-02f,+1.85822636e-01f,+8.78596976e-02f,-1.60003826e-01f,-2.27908894e-01f,
-1.33867413e-01f,-1.26034943e-02f,-1.58641249e-01f,-3.46328206e-02f,+6.78952560e-02f,
+3.36281091e-01f,-7.69038722e-02f,+4.71227467e-02f,-8.35603196e-03f,+1.51944175e-01f,
+2.03498393e-01f,-6.29036129e-02f,+6.56857416e-02f,-8.02317634e-02f,-1.61578897e-02f,
+2.56950617e-01f,+1.42827690e-01f,-5.19186594e-02f,+2.91262299e-01f,+1.23199224e-01f,
-1.08102888e-01f,-6.64402992e-02f,+2.54648831e-02f,-8.41135010e-02f,+2.31338099e-01f,
+2.30229154e-01f,+2.08420709e-01f,+4.65426445e-01f,-3.87438349e-02f,-1.63162455e-01f,
-6.02470078e-02f,+7.09782392e-02f,+1.47677436e-02f,+4.34829444e-01f,+1.85146779e-01f,
-1.16677962e-01f,+1.72575638e-01f,+2.11053509e-02f,-1.44848585e-01f,-1.49441078e-01f,
+1.04389951e-01f,-7.25764735e-03f,+3.24248113e-02f,+7.65194818e-02f,+1.73063055e-01f,
-2.96343919e-02f,+2.41389111e-01f,+4.46933955e-02f,-1.31433576e-01f,+1.99277639e-01f,
+3.63190807e-02f,+1.44107891e-02f,-1.02595333e-03f,+2.21032146e-02f,-1.52557343e-02f,
-5.83409443e-02f,+2.25912314e-02f,+3.09459835e-01f,-4.73129638e-02f,+4.33761984e-01f,
+7.81296641e-02f,+4.24683750e-01f,-2.33302757e-01f,+1.89130217e-01f,-7.61078522e-02f,
+1.85037062e-01f,+1.26448736e-01f,+4.55456451e-02f,+1.03762314e-01f,+2.42610991e-01f,
-1.15327444e-02f,-5.33179231e-02f,-1.38407191e-02f,+9.84560233e-04f,+1.70438409e-01f,
+3.02201539e-01f,-2.44638324e-02f,+1.17469549e-01f,+6.42990023e-02f,-1.48699703e-02f,
+5.26382923e-01f,-3.71462815e-02f,+1.52780578e-01f,-1.18467927e-01f,+1.34077311e-01f,
+6.89243723e-04f,+3.35794054e-02f,+4.26713437e-01f,-1.50678724e-01f,+1.38287053e-01f,
+9.65558514e-02f,-6.17565252e-02f,-3.32977027e-01f,-5.91704138e-02f,-9.43382457e-02f,
+6.08729478e-03f,+7.88740516e-02f,-2.88997721e-02f,+2.23346561e-01f,-3.94288376e-02f,
+1.16221838e-01f,-2.37657111e-02f,-1.48689479e-01f,-1.28455505e-01f,+1.37439659e-02f,
+3.08131706e-02f,+2.01131240e-01f,+1.67986676e-01f,-2.29418382e-01f,-9.03074220e-02f,
+4.72628064e-02f,+3.71299759e-02f,+1.97311997e-01f,+4.57684956e-02f,+1.13185812e-02f,
-3.07950616e-01f,+2.75762558e-01f,-1.29167333e-01f,+1.40802577e-01f,-1.14363253e-01f,
-1.75965324e-01f,+1.57873392e-01f,+1.32108808e-01f,+1.29023999e-01f,+9.84572470e-02f,
+1.14571303e-01f,-2.11308181e-01f,+1.43754797e-03f,+9.12752151e-02f,-1.07895419e-01f,
-8.58522728e-02f,-1.22428434e-02f,+2.66442060e-01f,+5.73348673e-03f,+1.26580328e-01f,
+5.03516523e-03f,+3.37734729e-01f,+2.06750363e-01f,+6.21859245e-02f,-2.68881898e-02f,
-1.99898273e-01f,+1.20860793e-01f,+9.52947065e-02f,+3.58203165e-02f,+1.84731767e-01f,
+2.59452850e-01f,+6.17981032e-02f,+2.25019529e-02f,+1.96202561e-01f,+1.58057719e-01f,
+1.67862937e-01f,-1.94272220e-01f,+3.50713044e-01f,-1.30730495e-01f,+3.71761806e-02f,
+1.73329279e-01f,+1.59875304e-01f,+1.24939539e-01f,+1.36987969e-01f,+3.18849124e-02f,
+2.21908405e-01f,+1.14072286e-01f,-2.62225419e-02f,+1.13264993e-01f,+4.33900282e-02f,
+1.06326319e-01f,+1.31790042e-01f,-1.41989917e-01f,-6.70635179e-02f,-5.47154285e-02f,
-1.12984583e-01f,+1.64065242e-01f,-3.35341021e-02f,+1.89093262e-01f,+3.13256830e-01f,
+1.16243586e-01f,+2.66859662e-02f,+1.04703195e-01f,+4.56425501e-03f,+3.49948034e-02f,
-1.06774688e-01f,+8.36689994e-02f,+2.36769035e-01f,-3.89268920e-02f,+2.10884698e-02f,
+6.14211112e-02f,-2.84308251e-02f,+3.94869633e-02f,+2.57879999e-02f,+1.39268965e-01f,
+1.55034080e-01f,-1.91019792e-02f,-6.69072643e-02f,-1.46232825e-02f,+1.24564260e-01f,
+9.32553485e-02f,-4.54094261e-02f,+2.03437448e-01f,+1.81031018e-01f,-4.00965922e-02f,
+9.83003620e-03f,-1.47116929e-01f,-2.08370402e-01f,+1.69116110e-01f,+2.66329199e-02f,
-8.89082327e-02f,+1.20776169e-01f,+3.08226384e-02f,+1.86989710e-01f,+8.21097791e-02f,
+1.49403572e-01f,+1.78445444e-01f,-5.94346300e-02f,+5.11888489e-02f,-8.55609402e-02f,
-1.31867239e-02f,-2.43669413e-02f,+2.39565745e-01f,+5.89765832e-02f,+1.29227191e-01f,
-1.68036729e-01f,+9.07060057e-02f,+4.12664674e-02f,+4.29761223e-02f,-1.11450896e-01f,
+1.22371487e-01f,+5.16271815e-02f,+9.19649377e-02f,+1.04399204e-01f,+1.35775253e-01f,
+1.56516597e-01f,-3.15056175e-01f,-6.94402009e-02f,-1.60922974e-01f,+5.85621446e-02f,
+2.10704971e-02f,+6.89599514e-02f,+1.40587196e-01f,+7.09781945e-02f,+1.77800715e-01f,
+8.85574147e-02f,+2.08478600e-01f,+6.42331988e-02f,+2.49611754e-02f,+1.95950031e-01f,
+1.16088025e-01f,-1.91535890e-01f,+3.13961953e-02f,+1.42493248e-01f,-2.18954444e-01f,
-3.11492924e-02f,+1.21654838e-01f,-7.93537125e-02f,+1.69946831e-02f,+7.03307390e-02f,
+1.06939152e-01f,-9.45129842e-02f,-2.33417768e-02f,-1.04290321e-01f,+1.72704682e-01f,
+2.52035633e-02f,-7.12611079e-02f,-6.70006424e-02f,+8.61593410e-02f,-8.23298022e-02f,
+6.80268630e-02f,-2.79759020e-01f,-4.02779318e-02f,+2.01383784e-01f,+2.01507304e-02f,
+2.10831955e-01f,+6.72879070e-03f,+8.03840607e-02f,-1.68189317e-01f,+6.77858517e-02f,
+5.68658449e-02f,-1.31302238e-01f,-3.43034342e-02f,-1.08808771e-01f,-1.28132939e-01f,
+1.97803393e-01f,-1.58846796e-01f,+9.98645797e-02f,+1.21506646e-01f,+4.14122604e-02f,
-4.15678956e-02f,+1.77168066e-03f,-6.37882426e-02f,+9.21405554e-02f,-7.25219995e-02f,
+1.14244707e-01f,-1.57105327e-01f,-5.90926223e-02f,+8.08723830e-03f,+1.30622461e-01f,
+2.42791623e-01f,-1.60311207e-01f,+2.14621112e-01f,+3.40306848e-01f,+2.13045403e-01f,
+2.05203220e-01f,+2.28181571e-01f,+6.34368584e-02f,-2.07592100e-01f,+5.13510779e-02f,
-3.32804881e-02f,-1.03350759e-01f,+2.31913418e-01f,+5.92898093e-02f,-3.16495746e-02f,
+8.83969963e-02f,-1.92805037e-01f,+1.39238730e-01f,-1.83706701e-01f,+1.59564510e-01f,
-3.47690992e-02f,+1.44139901e-01f,+1.16894297e-01f,-1.05712965e-01f,-8.61711279e-02f,
-1.14572756e-01f,+2.38543898e-01f,+2.37134129e-01f,+1.39930435e-02f,+6.70713484e-02f,
+1.16810508e-01f,+4.95828018e-02f,+4.67950284e-01f,-1.92651764e-01f,+2.42462486e-01f,
+1.37786046e-01f,+8.67684707e-02f,-7.15524927e-02f,-3.84045579e-02f,+1.36493985e-02f,
+4.25375365e-02f,-8.52727273e-04f,+6.46987632e-02f,-9.60442424e-02f,+7.63969496e-02f,
+3.22985165e-02f,+1.04977980e-01f,+1.72076356e-02f,+2.95187384e-01f,+2.80658364e-01f,
-1.43600285e-01f,+3.10545713e-02f,+1.70360193e-01f,+1.14166878e-01f,+3.98919791e-01f,
+2.39057839e-03f,+1.72707420e-02f,+1.91508263e-01f,-6.30162954e-02f,-2.52919551e-03f,
-1.23912916e-01f,+2.46146764e-03f,-2.39762906e-02f,+1.66140981e-02f,-6.26920462e-02f,
-1.45208344e-01f,+8.99479240e-02f,-1.57971717e-02f,+1.79967210e-01f,+1.78858951e-01f,
-6.57549575e-02f,+1.85828600e-02f,+2.75811902e-03f,-6.81395829e-02f,+1.10808872e-01f,
-2.31127124e-02f,+5.58185317e-02f,+1.33542148e-02f,+1.39514029e-01f,+4.11210582e-02f,
-5.89719340e-02f,-6.42195065e-03f,-3.06218654e-01f,+1.13104597e-01f,+2.70614207e-01f,
-1.85674518e-01f,+5.23918271e-02f,-4.76796404e-02f,-4.34328616e-02f,+3.61092351e-02f,
+1.60566121e-01f,+1.28832916e-02f,-6.44068718e-02f,+3.78667973e-02f,+9.72327217e-02f,
+4.69328053e-02f,-9.11553055e-02f,-2.81167775e-01f,+9.69925523e-02f,-4.13434319e-02f,
+3.30275483e-02f,-1.58966675e-01f,+1.28922209e-01f,+9.92514193e-02f,+1.33787945e-01f,
+1.44966794e-02f,-1.08075656e-01f,+3.84572037e-02f,-1.00782719e-02f,-4.85017672e-02f,
+7.23201968e-03f,+8.28573853e-03f,-1.76617354e-01f,-2.72843670e-02f,-4.47018724e-03f,
+3.08905393e-01f,-2.94051170e-01f,+9.92010534e-02f,+1.94258586e-01f,+1.18019469e-01f,
+1.16663866e-01f,+1.52549565e-01f,-1.19730346e-01f,+1.56120863e-02f,+3.55960578e-02f,
+3.96827981e-02f,-9.70721021e-02f,+6.44531799e-03f,-4.57915999e-02f,-1.96996983e-02f,
+1.24530219e-01f,+3.53986770e-02f,+1.65190399e-01f,-1.00374222e-01f,+1.62288606e-01f,
-5.23133613e-02f,+5.10233343e-02f,-1.89568624e-01f,+1.25065610e-01f,-8.59287977e-02f,
-1.67803183e-01f,+1.64024264e-01f,-4.35159244e-02f,+1.38524473e-01f,-8.89654160e-02f,
+4.40286435e-02f,+1.76370531e-01f,-9.53560174e-02f,+1.49467057e-02f,-8.59878212e-02f,
+5.02585098e-02f,+2.10689321e-01f,+2.14796215e-01f,-2.22771794e-01f,+1.46511212e-01f,
+1.44388722e-02f,-7.85416588e-02f,+5.95632531e-02f,+3.05358052e-01f,-2.35028900e-02f,
-3.40397544e-02f,-2.48709634e-01f,-2.45040120e-03f,+7.36074075e-02f,+1.26827151e-01f,
+1.87964052e-01f,+1.89757615e-01f,+1.22929186e-01f,+2.90514410e-01f,+3.58108021e-02f,
-3.42045873e-02f,-4.01251167e-02f,-5.22160232e-02f,+5.79135679e-02f,+8.18241388e-02f,
+1.35844992e-02f,-1.94556221e-01f,+2.01603651e-01f,-7.37335309e-02f,-1.27022266e-01f,
-1.97024439e-02f,+1.86708868e-01f,+1.02054812e-01f,+4.79318723e-02f,+4.51005101e-01f,
+1.80722568e-02f,+1.47721156e-01f,-9.02322680e-02f,+1.50675759e-01f,+1.67150870e-01f,
+1.31219998e-01f,+2.04451129e-01f,-1.56172842e-01f,+5.07902764e-02f,+1.73190564e-01f,
+1.35529274e-02f,-2.28038728e-02f,-9.26235095e-02f,+1.17575809e-01f,-3.44332606e-02f,
+4.01318930e-02f,+3.22819859e-01f,+9.35179181e-03f,-6.98669776e-02f,+1.07445732e-01f,
-6.20076284e-02f,+4.35252525e-02f,+4.82275933e-02f,+1.75012797e-02f,+3.00312370e-01f,
+7.25946352e-02f,-5.39421029e-02f,-1.21129669e-01f,+1.91575289e-01f,+1.44739524e-02f,
+1.48870721e-01f,-4.16577701e-03f,+1.74660861e-01f,-1.23909852e-02f,+2.26512253e-02f,
-9.60782617e-02f,-1.65948197e-02f,+6.42913952e-02f,-1.04296483e-01f,+1.49563521e-01f,
-1.24973714e-01f,+5.97259887e-02f,+1.87330842e-02f,+2.36543730e-01f,+1.24566279e-01f,
+7.26999640e-02f,+3.10233653e-01f,+3.95204574e-02f,+2.21897185e-01f,+2.16824450e-02f,
+1.67535886e-01f,+1.04425006e-01f,-1.16943128e-01f,+1.22604959e-01f,+2.49383852e-01f,
-9.42761749e-02f,+6.04652949e-02f,+1.03909209e-01f,-1.00668125e-01f,+2.13514492e-01f,
+2.10596472e-01f,-1.41702056e-01f,+1.73406139e-01f,+1.88349038e-01f,+9.25594792e-02f,
-8.93341899e-02f,-2.89437652e-01f,+6.14258051e-02f,+2.88902670e-01f,+2.35113397e-01f,
+6.19966388e-02f,+4.04885039e-03f,+8.14096406e-02f,+2.37783063e-02f,+8.26513916e-02f,
+2.60071978e-02f,-1.95700973e-01f,+5.44172265e-02f,+2.37775575e-02f,+3.08569390e-02f,
+3.21993493e-02f,-3.14302891e-02f,-3.00035149e-01f,+1.72765926e-02f,+1.00228138e-01f,
+3.23906839e-01f,+5.03016300e-02f,+6.19490705e-02f,+1.61712393e-02f,-1.89658647e-04f,
+2.10161686e-01f,-1.24768689e-02f,-3.68462107e-03f,+5.98590411e-02f,+3.16857845e-02f,
-4.09705564e-03f,+1.07161785e-02f,+1.62447885e-01f,+7.53564015e-02f,+3.96750182e-01f,
-1.96306482e-02f,+2.57070065e-01f,+3.27110946e-01f,+9.45004746e-02f,-9.04389918e-02f,
-9.13255513e-02f,-9.58976150e-02f,+6.54249638e-02f,-7.71849528e-02f,-5.52413724e-02f,
+3.56470346e-01f,-3.24011073e-02f,-9.91236493e-02f,+7.34303966e-02f,-6.17717691e-02f,
+2.63723105e-01f,+2.31870651e-01f,+4.26579267e-02f,+2.17422768e-01f,-9.42262560e-02f,
+1.44416057e-02f,+7.52929132e-03f,-1.72516480e-02f,+1.93815708e-01f,+3.39378081e-02f,
+2.19420210e-01f,+1.02449924e-01f,+1.99396685e-01f,+1.88145205e-01f,+2.02559829e-01f,
+1.91405118e-01f,+1.63824365e-01f,+7.97588155e-02f,-4.59144786e-02f,-8.61338805e-03f,
+3.14147562e-01f,+2.80130118e-01f,+1.67820826e-01f,-2.83037256e-02f,+3.15149218e-01f,
+2.13549748e-01f,+1.68088168e-01f,+2.12315440e-01f,-9.62516814e-02f,+6.49872869e-02f,
-2.22483441e-01f,+9.55587998e-02f,-1.40685374e-02f,-9.99117941e-02f,+3.45922858e-02f,
-1.89011842e-01f,-1.19976550e-01f,+1.94057852e-01f,-1.59021601e-01f,+1.08965367e-01f,
-1.53424134e-02f,+1.16280066e-02f,+5.50977401e-02f,-1.25648722e-01f,-6.60006478e-02f,
+3.34690744e-03f,+1.08796231e-01f,-3.56110036e-01f,+1.53752282e-01f,+1.01475351e-01f,
-4.44491878e-02f,+1.84941188e-01f,-1.41626969e-01f,+7.33782500e-02f,+6.81421012e-02f,
+1.67654231e-02f,+7.45638683e-02f,+2.87633538e-01f,+2.37972617e-01f,-4.83322181e-02f,
-3.82263167e-03f,+2.92130932e-02f,+1.95219234e-01f,+2.47511491e-01f,+9.29709617e-03f,
+5.27456813e-02f,+3.29050645e-02f,+1.90697685e-01f,+3.60089183e-01f,-6.32338151e-02f,
-2.12720707e-01f,-6.84195533e-02f,+2.01494634e-01f,+7.04556257e-02f,+1.05339810e-01f,
+1.59146875e-01f,+4.87168925e-03f,-1.24114146e-02f,-3.58997062e-02f,+4.14140336e-02f,
+1.19298890e-01f,-1.60007011e-02f,+7.30724409e-02f,+2.98217461e-02f,+7.46776536e-02f,
-4.56528664e-02f,+2.63514161e-01f,+7.49549121e-02f,+1.54616470e-02f,-2.55052876e-02f,
+1.32747144e-01f,-2.55412571e-02f,-4.47363919e-03f,+3.18277925e-01f,+9.50049609e-03f,
-1.96645051e-01f,+1.78413957e-01f,-1.40362829e-01f,-1.15208283e-01f,+8.34493339e-02f,
+5.87860271e-02f,+1.74229920e-01f,-1.79135576e-02f,+1.50750950e-01f,+1.79406237e-02f,
+9.35624167e-02f,+6.74677640e-02f,-1.19392537e-01f,-3.13170403e-01f,-6.57708645e-02f,
-3.70145887e-02f,-3.58132780e-01f,+1.04290448e-01f,+1.26758963e-01f,-2.47850865e-01f,
+1.38583556e-01f,+9.35883224e-02f,-1.59072801e-02f,-1.08041920e-01f,+1.32353067e-01f,
-4.09261473e-02f,+2.57136643e-01f,+9.64796320e-02f,+1.31299302e-01f,-2.07040057e-01f,
+1.61216170e-01f,-5.01343124e-02f,+2.47563161e-02f,+1.42319947e-01f,+1.98617816e-01f,
+1.35140186e-02f,-1.01920635e-01f,-1.68977395e-01f,+1.21909767e-01f,+1.20986521e-01f,
-4.30476665e-02f,+1.34569272e-01f,-1.68459564e-01f,+1.58533886e-01f,-1.39797866e-01f,
+2.04823285e-01f,-2.20268771e-01f,+1.05177097e-01f,+5.79625405e-02f,-5.50096147e-02f,
-2.06178427e-02f,+1.78967655e-01f,+1.52615190e-01f,+6.34564757e-02f,+2.53343165e-01f,
-9.11500677e-02f,+1.26444280e-01f,-5.12364171e-02f,+9.84834656e-02f,-1.21069811e-01f,
-1.22007914e-02f,-1.30006000e-01f,+1.09435402e-01f,-2.41661459e-01f,+6.56727515e-03f,
+1.58215091e-02f,-1.65656337e-03f,-1.36872614e-02f,+3.78067672e-01f,+1.79114074e-01f,
+2.63432302e-02f,+4.01464626e-02f,-5.44299223e-02f,+1.39373824e-01f,+5.74976653e-02f,
+4.13700603e-02f,+1.17307663e-01f,+8.61430541e-02f,+4.02170897e-01f,+9.40951258e-02f,
+1.31695032e-01f,-9.24142376e-02f,-1.48504466e-01f,+1.47232786e-01f,+1.08144350e-01f,
+1.70816556e-01f,+8.81124660e-03f,-3.06759745e-01f,+1.28237203e-01f,+1.78782150e-01f,
+2.92882353e-01f,-3.65602821e-02f,-1.21958338e-01f,+2.50749558e-01f,-1.34520326e-03f,
+1.86187163e-01f,+1.00376651e-01f,-2.16182008e-01f,+3.09155919e-02f,-2.48940066e-02f,
+2.26451188e-01f,+2.46168241e-01f,+2.07837805e-01f,+2.36465838e-02f,+1.69141546e-01f,
+1.35740843e-02f,+2.54956424e-01f,+1.52935728e-01f,+2.24332556e-01f,-7.35481679e-02f,
+1.78151399e-01f,-1.94976814e-02f,+2.21065003e-02f,-5.77055737e-02f,-4.25986648e-02f,
-2.59716585e-02f,-6.31832844e-03f,+2.51072258e-01f,+3.45557988e-01f,+2.53931582e-01f,
-2.16781512e-01f,+1.52802631e-01f,-1.01373211e-01f,+1.54273793e-01f,+7.63639510e-02f,
+1.49374798e-01f,+2.02316597e-01f,-1.18278293e-02f,-2.24254996e-01f,+4.19316441e-01f,
-1.09469734e-01f,+2.72380382e-01f,+9.47488546e-02f,-4.78768647e-02f,+1.22039020e-01f,
-7.13839903e-02f,-5.98931918e-03f,+1.67400211e-01f,-5.48247509e-02f,+1.28727332e-01f,
+2.56875873e-01f,-2.37737820e-01f,+1.09808587e-01f,+1.69173747e-01f,+2.97561456e-02f,
+2.22551733e-01f,-4.04664688e-02f,+1.41303360e-01f,+9.76890400e-02f,+7.38735124e-03f,
+1.53551117e-01f,+2.76967287e-02f,+1.63659472e-02f,+4.84486856e-02f,+2.80365944e-01f,
+4.62920852e-02f,+1.94625035e-01f,-6.49426952e-02f,-8.15916359e-02f,+9.44409519e-02f,
-3.35955918e-02f,+9.64920372e-02f,+7.72264376e-02f,+5.63042797e-02f,+3.37896310e-02f,
-9.30859428e-03f,+6.51793554e-03f,-9.47331339e-02f,-1.16547368e-01f,+4.28381041e-02f,
+1.69323564e-01f,+2.51264632e-01f,+9.33483317e-02f,-1.52605057e-01f,+7.85639733e-02f,
+7.01839104e-02f,-1.04232877e-01f,+2.41937056e-01f,-3.71461734e-02f,+6.40505403e-02f,
+1.30361274e-01f,-1.24426174e-03f,-9.68720615e-02f,+6.33697435e-02f,+1.19060531e-01f,
+5.31273633e-02f,+1.09290471e-02f,-2.81153824e-02f,+4.57850145e-03f,+1.43917814e-01f,
+1.39450759e-01f,+1.41865745e-01f,+1.24923000e-02f,+6.78442046e-02f,-3.98558378e-03f,
+1.70159176e-01f,+2.98404664e-01f,+1.50438488e-01f,-6.07382879e-02f,+3.34466882e-02f,
+1.13873281e-01f,+4.09929492e-02f,-3.08372527e-02f,+7.16461167e-02f,-4.79650795e-02f,
+1.51656032e-01f,-6.25782926e-03f,+7.86093250e-02f,+1.42288834e-01f,+2.13542104e-01f,
+2.47534066e-01f,+8.69373679e-02f,+6.79621324e-02f,-1.00871824e-01f,-4.40462083e-02f,
-2.63142046e-02f,-8.76774862e-02f,-2.62215883e-01f,+3.99308838e-02f,+1.55154616e-01f,
+1.51545420e-01f,+8.14681128e-02f,+2.29340419e-01f,+2.29072750e-01f,-3.39105502e-02f,
+1.34930730e-01f,+1.04347110e-01f,-8.76236260e-02f,+1.69202313e-01f,-1.16239138e-01f,
+1.27296885e-02f,+2.03614701e-02f,+7.11432323e-02f,+8.93865004e-02f,+8.26477781e-02f,
+2.69939890e-03f,+1.30964518e-01f,-1.34374440e-01f,+6.70731962e-02f,+2.33423486e-02f,
+6.37449604e-03f,+1.83217123e-01f,+6.33606687e-02f,+1.01802826e-01f,-6.12835959e-02f,
+3.95319313e-02f,+8.38418603e-02f,+1.54251471e-01f,+1.07751042e-01f,-1.80550620e-01f,
+2.45653205e-02f,-1.60805264e-03f,+5.97541668e-02f,-5.64622395e-02f,-2.49484722e-02f,
+1.38287455e-01f,-3.39771099e-02f,+1.09878853e-01f,+1.44513426e-02f,+1.36431739e-01f,
+1.17571078e-01f,-2.34483574e-02f,+1.12049058e-01f,+1.42086416e-01f,+2.34894827e-01f,
+1.81026950e-01f,+7.40785822e-02f,+2.81722788e-02f,+3.70672494e-02f,+4.40270007e-02f,
-2.11904403e-02f,-1.21716231e-01f,+1.08790316e-01f,+1.66557401e-01f,+1.02534451e-01f,
-2.21425384e-01f,+2.05624700e-02f,+6.50615469e-02f,-2.96106581e-02f,+1.14421956e-01f,
+2.17233300e-02f,+1.27894953e-01f,+1.68365359e-01f,+1.54559776e-01f,+7.18967691e-02f,
+4.14384268e-02f,-9.19151399e-03f,+4.26431140e-03f,+5.84762171e-02f,+1.19121663e-01f,
+1.20649293e-01f,-1.26800969e-01f,-1.14179842e-01f,-9.46071967e-02f,+8.62186104e-02f,
+2.25616265e-02f,+3.07221385e-03f,+6.01389892e-02f,+7.72803053e-02f,+1.10919312e-01f,
-7.38173947e-02f,-7.85732921e-03f,+5.82821183e-02f,+3.88653055e-02f,-4.06370834e-02f,
+1.55101299e-01f,+2.22939011e-02f,+1.69008255e-01f,-3.07317618e-02f,+1.70628071e-01f,
+8.10329467e-02f,+4.16926257e-02f,+7.17996135e-02f,+7.64686614e-02f,+1.40465334e-01f,
-6.91894442e-02f,+1.34919763e-01f,+1.75833385e-02f,+2.80122340e-01f,+6.26326948e-02f,
+1.66425914e-01f,+1.73525572e-01f,-5.54600023e-02f,+3.68829519e-02f,+8.07138160e-02f,
+4.58435491e-02f,+1.44284302e-02f,+2.86560282e-02f,+1.71913415e-01f,+5.68549335e-02f,
+2.82051899e-02f,+1.26448616e-01f,+7.41851777e-02f,-4.02419642e-02f,+1.67253494e-01f,
-2.95837801e-02f,+1.75682262e-01f,+2.14064151e-01f,+1.68322712e-01f,+1.03790946e-01f,
+4.91379164e-02f,+1.20161362e-01f,-1.25776473e-02f,+1.16934992e-01f,-7.74095431e-02f,
+2.79022679e-02f,+8.55152011e-02f,+1.01113379e-01f,+1.08775727e-01f,+3.27391893e-01f,
-1.01893302e-02f,+8.58581066e-02f,+1.01086520e-01f,+1.23906955e-01f,-6.22825213e-02f,
+3.79388854e-02f,+5.42862825e-02f,+1.59812737e-02f,-4.47697937e-02f,+2.65089925e-02f,
+4.45437469e-02f,+8.65785927e-02f,+5.82737029e-02f,+2.07010191e-02f,+2.66463488e-01f,
-3.78723443e-02f,+1.58704340e-01f,+7.03799129e-02f,+1.34659380e-01f,-1.08165525e-01f,
-2.77292226e-02f,+1.86209962e-01f,-8.32278877e-02f,+1.60374165e-01f,+1.63435880e-02f,
+7.06701772e-03f,+1.19240232e-01f,+3.14718336e-02f,-6.05492964e-02f,+8.82525891e-02f,
+4.33944613e-02f,+1.71333358e-01f,+8.91467705e-02f,+1.91015065e-01f,+6.03718944e-02f,
+1.50880069e-01f,-2.74466705e-02f,+2.75559872e-01f,+1.04878001e-01f,+9.77270380e-02f,
-5.53271472e-02f,-4.14804779e-02f,-2.28912741e-01f,+1.08062988e-02f,+2.80733891e-02f,
+3.80252227e-02f,+4.01126891e-02f,+9.17928410e-04f,+2.84264330e-02f,+1.03437630e-02f,
+5.46074994e-02f,+5.23582986e-03f,+6.85279146e-02f,+5.31070605e-02f,+1.82586551e-01f,
+1.71529070e-01f,+6.11764155e-02f,+2.03741789e-01f,+2.88526248e-02f,+7.96314925e-02f,
+1.43886223e-01f,+7.75720924e-02f,-1.92552507e-01f,+4.30361517e-02f,+1.33287445e-01f,
+1.26038507e-01f,+2.41178200e-02f,+2.54195668e-02f,-1.12768315e-01f,+8.76151025e-03f,
+1.68554112e-01f,+1.05385952e-01f,+6.43745735e-02f,+1.13188110e-01f,-7.46575519e-02f,
-5.28575145e-02f,+6.80877268e-02f,+1.13902107e-01f,-5.69943152e-02f,+3.39649320e-02f,
-4.40276489e-02f,+1.89882398e-01f,-2.17300981e-01f,+1.03857100e-01f,+1.14103556e-01f,
+1.62904665e-01f,+9.31855217e-02f,-2.71686055e-02f,-1.15224972e-01f,+1.11930080e-01f,
+3.16017270e-02f,+2.78667137e-02f,-3.78909484e-02f,-5.59449233e-02f,+2.87710994e-01f,
-7.28047416e-02f,+5.35281487e-02f,-8.31496865e-02f,-1.37850437e-02f,-1.77204479e-02f,
-7.59076839e-03f,-5.62915020e-02f,+1.52575418e-01f,-6.67748824e-02f,+1.19637646e-01f,
-9.81991366e-02f,+3.86510566e-02f,+2.57320404e-01f,+9.52936336e-02f,+1.91507950e-01f,
+2.55578578e-01f,+1.60554685e-02f,+4.44307253e-02f,+1.92366749e-01f,-5.23150153e-02f,
+9.46088880e-02f,-4.17490564e-02f,-9.43967700e-02f,+1.06034093e-02f,+8.96385983e-02f,
+2.34784912e-02f,+3.95797044e-02f,+2.45101452e-01f,+1.52970240e-01f,+2.53767908e-01f,
+1.00899041e-01f,-2.23818198e-02f,-1.21591790e-02f,-2.14190390e-02f,+1.45949513e-01f,
+1.09208643e-01f,+1.27980918e-01f,+1.07661687e-01f,-8.31515267e-02f,+3.10121149e-01f,
+8.17344710e-02f,+6.06403761e-02f,+1.37895852e-01f,+2.04761863e-01f,+9.34420712e-03f,
+3.00776865e-02f,+1.13866657e-01f,+1.98264182e-01f,+1.25087395e-01f,+2.31982898e-02f,
-3.27045232e-01f,+3.77114490e-02f,+2.03918517e-01f,-1.14831645e-02f,+1.50675207e-01f,
+1.40279070e-01f,-3.54167789e-01f,-2.84339413e-02f,-1.27427489e-01f,-7.65722692e-02f,
+5.56715764e-03f,+1.96595863e-01f,+1.54259384e-01f,+2.01962635e-01f,+1.79205760e-01f,
-1.54078275e-01f,-1.58833534e-01f,-2.29382738e-01f,+1.20596506e-01f,-1.23877339e-01f,
+1.02275677e-01f,+6.51433915e-02f,-7.73008615e-02f,-3.23550075e-01f,+8.70340392e-02f,
-1.45306110e-01f,+1.52591929e-01f,+1.14684202e-01f,+1.47898763e-01f,+1.77646637e-01f,
+6.98588639e-02f,-1.95912689e-01f,-1.16377354e-01f,+8.91334116e-02f,+2.84695625e-01f,
+3.65254954e-02f,+2.01758906e-01f,-1.15057841e-01f,-1.05895557e-01f,+8.54750350e-02f,
+1.30563065e-01f,-1.32324368e-01f,+2.57426378e-04f,-1.61896765e-01f,+2.19185010e-01f,
+5.19122835e-03f,+3.39148119e-02f,+8.33454505e-02f,-1.79900438e-01f,-6.41317442e-02f,
-2.71721601e-01f,-5.52777760e-02f,+1.57337934e-01f,+2.11314335e-01f,-1.73503116e-01f,
+2.17846170e-01f,+2.52177000e-01f,-1.60804782e-02f,-1.01273775e-01f,+2.90768683e-01f,
+1.56095505e-01f,+3.49441618e-01f,+3.54272015e-02f,+2.24771947e-01f,-5.97724617e-02f,
-1.64496034e-01f,+1.95756763e-01f,-1.69453397e-01f,-3.10055595e-02f,+9.88625437e-02f,
+6.97189867e-01f,+9.05693918e-02f,-2.56625898e-02f,-3.71258371e-02f,-1.46644875e-01f,
+5.98849952e-01f,+4.40253317e-01f,+1.07856832e-01f,-1.45343587e-01f,-3.29843730e-01f,
-2.56265234e-02f,-1.06962450e-01f,+2.59023160e-01f,+9.18233395e-02f,-1.32241085e-01f,
+2.14016348e-01f,-3.48849267e-01f,-2.29979176e-02f,-5.14840446e-02f,+1.88202068e-01f,
-1.81663468e-01f,-1.31860495e-01f,+7.29755685e-02f,+6.16407022e-03f,+1.22105323e-01f,
-2.41872758e-01f,-9.13943872e-02f,-1.03988402e-01f,+1.08350039e-01f,+1.39816239e-01f,
-3.23358625e-01f,-7.08374232e-02f,-2.75541991e-01f,+1.89428091e-01f,+3.40544842e-02f,
+1.14734145e-02f,+1.26962632e-01f,-2.54439022e-02f,+1.47003561e-01f,-9.47593525e-03f,
-2.08970550e-02f,-1.29599988e-01f,+2.03492835e-01f,+1.14366695e-01f,-6.49612322e-02f,
+6.60584867e-02f,+3.55110675e-01f,-1.68420568e-01f,-3.43614183e-02f,-1.56056546e-02f,
+3.43307614e-01f,-2.68212538e-02f,-1.10481724e-01f,+6.08240180e-02f,+1.91850692e-01f,
+8.23344588e-02f,+1.94813073e-01f,+5.36050685e-02f,+8.59602764e-02f,+2.84185968e-02f,
+8.20595250e-02f,+1.39389709e-01f,+2.27932274e-01f,-7.26781636e-02f,+7.51416162e-02f,
+7.08292648e-02f,+1.52320355e-01f,-2.79651526e-02f,+7.08158910e-02f,-1.48463115e-01f,
-8.06739479e-02f,+1.20224245e-01f,-5.69336191e-02f,-1.26278698e-01f,+1.47299379e-01f,
+1.83246836e-01f,+1.99394494e-01f,-5.59318662e-02f,+2.56312132e-01f,+1.38368815e-01f,
+1.39573067e-01f,+1.30761996e-01f,+3.26120891e-02f,-7.65654743e-02f,+1.84513465e-01f,
-1.79122984e-01f,-1.11871108e-01f,+1.21444076e-01f,+6.10542595e-02f,+1.12577491e-01f,
-6.55392110e-02f,-1.76589847e-01f,-8.76100287e-02f,-6.24673702e-02f,+1.06247291e-01f,
-2.43655965e-01f,-2.36045271e-01f,+8.19858536e-02f,-2.51655787e-01f,+6.52983263e-02f,
+2.00824633e-01f,+4.58733365e-02f,-4.99287732e-02f,+2.35381201e-01f,-5.93052851e-03f,
+2.30175331e-02f,-3.03721074e-02f,+1.75845906e-01f,-1.11622073e-01f,+2.42049620e-01f,
+2.47489855e-01f,+4.42893623e-04f,+3.97249669e-01f,-9.75691900e-02f,-1.94942623e-01f,
-6.73802868e-02f,+1.24663733e-01f,+1.36849597e-01f,-3.38317156e-02f,+1.40477583e-01f,
+1.79183483e-02f,+4.81362700e-01f,-4.93658930e-02f,+1.94783121e-01f,-3.43514346e-02f,
-4.61047739e-02f,-4.01083946e-01f,+1.06105015e-01f,+9.01375473e-01f,-2.71100134e-01f,
-2.22631559e-01f,-1.37187436e-01f,-1.88864306e-01f,+1.61821201e-01f,+1.34505153e-01f,
+6.85162544e-02f,-1.49420559e-01f,-4.10066694e-02f,-5.32019585e-02f,+1.17067486e-01f,
+1.39580190e-01f,+3.00918575e-02f,-8.63063633e-02f,+2.06837848e-01f,-1.30400941e-01f,
+1.43448621e-01f,-4.37286310e-02f,+3.46105695e-02f,-2.52790730e-02f,-4.67363596e-02f,
-5.28097600e-02f,+2.11329386e-01f,+6.39997870e-02f,-3.66892293e-02f,+1.66076422e-01f,
-3.05103045e-02f,+1.90450266e-01f,-1.07313029e-01f,-4.91283722e-02f,-5.92947053e-03f,
-5.23466952e-02f,+1.84175223e-01f,+9.08762515e-02f,+1.39703616e-01f,-2.33765140e-01f,
+1.62657663e-01f,-1.92305565e-01f,-2.09064454e-01f,+2.48337872e-02f,-5.48430234e-02f,
+2.39903703e-02f,+1.84059832e-02f,-9.74128023e-02f,+5.28062284e-01f,-2.88209529e-03f,
-7.33066276e-02f,+1.26788229e-01f,+2.19958007e-01f,+1.30393237e-01f,+8.79811868e-02f,
-1.48568332e-01f,-1.27144465e-02f,-3.65434647e-01f,+1.03975885e-01f,+3.47333491e-01f,
+1.93753719e-01f,-7.89556652e-02f,+1.11028001e-01f,-2.02750057e-01f,+2.01587826e-02f,
+1.17503062e-01f,+1.37932301e-01f,+1.67529181e-01f,-5.92275001e-02f,+2.17302144e-01f,
-5.88861629e-02f,+1.43908607e-02f,+1.41641190e-02f,-1.46210447e-01f,-7.27406219e-02f,
+1.66910887e-01f,-3.88087407e-02f,+1.48669392e-01f,+6.38943732e-01f,+6.65782439e-03f,
+6.03301749e-02f,+2.29677986e-02f,+3.71761024e-02f,+3.24179083e-02f,-3.47017823e-03f,
-1.37715548e-01f,+1.37984827e-01f,+1.06711872e-01f,+1.59395058e-02f,+1.78589270e-01f,
+3.75145853e-01f,+2.30353065e-02f,+1.15749493e-01f,+9.24675465e-02f,+7.16501996e-02f,
+7.20764026e-02f,+1.63880110e-01f,+4.74649101e-01f,+1.44506484e-01f,-2.29321897e-01f,
+2.12889790e-04f,+3.98987345e-02f,+2.89612822e-02f,-6.92321062e-02f,-1.41314551e-01f,
+3.31700206e-01f,+1.29575685e-01f,-1.10994436e-01f,+1.15783572e-01f,+2.29379833e-01f,
-3.62883694e-02f,-1.71533357e-02f,+9.20852646e-02f,-3.08657140e-01f,+9.36753452e-02f,
+1.28123141e-03f,-1.01256169e-01f,+7.30299726e-02f,+3.68462890e-01f,+7.89620355e-02f,
+1.99006677e-01f,+1.51037708e-01f,+4.23768461e-01f,-9.85113904e-02f,+2.21796378e-01f,
-1.47037715e-01f,+2.12442324e-01f,+3.07836980e-02f,+3.21649373e-01f,+2.56761134e-01f,
+5.76767586e-02f,+7.41421878e-02f,+1.89673215e-01f,+6.02592751e-02f,+1.91284150e-01f,
+5.37934780e-01f,+2.50555575e-01f,+2.55770743e-01f,+2.37386152e-02f,+1.06122931e-02f,
-4.76325415e-02f,-2.10676819e-01f,+6.55321255e-02f,-5.58057688e-02f,-8.63155574e-02f,
+2.35860765e-01f,+1.50680587e-01f,-1.01729050e-01f,+1.94101438e-01f,+1.00531597e-02f,
-3.34014386e-01f,+4.78972681e-02f,+3.97145092e-01f,+1.84947670e-01f,+2.99350489e-02f,
-9.77334604e-02f,+5.27828038e-02f,-7.95959681e-02f,-2.35831454e-01f,-1.08632050e-01f,
+2.69501656e-01f,+3.51250201e-01f,-4.62445691e-02f,+2.63514854e-02f,-1.95946738e-01f,
-1.47959679e-01f,-2.03449503e-02f,+8.31005797e-02f,+2.10441530e-01f,-7.63386637e-02f,
+8.44179913e-02f,-1.03356894e-02f,-5.61255440e-02f,+1.00704595e-01f,+3.70504200e-01f,
+5.70991710e-02f,-5.84793575e-02f,+4.30167824e-01f,+5.15418313e-02f,+3.17250669e-01f,
+6.47498295e-02f,-1.97738171e-01f,-2.03245834e-01f,+3.69798183e-01f,-1.85728252e-01f,
+5.23686334e-02f,+5.44378422e-02f,+1.20787241e-01f,+3.29585187e-02f,-2.02618480e-01f,
-3.04894656e-01f,+4.59412277e-01f,-3.87635343e-02f,+1.13270201e-01f,-4.77138013e-02f,
+2.88680941e-01f,+3.16753983e-01f,+2.55413771e-01f,-2.32187323e-02f,+1.97044145e-02f,
+4.99905311e-02f,+1.32589191e-01f,-1.30210027e-01f,-1.59046397e-01f,-2.11464480e-01f,
-8.90337899e-02f,-1.41547516e-01f,+3.76465440e-01f,+4.89355564e-01f,-9.97206196e-03f,
+2.37766951e-01f,-2.27440208e-01f,-1.10286057e-01f,+2.72194266e-01f,-1.11038918e-02f,
+6.38961196e-01f,+5.13430126e-02f,+6.83394670e-02f,+1.47412643e-01f,+5.73071763e-02f,
+3.51701975e-01f,-6.72284439e-02f,+2.81202018e-01f,-6.82284450e-03f,+4.92866904e-01f,
+2.43216962e-01f,+4.05267417e-01f,+7.01712444e-02f,+3.64895836e-02f,+5.83045125e-01f,
+3.74549270e-01f,+4.54803824e-01f,+1.66988075e-01f,+1.08502418e-01f,+6.81133568e-02f,
-1.31320238e-01f,-3.40349488e-02f,-2.25184381e-01f,+3.51117134e-01f,+1.02854289e-01f,
+2.94814020e-01f,-6.48121396e-03f,+1.14956893e-01f,+1.79306075e-01f,-2.21837964e-02f,
+2.23041117e-01f,+6.55196667e-01f,+1.81499884e-01f,-3.45463492e-02f,-1.01096891e-01f,
+1.25751361e-01f,-1.30938292e-01f,+3.85801569e-02f,-1.82481408e-01f,+1.29508778e-01f,
-1.93586588e-01f,-1.33815050e-01f,+3.96653116e-02f,-8.98903422e-03f,+8.99638757e-02f,
+2.13594005e-01f,-1.71636343e-01f,-1.81275636e-01f,+1.41210645e-01f,+8.73888582e-02f,
+8.25920850e-02f,-7.68932775e-02f,+2.89194018e-01f,-6.29983321e-02f,+1.38269171e-01f,
+5.17444387e-02f,-1.48601655e-03f,+1.31432533e-01f,-8.36735442e-02f,-4.22591865e-02f,
-3.80682230e-01f,+2.10633297e-02f,-6.18349575e-02f,+1.30321220e-01f,+1.14947714e-01f,
-2.93203592e-01f,-1.37195632e-01f,-5.01288138e-02f,-1.11006655e-01f,+5.21200180e-01f,
-3.56157348e-02f,+1.08628534e-01f,+8.87479186e-02f,+1.42765297e-02f,+2.49510199e-01f,
+9.97778177e-02f,+1.93009779e-01f,+1.70198411e-01f,+2.73145109e-01f,+2.67747119e-02f,
+3.19280654e-01f,+1.10840842e-01f,+3.85923564e-01f,-2.66397536e-01f,-2.61323094e-01f,
+2.36223817e-01f,-7.49461055e-02f,-2.09019616e-01f,+1.44094378e-01f,-3.18334490e-01f,
+1.83620259e-01f,+1.00105688e-01f,+2.06888646e-01f,+2.44183719e-01f,-5.27444482e-01f,
-2.27463506e-02f,+8.51341616e-03f,+2.57516265e-01f,+2.72008806e-01f,+3.80004078e-01f,
+2.61665285e-01f,-1.79284707e-01f,+2.51369607e-02f,+6.04264379e-01f,+1.88867897e-01f,
-1.49172738e-01f,+1.05308346e-01f,-1.72950014e-01f,-2.46150419e-01f,+3.05799514e-01f,
+3.38346362e-01f,+2.08671063e-01f,-1.52254045e-01f,-5.54784276e-02f,-7.99372792e-02f,
+1.79856196e-01f,+2.67692178e-01f,-1.11905560e-01f,+1.79899901e-01f,+3.18019360e-01f,
+3.03247813e-02f,+3.20210308e-01f,+1.83893502e-01f,-9.37930867e-02f,-3.45150322e-01f,
+1.11708976e-01f,-2.64528722e-01f,-2.72927374e-01f,+3.91239494e-01f,-1.50958255e-01f,
+6.81136474e-02f,-1.56963348e-01f,+4.13753353e-02f,+3.01820636e-01f,+2.18322575e-01f,
+9.05875675e-03f,-4.79741842e-02f,+2.26102665e-01f,+3.09608262e-02f,+1.09196700e-01f,
+1.50021881e-01f,+2.28543848e-01f,+1.12282872e-01f,+6.23852871e-02f,+8.70705247e-02f,
+3.83987208e-03f,+2.58164346e-01f,+2.58852452e-01f,+2.78105795e-01f,-2.16587558e-01f,
+6.63037936e-04f,+1.09673947e-01f,+7.29912296e-02f,+3.69820744e-01f,+1.95396468e-01f,
-1.04602434e-01f,+3.77226919e-01f,-1.43283620e-01f,+2.19667256e-01f,+1.35718897e-01f,
-1.66960880e-02f,-3.73782478e-02f,+1.97869509e-01f,+8.25140104e-02f,+6.36102781e-02f,
+2.47329324e-02f,+4.02101249e-01f,-2.70042755e-02f,-1.45357639e-01f,+3.38152379e-01f,
+4.30890322e-01f,+6.78055584e-02f,+4.61270325e-02f,+4.46933247e-02f,+4.92048413e-02f,
-1.16449997e-01f,-6.53122785e-03f,+4.70368331e-03f,-4.88021463e-01f,+3.53822082e-01f,
+1.43734887e-01f,-8.53030197e-03f,-1.50243655e-01f,+4.24199075e-01f,+1.02136441e-01f,
+1.71925813e-01f,+1.89826623e-01f,-8.19624215e-02f,+2.18024179e-02f,+2.23939925e-01f,
+1.35356292e-01f,+4.74500880e-02f,-1.55088976e-01f,-7.75776207e-02f,+6.91572204e-02f,
+1.29319737e-02f,-4.21899697e-03f,+1.41548470e-01f,-1.29538074e-01f,-7.20850527e-02f,
+8.68865848e-02f,+8.95964503e-02f,-7.84958079e-02f,+1.25786021e-01f,+7.91027844e-02f,
+9.85874459e-02f,-4.12519127e-01f,-3.44575793e-01f,+8.66027325e-02f,+7.44957626e-02f,
-3.42781097e-01f,+4.30008359e-02f,+3.08051080e-01f,-1.31392956e-01f,-4.09969866e-01f,
+1.90864682e-01f,+1.23726532e-01f,-4.67508920e-02f,-1.20429702e-01f,-8.27752501e-02f,
+2.63435058e-02f,-3.08816899e-02f,+7.23482847e-01f,+2.15721071e-01f,+3.33399892e-01f,
+3.28245521e-01f,-2.27649361e-02f,+9.27611217e-02f,-3.05692721e-02f,-1.75624549e-01f,
-1.88460704e-02f,-5.67145534e-02f,-4.73207012e-02f,-1.10216811e-03f,+1.70791999e-01f,
+1.64354518e-01f,+3.41397256e-01f,+2.22535834e-01f,-2.44342551e-01f,+1.64255396e-01f,
-3.86862487e-01f,+1.73186317e-01f,+1.99546501e-01f,+4.64900285e-02f,+1.04616396e-01f,
+8.22577253e-03f,+6.76189084e-03f,-9.10371989e-02f,-4.91993502e-02f,-3.95861380e-02f,
+1.82556454e-02f,+2.91285664e-01f,+6.57750741e-02f,-8.75580683e-02f,-4.74702120e-02f,
-1.65908366e-01f,+2.38578558e-01f,+1.07831925e-01f,-1.82145268e-01f,-1.23355694e-01f,
+5.84213156e-03f,+9.47629958e-02f,+2.19764888e-01f,+1.54361933e-01f,+5.94291277e-02f,
+1.24149173e-01f,-5.79099637e-03f,+2.79795051e-01f,+6.06770366e-02f,+3.02330196e-01f,
-2.62626205e-02f,+2.54540712e-01f,+7.44876191e-02f,-7.68353194e-02f,+1.36598915e-01f,
+2.73787603e-02f,-9.09794718e-02f,+5.52093461e-02f,-2.06684291e-01f,-1.17101096e-01f,
+2.31619682e-02f,-1.39053941e-01f,+2.11201504e-01f,+2.34265044e-01f,+4.34390724e-01f,
+1.80602670e-01f,+1.06136866e-01f,+1.48280352e-01f,+2.51983911e-01f,-1.57315388e-01f,
+4.41681705e-02f,+8.26549530e-02f,+1.24040119e-01f,-1.46689385e-01f,+1.97914258e-01f,
+4.37729657e-02f,+4.74019974e-01f,-3.30165289e-02f,-9.37876850e-02f,+2.16148689e-01f,
-1.68056209e-02f,+2.92855293e-01f,+1.63137957e-01f,+1.09822214e-01f,+2.93319553e-01f,
+2.47814149e-01f,-6.86164573e-02f,+2.21810173e-02f,+1.71292111e-01f,-1.52819455e-01f,
-8.48884284e-02f,+7.35524818e-02f,-1.12570122e-01f,-1.80827320e-01f,-8.36650506e-02f,
-8.20645764e-02f,+1.73199087e-01f,+1.43720075e-01f,-5.84999025e-02f,-6.12314567e-02f,
+2.19191283e-01f,+8.69082063e-02f,+1.25587314e-01f,+1.12424709e-01f,+2.34621063e-01f,
-1.43741965e-01f,+1.79439753e-01f,+8.64646304e-03f,-1.72704458e-01f,+1.87773809e-01f,
-1.29043564e-01f,+1.31901816e-01f,+1.62632748e-01f,+1.02412142e-01f,+9.79409441e-02f,
-8.39342400e-02f,+3.04473728e-01f,+4.43149265e-03f,-5.93987899e-03f,+1.39505267e-01f,
+2.48401821e-01f,-7.69445151e-02f,+1.43693954e-01f,+6.30796552e-02f,+1.56388972e-02f,
+6.44681528e-02f,+2.56596506e-01f,+3.46959271e-02f,-2.04932973e-01f,+4.78949398e-02f,
-1.32303044e-01f,+1.90789998e-02f,+6.69753253e-02f,+7.47967809e-02f,+1.07965237e-02f,
+5.29008389e-01f,-5.42390421e-02f,+2.45229438e-01f,+2.57337034e-01f,+3.79857817e-03f,
+2.01418504e-01f,+2.97174510e-02f,+8.35056752e-02f,-2.14978084e-01f,+1.43918032e-02f,
+8.74913633e-02f,-4.78765443e-02f,-8.41295347e-03f,+2.84076393e-01f,-2.08434463e-02f,
+1.48040295e-01f,-6.71484247e-02f,-1.74227282e-01f,-6.33648559e-02f,+1.55206889e-01f,
-8.90853554e-02f,+2.79677331e-01f,+3.87837291e-02f,+8.31072852e-02f,+8.10888596e-03f,
+4.04779315e-01f,-8.69657621e-02f,+3.82145554e-01f,-5.07059023e-02f,-1.49972394e-01f,
+2.13102713e-01f,-1.16239212e-01f,+2.18051136e-01f,-1.07813984e-01f,+1.36845177e-02f,
+1.02669977e-01f,-6.94489032e-02f,-4.90183011e-02f,+1.47603288e-01f,-1.09214835e-01f,
+1.91082567e-01f,+6.10651970e-02f,+9.22188610e-02f,+1.79891825e-01f,+7.13264346e-02f,
+1.78905040e-01f,+2.38945141e-01f,+2.65045851e-01f,-4.87948135e-02f,+6.19064048e-02f,
-1.51557222e-01f,+3.44401985e-01f,+8.15450177e-02f,+2.36847088e-01f,+7.07245665e-03f,
+1.95483163e-01f,+2.88055867e-01f,+3.91794145e-02f,-3.37666065e-01f,-1.47120118e-01f,
-1.01424992e-01f,-2.21985757e-01f,+3.59540045e-01f,+3.38769734e-01f,+6.07248396e-02f,
-1.23254895e-01f,-4.55527939e-02f,+1.93036154e-01f,+2.47987080e-03f,+3.20046991e-01f,
-5.39173046e-03f,+1.02892287e-01f,+3.96036029e-01f,+1.83798224e-01f,+2.21115917e-01f,
+9.16133169e-03f,-1.30968064e-01f,+2.81827033e-01f,-4.36701737e-02f,+1.58363327e-01f,
-1.23845041e-02f,+4.21697408e-01f,+1.87738448e-01f,-9.68903750e-02f,-1.25633538e-01f,
+2.95592658e-02f,+1.64683700e-01f,-9.65818483e-03f,-3.30918878e-02f,-1.33040279e-01f,
-1.68934520e-02f,+1.46266550e-01f,-3.76192071e-02f,-9.20212418e-02f,-5.54810390e-02f,
+9.46235359e-02f,-6.81169555e-02f,+2.77049124e-01f,+8.38536490e-03f,-2.67894827e-02f,
-2.91603483e-05f,+6.94848672e-02f,+2.19902858e-01f,+4.28061970e-02f,+5.08281216e-03f,
+2.71732002e-01f,+2.37623602e-01f,-3.10357157e-02f,-1.17205501e-01f,+3.18986595e-01f,
+3.38659957e-02f,+1.40297040e-01f,-6.27804454e-03f,+1.04191452e-01f,+4.80195791e-01f,
+2.09391743e-01f,-3.76178287e-02f,-2.40908796e-03f,+1.80904225e-01f,-1.87333915e-02f,
-2.11751610e-02f,+8.23006108e-02f,+2.60370612e-01f,-7.26111308e-02f,+2.37314090e-01f,
+1.17326096e-01f,+2.88299412e-01f,+5.57192899e-02f,-3.62926163e-02f,+1.78410292e-01f,
+8.03182051e-02f,+1.73717767e-01f,+1.23572432e-01f,-8.10354203e-02f,+1.18697444e-02f,
+1.75120205e-01f,-2.15423748e-01f,+7.26926029e-02f,+3.51756424e-01f,+2.55875260e-01f,
-3.98485661e-02f,+1.47893205e-01f,-4.61648591e-02f,+1.96152717e-01f,+1.64281771e-01f,
+1.33150265e-01f,+6.08179867e-01f,-1.87574364e-02f,-1.45502731e-01f,-1.16303325e-01f,
+5.27527854e-02f,+5.40846810e-02f,+1.92241952e-01f,+5.28162867e-02f,+1.09124258e-01f,
+8.70468318e-02f,+1.64028686e-02f,+5.78313973e-03f,+2.51043469e-01f,+1.95748985e-01f,
+1.17114946e-01f,-1.79588869e-01f,+1.90685362e-01f,-2.85780579e-02f,+4.66737896e-02f,
-2.12292224e-01f,+1.28104493e-01f,+3.12993169e-01f,+8.47837776e-02f,+2.22143531e-02f,
-1.41094625e-02f,-4.49400246e-02f,-1.23492867e-01f,-1.80264041e-01f,+9.97333676e-02f,
+5.17830700e-02f,-4.97619770e-02f,-2.04979435e-01f,+1.19658485e-01f,-6.20622560e-02f,
-8.69255736e-02f,+2.07333982e-01f,+3.33983488e-02f,+7.12874234e-02f,+1.72025487e-01f,
+1.91437677e-02f,+1.25266284e-01f,+2.65329719e-01f,+4.54876237e-02f,+1.54234082e-01f,
+7.66756833e-02f,+1.88984379e-01f,-1.56008694e-02f,+1.86060399e-01f,+1.59493193e-01f,
+1.13247328e-01f,-5.84269837e-02f,+3.78309369e-01f,-7.38065541e-02f,+1.30801886e-01f,
+4.20916453e-02f,-2.06696078e-01f,-5.99027984e-03f,+3.46608721e-02f,-3.43721583e-02f,
+2.81729281e-01f,+3.23419362e-01f,+7.45386407e-02f,-1.54062167e-01f,+2.25082025e-01f,
+3.01467836e-01f,+2.42566690e-01f,+1.11185284e-02f,+1.29200220e-01f,+1.88264623e-02f,
-1.19621284e-01f,+3.52055430e-02f,-1.10013843e-01f,-2.37714294e-02f,+1.74258091e-02f,
-1.23169139e-01f,+9.85133424e-02f,+6.65993392e-02f,-2.69905236e-02f,+1.08492732e-01f,
+1.76015589e-02f,-1.02763250e-01f,-4.09819819e-02f,-2.70509738e-02f,+1.02464311e-01f,
+2.54830956e-01f,-2.18836635e-01f,+4.09698308e-01f,-2.01073751e-01f,+5.81394807e-02f,
-8.26952830e-02f,+2.79111434e-02f,+2.24020183e-02f,+1.93730500e-02f,+2.57855743e-01f,
+1.03783153e-01f,+4.10902888e-01f,-5.93956932e-02f,+2.80266199e-02f,+4.15301323e-02f,
-1.13427050e-01f,+1.15947664e-01f,-2.87566930e-01f,-7.99356122e-03f,-6.40287176e-02f,
+1.03112735e-01f,-1.32093444e-01f,+3.70239377e-01f,+1.29392549e-01f,+2.40088552e-02f,
+2.61681259e-01f,+6.28401488e-02f,+1.95870399e-01f,-1.06309541e-01f,+2.44457483e-01f,
+1.11163817e-02f,+3.91182989e-01f,+1.60518568e-02f,-1.12638315e-02f,+1.95791125e-01f,
+3.94284613e-02f,+2.68292010e-01f,+1.33297563e-01f,-6.18720539e-02f,+3.39588039e-02f,
-2.88970042e-02f,+8.11550692e-02f,+2.54996002e-01f,-7.66923837e-03f,+2.70836085e-01f,
-1.00363474e-02f,+3.75779308e-02f,+2.28948928e-02f,+2.81061530e-01f,+1.54533073e-01f,
+1.41817346e-01f,-1.87158678e-02f,+5.54353334e-02f,-3.79697010e-02f,-1.20520793e-01f,
+1.16851643e-01f,-1.71961069e-01f,+1.00090057e-01f,-1.67040497e-01f,-3.65058333e-02f,
+4.61144298e-01f,+9.32128802e-02f,+2.16644630e-01f,-4.03084606e-02f,-1.80757329e-01f,
+2.68889576e-01f,-1.35079429e-01f,-4.92841676e-02f,-1.46993265e-01f,+1.94482267e-01f,
+7.51510412e-02f,-1.75619602e-01f,+7.76611567e-02f,-1.89844087e-01f,-6.08299337e-02f,
+9.56101492e-02f,-3.74397822e-02f,+1.94336832e-01f,-3.81396487e-02f,+3.03779840e-01f,
+1.11118509e-02f,-1.75318122e-01f,+3.76110375e-01f,+1.70908663e-02f,+1.06284715e-01f,
+1.75588414e-01f,-2.65322514e-02f,+1.88369334e-01f,+1.03504233e-01f,-2.87416447e-02f,
-4.56975438e-02f,+2.47556403e-01f,-1.55935832e-03f,+1.89199746e-01f,+1.73957981e-02f,
+3.55319940e-02f,+2.85891265e-01f,+1.49691224e-01f,+1.01754129e-01f,+6.10741228e-02f,
-1.79141536e-02f,+3.09403371e-02f,-2.83145644e-02f,-1.22006111e-01f,+1.26955733e-01f,
-6.31308407e-02f,-1.80134643e-02f,+1.27593800e-01f,+2.73531139e-01f,+1.89184509e-02f,
+1.17774040e-01f,+1.24456801e-01f,-5.36602288e-02f,+1.08219616e-01f,+2.45469272e-01f,
-1.08758695e-01f,+1.96752772e-01f,-2.71860007e-02f,-7.42467237e-04f,+3.12703371e-01f,
-8.63321051e-02f,+2.85286009e-01f,+2.04923097e-02f,-2.36204360e-02f,-5.74408993e-02f,
-1.07212491e-01f,-1.42894000e-01f,-4.40711156e-02f,-5.18443696e-02f,+1.57324448e-02f,
-7.12244213e-02f,+5.51910587e-02f,+2.43705511e-01f,+1.68368712e-01f,+9.62282568e-02f,
+1.08300164e-01f,-9.53365490e-02f,-6.92694262e-03f,-7.84699842e-02f,+1.73504889e-01f,
-8.96853879e-02f,+6.82501569e-02f,+2.69894451e-02f,+1.66851357e-02f,+4.23551574e-02f,
+4.50099334e-02f,+1.63817212e-01f,-1.15526214e-01f,+1.37585402e-01f,+1.57658920e-01f,
-6.21017814e-02f,+2.66970873e-01f,+1.09887011e-02f,+3.74121070e-01f,+1.23170003e-01f,
-8.67014229e-02f,+3.73807661e-02f,+1.91657290e-01f,-1.40159875e-01f,+1.29339308e-01f,
+2.92756140e-01f,+8.65574181e-02f,+5.11650741e-01f,-3.59576792e-02f,+9.72041190e-02f,
+2.52346009e-01f,-4.50876728e-02f,+1.27724251e-02f,+3.56502645e-02f,-8.58856589e-02f,
+5.76257147e-02f,-1.91209093e-01f,-9.32667684e-03f,+2.88555305e-02f,-6.14666604e-02f,
-1.88995060e-02f,+8.63418281e-02f,+3.67601886e-02f,+3.71826403e-02f,+2.32718065e-02f,
-1.05705336e-01f,-1.60775408e-01f,-1.46513999e-01f,+6.98001534e-02f,+1.73549876e-02f,
-8.56927633e-02f,+7.41442740e-02f,+3.59388478e-02f,-1.27386972e-02f,-4.28741053e-02f,
-3.35628614e-02f,+5.04314946e-03f,+8.19299277e-03f,+2.38697857e-01f,+1.44201189e-01f,
-5.83183467e-02f,-9.81728956e-02f,-1.87522694e-01f,+2.16591150e-01f,+1.28706992e-01f,
-8.17516148e-02f,-1.21716913e-02f,+1.30782053e-01f,+3.87906581e-02f,+1.29145697e-01f,
-4.02275510e-02f,-3.67928967e-02f,-2.02030912e-02f,-3.00938398e-01f,+4.79996353e-01f,
+3.85866582e-01f,+1.43457219e-01f,-2.65587658e-01f,+8.68008211e-02f,-1.82229653e-01f,
-2.50035292e-03f,+1.18110254e-01f,+1.48961768e-01f,-6.46953471e-03f,-2.44172990e-01f,
+1.00589134e-01f,+3.66159827e-02f,-8.83433521e-02f,+2.09078610e-01f,+4.48112220e-01f,
+3.14598292e-01f,+2.71754395e-02f,+2.70053118e-01f,+1.69677719e-01f,+1.55193925e-01f,
-1.87777672e-02f,+5.70783615e-02f,-2.05331054e-02f,+2.04991847e-01f,-1.02379397e-01f,
-2.14633003e-01f,+2.28341445e-02f,+1.45821229e-01f,-5.66298440e-02f,-1.08079016e-01f,
+2.02288792e-01f,-9.70597379e-03f,-8.99140611e-02f,+1.09471746e-01f,-1.62915826e-01f,
+2.52890855e-01f,+7.69894989e-03f,-3.58313441e-01f,+3.00465316e-01f,-4.00161259e-02f,
+9.86051485e-02f,+3.75483371e-02f,+1.13940559e-01f,+4.47820462e-02f,-1.63115695e-01f,
+3.08598690e-02f,+1.65460899e-01f,+1.18738413e-02f,+1.36271596e-01f,+2.98978463e-02f,
+4.69396189e-02f,-2.93403953e-01f,-4.77886721e-02f,+1.06063247e-01f,-1.01559237e-02f,
+1.20533213e-01f,-4.36118469e-02f,+1.40769124e-01f,+4.32462655e-02f,+3.49715084e-01f,
-2.22536083e-02f,+8.14690366e-02f,+2.16732115e-01f,-4.18512858e-02f,-1.13618309e-02f,
-5.53732589e-02f,+2.31967002e-01f,+1.43262789e-01f,-5.60316928e-02f,-1.39580876e-01f,
+3.44023883e-01f,+2.44446825e-02f,-7.34801916e-03f,+2.40133688e-01f,+4.99684885e-02f,
-1.53862298e-01f,-1.14133373e-01f,-3.75733227e-02f,-7.66281784e-02f,-1.04858987e-02f,
+2.49974743e-01f,-9.88884270e-02f,+5.72672486e-02f,+2.81267315e-01f,+1.08934842e-01f,
+3.17151248e-02f,+4.57957208e-01f,+1.36881143e-01f,+3.16983461e-01f,+1.39709383e-01f,
+1.29754856e-01f,+1.94808736e-01f,+1.98656291e-01f,+1.90496102e-01f,-2.44222432e-01f,
+8.79816115e-02f,+3.96554507e-02f,+5.88124655e-02f,+1.60425097e-01f,+4.10083324e-01f,
+5.71622513e-02f,+1.73004791e-01f,+2.07127377e-01f,-1.00992978e-01f,-1.71174943e-01f,
+5.18813170e-02f,+1.71987876e-01f,-1.62732288e-01f,-3.38660553e-02f,+3.40677470e-01f,
+3.11451033e-02f,+2.33141959e-01f,+1.34631004e-02f,+1.04319789e-01f,-1.42390681e-02f,
+8.87531042e-02f,+5.85461780e-02f,+1.12075349e-02f,+1.88430194e-02f,+7.33535588e-02f,
+5.99728860e-02f,+6.99563101e-02f,+2.35010132e-01f,+5.43952454e-03f,+2.48148829e-01f,
+1.28727918e-02f,+5.51275760e-02f,+1.00715920e-01f,-1.89076504e-03f,+1.42901570e-01f,
+7.64960647e-02f,+1.24205649e-01f,-5.41467704e-02f,-9.44724027e-03f,-7.34015834e-03f,
-1.35908693e-01f,-1.61418412e-02f,+2.83751227e-02f,+1.51098505e-01f,-1.11809059e-03f,
-1.43558726e-01f,+3.71867865e-02f,+2.31370181e-01f,+9.62930545e-02f,-8.07178468e-02f,
-1.13163091e-01f,-1.28499046e-01f,+6.76603168e-02f,-1.30089238e-01f,-9.14344266e-02f,
+1.75284117e-01f,+1.36411950e-01f,+9.02195200e-02f,+5.11865839e-02f,+2.26667717e-01f,
+2.56142437e-01f,+5.44681959e-02f,+6.07158132e-02f,-1.91424426e-03f,+2.69256905e-02f,
+7.89826363e-02f,+2.08230495e-01f,-1.97188426e-02f,+7.95975402e-02f,+1.03293344e-01f,
+8.47391933e-02f,+2.92582572e-01f,+5.98764792e-02f,+1.28424972e-01f,+1.50300235e-01f,
+1.41209230e-01f,+1.89833686e-01f,-1.39010683e-01f,+1.22397982e-01f,+5.74937016e-02f,
+1.68904901e-01f,+4.52052057e-02f,+2.95799505e-02f,+6.23112693e-02f,+1.18541829e-01f,
+7.14169890e-02f,+8.12402926e-04f,-1.23192057e-01f,+6.95707276e-02f,-1.23892084e-01f,
+4.17483822e-02f,+6.41974434e-02f,+1.04560666e-01f,+1.34504348e-01f,+5.77774495e-02f,
+8.34412500e-02f,-5.84147796e-02f,+3.03857028e-02f,-2.35439446e-02f,+5.30472815e-01f,
+4.61574532e-02f,+4.25304919e-02f,+1.90903991e-01f,+9.68278721e-02f,+8.00248533e-02f,
+4.17139605e-02f,-5.27837202e-02f,-8.08048900e-03f,-6.08086064e-02f,+8.81881639e-02f,
+7.64264017e-02f,-1.66893259e-01f,+4.31516431e-02f,+4.64846194e-02f,+1.16987899e-01f,
+2.29335316e-02f,+1.03233442e-01f,+9.95564237e-02f,-1.07630238e-01f,-2.82761659e-02f,
+1.42790928e-01f,+1.34394184e-01f,+7.67964646e-02f,+1.62752550e-02f,+1.93569940e-02f,
+1.06224492e-01f,+1.08559333e-01f,+2.46681631e-01f,+1.32009089e-02f,-9.17515531e-03f,
+2.38713518e-01f,+1.03304274e-01f,+2.48201787e-01f,+6.04506768e-03f,-1.04639670e-02f,
+7.70659670e-02f,-9.47183892e-02f,+2.35828564e-01f,-5.78260310e-02f,-3.77728976e-02f,
+1.24066360e-01f,+3.63257825e-02f,+3.00127696e-02f,+1.78654864e-01f,+7.25503638e-02f,
+6.07739016e-02f,-4.17245412e-03f,+4.50575203e-02f,+2.29570586e-02f,+1.00795075e-01f,
+1.28125876e-01f,-1.34551495e-01f,+1.21567070e-01f,+2.60104448e-01f,+1.85539946e-01f,
+5.41836098e-02f,-6.53417706e-02f,+1.58569261e-01f,-1.08497456e-01f,+1.85984552e-01f,
+1.13335654e-01f,+1.58454827e-03f,+1.00431912e-01f,-1.63927346e-01f,+1.05678909e-01f,
+4.93350253e-03f,+2.36804187e-01f,-8.99228230e-02f,+8.75097886e-02f,-1.62756458e-01f,
-4.17995155e-02f,+3.43701765e-02f,+9.37392861e-02f,+3.13593745e-01f,+2.39577144e-01f,
+4.94931452e-02f,-1.26145305e-02f,+1.55867100e-01f,+6.87168241e-02f,-8.38479325e-02f,
+1.83894023e-01f,-8.01122189e-02f,+4.24270071e-02f,-5.63833043e-02f,+9.41945314e-02f,
-6.34921491e-02f,+2.29290247e-01f,+1.52568191e-01f,-1.31384190e-03f,-1.80420071e-01f,
-2.56536864e-02f,+1.86007231e-01f,-1.22027740e-01f,+2.88657174e-02f,+3.15177917e-01f,
+5.62573485e-02f,+3.04557174e-01f,+3.95089984e-02f,-2.31807027e-02f,-5.56936413e-02f,
-1.16063133e-01f,+2.41554808e-02f,-8.33379105e-02f,+2.67003607e-02f,+5.22485971e-02f,
+7.17436299e-02f,+4.98117208e-02f,+1.11319721e-01f,+2.67688602e-01f,+1.67760193e-01f,
-1.10337667e-01f,+1.22123592e-01f,-1.12788901e-01f,+1.50793999e-01f,-5.74647076e-02f,
-1.39579639e-01f,-2.22467005e-01f,+1.07015707e-01f,+1.80156425e-01f,-9.45231318e-03f,
+1.24034464e-01f,+1.82237983e-01f,+2.15671003e-01f,+6.25483692e-02f,-2.74854191e-02f,
-2.09445897e-02f,+1.00222088e-01f,+2.59042054e-01f,+6.82438537e-02f,+2.04864353e-01f,
+1.54881984e-01f,+1.28936218e-02f,+1.27820641e-01f,-1.28668040e-01f,-8.15595761e-02f,
+1.54964060e-01f,+1.48157114e-02f,+5.74621782e-02f,-4.49105315e-02f,+3.18346232e-01f,
+5.65969795e-02f,-2.89882347e-03f,+2.56155610e-01f,+2.56528646e-01f,+6.86113909e-02f,
+1.30933568e-01f,+7.86995143e-02f,+7.14455098e-02f,-1.30304486e-01f,+2.66772747e-01f,
+1.35945544e-01f,+9.61154774e-02f,+1.86378166e-01f,+7.51332473e-03f,-9.27812085e-02f,
+2.65698824e-02f,-2.55542551e-03f,+2.40297109e-01f,-3.60044241e-02f,+1.84269145e-01f,
+2.03690335e-01f,-1.19691812e-01f,+1.09873995e-01f,+6.22293986e-02f,+1.25912383e-01f,
+1.23776227e-01f,+1.37392715e-01f,+1.25963166e-01f,-5.39402775e-02f,-8.91724899e-02f,
+2.35366464e-01f,+5.69984913e-02f,+4.55746919e-01f,+1.98023707e-01f,+6.90054893e-02f,
-1.75941110e-01f,+3.47346738e-02f,-8.61932933e-02f,+9.06110555e-02f,+1.86871573e-01f,
+2.66503513e-01f,-7.04952776e-02f,+4.73230854e-02f,-6.58727065e-02f,-6.29716292e-02f,
+2.61772454e-01f,+2.47979630e-02f,+1.38068097e-02f,+5.37526906e-02f,-1.42625168e-01f,
+1.53104886e-02f,+3.24296840e-02f,-9.15987492e-02f,+1.35023475e-01f,+6.77600056e-02f,
-3.10990978e-02f,+4.86514159e-03f,+1.31874144e-01f,-5.35675660e-02f,-6.03937963e-03f,
-2.06251647e-02f,+1.57665893e-01f,+1.42340332e-01f,-1.79324135e-01f,-6.64637834e-02f,
+1.90749113e-02f,+2.41006464e-01f,+6.81040064e-02f,-6.76912218e-02f,+6.10780343e-02f,
+1.59987032e-01f,+1.53260842e-01f,-7.24037215e-02f,-9.57143605e-02f,+4.42783274e-02f,
+5.82187343e-03f,+2.05076262e-01f,+1.23032019e-01f,-1.13747470e-01f,+4.03532647e-02f,
+1.72861248e-01f,+1.32319838e-01f,+1.93972737e-01f,+1.07741088e-03f,+3.82634858e-03f,
+6.53523654e-02f,+1.94672048e-01f,-1.13453560e-01f,-4.40520234e-02f,-6.03319332e-02f,
-5.18168770e-02f,-3.04887500e-02f,-1.35156966e-03f,+4.13743779e-02f,+1.25320435e-01f,
+2.44572908e-01f,+9.76050571e-02f,+1.43568307e-01f,-3.45346153e-01f,-1.33446353e-02f,
+3.68866511e-02f,-1.55359238e-01f,+1.08343679e-02f,-1.03904083e-01f,+8.97503495e-02f,
-1.06860504e-01f,+2.30779387e-02f,+7.84824342e-02f,+1.91515282e-01f,+9.14132372e-02f,
-8.11559111e-02f,-3.96355502e-02f,+6.34992942e-02f,+2.50431634e-02f,+2.88488492e-02f,
+1.08549567e-02f,+4.01504673e-02f,-1.15218041e-02f,-1.98756177e-02f,-3.06834728e-02f,
-6.20907061e-02f,+6.91352561e-02f,+1.67528301e-01f,+9.17064473e-02f,+1.76053718e-01f,
+1.35927305e-01f,+2.26199422e-02f,+2.61864942e-02f,+3.81125621e-02f,-1.26420096e-01f,
+1.90085694e-01f,+6.11244924e-02f,-7.40503287e-03f,+2.29218021e-01f,-2.44439077e-02f,
-1.03350431e-01f,+1.41126394e-01f,-1.59968026e-02f,-2.05327161e-02f,+1.86115488e-01f,
+8.46949294e-02f,-2.14704387e-02f,-6.68668821e-02f,+2.65423823e-02f,+1.40350655e-01f,
+1.51705980e-01f,+1.16816416e-01f,-2.03365320e-03f,-1.21590390e-03f,+1.28089979e-01f,
+1.92066759e-01f,+2.95271456e-01f,-6.99864253e-02f,-1.61024496e-01f,+1.29124895e-01f,
-8.23783781e-03f,-1.34045742e-02f,-1.68583822e-02f,-1.18544877e-01f,+1.04582980e-02f,
+9.69176069e-02f,-4.77866717e-02f,+1.05689466e-01f,+7.02251196e-02f,+5.17630531e-03f,
+1.80727392e-01f,-4.81539182e-02f,+6.59627616e-02f,-2.22236857e-01f,+8.92206132e-02f,
+1.73083037e-01f,-3.54905128e-02f,-2.63731740e-02f,+3.20587978e-02f,+1.01209261e-01f,
-3.76868434e-02f,-1.13753855e-01f,+2.62238458e-02f,-1.43262267e-01f,-1.06484979e-01f,
-5.45347529e-03f,+4.34143022e-02f,-4.94527891e-02f,-1.66893639e-02f,+1.65541589e-01f,
-1.88713018e-02f,+2.80292481e-02f,+4.45430540e-02f,+3.97934467e-02f,+1.13262102e-01f,
+5.72977662e-02f,+4.45830040e-02f,+1.17816299e-01f,+8.70461762e-02f,-1.58296287e-01f,
+7.10928962e-02f,-6.43975884e-02f,-1.14319287e-01f,+4.78311069e-02f,+1.49064586e-02f,
+1.55695483e-01f,+1.40709832e-01f,+1.33048907e-01f,+1.62354186e-01f,+2.59960517e-02f,
+3.41107063e-02f,+1.10976949e-01f,-1.68199390e-02f,-4.49933149e-02f,+1.34131625e-01f,
-2.34315898e-02f,+1.59377560e-01f,+6.35745749e-02f,+1.45786822e-01f,-6.50563836e-02f,
-5.71489148e-02f,+4.01099995e-02f,+8.96414295e-02f,+2.10964262e-01f,-9.55688953e-02f,
-5.98400757e-02f,-9.05313045e-02f,-4.49744910e-02f,-2.15168558e-02f,+2.64268875e-01f,
+1.01219341e-01f,-4.16660570e-02f,+1.35857882e-02f,-4.83102612e-02f,+1.22771673e-01f,
+6.40209764e-02f,+1.37583138e-02f,+1.05542839e-01f,+2.66954396e-02f,-1.49851432e-02f,
+1.52267665e-01f,+1.56647041e-01f,-1.47963107e-01f,+3.72337289e-02f,+3.87007333e-02f,
-2.10720319e-02f,+1.26434043e-01f,+1.37891784e-01f,-1.71390884e-02f,+1.08161733e-01f,
-8.78486261e-02f,-9.27137882e-02f,+3.20025422e-02f,-3.63815459e-03f,-8.86257067e-02f,
+1.02317721e-01f,+1.42797843e-01f,-3.09853312e-02f,+1.06803991e-03f,+2.46278882e-01f,
-8.25562142e-03f,+2.03941807e-01f,+2.16065422e-01f,-3.26292105e-02f,-1.59726199e-02f,
+4.27500866e-02f,-6.15342706e-03f,+1.29333556e-01f,+1.55001238e-01f,+1.49481729e-01f,
+1.76040232e-02f,+9.20464769e-02f,-9.98229161e-02f,+5.69244567e-03f,+4.62840237e-02f,
+3.36118117e-02f,+1.53408498e-01f,+4.15401906e-02f,-7.74911512e-03f,+6.05536401e-02f,
+1.71649575e-01f,-5.25918491e-02f,+8.18253681e-02f,-7.30669275e-02f,+3.81688848e-02f,
+1.67378351e-01f,+1.52226642e-01f,-4.08979580e-02f,-4.71889449e-04f,-1.52011141e-01f,
-5.57256415e-02f,+8.21521804e-02f,+7.37941712e-02f,+8.29039216e-02f,+2.45448083e-01f,
-5.94882108e-02f,-3.02955955e-02f,-5.18322885e-02f,+1.27027526e-01f,+2.41338119e-01f,
-1.76418684e-02f,-1.50981903e-01f,+1.12179749e-01f,-7.06361979e-02f,+2.84446657e-01f,
+3.03973228e-01f,+5.44537045e-02f,+8.12982842e-02f,+6.36403188e-02f,+4.56729904e-02f,
-5.51243871e-02f,+6.83595836e-02f,+1.27234325e-01f,+1.50578901e-01f,-4.83275391e-02f,
+7.52651244e-02f,-3.27637047e-02f,+9.63674579e-03f,+1.91419646e-01f,-1.62703902e-01f,
-2.39999309e-01f,-1.33282905e-02f,+2.35121604e-02f,+3.63003239e-02f,+1.12467118e-01f,
+1.72157437e-02f,-5.16378805e-02f,+9.88574699e-02f,-4.50234860e-02f,+1.25253782e-01f,
+1.53726280e-01f,-1.67557120e-01f,+4.09627035e-02f,+1.03843033e-01f,-1.88369662e-01f,
-9.02814493e-02f,+1.63595185e-01f,-1.58438254e-02f,+1.40834898e-02f,+5.76657951e-02f,
-2.27463283e-02f,+1.57521367e-02f,-1.22171044e-02f,+1.86133366e-02f,+1.35970950e-01f,
+1.35567114e-01f,-1.82501376e-01f,-1.32021271e-02f,+7.08327070e-02f,+3.61729339e-02f,
+8.25487748e-02f,+8.66290852e-02f,+3.07423994e-02f,+1.18467428e-01f,+7.90142417e-02f,
+1.89936787e-01f,-1.44861937e-01f,-2.72251721e-02f,-4.14300933e-02f,-1.12516815e-02f,
-2.09562350e-02f,+2.51769185e-01f,-2.96902005e-02f,+1.22084044e-01f,+1.29735827e-01f,
-1.03365064e-01f,-7.24708661e-02f,+5.90842776e-02f,+1.21421767e-02f,+6.31543770e-02f,
-5.73991947e-02f,-6.91153035e-02f,-3.52461338e-02f,+2.77780797e-02f,-2.16344148e-01f,
-1.39426708e-01f,+2.49177217e-01f,-9.65046659e-02f,+2.11435348e-01f,+2.70135384e-02f,
+1.08361363e-01f,+5.03943749e-02f,+7.06756040e-02f,+3.31160203e-02f,+1.46300435e-01f,
+1.11098357e-01f,+1.96157675e-02f,-9.70142484e-02f,+1.16538711e-01f,+2.27548361e-01f,
+1.02805384e-01f,+3.07585329e-01f,+1.38569608e-01f,-3.02401166e-02f,+8.07774067e-02f,
+1.36631534e-01f,+1.95950605e-02f,+6.18199632e-02f,+2.00318452e-02f,+3.45623344e-02f,
+8.89004674e-03f,-6.35587126e-02f,+2.48704225e-01f,+3.21448483e-02f,+5.32413414e-03f,
-1.54285818e-01f,+1.05621837e-01f,+1.47346869e-01f,-2.91586332e-02f,-4.48343381e-02f,
+7.30332509e-02f,+2.76157726e-02f,+3.21075544e-02f,-4.89041442e-04f,-4.52609695e-02f,
-2.88422592e-02f,+2.97439266e-02f,-2.88349569e-01f,+1.60979748e-01f,-4.90973890e-02f,
+3.40117700e-02f,-1.13369830e-01f,+2.07183793e-01f,-2.69902378e-01f,-7.85460025e-02f,
+9.90050733e-02f,-8.62345323e-02f,+1.41020820e-01f,+2.20904097e-01f,+1.10132098e-01f,
-2.11188331e-01f,-2.15530745e-03f,+1.20401613e-01f,+1.43079340e-01f,+8.12540054e-02f,
+6.13828488e-02f,+2.08596140e-01f,-6.87555224e-02f,+2.03639958e-02f,-1.61879927e-01f,
-2.85834879e-01f,+8.08589980e-02f,+7.84108788e-02f,+7.84255713e-02f,+1.84277669e-01f,
+1.21850809e-02f,+1.44359991e-01f,-3.14076602e-01f,+1.35006443e-01f,-3.48990202e-01f,
-2.09950909e-01f,+1.36552349e-01f,+1.68971434e-01f,-1.00859674e-02f,+7.18552843e-02f,
-2.47605424e-02f,+4.66036238e-02f,+2.98882604e-01f,+2.66267695e-02f,+5.25573552e-01f,
+6.37159869e-02f,-1.91400826e-01f,+1.75368741e-01f,+2.62163520e-01f,-2.43013203e-01f,
-2.17173100e-01f,-3.85156204e-03f,+3.47564556e-02f,+2.93128401e-01f,+2.01930642e-01f,
+7.19699915e-03f,+6.26711994e-02f,-2.53277197e-02f,-3.06357481e-02f,+4.56981808e-02f,
-1.13560103e-01f,+3.61956982e-03f,-1.93614200e-01f,-1.64764240e-01f,-1.35981113e-01f,
+5.94518222e-02f,+4.28816816e-03f,-4.79355790e-02f,+7.46295005e-02f,-4.43957388e-01f,
-1.96303427e-01f,+1.54900029e-02f,+1.26020208e-01f,-1.39509156e-01f,+7.66734555e-02f,
-7.94168271e-04f,-1.64031118e-01f,+1.92760184e-01f,+3.67175937e-02f,+1.96423396e-01f,
+2.01679900e-01f,-1.87329292e-01f,+5.09722456e-02f,+5.05245291e-02f,+3.45640868e-01f,
+1.56271815e-01f,-2.19407409e-01f,-5.88222072e-02f,-2.13506401e-01f,+1.26582310e-01f,
+1.21637275e-02f,+7.78543726e-02f,-1.98028944e-02f,-9.21422392e-02f,+8.48033801e-02f,
+2.38553852e-01f,+2.34071761e-01f,-4.19492275e-01f,+5.73010892e-02f,+1.55568987e-01f,
-2.48469226e-02f,-7.90378973e-02f,+1.05056301e-01f,+2.16389969e-01f,+5.00126854e-02f,
+4.43266239e-03f,-5.75737990e-02f,+4.49120477e-02f,-5.24740592e-02f,+1.94686875e-02f,
-1.13889292e-01f,+2.38868237e-01f,+2.04803776e-02f,+1.63399950e-01f,+9.61399898e-02f,
+3.79356258e-02f,-3.84951308e-02f,+1.14184357e-01f,-1.77623466e-01f,-7.50116408e-02f,
+2.25554168e-01f,+4.32319045e-02f,-1.44153178e-01f,+1.78240150e-01f,+1.35672346e-01f,
-1.86775660e-03f,-4.29314002e-02f,+2.15178654e-01f,+1.39620200e-01f,+9.39193275e-03f,
-1.75163195e-01f,-1.07463561e-01f,+3.12221467e-01f,+9.73063782e-02f,+4.58298810e-02f,
-7.60214701e-02f,+5.62810265e-02f,+5.05472496e-02f,+1.51555404e-01f,-1.49743780e-01f,
-1.09365031e-01f,+1.25799194e-01f,+2.12533679e-02f,+3.57903019e-02f,-4.19076048e-02f,
+2.29606584e-01f,+6.53764755e-02f,-5.38320765e-02f,-2.26083994e-01f,+2.77636170e-01f,
+7.68994242e-02f,-1.93255190e-02f,-5.96160516e-02f,-5.74725531e-02f,-2.01286804e-02f,
-2.09358379e-01f,-2.23027878e-02f,-3.53977829e-03f,-5.65947741e-02f,+1.58130720e-01f,
+2.83910155e-01f,+1.50926173e-01f,+3.14669192e-01f,-1.29124045e-01f,-3.05645335e-02f,
+5.23630008e-02f,-1.04231939e-01f,-1.94145627e-02f,-7.21114129e-02f,-1.16104521e-01f,
+5.46091720e-02f,+1.42652802e-02f,+4.27444428e-02f,-7.04446062e-02f,-7.26288632e-02f,
-1.12460680e-01f,-7.48076618e-01f,-4.71235067e-02f,+4.52329144e-02f,+2.76260853e-01f,
+1.19591326e-01f,+1.76698208e-01f,+3.26505691e-01f,-1.67325273e-01f,+2.18302757e-01f,
-2.76932240e-01f,-8.05377811e-02f,-7.32641667e-02f,+1.60324156e-01f,-6.41204044e-02f,
+9.40407142e-02f,-1.00640021e-01f,-6.11771420e-02f,+8.48264471e-02f,+2.64539868e-01f,
+1.86181694e-01f,+1.06560774e-01f,-9.74843800e-02f,+9.31974277e-02f,+1.19572066e-01f,
+2.29370892e-01f,+1.95537329e-01f,+3.87942381e-02f,-6.15015067e-03f,+7.02437386e-02f,
+5.74578643e-02f,-2.61076599e-01f,-1.00360088e-01f,+1.84610710e-01f,-1.39281526e-01f,
-4.72480133e-02f,-5.70569374e-03f,+1.95179284e-01f,-1.87108535e-02f,+4.52076085e-02f,
-1.34065017e-01f,-8.11258424e-03f,-1.23018645e-01f,-7.44921565e-02f,-2.01817170e-01f,
-1.09595075e-01f,+7.76148140e-02f,+3.10586449e-02f,+5.61216213e-02f,+3.01991314e-01f,
-9.78356004e-02f,+4.35448170e-01f,+2.80212551e-01f,-2.43930146e-02f,+2.05928460e-01f,
-2.37072527e-01f,+3.63867015e-01f,-1.92060918e-02f,+5.73731251e-02f,-4.39898074e-02f,
+2.22597763e-01f,-9.26837027e-02f,+1.06074279e-02f,-7.59784654e-02f,+3.92865352e-02f,
+7.07544088e-02f,+7.36647666e-01f,+2.21533746e-01f,+3.00360858e-01f,+1.40895113e-01f,
+2.22395241e-01f,+2.46103615e-01f,+4.51795980e-02f,+3.32611836e-02f,+3.12826574e-01f,
+1.27574801e-01f,+7.27588951e-04f,+2.69039929e-01f,+4.73193526e-02f,+7.88427610e-03f,
+5.44372201e-02f,+4.81443070e-02f,+1.21174194e-01f,-1.68884724e-01f,-1.73456408e-02f,
-5.67024723e-02f,-5.85319055e-03f,+2.26417519e-02f,+3.68479714e-02f,+9.84104797e-02f,
-1.53727964e-01f,-2.44980901e-02f,-2.45724276e-01f,+3.56099606e-01f,+7.08134174e-02f,
-3.57575454e-02f,-1.01328388e-01f,-2.76613861e-01f,+7.30320439e-02f,-3.47185582e-01f,
-1.72904655e-01f,-1.04445271e-01f,+1.54473573e-01f,-1.70097817e-02f,-1.29383489e-01f,
+1.99130118e-01f,-4.55395542e-02f,-1.52203664e-01f,-1.03958890e-01f,-1.37884036e-01f,
+1.97631074e-03f,-7.72980601e-02f,+7.34365657e-02f,+4.66195226e-01f,+5.03613725e-02f,
+1.32216737e-01f,+7.85011426e-02f,+1.21395523e-02f,+5.87434880e-02f,-3.26194227e-01f,
-2.38119751e-01f,+8.77298191e-02f,+1.84677303e-01f,+5.82551770e-02f,+1.11661874e-01f,
-8.40138271e-02f,+3.65374595e-01f,+1.44667253e-01f,-1.21289693e-01f,-5.84787577e-02f,
-8.60914141e-02f,-2.63560116e-01f,+1.00714400e-01f,+1.03126258e-01f,-4.94485982e-02f,
-2.40448881e-02f,-1.01663239e-01f,-2.82596722e-02f,+1.05548151e-01f,+4.87906225e-02f,
-3.61476392e-02f,+3.34877312e-01f,+5.15890062e-01f,+7.92760924e-02f,+6.37920737e-01f,
+5.75734535e-03f,-6.69121221e-02f,+1.98457986e-01f,-8.29061568e-02f,+1.97259054e-01f,
+3.07277939e-03f,+1.27955675e-01f,-2.66694307e-01f,-1.35040164e-01f,-1.49302110e-02f,
+6.24848418e-02f,+2.46785626e-01f,+3.24662924e-02f,-2.93141380e-02f,+2.09101886e-01f,
-8.30392912e-02f,-2.33222973e-02f,+2.26888046e-01f,-1.60595536e-01f,-4.37862240e-03f,
+5.83245270e-02f,+4.29595172e-01f,+8.51192791e-03f,-1.87365294e-01f,-2.06564486e-01f,
+2.20686004e-01f,+7.14909136e-02f,-2.51932442e-02f,+4.72897179e-02f,+3.80264193e-01f,
+1.88432097e-01f,-3.92753817e-02f,+2.26182044e-01f,+9.66610108e-03f,+5.36285043e-02f,
-2.01292291e-01f,-5.67633361e-02f,+8.58456418e-02f,+5.03454387e-01f,+3.28448713e-01f,
-9.21654701e-02f,-2.42736310e-01f,+1.25870369e-02f,+1.63232878e-01f,+3.49701717e-02f,
+1.12264240e-02f,+5.80284409e-02f,+7.52031952e-02f,+2.95778103e-02f,+2.47174837e-02f,
-1.60469841e-02f,-2.14404408e-02f,+1.95998907e-01f,-1.39951691e-01f,+4.76824552e-01f,
+9.96764526e-02f,-3.02425083e-02f,+1.30364344e-01f,-7.97930509e-02f,+1.89794391e-01f,
-2.07001597e-01f,+4.54116136e-01f,-1.09732211e-01f,+1.90415516e-01f,+1.35332510e-01f,
+1.77636102e-01f,+1.51574742e-02f,-1.12350360e-01f,+3.34294707e-01f,+1.55763060e-01f,
-2.76349522e-02f,+1.74585313e-01f,-8.43884330e-03f,-4.11449708e-02f,-1.99604154e-01f,
-1.18066728e-01f,+8.15551355e-02f,+1.92501724e-01f,+2.74515003e-01f,+1.97728962e-01f,
+3.39781970e-01f,+2.36301497e-02f,-4.25120583e-03f,+1.95328087e-01f,+2.83471227e-01f,
+1.12150915e-01f,+8.97884369e-02f,-8.23596716e-02f,+3.25578526e-02f,-3.92513983e-02f,
-5.69533929e-02f,-9.52814147e-02f,+4.08734009e-02f,+2.13577449e-01f,+1.28564984e-01f,
+7.30674416e-02f,+3.70017849e-02f,+2.77873218e-01f,+1.33152634e-01f,-7.96459801e-03f,
+2.90403903e-01f,+1.04755469e-01f,+4.16783169e-02f,+1.08537830e-01f,-1.12067632e-01f,
+2.91653335e-01f,+9.90104675e-02f,-3.13943028e-01f,+6.90146536e-02f,+1.43437535e-01f,
+3.00855357e-02f,+4.77830730e-02f,+1.23317726e-02f,-1.35570183e-01f,+4.24115509e-01f,
+4.25573289e-01f,+3.04259583e-02f,+4.11955833e-01f,-2.37480789e-01f,+1.81228742e-01f,
+1.25604317e-01f,-1.64275512e-01f,+9.42645222e-02f,-1.61873370e-01f,-9.87929031e-02f,
-4.08157241e-03f,+1.43016547e-01f,+3.17650437e-01f,+1.42229810e-01f,+2.59537995e-02f,
+1.84657366e-03f,-1.14484563e-01f,-1.45515338e-01f,-2.07547210e-02f,+2.69457072e-01f,
+7.84387067e-02f,+3.80991459e-01f,+4.80198450e-02f,-1.08183973e-01f,-2.33750656e-01f,
+1.24666460e-01f,+2.04660460e-01f,+7.57074207e-02f,+9.62831080e-02f,-8.21943283e-02f,
-1.05909176e-01f,-2.23620027e-01f,-1.76426962e-01f,+1.39328271e-01f,-1.67619675e-01f,
+8.10749754e-02f,+1.20343510e-02f,+2.36722473e-02f,+1.92158356e-01f,+1.70107976e-01f,
+9.82728228e-02f,-1.57937020e-01f,-5.18961027e-02f,+2.85425216e-01f,+2.90307347e-02f,
+7.11368099e-02f,+9.10899322e-03f,+3.40748608e-01f,-2.71817595e-01f,+2.93966889e-01f,
+1.93207160e-01f,+4.28267941e-02f,+1.36606336e-01f,+2.68531203e-01f,+1.09220818e-01f,
+8.08628574e-02f,-9.95432865e-03f,+2.41009027e-01f,-1.45850658e-01f,+2.35772267e-01f,
+9.21578184e-02f,-2.45599896e-01f,+1.84475675e-01f,+2.61931568e-01f,-3.63019079e-01f,
+3.44443351e-01f,-4.25182581e-02f,+1.28506392e-01f,+2.14383751e-01f,+4.43160161e-02f,
-3.69026102e-02f,+4.87180911e-02f,+4.19473916e-01f,+3.14938962e-01f,+2.13783175e-01f,
+4.27084714e-02f,+1.90372884e-01f,+3.32257003e-02f,-8.62532556e-02f,+2.94493169e-01f,
+9.40233842e-02f,+1.88791618e-01f,+4.18160576e-03f,+3.23081434e-01f,+1.60699636e-02f,
+1.09039307e-01f,+1.80123374e-01f,+1.28591195e-01f,-1.09699862e-02f,-1.31475091e-01f,
+1.43172340e-02f,+2.81358242e-01f,-3.28767598e-02f,-2.39772290e-01f,+1.15244724e-01f,
-2.60259304e-03f,-1.65304288e-01f,-1.18698768e-01f,+1.27836734e-01f,+8.46537761e-03f,
-4.90971506e-02f,-2.37616181e-01f,+1.80871934e-01f,-1.67700097e-01f,+1.10732555e-01f,
-1.20168179e-01f,+3.31468433e-02f,-1.57846257e-01f,+3.00954938e-01f,+4.53481138e-01f,
+2.95412570e-01f,+1.32865414e-01f,-1.19239755e-01f,-1.57805178e-02f,+1.18099004e-01f,
+1.55667707e-01f,+2.92108059e-01f,+1.17123537e-01f,-1.38591558e-01f,-2.68538177e-01f,
-2.83604681e-01f,+5.33492304e-02f,+2.12399319e-01f,+1.25250235e-01f,-1.54815279e-02f,
-7.44424388e-02f,-4.66301478e-02f,+3.00599158e-01f,+3.70196626e-02f,+4.19505797e-02f,
+8.24542940e-02f,+2.81232655e-01f,-1.19063519e-02f,-1.19595386e-01f,+4.05362278e-01f,
+2.97641098e-01f,-1.69971198e-01f,+1.13770343e-01f,+2.80011892e-01f,+2.46267483e-01f,
+4.36545350e-03f,-8.34279805e-02f,+3.49660516e-02f,-1.48637086e-01f,-1.72776863e-01f,
+7.18860179e-02f,+3.35041940e-01f,-1.35261327e-01f,-3.02765868e-04f,-9.26594138e-02f,
+1.07619733e-01f,+1.07275091e-01f,+1.40110567e-01f,-2.23447159e-01f,+4.66429777e-02f,
-2.00165048e-01f,+1.00372963e-01f,-4.04330939e-02f,-3.26275006e-02f,+1.52440310e-01f,
+3.42866331e-02f,-1.59908071e-01f,+3.91348600e-02f,+2.28306159e-01f,-2.10814074e-01f,
+8.97643864e-02f,+9.01607871e-02f,+1.10888839e-01f,-2.60830224e-01f,-1.70732327e-02f,
-1.75941244e-01f,+7.93204233e-02f,+2.28640676e-01f,+2.22269055e-02f,-8.00220296e-02f,
-1.33194938e-01f,-2.02429324e-01f,-1.03661180e-01f,-9.30565894e-02f,-1.34202033e-01f,
-1.00387380e-01f,+1.72392458e-01f,+3.23208421e-01f,+1.02996916e-01f,+1.08391099e-01f,
-2.25004517e-02f,+6.18759580e-02f,-7.69459978e-02f,+5.48687875e-02f,+1.09188452e-01f,
-1.29068136e-01f,+3.86072189e-01f,+1.37853667e-01f,-3.23827192e-02f,+1.37171060e-01f,
+4.19007940e-03f,+1.35856658e-01f,+2.96555191e-01f,+9.68402699e-02f,+2.49640286e-01f,
+7.69701228e-02f,+9.20452643e-03f,+1.60123257e-03f,+5.43554574e-02f,+1.29318804e-01f,
+3.88016701e-01f,+1.13415316e-01f,-4.87345792e-02f,+8.12772140e-02f,+1.09212771e-01f,
+4.04302418e-01f,+3.16275418e-01f,-1.38148025e-01f,+2.30737198e-02f,+3.10691983e-01f,
-1.22399695e-01f,-4.63313349e-02f,-1.26671284e-01f,+1.18998915e-01f,-1.75437465e-01f,
+2.41436735e-01f,+2.41998397e-02f,-1.68634802e-02f,-4.02193964e-02f,-2.09217921e-01f,
+5.67681789e-02f,+5.67156002e-02f,-1.57904401e-01f,+6.40817210e-02f,-2.04098150e-01f,
+3.57669219e-03f,+1.07949175e-01f,+2.95540035e-01f,+1.27128333e-01f,+1.93497390e-01f,
-9.79402661e-02f,+3.47562104e-01f,+4.40512560e-02f,+3.81021440e-01f,+1.75580412e-01f,
+1.76929563e-01f,-8.09158199e-03f,-5.34855351e-02f,-4.66772616e-02f,-5.45183308e-02f,
+1.16207199e-02f,+1.94819212e-01f,-9.91198123e-02f,-3.20477672e-02f,-4.28970531e-02f,
-1.24666288e-01f,+1.55084014e-01f,+2.53208190e-01f,+1.03901640e-01f,+1.35722250e-01f,
+8.21922421e-02f,-2.45754346e-02f,+3.10166497e-02f,-1.74978469e-02f,+3.70152712e-01f,
+3.35337102e-01f,+2.30587825e-01f,+2.40892857e-01f,+1.66620493e-01f,+1.40222162e-01f,
+2.54046261e-01f,-1.54075310e-01f,+4.77087731e-03f,+7.19408393e-02f,+7.48954043e-02f,
+1.57380879e-01f,+1.48951421e-02f,-1.22542903e-02f,+1.92129493e-01f,+4.40993875e-01f,
-2.84519922e-02f,-2.24852964e-01f,+4.12412703e-01f,-5.90370819e-02f,+1.78478539e-01f,
+1.89179569e-01f,-1.32294938e-01f,+4.97754030e-02f,-1.46273687e-01f,-1.96767032e-01f,
+3.63780409e-02f,+1.17431678e-01f,-1.51879206e-01f,-1.30052194e-02f,+1.40479118e-01f,
+3.55151407e-02f,+1.61522016e-01f,+2.79771775e-01f,+4.17058706e-01f,-1.27677426e-01f,
-1.90847628e-02f,-1.24426438e-02f,-1.74154252e-01f,-1.53991997e-01f,-1.96273819e-01f,
-2.32610814e-02f,-8.00641775e-02f,-2.24685967e-02f,+6.95320517e-02f,+1.64250612e-01f,
+3.35114226e-02f,+7.65841603e-02f,+1.28104463e-01f,-6.83762580e-02f,+2.59504348e-01f,
+7.37348013e-03f,-9.22807381e-02f,+2.08898023e-01f,+1.28977552e-01f,-9.24596842e-03f,
+1.10818148e-01f,-1.54888824e-01f,-5.84246814e-02f,+1.08337365e-01f,+3.52600254e-02f,
-5.38967587e-02f,-6.38704151e-02f,+3.00324056e-03f,+1.32065207e-01f,+5.25247343e-02f,
-7.00062439e-02f,+3.02873284e-01f,-6.17661253e-02f,+1.38717261e-03f,-1.64672732e-01f,
+1.76469889e-02f,-7.11796433e-02f,+1.53722107e-01f,+4.67285775e-02f,-6.11681640e-02f,
-1.54453233e-01f,+1.89593703e-01f,+1.68480173e-01f,-1.20817915e-01f,+1.17048129e-01f,
-1.67622551e-01f,-1.05710514e-01f,+7.99391493e-02f,+2.87699047e-02f,-1.05152681e-01f,
+2.81785846e-01f,-3.41377854e-02f,+1.28228202e-01f,+2.90769547e-01f,+8.97885263e-02f,
-1.22541472e-01f,-1.66045070e-01f,+1.13538504e-01f,-8.78776163e-02f,+2.98870169e-02f,
-4.95719053e-02f,+2.32035145e-02f,-6.67621642e-02f,-2.59263273e-02f,-2.03573406e-01f,
-1.41919434e-01f,+9.99364182e-02f,+2.25596860e-01f,+9.58784111e-03f,+1.08701132e-01f,
+9.64474082e-02f,-4.41495925e-02f,-9.72882807e-02f,-1.52682215e-01f,+2.25724190e-01f,
+2.51222014e-01f,+1.66794986e-01f,-3.74157541e-02f,+2.22266793e-01f,-6.67143017e-02f,
+2.48277262e-01f,-2.83880811e-02f,+2.93373782e-03f,-1.55917346e-01f,+2.19029170e-02f,
-6.79396838e-02f,-5.69352098e-02f,-2.24683180e-01f,+2.35694163e-02f,+2.72244096e-01f,
+2.27640748e-01f,+9.43038687e-02f,+2.71197528e-01f,-4.49829400e-02f,+2.35122621e-01f,
-1.40700033e-02f,+1.41883284e-01f,-1.24677815e-01f,+2.77465224e-01f,+4.91258428e-02f,
+9.60091650e-02f,+3.05889428e-01f,+3.30983549e-01f,+2.22631097e-01f,-2.07469482e-02f,
-3.00739836e-02f,-3.76444720e-02f,+3.33229937e-02f,-1.28496677e-01f,+5.78803495e-02f,
+1.89126596e-01f,+1.47192508e-01f,+3.11686814e-01f,-1.40238687e-01f,-1.60048708e-01f,
-9.68317538e-02f,+6.23144805e-02f,+5.65442331e-02f,-8.33650827e-02f,+9.37032923e-02f,
-5.54810464e-02f,-2.64548976e-02f,+1.64353326e-02f,+2.83709109e-01f,-2.53634512e-01f,
-5.46235628e-02f,+9.34487507e-02f,-1.32534832e-01f,-8.52927491e-02f,-2.08127908e-02f,
+1.23736352e-01f,+1.11951619e-01f,-6.66290224e-02f,+4.57665510e-02f,+1.82994455e-01f,
+2.51638561e-01f,-9.09115374e-02f,-2.13919193e-01f,+9.36907157e-02f,+4.98629063e-02f,
-6.49310499e-02f,+6.64040893e-02f,-2.20752023e-02f,-2.48679325e-01f,+3.94788384e-01f,
+2.19651256e-02f,-2.46634390e-02f,+9.57810692e-03f,+8.84070396e-02f,+1.05669022e-01f,
-5.60529865e-02f,+1.37424946e-01f,-2.82475054e-01f,+2.24153072e-01f,+1.47863150e-01f,
+1.84675708e-01f,+9.49676484e-02f,+9.93881822e-02f,-5.17076477e-02f,+1.24006294e-01f,
+2.02893123e-01f,+1.20777763e-01f,+3.05695068e-02f,-1.13049202e-01f,-1.46437585e-02f,
-2.56597754e-02f,-2.91792341e-02f,+2.02893689e-01f,+2.17235550e-01f,+1.33999139e-02f,
+7.82528147e-02f,-2.99886376e-01f,+1.86421815e-02f,+2.22993121e-01f,+3.09415217e-02f,
+5.78426182e-01f,-1.82021797e-01f,+2.88171899e-02f,+1.56409994e-01f,-2.24553585e-01f,
+8.16178545e-02f,-6.44282103e-02f,+8.78362954e-02f,+2.10770331e-02f,-7.73563012e-02f,
+1.21149220e-01f,-1.03485934e-01f,+3.14150065e-01f,-2.82029379e-02f,-1.59942031e-01f,
+3.77550907e-02f,-2.24265251e-02f,-1.63907334e-01f,+1.02964817e-02f,+8.13753996e-03f,
-1.40133426e-01f,+1.13504328e-01f,+3.71747576e-02f,+7.05483416e-03f,+2.09176913e-02f,
-1.48513883e-01f,-3.71690281e-02f,+1.29577339e-01f,+1.88219532e-01f,+3.75188440e-02f,
-1.57145649e-01f,-2.10701123e-01f,+1.28981695e-01f,+3.46921152e-03f,+7.98157156e-02f,
+1.95970789e-01f,-9.70541220e-03f,-1.19715542e-01f,+1.64331153e-01f,+3.25387530e-02f,
+6.22010529e-02f,-3.87712684e-03f,+1.64741427e-01f,-6.21452332e-02f,-1.09249488e-01f,
+2.23125920e-01f,+7.67666399e-02f,+1.53744534e-01f,-2.75334045e-02f,-1.88720241e-01f,
-1.19469255e-01f,+1.12514503e-01f,+4.56453115e-02f,+1.31375760e-01f,+1.97087944e-01f,
-1.09535933e-01f,+3.44597138e-02f,+8.10250118e-02f,+5.89477234e-02f,+5.23342550e-01f,
-5.10194376e-02f,+9.23194923e-03f,+1.62596330e-01f,-1.10601828e-01f,+2.07729816e-01f,
+3.41263898e-02f,+6.04174007e-03f,-1.89690979e-03f,+4.39376026e-01f,-6.84745237e-02f,
-1.44244015e-01f,+1.50307819e-01f,-2.26297285e-02f,+1.98428705e-01f,+1.18127882e-01f,
+2.69847848e-02f,+9.78267044e-02f,+4.80720438e-02f,+6.34762719e-02f,+1.30604297e-01f,
-1.45375341e-01f,-8.97944197e-02f,+2.08250254e-01f,+2.30384931e-01f,+9.26285312e-02f,
-2.11287402e-02f,+4.40593153e-01f,-3.30124259e-01f,-4.66712080e-02f,+2.01233789e-01f,
-1.65263668e-01f,+6.47127703e-02f,+8.64165798e-02f,+2.05283821e-01f,+3.78629118e-01f,
+5.01556516e-01f,-1.65384755e-01f,-8.18538815e-02f,-4.82149459e-02f,+7.94687942e-02f,
+2.24585515e-02f,-9.45200697e-02f,+3.87471825e-01f,+1.21992044e-01f,+4.54510823e-02f,
+3.26557383e-02f,+2.69549847e-01f,+2.84696102e-01f,-1.11705638e-01f,-9.35471558e-04f,
+1.34647399e-01f,-2.39144892e-01f,-1.85061470e-01f,-6.24292493e-02f,+1.56116217e-01f,
+6.39446378e-01f,+1.21330373e-01f,-3.79903242e-02f,+3.95340055e-01f,+1.31125906e-02f,
+1.84525177e-01f,+3.35987732e-02f,-1.53795227e-01f,+8.25253800e-02f,+1.16589814e-01f,
-4.08380888e-02f,+1.72649637e-01f,+1.02020189e-01f,+1.05493672e-01f,-9.02525410e-02f,
+4.16705087e-02f,+3.20984036e-01f,+9.58852917e-02f,+2.64427930e-01f,-1.43030569e-01f,
+2.35279620e-01f,+1.27887875e-01f,-3.40527371e-02f,+3.00417915e-02f,-9.22753103e-03f,
-3.05319075e-02f,+1.62998244e-01f,+4.11426760e-02f,+1.50762603e-01f,+3.38145584e-01f,
+2.39327550e-01f,+2.15151817e-01f,-1.70851454e-01f,+2.06644773e-01f,+2.66841173e-01f,
-1.27461284e-01f,+1.17833450e-01f,+1.52024433e-01f,+1.10207841e-01f,-5.09805009e-02f,
+3.50786187e-02f,+1.68770850e-01f,+6.41011745e-02f,+3.31671908e-02f,-7.22376853e-02f,
+3.36143374e-02f,-1.83247358e-01f,-1.49390012e-01f,+2.11992010e-01f,+1.98355883e-01f,
+2.25918934e-01f,+4.24403250e-01f,+6.44869655e-02f,+1.02114834e-01f,-1.25362188e-01f,
-2.12024406e-01f,+5.16832136e-02f,+2.96478510e-01f,-3.91194895e-02f,-1.05049901e-01f,
+3.93021613e-01f,-6.20461330e-02f,+1.78535506e-01f,+7.49080777e-02f,+4.10631374e-02f,
-1.22051453e-02f,+1.73781723e-01f,+3.80223654e-02f,+2.28885487e-01f,+7.26634171e-03f,
-4.49636951e-02f,-1.43674156e-02f,+7.50578791e-02f,-4.13822904e-02f,+2.51901336e-02f,
-3.48804668e-02f,-1.76269887e-03f,+9.21107382e-02f,+6.42894059e-02f,+1.67014286e-01f,
+2.29483336e-01f,-1.58632100e-01f,+2.20621854e-01f,+1.08464986e-01f,-1.80493630e-02f,
+1.43733770e-01f,+4.58316132e-02f,+2.40744799e-01f,+2.73492575e-01f,-1.66097760e-01f,
+1.28272831e-01f,-2.79583130e-02f,+4.43441123e-02f,-8.03670362e-02f,-4.30469736e-02f,
+6.54272884e-02f,+1.65365040e-01f,+1.84850499e-01f,-2.05506802e-01f,+4.31644246e-02f,
+3.99507694e-02f,+8.56262371e-02f,-7.56826252e-02f,-1.09440595e-01f,+6.35671988e-02f,
+2.85609424e-01f,-2.43325960e-02f,+3.42454053e-02f,-3.28833163e-02f,-8.14532265e-02f,
-1.05366156e-01f,-1.39916584e-01f,+5.23502648e-01f,+2.10807547e-02f,-5.11758626e-02f,
+1.36909947e-01f,-1.18813515e-01f,+1.26303688e-01f,+2.78833419e-01f,+1.75388291e-01f,
+3.15987766e-02f,+4.08479720e-02f,+3.67999077e-01f,+1.37314409e-01f,-8.48729834e-02f,
-1.72859192e-01f,-2.10881472e-01f,-1.56089902e-01f,+5.10248169e-02f,+8.09809640e-02f,
+1.78811312e-01f,+6.78523481e-01f,+2.44167656e-01f,+2.42171511e-02f,+3.41756880e-01f,
+9.32453945e-02f,-8.83569866e-02f,+6.51773736e-02f,-4.40080352e-02f,+2.84906685e-01f,
-9.36931819e-02f,-6.76995441e-02f,-8.71189162e-02f,+9.33174118e-02f,-6.08233102e-02f,
+9.43994150e-02f,+1.21053755e-02f,+1.04406334e-01f,+8.99866149e-02f,-7.19117001e-02f,
-6.18681833e-02f,-9.82817262e-02f,+2.12400287e-01f,+3.23820025e-01f,-3.04513294e-02f,
+8.04854855e-02f,-9.20629874e-02f,+3.46224681e-02f,+4.72686393e-03f,+1.79799482e-01f,
+8.86576995e-02f,-7.14874938e-02f,+1.64641693e-01f,+7.71676973e-02f,-1.09807700e-01f,
+1.08498037e-01f,+1.90582365e-01f,+2.36597881e-01f,+1.10400051e-01f,-5.59190242e-03f,
-3.58449034e-02f,-2.83795446e-01f,+7.52409771e-02f,+6.28161952e-02f,+3.78777087e-02f,
+6.50148913e-02f,-8.83276835e-02f,-7.56737590e-02f,+1.96816653e-01f,+4.57833707e-01f,
+6.08035782e-03f,-4.05302852e-01f,+1.88591853e-01f,-2.77087018e-02f,+2.06081957e-01f,
-6.65326789e-02f,+7.27779716e-02f,+1.40235409e-01f,-1.06017701e-01f,+1.21169403e-01f,
-2.12176051e-02f,-3.16387974e-02f,+1.20903626e-01f,+1.57206938e-01f,+3.34713697e-01f,
+5.97805064e-03f,+3.48535478e-01f,-4.67525329e-03f,+2.95591168e-02f,+2.33062178e-01f,
-7.16858655e-02f,+7.05100000e-02f,+3.94394547e-01f,+2.47981795e-03f,-1.87209085e-01f,
-1.16435683e-03f,+6.78590164e-02f,-4.37140185e-03f,-4.48844582e-02f,+2.18791574e-01f,
+1.05400726e-01f,+1.20595902e-01f,+7.02849030e-02f,+3.84033322e-01f,+1.79138735e-01f,
-1.24282464e-01f,-1.52313396e-01f,+1.80412158e-01f,-4.48070914e-02f,-1.71106130e-01f,
+3.55547667e-02f,+9.74801108e-02f,+1.74777016e-01f,+2.39922721e-02f,+1.75339758e-01f,
-1.22131132e-01f,+1.34782165e-01f,+6.23763874e-02f,+1.49652421e-01f,-6.41189888e-02f,
-3.30554724e-01f,+9.94928256e-02f,+4.77571636e-02f,-1.67331904e-01f,+2.45304093e-01f,
+1.47308350e-01f,+1.93116039e-01f,-7.21387416e-02f,+1.46340519e-01f,+5.32215694e-03f,
-1.41325155e-02f,+9.75215957e-02f,+3.20284488e-03f,+1.43955082e-01f,+1.59747049e-01f,
+1.69973671e-01f,+4.03667539e-02f,-1.56532913e-01f,-4.10596542e-02f,+2.38832474e-01f,
-8.66889805e-02f,-6.85678348e-02f,+4.49217916e-01f,-1.20804355e-01f,+4.34707291e-02f,
+9.91914980e-03f,-2.85302289e-02f,-1.56143993e-01f,+7.52904043e-02f,+2.74730563e-01f,
+4.43627536e-02f,-6.31744415e-02f,+2.18907788e-01f,+9.88089666e-03f,-2.24964231e-01f,
+3.18084478e-01f,-8.27872455e-02f,+2.73360163e-01f,+1.68601900e-01f,+3.12996432e-02f,
-8.26767236e-02f,+8.40024427e-02f,-4.78248596e-02f,-2.01499775e-01f,-9.93085094e-03f,
+3.07715893e-01f,+2.69134697e-02f,-7.19098151e-02f,-1.77323874e-02f,+8.46284702e-02f,
+4.44426313e-02f,+2.36916423e-01f,-2.22925860e-02f,-3.00311185e-02f,+6.07960522e-02f,
+3.54332989e-03f,+1.52462479e-02f,+7.74152502e-02f,+1.43134311e-01f,-5.18793836e-02f,
+6.40893877e-02f,+7.93751329e-02f,+8.99186954e-02f,+1.10336743e-01f,+9.40860584e-02f,
-1.86727628e-01f,+3.06083292e-01f,+3.03999968e-02f,-1.92672946e-02f,+2.52504051e-02f,
+1.63233981e-01f,+2.34223753e-01f,-4.39219736e-02f,+3.26507747e-01f,-3.82116437e-02f,
+4.11806963e-02f,+1.16044730e-01f,+1.53035773e-02f,-1.37868062e-01f,+6.14036359e-02f,
+9.99874100e-02f,-8.21902379e-02f,-1.25360444e-01f,-3.18868943e-02f,+1.56538740e-01f,
-6.35663867e-02f,-5.55894524e-02f,-1.42520756e-01f,-5.96659221e-02f,-3.41931954e-02f,
+3.93810757e-02f,+1.11192744e-02f,+3.87083218e-02f,-1.66169554e-01f,-4.66042534e-02f,
+1.95671812e-01f,+1.46918654e-01f,+6.92382529e-02f,+2.37550139e-01f,-2.94789165e-01f,
+7.81305954e-02f,+4.00486030e-02f,+1.10150367e-01f,+5.05183153e-02f,-1.63404405e-01f,
+3.26890163e-02f,-7.93499649e-02f,+1.65383145e-01f,+4.72779684e-02f,-4.15432155e-02f,
+6.64424524e-02f,+6.18201531e-02f,+2.84941085e-02f,+9.94839817e-02f,+8.83652270e-03f,
+1.68028995e-01f,-5.16156526e-03f,+1.79171383e-01f,+1.26889437e-01f,+2.37816915e-01f,
+4.09415215e-02f,+1.75810773e-02f,+2.70538568e-01f,+4.87272553e-02f,+6.13746941e-02f,
-3.13140452e-02f,+2.08909959e-02f,-5.81636392e-02f,+6.24647848e-02f,+1.91683039e-01f,
+6.69055954e-02f,-4.21502627e-02f,-3.26230600e-02f,-1.23110652e-01f,+1.12735167e-01f,
+3.66517752e-02f,+1.95004001e-01f,-4.20148075e-02f,+5.45210727e-02f,+2.02864900e-01f,
-7.24704266e-02f,+7.05503821e-02f,-2.00098321e-01f,+2.98532009e-01f,-3.20758611e-01f,
+8.61141235e-02f,-1.46759087e-02f,+5.87564483e-02f,+6.32635951e-02f,+1.92777038e-01f,
-1.76568225e-01f,+5.24246469e-02f,+3.91919285e-01f,+6.02524728e-02f,+1.36648014e-01f,
+1.31001934e-01f,-5.46559393e-02f,+1.43453730e-02f,+2.41304815e-01f,-3.27362567e-02f,
-1.60040170e-01f,+2.88474560e-01f,-1.86784357e-01f,+1.61948204e-01f,+2.55791128e-01f,
+4.29427065e-02f,-5.61132245e-02f,-3.48899290e-02f,+2.75537699e-01f,-2.83586919e-01f,
-1.29221128e-02f,+2.04377279e-01f,-6.70026168e-02f,+4.26454395e-02f,-9.86590311e-02f,
+1.16733044e-01f,+1.01975299e-01f,+1.50366649e-01f,-9.42522809e-02f,-2.64248289e-02f,
+2.12611631e-02f,+4.33475971e-02f,+1.33907825e-01f,+3.07522248e-02f,+1.06778033e-01f,
+3.41984332e-01f,+3.00907157e-02f,+3.21837544e-01f,-2.59060208e-02f,+3.05185467e-01f,
+3.08510214e-01f,-3.09487712e-02f,+1.37806356e-01f,+1.31320864e-01f,+7.13540092e-02f,
-2.10331976e-01f,-6.46361113e-02f,+1.57788679e-01f,+3.05488914e-01f,+1.49967730e-01f,
+1.63292378e-01f,+1.90014094e-02f,-6.85216263e-02f,+1.29133180e-01f,+1.52979502e-02f,
-3.77958342e-02f,-1.49197474e-01f,-9.28147361e-02f,+7.53512466e-03f,+9.95420814e-02f,
+2.48252496e-01f,+1.16076939e-01f,-9.38743874e-02f,+2.66559590e-02f,+3.71461473e-02f,
+4.89706546e-02f,+1.80885300e-01f,+3.05424929e-01f,+9.28906798e-02f,+1.58761367e-01f,
+1.34560928e-01f,+9.27833542e-02f,-4.04932126e-02f,-1.55476898e-01f,+1.08359724e-01f,
-4.44787554e-03f,-6.71542808e-02f,-9.83197913e-02f,+1.87287942e-01f,+5.92110418e-02f,
+8.16325322e-02f,+5.45187853e-02f,-9.25283358e-02f,+1.04125571e-02f,-7.39105493e-02f,
-8.26408789e-02f,+4.69372831e-02f,-5.14473766e-02f,+1.66346207e-01f,+2.03237012e-02f,
+1.77123815e-01f,+5.18996455e-02f,-2.45331228e-02f,-5.69611378e-02f,+1.78468786e-02f,
+1.34566948e-01f,-1.74454674e-02f,-1.30308226e-01f,-7.32960403e-02f,+1.81412518e-01f,
+5.45083284e-02f,-8.43951330e-02f,+1.66805133e-01f,+1.69904530e-02f,+2.44573001e-02f,
+3.42637375e-02f,-8.32517594e-02f,+1.91951424e-01f,-1.03233829e-01f,-3.04019842e-02f,
-9.51884594e-03f,+2.07781941e-01f,-1.64274797e-01f,+5.92119545e-02f,+1.05398841e-01f,
+1.42865241e-01f,-1.19420014e-01f,+1.96016449e-02f,+2.06795663e-01f,+1.35904804e-01f,
-1.44350350e-01f,+3.69649768e-01f,-8.77279118e-02f,-6.62188381e-02f,-2.36634109e-02f,
-3.75532396e-02f,-1.19881751e-02f,-1.02236286e-01f,+6.10702224e-02f,+4.24774326e-02f,
+2.48902187e-01f,-3.58571857e-02f,-1.15159631e-01f,-3.20294057e-03f,+1.76911473e-01f,
-1.75022691e-01f,+2.21592575e-01f,+3.00862968e-01f,-3.24603766e-02f,+6.32959185e-04f,
+3.27794217e-02f,+1.02176301e-01f,+2.00689420e-01f,+5.18822446e-02f,+3.69730145e-01f,
+6.68052360e-02f,+1.52301311e-01f,+1.37431428e-01f,+5.15362956e-02f,-5.81306079e-03f,
-2.88115032e-02f,+1.34271443e-01f,+4.50171754e-02f,+2.90186167e-01f,+7.57879317e-02f,
+8.91804099e-02f,+1.98085576e-01f,-4.21780348e-02f,+7.30651766e-02f,+6.17172904e-02f,
+7.87568912e-02f,-2.05557957e-01f,-3.65941525e-02f,+1.71222761e-01f,+1.67997293e-02f,
+3.07344403e-02f,+2.06356850e-02f,+1.13355748e-01f,+7.62554929e-02f,+3.48281749e-02f,
+3.64335142e-02f,+3.41421701e-02f,+1.78043202e-01f,+1.70076941e-03f,+2.16272965e-01f,
-5.29543273e-02f,+6.16610162e-02f,-9.78581458e-02f,+6.68334663e-02f,-2.04661787e-02f,
+7.07524121e-02f,+1.22979291e-01f,+3.45569968e-01f,-2.19705068e-02f,+7.14253411e-02f,
+1.06575325e-01f,-1.31290993e-02f,-3.42836641e-02f,+8.99943858e-02f,+9.96071845e-02f,
-1.03444472e-01f,+1.20691434e-01f,+3.01290095e-01f,+1.36048734e-01f,-1.56290993e-01f,
-1.44017696e-01f,-7.21185431e-02f,+8.73292014e-02f,-4.08605859e-02f,-8.55644420e-02f,
+1.29699484e-01f,+9.07475501e-02f,+2.44194090e-01f,+1.13813378e-01f,+1.62306845e-01f,
+1.58422887e-01f,-1.78043574e-01f,+3.98147881e-01f,-1.32417753e-01f,-2.94729229e-03f,
-6.33463264e-02f,-1.62445214e-02f,-2.54156440e-01f,+2.20902964e-01f,+4.32099998e-01f,
-2.21813917e-01f,+1.21719785e-01f,+1.40013471e-01f,-2.46220473e-02f,+1.81006044e-01f,
+4.82436381e-02f,+2.04044759e-01f,+1.37784645e-01f,+2.62514246e-03f,+1.29731596e-01f,
-2.01423019e-01f,+1.20967641e-01f,-7.30385482e-02f,-1.87645823e-01f,+8.60942230e-02f,
+7.90382698e-02f,+4.99836504e-02f,+7.59288743e-02f,+1.45385683e-01f,+1.63532764e-01f,
+5.93808256e-02f,+1.36238933e-02f,-6.67646229e-02f,+1.83030471e-01f,+3.95026803e-01f,
-2.09799826e-01f,+7.18545094e-02f,+1.19951092e-01f,-4.41455320e-02f,+1.95296854e-02f,
-7.35268220e-02f,-7.78756067e-02f,-7.37434849e-02f,-7.33700618e-02f,-6.94530457e-02f,
-3.67067754e-02f,+1.70324206e-01f,+1.26942798e-01f,+2.32717097e-02f,+7.34477118e-02f,
+1.74500179e-02f,+3.07300389e-01f,-7.80208260e-02f,+4.89181839e-02f,+8.74370188e-02f,
+2.09460363e-01f,+1.30225942e-01f,+1.54587924e-01f,+1.14808768e-01f,+6.92268414e-03f,
+1.45940557e-01f,-4.24231887e-02f,+2.01468542e-01f,+1.07771926e-01f,-1.78708360e-01f,
+2.24831719e-02f,-4.89534587e-02f,-2.49099702e-01f,+3.43352914e-01f,+1.36692807e-01f,
+2.75226116e-01f,+1.90198079e-01f,-4.72252667e-02f,+8.15111250e-02f,+1.00850768e-01f,
+1.82413533e-01f,+1.56121150e-01f,+1.01759695e-01f,-2.57691182e-02f,+1.52275085e-01f,
+2.50238061e-01f,+1.52999192e-01f,-5.48520572e-02f,+8.27430785e-02f,+2.09489539e-02f,
-1.23591796e-02f,-6.17684573e-02f,+1.97519481e-01f,-1.46055117e-01f,+1.47015184e-01f,
+1.86748490e-01f,+1.22316152e-01f,+1.73084199e-01f,-3.82174626e-02f,+4.08857763e-02f,
+1.52951509e-01f,+1.53615579e-01f,-3.37736726e-01f,+1.27000853e-01f,+6.07323423e-02f,
-3.43195572e-02f,+3.56024988e-02f,-1.28230844e-02f,+1.57952219e-01f,+9.81021672e-02f,
+4.82319202e-03f,+3.88566032e-02f,-1.07583450e-02f,-1.26421899e-01f,+4.64464612e-02f,
+1.75541937e-01f,+3.38208020e-01f,+6.13681488e-02f,-3.49665731e-02f,+1.29284918e-01f,
+8.28901678e-02f,+4.19664755e-02f,-1.98348854e-02f,+9.50790122e-02f,-8.80138576e-02f,
-4.59957533e-02f,+5.06489910e-02f,+1.96604028e-01f,-4.58825864e-02f,+1.95807010e-01f,
+3.04215044e-01f,+1.25098020e-01f,-2.75519546e-02f,+8.01089630e-02f,+4.02651057e-02f,
+3.05627674e-01f,-5.08851185e-02f,+1.86692923e-02f,+1.05442829e-01f,+2.36392260e-01f,
+1.92598790e-01f,-1.96283013e-02f,-2.13764057e-01f,+1.69088051e-01f,-2.41870862e-02f,
+1.24960691e-01f,+2.04147212e-02f,+2.09782183e-01f,+2.22946584e-01f,-6.46272581e-03f,
+2.01718360e-01f,-1.37204826e-01f,+1.82539850e-01f,+5.80927432e-02f,-1.08066127e-01f,
-1.40205070e-01f,+3.44685107e-01f,+6.48171455e-02f,+6.24052398e-02f,+8.51578787e-02f,
+1.07420251e-01f,+1.42589360e-01f,+2.57110178e-01f,+4.22532298e-02f,+2.50124842e-01f,
+2.58339107e-01f,+3.86157110e-02f,+4.61512432e-02f,+3.24346998e-04f,+1.56114683e-01f,
+1.04549281e-01f,+5.56464083e-02f,-1.93720683e-01f,+1.79553121e-01f,+5.00448719e-02f,
+2.02529505e-01f,+9.57141165e-03f,+8.33556652e-02f,+1.54544860e-01f,+3.30209211e-02f,
+3.66978645e-02f,+1.06159158e-01f,+1.39228692e-02f,+1.21854037e-01f,+1.89573184e-01f,
+1.75404057e-01f,-1.19001955e-01f,-1.08396128e-01f,+9.11961794e-02f,+1.34449765e-01f,
+1.28795147e-01f,+1.46910623e-01f,+2.35971674e-01f,+1.96488917e-01f,+8.77324790e-02f,
+8.55234861e-02f,+1.95687767e-02f,+7.90040866e-02f,-1.33836493e-01f,+8.58286396e-02f,
+5.04640415e-02f,+7.72784427e-02f,-8.02261978e-02f,+1.39903307e-01f,-1.24932490e-02f,
+1.42032519e-01f,-1.57340243e-02f,-1.85455203e-01f,+8.86030272e-02f,+1.31862387e-01f,
+6.26301020e-02f,-3.17284279e-02f,-1.45224631e-01f,-4.67966907e-02f,-6.86443746e-02f,
-2.31354721e-02f,+2.80251682e-01f,+9.11418125e-02f,+2.04686314e-01f,+3.19565497e-02f,
+1.45323023e-01f,+4.26263869e-01f,+3.29876244e-02f,+6.03015944e-02f,+1.31735742e-01f,
+1.57217830e-01f,+1.05704121e-01f,+3.62795033e-02f,+5.98343052e-02f,+4.04296555e-02f,
-1.75969843e-02f,+1.66946381e-01f,+1.12848796e-01f,+2.50026494e-01f,-6.72978833e-02f,
+8.64347257e-03f,+2.69952983e-01f,+1.89667776e-01f,+7.39568099e-02f,+7.69511610e-02f,
+9.23766717e-02f,+6.06403649e-02f,-1.64681878e-02f,+1.98768899e-02f,-9.63731781e-02f,
-4.15690523e-03f,+1.40387446e-01f,+1.94421202e-01f,-5.24318255e-02f,-3.42532426e-01f,
-1.73942875e-02f,+1.34174645e-01f,+2.57982880e-01f,+2.00446099e-01f,-2.18369961e-01f,
-1.45479634e-01f,+3.57296541e-02f,+3.07204872e-01f,-2.73782909e-01f,+1.34608686e-01f,
-1.10911384e-01f,-1.98174194e-01f,+9.77386609e-02f,+1.96271703e-01f,-1.84368625e-01f,
+7.71542937e-02f,-7.61183798e-02f,+6.38399944e-02f,-1.41610295e-01f,+1.91428855e-01f,
+2.53638886e-02f,+1.90506905e-01f,+3.03827345e-01f,+3.79780531e-02f,+8.01278278e-02f,
-6.62533790e-02f,+2.44864151e-01f,+1.75224215e-01f,+1.50486946e-01f,+9.91716310e-02f,
-4.77002189e-02f,+3.52328718e-01f,+3.29493210e-02f,+2.09261626e-01f,-1.02715671e-01f,
+2.97546893e-01f,-2.24714838e-02f,+4.15021069e-02f,+7.44348764e-02f,-1.65098369e-01f,
+2.88378567e-01f,+9.64715108e-02f,+8.92921071e-03f,+2.25806125e-02f,-3.52561399e-02f,
-2.90342662e-02f,+9.33497846e-02f,-1.75144166e-01f,-3.08332667e-02f,+9.59131569e-02f,
+1.60767272e-01f,+1.65485777e-03f,+1.53798118e-01f,+1.65759712e-01f,+1.67546898e-01f,
+8.61094967e-02f,-7.95254018e-03f,-8.57499838e-02f,+3.18576992e-02f,-1.03560589e-01f,
+1.07148863e-01f,+4.35704552e-02f,+2.34547049e-01f,-1.29471406e-01f,+8.54716077e-02f,
-3.94986011e-03f,-3.95280391e-01f,+1.45228550e-01f,-6.43454166e-03f,-1.91749947e-03f,
+5.39227426e-01f,+5.66887185e-02f,+2.19088525e-01f,+5.11552811e-01f,+3.36590922e-03f,
+6.97795078e-02f,+1.53908387e-01f,+2.49668211e-01f,-5.37378006e-02f,-4.92042266e-02f,
+1.26392677e-01f,+1.19952403e-03f,+1.05110332e-01f,+1.02888547e-01f,+4.03175831e-01f,
+1.90790087e-01f,+1.68392569e-01f,+8.12518597e-02f,-2.60527819e-01f,+1.38406709e-01f,
-7.59393126e-02f,-5.50067462e-02f,+7.53868371e-02f,-8.02832171e-02f,+2.73915440e-01f,
-7.53937522e-03f,+2.12547392e-01f,+1.99344367e-01f,-3.54500674e-02f,+3.57413143e-01f,
+1.11156881e-01f,+9.39001665e-02f,+2.26045594e-01f,+4.10721777e-03f,+3.23763415e-02f,
+1.21060526e-02f,+1.22073695e-01f,+1.90956384e-01f,+1.81842342e-01f,+8.96034911e-02f,
+3.60933729e-02f,+4.21304107e-02f,+1.92824811e-01f,-6.90876916e-02f,+6.29426837e-02f,
+1.49557084e-01f,+8.52681920e-02f,+9.32347924e-02f,+1.25355512e-01f,+4.24984396e-02f,
-2.00104038e-03f,+3.04296762e-02f,+4.44527343e-02f,+1.56906709e-01f,-3.27122137e-02f,
+1.90801963e-01f,+4.45010401e-02f,+2.00815052e-01f,-1.32089807e-02f,+8.45137909e-02f,
-5.15081026e-02f,+5.11734746e-02f,+9.93551966e-03f,-3.44211310e-02f,-1.29113168e-01f,
-1.25771612e-01f,+6.97392076e-02f,+1.69018999e-01f,+7.00646639e-02f,+1.26570061e-01f,
+1.09138697e-01f,-5.60581572e-02f,-2.58209221e-02f,+3.24438035e-01f,+3.16024683e-02f,
+2.33112928e-02f,-3.42845209e-02f,-8.88121799e-02f,+2.18021587e-01f,-7.83661529e-02f,
+5.12578804e-03f,+9.86409932e-02f,-1.26242474e-01f,-1.69002905e-01f,-7.99292848e-02f,
+1.10332988e-01f,+4.58494498e-04f,+1.63475610e-02f,+2.55052775e-01f,+1.24769986e-01f,
-8.15874431e-03f,-8.97817314e-02f,-6.39218688e-02f,+2.70374324e-02f,+9.92501620e-03f,
-5.08006737e-02f,+1.61520615e-01f,+3.48517597e-01f,+2.70335469e-02f,+4.11956273e-02f,
+4.83099073e-02f,-2.80211121e-01f,+2.16635421e-01f,+5.90455905e-02f,+4.06351276e-02f,
+7.00182095e-02f,+2.15951711e-01f,+8.33049119e-02f,-5.44248745e-02f,+2.06766099e-01f,
+3.98056991e-02f,+1.97774231e-01f,+1.84177130e-01f,+1.35722812e-02f,+6.97436836e-03f,
+6.65684883e-03f,+1.70073360e-01f,+2.72402823e-01f,-1.97038054e-02f,+1.48979753e-01f,
+2.89916527e-02f,+1.58033565e-01f,-8.80063921e-02f,+2.61102747e-02f,-2.10332163e-02f,
+3.56563702e-02f,+2.10313931e-01f,+6.90843463e-02f,+9.87695158e-02f,+3.73203158e-02f,
+1.86449334e-01f,-5.83329122e-04f,+7.71368891e-02f,+1.40400141e-01f,+3.07278577e-02f,
+2.09896686e-03f,+1.04827791e-01f,+1.99952871e-01f,+7.97085837e-02f,-2.17267513e-01f,
+5.52889565e-03f,+6.61288127e-02f,-1.98042672e-02f,-2.43198827e-01f,+1.40909791e-01f,
+1.14005655e-01f,+2.33425841e-01f,-3.73913012e-02f,+7.99750239e-02f,+1.84501126e-01f,
+3.77779841e-01f,+7.36982673e-02f,+5.05691320e-02f,-1.25131132e-02f,+1.60839081e-01f,
-3.30937020e-02f,+1.48468167e-01f,+1.15107216e-01f,+2.19526231e-01f,+1.13234267e-01f,
-2.32036829e-01f,-6.25581220e-02f,+7.10038245e-02f,-4.01209034e-02f,+5.28468005e-02f,
+2.63903648e-01f,+4.17940244e-02f,+7.25141540e-02f,+1.58558458e-01f,-7.01568089e-03f,
+5.77288494e-02f,+6.36308640e-02f,+9.25832242e-02f,+6.51115477e-02f,-6.74668476e-02f,
+2.59290814e-01f,+1.81422427e-01f,+8.53772685e-02f,-1.22322105e-01f,+1.47686318e-01f,
+6.22107461e-02f,+2.13615939e-01f,+9.11762491e-02f,+1.92811668e-01f,+1.45442575e-01f,
+6.75205141e-02f,+1.80732101e-01f,-4.83576991e-02f,+1.38360381e-01f,+2.47054212e-02f,
+1.11915372e-01f,+2.13455006e-01f,+1.37978077e-01f,+7.58781657e-02f,+5.23472019e-02f,
+2.42928877e-01f,+2.78107494e-01f,+1.95167996e-02f,-2.57602986e-02f,+9.35656130e-02f,
+5.97680323e-02f,-1.13189660e-01f,+1.15014657e-01f,+1.62833974e-01f,+1.27551824e-01f,
+1.26601830e-01f,+1.29106164e-01f,+1.45106703e-01f,+2.74179727e-01f,+1.50180161e-01f,
+1.10022761e-01f,+5.80055751e-02f,+2.30163895e-02f,+1.58044174e-01f,+3.46505642e-02f,
+2.32259706e-01f,+3.87712985e-01f,+1.58693925e-01f,+7.21992776e-02f,+1.00217968e-01f,
+2.22028065e-02f,+1.06794409e-01f,+1.25116140e-01f,+2.13576272e-01f,+1.44725824e-02f,
-1.69301793e-01f,+4.84829433e-02f,+4.36075069e-02f,+9.78447124e-02f,+1.08783945e-01f,
+1.26393646e-01f,+1.90712422e-01f,+8.02429616e-02f,-2.42356993e-02f,+2.31787842e-02f,
+1.61713287e-01f,+1.08773746e-01f,-1.35168716e-01f,+2.27315128e-02f,-9.45210755e-02f,
-2.92444110e-01f,+2.88254232e-03f,+2.14699537e-01f,+2.97573917e-02f,-5.90358023e-03f,
-1.10281045e-02f,-7.53200054e-02f,+8.44229460e-02f,+1.89293072e-01f,+8.24266598e-02f,
+6.58733696e-02f,+1.89430669e-01f,+8.13298672e-02f,+3.20934266e-01f,+1.09749965e-01f,
+5.31447046e-02f,-4.48311940e-02f,+2.68304870e-02f,+2.58615851e-01f,+6.32855669e-02f,
+1.81789100e-01f,+2.43204355e-01f,+1.95391938e-01f,+1.28919736e-01f,+1.13994211e-01f,
+1.28307655e-01f,+1.78354979e-01f,+5.82572334e-02f,+1.50226027e-01f,-6.36392385e-02f,
-5.57916984e-02f,+7.37631992e-02f,+1.71891004e-02f,+1.68659352e-02f,+2.35676244e-01f,
+2.67808381e-02f,-3.17878812e-03f,+1.28710479e-01f,+2.27401420e-01f,+2.98452497e-01f,
+6.51516095e-02f,+6.96936026e-02f,+5.99087663e-02f,+5.83943538e-02f,+2.45703310e-01f,
-2.95357019e-01f,+1.38626218e-01f,+1.04581259e-01f,+2.63987839e-01f,+1.12111010e-01f,
+4.33689281e-02f,+2.07370609e-01f,+2.64790535e-01f,+1.52641639e-01f,-2.74499189e-02f,
+1.03704244e-01f,+2.44409323e-01f,+4.67755459e-03f,-3.69465724e-02f,+1.73759639e-01f,
-1.10279299e-01f,+2.24943876e-01f,-4.33514118e-02f,+5.83688915e-02f,+1.09693453e-01f,
-7.34531507e-02f,-6.19083680e-02f,+2.82201711e-02f,-2.77677961e-02f,-1.18233077e-01f,
+3.38070571e-01f,+8.54186341e-02f,+2.53618062e-02f,-4.32492513e-03f,-2.46330481e-02f,
+1.51873946e-01f,+1.04348518e-01f,+4.44550551e-02f,-6.69367313e-02f,+6.07698523e-02f,
+2.10481033e-01f,+1.19147182e-01f,+1.11220203e-01f,+7.91627318e-02f,-2.92299151e-01f,
+5.61340638e-02f,+2.40921713e-02f,-1.89690039e-01f,+5.53390086e-02f,+9.65435803e-02f,
-4.61127907e-02f,+1.38121337e-01f,-1.01300562e-03f,+9.49034467e-02f,+1.08847253e-01f,
+1.38578758e-01f,+1.28134741e-02f,+1.23538263e-01f,+7.86292478e-02f,+2.81336606e-01f,
-6.73926026e-02f,+8.41301978e-02f,+1.53543204e-01f,-5.62906899e-02f,+1.39626995e-01f,
+6.05331436e-02f,+1.28766134e-01f,+2.86840033e-02f,+1.52023295e-02f,+8.56026858e-02f,
+2.23597974e-01f,+2.31702566e-01f,+6.58622161e-02f,-5.34436293e-02f,+9.72836316e-02f,
+5.09429574e-02f,+3.49420547e-01f,+1.05732054e-01f,+1.90403815e-02f,+1.40131161e-01f,
-3.34779769e-02f,+1.82516798e-01f,+8.16539377e-02f,+2.38924235e-01f,+1.15613401e-01f,
-1.05232626e-01f,-1.07029602e-01f,+1.08365037e-01f,+9.76013392e-02f,-8.80815927e-03f,
+1.71507914e-02f,+3.41266423e-01f,+2.48549491e-01f,-1.61166564e-01f,+3.30725536e-02f,
+9.93250906e-02f,+1.63486227e-01f,+6.18691221e-02f,+1.87875908e-02f,+7.47128054e-02f,
+1.29351631e-01f,-4.94687483e-02f,+2.14458574e-02f,+7.85776526e-02f,+2.62962207e-02f,
-2.03339130e-01f,-8.79840553e-02f,+7.69533738e-02f,+2.19117537e-01f,+7.78621510e-02f,
+1.24298094e-03f,+1.50513530e-01f,-1.21547580e-01f,-2.36008227e-01f,+3.25477809e-01f,
+4.67630895e-03f,-5.45645803e-02f,+4.22502309e-02f,+6.61774129e-02f,+1.74932592e-02f,
+1.83295429e-01f,-1.65722612e-02f,+1.18517801e-01f,+2.99599580e-02f,-2.49829441e-02f,
+4.68267426e-02f,+6.08725958e-02f,-8.55717883e-02f,+1.84104666e-01f,+4.91698273e-03f,
-1.14287660e-01f,+3.09539698e-02f,-1.25591084e-01f,+2.21377507e-01f,+1.07658021e-01f,
+9.58279595e-02f,+1.42622143e-01f,+1.74093604e-01f,+1.17861181e-01f,-5.57157248e-02f,
-1.25504993e-02f,+1.47680402e-01f,-1.73234239e-01f,+4.49161470e-01f,+3.33027095e-02f,
-3.14739831e-02f,+1.42516002e-01f,+1.36524782e-01f,-1.46089643e-01f,+1.94257736e-01f,
-8.07683468e-02f,-4.23314013e-02f,-2.00054795e-02f,+1.69688329e-01f,+9.55121145e-02f,
+2.06980661e-01f,+2.27451071e-01f,-8.86165276e-02f,+5.42825423e-02f,+1.00458704e-01f,
+1.19542174e-01f,+8.18960294e-02f,-1.02403626e-01f,+5.00241518e-02f,+2.43777439e-01f,
+3.23151499e-02f,+5.40870391e-02f,-1.12859078e-01f,+5.53332679e-02f,+6.00348748e-02f,
+1.06204800e-01f,-3.71889770e-02f,+1.85249597e-01f,+1.70599222e-01f,+4.55380678e-02f,
+1.02606185e-01f,-1.10227063e-01f,+1.34776458e-01f,+1.69172838e-01f,-3.05585265e-01f,
+1.03642985e-01f,+5.77745773e-02f,+1.01316720e-01f,-7.54183084e-02f,+2.29920864e-01f,
+3.34410667e-02f,+2.18715165e-02f,+4.24744114e-02f,-2.08493441e-01f,+1.08964788e-02f,
+5.71625717e-02f,-4.90720905e-02f,+1.82149246e-01f,+5.55836558e-01f,+1.38322562e-01f,
-1.01943803e-03f,+1.09175723e-02f,-4.46861535e-02f,+2.67612636e-01f,+1.39086545e-01f,
-2.62399204e-02f,+2.00154379e-01f,+1.79703057e-01f,-1.03393011e-03f,+1.88496634e-02f,
-1.10073633e-01f,+1.05869256e-01f,+1.52807102e-01f,+1.32905319e-02f,+1.06919840e-01f,
+2.15965137e-01f,-5.33565246e-02f,+7.73243457e-02f,+1.10409856e-01f,-7.89381913e-04f,
+2.03519136e-01f,+5.81782311e-02f,-2.97713131e-02f,-6.26033694e-02f,+2.54134506e-01f,
+3.30335833e-02f,+8.60073119e-02f,-6.30609021e-02f,+1.01979665e-01f,-1.81693882e-02f,
+9.89125669e-02f,-1.35418355e-01f,+2.30701432e-01f,+1.42435730e-01f,+3.32337558e-01f,
-5.06982766e-02f,+2.97186255e-01f,+4.16298747e-01f,+3.99326906e-02f,-6.64210320e-02f,
-5.79229295e-02f,+1.86940610e-01f,+1.03576109e-01f,+3.49179283e-02f,+1.27485052e-01f,
+3.02161664e-01f,-1.60811633e-01f,+2.40256131e-01f,+3.24206054e-01f,+4.09255505e-01f,
+9.53367800e-02f,+2.81462729e-01f,+7.50350878e-02f,+2.92690415e-02f,-7.58946165e-02f,
+7.81313777e-02f,-8.28764588e-03f,-8.78380388e-02f,+3.92125905e-01f,-5.67329004e-02f,
-5.23417182e-02f,-4.10734713e-02f,-1.38709143e-01f,+1.45457173e-02f,+9.02485624e-02f,
+5.51030273e-03f,+1.61343843e-01f,+2.43676007e-01f,+1.35732060e-02f,-4.13034670e-03f,
+1.29622191e-01f,+1.00317247e-01f,+2.67482340e-01f,+5.24825901e-02f,-1.54580414e-01f,
+2.75025219e-01f,+1.11974478e-01f,+4.47511487e-02f,+7.46914595e-02f,+1.56739607e-01f,
+1.14113525e-01f,+2.88939118e-01f,+6.53999671e-02f,+1.72846586e-01f,+2.09525168e-01f,
-2.31541973e-02f,+1.14491008e-01f,-1.17512345e-02f,-6.70505017e-02f,-8.11821669e-02f,
-1.23775728e-01f,+6.20674193e-02f,-6.01393394e-02f,-7.60360956e-02f,-6.42451644e-02f,
-5.10735437e-03f,-1.03538588e-01f,-2.64897035e-03f,+1.01810582e-01f,+4.10863608e-02f,
+2.73276836e-01f,-9.44813415e-02f,-2.52706166e-02f,+2.49767289e-01f,+6.62436113e-02f,
+7.89038613e-02f,+2.41615504e-01f,+8.06609914e-02f,-4.28129211e-02f,+1.44075707e-01f,
-4.88119312e-02f,+9.99988914e-02f,+8.36965218e-02f,+1.98646307e-01f,-7.34854955e-04f,
+1.58344612e-01f,+1.33199543e-01f,-1.06871769e-01f,+2.01895684e-01f,-9.86383781e-02f,
-2.39571724e-02f,-1.56611890e-01f,+1.55688703e-01f,+3.48081253e-02f,+1.84226017e-02f,
+4.75259824e-03f,+2.54916459e-01f,+1.80455625e-01f,+4.09311764e-02f,+5.48025500e-03f,
+1.03461228e-01f,+1.60806268e-01f,+7.75498748e-02f,+9.86782610e-02f,-1.17268965e-01f,
+2.06121519e-01f,-1.12440653e-01f,+1.27900496e-01f,+1.69792235e-01f,-4.21726843e-03f,
+1.71414673e-01f,-6.28879517e-02f,+1.22929610e-01f,-8.99043214e-03f,+1.45665288e-03f,
+2.56343275e-01f,+8.47170427e-02f,+2.80079961e-01f,+2.39138737e-01f,-5.45425639e-02f,
-4.03317809e-02f,+7.70174060e-03f,+1.71829849e-01f,+4.52869106e-04f,+6.49869740e-02f,
+5.63500859e-02f,+1.52164817e-01f,+1.01528645e-01f,+1.47978246e-01f,+2.18938500e-01f,
-5.96262179e-02f,-9.60592087e-03f,-1.26566723e-01f,-1.81037150e-02f,+2.22786814e-02f,
+1.26429826e-01f,-6.77453801e-02f,+1.53537527e-01f,+2.50987470e-01f,-1.21657379e-01f,
+1.46024257e-01f,-1.08370520e-01f,-1.24079303e-03f,+1.05602250e-01f,-1.02350138e-01f,
-4.12799343e-02f,+2.18911603e-01f,+8.82952288e-02f,+6.36124462e-02f,+1.44104496e-01f,
+4.47353274e-02f,-1.82594329e-01f,+1.57883778e-01f,+1.29029185e-01f,+1.08037859e-01f,
-3.72406468e-02f,+2.89448500e-01f,+2.43213903e-02f,+2.55264878e-01f,-3.88231017e-02f,
-8.12885612e-02f,-1.84265330e-01f,+1.72353521e-01f,+1.72877073e-01f,+1.35822490e-01f,
+2.14280710e-01f,+2.96195000e-01f,+1.37391001e-01f,+3.02023798e-01f,+9.19264555e-03f,
-1.83080643e-01f,+7.46649280e-02f,-1.59627870e-01f,-7.97591433e-02f,+1.74592301e-01f,
+8.79665185e-03f,+2.07230877e-02f,-1.32601053e-01f,+2.12236837e-01f,+2.48640135e-01f,
-3.05257171e-01f,-1.62584689e-02f,+7.81617686e-02f,+1.45884648e-01f,+1.03793377e-02f,
+1.12371229e-01f,+4.00794558e-02f,-2.77301580e-01f,+1.57129928e-01f,+1.47745594e-01f,
+2.95211077e-01f,+1.05973318e-01f,-3.19350958e-01f,+2.71477904e-02f,+2.31919825e-01f,
+3.28596771e-01f,+9.80961695e-02f,+8.26705992e-02f,-2.68768460e-01f,+6.64476529e-02f,
+6.95957839e-02f,+6.82743117e-02f,+2.32337117e-01f,-1.38196368e-02f,+1.60219949e-02f,
-8.16263855e-02f,+5.01265347e-01f,+1.42995100e-02f,+2.14103818e-01f,+2.26853743e-01f,
+3.23531851e-02f,+1.25441462e-01f,-1.60068367e-02f,+2.30733514e-01f,+4.23318177e-01f,
+2.65029788e-01f,-2.52231397e-02f,+2.71469265e-01f,+6.62360853e-03f,-1.64402828e-01f,
+1.61590949e-01f,-8.68826136e-02f,-1.28133640e-01f,+8.17693248e-02f,-2.50826590e-02f,
-5.36006726e-02f,-1.04448609e-01f,-4.99287136e-02f,+8.98502022e-02f,+9.88073945e-02f,
+9.05008167e-02f,+3.41514170e-01f,+3.44920270e-02f,+9.18652266e-02f,+7.96917602e-02f,
+4.35377588e-04f,+1.95405364e-01f,+3.05442382e-02f,+4.32683639e-02f,+2.05042735e-01f,
-2.67278641e-01f,+1.13316383e-02f,+3.48568290e-01f,+6.44654706e-02f,+3.91651243e-02f,
+1.09830834e-01f,+2.52433084e-02f,+1.39671415e-01f,-8.91239420e-02f,+1.56553715e-01f,
-4.77539413e-02f,+3.73784304e-02f,-1.38647452e-01f,+1.92312986e-01f,-4.26212698e-03f,
-8.45140666e-02f,+1.13567553e-01f,-9.30570252e-03f,-2.55510267e-02f,-7.79688358e-02f,
+6.42313957e-02f,+1.55504540e-01f,+1.38597459e-01f,+3.15746069e-01f,+4.33122277e-01f,
+2.05929261e-02f,+4.53189552e-01f,+3.84241119e-02f,+1.79429382e-01f,+5.78711390e-01f,
-2.42952123e-01f,-1.67440653e-01f,-4.44193706e-02f,-1.30006447e-02f,-3.41131389e-02f,
-6.27561212e-02f,-2.21288335e-02f,+1.54688418e-01f,+1.36071563e-01f,+1.50570525e-02f,
+1.80956289e-01f,+9.38245356e-02f,-1.75094628e-03f,-2.15519190e-01f,+3.62327658e-02f,
+1.45489663e-01f,+2.66677309e-02f,+9.35896263e-02f,-1.06107570e-01f,-3.02922237e-03f,
-3.91017832e-02f,+7.82040060e-02f,-1.15803912e-01f,-5.83461598e-02f,-9.49034374e-03f,
+7.11398274e-02f,+1.32989837e-03f,+1.21238038e-01f,+2.28838753e-02f,+1.09277844e-01f,
-5.09179803e-03f,+4.36782546e-04f,+6.49985448e-02f,-6.77536875e-02f,-3.22527438e-02f,
+8.11187178e-02f,-2.80965894e-01f,+1.00313120e-01f,+1.86627045e-01f,+1.45334691e-01f,
+1.63682342e-01f,-8.18100944e-02f,+5.01134843e-02f,-1.33654727e-02f,-1.27427474e-01f,
-1.38900997e-02f,+6.60181642e-02f,-2.18386687e-02f,+1.78232882e-02f,-7.81217143e-02f,
+8.21035579e-02f,+3.32482636e-01f,+1.63608734e-02f,-7.79745728e-02f,-9.49140713e-02f,
-1.60663575e-02f,-6.81982609e-03f,-1.98774580e-02f,+1.71169817e-01f,+1.70406938e-01f,
+5.06702922e-02f,+3.15655440e-01f,-1.81045189e-01f,-2.44136509e-02f,+1.69370264e-01f,
-1.77005664e-01f,+1.79965869e-02f,+5.52219190e-02f,+8.88832752e-03f,+3.22653234e-01f,
+1.03086364e-02f,+2.97072381e-01f,-2.33319506e-01f,+3.23528312e-02f,-1.42709240e-01f,
+1.04837328e-01f,+5.48307478e-01f,+1.17781572e-01f,-1.03079244e-01f,+1.08319052e-01f,
-9.80830053e-04f,+1.23156980e-01f,+6.12328053e-01f,-6.78037852e-02f,+1.24599501e-01f,
+2.68747397e-02f,+8.09132904e-02f,-2.02258795e-01f,-7.68063217e-02f,+3.90058607e-02f,
-1.08591728e-01f,-7.19332248e-02f,-1.23447537e-01f,+1.17406785e-01f,-1.45434350e-01f,
-8.01292360e-02f,+3.17893207e-01f,+1.37518674e-01f,-5.28590893e-03f,+1.69864848e-01f,
-1.88848246e-02f,+1.57748833e-02f,-2.65341960e-02f,+2.20101342e-01f,+1.23019144e-01f,
-2.20052376e-01f,+1.01140797e-01f,+9.08339471e-02f,+1.42672211e-01f,-2.41799220e-01f,
+1.44667178e-01f,+1.60990924e-01f,-1.41657246e-02f,+6.88412935e-02f,+3.85209382e-01f,
+6.61921799e-02f,+1.33740455e-01f,-1.12219051e-01f,+3.28261568e-03f,+1.59522802e-01f,
+5.18648401e-02f,+1.37546673e-01f,-1.84119835e-01f,+1.26858026e-01f,+3.63122046e-01f,
+9.18867067e-02f,-3.45363140e-01f,-1.34725809e-01f,+1.52772054e-01f,+1.91156179e-01f,
+3.36282551e-01f,-1.28604442e-01f,-1.68192282e-01f,-5.73560335e-02f,+1.69786975e-01f,
+4.93752062e-02f,-3.91790383e-02f,+4.75478619e-01f,+1.51965827e-01f,+3.87157947e-02f,
+3.00973542e-02f,-8.63251984e-02f,+1.95063934e-01f,-2.66166124e-02f,+9.98346284e-02f,
-1.52992740e-01f,+1.87137872e-01f,+4.52256165e-02f,+3.53271291e-02f,-9.83674265e-03f,
+2.32268959e-01f,-1.17858522e-01f,-1.54968113e-01f,-5.37047125e-02f,+1.42624881e-02f,
+3.55783105e-02f,-2.22519487e-01f,+7.98393041e-02f,-1.07721597e-01f,+1.22919127e-01f,
-1.00649230e-01f,-2.84317043e-03f,-2.63366640e-01f,+1.63362548e-02f,-6.04765974e-02f,
-2.62000468e-02f,+1.00972079e-01f,+2.03970507e-01f,-1.35476710e-02f,+2.70513535e-01f,
-1.46522269e-01f,-2.98956521e-02f,+7.81009942e-02f,+2.38523018e-02f,+1.13384299e-01f,
-6.53488711e-02f,-8.19502920e-02f,+2.78253376e-01f,-2.01128274e-02f,+1.11010589e-01f,
+1.95984519e-03f,-2.22634468e-02f,-5.08233383e-02f,+3.70574370e-02f,-7.57115260e-02f,
+1.82907790e-01f,-7.77264908e-02f,-1.96231883e-02f,-3.33470404e-02f,+2.42158860e-01f,
-1.74158335e-01f,+7.76036680e-02f,-1.48747355e-01f,-1.98453050e-02f,+8.53011981e-02f,
+7.73449242e-02f,-1.27098069e-01f,-1.03054523e-01f,+1.91426557e-02f,-3.15230340e-02f,
+3.77151628e-05f,+1.48374349e-01f,-1.90920103e-02f,+1.79517061e-01f,+2.34717906e-01f,
+3.75646949e-02f,-1.02681682e-01f,+2.02701539e-01f,+1.68715760e-01f,+3.75620015e-02f,
+3.99426639e-01f,-7.32871983e-03f,+1.73613712e-01f,+4.89266992e-01f,-3.18401903e-01f,
+2.10221466e-02f,-1.07255034e-01f,-1.16506055e-01f,-2.37225458e-01f,+1.97967887e-01f,
+1.21304482e-01f,-7.55123049e-02f,+1.12998828e-01f,+1.17713725e-02f,+1.25756696e-01f,
-2.27749407e-01f,+3.08011144e-01f,+6.81107678e-03f,+2.43728161e-01f,+1.64231390e-01f,
-3.33227217e-02f,-1.44816504e-03f,+2.18248069e-02f,+1.64883718e-01f,+1.07790500e-01f,
+2.62673255e-02f,-1.03426300e-01f,-1.10449389e-01f,+1.02836126e-02f,-9.83553100e-03f,
+7.08719194e-02f,+1.88253522e-01f,+8.25236514e-02f,+1.70378014e-02f,-4.43106331e-02f,
+3.09347976e-02f,+1.03966944e-01f,+7.68339038e-02f,+3.46359648e-02f,+1.28815761e-02f,
-2.43195724e-02f,+9.02018175e-02f,+2.44151697e-01f,-1.41565233e-01f,+1.28148064e-01f,
+1.36797577e-01f,+1.56547233e-01f,+2.09379092e-01f,-7.89106265e-02f,-1.66122437e-01f,
+2.20841259e-01f,+1.79864988e-01f,-2.55585108e-02f,+8.37610587e-02f,+4.39716220e-01f,
-4.14228514e-02f,-1.72306579e-02f,+1.47860408e-01f,+7.73848966e-02f,+3.07011485e-01f,
+1.11580804e-01f,+9.37500298e-02f,-1.73124075e-02f,-1.64813340e-01f,+1.55323029e-01f,
+7.40001276e-02f,-8.78640786e-02f,-9.80791748e-02f,+1.42154202e-01f,-1.56694725e-02f,
-1.03809247e-02f,+4.22758982e-02f,+4.69085932e-01f,+6.59543928e-03f,+6.62857518e-02f,
+2.25052387e-02f,+1.14672303e-01f,+9.29406658e-02f,+1.42731637e-01f,+8.64954367e-02f,
+1.66020080e-01f,-7.75018483e-02f,-7.47981295e-02f,+5.22728153e-02f,-4.66219299e-02f,
+4.45744209e-02f,+2.44201437e-01f,+2.30816528e-01f,-4.95393910e-02f,+4.28916104e-02f,
+2.83594579e-01f,+3.23239639e-02f,+1.06766142e-01f,-8.48395377e-02f,+5.94072416e-02f,
-4.22068015e-02f,+1.69217631e-01f,-2.86951121e-02f,+1.30590707e-01f,+8.56517777e-02f,
+4.94381823e-02f,-3.40203717e-02f,+1.00085191e-01f,-8.19476172e-02f,-1.09494686e-01f,
+7.58363074e-03f,+5.74792549e-02f,+3.63533467e-01f,+1.47122636e-01f,+5.10041565e-02f,
-1.01347923e-01f,+7.36851469e-02f,+1.23167850e-01f,+5.09510562e-02f,+9.04485434e-02f,
+3.62142622e-02f,+1.01821625e-03f,+8.65765959e-02f,+3.60523462e-02f,-2.03852728e-02f,
-1.53765008e-02f,+1.67283580e-01f,-7.49697238e-02f,+4.93767262e-02f,-2.16457039e-01f,
-2.10616052e-01f,-1.30088925e-01f,-1.48244679e-01f,+8.85954425e-02f,-1.25277087e-01f,
-3.12356837e-03f,+8.42150375e-02f,-3.22395340e-02f,+1.02579772e-01f,+2.69865245e-02f,
+1.09957986e-01f,+3.08411419e-01f,-3.92844109e-03f,+1.49448633e-01f,+2.51987487e-01f,
-1.12340696e-01f,+2.01512620e-01f,-8.31675064e-03f,+9.67143923e-02f,+1.84538707e-01f,
+1.43257290e-01f,+5.61390705e-02f,+5.80194518e-02f,-2.14469939e-01f,+1.53500751e-01f,
-6.00368753e-02f,-3.13297361e-02f,+6.22600969e-03f,+1.46720514e-01f,-1.52823985e-01f,
+1.02541251e-02f,+8.28666538e-02f,-6.36896631e-03f,-1.96095128e-02f,-9.15638804e-02f,
+1.47215277e-01f,-8.74335691e-02f,-3.98574844e-02f,+2.01471791e-01f,-7.09739700e-02f,
-5.35884202e-02f,+1.69929370e-01f,+4.96748909e-02f,-1.37836918e-01f,-2.01197356e-01f,
+1.38304681e-01f,+2.37611607e-01f,+1.34769931e-01f,+2.51415968e-01f,-2.95311734e-02f,
+2.92924672e-01f,+2.17646316e-01f,+1.76640637e-02f,+6.52101040e-02f,+3.76202129e-02f,
-6.16050921e-02f,+9.32559296e-02f,+3.41468826e-02f,-4.22199927e-02f,-9.52047482e-03f,
-9.88384411e-02f,+1.95802003e-02f,-1.10364653e-01f,-1.65482968e-01f,-6.35886490e-02f,
+3.92577052e-02f,+1.13804355e-01f,+1.06092922e-01f,-5.51545918e-02f,-6.30469173e-02f,
-9.59596559e-02f,+8.78481288e-03f,+1.22474588e-01f,+1.72434121e-01f,+5.48912659e-02f,
-1.33853182e-01f,+1.69630554e-02f,+9.78756398e-02f,-3.56438849e-03f,-6.60465211e-02f,
+1.84475139e-01f,+4.54574525e-02f,+1.60265222e-01f,-2.94141937e-02f,+8.47250372e-02f,
+3.64313960e-01f,-1.07385807e-01f,+1.77688837e-01f,+2.45078616e-02f,-8.66230875e-02f,
+2.64272708e-02f,+1.08005039e-01f,-5.59452809e-02f,+4.23254073e-03f,+2.55946130e-01f,
-1.27752185e-01f,-1.23091727e-01f,+2.10409924e-01f,+1.36709794e-01f,-8.03323090e-02f,
+3.63207832e-02f,-2.87470043e-01f,-2.19276198e-03f,+9.06943083e-02f,+8.74390379e-02f,
-7.95727968e-03f,+8.50102529e-02f,+1.44505665e-01f,+1.43565521e-01f,-1.30942076e-01f,
-1.18913092e-02f,-3.80862169e-02f,-4.22225427e-03f,+7.71728158e-02f,+2.36833081e-01f,
-9.21817571e-02f,+1.06789775e-01f,+1.31028192e-02f,+3.22565734e-01f,+1.15153506e-01f,
+1.43951491e-01f,+1.05865836e-01f,+7.86027834e-02f,-2.23764926e-02f,+3.00920367e-01f,
-3.83734927e-02f,+2.27662340e-01f,-1.19881229e-02f,+3.14144671e-01f,+2.96617270e-01f,
+2.76228935e-01f,-2.26013735e-02f,-3.14017646e-02f,+6.23980165e-02f,+1.61849856e-01f,
+2.61718065e-01f,+3.53934258e-01f,-2.25352719e-01f,+2.82444031e-04f,+2.48122945e-01f,
-1.29254162e-01f,-1.06845379e-01f,+1.94518752e-02f,+1.92743074e-02f,-7.43026147e-03f,
-1.61173180e-01f,+1.14758555e-02f,+5.82290217e-02f,+4.19780239e-02f,+5.05011529e-02f,
+1.21174999e-01f,-6.41844869e-02f,-8.37467462e-02f,-6.54975101e-02f,+1.63002908e-01f,
+2.44907569e-02f,-4.18873243e-02f,-4.51769913e-03f,+1.54890195e-01f,-1.64264105e-02f,
-8.39893743e-02f,+8.84915739e-02f,+2.24124473e-02f,-5.19055687e-02f,+3.68663743e-02f,
-1.84851155e-01f,+1.53086916e-01f,-8.21165293e-02f,+5.27878739e-02f,+3.46253477e-02f,
+1.40474319e-01f,-8.88576135e-02f,+2.15034589e-01f,+2.85346899e-02f,-1.92236844e-02f,
-1.97373424e-02f,-1.05728745e-03f,+3.98105979e-02f,-9.84086841e-02f,+7.23911263e-03f,
-4.87878360e-02f,+4.41151764e-03f,+6.18481934e-02f,+1.88537836e-01f,+1.46766216e-01f,
+7.50781149e-02f,+3.49852562e-01f,-2.79044081e-02f,+4.99984436e-02f,+1.17437206e-01f,
+1.16953716e-01f,-7.21592223e-03f,+9.68269631e-02f,+9.54349339e-02f,+7.35707879e-02f,
+7.04468600e-03f,-2.28181794e-01f,+6.04901556e-03f,-7.68515691e-02f,+8.32895264e-02f,
-3.67247574e-02f,+2.72982210e-01f,+5.84512353e-02f,-1.61283854e-02f,+1.34443119e-01f,
+2.32466862e-01f,+1.18118346e-01f,-4.68819812e-02f,+1.70382068e-01f,-8.72157440e-02f,
+9.27612484e-02f,-1.00311726e-01f,+1.80193022e-01f,+3.79943997e-02f,+2.76043471e-02f,
+2.99489014e-02f,+3.74435447e-02f,+6.78318813e-02f,-6.84962496e-02f,-9.96500179e-02f,
-3.85137610e-02f,-9.44899321e-02f,-1.99928842e-02f,+1.30170584e-01f,+3.60554876e-03f,
+3.01170014e-02f,+1.94180861e-01f,+1.02254115e-01f,+2.03843430e-01f,-3.65495719e-02f,
+2.70825565e-01f,-1.63366515e-02f,+8.28124955e-02f,+1.72889888e-01f,-1.99733675e-01f,
-1.89418182e-01f,+8.43766183e-02f,+1.96055546e-01f,+2.22293392e-01f,+4.60380986e-02f,
+9.15862769e-02f,+5.03638275e-02f,+6.60622492e-02f,-1.43374264e-01f,+1.35587603e-01f,
+1.39565077e-02f,-7.59695470e-02f,-1.06057771e-01f,-5.81300482e-02f,-7.06951171e-02f,
-1.59494981e-01f,+5.80934249e-02f,+1.94845095e-01f,-1.06637962e-01f,+8.12748224e-02f,
+9.97800082e-02f,-1.56217769e-01f,+5.23009747e-02f,+1.29304498e-01f,-1.05238356e-01f,
+1.34243816e-01f,+1.72292516e-01f,+1.31807402e-01f,+1.66163355e-01f,-4.13618423e-02f,
+2.97417313e-01f,+2.76552681e-02f,-1.13236271e-02f,-7.13346303e-02f,+1.46224916e-01f,
-1.59255892e-01f,-1.35405883e-01f,+1.02959797e-01f,-8.63733888e-02f,+1.02215402e-01f,
+1.28560394e-01f,+9.61708277e-02f,+8.84078890e-02f,-8.10673609e-02f,+2.18440294e-01f,
+1.91708863e-01f,+1.89638183e-01f,+1.50140002e-01f,+2.86801487e-01f,+2.24957779e-01f,
-7.00262189e-02f,+2.13169642e-02f,+2.69587994e-01f,-2.49099289e-03f,-1.59069039e-02f,
+7.85675943e-02f,+4.04945982e-04f,+2.60155708e-01f,+9.69725661e-03f,-1.07310861e-01f,
+3.38499546e-02f,+1.47790283e-01f,-1.68971457e-02f,+5.61095774e-02f,+6.16987981e-02f,
-8.63892287e-02f,-7.75395110e-02f,-1.51746888e-02f,+1.37507737e-01f,-9.58891585e-02f,
+9.36202854e-02f,+8.21883231e-02f,-5.35898395e-02f,+4.75566015e-02f,+1.05493754e-01f,
+1.02846563e-01f,+4.20715660e-02f,+2.21885461e-02f,-3.25539149e-02f,-1.25312628e-02f,
+1.38101041e-01f,+7.94432983e-02f,+9.14378017e-02f,-1.02063261e-01f,+3.42513062e-02f,
+8.92672017e-02f,-8.86712819e-02f,+6.12572692e-02f,-1.69657413e-02f,-5.34645654e-02f,
-1.11692078e-01f,-3.48183960e-02f,+9.88649670e-03f,+1.95275649e-01f,+9.90962312e-02f,
-6.39689714e-02f,+2.43947133e-01f,+3.43738608e-02f,-3.84414382e-02f,-2.25457922e-02f,
+2.93693185e-01f,+9.26680341e-02f,+7.56309833e-03f,-1.44710029e-02f,+7.22276419e-02f,
+1.50838390e-01f,+1.01223409e-01f,+8.83314535e-02f,+1.52057916e-01f,+1.19906135e-01f,
+1.37004375e-01f,+1.18933365e-01f,-2.98459865e-02f,-2.37441938e-02f,+5.49306124e-02f,
+2.53762573e-01f,+2.72922039e-01f,-9.52490121e-02f,-1.92238670e-02f,+2.84361783e-02f,
+1.11879691e-01f,-9.83842686e-02f,-1.28761679e-01f,+3.36647555e-02f,-9.50850397e-02f,
-4.07269821e-02f,+1.96160346e-01f,+2.14992478e-01f,+1.27482697e-01f,+8.44583567e-03f,
+2.64016837e-02f,+3.67126092e-02f,-4.65656631e-03f,-1.06520407e-01f,+4.15401198e-02f,
-1.61901757e-01f,+6.15677685e-02f,-2.66350862e-02f,+1.28780276e-01f,+9.74852666e-02f,
-1.39484778e-01f,+2.96426564e-01f,+1.26008287e-01f,-1.13798846e-02f,-8.90168734e-03f,
+1.08948067e-01f,+1.93116918e-01f,-2.07543731e-01f,+5.74460439e-02f,-6.80027828e-02f,
-5.46034425e-02f,+1.21702902e-01f,-1.12800531e-01f,+1.19110480e-01f,+1.10015258e-01f,
+9.33909565e-02f,-1.86960563e-01f,-5.28470874e-02f,-1.32206287e-02f,-3.60547304e-01f,
+2.35320091e-01f,+2.59676762e-02f,+2.85993610e-02f,+2.88409460e-02f,-7.24897115e-03f,
+2.97988374e-02f,+5.50972596e-02f,-6.02292903e-02f,+1.70264803e-02f,+1.39262035e-01f,
+1.86512209e-02f,-4.20381092e-02f,+1.77839115e-01f,-4.51579615e-02f,+1.36687025e-01f,
+1.44558519e-01f,+9.60095879e-03f,-2.02530995e-01f,-3.15797813e-02f,+2.12292671e-01f,
+2.47840807e-01f,+4.17558961e-02f,+1.22242883e-01f,-1.51707595e-02f,+1.74981967e-01f,
+4.11967859e-02f,-5.50962128e-02f,+8.99452791e-02f,-5.66848554e-02f,+2.20936574e-02f,
-5.62183298e-02f,+4.68471497e-02f,+1.22454487e-01f,-5.66701181e-02f,+1.50976464e-01f,
-7.48116598e-02f,+1.54623464e-01f,-1.15326129e-01f,-7.49803185e-02f,-4.64607915e-03f,
+1.06279105e-02f,-1.18750870e-01f,+2.61461169e-01f,+4.25036550e-01f,-4.34273705e-02f,
+8.77743661e-02f,-1.74964964e-02f,+2.51840532e-01f,+8.46205205e-02f,+2.25468397e-01f,
-1.40888602e-01f,-2.22344454e-02f,+2.44871289e-01f,+2.80431956e-01f,-1.63173638e-02f,
-8.19476470e-02f,+2.34859630e-01f,-5.27236834e-02f,+1.44368827e-01f,+1.54216975e-01f,
-5.78584224e-02f,+2.00013161e-01f,-1.19843327e-01f,+1.71363950e-01f,+8.23179260e-02f,
+9.71055031e-02f,+7.63132051e-02f,-1.72604844e-01f,+1.09686613e-01f,+1.42983049e-01f,
+7.19524221e-03f,-2.66208593e-02f,+3.01241353e-02f,+3.44740264e-02f,-2.24448461e-02f,
+1.54682040e-01f,+2.37358093e-01f,+1.65313005e-01f,-2.14618724e-02f,-7.97988251e-02f,
+3.50898094e-02f,+7.45072439e-02f,+1.81825861e-01f,-2.28867326e-02f,+4.44366410e-02f,
+5.54757953e-01f,-1.06661178e-01f,+1.06665842e-01f,-5.79277389e-02f,+1.45245850e-01f,
+4.83187772e-02f,-1.11544468e-01f,+6.51022419e-02f,+2.31380358e-01f,+1.91160709e-01f,
-3.47954631e-02f,+1.39300570e-01f,+3.33696991e-01f,+6.10292405e-02f,-4.72977459e-02f,
+1.28300741e-01f,+1.48447633e-01f,+8.58007371e-02f,-1.28222823e-01f,+8.22367705e-03f,
-1.22172572e-01f,-2.56338958e-02f,+1.16730928e-01f,+4.23167944e-01f,+5.61236404e-02f,
+7.08829388e-02f,-1.79926410e-01f,-3.64050060e-03f,+2.72367187e-02f,+4.98921126e-02f,
-2.57499665e-02f,-2.19981447e-01f,+7.03559816e-02f,+1.61622483e-02f,-1.49259744e-02f,
+2.89756246e-02f,+5.07167988e-02f,+1.95074037e-01f,+1.50666356e-01f,-1.02856986e-01f,
+8.95752311e-02f,+1.81930572e-01f,-4.70112674e-02f,-3.42006125e-02f,-1.25116810e-01f,
+1.92832604e-01f,-2.20933273e-01f,+2.89042354e-01f,+1.99305117e-01f,+7.48994052e-02f,
+6.90165833e-02f,+2.90898353e-01f,+5.41003197e-02f,+4.10954565e-01f,+2.00134352e-01f,
+1.28046885e-01f,+2.97293395e-01f,-7.82731641e-03f,-6.64851144e-02f,+1.65497035e-01f,
+1.48900881e-01f,+6.53491691e-02f,+9.26111415e-02f,+1.45355985e-01f,+5.24575412e-02f,
-1.63112044e-01f,+1.58138514e-01f,+1.26172965e-02f,+8.41817856e-02f,-3.87449078e-02f,
+2.18780503e-01f,-3.31219845e-02f,-1.26870126e-02f,+2.38829665e-02f,+1.65428743e-01f,
-3.87601182e-02f,+1.17255338e-01f,-2.43562870e-02f,-6.63538203e-02f,+8.61709043e-02f,
-4.98712771e-02f,+3.89957987e-02f,+2.07440108e-02f,-1.35344863e-01f,+1.39493659e-01f,
+3.16844225e-01f,+1.07636884e-01f,-5.17435409e-02f,-3.21767926e-02f,-1.01741314e-01f,
+3.36256288e-02f,+3.65893333e-03f,-7.95354843e-02f,-5.73518425e-02f,-3.79944071e-02f,
+2.10909471e-01f,+9.64645445e-02f,+3.67497057e-02f,+1.86151534e-01f,+4.59139869e-02f,
+1.70621857e-01f,-1.76718995e-01f,-1.06484227e-01f,-9.15439948e-02f,+4.66835797e-02f,
-5.38162403e-02f,-3.24444592e-01f,-1.20066613e-01f,+5.59922494e-03f,-9.09268484e-02f,
+1.37773052e-01f,-1.21907495e-01f,+2.10536402e-02f,-1.84036016e-01f,+3.19060951e-01f,
+2.69269478e-02f,+1.83878720e-01f,-1.29046887e-02f,-1.19124018e-01f,+1.88039482e-01f,
+6.84297681e-02f,-1.20296076e-01f,+1.66382134e-01f,+1.05477031e-02f,-1.06839836e-02f,
+1.73935406e-02f,+2.98583657e-02f,+2.27521047e-01f,+1.98352784e-02f,+2.18056425e-01f,
+1.94737390e-01f,-1.43818751e-01f,+1.97022155e-01f,+1.21722080e-01f,+9.90837961e-02f,
+2.60846585e-01f,-1.51906848e-01f,+1.75959960e-01f,+2.29246035e-01f,-7.54958913e-02f,
+5.01428507e-02f,-2.04415649e-01f,+3.43373984e-01f,+7.83521384e-02f,-2.73354612e-02f,
+2.34622717e-01f,+2.80317605e-01f,+2.67479639e-03f,+1.24028213e-01f,+9.05917063e-02f,
-1.78170338e-01f,+1.64549142e-01f,-2.15116888e-01f,-1.31371439e-01f,+2.33103961e-01f,
+1.47843346e-01f,+9.74106416e-02f,+2.13981941e-01f,+1.41283855e-01f,-2.29827747e-01f,
+1.23347402e-01f,-1.28144324e-01f,+1.60816118e-01f,+1.79353267e-01f,+1.23732142e-01f,
+5.22161871e-02f,-1.67134285e-01f,+7.95378387e-02f,+1.49888610e-02f,+1.19949795e-01f,
-1.32256001e-01f,+1.85648143e-01f,-1.20571695e-01f,-3.02294642e-01f,+2.84745336e-01f,
-4.25878987e-02f,+7.85525050e-03f,+1.72865510e-01f,+1.14470916e-02f,+1.88335150e-01f,
+4.24891487e-02f,-9.27299187e-02f,+2.86607325e-01f,+3.32894772e-02f,+3.40050980e-02f,
+1.81244627e-01f,+1.41060367e-01f,+5.28799482e-02f,-1.17661338e-02f,+2.99140625e-02f,
+1.33084625e-01f,-2.75673866e-02f,+7.84511492e-02f,+5.75249419e-02f,-7.07877651e-02f,
+3.06390256e-01f,+2.55283147e-01f,+1.47035539e-01f,+3.84444334e-02f,+2.06819251e-01f,
+1.49898911e-02f,-3.01489346e-02f,+2.13748347e-02f,+1.24356896e-01f,-1.75827384e-01f,
+2.11404905e-01f,+3.60094085e-02f,+2.97904816e-02f,+1.51905730e-01f,+9.79860649e-02f,
+7.27389976e-02f,+2.39797935e-01f,+1.99921783e-02f,+5.74682429e-02f,+1.47992030e-01f,
-6.11641444e-02f,+3.07426363e-01f,+9.81866121e-02f,+1.16845563e-01f,-1.79365687e-02f,
-2.68078446e-01f,-5.46411350e-02f,+1.39192015e-01f,-8.39519501e-02f,-7.99074024e-02f,
+1.67598724e-02f,+2.45588019e-01f,+2.59476118e-02f,+5.24753481e-02f,+2.86403060e-01f,
-8.95298272e-03f,+1.21874303e-01f,-5.06166965e-02f,-2.77621835e-01f,+5.47985621e-02f,
+1.63110465e-01f,+7.22715184e-02f,+4.49208729e-02f,+1.05539106e-01f,+8.04391056e-02f,
-8.97377543e-03f,-1.13211975e-01f,+2.09271312e-01f,-6.86452091e-02f,-1.59030855e-01f,
+1.98612139e-02f,+1.62209600e-01f,+2.85265982e-01f,-2.19367128e-02f,+1.98939532e-01f,
-7.72754624e-02f,+1.15373388e-01f,-5.65616265e-02f,+9.90060270e-02f,+1.79616418e-02f,
-2.57798284e-01f,+1.82563663e-01f,+1.84165910e-01f,+1.31601036e-01f,+1.48302123e-01f,
+1.36328012e-01f,-2.21961178e-02f,+2.53454804e-01f,-5.85824326e-02f,-6.64578052e-03f,
-1.73000023e-02f,-1.42528355e-01f,-8.27435553e-02f,+8.71846750e-02f,+7.18503073e-02f,
-9.96701196e-02f,+1.14358857e-01f,+7.87993222e-02f,+1.55143529e-01f,+1.50439888e-01f,
+1.32713214e-01f,+1.24403229e-02f,+4.61910143e-02f,+1.48913831e-01f,+1.91911429e-01f,
+8.22315291e-02f,-1.65938124e-01f,+1.10547815e-03f,+1.63000107e-01f,-1.18599497e-01f,
+1.04493305e-01f,-1.72647908e-01f,+2.38898750e-02f,+1.06751464e-01f,-1.12049349e-01f,
+1.76641285e-01f,-4.74572927e-02f,+1.30716059e-03f,-6.86621219e-02f,+2.22239792e-01f,
+7.25462213e-02f,+3.12162992e-02f,+2.25752681e-01f,+1.83583021e-01f,-2.25753672e-02f,
+1.13098361e-01f,+1.21164143e-01f,+1.72957510e-01f,+6.69445544e-02f,-1.05040230e-01f,
-5.57755865e-03f,+4.32547070e-02f,-1.29491255e-01f,+1.78929657e-01f,-5.12740612e-02f,
-3.88625786e-02f,+1.01855554e-01f,-5.59216086e-03f,+1.63511839e-02f,-1.29569089e-02f,
-9.97859910e-02f,-2.28190981e-02f,-1.63468957e-01f,+5.89678846e-02f,-5.57506308e-02f,
-5.57773933e-02f,+7.81382248e-02f,+2.81564295e-02f,+2.00560495e-01f,+8.49893987e-02f,
+7.28815123e-02f,-5.21133542e-02f,+2.51318961e-01f,+5.55224083e-02f,-3.44077870e-02f,
-7.59833977e-02f,+1.43738836e-01f,+1.13252765e-02f,+1.90816790e-01f,+6.26660883e-02f,
-1.17581636e-01f,+2.88917795e-02f,+2.50174224e-01f,+3.87600549e-02f,-1.66914061e-01f,
+1.04931563e-01f,-1.25201950e-02f,+1.73093542e-01f,-3.40844914e-02f,+1.84977755e-01f,
+9.20457114e-03f,+9.87781286e-02f,-2.15834737e-01f,+1.29490972e-01f,+1.57172188e-01f,
+3.05379570e-01f,+1.40172035e-01f,-5.42494096e-02f,+2.06865281e-01f,-1.07760802e-01f,
+1.67034701e-01f,+1.12945937e-01f,-2.22953364e-01f,+9.42052081e-02f,+4.56475317e-02f,
+6.40560687e-02f,+1.91522121e-01f,-9.20432806e-02f,+6.03083782e-02f,+4.80414554e-02f,
+1.98777858e-02f,+1.51635353e-02f,-2.11224444e-02f,-8.23454410e-02f,+1.25784516e-01f,
+1.36005163e-01f,+1.61136426e-02f,+1.04169399e-01f,-2.45511755e-01f,+1.27265779e-02f,
+1.15930609e-01f,+9.03735869e-03f,+1.78504795e-01f,+3.27122688e-01f,-1.33264840e-01f,
+1.46862239e-01f,+2.01494440e-01f,+7.96084180e-02f,-2.92034656e-01f,+4.40937914e-02f,
+1.24077145e-02f,+2.24590793e-01f,+1.15847573e-01f,+2.74386518e-02f,+1.14680171e-01f,
-1.87936351e-01f,+9.27851871e-02f,+1.07323460e-01f,+2.38004159e-02f,-2.24723555e-02f,
+8.60875249e-02f,+2.70235948e-02f,+1.48106098e-01f,+1.15350865e-01f,-4.67057899e-03f,
+6.80440143e-02f,+3.70694965e-01f,-5.36934510e-02f,+5.58563210e-02f,+9.69217792e-02f,
-3.99873167e-01f,+1.12160956e-02f,+2.40771547e-01f,+1.37113899e-01f,+7.10542724e-02f,
-1.40383050e-01f,+3.02697010e-02f,+7.48752803e-02f,+1.20313860e-01f,+1.72591135e-02f,
-1.13563739e-01f,+1.05760582e-01f,+5.54001629e-02f,+1.03581734e-01f,+1.95646152e-01f,
+1.61138594e-01f,-3.68292481e-02f,+1.68788596e-04f,+1.31833419e-01f,+2.60488689e-01f,
-1.14047617e-01f,+1.19940095e-01f,-2.02605426e-02f,+1.65038347e-01f,+1.81484982e-01f,
+1.08257957e-01f,+1.22907218e-02f,+1.96253926e-01f,-1.35737900e-02f,+4.10858631e-01f,
+8.29660147e-02f,-9.99556184e-02f,+4.51797783e-01f,+5.02882078e-02f,-6.26117224e-03f,
-4.77242395e-02f,+1.82404608e-01f,-2.44098268e-02f,+2.33541593e-01f,-1.69072691e-02f,
+1.38118640e-01f,+2.07874067e-02f,+3.07059228e-01f,+2.54446119e-02f,+2.02298433e-01f,
-1.70698032e-01f,+2.07527801e-01f,-2.19194945e-02f,-8.87843966e-02f,+8.84350687e-02f,
+4.27387170e-02f,+4.87334188e-03f,-5.78693599e-02f,+7.92013332e-02f,+1.24694057e-01f,
+1.16794566e-02f,+1.33879721e-01f,+1.49297729e-01f,+7.13399053e-02f,+1.21154875e-01f,
-4.91332263e-02f,+1.87806785e-02f,+1.07329944e-02f,-1.61597785e-02f,+9.69192944e-03f,
-4.17024270e-02f,-2.61953212e-02f,+4.97908480e-02f,+2.12502908e-02f,-2.77408082e-02f,
+1.54565349e-01f,-7.90403113e-02f,+1.14687130e-01f,-5.73395528e-02f,-9.95055139e-02f,
+8.81956071e-02f,-1.24825381e-01f,+1.06257014e-01f,+3.60597730e-01f,+1.29799351e-01f,
+1.09977975e-01f,-5.39061092e-02f,-4.21551429e-02f,-6.12902567e-02f,+1.93665221e-01f,
+1.32434741e-01f,+1.71221033e-01f,+1.15722656e-01f,-1.75484985e-01f,+2.08216667e-01f,
+9.38722417e-02f,-1.34710176e-02f,+1.41721174e-01f,-1.15917958e-01f,+1.86718464e-01f,
+1.90404937e-01f,+1.76205277e-01f,+3.81188095e-02f,+3.08863878e-01f,+1.32130474e-01f,
+7.12033659e-02f,+1.01651503e-02f,-1.48814231e-01f,+2.48085096e-01f,-1.19754754e-01f,
+9.06992927e-02f,+1.57245696e-01f,-2.20132336e-01f,-1.73236325e-01f,+1.56621709e-01f,
-1.10163037e-02f,+2.93089394e-02f,+1.22122847e-01f,-1.59432236e-02f,-1.25538185e-01f,
-3.79551128e-02f,-1.54438421e-01f,-1.08567392e-02f,-7.37493932e-02f,+1.25784855e-02f,
+1.96996257e-01f,+2.16895491e-01f,+1.56555802e-01f,-5.68212047e-02f,+9.68260393e-02f,
-8.79382268e-02f,-7.17980117e-02f,+9.74629596e-02f,+1.37916565e-01f,+6.10926375e-02f,
+1.16959460e-01f,-2.17723176e-02f,+1.32138819e-01f,+2.48791546e-01f,+2.06300780e-01f,
-1.26312613e-01f,-4.92087305e-02f,+2.30814829e-01f,+4.93220612e-02f,+2.04360694e-01f,
-1.10289283e-01f,-1.46927359e-02f,+3.36412201e-03f,+2.64448076e-01f,+2.48794004e-01f,
+1.44322932e-01f,-9.29977559e-03f,+1.29738569e-01f,+6.04257435e-02f,+4.24215160e-02f,
-6.58892170e-02f,+1.27868146e-01f,+2.33432904e-01f,+7.64786378e-02f,-6.32848814e-02f,
-1.79649852e-02f,+1.59216970e-01f,+1.35989144e-01f,+1.64796934e-01f,-4.82140444e-02f,
+1.46265894e-01f,+8.34273398e-02f,+3.95941399e-02f,-1.58328507e-02f,+3.04428246e-02f,
-1.54704064e-01f,+1.84044972e-01f,+2.84867823e-01f,+1.66400820e-02f,+1.12648539e-01f,
+1.95659414e-01f,+1.27303481e-01f,+1.77858934e-01f,-1.42346263e-01f,+1.13087282e-01f,
-3.50415185e-02f,-7.04791443e-03f,-5.45053408e-02f,+4.34475169e-02f,-2.29277574e-02f,
+1.82747260e-01f,+2.33113468e-01f,+1.30977616e-01f,+2.25413203e-01f,+1.02196574e-01f,
+3.89319174e-02f,+1.87344268e-01f,-2.66983937e-02f,-1.25155300e-01f,-1.00547910e-01f,
-7.34831914e-02f,+3.51501554e-02f,+4.76165935e-02f,-1.52871937e-01f,-5.93253272e-03f,
-1.62584573e-01f,+4.98546362e-02f,-6.31917045e-02f,-9.34405848e-02f,+2.01919764e-01f,
+2.06663340e-01f,+1.11262552e-01f,-1.29575416e-01f,+1.36440188e-01f,+1.35939196e-01f,
-5.41164726e-02f,+7.39085749e-02f,+1.66899726e-01f,-3.67904007e-02f,-8.28978494e-02f,
+1.02936558e-01f,-4.08656672e-02f,+1.32209688e-01f,-3.89924608e-02f,+2.77692042e-02f,
+9.75258648e-02f,+5.95967062e-02f,+1.03210434e-01f,-7.00269118e-02f,-8.49877670e-03f,
-4.72309925e-02f,-1.30026694e-02f,+1.13046467e-01f,+2.79575842e-03f,+6.55034706e-02f,
+2.57187001e-02f,+3.30273598e-01f,+6.26386702e-02f,-8.18789825e-02f,-6.56920456e-05f,
-1.44914642e-01f,+1.18141830e-01f,+9.98430550e-02f,-1.45556316e-01f,+3.63761224e-02f,
+5.95987029e-02f,+1.58363163e-01f,-3.76785882e-02f,-1.50516093e-01f,+1.54920205e-01f,
+1.73172876e-01f,+1.11191161e-01f,+2.82055080e-01f,-2.01425791e-01f,+2.72441637e-02f,
-1.76464200e-01f,-2.66013056e-01f,+1.98969454e-01f,+1.46299854e-01f,-7.64452517e-02f,
+1.18956417e-01f,-7.86517337e-02f,-8.36327076e-02f,+4.70239148e-02f,-3.65797430e-02f,
+8.68331194e-02f,+1.67205721e-01f,-1.34578586e-01f,+2.20046684e-01f,+9.88014936e-02f,
+1.83203537e-02f,-1.40070572e-01f,+8.76781717e-02f,+5.22120111e-02f,+5.16594201e-02f,
+6.99648410e-02f,+2.52802789e-01f,+1.11718796e-01f,+3.52423973e-02f,-2.14586377e-01f,
+2.32239068e-01f,+3.92660677e-01f,-5.73339313e-02f,+5.32847404e-01f,-1.14684537e-01f,
+2.40581781e-02f,+3.66468996e-01f,+1.48299202e-01f,+1.60114169e-01f,-6.72686398e-02f,
+2.16394290e-01f,+6.49210736e-02f,-3.93905398e-03f,+1.08212039e-01f,+2.94329047e-01f,
+2.79287659e-02f,-7.28099793e-02f,-1.12734079e-01f,+4.54058617e-01f,+9.61055309e-02f,
-3.34659144e-02f,-1.29655346e-01f,+4.32325294e-03f,-1.78662643e-01f,-7.31351832e-03f,
+1.63309768e-01f,-1.41837806e-01f,+1.49927408e-01f,+1.65279582e-02f,-3.82653102e-02f,
-6.88881204e-02f,+1.15458846e-01f,+1.63422927e-01f,-2.85469741e-02f,+4.86887991e-02f,
+3.45325135e-02f,-1.85872186e-02f,-1.83662567e-02f,+8.12382698e-02f,+1.16092443e-01f,
-8.83617327e-02f,+9.81232077e-02f,-2.72535831e-02f,+5.50046563e-02f,-3.81979463e-03f,
+7.74985254e-02f,+4.63140234e-02f,+1.46566406e-01f,+1.60788223e-01f,+1.73464417e-01f,
-6.55521303e-02f,-1.39243379e-01f,+9.47623551e-02f,+5.95294051e-02f,+2.11399078e-01f,
+7.08222985e-02f,-4.38586250e-02f,+8.79365951e-02f,+1.59207750e-02f,+7.62728229e-02f,
+1.31019115e-01f,+6.41862601e-02f,-4.41796854e-02f,+1.73268929e-01f,-3.12016960e-02f,
+4.43038717e-02f,+3.13218206e-01f,-3.35430764e-02f,+4.81130406e-02f,+1.71399176e-01f,
-3.14192788e-04f,+1.94903463e-01f,+5.56253046e-02f,+5.15996255e-02f,+2.55157948e-01f,
+8.56806710e-02f,+4.33312729e-02f,+3.27841230e-02f,+2.87498217e-02f,+2.38769665e-01f,
-1.41287902e-02f,-6.22355230e-02f,+2.00756997e-01f,-1.87294438e-01f,+7.18436614e-02f,
+2.01867804e-01f,+1.08580310e-02f,+2.01974705e-01f,+7.99970850e-02f,+1.74176723e-01f,
+1.20349951e-01f,+1.81983504e-02f,+6.74863756e-02f,+1.19169563e-01f,+6.40694201e-02f,
+2.57237963e-02f,-8.50261599e-02f,+4.84524518e-02f,+8.78769532e-02f,-4.60245907e-02f,
-1.54310800e-02f,-2.66394168e-02f,-4.29723673e-02f,+1.85685217e-01f,-4.88272123e-02f,
+1.30179346e-01f,+2.55304854e-02f,+4.93793786e-02f,+5.57063147e-02f,+5.81555776e-02f,
+1.30447999e-01f,+1.31006718e-01f,-2.03281585e-02f,+4.35789078e-02f,+1.18339442e-01f,
+8.62404555e-02f,+7.42432103e-02f,-3.18470597e-02f,+4.73811403e-02f,+1.18543401e-01f,
+5.31435721e-02f,+2.73440331e-02f,+1.40854195e-01f,+9.35896635e-02f,+1.39573887e-01f,
+8.11484009e-02f,+9.28099453e-02f,+2.12000236e-01f,+7.56030232e-02f,+8.45607519e-02f,
+1.42781749e-01f,-1.21257715e-02f,+7.78745413e-02f,+1.13407195e-01f,+1.02493659e-01f,
+6.67918101e-02f,+7.37863630e-02f,+2.99528360e-01f,+1.30448624e-01f,-6.92679640e-03f,
-6.34764209e-02f,+2.00484976e-01f,+1.50217116e-01f,-7.72897303e-02f,+1.87822178e-01f,
+6.11931942e-02f,+2.15944752e-01f,+1.27949834e-01f,+8.14296603e-02f,-1.43891871e-01f,
+6.79762065e-02f,+4.28335778e-02f,+1.60660580e-01f,-6.43419102e-02f,+8.13134536e-02f,
+1.86085179e-01f,+6.94600493e-02f,+7.04999790e-02f,+5.49446419e-02f,+2.10516021e-01f,
+1.09681442e-01f,+1.24531858e-01f,+1.70359462e-01f,+9.06365961e-02f,+8.62826942e-04f,
+8.42188299e-02f,+6.99725375e-02f,+1.64362028e-01f,+7.10160360e-02f,-6.97221011e-02f,
+8.45285058e-02f,+3.85572612e-02f,+2.12948665e-01f,+1.01039685e-01f,-4.35142145e-02f,
+5.82250282e-02f,+4.93881591e-02f,-5.13483360e-02f,+2.90705524e-02f,+8.45769122e-02f,
+7.88431913e-02f,+2.65719116e-01f,+4.39044833e-02f,+1.46386817e-01f,+1.10420018e-01f,
+8.59970227e-02f,-8.01560581e-02f,+5.73746599e-02f,-1.23227254e-01f,+1.22900955e-01f,
+4.39325944e-02f,+9.20643136e-02f,+4.44400907e-02f,+3.54120322e-02f,+3.01206410e-02f,
+5.43863475e-02f,-3.77636701e-02f,+1.29048884e-01f,-3.39278542e-02f,+9.98159349e-02f,
+5.40197901e-02f,+6.79167360e-02f,-1.10444970e-01f,+1.62843600e-01f,+2.07726896e-01f,
+5.89213483e-02f,+1.09233156e-01f,+1.08678825e-01f,+7.11092725e-02f,+1.14090636e-01f,
+1.71528962e-02f,+1.36012807e-01f,+9.08036381e-02f,+4.88208383e-02f,-8.97973776e-02f,
-3.57136764e-02f,+1.23258278e-01f,+1.26955332e-02f,-1.55181466e-02f,+1.29160017e-01f,
-5.40650636e-02f,+2.02092603e-01f,+4.36349176e-02f,+1.15275234e-01f,-3.10811750e-03f,
+1.61161162e-02f,-2.75303517e-02f,+8.72454345e-02f,+1.75551642e-02f,+1.17281020e-01f,
+1.12543441e-01f,-2.97263060e-02f,+8.69411975e-02f,+1.41805306e-01f,-7.67988805e-03f,
+1.74723323e-02f,+2.49433033e-02f,+9.69019681e-02f,+9.49046537e-02f,-9.50674247e-03f,
-3.46473884e-03f,+3.63093950e-02f,+1.46779120e-01f,+1.95235372e-01f,+7.30395317e-02f,
-3.05792522e-02f,+1.02978185e-01f,+2.15449065e-01f,+5.57692498e-02f,+1.84490502e-01f,
+1.65871941e-02f,-9.78818387e-02f,+1.17478445e-01f,+1.21926703e-01f,+4.96214852e-02f,
+1.64969917e-02f,+3.23075950e-02f,+7.73192756e-03f,-6.67788610e-02f,+1.72862619e-01f,
+1.97045818e-01f,+3.08850091e-02f,+1.11668728e-01f,-6.63495576e-03f,-7.40719140e-02f,
+9.84491855e-02f,-4.19183224e-02f,+4.80706058e-02f,+2.36846313e-01f,+4.70019802e-02f,
+1.33097321e-01f,-1.43884748e-01f,+1.56071201e-01f,+5.70932031e-03f,+2.49332245e-02f,
+1.08114198e-01f,+1.47599474e-01f,+9.51703712e-02f,+6.67339982e-03f,+2.15613872e-01f,
-9.37203225e-03f,-8.81179236e-03f,-1.57891363e-01f,+2.05032341e-02f,+2.13841796e-01f,
-4.11092117e-02f,+1.13874748e-01f,+6.28521740e-02f,+9.03436542e-02f,-7.95912594e-02f,
-7.72476345e-02f,+1.53863817e-01f,+9.86367092e-03f,-3.03155533e-03f,+1.65700719e-01f,
-2.80273221e-02f,-2.82271095e-02f,+2.63595641e-01f,+1.00429103e-01f,+5.12299165e-02f,
-8.50711763e-03f,+6.18482679e-02f,-1.39218509e-01f,+5.73618747e-02f,+6.94286600e-02f,
+4.91173230e-02f,+5.30479066e-02f,+1.81836709e-01f,+8.25681835e-02f,+1.52885616e-01f,
+6.51075765e-02f,+2.10909352e-01f,+2.21250355e-01f,-4.73383963e-02f,-4.62020189e-02f,
+5.35215810e-02f,+8.89872387e-02f,-2.99737081e-02f,-1.10853575e-01f,+5.71864769e-02f,
+8.21359605e-02f,+1.28900990e-01f,+1.26319632e-01f,+4.73168828e-02f,+2.29087785e-01f,
-1.09244026e-01f,+8.74131322e-02f,-1.34107992e-01f,+9.59114209e-02f,+6.14238307e-02f,
-5.87978587e-02f,+1.79393619e-01f,+1.81328207e-02f,+2.23558322e-01f,+1.81788325e-01f,
+1.09455451e-01f,+1.64130494e-01f,+5.02815358e-02f,+6.10084124e-02f,+2.36794930e-02f,
+1.48385540e-01f,+2.88145524e-02f,+1.13385946e-01f,+3.25440126e-03f,+5.23658618e-02f,
+2.07822397e-01f,-1.76935606e-02f,+1.02917701e-01f,-2.76602828e-03f,+7.82293603e-02f,
+1.93464696e-01f,+8.09094170e-04f,-6.46279519e-03f,+1.21343277e-01f,-1.13992870e-01f,
+2.03642651e-01f,+2.19506443e-01f,+7.88203329e-02f,+1.45508185e-01f,-1.64173499e-01f,
+1.05733566e-01f,-2.83300132e-02f,-8.12696815e-02f,+2.63763100e-01f,-8.51443261e-02f,
-4.22545597e-02f,-3.82341780e-02f,-6.05278797e-02f,+1.13371462e-01f,+7.14294240e-02f,
-2.73375586e-02f,+7.56871775e-02f,-3.56465913e-02f,+2.75383681e-01f,+1.07229136e-01f,
-1.63659841e-01f,+1.57618374e-01f,-4.80631739e-02f,+6.69194460e-02f,-1.06550179e-01f,
-9.23475176e-02f,+1.59827605e-01f,+5.53935915e-02f,+2.07944542e-01f,+8.23812485e-02f,
+7.93869123e-02f,+1.50381476e-01f,+1.07419878e-01f,+1.39711827e-01f,-5.03018759e-02f,
-2.08790943e-01f,+2.25120056e-02f,-1.09887168e-01f,+7.74308443e-02f,+4.47443239e-02f,
-3.34981037e-03f,+3.59364338e-02f,-1.79158643e-01f,-9.38799791e-03f,+1.99268255e-02f,
+1.35481909e-01f,-1.08747683e-01f,+6.93907915e-03f,-3.54673564e-02f,+1.85122922e-01f,
-8.21719021e-02f,+2.28267461e-01f,-9.44515839e-02f,+1.44341379e-01f,+9.33063254e-02f,
+1.08757708e-02f,+3.45501065e-01f,+1.26166493e-01f,+6.77115619e-02f,+1.08222738e-01f,
+2.85925418e-01f,+1.28101125e-01f,-1.46873929e-02f,+2.41568580e-01f,-1.27798826e-01f,
+2.24550754e-01f,+7.07201809e-02f,+3.18726540e-01f,+1.80717111e-01f,+1.60862654e-01f,
+2.18254030e-01f,-6.67294934e-02f,+3.78314406e-01f,+1.69220239e-01f,-3.34279309e-03f,
-1.27923429e-01f,+5.09832837e-02f,+3.51391494e-01f,+1.86462820e-01f,+2.29689583e-01f,
-4.16117497e-02f,+1.40979644e-02f,+2.78548807e-01f,-6.41010352e-04f,+1.65165514e-01f,
+1.81991115e-01f,-3.70840020e-02f,+5.08177578e-02f,+9.02044699e-02f,+1.22331664e-01f,
+6.47975430e-02f,-1.16285659e-01f,-3.58208776e-01f,+3.18701193e-02f,-2.12286696e-01f,
+8.10627192e-02f,+1.40920160e-02f,-8.87173228e-03f,+8.89768153e-02f,+1.79930180e-01f,
-1.43968672e-01f,+7.19857961e-03f,+9.41746607e-02f,+2.99140941e-02f,+1.64149150e-01f,
+5.26761003e-02f,+5.96229210e-02f,+2.14074738e-02f,+9.18600261e-02f,-1.27813593e-01f,
-1.06415767e-02f,+2.33486906e-01f,-6.61646128e-02f,+4.01251651e-02f,+2.25718439e-01f,
+1.84113637e-01f,+1.66550636e-01f,+4.82746512e-02f,+4.40812297e-02f,-1.71837375e-01f,
-1.94626868e-01f,+5.32352366e-02f,+9.79667753e-02f,+8.67415294e-02f,+4.38034832e-02f,
+1.49566695e-01f,+1.89470977e-01f,+2.78926134e-01f,-1.58039760e-02f,+9.22862627e-03f,
-1.78800687e-01f,+7.74837285e-02f,+2.22476125e-01f,+5.32577410e-02f,+1.67191133e-01f,
+1.33381113e-01f,+9.52000171e-02f,-3.06389816e-02f,+1.22681335e-01f,+3.10021967e-01f,
+2.16357037e-01f,+2.50802319e-02f,+1.11302674e-01f,+1.16336241e-01f,-4.29913774e-02f,
+4.67202347e-03f,+8.85537192e-02f,+2.11345002e-01f,-3.29606719e-02f,-6.86347038e-02f,
+1.56357020e-01f,+3.11953425e-01f,+1.68025613e-01f,+8.50912780e-02f,+5.95417107e-03f,
-3.76988091e-02f,+2.41113938e-02f,-2.08268642e-01f,-2.67544333e-02f,+3.05054896e-02f,
-8.06263536e-02f,+2.38205701e-01f,+1.52442053e-01f,-1.39351562e-01f,+1.79249585e-01f,
-6.51973560e-02f,+2.68247902e-01f,+4.57157753e-02f,+2.68359065e-01f,+3.26089203e-01f,
+2.39411712e-01f,+5.00411838e-02f,+3.07056576e-01f,+5.45180775e-02f,-1.41141623e-01f,
+2.64652837e-02f,-1.29468367e-01f,-6.48816600e-02f,-1.53087050e-01f,+1.81351170e-01f,
+1.64649919e-01f,+8.26151855e-03f,+2.06506439e-02f,+1.16300412e-01f,-7.39155561e-02f,
+1.35604993e-01f,+3.55026498e-02f,-8.00073445e-02f,+3.10945600e-01f,+9.98513326e-02f,
+9.64809209e-02f,+2.73019791e-01f,+1.26336247e-01f,+1.52099103e-01f,-1.10130772e-01f,
-4.01180089e-02f,-1.40096701e-03f,+8.76813233e-02f,+1.97868064e-01f,+1.58884302e-01f,
-8.16484243e-02f,+8.41312334e-02f,+2.06731364e-01f,+8.99477452e-02f,+6.47142082e-02f,
+1.46534771e-01f,+2.17245035e-02f,+9.85984281e-02f,-5.70342317e-02f,-1.66295707e-01f,
+1.05097398e-01f,+2.44932637e-01f,+1.36011571e-01f,+1.03531688e-01f,+8.01912546e-02f,
+3.03722113e-01f,+1.90353662e-01f,+1.78198591e-01f,+5.71474805e-02f,+1.93623349e-01f,
+3.07497438e-02f,+1.10728510e-01f,-2.01439112e-02f,+3.76691148e-02f,+1.10368721e-01f,
-1.57112002e-01f,+1.76755771e-01f,+9.84849483e-02f,+2.16448963e-01f,+5.19710407e-02f,
-5.26288711e-02f,-1.28604785e-01f,+3.25236112e-01f,+1.57509297e-01f,-1.84841380e-02f,
+5.68939336e-02f,+1.19487435e-01f,-2.70113230e-01f,+3.60772312e-02f,-1.09335333e-01f,
-7.78337801e-03f,-3.49680990e-01f,+1.32199302e-01f,-7.64120966e-02f,+2.07284942e-01f,
+7.65849948e-02f,-9.45358127e-02f,+2.28677809e-01f,+1.26926318e-01f,-5.72786741e-02f,
-2.44464837e-02f,-1.65072642e-02f,+8.28296766e-02f,+1.43299252e-01f,+1.41784891e-01f,
+9.88987312e-02f,+7.17351288e-02f,+2.16853693e-01f,-1.34035982e-02f,+1.94398820e-01f,
+1.42837495e-01f,+2.27356747e-01f,-7.55116642e-02f,+2.19877526e-01f,+1.56742275e-01f,
+1.47622200e-02f,-1.03577942e-01f,+1.93640068e-01f,-2.85799038e-02f,+2.69938111e-01f,
+1.32494062e-01f,+7.82051031e-03f,+3.74927595e-02f,+1.88619524e-01f,+2.04948530e-01f,
+2.69829065e-01f,+8.62026289e-02f,-4.69503477e-02f,+1.83514461e-01f,+8.49074572e-02f,
-9.58379917e-03f,+7.46203065e-02f,+1.28709197e-01f,+1.40262261e-01f,-1.65972054e-01f,
+6.26603421e-03f,+2.10504681e-01f,-8.06232020e-02f,+2.44411062e-02f,+7.69175589e-02f,
+2.73043841e-01f,+1.93351522e-01f,+8.24971646e-02f,+8.55751932e-02f,+1.36393175e-01f,
-5.82882464e-02f,+7.62823131e-03f,-3.38693894e-02f,+9.82441679e-02f,+2.14907646e-01f,
+6.80493861e-02f,-4.16623801e-01f,+2.48997062e-01f,+9.64892060e-02f,+3.85197759e-01f,
+7.24315718e-02f,+6.98652416e-02f,+1.94092840e-01f,+7.42067490e-03f,-2.11434320e-01f,
+2.82213509e-01f,+1.08415313e-01f,-3.97512734e-01f,+3.27919930e-01f,+8.82129446e-02f,
-1.17281817e-01f,-6.51243925e-02f,+5.55973165e-02f,+1.47827685e-01f,+1.61488485e-02f,
-1.03683747e-01f,+2.29115188e-01f,+2.99370326e-02f,+9.78037640e-02f,+2.59853229e-02f,
-4.08374257e-02f,+2.56583225e-02f,-8.18807185e-02f,-1.48976207e-01f,+1.08357079e-01f,
+9.77806449e-02f,+9.72776860e-02f,+2.74430782e-01f,-7.70183429e-02f,-3.63306440e-02f,
-1.09728865e-01f,+8.34454000e-02f,+6.73838833e-04f,+4.61673141e-02f,-1.69196293e-01f,
-1.23467319e-01f,+1.93941846e-01f,-1.72477871e-01f,+2.42988139e-01f,-1.96545959e-01f,
+8.68306670e-04f,+8.82137716e-02f,-1.68517366e-01f,+2.76466310e-02f,+1.48892984e-01f,
+9.03845355e-02f,-3.62262013e-03f,+1.96113996e-02f,+2.84542978e-01f,-1.15630277e-01f,
+1.00104645e-01f,+1.11116990e-01f,-6.32979274e-02f,+2.58130580e-02f,-4.86658551e-02f,
-7.92316869e-02f,-8.92713219e-02f,-1.54411957e-01f,+1.22006379e-01f,+1.10384084e-01f,
-2.25363120e-01f,-2.93034047e-01f,-2.38738030e-01f,-4.16310597e-03f,+1.56182339e-02f,
-1.52408615e-01f,+2.81974114e-02f,-1.06128119e-01f,+1.26660198e-01f,+1.57719210e-01f,
+4.11575809e-02f,+2.65029725e-02f,-5.84649257e-02f,+2.30713040e-01f,+3.21931183e-01f,
+8.54466930e-02f,+8.83645192e-02f,+1.71439469e-01f,-7.16337562e-02f,+2.02863470e-01f,
+1.81180105e-01f,+6.10472709e-02f,-3.32965776e-02f,+2.77725030e-02f,+1.84762955e-01f,
+6.98384717e-02f,-4.57313769e-02f,+1.21062122e-01f,+1.61037624e-01f,+3.66663903e-01f,
-1.47954635e-02f,+1.45080581e-01f,-1.82631344e-01f,-1.51636869e-01f,+1.12385146e-01f,
-9.16606635e-02f,+1.60076484e-01f,-1.58908427e-01f,-4.21306528e-02f,+2.16043830e-01f,
-1.66481256e-01f,+1.14652283e-01f,-1.38410022e-02f,-5.94496243e-02f,+1.79067731e-01f,
+2.17091188e-01f,+2.33386025e-01f,-7.18155578e-02f,+4.83583100e-02f,+6.35411143e-02f,
-4.20091748e-02f,-1.48686737e-01f,+4.80324477e-01f,+1.30815953e-01f,+2.60761499e-01f,
+2.90994998e-02f,-1.39652595e-01f,+1.14525512e-01f,-1.16858771e-02f,-1.70443878e-01f,
-2.55309977e-02f,+6.65816292e-02f,+5.01638725e-02f,-2.39053234e-01f,+1.81804001e-02f,
+4.77617383e-02f,-1.62619829e-01f,-3.74762528e-02f,-3.71490307e-02f,+6.20028563e-02f,
+8.53404105e-02f,-5.07380106e-02f,+4.64076586e-02f,+1.44280076e-01f,-1.39783084e-01f,
-2.29616929e-02f,-5.69481514e-02f,-1.22260854e-01f,-4.05141897e-02f,-3.81950545e-03f,
+1.74000666e-01f,+3.42405029e-02f,-4.95777540e-02f,+1.64680451e-01f,+5.18982448e-02f,
+4.00476187e-01f,-7.39730778e-04f,-1.26657516e-01f,+2.39467293e-01f,+9.34054032e-02f,
-2.22283393e-01f,-9.06577036e-02f,+1.55790195e-01f,+4.70679514e-02f,-1.08091064e-01f,
-5.80777451e-02f,+2.73563474e-01f,+1.88756555e-01f,-1.17751239e-02f,+1.39128864e-01f,
-2.19835937e-02f,-2.60217816e-01f,+7.67412782e-02f,+2.51785964e-02f,-1.82764605e-01f,
+7.53772780e-02f,+1.05870403e-01f,-1.49898618e-01f,+1.97248891e-01f,-2.75717378e-01f,
-2.41219644e-02f,+2.32072085e-01f,+2.01290920e-02f,+1.24880662e-02f,+8.22945610e-02f,
-3.73353846e-02f,+2.91678697e-01f,+1.02419853e-01f,-2.18295425e-01f,-1.24346957e-01f,
+1.02474704e-01f,-2.13585626e-02f,+1.02041714e-01f,-6.08171411e-02f,-2.30101310e-02f,
+2.51380771e-01f,-4.86202091e-02f,+2.98247337e-01f,-1.34754293e-02f,-1.69571072e-01f,
+1.53957590e-01f,-3.72246087e-01f,+9.27165598e-02f,+2.60866523e-01f,+1.56919450e-01f,
+4.21599075e-02f,-2.47277063e-03f,-9.80073586e-02f,-1.04802772e-01f,+3.85944955e-02f,
-1.48015812e-01f,+8.70188102e-02f,+2.77816877e-02f,-7.15642497e-02f,+1.49152949e-01f,
-3.00468840e-02f,-1.03656799e-01f,+1.58663273e-01f,-6.10688403e-02f,+3.33768614e-02f,
+1.20939277e-01f,+3.73662785e-02f,-3.82210314e-02f,-8.33053440e-02f,+3.23238187e-02f,
+2.02727482e-01f,-2.33505666e-01f,+1.36125714e-01f,+1.37849599e-01f,-7.17200413e-02f,
-9.66141149e-02f,+1.52394949e-02f,+1.16209872e-01f,+9.29254517e-02f,+2.35523954e-02f,
+2.97224205e-02f,+2.31168136e-01f,-7.56593840e-03f,-1.37420714e-01f,+9.01010931e-02f,
+8.45929682e-02f,-3.12677920e-02f,+1.21830881e-01f,-8.44745636e-02f,+1.12504646e-01f,
+6.17373101e-02f,-5.66220097e-02f,-5.63313439e-02f,+3.07818204e-02f,-1.41075060e-01f,
+7.26897595e-03f,+1.69120491e-01f,+2.70940393e-01f,-6.85865730e-02f,+3.39954495e-02f,
-1.54776290e-01f,+3.09938014e-01f,+2.75966913e-01f,-4.86550555e-02f,+8.47268850e-02f,
-2.81650238e-02f,+1.83110639e-01f,-2.03978252e-02f,+3.93960923e-02f,-3.67302680e-03f,
+2.26822458e-02f,-2.86087301e-02f,+1.65584072e-01f,+1.26292050e-01f,+1.02012739e-01f,
+1.17070461e-02f,+2.33408120e-02f,+2.67507225e-01f,+9.16708410e-02f,+7.32526630e-02f,
+2.06574406e-02f,-1.84719712e-02f,+2.73284584e-01f,+1.89844612e-02f,+8.38891268e-02f,
-9.49568152e-02f,-2.45068565e-01f,+7.05479309e-02f,+4.54474846e-03f,+1.20401224e-02f,
+1.50327623e-01f,-1.16542853e-01f,+3.02669495e-01f,-7.97060803e-02f,+6.74114227e-02f,
+4.05136943e-02f,-4.90997881e-02f,-4.44183163e-02f,+7.87398964e-02f,-1.38596967e-01f,
+2.99609005e-01f,-7.82599077e-02f,+2.35208437e-01f,-1.62511342e-03f,-5.00899088e-03f,
-3.51657085e-02f,+5.60836643e-02f,+2.24411845e-01f,-2.86580045e-02f,-6.12086430e-02f,
-5.75727671e-02f,-5.82958311e-02f,+4.74958234e-02f,-1.10732153e-01f,+7.80475140e-02f,
+1.96610808e-01f,+1.26466900e-01f,+7.47977709e-03f,+1.97497070e-01f,-1.18314758e-01f,
+3.26446407e-02f,-7.89990090e-03f,+6.33530468e-02f,-1.16489328e-01f,+1.40149117e-01f,
+3.04531097e-01f,-9.81099717e-03f,+3.27928483e-01f,+1.53719038e-01f,-2.60264259e-02f,
-5.06494306e-02f,+3.13794315e-02f,+2.45711971e-02f,-2.74524726e-02f,+2.77820826e-01f,
+1.49172783e-01f,+9.19766165e-03f,+2.34704971e-01f,+1.01097874e-01f,-9.88944992e-02f,
-2.55509615e-02f,+5.24697527e-02f,-3.40387449e-02f,+2.12185472e-01f,+9.41583440e-02f,
+1.43915966e-01f,-1.61349639e-01f,+4.23635878e-02f,-7.02475384e-02f,-3.22014183e-01f,
-2.52389133e-01f,-1.46919815e-02f,-6.35317191e-02f,+1.73256904e-01f,-1.46158040e-02f,
+1.83351990e-02f,+1.04435213e-01f,-1.27782926e-01f,+9.19233859e-02f,+2.64703125e-01f,
+1.91736385e-01f,+7.40810782e-02f,-1.87372640e-01f,+5.23037389e-02f,-2.00781543e-02f,
+1.96388736e-02f,+1.08761303e-01f,+2.17652302e-02f,+2.72660870e-02f,+1.65967003e-01f,
+7.19563290e-02f,+7.36027732e-02f,+6.56209365e-02f,-9.43452567e-02f,+2.94254631e-01f,
+1.25222772e-01f,+7.35236034e-02f,-2.26578951e-01f,-1.82007715e-01f,+1.24512888e-01f,
-1.39794508e-02f,+1.15535617e-01f,+3.64795700e-02f,+1.85879812e-01f,-8.52304772e-02f,
+1.07637912e-01f,+1.23995595e-01f,-1.58362240e-01f,+1.48398951e-01f,-4.63044532e-02f,
-1.67544320e-01f,+1.74214050e-01f,-4.64374460e-02f,-8.52145031e-02f,+2.94855330e-02f,
-1.06336929e-01f,-1.83846802e-01f,-7.73910657e-02f,-1.48934573e-01f,-1.15715317e-01f,
-6.16684258e-02f,-3.62321854e-01f,+4.92907614e-02f,+7.58566707e-02f,-1.46588340e-01f,
-1.06780447e-01f,-7.34151527e-02f,-4.14622901e-03f,-7.08899871e-02f,+8.38521346e-02f,
+3.08193732e-03f,+1.78480789e-01f,-3.15632187e-02f,+6.95747957e-02f,+9.86379310e-02f,
+8.30206051e-02f,+1.16510577e-01f,-1.92526311e-01f,-6.21234663e-02f,+8.15446004e-02f,
+1.13831833e-01f,-5.94242327e-02f,+1.03453666e-01f,+9.82877985e-03f,+1.98722824e-01f,
+8.27443786e-03f,+1.23925738e-01f,+1.27962098e-01f,-5.80528863e-02f,-5.96446777e-03f,
-9.33004171e-02f,-2.34665759e-02f,+3.75805162e-02f,+5.46736568e-02f,-5.06185926e-02f,
+1.56025097e-01f,+1.34222314e-01f,+8.48041698e-02f,+9.45978016e-02f,+1.44472539e-01f,
-1.54583305e-01f,+2.02913731e-01f,+2.21109778e-01f,+1.43511131e-01f,+1.79411754e-01f,
+5.36079332e-02f,+2.56660044e-01f,+1.44743189e-01f,+4.53994758e-02f,-1.27966359e-01f,
-1.88526124e-01f,+1.76588491e-01f,-1.33735269e-01f,+1.09039675e-02f,-9.32914764e-03f,
+5.94676062e-02f,+2.90419776e-02f,+1.39395744e-01f,-9.42004547e-02f,-6.42058700e-02f,
+1.01261176e-01f,+1.20700691e-02f,+1.45425647e-01f,+1.19464867e-01f,+9.71239433e-03f,
+1.34509459e-01f,+7.74559230e-02f,+4.06991765e-02f,+1.76220402e-01f,+2.61002421e-01f,
+2.40439307e-02f,+7.85120353e-02f,+5.52520379e-02f,-2.42682770e-01f,-1.53976932e-01f,
+3.26738209e-02f,+1.07867964e-01f,-2.67875064e-02f,+9.81933847e-02f,+4.26838011e-01f,
+2.17023686e-01f,+1.86454840e-02f,+5.86620420e-02f,-6.43008724e-02f,+1.16827570e-01f,
+2.44557902e-01f,+1.65425345e-01f,+2.03847736e-01f,+4.90094610e-02f,+1.50739372e-01f,
+1.28230616e-01f,+8.32177401e-02f,+2.17881538e-02f,+1.65800452e-01f,+1.49111688e-01f,
+2.70346522e-01f,+8.86667669e-02f,+1.96474686e-01f,+1.52347133e-01f,+1.23446219e-01f,
+6.75948933e-02f,-3.23703811e-02f,+5.39363660e-02f,-1.18033782e-01f,+1.99968711e-01f,
+1.55832916e-01f,+1.33055359e-01f,+2.15824872e-01f,-8.58212262e-03f,+9.66834351e-02f,
-3.37922275e-02f,+1.97935000e-01f,+1.90393984e-01f,+1.31285831e-01f,+1.56873181e-01f,
+1.45874888e-01f,+9.17903185e-02f,+1.03645563e-01f,+4.41027470e-02f,+6.26507998e-02f,
+1.22142164e-02f,+1.34022430e-01f,+7.25559145e-02f,+2.28326861e-02f,+9.09271166e-02f,
+1.35877937e-01f,-2.78521460e-02f,-1.38320953e-01f,-2.13946715e-01f,+1.67738587e-01f,
+4.68118377e-02f,+4.92338724e-02f,+6.40288964e-02f,-1.71950892e-01f,+6.93148002e-02f,
-2.12748758e-02f,-1.05508476e-01f,+7.74454772e-02f,-5.15163802e-02f,+2.79937238e-02f,
+3.66340615e-02f,+1.91822797e-02f,+1.59103014e-02f,-1.69237535e-02f,+3.41845267e-02f,
+3.51717547e-02f,+2.02218220e-01f,+1.90152168e-01f,+2.89470822e-01f,-2.59822030e-02f,
+1.42372623e-01f,+3.30721855e-01f,+3.19608539e-01f,-1.93301942e-02f,-3.27098183e-02f,
-1.47641495e-01f,+2.43779868e-01f,+9.96231288e-02f,+5.74594960e-02f,+4.75569628e-04f,
+1.38039991e-01f,+6.10159412e-02f,+3.19648236e-02f,+3.25915478e-02f,-6.66619018e-02f,
+2.15075597e-01f,-3.19117345e-02f,-2.24851996e-01f,+1.20943867e-01f,+1.14577748e-01f,
+3.04671228e-02f,+2.78002843e-02f,+1.55392820e-02f,+1.54691145e-01f,-1.51831796e-02f,
+1.51117221e-01f,-7.23649561e-03f,+4.75373454e-02f,+6.95476830e-02f,+2.34298453e-01f,
+6.17851205e-02f,-1.53785544e-02f,+9.81685668e-02f,+5.23038916e-02f,-7.61465728e-02f,
-7.54324049e-02f,+1.80965334e-01f,+3.35439220e-02f,-9.76550877e-02f,-8.55016336e-02f,
+2.84191489e-01f,-1.10280126e-01f,+3.71158868e-02f,-5.34228384e-02f,+7.19205439e-02f,
+6.68146387e-02f,+9.04324055e-02f,+8.29098746e-02f,-9.95130613e-02f,+1.90149888e-01f,
+4.12150472e-02f,+9.08588842e-02f,+1.45437256e-01f,-5.31113371e-02f,+5.40685561e-03f,
+1.21681660e-01f,+1.55153781e-01f,+9.31107029e-02f,+1.57485798e-01f,-1.87647697e-02f,
+1.05280042e-01f,+1.35924101e-01f,-5.52133135e-02f,+1.71002284e-01f,+6.87503517e-02f,
+4.56556119e-02f,-1.48290873e-01f,-6.35301247e-02f,+3.50851715e-02f,-9.06075612e-02f,
+4.26691622e-02f,-4.44810800e-02f,+1.39793411e-01f,+2.15595499e-01f,-9.73602310e-02f,
-4.88361567e-02f,+2.15692036e-02f,+1.53818861e-01f,+1.48494691e-01f,+1.24217477e-02f,
+3.98390070e-02f,+2.10691601e-01f,+2.35285699e-01f,+1.10798158e-01f,+5.77343442e-02f,
+7.61457114e-03f,+9.26960930e-02f,-7.64400586e-02f,+4.02480550e-02f,+1.99112892e-01f,
+1.67090148e-01f,+1.06869899e-01f,+1.19399533e-01f,-4.44980040e-02f,+7.24312514e-02f,
+7.23753497e-02f,+6.38750046e-02f,-9.30732563e-02f,+4.64908108e-02f,+8.55717957e-02f,
+5.60203753e-02f,+1.39312223e-01f,+2.04856738e-01f,+3.61967199e-02f,+1.16611756e-02f,
+4.93210740e-02f,+3.02718114e-02f,+8.10555369e-02f,+6.68841973e-02f,-3.68980989e-02f,
-1.14477225e-01f,+5.12773879e-02f,-2.33913790e-02f,+1.18670978e-01f,-4.61558588e-02f,
+6.43539876e-02f,-4.57746312e-02f,-1.76033169e-01f,+1.57778084e-01f,+1.08510852e-01f,
-8.17426294e-02f,+1.13389075e-01f,+2.16983452e-01f,-3.48589942e-02f,-1.65818661e-01f,
+2.05541372e-01f,-1.89597502e-01f,+1.15945362e-01f,+1.12714760e-01f,+9.23035890e-02f,
-2.58466471e-02f,+4.43984717e-02f,+8.68688077e-02f,+5.18241478e-03f,+1.58620134e-01f,
-4.76078615e-02f,+2.55997419e-01f,+1.46326214e-01f,-7.87543356e-02f,+2.09990498e-02f,
-1.25788003e-01f,-7.77825434e-03f,-5.08043682e-03f,+1.78800859e-02f,-1.74314249e-02f,
-2.43180823e-02f,+7.99209923e-02f,-8.40763897e-02f,-1.11291751e-01f,+2.56036296e-02f,
+1.87860683e-01f,+2.83964217e-01f,-1.92362338e-01f,+7.64324144e-02f,+1.62492141e-01f,
-8.00494179e-02f,-3.91486213e-02f,+1.24131322e-01f,-8.89693722e-02f,+1.64247147e-04f,
+1.22259080e-01f,+2.76405290e-02f,-1.30659305e-02f,+5.74770384e-02f,+1.82575524e-01f,
-9.90190357e-02f,-2.24885102e-02f,+1.34781271e-01f,+9.49140415e-02f,-1.06475905e-01f,
+2.50899140e-03f,-2.74902303e-02f,-7.07203671e-02f,+2.17043143e-02f,+3.27668414e-02f,
+5.70535585e-02f,-4.81943935e-02f,-8.87945015e-03f,-6.03274163e-03f,-1.92746334e-02f,
+1.62005529e-01f,-1.05652429e-01f,-1.34241953e-01f,-4.73013194e-03f,-7.63789341e-02f,
+4.83722575e-02f,+6.81430995e-02f,+8.57084095e-02f,+1.46403298e-01f,+6.18057139e-02f,
+1.52350202e-01f,+6.30907416e-02f,+4.37174320e-01f,+1.37477145e-01f,-1.52435899e-01f,
-5.87171353e-02f,-1.04859196e-01f,+5.36703393e-02f,-6.82319328e-02f,+7.19107613e-02f,
-7.34427152e-03f,-1.03545688e-01f,+1.03512995e-01f,-1.97663568e-02f,+1.63299441e-01f,
-1.28458396e-01f,-1.09784519e-02f,+1.09942272e-01f,+9.38647315e-02f,+1.35647193e-01f,
-7.45092332e-02f,+1.53146595e-01f,+7.09726810e-02f,-4.20284569e-02f,+8.48003030e-02f,
-1.18337207e-01f,+1.05987385e-01f,-2.45949507e-01f,+1.54693648e-01f,+1.09694183e-01f,
-6.70422390e-02f,+8.46793056e-02f,+3.94064300e-02f,-3.45913768e-02f,-7.04050511e-02f,
-7.42495582e-02f,+4.58741980e-03f,+9.16371644e-02f,-1.37608185e-01f,+1.13004833e-01f,
-1.49464309e-01f,+1.19890556e-01f,-1.12458944e-01f,-4.87647541e-02f,-2.81218253e-02f,
+1.23089314e-01f,+6.59680739e-02f,+1.11259893e-01f,-1.20120846e-01f,+1.21903576e-01f,
+3.90975922e-02f,+2.98755076e-02f,+9.68024433e-02f,+1.33047044e-01f,+1.22934930e-01f,
+1.15212135e-01f,+2.20880634e-03f,+1.92169957e-02f,+1.66103020e-01f,+6.62807077e-02f,
-2.30670478e-02f,-1.86337978e-02f,+1.30989924e-01f,-6.98107928e-02f,+2.20664725e-01f,
+1.11588491e-02f,+1.13929093e-01f,-2.01521646e-02f,+5.62104695e-02f,+5.28085977e-02f,
-7.48083666e-02f,-8.81081074e-02f,-1.27564579e-01f,-3.18643659e-01f,+3.83304171e-02f,
-1.17247544e-01f,+7.06458390e-02f,-1.52813569e-01f,+2.38477327e-02f,+3.21215056e-02f,
+1.95839442e-02f,+1.25461727e-01f,+4.67764325e-02f,+5.11269718e-02f,-1.45979002e-01f,
-2.53910813e-02f,+1.52914256e-01f,+1.09409168e-01f,+1.67221770e-01f,-1.99510343e-02f,
+1.07189424e-01f,-2.99702883e-02f,+7.62178898e-02f,+1.27042413e-01f,+2.14553311e-01f,
+6.02790006e-02f,+8.13442171e-02f,-2.35678535e-02f,-1.03807058e-02f,-8.67051631e-02f,
+6.29718124e-04f,-6.27705380e-02f,-1.92946032e-01f,-1.91237510e-03f,-1.94515828e-02f,
+1.54278517e-01f,+1.12956367e-01f,+2.79949382e-02f,+2.07333013e-01f,+1.03168026e-01f,
+1.30470488e-02f,+7.69474283e-02f,+1.13813601e-01f,-3.26256803e-03f,+3.57385352e-02f,
-1.13873266e-01f,+2.67307103e-01f,+2.70915598e-01f,+1.95984349e-01f,+5.12817539e-02f,
-1.41750835e-02f,+5.93502931e-02f,+1.04995340e-01f,-3.89114805e-02f,+7.42638251e-03f,
+3.46445590e-02f,-3.49969696e-03f,+2.27315843e-01f,-2.98683885e-02f,-3.28493305e-02f,
+1.07884675e-01f,+5.59895895e-02f,-3.28375995e-02f,+3.19316000e-01f,+2.63325900e-01f,
+1.52096357e-02f,+8.78087878e-02f,-8.78028199e-02f,+1.35842189e-01f,-5.21864928e-02f,
+1.87618602e-02f,+8.93155858e-02f,+1.02789305e-01f,+1.19002014e-01f,+2.43484542e-01f,
-2.90393159e-02f,+1.73874795e-01f,+3.69495079e-02f,+6.01380914e-02f,+1.40453160e-01f,
+9.74170566e-02f,+4.80258428e-02f,-6.07921183e-03f,+1.19515039e-01f,-1.47309586e-01f,
-1.59335375e-01f,-6.12769742e-03f,-1.17808908e-01f,+8.69922563e-02f,-1.49946865e-02f,
-1.34706333e-01f,+9.47156623e-02f,+2.07688123e-01f,+6.98299110e-02f,-5.60913421e-02f,
-8.86995252e-03f,+5.59405200e-02f,-1.02080002e-01f,+2.64971375e-01f,+4.07972783e-02f,
+9.72764567e-02f,-7.59338494e-03f,-1.49328755e-02f,-1.31059941e-02f,+1.05093203e-01f,
+2.61205137e-01f,-1.27606675e-01f,-2.71872599e-02f,+6.71357289e-02f,+8.70946422e-02f,
+1.46636561e-01f,+1.55312434e-01f,+2.03573667e-02f,+7.45023228e-03f,+2.94410717e-02f,
-1.71086371e-01f,+1.82307452e-01f,+1.03154285e-02f,+1.81143612e-01f,+1.10312477e-01f,
-1.24576837e-01f,-1.76980998e-02f,+7.97412619e-02f,-1.30512223e-01f,-2.03900322e-01f,
+2.55961567e-01f,+1.41658798e-01f,-4.33784649e-02f,-6.22431412e-02f,+2.41888892e-02f,
-6.65139258e-02f,-5.87500213e-03f,+1.15482263e-01f,+1.54001638e-01f,-4.38350951e-03f,
-1.16520271e-01f,+8.62336233e-02f,+1.27211362e-01f,-6.42355904e-02f,-6.84690475e-02f,
+1.85780395e-02f,+9.87716764e-02f,-7.80364200e-02f,+1.43373339e-03f,+9.78544950e-02f,
+1.26627311e-01f,+8.44619870e-02f,-1.18292958e-01f,+1.84847519e-01f,+6.20320216e-02f,
-8.99654906e-03f,-7.04627410e-02f,-1.26437917e-01f,-8.29076841e-02f,+2.18434826e-01f,
+3.40798534e-02f,+5.54802865e-02f,+1.49447426e-01f,+1.65324971e-01f,-1.14834111e-03f,
-1.07152760e-01f,+3.63145471e-02f,+9.49149951e-02f,+5.71902618e-02f,-1.29284814e-01f,
+1.54666424e-01f,+4.17920686e-02f,+1.51511561e-02f,+7.28075206e-02f,+1.98057771e-01f,
-3.00954804e-02f,+9.76086333e-02f,+3.56606320e-02f,+8.32911208e-03f,+9.97074321e-02f,
+1.76300302e-01f,+1.50533775e-02f,-1.16770551e-01f,-5.65217622e-02f,+1.17608756e-01f,
+1.03929624e-01f,-5.05732261e-02f,+1.55103311e-01f,+1.96192354e-01f,+2.83124447e-01f,
-2.08947733e-02f,+7.42316842e-02f,+8.18463713e-02f,+1.52987279e-02f,+2.30356380e-02f,
+1.03443347e-01f,-1.68522194e-01f,-3.29244621e-02f,+1.55396536e-01f,+7.76204318e-02f,
+5.18219434e-02f,+2.49961898e-01f,+8.48472565e-02f,+8.92304629e-02f,+8.88887886e-03f,
-1.83166921e-01f,+5.22183403e-02f,+7.17562065e-02f,+7.59935379e-02f,-5.37860487e-03f,
-1.79423943e-01f,+1.18789777e-01f,+7.41279498e-02f,+1.02486566e-01f,+7.43471310e-02f,
-4.52437773e-02f,+2.29683787e-01f,-9.26467404e-03f,+8.97293985e-02f,+1.82720665e-02f,
+3.10555403e-03f,+3.14524584e-02f,+1.63891375e-01f,-1.39242649e-01f,+4.54760306e-02f,
-2.00334683e-01f,+9.34510008e-02f,+7.97892585e-02f,+1.47607952e-01f,+2.81448364e-01f,
+7.64533579e-02f,-1.54612616e-01f,+1.37725892e-02f,+1.59508795e-01f,+1.29837096e-01f,
+2.07672819e-01f,+2.22311750e-01f,+1.71342701e-01f,-1.37674451e-01f,+1.73883036e-01f,
+4.07286078e-01f,+1.31656185e-01f,+1.08451180e-01f,+4.07300964e-02f,+8.85962397e-02f,
+4.93031517e-02f,+1.31434351e-01f,-5.04267868e-03f,+1.34051964e-01f,-1.49500236e-01f,
+2.10217461e-01f,+2.55761966e-02f,+2.53529429e-01f,-1.64215133e-01f,+1.18499575e-02f,
-4.74118702e-02f,+1.69194147e-01f,+1.50640875e-01f,+1.06618777e-01f,-4.62800637e-02f,
-3.94778401e-02f,+1.13406181e-01f,+1.23197712e-01f,+1.23327158e-01f,+2.14693949e-01f,
+1.36795983e-01f,+3.46490368e-02f,+1.44653380e-01f,+3.68025638e-02f,+6.25196397e-02f,
+1.57091826e-01f,+2.69363970e-01f,+1.01260059e-01f,+1.40088767e-01f,+1.04968190e-01f,
+7.91582614e-02f,+8.67063701e-02f,+1.92327961e-01f,+1.66045874e-01f,-1.91339388e-01f,
+6.91169500e-02f,-1.30648494e-01f,-1.49797529e-01f,-1.21972494e-01f,+2.85506010e-01f,
+1.56241372e-01f,+1.53841883e-01f,+1.59278810e-01f,-1.90917850e-02f,-5.27209379e-02f,
-2.43877009e-01f,+1.92593232e-01f,+2.74110623e-02f,+2.98682731e-02f,+1.17562369e-01f,
-2.28638172e-01f,+1.33302007e-02f,-1.73096046e-01f,-5.17319478e-02f,+1.14866547e-01f,
+1.62307620e-01f,-1.39234349e-01f,-1.55856192e-01f,+1.30268991e-01f,+4.79680905e-03f,
+8.01361874e-02f,+2.05251873e-02f,+1.21698208e-01f,-9.43489671e-02f,+8.11009705e-02f,
-1.01402558e-01f,+1.18685834e-01f,+1.60075516e-01f,-5.06527014e-02f,+4.46580946e-02f,
+2.97339913e-02f,+2.36088917e-01f,-5.18755354e-02f,-3.07546407e-02f,+3.04650038e-01f,
+1.36159584e-01f,+2.98894085e-02f,+1.52071983e-01f,-4.36615944e-02f,+1.95105046e-01f,
+8.68166834e-02f,+1.86984316e-02f,+2.93152541e-01f,+1.43950716e-01f,+3.97468776e-01f,
+2.40640000e-01f,+3.04929707e-02f,-4.56922799e-02f,+2.72003084e-01f,+9.50824171e-02f,
+3.37104827e-01f,+2.86957547e-02f,-1.36327982e-01f,+1.74866483e-01f,-7.80401402e-04f,
+1.29446536e-01f,+1.60871387e-01f,+1.48660809e-01f,+1.21672645e-01f,-1.38126006e-02f,
-7.52822682e-02f,-1.94642805e-02f,+2.09940728e-02f,+5.57761174e-03f,-1.46453511e-02f,
-2.74982452e-01f,+1.31901845e-01f,+1.01482704e-01f,+3.83509994e-01f,+1.62820756e-01f,
+1.94550976e-01f,+1.18653290e-01f,-2.51821596e-02f,+1.41924366e-01f,+1.87605262e-01f,
-9.08982474e-03f,+1.37351245e-01f,+8.33591968e-02f,-2.09421553e-02f,-1.50577471e-01f,
+1.18267819e-01f,+2.07059663e-02f,-5.33215553e-02f,+8.59969854e-02f,+2.37600565e-01f,
+9.96102989e-02f,+1.23239398e-01f,+2.70632654e-02f,+1.24685336e-02f,-2.00903174e-02f,
+1.78726360e-01f,-1.70527641e-02f,+1.27374932e-01f,+2.12434083e-01f,-2.67444439e-02f,
-7.58380070e-02f,+1.61929131e-01f,-2.11311616e-02f,-2.58316030e-03f,+3.72516423e-01f,
-2.02918053e-01f,+2.47069195e-01f,+9.33061466e-02f,-1.56654567e-01f,+2.54726410e-01f,
+1.08493991e-01f,+2.57640064e-01f,+7.28431791e-02f,+6.05266578e-02f,+8.41015428e-02f,
+5.52188270e-02f,+2.00833678e-01f,-1.24041840e-01f,-1.58922717e-01f,+1.62884727e-01f,
+2.79844671e-01f,-1.23001114e-01f,+1.57183766e-01f,+7.16863498e-02f,-2.94084307e-02f,
-8.14393312e-02f,+7.39159714e-03f,+1.01641655e-01f,+2.05091134e-01f,-4.42797430e-02f,
+2.07152039e-01f,-1.18438289e-01f,+1.19828328e-01f,+3.37778889e-02f,+5.53661473e-02f,
+7.16379657e-02f,-7.54249170e-02f,-9.86545086e-02f,+2.20142096e-01f,+1.14335895e-01f,
+1.02740102e-01f,-9.48798358e-02f,-6.80270717e-02f,+7.08026066e-02f,+1.69430614e-01f,
-5.90498485e-02f,-1.08159371e-01f,-5.70958443e-02f,+2.13650037e-02f,+1.76893845e-02f,
+1.30314842e-01f,-1.32133946e-01f,-1.80156648e-01f,+1.16448961e-01f,+1.19287618e-01f,
-3.40405926e-02f,+2.11465582e-02f,+2.37517003e-02f,-2.41367459e-01f,+1.54404372e-01f,
+2.23646790e-01f,+1.24840721e-01f,+4.14143428e-02f,+1.07594281e-01f,-1.03070932e-02f,
+2.77821887e-02f,+1.95821553e-01f,-5.29317744e-02f,+1.05472632e-01f,+2.16052845e-01f,
+9.39278230e-02f,+6.71833679e-02f,+2.16820359e-01f,+8.64277855e-02f,+3.70215029e-02f,
-6.99192211e-02f,+8.30701590e-02f,-3.79677452e-02f,+3.42372842e-02f,+1.73648149e-02f,
+2.43966773e-01f,+1.11077540e-01f,+5.28038852e-03f,-1.30416200e-01f,+3.38209383e-02f,
+2.09785566e-01f,-6.32769843e-06f,-1.91691115e-01f,+1.10358380e-01f,+9.13921967e-02f,
-5.85763110e-03f,-9.48804095e-02f,+6.89177355e-03f,+6.90888688e-02f,+2.80578490e-02f,
-2.24652719e-02f,+1.74428195e-01f,-2.56377347e-02f,-2.04542220e-01f,-8.76782238e-02f,
-9.80092958e-03f,+1.26954630e-01f,+2.49463975e-01f,+1.32471561e-01f,+4.82730046e-02f,
-1.08662479e-01f,-6.71595987e-03f,+1.34601220e-01f,-1.83525205e-01f,+6.75176531e-02f,
-1.29937515e-01f,+3.50793041e-02f,+1.59725055e-01f,+3.32211345e-01f,+1.44521266e-01f,
+1.16526149e-01f,-2.79138051e-02f,+1.04394779e-01f,-8.07520971e-02f,+1.03746869e-01f,
+2.27515012e-01f,+4.44527939e-02f,+1.07898258e-01f,-2.84747332e-02f,+3.13375071e-02f,
-8.55660811e-03f,-3.75950290e-03f,+3.06004342e-02f,+2.11409122e-01f,+2.69252639e-02f,
+1.41523359e-02f,+4.75475974e-02f,+1.85596719e-01f,-1.01054788e-01f,+4.71917279e-02f,
+7.82241449e-02f,+7.67084658e-02f,+8.69954303e-02f,-2.18931854e-01f,+7.90144354e-02f,
-3.42159010e-02f,+1.48404181e-01f,+5.82338264e-03f,-9.98372864e-03f,-2.59297848e-01f,
-3.08548529e-02f,+1.43784387e-02f,+3.48160677e-02f,-7.34930113e-02f,+4.76151658e-03f,
+4.85772826e-02f,+8.42523351e-02f,+2.33013481e-01f,+1.63732469e-01f,-8.60474631e-03f,
+1.05808243e-01f,-3.38425040e-02f,-9.12855268e-02f,-4.92058955e-02f,+1.15680546e-01f,
-7.69876167e-02f,-6.74789548e-02f,-9.42748971e-03f,+4.90957014e-02f,-3.62729393e-02f,
+1.56892985e-01f,+3.57670896e-02f,+3.71567234e-02f,-1.79700240e-01f,+1.43170401e-01f,
-1.56294152e-01f,-1.42012805e-01f,+3.26825716e-02f,-1.14158643e-02f,+7.24167889e-03f,
+1.28901958e-01f,+2.60131806e-01f,-4.09084633e-02f,-9.85716209e-02f,+2.62877587e-02f,
-2.74233699e-01f,-2.27173984e-01f,+1.39542893e-01f,-2.23342031e-02f,+1.16849191e-01f,
+2.09529176e-01f,-1.39083683e-01f,+5.35962696e-04f,+4.55453321e-02f,+4.36593518e-02f,
+3.41006704e-02f,+5.41813264e-04f,-7.24828802e-03f,+1.26531139e-01f,+1.25653282e-01f,
+3.80074419e-02f,+8.32204670e-02f,-3.52011696e-02f,+3.33346538e-02f,-3.02938726e-02f,
+3.37662041e-01f,-1.23661816e-01f,+1.32762445e-02f,-4.40101139e-02f,+2.17405111e-01f,
+2.10853666e-01f,+1.54624879e-01f,+1.01300195e-01f,+4.00356483e-03f,+8.92866924e-02f,
+8.60514790e-02f,+6.33828938e-02f,-1.49590462e-01f,+1.23400742e-03f,+3.67959328e-02f,
+2.14598060e-01f,-2.03409772e-02f,+4.52348478e-02f,+9.11865532e-02f,-1.19997757e-02f,
-2.21630223e-02f,-9.17338878e-02f,+4.85914350e-02f,+9.19682905e-02f,-2.11113021e-02f,
+1.66392669e-01f,-1.02864364e-02f,+2.14894146e-01f,-1.09805360e-01f,+5.61908521e-02f,
+1.39919832e-01f,+3.61798145e-02f,-1.42826080e-01f,-4.93825823e-02f,+1.54515818e-01f,
-5.39362468e-02f,+2.00371772e-01f,+2.31074482e-01f,+1.27507240e-01f,-7.57272467e-02f,
+3.92364115e-02f,-3.88045497e-02f,+8.32167268e-02f,+4.97800857e-02f,+2.75216401e-02f,
+5.53133562e-02f,+2.88850695e-01f,+1.60705149e-02f,+6.67284131e-02f,-6.82312176e-02f,
+6.09282963e-02f,+2.37040937e-01f,+6.17053509e-02f,+1.01422809e-01f,-1.34556787e-02f,
+1.63994562e-02f,+5.81324175e-02f,+1.07623283e-02f,+3.68109271e-02f,+1.59568608e-01f,
+2.62620181e-01f,+1.29960790e-01f,-2.09343107e-03f,-1.91150725e-01f,-1.11316569e-01f,
+7.57249370e-02f,+3.72609347e-01f,-1.60462540e-02f,+6.19958527e-02f,-7.43580163e-02f,
+6.67264014e-02f,+1.20314114e-01f,+1.67146295e-01f,+5.27697057e-02f,+2.52051614e-02f,
+1.56290695e-01f,+1.32686883e-01f,+2.00370714e-01f,+2.52381135e-02f,-2.46984124e-01f,
-2.74899676e-02f,+5.57408631e-02f,-1.16751306e-01f,-2.49975324e-01f,+9.71564651e-02f,
+1.45099252e-01f,+4.47688513e-02f,-7.90392011e-02f,-7.85268024e-02f,-1.53833598e-01f,
-9.73751247e-02f,+2.47601926e-01f,+9.71478894e-02f,+1.57758355e-01f,+3.05548817e-01f,
-9.09962431e-02f,+4.61998442e-03f,-3.46155524e-01f,-2.87158735e-04f,-9.12677124e-02f,
-1.70101821e-01f,-4.90575992e-02f,-2.12556254e-02f,+3.56989950e-02f,+2.17046827e-01f,
+6.50832206e-02f,+1.86165452e-01f,+1.04709446e-01f,-6.94498420e-02f,+1.66566502e-02f,
+2.12088339e-02f,+4.42491323e-02f,+5.63278496e-01f,+3.95158567e-02f,+7.89996758e-02f,
+1.16636686e-01f,-4.86332104e-02f,-5.15048988e-02f,+1.24461047e-01f,+7.65749291e-02f,
+5.35854250e-02f,-1.48247182e-01f,+8.26391056e-02f,+1.10652298e-01f,+7.57305026e-02f,
-1.55982032e-01f,+2.66619772e-02f,+6.58091977e-02f,+1.04570977e-01f,-3.48981954e-02f,
-6.02171049e-02f,+5.91320507e-02f,+7.32697994e-02f,+1.90253094e-01f,-1.88850746e-01f,
+2.29326367e-01f,+2.20915020e-01f,-1.11299440e-01f,+7.93611258e-02f,-3.13353650e-02f,
+2.88825557e-02f,+1.21534616e-01f,+5.83974347e-02f,+2.11812537e-02f,+1.28009915e-01f,
-1.88541487e-02f,+6.71219528e-02f,+2.45732386e-02f,+2.66311076e-02f,-3.58417490e-03f,
+4.38774489e-02f,+1.06312916e-01f,+8.02436769e-02f,+1.48294285e-01f,-9.09451582e-03f,
+1.43615767e-01f,+6.68863505e-02f,+8.81390348e-02f,+1.11481741e-01f,-6.32749870e-02f,
+2.70835310e-03f,+1.35474443e-01f,+8.64802599e-02f,+1.55992895e-01f,-4.95247245e-02f,
-9.60062258e-03f,+6.67993203e-02f,-6.55094311e-02f,+2.21416160e-01f,-6.93147406e-02f,
+6.76908270e-02f,+1.33734062e-01f,+1.18861139e-01f,+1.92643404e-01f,+1.45125479e-01f,
-9.64291990e-02f,-2.21640676e-01f,-9.70186479e-03f,+2.05741540e-01f,+1.06244370e-01f,
+1.52779460e-01f,-1.57755334e-02f,+2.84096468e-02f,-5.83693571e-02f,+1.08712213e-02f,
-7.30211139e-02f,+2.14954868e-01f,+1.97846238e-02f,-1.12502135e-01f,+1.02112122e-01f,
+1.36334553e-01f,+1.72000900e-01f,+2.00094357e-02f,-1.16844818e-01f,+3.83474678e-01f,
+1.75517127e-01f,-1.37545198e-01f,-4.29031737e-02f,+1.15107939e-01f,-5.92399165e-02f,
-2.97995564e-02f,-7.38801435e-02f,+1.65332571e-01f,+2.23921582e-01f,+2.49034707e-02f,
+1.32669928e-02f,+3.18095714e-01f,+4.46335301e-02f,+2.60624737e-01f,-1.44086583e-02f,
-2.68684059e-01f,+4.45313156e-01f,+2.61712493e-03f,+1.46259472e-01f,+3.99651974e-02f,
+7.45499656e-02f,-1.45394623e-01f,+4.17131245e-01f,-3.97696123e-02f,+9.09655616e-02f,
-1.67055666e-01f,+2.45572448e-01f,-4.63727042e-02f,+3.29620570e-01f,+1.06275335e-01f,
+1.68033347e-01f,+1.82338983e-01f,+1.15817718e-01f,+2.30723638e-02f,-7.13969842e-02f,
-1.21634565e-02f,+9.79977325e-02f,+1.21782133e-02f,+9.45696458e-02f,+1.93228632e-01f,
+8.93511921e-02f,+1.43847819e-02f,-1.64084524e-01f,+7.44318664e-02f,+2.88706347e-02f,
-2.01758340e-01f,+1.59880012e-01f,+1.59831062e-01f,-9.99823660e-02f,+2.89298207e-01f,
+1.96718469e-01f,-1.96989309e-02f,+2.47152060e-01f,+1.82290912e-01f,+1.70131341e-01f,
-4.12643366e-02f,+1.49089009e-01f,-1.17837992e-02f,+2.34390765e-01f,+2.04208470e-03f,
+1.98780566e-01f,+1.15026802e-01f,-4.08147834e-02f,-3.07556819e-02f,+1.38536468e-01f,
+2.45627895e-01f,+5.17284051e-02f,+4.64411303e-02f,-2.25293357e-02f,+5.12828007e-02f,
+1.84264183e-01f,+1.30018741e-01f,+2.52169609e-01f,+1.01331919e-01f,+3.36047299e-02f,
+7.76145905e-02f,+8.37507620e-02f,+9.49193537e-02f,+5.55081032e-02f,+5.63875027e-02f,
-1.59340668e-02f,+3.18984315e-02f,+4.24428284e-02f,+1.18767813e-01f,+6.93532154e-02f,
+5.50619625e-02f,+1.29351720e-01f,+8.05247277e-02f,+1.27594814e-01f,+6.75939098e-02f,
+3.07920086e-03f,-1.92227419e-02f,+4.31479961e-02f,+7.50772357e-02f,+1.55818075e-01f,
+1.36830881e-01f,-5.34417778e-02f,+3.25015150e-02f,-2.11892463e-02f,+1.87317595e-01f,
+8.52788389e-02f,+1.65727615e-01f,-4.47460189e-02f,+1.11775964e-01f,+9.30794179e-02f,
+2.78022569e-02f,+1.28595993e-01f,+1.11914486e-01f,+2.30894595e-01f,+3.57867479e-02f,
+1.72774836e-01f,+1.31847098e-01f,+7.36619253e-03f,+1.26838088e-01f,+3.29412557e-02f,
+2.26813573e-02f,+3.75267677e-02f,-6.86565340e-02f,+4.66422439e-02f,+1.24105670e-01f,
+1.12489052e-02f,+7.80854300e-02f,+8.03330690e-02f,+1.20520830e-01f,+9.02120769e-02f,
+4.19019014e-02f,+2.22019568e-01f,+8.85642841e-02f,+7.08404277e-03f,-3.57694626e-01f,
+1.02968309e-02f,+1.33993983e-01f,-2.63490416e-02f,-6.98392242e-02f,+2.14081958e-01f,
+3.14052552e-02f,+9.73305628e-02f,+1.73192695e-02f,+6.29509240e-02f,+6.20298237e-02f,
-4.28681076e-02f,+1.14440195e-01f,+1.12663083e-01f,+7.39044622e-02f,+1.10342443e-01f,
+1.37129426e-01f,+9.94691402e-02f,-1.12809099e-01f,+1.44179717e-01f,+1.58850834e-01f,
+1.36391282e-01f,+1.37178317e-01f,+2.24042952e-01f,+9.78495851e-02f,+6.66476935e-02f,
+1.62183195e-01f,+7.85391182e-02f,+1.74659625e-01f,+2.07956657e-01f,-4.40962194e-03f,
-9.20127854e-02f,+2.24551365e-01f,+9.76523906e-02f,+1.42667234e-01f,+8.27386230e-03f,
+9.23542678e-02f,+6.41908422e-02f,+2.80218333e-01f,+8.76124576e-02f,+4.98983413e-02f,
+3.36263217e-02f,+1.27160832e-01f,+4.54599857e-02f,+7.13462308e-02f,+4.93176654e-02f,
-4.34567593e-02f,+5.19491248e-02f,+8.61499310e-02f,+1.08961001e-01f,+8.06764215e-02f,
-2.60734707e-01f,-9.70458984e-02f,+7.74569884e-02f,+1.50286108e-01f,+1.22760989e-01f,
+2.84273867e-02f,+5.90819828e-02f,+5.67715541e-02f,+1.40793361e-02f,-1.33911610e-01f,
+6.90316930e-02f,-2.45146398e-02f,+1.25376359e-01f,+2.46834725e-01f,+8.23443979e-02f,
+2.23288044e-01f,+1.76829785e-01f,+3.67366970e-02f,+8.37540701e-02f,+9.12081525e-02f,
+1.53477982e-01f,+1.56849235e-01f,+1.29132196e-01f,+9.78233814e-02f,+4.07561027e-02f,
-2.27074306e-02f,-4.62895371e-02f,-8.27965662e-02f,+2.36869186e-01f,+3.52593651e-03f,
-1.02947662e-02f,+1.49446666e-01f,+1.79486707e-01f,+1.23088084e-01f,+2.00267121e-01f,
+2.70412751e-02f,+2.46163681e-01f,+9.07638669e-02f,+9.73652229e-02f,+7.17699677e-02f,
-1.45942923e-02f,+2.28135169e-01f,-6.05936125e-02f,+2.33487058e-02f,-3.35060582e-02f,
+1.27286479e-01f,+1.47751346e-01f,+1.72801375e-01f,+1.36636347e-01f,+1.93148106e-01f,
+1.85529277e-01f,+1.61841959e-01f,+8.58525261e-02f,+8.89681429e-02f,+1.58018649e-01f,
+1.55605078e-01f,-5.13479337e-02f,+3.96354198e-02f,+9.33773741e-02f,+1.09523162e-01f,
+1.87698275e-01f,-1.58269167e-01f,+2.17661023e-01f,+6.16459064e-02f,+4.36138436e-02f,
+2.46690467e-01f,+9.15801451e-02f,-1.45462692e-01f,+5.78135550e-02f,+7.32263774e-02f,
+1.29302412e-01f,-5.09813577e-02f,-5.23456298e-02f,+2.83342134e-02f,+1.22026391e-01f,
+1.75306737e-01f,-2.69748494e-02f,-5.12983687e-02f,+1.18622027e-01f,+5.71837984e-02f,
+4.32096384e-02f,+7.88628682e-02f,+8.92403498e-02f,+7.94877931e-02f,+1.20887615e-01f,
-2.72769090e-02f,+6.51773885e-02f,+9.19543877e-02f,+3.84392217e-03f,+2.39865005e-01f,
+9.73318443e-02f,+9.62945372e-02f,+7.57566765e-02f,+8.60310569e-02f,+4.74591441e-02f,
+1.09568387e-01f,+1.09217435e-01f,+6.88324496e-02f,+9.33802500e-02f,-4.61512059e-03f,
+2.85289902e-02f,+2.24014699e-01f,-6.19084276e-02f,+1.56421249e-03f,-5.20173274e-02f,
+9.49553773e-02f,-7.22630024e-02f,+1.00323655e-01f,+1.56884402e-01f,-2.89196731e-03f,
-1.82146244e-02f,+1.30821630e-01f,-3.87670249e-02f,+2.94764619e-02f,+1.73143849e-01f,
+2.64333393e-02f,+1.64268121e-01f,+2.02390268e-01f,+1.52151525e-01f,+3.51581685e-02f,
-7.01712398e-03f,+1.08162947e-01f,-6.12830333e-02f,+8.71816278e-02f,+1.19924419e-01f,
+1.23936713e-01f,+7.78030753e-02f,+1.56948492e-02f,+9.27999690e-02f,+1.50801957e-01f,
+5.27464375e-02f,-5.10836430e-02f,+1.42373532e-01f,+1.08739033e-01f,+1.51400819e-01f,
-4.70757447e-02f,+7.31893629e-02f,+1.91708684e-01f,+3.02799400e-02f,+5.66999465e-02f,
+1.41957760e-01f,+1.01535052e-01f,-8.82797968e-03f,+1.66812718e-01f,+8.05890188e-02f,
+1.84633479e-01f,+1.21004239e-01f,+8.27481076e-02f,+1.61119834e-01f,+1.65772811e-02f,
+1.96513146e-01f,-3.95644188e-01f,+2.03504842e-02f,+6.76733851e-02f,+5.19278124e-02f,
+5.64577654e-02f,+6.40121624e-02f,-6.02323934e-03f,+2.18667373e-01f,+4.14712355e-02f,
-1.46511674e-01f,+8.27187076e-02f,-5.13351895e-02f,+1.57150161e-02f,-6.04667254e-02f,
+9.22448486e-02f,-4.39663008e-02f,+9.72885415e-02f,+1.55444564e-02f,+1.36042893e-01f,
-9.50008556e-02f,+4.37893867e-02f,-1.68289617e-01f,+1.27821341e-01f,+4.86469902e-02f,
-3.93743580e-03f,+7.06322417e-02f,+4.77832975e-03f,+1.02179952e-01f,+2.29257122e-02f,
+8.45365599e-02f,+9.20587629e-02f,+1.02327846e-01f,-3.12852971e-02f,-1.15182318e-01f,
+1.33984283e-01f,+1.78592533e-01f,+9.36985165e-02f,-6.35395348e-02f,+1.32483900e-01f,
-1.59334287e-01f,-2.96048746e-02f,+1.30307376e-01f,-1.00495946e-02f,+7.63889030e-02f,
+6.45437017e-02f,-8.88606086e-02f,+9.05258432e-02f,-3.58336940e-02f,+7.43034929e-02f,
+7.79306367e-02f,+2.70327568e-01f,-1.34469504e-02f,+4.24312381e-03f,+6.46655262e-02f,
+2.71686107e-01f,+8.11388642e-02f,+1.83193460e-01f,-8.23469758e-02f,+3.85202877e-02f,
+8.31766874e-02f,+1.24688372e-01f,+9.37668234e-02f,+8.27353373e-02f,+3.62574011e-01f,
-1.56410970e-04f,+7.25642145e-02f,+1.38289273e-01f,+4.50629741e-02f,+4.56398539e-02f,
-2.99091525e-02f,+9.98828374e-03f,+1.11348264e-01f,+8.94774944e-02f,-1.90679953e-02f,
+1.25792786e-01f,-9.84923840e-02f,-2.36131996e-02f,+1.13174066e-01f,-8.57529342e-02f,
+1.50907218e-01f,-7.15793073e-02f,+9.41263884e-02f,+1.05349056e-01f,+2.28994220e-01f,
+3.79503183e-02f,+2.10456356e-01f,-2.32613921e-01f,-8.93556804e-04f,+8.46399143e-02f,
-3.81592475e-02f,+3.88451219e-02f,-3.57786454e-02f,+1.01775214e-01f,+1.45663887e-01f,
-1.22505631e-02f,+1.10881969e-01f,-2.28291750e-01f,+7.94784650e-02f,-1.00563159e-02f,
+1.96874931e-01f,-2.40192693e-02f,+1.09475426e-01f,+1.16347723e-01f,+9.31712389e-02f,
+1.33222863e-01f,+1.10966340e-01f,+1.46282196e-01f,+2.17864420e-02f,-3.66743021e-02f,
+9.51719210e-02f,+1.54797733e-01f,-1.02057785e-01f,+4.18095067e-02f,-1.25606552e-01f,
+1.71555936e-01f,+2.12316364e-01f,-3.15977894e-02f,+1.27267301e-01f,-6.58717602e-02f,
+9.26266685e-02f,-5.59999421e-02f,+7.58191124e-02f,+9.32935253e-02f,-2.51306266e-01f,
-8.25526491e-02f,-1.61931738e-01f,-4.43802401e-02f,+4.81585652e-01f,+1.16872653e-01f,
+1.86465621e-01f,-1.51255921e-01f,+4.25628461e-02f,+1.05620548e-01f,+1.30151093e-01f,
-5.63836247e-02f,+8.41790512e-02f,-3.96839529e-03f,+4.06368487e-02f,+2.23081529e-01f,
+5.28122969e-02f,-3.41250822e-02f,-1.80127751e-02f,-2.81321034e-02f,+4.15610336e-02f,
-2.31962334e-02f,+1.48028046e-01f,+1.05685964e-01f,-1.55737385e-01f,+2.10673258e-01f,
+1.43340662e-01f,+6.31539002e-02f,+1.06165327e-01f,+3.84400296e-03f,+7.98396841e-02f,
+8.30603316e-02f,+1.69037998e-01f,-2.67016273e-02f,+9.75551978e-02f,+1.27007276e-01f,
+1.48073554e-01f,+3.56739730e-01f,+6.24054857e-02f,-5.90938628e-02f,+1.80841871e-02f,
-2.56064013e-02f,-1.29686579e-01f,-5.70571646e-02f,+1.76902369e-01f,+5.81446253e-02f,
+7.41966665e-02f,+8.33957046e-02f,-2.32931525e-02f,+1.89712236e-03f,+1.39645636e-01f,
+2.38407739e-02f,+5.65452352e-02f,+6.47559762e-02f,+1.68550417e-01f,-9.14249271e-02f,
+1.35493502e-01f,+3.48890461e-02f,+5.97649906e-03f,+1.50474370e-01f,+2.90556345e-02f,
+7.94367194e-02f,+8.66442472e-02f,+1.49758831e-01f,+2.86913663e-02f,+2.01254159e-01f,
+7.14601576e-02f,+3.29377167e-02f,+1.28656015e-01f,+1.06648043e-01f,+2.75156442e-02f,
+4.45933491e-02f,+1.91537365e-01f,+1.01797596e-01f,+9.15839523e-03f,+6.43167645e-02f,
-3.92700396e-02f,-7.20470324e-02f,+2.59819448e-01f,+8.16605687e-02f,-1.30190775e-01f,
+5.78343421e-02f,+6.73937052e-03f,+8.39947462e-02f,+8.49582553e-02f,+1.67056784e-01f,
+7.14630559e-02f,+9.03850868e-02f,+3.02346230e-01f,+6.22302853e-02f,+6.46766648e-02f,
+1.35589689e-01f,+6.71334416e-02f,+1.68150380e-01f,-2.96998098e-02f,+6.79557100e-02f,
+2.83523798e-02f,+7.67455250e-02f,+1.12527303e-01f,+2.14100122e-01f,+6.93127140e-02f,
-8.69971514e-02f,+3.37352753e-02f,+1.49641901e-01f,+1.96649492e-01f,+1.07181616e-01f,
+7.66139105e-02f,-5.86249307e-02f,+1.78877518e-01f,-8.98050889e-02f,+1.35260582e-01f,
+7.51481112e-03f,+1.48192048e-01f,+1.09470412e-01f,-1.04245897e-02f,+6.64080540e-03f,
+6.12114258e-02f,-1.19868122e-01f,+8.37769508e-02f,+3.86491418e-02f,+2.19802987e-02f,
+2.04395622e-01f,+1.32318676e-01f,+2.19304487e-02f,+1.38461679e-01f,+3.74953479e-01f,
+1.31405398e-01f,-1.09302523e-02f,+1.29055843e-01f,-7.15891793e-02f,-5.04488535e-02f,
+2.02549145e-01f,+1.28934503e-01f,+9.57005098e-02f,-3.35047469e-02f,-6.22189827e-02f,
+1.06655709e-01f,+9.24133435e-02f,-3.14371102e-02f,+1.55673638e-01f,+1.17304541e-01f,
+6.29026517e-02f,-4.97073457e-02f,+2.15088427e-01f,+6.51163608e-02f,-1.24666773e-01f,
+2.02301182e-02f,+1.65473953e-01f,+1.11382931e-01f,+6.47399276e-02f,+1.60049126e-02f,
+8.64987299e-02f,+5.56292459e-02f,+1.85392573e-01f,+6.43621245e-03f,+5.93291037e-02f,
+6.60628155e-02f,+4.65629771e-02f,-1.16493730e-02f,-1.70323513e-02f,+4.46252488e-02f,
+7.30251893e-02f,-4.70686667e-02f,-4.86108810e-02f,+5.36419339e-02f,+1.30090907e-01f,
-2.74726115e-02f,+1.71344891e-01f,+2.08361447e-02f,+1.49758354e-01f,+2.28323102e-01f,
-1.41370267e-01f,-1.37163140e-02f,+1.38286456e-01f,+1.28955305e-01f,-8.85625184e-02f,
-7.42196292e-02f,+5.36751673e-02f,-1.43666506e-01f,+3.10382657e-02f,-4.18336168e-02f,
+1.96311459e-01f,-2.09186375e-02f,+1.04080677e-01f,+5.16012721e-02f,+6.28974140e-02f,
+3.40137444e-02f,+1.01924390e-01f,+6.67043477e-02f,-9.89218131e-02f,+6.62861094e-02f,
+2.42116097e-02f,-1.88497916e-01f,+4.82076034e-02f,+3.35279107e-02f,+1.40524238e-01f,
+7.44969994e-02f,+2.41490081e-02f,+9.40268040e-02f,+1.65181413e-01f,+6.90603629e-02f,
-4.62233685e-02f,+7.32322484e-02f,+9.35171694e-02f,+2.79253465e-04f,+1.39314588e-02f,
-2.49895882e-02f,+2.61865139e-01f,+2.54534125e-01f,+1.80595174e-01f,+6.56925738e-02f,
-3.89654897e-02f,-6.28847480e-02f,-1.21945478e-01f,-8.02937225e-02f,+9.21930745e-02f,
-2.09442172e-02f,+1.67219341e-01f,+6.22540191e-02f,-2.12566238e-02f,+1.01367325e-01f,
+1.25755236e-01f,+7.34356493e-02f,+1.34009033e-01f,+1.82306632e-01f,+1.41761810e-01f,
+2.13487353e-02f,+2.41477802e-01f,-5.66609614e-02f,+2.03988459e-02f,+9.81635526e-02f,
+1.83738656e-02f,+1.34066194e-01f,+2.13545218e-01f,-3.35412435e-02f,+9.97556467e-03f,
-2.67513376e-02f,+4.32710014e-02f,+1.50906846e-01f,-1.14814945e-01f,+7.30374921e-03f,
-4.42353599e-02f,-2.82694902e-02f,+2.06009418e-01f,+2.35222667e-01f,-6.61384463e-02f,
-3.17677073e-02f,+1.99240029e-01f,-1.36351574e-03f,+2.58233786e-01f,+1.48066118e-01f,
+2.27491468e-01f,-2.55433377e-02f,-1.46841466e-01f,+3.54391783e-02f,+1.59091845e-01f,
+8.83884653e-02f,-2.96341088e-02f,+9.96108726e-02f,+8.03922415e-02f,+8.84172320e-02f,
+6.05361070e-03f,+1.93913251e-01f,-6.05118759e-02f,+1.52390361e-01f,-1.85749400e-02f,
+2.93365508e-01f,+7.78778642e-02f,-8.26757401e-02f,+6.98503405e-02f,+7.72943050e-02f,
-6.18943386e-02f,+1.64606750e-01f,+2.01802701e-03f,+1.50939807e-01f,+2.57399604e-02f,
-3.15028317e-02f,+3.16108093e-02f,+1.74137503e-01f,+9.23023075e-02f,-8.44553695e-04f,
+2.12876163e-02f,+2.01690450e-01f,-5.47188371e-02f,+2.01010361e-01f,-3.82384583e-02f,
+1.36187196e-01f,-1.13789558e-01f,-1.33345634e-01f,+8.14000443e-02f,+7.87978545e-02f,
+2.27896497e-01f,+1.32704198e-01f,-1.18655898e-01f,-3.59069735e-01f,+2.99141884e-01f,
-6.50219694e-02f,+1.18887402e-01f,-1.42125636e-01f,-2.13303342e-01f,+1.51303140e-02f,
-8.78442749e-02f,+4.12438177e-02f,+8.10380280e-02f,+1.53127357e-01f,-1.27094716e-01f,
+2.05367893e-01f,+1.49084121e-01f,+2.18492568e-01f,-2.36137599e-01f,-1.53930426e-01f,
+9.82119963e-02f,-1.03955999e-01f,+4.29622717e-02f,+5.57407402e-02f,+6.17974959e-02f,
+1.64826483e-01f,+1.02721483e-01f,+7.37756044e-02f,+1.03389688e-01f,-1.11882374e-01f,
+6.74371943e-02f,-2.11925164e-01f,+3.93723100e-02f,+9.61200595e-02f,+1.74092531e-01f,
-2.08183616e-01f,+1.52656078e-01f,+1.82671007e-02f,-6.55188458e-03f,+8.71240795e-02f,
+5.80739900e-02f,+3.66041362e-02f,-1.25026733e-01f,-1.31667003e-01f,+5.84285036e-02f,
-1.24851048e-01f,+1.70082256e-01f,-4.15615644e-03f,+8.54290128e-02f,+8.67420584e-02f,
-5.55729754e-02f,-5.70421107e-03f,+4.43076678e-02f,+1.00918077e-01f,+1.02223724e-01f,
+5.15836105e-02f,+2.43711799e-01f,+1.67422816e-01f,+5.70783094e-02f,-6.08761422e-02f,
+1.02838501e-01f,+3.53627563e-01f,-2.27281302e-02f,-3.69723827e-01f,-2.80184120e-01f,
+3.65139432e-02f,+8.73163417e-02f,+5.95712475e-02f,+2.56330550e-01f,+2.57954118e-03f,
-1.07662000e-01f,-5.37773333e-02f,-1.74149662e-01f,+4.72637117e-02f,+7.92656764e-02f,
-8.02621096e-02f,+1.82161376e-01f,+1.73082113e-01f,+1.85148552e-01f,+1.48738131e-01f,
+7.66041428e-02f,+4.43128124e-02f,+7.69792497e-02f,+3.61891216e-05f,+2.13759005e-01f,
+1.80980697e-01f,+1.48711115e-01f,+3.15812156e-02f,-2.31332667e-02f,+1.86064452e-01f,
+1.40013486e-01f,-4.46278788e-03f,-1.65304344e-03f,+1.72386780e-01f,-2.27479599e-02f,
+1.96836777e-02f,+1.06240608e-01f,+2.36767624e-02f,+2.30092004e-01f,+5.72007932e-02f,
+6.14398085e-02f,-7.33035579e-02f,+5.56503870e-02f,+1.48654535e-01f,+8.31884071e-02f,
+3.46917182e-01f,-1.44107312e-01f,-1.25606164e-01f,+1.62946388e-01f,+1.51934713e-01f,
-2.99295932e-02f,+1.55372933e-01f,-1.73550054e-01f,+1.59199238e-01f,+7.45229572e-02f,
+8.99938717e-02f,+2.55436152e-01f,+3.37350294e-02f,+5.33282608e-02f,+1.81891933e-01f,
+9.01706591e-02f,-6.92368671e-02f,+1.57712296e-01f,-3.77006829e-02f,+1.41648740e-01f,
+1.58742554e-02f,+1.71907749e-02f,+1.57844484e-01f,+7.35367313e-02f,+1.05984770e-01f,
+2.90726185e-01f,+1.08749382e-01f,-1.07876873e-02f,+3.98707241e-01f,+3.21317986e-02f,
+1.44793600e-01f,-1.72150910e-01f,+1.15348749e-01f,+1.86179336e-02f,+7.55823702e-02f,
+1.17304519e-01f,+2.70766348e-01f,+1.73383236e-01f,+7.95859993e-02f,+1.67887300e-01f,
-1.75636321e-01f,-1.80078581e-01f,+2.52370406e-02f,-1.39399171e-01f,+2.55068719e-01f,
-4.01690789e-02f,+1.59080327e-01f,-2.45555773e-01f,+1.10501520e-01f,+2.01807499e-01f,
+2.68109083e-01f,+2.48140484e-01f,+1.27926216e-01f,-6.12052977e-02f,+3.94847840e-02f,
+1.21629752e-01f,+7.39040598e-02f,+3.48494425e-02f,+3.26204039e-02f,+8.42500329e-02f,
+9.83639359e-02f,+1.52865760e-02f,+2.59557426e-01f,+8.34013745e-02f,+5.30579947e-02f,
+1.44619897e-01f,+5.15010348e-03f,-1.45546734e-01f,+5.26840948e-02f,+2.40184635e-01f,
+2.07380444e-01f,+5.65882362e-02f,+3.87536198e-01f,-8.07986334e-02f,+1.77078649e-01f,
+8.66468698e-02f,+2.32096594e-02f,+7.64771970e-03f,+1.94268972e-01f,+2.09010795e-01f,
+2.40859091e-01f,+4.19131182e-02f,+1.06149487e-01f,-1.61052108e-01f,+1.01431288e-01f,
+7.84884691e-02f,-4.60218117e-02f,-8.16900581e-02f,+2.43816003e-02f,-6.07810207e-02f,
+2.85414696e-01f,+9.22818780e-02f,+5.55165112e-02f,+5.25968745e-02f,+1.88865691e-01f,
+1.70384184e-01f,+1.27638951e-01f,+9.93696675e-02f,+2.20850436e-03f,-9.54355225e-02f,
-1.27574071e-01f,-3.23817171e-02f,+9.18841586e-02f,+9.38296393e-02f,-6.13728054e-02f,
+1.34363800e-01f,+3.36441733e-02f,-3.47309448e-02f,-2.84296751e-04f,-9.61104557e-02f,
+8.08214024e-02f,+1.46276467e-02f,-1.48800705e-02f,+1.57016307e-01f,-3.96303385e-02f,
+1.87299550e-01f,+3.56091000e-02f,+1.21163227e-01f,+2.56801426e-01f,+1.15938328e-01f,
-1.07363991e-01f,+3.99659500e-02f,+2.54640937e-01f,+1.59179121e-01f,+1.77702278e-01f,
+1.26350760e-01f,+1.81352153e-01f,+1.04662487e-02f,+6.70909584e-02f,+4.14115451e-02f,
+1.15889825e-01f,+1.48659781e-01f,+1.51474208e-01f,-6.91302940e-02f,-1.24475934e-01f,
+1.38290480e-01f,+1.00468375e-01f,+6.20376095e-02f,+1.17126122e-01f,-6.44969195e-02f,
-9.15650204e-02f,-1.39840262e-03f,-1.46632614e-02f,+7.52370059e-02f,-8.87113810e-03f,
+1.57048747e-01f,-8.49828497e-02f,+3.25593278e-02f,+2.18230952e-02f,+3.38460132e-02f,
+1.54054016e-01f,+2.62498468e-01f,+1.74768105e-01f,+2.09971219e-02f,+1.37732789e-01f,
-6.94177998e-03f,+1.54997796e-01f,+9.23237726e-02f,+4.03297618e-02f,-1.21177882e-01f,
-1.01654522e-01f,+2.05420867e-01f,+1.94380507e-02f,+1.61026254e-01f,-8.50732848e-02f,
+5.41467629e-02f,-4.66127060e-02f,+2.87285656e-01f,+1.22800887e-01f,+1.92606449e-02f,
-9.24078003e-02f,-4.67782766e-02f,-1.08621694e-01f,+2.19243526e-01f,+4.25860211e-02f,
+8.07165056e-02f,-2.28469267e-01f,+4.37587388e-02f,-8.46413895e-02f,+7.04969987e-02f,
+1.34636194e-01f,+5.93147613e-02f,+1.92048281e-01f,-1.53099541e-02f,+1.34756893e-01f,
+9.16121006e-02f,-8.20531398e-02f,+2.91709930e-01f,-9.72730108e-03f,+7.20366016e-02f,
+1.25869483e-01f,-7.34768957e-02f,+2.27490645e-02f,+7.81483855e-03f,+7.07982555e-02f,
+4.83712647e-03f,+2.57085323e-01f,-1.00186922e-01f,+1.65841773e-01f,-9.89511833e-02f,
+2.62997504e-02f,+1.12797722e-01f,+2.14544069e-02f,+6.81704059e-02f,-9.70953703e-02f,
+5.91354072e-02f,+1.38156697e-01f,+9.14110020e-02f,+1.89128798e-02f,-5.99997900e-02f,
+9.59957689e-02f,+1.53289780e-01f,+2.23552302e-01f,+4.88102026e-02f,+4.28923406e-02f,
-2.26332948e-01f,-2.33738702e-02f,+3.23665217e-02f,+9.99800339e-02f,-9.36208144e-02f,
+1.94190189e-01f,+2.99079940e-02f,-6.23072051e-02f,+6.15153871e-02f,+2.78956890e-02f,
-7.83203170e-02f,+4.47829515e-02f,+4.21613120e-02f,+6.08174093e-02f,+5.92151843e-02f,
+5.34778647e-02f,+2.79876232e-01f,+7.18795136e-02f,+2.07707509e-01f,+1.70508221e-01f,
-1.14995651e-01f,+8.93958062e-02f,+6.32785261e-02f,+1.82663292e-01f,-7.56877065e-02f,
+1.07345767e-01f,+7.44813541e-03f,-3.52994129e-02f,+1.69228911e-01f,+1.24008648e-01f,
+1.09084189e-01f,-1.20470971e-01f,+3.86328325e-02f,-2.01637492e-01f,-5.11406399e-02f,
+9.51994061e-02f,+1.12343483e-01f,+6.22790568e-02f,-7.90681783e-03f,+8.97836909e-02f,
+6.83080480e-02f,+3.45728755e-01f,+2.03974411e-01f,+9.21599660e-03f,-2.99691819e-02f,
-2.44233124e-02f,+2.64291435e-01f,-1.56241907e-02f,-9.15660802e-03f,-1.59809776e-02f,
-6.08815551e-02f,+1.72415987e-01f,-8.05404503e-03f,+4.01857272e-02f,+1.77242488e-01f,
+1.06604122e-01f,+1.30655274e-01f,+1.33964181e-01f,+1.45849073e-02f,+1.83383003e-01f,
+1.03944510e-01f,-3.33807170e-02f,+5.10948785e-02f,+5.04028201e-02f,+7.48903304e-02f,
+2.25533172e-01f,+1.48713831e-02f,-1.14912562e-01f,+1.98871106e-01f,+8.03816393e-02f,
+6.77075088e-02f,-2.94277202e-02f,+1.22837201e-01f,-3.95304896e-02f,+1.43618276e-02f,
-3.96010913e-02f,+8.85606930e-03f,+1.67264283e-01f,+1.31515265e-01f,-5.03398180e-02f,
+1.81695037e-02f,+1.00324638e-01f,+1.70750365e-01f,+1.52541995e-01f,-1.82454929e-01f,
+1.28639534e-01f,-1.40431887e-02f,+1.32505372e-01f,+2.08118081e-01f,+1.57441944e-01f,
+2.18638435e-01f,+2.02732056e-01f,-3.60855483e-03f,+1.82529651e-02f,+1.63676560e-01f,
-1.79224163e-02f,+1.39202461e-01f,+1.10920347e-01f,+6.31685033e-02f,+2.19872057e-01f,
-2.09840387e-02f,+1.60972819e-01f,+2.79608488e-01f,+1.61644444e-01f,+4.33698706e-02f,
+1.00359403e-01f,+1.14475571e-01f,+3.66751477e-02f,+9.43103433e-02f,+2.66734272e-01f,
-3.33200283e-02f,-1.03114642e-01f,-1.17309868e-01f,+2.65581757e-02f,-3.42302620e-02f,
+1.34296715e-01f,-1.54774161e-02f,-4.67185024e-03f,+2.37702966e-01f,-1.21615246e-01f,
-1.03635862e-01f,+3.22311334e-02f,+8.28586146e-03f,+4.45795879e-02f,-7.30755255e-02f,
+4.27881218e-02f,-5.81821091e-02f,+3.77968140e-02f,-1.76796973e-01f,-1.13148198e-01f,
+7.54599422e-02f,+1.68969855e-01f,+1.37497514e-01f,-4.57041301e-02f,+9.31757092e-02f,
+1.00021146e-01f,+1.34225279e-01f,+2.47586295e-02f,+1.15845418e-02f,+5.77730052e-02f,
+1.36638917e-02f,+2.15927541e-01f,-1.03834935e-01f,+2.23511923e-02f,+5.01255915e-02f,
-1.31000392e-03f,+1.73956230e-02f,+2.10515037e-01f,-2.22961918e-01f,+1.22199059e-02f,
+2.72574186e-01f,-6.09343722e-02f,+6.89710826e-02f,+4.41527106e-02f,+7.89269581e-02f,
+1.04971550e-01f,+8.10375661e-02f,+4.13519740e-02f,+1.13298543e-01f,-5.08445203e-02f,
-2.98043787e-02f,+2.10384160e-01f,+3.29427391e-01f,+5.24134897e-02f,-1.24691583e-01f,
+1.79811150e-01f,+1.02739930e-02f,+1.00199953e-01f,+2.17997268e-01f,+2.14522824e-01f,
+1.32547304e-01f,-7.14260014e-03f,+1.19577445e-01f,+7.92558864e-02f,-3.63002159e-02f,
-1.55474832e-02f,+2.52920520e-02f,-2.47230142e-01f,-9.05980840e-02f,-1.88285392e-02f,
+9.60315838e-02f,+9.07633975e-02f,-2.35501099e-02f,+1.45116791e-01f,+9.08009186e-02f,
-8.22070837e-02f,-2.37579122e-01f,+2.92801470e-01f,+1.06120631e-01f,-7.43379891e-02f,
+7.87363201e-03f,-4.55330238e-02f,+3.60565335e-02f,+2.33335853e-01f,-2.22722292e-01f,
+1.60919130e-01f,-1.08056843e-01f,-4.26605955e-04f,+1.27455458e-01f,+3.99132669e-02f,
+5.07183149e-02f,-9.74987820e-03f,-4.79956530e-02f,-2.44356605e-04f,+1.86035112e-01f,
-4.34073806e-02f,-4.35623080e-02f,+2.90617906e-02f,-1.15658894e-01f,-1.17373437e-01f,
+1.44202694e-01f,+1.11884505e-01f,-5.39533682e-02f,+2.21928209e-01f,+2.09366709e-01f,
+7.01853307e-03f,-8.22851658e-02f,+4.31694053e-02f,+7.14172050e-02f,+1.84804901e-01f,
+5.80349565e-02f,+1.37143955e-01f,+1.98297039e-01f,+6.38636798e-02f,+1.13956174e-02f,
+4.55025397e-02f,+1.25244141e-01f,+9.74959508e-02f,+9.32835639e-02f,+1.36161163e-01f,
+1.34683430e-01f,+4.80639338e-02f,+6.98400894e-03f,+1.97294056e-01f,+3.05181425e-02f,
-4.41413522e-02f,-5.02148084e-02f,-8.07071626e-02f,+4.81727943e-02f,-1.50719598e-01f,
+3.12097911e-02f,+2.91830059e-02f,+2.06161037e-01f,+1.13032855e-01f,+2.98334002e-01f,
-5.27055236e-03f,-1.49485007e-01f,-2.06374809e-01f,+1.34742439e-01f,+2.14988112e-01f,
+1.03735700e-01f,+3.31668332e-02f,+1.50212497e-01f,+2.69107595e-02f,+1.33383751e-01f,
+1.42633513e-01f,+1.37749299e-01f,+2.11136565e-02f,-3.99749242e-02f,+1.45072147e-01f,
+4.39710654e-02f,+8.60396959e-03f,+1.87357739e-01f,+2.53226787e-01f,+5.90107255e-02f,
-1.13366053e-01f,+1.85308568e-02f,-8.97551402e-02f,-1.25239983e-01f,+1.29995942e-01f,
+3.85490898e-03f,+1.24121383e-01f,+1.90923944e-01f,-1.48020551e-01f,-1.44852120e-02f,
+1.42246522e-02f,+4.67180833e-02f,+2.05380902e-01f,-7.83889890e-02f,+7.64527172e-02f,
+2.37785190e-01f,+4.80880775e-02f,+1.82293817e-01f,-4.87375539e-03f,+2.21632063e-01f,
+2.15777472e-01f,+2.38122329e-01f,+2.81618625e-01f,+2.31974930e-01f,+3.36154327e-02f,
+7.32793435e-02f,+1.22536965e-01f,+2.58377492e-01f,+7.59536698e-02f,+4.05998826e-02f,
-3.31732184e-02f,-4.54807747e-03f,-3.23847607e-02f,-1.79777637e-01f,+1.54480949e-01f,
+1.26393646e-01f,+2.71737754e-01f,+3.41855943e-01f,+8.23370069e-02f,+3.55577245e-02f,
-8.29626173e-02f,+8.01838115e-02f,-1.09831207e-01f,+5.78802824e-02f,-2.99386624e-02f,
+1.41497254e-01f,-9.30616707e-02f,+3.94046530e-02f,+8.05368051e-02f,+2.32754558e-01f,
+9.16011035e-02f,-7.49813998e-03f,+4.31306474e-02f,+2.07836293e-02f,-5.38947731e-02f,
-3.07553094e-02f,-1.96576416e-01f,+2.08910629e-01f,+2.30383389e-02f,+1.82188183e-01f,
+9.17359665e-02f,+1.07222214e-01f,+1.12357676e-01f,+2.78001130e-01f,+3.86341184e-01f,
+1.67618677e-01f,+1.68772236e-01f,+1.18237048e-01f,+1.46322593e-01f,+8.88328105e-02f,
+1.09495312e-01f,+1.72217324e-01f,+2.30301097e-01f,-9.95958038e-03f,+9.53126550e-02f,
-4.06962559e-02f,-6.00851253e-02f,+2.60345731e-02f,-5.26502877e-02f,+4.46979731e-01f,
+2.63723701e-01f,+8.54720175e-02f,+1.04623690e-01f,+6.74013197e-02f,+1.24955803e-01f,
-7.08345175e-02f,+1.91654742e-01f,+2.23536044e-02f,+1.68431237e-01f,+1.66855752e-01f,
+1.45593792e-01f,+9.17687789e-02f,-8.91312733e-02f,-2.62515813e-01f,+2.03640223e-01f,
+1.11657321e-01f,+1.61855012e-01f,+1.28396004e-01f,-6.06278665e-02f,+9.94185284e-02f,
+1.55357094e-02f,+6.40431866e-02f,+1.89921483e-02f,+1.23874173e-01f,+1.67540863e-01f,
+1.21677406e-01f,+2.09209211e-02f,-1.29051153e-02f,-1.21034430e-02f,+1.06978737e-01f,
+1.44798011e-01f,+3.04270476e-01f,-1.14608184e-01f,+6.93437010e-02f,+3.60498279e-02f,
-2.07463317e-02f,+7.53757730e-02f,+6.98009357e-02f,+6.23196736e-02f,+8.93078558e-03f,
+3.92541438e-02f,+6.51347786e-02f,+1.01767078e-01f,-1.21921025e-01f,-2.04161957e-01f,
+1.51813403e-01f,-5.76134063e-02f,-1.56247625e-02f,-1.50955752e-01f,-1.61457062e-03f,
-3.76009420e-02f,+1.75558195e-01f,+5.56953810e-02f,+2.65253961e-01f,-2.47795563e-02f,
+1.72048926e-01f,+1.16611741e-01f,+7.98721611e-02f,+1.89447820e-01f,+8.33523497e-02f,
+1.75154716e-01f,+9.52745378e-02f,+1.05804339e-01f,+4.72991280e-02f,-1.78287387e-01f,
+2.46017519e-02f,-1.27712160e-01f,-8.13890770e-02f,-8.41073971e-03f,-5.13114454e-03f,
-4.67935763e-02f,+1.38671666e-01f,-1.44820467e-01f,-1.20026767e-02f,+6.64226012e-03f,
+2.89989829e-01f,+9.01452079e-02f,+7.01011345e-02f,-2.35978469e-01f,+2.37855569e-01f,
+2.47138917e-01f,+1.04439788e-01f,+4.07254040e-01f,+2.43975893e-02f,-3.69358659e-02f,
+6.40599206e-02f,+5.32543734e-02f,-6.88235760e-02f,+2.45988086e-01f,+1.60337895e-01f,
-2.72772238e-02f,+7.39104152e-02f,+2.00985000e-01f,+7.91813508e-02f,+3.97821181e-02f,
+1.88040406e-01f,+5.33803217e-02f,+1.53394297e-01f,+6.60848543e-02f,+5.08396812e-02f,
+8.37476850e-02f,+1.23208225e-01f,+3.92049961e-02f,+2.59672403e-01f,-7.99042061e-02f,
-7.03925043e-02f,+1.33737504e-01f,+3.03884774e-01f,+2.90241808e-01f,+5.35395779e-02f,
-4.87684133e-03f,+1.81463391e-01f,-1.84198856e-01f,+1.29264757e-01f,-8.73214900e-02f,
+1.33736178e-01f,-1.14120923e-01f,+3.09308097e-02f,+1.22908264e-01f,+3.03989083e-01f,
+1.27924085e-01f,+1.58873752e-01f,+1.29952386e-01f,-9.52916741e-02f,-6.67995447e-03f,
+9.39549431e-02f,+1.57299191e-01f,+3.57357562e-01f,+1.32157460e-01f,+2.43799239e-01f,
+1.86772406e-01f,+1.23968638e-01f,+8.44551548e-02f,+2.37456694e-01f,-8.29859823e-03f,
+7.50904307e-02f,-1.38637498e-01f,+1.30837068e-01f,+7.75264055e-02f,+1.47239700e-01f,
+7.05534518e-02f,+1.30612120e-01f,+1.72420554e-02f,+1.38870209e-01f,+2.58916080e-01f,
+2.26000771e-02f,+1.41362116e-01f,+2.45066136e-01f,-2.05884308e-01f,-1.29417598e-01f,
+1.00096375e-01f,-8.08403492e-02f,-3.11348122e-02f,+7.23321810e-02f,-1.04543874e-02f,
+5.56210093e-02f,+8.94160643e-02f,+8.62703919e-02f,-3.73975560e-03f,-9.56788436e-02f,
-2.03659497e-02f,+1.96265224e-02f,-2.01405153e-01f,+3.20199355e-02f,+2.47692525e-01f,
+1.31637007e-01f,+1.73240408e-01f,+4.99968588e-01f,+2.41503343e-01f,+2.83388674e-01f,
-1.38951331e-01f,+1.84974030e-01f,+2.19668895e-02f,+1.07518975e-02f,+1.17407344e-01f,
+1.94226786e-01f,+3.05893342e-03f,+8.73206258e-02f,+1.83313459e-01f,+5.49061410e-02f,
+5.29857492e-03f,+3.19107473e-02f,+1.89815506e-01f,+3.00223351e-01f,+8.51428881e-02f,
-1.06910080e-01f,+2.08533838e-01f,-9.17591825e-02f,-1.05886623e-01f,+5.91993742e-02f,
-1.45786479e-01f,+1.69964228e-02f,-9.25596654e-02f,+1.16481520e-01f,-4.63708825e-02f,
+1.01075761e-01f,-1.06019005e-02f,+1.28403932e-01f,-1.37649074e-01f,+1.18379653e-01f,
-1.87081117e-02f,-1.40472740e-01f,-5.11006825e-02f,+6.17128350e-02f,+1.52171150e-01f,
+8.10239762e-02f,+3.23224925e-02f,+5.37227616e-02f,-2.32624169e-02f,+3.11456025e-01f,
+8.12951848e-02f,+1.58201531e-01f,+3.01634580e-01f,-1.83806401e-02f,+1.46683464e-02f,
+1.56481668e-01f,+1.93293050e-01f,+2.64592499e-01f,+1.83053389e-01f,-4.77868579e-02f,
+4.19921018e-02f,-1.11163132e-01f,+1.21508695e-01f,+1.43445104e-01f,+1.49098381e-01f,
+3.81187573e-02f,+3.13903034e-01f,-1.47173226e-01f,+4.93280292e-02f,+7.08261430e-02f,
+1.24049649e-01f,+8.69731754e-02f,+9.22915116e-02f,-1.54990628e-01f,-1.93127126e-01f,
+1.23548806e-01f,+7.56088570e-02f,+3.53322327e-02f,+9.50031355e-02f,+1.47693619e-01f,
+1.89755797e-01f,+7.98483714e-02f,+2.89059371e-01f,-6.36636540e-02f,-9.40901041e-02f,
+1.47417542e-02f,-9.72710475e-02f,+9.59872529e-02f,+2.51853615e-01f,+1.85863987e-01f,
-7.06153363e-02f,-8.30515176e-02f,+9.37398300e-02f,+1.88762084e-01f,+2.49949202e-01f,
+6.36489829e-03f,-1.18020937e-01f,-5.91537543e-02f,+1.03674978e-02f,+1.36971539e-02f,
+1.70183674e-01f,-1.10005148e-01f,+5.42735830e-02f,+1.56053260e-01f,+1.16771716e-03f,
+4.85458821e-02f,+1.65835485e-01f,-3.32397819e-02f,-8.51468593e-02f,+1.02073643e-02f,
+7.04615414e-02f,+2.51525529e-02f,+8.46382603e-02f,+7.64307976e-02f,+3.03193685e-02f,
+1.30392522e-01f,-6.44445270e-02f,+8.35517496e-02f,+9.17004645e-02f,-1.05167106e-01f,
+1.98230773e-01f,+1.12689525e-01f,+1.09524466e-01f,+7.12840399e-03f,+3.55212837e-02f,
+1.01618849e-01f,+6.86953738e-02f,-2.40575485e-02f,+7.92786703e-02f,-1.45773306e-01f,
+8.69937837e-02f,+1.81839541e-01f,+1.49285644e-02f,+1.43072568e-03f,+1.50755033e-01f,
-1.58458203e-02f,+9.97188222e-03f,+1.76588893e-01f,+2.32921362e-01f,+3.32661644e-02f,
+7.38537088e-02f,+6.36684299e-02f,+1.48258284e-01f,+3.58560234e-02f,+8.34290460e-02f,
-3.69986705e-02f,+3.20503935e-02f,+2.43169606e-01f,+1.38928726e-01f,+4.99558775e-03f,
+1.32594164e-02f,-1.33810146e-03f,+8.90232399e-02f,-5.03114909e-02f,+6.29554242e-02f,
+8.22272301e-02f,+1.93989761e-02f,+1.32499591e-01f,+2.48111691e-02f,-9.51838419e-02f,
-1.37826288e-03f,+2.12549180e-01f,+9.88653004e-02f,+2.49787897e-01f,-1.91005580e-02f,
-5.20265400e-02f,-5.89952618e-02f,+1.14047201e-02f,+1.04080006e-01f,+1.22320138e-01f,
-5.07121570e-02f,+1.02885731e-01f,+6.13441207e-02f,+9.74697843e-02f,+1.47768289e-01f,
-6.59843460e-02f,+5.57438843e-02f,+1.54545352e-01f,+1.18465222e-01f,+2.19277397e-01f,
+1.27243428e-02f,+1.01530358e-01f,+1.17140040e-02f,+1.29567847e-01f,+1.12013750e-01f,
+1.15899220e-01f,+1.24709383e-01f,-7.39366375e-03f,-3.96167301e-02f,+2.68887341e-01f,
-4.57504615e-02f,+6.04493879e-02f,+8.21107104e-02f,+1.23828366e-01f,+1.17882363e-01f,
+6.19718283e-02f,+1.40420973e-01f,+1.88814074e-01f,+9.37777981e-02f,+7.33965114e-02f,
+1.76983364e-02f,+1.18279263e-01f,+1.64689556e-01f,+2.04050988e-02f,+5.02815135e-02f,
+1.12823449e-01f,+7.86581039e-02f,-1.09473728e-01f,+2.45366752e-01f,-7.13431463e-02f,
-1.06849238e-01f,-2.38839402e-05f,-2.72046253e-02f,+9.64955091e-02f,+1.31934555e-02f,
+1.49879545e-01f,+1.36820272e-01f,+3.32245827e-01f,+9.27594304e-02f,-2.55457219e-02f,
-9.62085798e-02f,-2.46896166e-02f,+1.14899024e-01f,-2.03178357e-03f,+5.51512912e-02f,
+7.94326439e-02f,+1.07981071e-01f,+9.65987612e-03f,+1.50210798e-01f,+8.14952776e-02f,
+1.63668126e-01f,+2.68375073e-02f,+2.39692330e-01f,+1.58940539e-01f,-1.09681167e-01f,
+6.65953234e-02f,-1.06638465e-02f,+1.94996759e-01f,+2.03280210e-01f,+7.63152540e-02f,
+9.70247537e-02f,+8.78431201e-02f,-2.10237011e-01f,+1.00573733e-01f,+2.40833568e-03f,
+2.64983207e-01f,+9.37835202e-02f,+1.61165092e-02f,-9.89977866e-02f,+1.71005521e-02f,
+1.12478979e-01f,+8.51191487e-03f,+8.58149379e-02f,+1.26702994e-01f,-8.10925514e-02f,
+4.81294654e-02f,+2.84833852e-02f,-7.19339699e-02f,+9.34184119e-02f,+2.02134773e-01f,
+5.49377576e-02f,+8.40566084e-02f,+1.95622891e-01f,+1.46906510e-01f,+1.32749960e-01f,
+1.04576863e-01f,+3.52346115e-02f,+1.48571664e-02f,+7.29707628e-02f,+1.12725487e-02f,
-6.79654181e-02f,+2.00062588e-01f,+5.18826069e-03f,+4.48606789e-01f,-1.38313457e-01f,
+5.83141632e-02f,-4.29732166e-02f,+1.04225084e-01f,-7.41745308e-02f,+5.67370877e-02f,
+9.32257995e-02f,-6.42308071e-02f,+1.13032735e-03f,+3.92519962e-03f,+1.10261897e-02f,
-4.59044054e-02f,-4.84454371e-02f,-2.27741171e-02f,+5.81001006e-02f,-2.50006653e-02f,
+2.72241533e-01f,+1.60774887e-01f,-7.71552697e-02f,-8.33508447e-02f,-4.43413742e-02f,
+9.31887608e-03f,+1.04604602e-01f,+1.74505085e-01f,+2.14201093e-01f,+3.39366704e-01f,
+1.15913726e-01f,-6.38148487e-02f,+1.39104620e-01f,+1.25603750e-02f,+1.31492704e-01f,
+1.27915353e-01f,+4.68563922e-02f,+1.81875572e-01f,-7.30479285e-02f,+3.03817000e-02f,
+5.72394170e-02f,+9.23962295e-02f,+6.15142994e-02f,-1.39066145e-01f,+2.69671679e-01f,
+9.89669636e-02f,-5.09063415e-02f,+3.05555314e-02f,+2.06304371e-01f,+4.19141129e-02f,
+9.12741646e-02f,+1.50692806e-01f,-7.09039643e-02f,+5.45277074e-02f,+6.74536973e-02f,
+1.23199321e-01f,+2.52593849e-02f,-7.60161951e-02f,+2.12923095e-01f,+1.08780175e-01f,
+1.24404401e-01f,+1.68310195e-01f,-2.27886308e-02f,-1.31414607e-01f,+1.31755218e-01f,
+3.48202931e-03f,-1.51486807e-02f,+1.21418886e-01f,+1.44132778e-01f,+4.46148999e-02f,
+1.56246766e-01f,+1.23162664e-01f,+4.76366235e-03f,-6.59455806e-02f,+1.76956281e-02f,
+4.44394983e-02f,+1.91295236e-01f,+2.76687503e-01f,+2.31273428e-01f,+6.73602149e-02f,
-9.09170210e-02f,+1.70145944e-01f,+2.00192213e-01f,+2.58119375e-01f,+2.29550824e-01f,
-1.15295500e-01f,-1.98277598e-03f,+2.09244773e-01f,+7.30463415e-02f,+1.23622268e-01f,
-1.54378340e-02f,+2.09258556e-01f,+2.12846160e-01f,-2.27129869e-02f,-3.02842297e-02f,
-2.19319314e-02f,+4.31575291e-02f,+2.52789650e-02f,-3.40046994e-02f,+2.19858825e-01f,
+8.72102454e-02f,+1.17034584e-01f,-4.18132395e-02f,+2.03081667e-02f,+5.44270538e-02f,
-2.78957672e-02f,-2.67449091e-03f,+5.15851527e-02f,+3.82122546e-02f,-5.67758530e-02f,
+1.57100052e-01f,+1.52846709e-01f,+7.17273280e-02f,-1.34790158e-02f,-6.44664168e-02f,
-3.69718559e-02f,+1.02568485e-01f,+5.84348477e-02f,+2.29614042e-02f,-8.93375874e-02f,
+3.35176796e-01f,+1.56103373e-01f,-8.55754986e-02f,-1.65225521e-01f,+9.79463533e-02f,
+7.48938844e-02f,-2.01223530e-02f,-1.74175203e-01f,+5.13057108e-04f,-8.71523749e-03f,
+6.07166030e-02f,+1.15015268e-01f,-1.35559067e-01f,-1.23462835e-02f,+5.68348542e-02f,
+2.12131366e-01f,+2.76829571e-01f,-2.54535414e-02f,+3.12606990e-02f,+5.51746562e-02f,
+1.39822261e-02f,+6.05398193e-02f,-5.44670001e-02f,+1.57738402e-02f,-1.13821356e-03f,
+1.48410633e-01f,+4.03237715e-02f,+1.23526864e-01f,+6.32283166e-02f,-1.38061062e-01f,
+3.88853215e-02f,+1.45871341e-01f,+2.34057248e-01f,+2.39352152e-01f,+2.15994477e-01f,
-1.15023196e-01f,+6.90770671e-02f,+6.66449815e-02f,+1.49105370e-01f,-1.31703541e-02f,
+1.84959665e-01f,+7.56835341e-02f,+1.10914893e-01f,+4.37409393e-02f,+1.33608719e-02f,
+1.35471955e-01f,-1.96527988e-01f,+5.33755757e-02f,+5.32752424e-02f,-2.34990753e-02f,
+9.44322050e-02f,+2.39749141e-02f,+9.87775903e-03f,+1.94490224e-01f,+6.41073957e-02f,
-1.52780622e-01f,+8.21635351e-02f,+2.72301227e-01f,+6.68569356e-02f,+3.29709016e-02f,
-6.74946085e-02f,+8.71476382e-02f,+2.48876065e-01f,+1.08698092e-01f,+2.81222276e-02f,
-3.06142084e-02f,+1.85330790e-02f,-3.49773727e-02f,+4.38144282e-02f,+6.35332316e-02f,
+5.36515638e-02f,-8.39676112e-02f,-2.84645241e-04f,+9.61643159e-02f,+8.27616975e-02f,
-3.88147198e-02f,+7.50967711e-02f,+1.38674259e-01f,-5.80558786e-03f,-1.75669957e-02f,
+7.91497454e-02f,+1.60514601e-02f,+8.53054598e-02f,+1.01736419e-01f,+5.02629466e-02f,
+9.42887366e-02f,+4.84412089e-02f,+7.95777217e-02f,-3.28156427e-02f,-1.12549029e-01f,
+1.30795792e-01f,+3.33149247e-02f,-8.42416137e-02f,+3.63324910e-01f,+1.19129427e-01f,
-1.06752761e-01f,+1.29352048e-01f,-3.96140516e-01f,-6.04892187e-02f,+1.45770954e-02f,
+1.00494251e-01f,+1.06837012e-01f,-1.73558686e-02f,+4.29488160e-02f,+7.86617398e-02f,
+2.91125197e-02f,+5.30552752e-02f,-1.02115711e-02f,+9.85298455e-02f,+6.89378008e-02f,
+5.59617020e-02f,-1.08884024e-02f,+1.44600958e-01f,-2.23119915e-01f,+1.30093664e-01f,
-4.76250872e-02f,+2.15497259e-02f,+6.55538030e-03f,+1.30201578e-01f,+1.37367159e-01f,
+6.73131272e-02f,+1.13371862e-02f,+1.13678630e-02f,+6.03778176e-02f,+3.19066760e-03f,
+2.83516012e-02f,+6.15801709e-03f,+1.73235744e-01f,-2.00880785e-02f,-1.03440508e-01f,
+4.71955724e-02f,-1.14149183e-01f,+1.08167976e-01f,+8.76809582e-02f,+1.52331471e-01f,
+1.26867995e-01f,-3.29941674e-03f,+9.19180512e-02f,+6.32907869e-03f,+1.26093075e-01f,
+5.75200543e-02f,+2.33125359e-01f,-5.49064763e-02f,+8.71305168e-02f,+4.71382588e-02f,
+1.11378834e-01f,+1.62761852e-01f,+1.71255007e-01f,+4.38262932e-02f,-1.34815217e-03f,
+4.02101694e-04f,+9.34450552e-02f,+4.78596278e-02f,+5.41309677e-02f,+2.58636355e-01f,
+1.75220430e-01f,+3.33139375e-02f,+6.37505427e-02f,+4.80716377e-02f,+1.98369116e-01f,
+1.12261906e-01f,-1.25785703e-02f,-3.63166817e-03f,+9.14618373e-02f,-4.70586680e-02f,
+1.58702418e-01f,-1.85566872e-01f,+5.13303615e-02f,+1.78603902e-01f,-7.25048855e-02f,
+1.87023543e-02f,+9.86313522e-02f,-3.19444947e-02f,-3.66336778e-02f,+7.24065229e-02f,
+7.78834745e-02f,+7.14613572e-02f,+2.17853505e-02f,+7.04598129e-02f,+1.17187239e-01f,
-2.14782469e-02f,+1.44732147e-01f,+2.37226248e-01f,+1.67128995e-01f,+1.17921978e-01f,
-1.42424718e-01f,+1.53441325e-01f,-3.88525017e-02f,-6.65328093e-03f,-2.08384520e-03f,
-2.65098810e-01f,+4.88985404e-02f,+4.42270413e-02f,-2.49842182e-02f,+9.78020504e-02f,
+1.97101027e-01f,+2.03161761e-01f,+2.86466759e-02f,+1.38545921e-02f,+8.66888016e-02f,
+7.87265226e-02f,+7.48140216e-02f,+1.82917103e-01f,+2.30510026e-01f,-1.00643351e-03f,
+9.72952396e-02f,+1.66619807e-01f,-2.16506928e-01f,+1.53157219e-01f,+4.40802500e-02f,
+2.31693074e-01f,+7.84611627e-02f,+5.84850162e-02f,+1.47216618e-01f,+2.01925248e-01f,
+1.34358943e-01f,+9.57173929e-02f,-4.97542284e-02f,+7.19956458e-02f,+6.13282844e-02f,
+1.43184111e-01f,+2.80003101e-01f,+7.48849064e-02f,+6.44597784e-02f,+1.88921347e-01f,
+1.51769966e-01f,+1.36829346e-01f,+9.24984142e-02f,+5.19533530e-02f,+3.49354073e-02f,
-5.96466474e-02f,+2.46619433e-02f,-3.18375416e-02f,+4.06276919e-02f,+1.07919946e-01f,
+5.02372086e-02f,+5.46602681e-02f,-6.86422065e-02f,+9.66230482e-02f,+3.19730304e-02f,
+1.13771006e-01f,-3.21628809e-01f,+1.01706080e-01f,+1.57958895e-01f,+2.21631173e-02f,
+8.20298567e-02f,+1.38120338e-01f,+1.49457932e-01f,+4.37198440e-03f,+6.02336088e-03f,
+1.99170500e-01f,+4.57448475e-02f,+5.21819144e-02f,-1.40203144e-02f,+6.47037849e-02f,
+1.68543175e-01f,+1.48117274e-01f,-4.36655916e-02f,+7.36731887e-02f,+1.33862287e-01f,
+2.08503157e-01f,+5.55362627e-02f,+9.26571712e-02f,-1.26795657e-02f,-1.23917304e-01f,
+3.21268737e-02f,+4.08347398e-02f,-1.77054275e-02f,-1.53128887e-02f,-3.80105302e-02f,
-3.76805733e-03f,+5.61769903e-02f,+5.38276248e-02f,+1.03431664e-01f,+1.27989888e-01f,
+4.62346263e-02f,+1.48152318e-02f,+1.49974525e-01f,+8.68602172e-02f,+1.38230911e-02f,
+1.05789244e-01f,+3.56535204e-02f,-1.85751338e-02f,+1.82178959e-01f,+1.54105723e-01f,
-2.78789327e-02f,+9.40146297e-02f,-3.54120545e-02f,+1.00058287e-01f,+2.64007092e-01f,
+1.04080394e-01f,+1.60598412e-01f,+1.02184847e-01f,-8.27294216e-02f,+1.05350733e-01f,
+5.79988398e-02f,+2.52272226e-02f,+1.95664212e-01f,+3.69156115e-02f,+5.98052815e-02f,
-1.57504696e-02f,+6.39458075e-02f,+1.31925136e-01f,-7.69925714e-02f,+8.75693038e-02f,
-3.33084725e-02f,-1.76710542e-02f,+9.51077491e-02f,+5.89509234e-02f,+3.32419649e-02f,
+7.40266293e-02f,+1.75538272e-01f,+1.20803803e-01f,+4.96674068e-02f,+1.29305467e-01f,
-1.42690852e-01f,+6.32017897e-03f,+7.37112910e-02f,+1.84813052e-01f,+6.54790364e-03f,
-2.01751981e-02f,+1.06874250e-01f,+1.46279499e-01f,+5.78103773e-02f,-3.12551349e-01f,
+1.40102789e-01f,+1.48128778e-01f,+1.27833724e-01f,-1.29549950e-01f,+4.39025946e-02f,
-5.98328970e-02f,+5.63363694e-02f,+2.69081090e-02f,+7.81321302e-02f,+6.84510618e-02f,
+1.81436703e-01f,+1.55356139e-01f,+3.25062536e-02f,-2.70444062e-02f,-5.33608198e-02f,
-6.99976310e-02f,+9.18436646e-02f,+4.18939292e-02f,+6.81357756e-02f,+7.28675863e-03f,
+2.13462114e-01f,+1.51435003e-01f,+8.16373602e-02f,+7.95717984e-02f,+2.66123861e-02f,
-1.39879689e-01f,+2.16617152e-01f,-3.80933769e-02f,+1.60954550e-01f,+2.49412172e-02f,
-5.68627082e-02f,+4.27021086e-02f,-1.64594263e-01f,+8.40697736e-02f,+2.77736753e-01f,
-6.60419166e-02f,+2.46202528e-01f,+7.91037455e-03f,+2.57010788e-01f,-5.80554008e-02f,
+1.21848583e-01f,-6.73547313e-02f,+1.51729196e-01f,-7.82173276e-02f,+2.13913769e-01f,
+2.82353789e-01f,+8.26459527e-02f,+6.08509369e-02f,-4.47031260e-02f,+1.41673937e-01f,
+1.95985362e-02f,+1.85374483e-01f,+4.79955561e-02f,+5.00880256e-02f,+7.27599934e-02f,
+1.88113391e-01f,+4.58633825e-02f,-6.13216162e-02f,-8.06240423e-04f,+6.40458465e-02f,
+1.28898323e-01f,+1.42318100e-01f,+7.10474923e-02f,+8.06856453e-02f,-3.67086334e-03f,
+1.74434602e-01f,+5.83335496e-02f,-2.23019458e-02f,-5.50181940e-02f,+2.76410729e-02f,
+2.36372799e-02f,+8.94624516e-02f,-5.80950938e-02f,+1.21002622e-01f,+1.34897172e-01f,
-1.12039205e-02f,+5.25281727e-02f,+4.83006760e-02f,-1.38281748e-01f,+8.68433043e-02f,
+1.63236633e-01f,+2.20433757e-01f,-8.92679952e-03f,+1.30462393e-01f,+1.38804227e-01f,
+1.08071733e-02f,+8.85961726e-02f,-9.93020833e-02f,+1.46605685e-01f,-1.80748338e-03f,
+7.43416185e-03f,-1.26515716e-01f,+1.06366441e-01f,+5.46681881e-02f,+1.34093966e-03f,
+2.26491526e-01f,-6.72308505e-02f,+1.03629418e-01f,+9.56209600e-02f,-4.69166301e-02f,
+1.01734884e-01f,+8.64519328e-02f,-1.26649097e-01f,+3.51570360e-02f,+3.71121354e-02f,
-9.46662202e-02f,+8.93843099e-02f,-1.39808089e-01f,+1.10477485e-01f,+1.60315201e-01f,
-3.60721536e-02f,+4.77909371e-02f,-6.68363050e-02f,+2.00827956e-01f,-8.79591051e-03f,
+1.69428632e-01f,+1.49364457e-01f,-5.54473288e-02f,+6.27072677e-02f,+3.96049768e-02f,
-8.14840198e-02f,+1.13033243e-02f,+6.42700493e-02f,+8.26309249e-02f,+5.27451299e-02f,
+2.66505897e-01f,+8.75295475e-02f,+9.64424238e-02f,-1.28609776e-01f,-3.95471230e-02f,
+1.39916718e-01f,+1.30086973e-01f,+2.18587220e-01f,+5.14231175e-02f,+9.74745303e-02f,
-2.46250536e-03f,+4.78234477e-02f,+2.38206625e-01f,+2.61843801e-02f,+7.25816563e-02f,
+4.35725227e-02f,+1.36886775e-01f,+1.90748841e-01f,+9.37942639e-02f,+1.34193599e-01f,
-8.56132731e-02f,+7.06066489e-02f,-7.12541193e-02f,+3.19554992e-02f,+3.68719384e-06f,
+1.29679292e-01f,-4.36900333e-02f,+3.62776332e-02f,+4.90802340e-02f,+1.59687087e-01f,
+1.76345289e-01f,+1.29133582e-01f,-1.45220473e-01f,+2.20653683e-01f,+1.41713664e-01f,
-2.55752411e-02f,+5.22272326e-02f,+7.24832565e-02f,+2.78031290e-01f,-3.43127474e-02f,
+2.08494946e-01f,-4.40306216e-02f,+2.32179090e-01f,+1.55999839e-01f,-1.72339026e-02f,
+9.31222513e-02f,+7.14240670e-02f,+1.91401821e-02f,+1.76559761e-01f,+1.77413553e-01f,
+3.08104511e-02f,+8.35330114e-02f,-2.15378217e-03f,+2.14335069e-01f,+7.48728262e-03f,
+1.07825704e-01f,-6.63143545e-02f,+2.12919549e-03f,+1.19853340e-01f,+8.02254118e-03f,
+9.57552940e-02f,+8.28060582e-02f,+5.43549135e-02f,-4.02344503e-02f,-6.65180758e-02f,
+3.27839628e-02f,-1.84575021e-01f,-4.99324389e-02f,+1.75520495e-01f,+1.82270706e-01f,
+8.61412287e-02f,+3.56569961e-02f,+8.53099823e-02f,-1.26725724e-02f,+6.03345372e-02f,
+3.04968725e-03f,-2.91326735e-02f,-1.38738483e-01f,+2.07607802e-02f,+1.64916337e-01f,
+3.70996781e-02f,-9.08650458e-02f,+3.18200723e-03f,+1.53054129e-02f,+4.51789983e-02f,
+9.98904109e-02f,-1.49573445e-01f,+2.70624347e-02f,+9.66683105e-02f,+3.68105099e-02f,
-2.57076900e-02f,+1.71575248e-01f,+1.02742173e-01f,-6.08820058e-02f,+7.47995044e-04f,
+6.66866228e-02f,-2.53017470e-02f,+1.21911941e-02f,+8.82944018e-02f,+3.39206338e-01f,
+8.49912688e-02f,-8.88399221e-03f,-6.51146024e-02f,+4.16648528e-03f,+5.30552790e-02f,
+1.15876026e-01f,+8.35930631e-02f,+8.49707350e-02f,+1.62094504e-01f,+9.75210313e-03f,
-1.45847172e-01f,-1.28488392e-02f,+8.81485716e-02f,-7.43015856e-02f,+8.43672082e-02f,
-6.32832875e-04f,-9.81033444e-02f,+7.92726800e-02f,-4.40021791e-02f,+4.84284712e-03f,
+1.52281756e-02f,-1.17986999e-01f,+1.25140429e-01f,+2.90725194e-02f,+1.78974479e-01f,
+1.18431628e-01f,+1.83364883e-01f,+2.21753255e-01f,+3.16022560e-02f,-9.21691731e-02f,
+1.09854117e-01f,+9.17398334e-02f,-3.53637263e-02f,+1.38421237e-01f,-1.35272378e-02f,
+8.28322321e-02f,+1.20633587e-01f,+6.57719597e-02f,+3.84951159e-02f,-2.41757389e-02f,
+1.12797610e-01f,-1.67712271e-02f,+2.07910940e-01f,+1.90174207e-01f,-6.85898736e-02f,
+5.88319339e-02f,+2.06286848e-01f,+2.86533292e-02f,-1.37069784e-02f,+9.05070603e-02f,
+1.12729862e-01f,+8.32066610e-02f,-5.15932888e-02f,-1.21750394e-02f,+1.14882827e-01f,
+1.02760218e-01f,-1.17960572e-02f,-4.21144217e-02f,+1.06280021e-01f,+2.54877388e-01f,
-6.18276820e-02f,+8.73812959e-02f,-9.44810063e-02f,+6.31651804e-02f,+1.35246143e-01f,
-1.97487082e-02f,+7.41342679e-02f,+1.46065369e-01f,+2.68658455e-02f,+2.32069239e-01f,
+1.85141578e-01f,+1.90000981e-01f,-2.42608804e-02f,-5.59078902e-02f,+1.75176077e-02f,
+1.20996358e-02f,+6.01571314e-02f,+1.58186913e-01f,+8.22257474e-02f,+6.78218454e-02f,
+6.21824600e-02f,+7.17077181e-02f,-6.23899251e-02f,-6.17177505e-03f,+1.91315219e-01f,
+1.59257889e-01f,+4.10864549e-03f,+1.62878465e-02f,+2.93966457e-02f,+8.64202343e-03f,
+7.01016784e-02f,-2.40177345e-02f,+1.08694099e-01f,+4.68149483e-02f,+2.17725918e-01f,
+3.00334916e-02f,-9.90460068e-03f,-3.56880426e-02f,-2.74026915e-02f,+1.72086194e-01f,
+8.28202218e-02f,-4.00599726e-02f,-2.94963475e-02f,+1.95529684e-02f,+9.09548849e-02f,
-2.50932258e-02f,+8.19378160e-03f,+6.93967706e-03f,+2.69799270e-02f,+1.50240697e-02f,
-5.85634774e-03f,+8.86618122e-02f,-4.70097992e-04f,+7.58192763e-02f,+1.90426171e-01f,
-4.61284854e-02f,-7.98155612e-04f,+4.70773242e-02f,+1.14211915e-02f,+2.94691194e-02f,
+7.33993873e-02f,+4.81936671e-02f,-5.78258112e-02f,+1.21237300e-01f,+5.86098013e-03f,
+8.71221870e-02f,+2.47409698e-02f,+1.19071621e-02f,+1.27069935e-01f,+1.94005817e-01f,
+5.89250438e-02f,+1.26293048e-01f,+7.28680342e-02f,-5.57152145e-02f,-2.32676659e-02f,
+1.50082156e-01f,+1.47806659e-01f,-3.48160975e-02f,+8.64937529e-02f,+8.63073468e-02f,
+1.47110298e-01f,+1.43062854e-02f,+4.93052937e-02f,+2.23557204e-01f,+1.47486895e-01f,
+1.89486429e-01f,+1.34262264e-01f,-1.32007241e-01f,-1.05714239e-02f,+2.64331661e-02f,
+1.03845909e-01f,+1.61544502e-01f,+8.65121260e-02f,-4.52542817e-03f,+1.28881097e-01f,
-4.29136772e-03f,+7.87740946e-02f,+3.90711948e-02f,+1.12066187e-01f,+1.23422638e-01f,
+1.28726736e-01f,+8.06237981e-02f,+2.71901153e-02f,+9.14413854e-02f,-9.70317721e-02f,
-2.69586265e-01f,+9.66068804e-02f,-4.95407591e-03f,+5.84826572e-04f,+4.10550013e-02f,
+3.35778520e-02f,+1.97018027e-01f,-3.62035520e-02f,-3.15749794e-02f,+8.76285881e-02f,
+9.71013773e-03f,+1.58526465e-01f,+7.09996298e-02f,+6.54649809e-02f,+3.18922810e-02f,
-4.35789302e-02f,+1.97445676e-01f,+6.65678978e-02f,+9.92216095e-02f,+1.36620432e-01f,
+5.96610494e-02f,+4.71755043e-02f,-3.04952804e-02f,+1.70756638e-01f,-8.63571651e-03f,
+1.29978895e-01f,+1.99625835e-01f,+2.00446397e-01f,+6.38268590e-02f,+7.29795620e-02f,
-1.19348101e-01f,+1.62589833e-01f,+1.01789661e-01f,+7.00080618e-02f,-1.98678434e-01f,
+1.24751657e-01f,+6.54962361e-02f,+1.20158352e-01f,-9.24715847e-02f,+1.09144710e-01f,
-2.90416516e-02f,+1.39413744e-01f,+4.81420942e-02f,+7.65994117e-02f,+5.15424311e-02f,
+5.45588285e-02f,+4.01844792e-02f,+7.19723897e-03f,+5.53290211e-02f,-1.41187564e-01f,
-7.00958222e-02f,+2.79654711e-01f,+1.95387170e-01f,+4.08627652e-02f,+2.35803172e-01f,
+8.52907542e-03f,+8.04136768e-02f,+5.39569594e-02f,+9.59885493e-03f,-1.03688398e-02f,
+4.23183069e-02f,+2.00614985e-02f,+1.68725774e-01f,+1.74206823e-01f,-1.25221834e-01f,
+1.51956812e-01f,+8.19227695e-02f,+2.30290338e-01f,+2.92507082e-01f,+1.40031338e-01f,
+1.91806242e-01f,-2.35930849e-02f,+4.75038029e-02f,+3.83966579e-03f,+9.85052809e-02f,
-1.80871598e-02f,-7.99345225e-02f,+1.27183825e-01f,+1.35750145e-01f,+1.55872151e-01f,
-7.66132697e-02f,-1.46526201e-02f,+3.61245610e-02f,+3.30806792e-01f,+1.81551188e-01f,
-4.84238565e-02f,-7.04251975e-02f,+2.22797021e-02f,-1.13263495e-01f,+1.30134240e-01f,
+1.32067157e-02f,+1.59163162e-01f,-2.20222384e-01f,-3.47049013e-02f,+1.00305170e-01f,
+1.47036323e-02f,-1.57505557e-01f,-8.88984427e-02f,+5.46346605e-02f,-3.41349356e-02f,
+1.09501041e-01f,+1.24218084e-01f,+2.14303121e-01f,-9.83556733e-02f,+2.38300618e-02f,
+9.24730897e-02f,+8.36529434e-02f,+3.71562652e-02f,+1.98896691e-01f,+5.31170666e-02f,
+1.31443096e-02f,+1.64627030e-01f,+3.28693181e-01f,+8.94831419e-02f,+1.01361305e-01f,
+2.85245031e-01f,+1.07554309e-02f,+1.20819554e-01f,+1.02134170e-02f,-2.87767742e-02f,
+2.72593766e-01f,-3.92248891e-02f,+1.16368392e-02f,+1.14943258e-01f,+3.76873650e-02f,
+1.98191553e-01f,+2.68274695e-01f,-5.79801388e-02f,+1.25171021e-01f,+1.31265804e-01f,
+7.13708252e-02f,+1.71031997e-01f,+7.60518238e-02f,-1.48451859e-02f,+1.23194590e-01f,
+1.07743837e-01f,+6.41034245e-02f,+2.72033121e-02f,+2.72745714e-02f,+2.07319646e-03f,
+5.62134273e-02f,+4.69257161e-02f,+7.04002567e-03f,+1.84349313e-01f,+1.33148819e-01f,
+6.76524118e-02f,+1.38356447e-01f,+6.30952120e-02f,+2.16426309e-02f,+1.09988518e-01f,
+4.47462611e-02f,+5.79446033e-02f,+2.94088542e-01f,+8.61640126e-02f,-8.09470266e-02f,
-9.36341472e-03f,-1.55223459e-01f,+1.28897473e-01f,+1.87615510e-02f,+3.54671665e-02f,
+1.04861468e-01f,+3.16182643e-01f,+8.98074657e-02f,-1.41017169e-01f,+9.27928016e-02f,
+3.58914882e-02f,+1.46215126e-01f,+6.70822412e-02f,+3.05760652e-02f,-3.91292758e-02f,
+2.22055130e-02f,-1.92429200e-02f,+1.86228499e-01f,+1.21090710e-01f,-1.94143742e-01f,
+1.97590943e-02f,+2.07738027e-01f,+1.57674011e-02f,-1.70724213e-01f,+9.37385559e-02f,
+8.41861516e-02f,+7.14266226e-02f,+2.31183898e-02f,+1.08451582e-01f,+1.73576146e-01f,
+5.57687245e-02f,+1.24638170e-01f,+1.29081145e-01f,+1.18604906e-01f,-4.04702909e-02f,
+4.10925746e-02f,-1.75423741e-01f,+1.99763089e-01f,+1.73144519e-01f,-3.14835715e-03f,
-4.40522172e-02f,+3.14647257e-02f,-1.82812475e-02f,+7.20993876e-02f,+1.77565310e-02f,
+1.06027134e-01f,-6.23539239e-02f,+1.38892308e-01f,+1.94470197e-01f,+1.17699914e-01f,
+3.66276503e-02f,+1.04136877e-01f,+2.02036977e-01f,+1.61534309e-01f,-7.95964152e-03f,
-1.26181185e-01f,-2.51623411e-02f,+2.87121981e-01f,+8.30656961e-02f,+2.16647193e-01f,
+1.13341838e-01f,-2.02916130e-01f,+1.22493468e-01f,-8.57953504e-02f,+2.00007185e-01f,
+1.77523270e-01f,+7.19891638e-02f,+2.83954646e-02f,-4.14751768e-02f,-5.48884273e-02f,
-4.92384247e-02f,+6.72677308e-02f,+1.04586363e-01f,+7.64237121e-02f,+1.07098125e-01f,
+2.52565108e-02f,-2.35991944e-02f,-2.01833948e-01f,+4.77290228e-02f,+1.02540165e-01f,
+1.23639079e-02f,+9.72863659e-02f,+8.12634900e-02f,-9.63779818e-03f,+1.01666816e-01f,
+2.66807596e-03f,+1.17643930e-01f,-2.66631022e-02f,-9.25188810e-02f,+2.35200241e-01f,
-3.89629379e-02f,-8.82862881e-03f,+1.22299716e-01f,-7.61452615e-02f,+3.81229259e-02f,
+7.74832442e-02f,+2.05998853e-01f,-6.11881465e-02f,+3.77141958e-04f,-1.11358836e-02f,
-1.63717719e-03f,+1.52164772e-01f,+1.83130000e-02f,+1.02797821e-01f,+9.71283242e-02f,
+5.14102168e-02f,+8.37692320e-02f,-8.60951655e-03f,+1.29274065e-02f,+3.06179747e-02f,
+2.18668759e-01f,+9.94046554e-02f,+9.95103195e-02f,+1.26399189e-01f,+3.57988745e-01f,
+6.86093867e-02f,-1.98348220e-02f,+6.92190416e-03f,-4.97125201e-02f,+6.91790283e-02f,
-4.17532362e-02f,+2.86179334e-02f,+4.32021581e-02f,+1.98925108e-01f,+1.64513111e-01f,
+6.06518053e-02f,+8.07122961e-02f,+2.21106708e-01f,-4.66305241e-02f,+1.74425796e-01f,
+2.55270064e-01f,-4.93031964e-02f,-7.56858960e-02f,-1.64202377e-01f,+2.28930905e-01f,
+3.54206525e-02f,+1.44339994e-01f,-1.41290858e-01f,-2.93202903e-02f,+2.78974473e-01f,
+1.00151323e-01f,+5.36021665e-02f,+5.93709163e-02f,+2.28033721e-01f,-9.72905681e-02f,
-1.11290521e-03f,+8.12804177e-02f,+9.22427475e-02f,-6.21729568e-02f,-7.37827197e-02f,
+1.20456070e-01f,+2.24733073e-02f,+1.38876900e-01f,+5.99165820e-02f,-2.84257904e-02f,
-3.08196619e-03f,+4.36538905e-01f,+9.89000797e-02f,+1.38528079e-01f,+9.15908720e-03f,
-4.33702916e-02f,+1.20906092e-01f,-1.48092434e-01f,+1.19754054e-01f,+1.81337699e-01f,
+5.49058691e-02f,-1.56687021e-01f,+9.53446031e-02f,+1.45485833e-01f,-1.96103416e-02f,
+7.38793910e-02f,+1.97860524e-02f,+6.84019998e-02f,+1.13994069e-01f,-7.15966001e-02f,
+2.09202826e-01f,-6.47400469e-02f,+1.28184736e-01f,+1.07915916e-01f,+2.25107938e-01f,
+6.19813241e-03f,+2.11589575e-01f,+1.28488883e-01f,+1.17494173e-01f,-5.63891120e-02f,
+2.28318460e-02f,+8.60141218e-02f,+1.56266000e-02f,+6.04671463e-02f,+7.86812603e-02f,
+9.32020620e-02f,+1.26183316e-01f,+8.15066695e-02f,+1.11384548e-01f,+5.69101498e-02f,
-1.92872077e-01f,+7.55906403e-02f,-1.10673755e-01f,+1.51761085e-01f,+3.26638877e-01f,
-4.78126183e-02f,-6.90062493e-02f,+1.06456494e-02f,+4.17680413e-01f,+7.89451748e-02f,
+4.58059572e-02f,+1.27884792e-02f,+2.01796383e-01f,+9.92356017e-02f,+7.73719922e-02f,
+8.50048736e-02f,-3.39551717e-02f,-1.00971244e-01f,+1.06636696e-01f,+1.72124475e-01f,
-7.58109912e-02f,-3.99043076e-02f,+1.38754815e-01f,+1.04514621e-01f,+1.41074494e-01f,
+2.30363280e-01f,+2.55939722e-01f,+1.70089051e-01f,+4.13978472e-02f,+7.94673264e-02f,
+1.44586474e-01f,-6.96751922e-02f,+1.80194259e-01f,+1.43434674e-01f,-7.34705827e-04f,
-7.14605441e-03f,+1.98251754e-02f,+1.36247844e-01f,-8.65918875e-04f,+1.33630261e-01f,
+1.11246802e-01f,-1.04229026e-01f,+1.02528460e-01f,-1.27314255e-01f,+3.58619578e-02f,
-2.63300929e-02f,+1.42434957e-02f,+2.26336978e-02f,+1.14067294e-01f,+4.02801558e-02f,
+8.05458128e-02f,+3.12897086e-01f,-2.06064209e-02f,-1.15607962e-01f,+6.71691895e-02f,
+1.15564349e-03f,-3.56994644e-02f,+1.21464558e-01f,+3.16071689e-01f,+1.02706663e-01f,
+1.01705253e-01f,+1.68231651e-01f,+7.27880895e-02f,-4.22165915e-02f,-5.71392402e-02f,
-6.74282834e-02f,+2.44124353e-01f,+2.09236607e-01f,+1.12409685e-02f,+1.40252054e-01f,
+2.55128685e-02f,+2.27385759e-01f,-6.26141056e-02f,+1.20223708e-01f,-4.39249128e-02f,
+6.21707700e-02f,+5.27397133e-02f,-1.39140636e-01f,+6.97763562e-02f,+1.20027103e-01f,
+8.00288692e-02f,+1.42425662e-02f,+6.50495151e-03f,-1.18266910e-01f,+6.53806478e-02f,
-1.47603631e-01f,+1.80766866e-01f,+2.32527003e-01f,+1.12742379e-01f,+1.55471131e-01f,
+6.78356290e-02f,+2.42935587e-02f,+5.40050417e-02f,-3.38355601e-02f,-7.89616555e-02f,
-1.78360436e-02f,+8.09888244e-02f,-4.83326949e-02f,+1.25672176e-01f,+2.01482594e-01f,
-5.15219234e-02f,+1.10672310e-01f,+1.63431779e-01f,+1.55974552e-01f,+7.85245299e-02f,
+2.20798597e-01f,+9.98949036e-02f,-1.14623725e-01f,+2.01939523e-01f,-8.15490708e-02f,
+1.79819297e-02f,+1.44946188e-01f,+1.14090547e-01f,-4.16919477e-02f,-9.18793119e-03f,
+3.12899910e-02f,+1.49233907e-01f,+2.70242393e-02f,+1.14803556e-02f,+6.10385723e-02f,
+6.79743960e-02f,-1.05924472e-01f,+7.21005350e-02f,+1.76988877e-02f,+2.12454960e-01f,
+1.15843371e-01f,+3.97889456e-03f,+7.60470331e-02f,+6.88041970e-02f,+8.05732906e-02f,
+1.49890497e-01f,+6.96067959e-02f,+2.48515204e-01f,+1.13129281e-01f,-5.82646579e-02f,
+5.57926819e-02f,+1.68463867e-02f,+1.29607199e-02f,+5.24866991e-02f,+5.80884628e-02f,
+1.37526184e-01f,+5.83130829e-02f,+1.17776562e-02f,+6.26790896e-02f,-1.66611567e-01f,
+1.19265325e-01f,+8.79828334e-02f,-7.53480883e-04f,+1.73662305e-01f,-1.66624129e-01f,
-3.85557897e-02f,+1.98698908e-01f,+4.66777831e-02f,+7.48314485e-02f,-2.08533302e-01f,
+2.29630619e-01f,+1.05687030e-01f,+1.39592156e-01f,+1.48496777e-01f,+1.68829277e-01f,
+1.48332253e-01f,+6.90950751e-02f,+1.00991532e-01f,+2.37262189e-01f,+9.65965614e-02f,
+1.79733604e-01f,+1.20341018e-01f,-2.56377868e-02f,+7.55497590e-02f,+1.95067242e-01f,
+7.25347996e-02f,+5.71872294e-02f,+1.82196915e-01f,+2.06182510e-01f,-2.34617703e-02f,
+2.21809804e-01f,+2.18800455e-03f,-1.48305684e-01f,+1.77498087e-01f,-1.00265704e-02f,
+8.99255648e-02f,-4.38251644e-02f,+4.02986072e-02f,+5.68970889e-02f,+1.15712449e-01f,
-1.39706463e-01f,-1.44938558e-01f,+9.99760479e-02f,+2.11498216e-01f,-3.33835520e-02f,
+8.25309977e-02f,+1.55332359e-02f,-8.33098367e-02f,+2.40109280e-01f,+3.94488610e-02f,
+2.14745671e-01f,+1.95584167e-02f,-2.90675797e-02f,-2.23170454e-03f,+7.28364959e-02f,
+9.50127244e-02f,+5.50890826e-02f,+5.22347540e-02f,+1.87916011e-02f,+1.62684843e-02f,
+1.98393643e-01f,-1.92403957e-01f,+2.38688925e-04f,-1.50797085e-03f,+7.33490363e-02f,
+9.84903201e-02f,+4.12948579e-02f,+3.48311737e-02f,+8.45947396e-03f,+6.87928423e-02f,
+2.94764880e-02f,-5.73039725e-02f,-3.68685164e-02f,+5.39353415e-02f,+2.04763502e-01f,
+1.41797557e-01f,+2.90630251e-01f,+8.20852295e-02f,+2.03167170e-01f,+1.52083248e-01f,
-7.71378400e-03f,+6.99049830e-02f,-2.72732321e-02f,+1.17657498e-01f,-1.40474541e-02f,
+6.05414473e-02f,+1.85106859e-01f,+7.53646195e-02f,+6.04964793e-02f,-1.68261513e-01f,
-4.91812117e-02f,+1.41970301e-02f,+1.14350885e-01f,+1.00878328e-01f,-7.69497976e-02f,
-8.09061006e-02f,+2.83821411e-02f,+5.72346896e-02f,-1.48960585e-02f,-6.12875149e-02f,
+1.43534288e-01f,+2.87390262e-01f,+1.57645762e-01f,+4.36623357e-02f,+3.35236639e-02f,
-1.72019135e-02f,+1.80052027e-01f,+6.97486475e-02f,+1.55264333e-01f,+7.28493333e-02f,
+1.05076529e-01f,+1.99263796e-01f,+8.89599044e-03f,+2.25874215e-01f,-1.54817775e-02f,
+7.94943571e-02f,-7.71826208e-02f,+6.42111376e-02f,-8.99609178e-03f,+6.99086338e-02f,
+1.10193245e-01f,-1.72043756e-01f,+1.93678990e-01f,+7.88856298e-02f,+6.81824833e-02f,
+9.57772136e-02f,+4.23684902e-02f,+2.77072698e-01f,+1.43270805e-01f,-6.15302771e-02f,
+1.51717871e-01f,+2.23961249e-01f,+4.25095856e-02f,+3.55778411e-02f,+6.11267909e-02f,
+8.97762645e-03f,+4.20553163e-02f,+1.12208650e-02f,+1.62924841e-01f,+1.49799272e-01f,
+8.49290341e-02f,-2.05263570e-01f,+8.79228562e-02f,-1.06695890e-02f,+8.22088420e-02f,
+5.44152632e-02f,+1.19994655e-01f,-4.15196568e-02f,-4.46475148e-02f,+6.14123140e-03f,
+4.69243638e-02f,+5.78439422e-02f,-8.80344883e-02f,-4.18855637e-01f,+8.44491646e-02f,
+4.61463220e-02f,+6.18406907e-02f,-5.65316938e-02f,+1.72046646e-01f,+7.16345981e-02f,
+1.20504975e-01f,-1.10042987e-04f,+1.21819742e-01f,-3.65374833e-02f,+1.28739169e-02f,
-8.01606104e-02f,+1.76490739e-03f,-9.08576623e-02f,+2.13966537e-02f,+2.60819674e-01f,
+9.63021964e-02f,+1.90109700e-01f,+2.35692449e-02f,+1.83031142e-01f,+6.84957951e-02f,
+3.77260633e-02f,+3.81929912e-02f,-7.42671499e-03f,-1.73375364e-02f,+1.77556798e-01f,
+6.65880293e-02f,+9.49055925e-02f,+1.27844080e-01f,-2.19870001e-01f,-1.44968126e-02f,
-1.33614272e-01f,-7.08308667e-02f,-8.03832337e-03f,-9.96114910e-02f,-3.52281705e-02f,
-1.06231719e-01f,+5.50750643e-02f,+1.11139551e-01f,+7.98354968e-02f,+6.42279908e-02f,
+2.01158985e-01f,+2.62070615e-02f,+1.51329026e-01f,-9.18984935e-02f,+7.02992082e-04f,
-2.94334404e-02f,-8.81082714e-02f,+1.34098828e-02f,+1.40335634e-01f,+2.52506882e-01f,
+3.67600881e-02f,+1.68813050e-01f,+9.46045853e-03f,+7.49424174e-02f,+8.05112571e-02f,
+2.59544216e-02f,+3.17335036e-03f,+7.62071684e-02f,+1.49081394e-01f,+5.06153563e-03f,
-1.44017220e-01f,+1.67778432e-01f,+2.01361472e-04f,+1.07149057e-01f,+7.42415758e-03f,
+1.17537595e-01f,+1.32295161e-01f,-5.14518842e-02f,+3.92024629e-02f,+7.39412829e-02f,
+2.52416115e-02f,+6.61213174e-02f,+1.33803397e-01f,+1.95485532e-01f,+7.89559484e-02f,
+1.05122358e-01f,+1.58245210e-02f,+1.94652706e-01f,+8.44389051e-02f,+1.78742420e-03f,
+1.19139664e-01f,+4.77718897e-02f,-3.21685821e-02f,-2.81409419e-04f,-2.47443356e-02f,
+1.17560126e-01f,+2.78889686e-02f,+3.61605175e-02f,+4.14155759e-02f,-1.58052947e-02f,
+3.52307074e-02f,-1.04498006e-02f,+1.82311833e-01f,+6.16099648e-02f,+1.62189171e-01f,
+3.92220728e-02f,+2.31914893e-01f,-6.86253235e-02f,+1.18825346e-01f,+1.06842436e-01f,
+1.67472959e-02f,+4.50145900e-02f,+1.36103826e-02f,-8.66794884e-02f,-6.66875243e-02f,
+1.64183140e-01f,-1.40505203e-03f,+1.58318520e-01f,+1.17145151e-01f,+1.13502830e-01f,
+2.60027111e-01f,-8.16058964e-02f,+1.40339136e-01f,+1.26637280e-01f,-8.59906897e-02f,
+2.03210056e-01f,+1.34291947e-01f,+1.59539774e-01f,-7.81457406e-03f,+1.60209477e-01f,
-7.37216091e-03f,-1.10139546e-03f,-8.21741745e-02f,+1.10812217e-01f,+3.04530514e-03f,
+3.84319089e-02f,-7.02561811e-03f,-1.41964763e-01f,+1.33093119e-01f,+1.13355003e-01f,
+5.72139435e-02f,-7.78799132e-02f,-2.96461191e-02f,+1.06270395e-01f,+1.71286926e-01f,
-6.78845942e-02f,+1.36955366e-01f,-4.57857810e-02f,+1.03638619e-01f,+1.57972246e-01f,
+9.86612402e-03f,+1.25635311e-01f,+2.06447050e-01f,+5.32915741e-02f,-1.14819199e-01f,
+1.71263441e-01f,+9.03817415e-02f,+7.44192302e-02f,-1.14175484e-01f,+7.00163618e-02f,
-8.23376328e-02f,+1.29055709e-01f,+2.67911013e-02f,+1.23469479e-01f,-6.96258694e-02f,
+8.22368190e-02f,+3.16162445e-02f,-1.22447163e-02f,+4.04633842e-02f,+5.39521798e-02f,
+1.14541815e-03f,+6.10364340e-02f,-4.60864641e-02f,+1.15003176e-01f,+8.39352887e-03f,
+1.29825845e-01f,+1.43803269e-01f,+7.77085349e-02f,+5.46643138e-02f,-4.78034019e-02f,
+7.68434107e-02f,+6.20832518e-02f,-6.41068146e-02f,-1.26694649e-01f,+1.76726431e-01f,
-1.74607679e-01f,-8.90879780e-02f,+8.83901641e-02f,+1.49832457e-01f,+2.61583589e-02f,
-2.73391902e-02f,+2.00431049e-01f,+1.19575180e-01f,-2.63588876e-02f,+1.51457027e-01f,
+4.27436009e-02f,+6.21394813e-02f,-4.09403741e-02f,+1.27717361e-01f,+8.63057524e-02f,
+8.97117779e-02f,+1.66470781e-01f,+1.98295459e-01f,+1.41091228e-01f,+2.17262115e-02f,
+3.07979714e-02f,+3.73979891e-03f,-8.02543685e-02f,-7.67092705e-02f,-6.11251332e-02f,
-4.41963188e-02f,+1.17653184e-01f,+9.75884199e-02f,+5.79372747e-04f,+1.84284635e-02f,
+7.12801442e-02f,-6.07962981e-02f,+8.38017613e-02f,+1.85879201e-01f,+3.96282300e-02f,
+7.02152699e-02f,+1.51518390e-01f,+1.49139315e-01f,-8.56343284e-03f,-2.00839271e-03f,
+8.33592936e-02f,+9.90754291e-02f,-9.45543945e-02f,+1.09299645e-01f,+5.47830053e-02f,
+1.30524516e-01f,+3.26839462e-02f,+8.18436965e-02f,+8.68338048e-02f,+7.68093690e-02f,
+1.28653169e-01f,-1.13363571e-01f,+1.57592207e-01f,+7.47895464e-02f,+7.23388717e-02f,
+3.07155281e-01f,+1.29617527e-01f,+2.27265686e-01f,-4.71651591e-02f,-1.68758463e-02f,
+1.81119815e-01f,+7.62777627e-02f,+7.58018941e-02f,+2.03433156e-01f,-2.81229801e-02f,
-5.96388392e-02f,-2.12420151e-02f,+1.34018570e-01f,+9.38602909e-02f,+1.14613436e-01f,
+1.56492844e-01f,-1.04861885e-01f,+5.33500873e-02f,+6.64546341e-02f,+3.91136035e-02f,
+1.81137100e-01f,+8.41008723e-02f,-2.50824057e-02f,+2.71832496e-01f,+8.77936780e-02f,
-1.17101520e-01f,+6.65006265e-02f,-7.31915012e-02f,+2.14955136e-02f,+8.38481933e-02f,
+9.94407162e-02f,-1.08021684e-01f,+2.01298088e-01f,+7.14267939e-02f,+2.61770129e-01f,
+4.06271033e-03f,-1.97042897e-03f,+1.29576996e-01f,+1.22138448e-01f,+6.27175719e-02f,
-2.14525908e-02f,-1.04902415e-02f,+5.59909120e-02f,-1.78820118e-02f,+8.01025182e-02f,
+4.14821953e-02f,-1.05308853e-02f,-1.70070585e-02f,+2.26976667e-02f,+5.37239015e-02f,
-2.10354477e-03f,-2.11378764e-02f,+5.82919568e-02f,+1.28107250e-01f,-1.34629592e-01f,
+2.07675919e-01f,+1.07296184e-01f,+1.73133120e-01f,+2.98011280e-03f,+2.59757452e-02f,
+6.66934475e-02f,+7.36042159e-03f,+1.76702112e-01f,+1.52646834e-02f,+1.62785888e-01f,
+3.43766548e-02f,+9.70678478e-02f,-1.19126663e-01f,-1.39254173e-02f,+7.18895644e-02f,
+2.54272968e-01f,+7.88955837e-02f,+4.17978540e-02f,+4.87301312e-02f,-6.69786036e-02f,
+1.32340759e-01f,+6.78824633e-02f,+1.46316066e-01f,+1.27190560e-01f,+1.51026249e-01f,
+1.08113931e-02f,+7.35318586e-02f,+1.46529237e-02f,+1.29094478e-02f,+5.43388633e-05f,
-2.06113886e-02f,+1.00231126e-01f,+4.74563725e-02f,+1.09316684e-01f,-7.42367934e-03f,
-8.27472191e-03f,+1.66858025e-02f,+7.07833916e-02f,+5.80960438e-02f,-6.19946234e-02f,
+6.72433004e-02f,-2.41548065e-02f,+1.07653312e-01f,+1.46578595e-01f,+1.42338827e-01f,
+1.33212402e-01f,-1.81418378e-02f,+9.98885706e-02f,-4.67526633e-03f,-2.00518239e-02f,
+5.09567931e-02f,+5.56426868e-02f,+1.15088895e-01f,-4.74893814e-03f,+5.04172444e-02f,
+8.11693296e-02f,+1.25495419e-01f,+2.03628149e-02f,+9.25481692e-02f,+7.83582330e-02f,
+1.75746828e-02f,-2.17347573e-02f,+9.43588763e-02f,+1.96322963e-01f,+1.19600952e-01f,
+8.33336264e-02f,+3.02005649e-01f,+5.18658124e-02f,+6.32860139e-02f,+1.80013049e-02f,
+3.23170796e-02f,+7.40443245e-02f,+8.42108056e-02f,-6.32344112e-02f,+8.53036270e-02f,
+1.00896128e-01f,+7.17742145e-02f,+1.59976959e-01f,+1.45793632e-02f,+1.26422405e-01f,
+1.13079742e-01f,-1.93626303e-02f,+5.46041839e-02f,+4.46596965e-02f,+8.57462138e-02f,
+7.30797574e-02f,+8.57800692e-02f,+5.75142689e-02f,+1.99116141e-01f,+1.23779103e-01f,
+3.35511863e-02f,+7.76196420e-02f,+9.03260708e-02f,+2.15321869e-01f,-3.93515117e-02f,
-6.07959479e-02f,+2.88783177e-03f,+1.34434253e-01f,+8.00510272e-02f,+5.22825718e-02f,
-5.57409003e-02f,+4.24157307e-02f,+8.02382361e-03f,+1.06685363e-01f,+1.74551025e-01f,
+1.49207711e-01f,+1.43112943e-01f,+1.37536496e-01f,+3.79301794e-02f,-1.58879627e-02f,
-5.05090281e-02f,+5.74717717e-03f,+8.42709020e-02f,+8.98151249e-02f,-4.15089130e-02f,
+1.03997223e-01f,-6.28349604e-03f,+6.56072795e-02f,-1.35211810e-01f,+8.87522399e-02f,
-2.55423132e-02f,+2.80817375e-02f,+1.12644121e-01f,+3.71079519e-02f,+1.23238489e-01f,
-3.57035659e-02f,+1.32179260e-01f,+4.28262353e-03f,+7.81858042e-02f,+5.83687909e-02f,
+8.02373737e-02f,-2.23108586e-02f,+9.65475887e-02f,-7.47422269e-03f,-1.26160560e-02f,
+5.83879538e-02f,+9.77839679e-02f,+8.72784108e-02f,+9.37209371e-03f,+5.03659360e-02f,
+3.33066285e-02f,+4.84037995e-02f,+6.73413202e-02f,-4.36012080e-04f,-7.63787106e-02f,
+7.89106339e-02f,-4.59331721e-02f,+8.41936246e-02f,+1.50443584e-01f,+2.79954433e-01f,
+1.45531178e-01f,+7.17340857e-02f,+5.15941195e-02f,+8.73552412e-02f,+1.81746557e-01f,
+2.52834819e-02f,+1.89790115e-01f,+3.03366836e-02f,+2.56539676e-02f,-7.42297843e-02f,
+9.33225751e-02f,-6.13497943e-02f,+6.55956939e-02f,-4.09765728e-03f,-4.51612137e-02f,
-5.15269786e-02f,+1.08199067e-01f,+1.21723086e-01f,+3.23277414e-02f,+4.94293533e-02f,
+3.09177823e-02f,+7.24827871e-02f,+1.30917057e-01f,-6.03607893e-02f,+8.33632704e-03f,
+1.25787213e-01f,-5.30136563e-03f,+1.00474060e-01f,-2.23836489e-02f,-1.44859906e-02f,
-2.50014681e-02f,+5.38553819e-02f,-2.50016768e-02f,+1.60822362e-01f,+7.59790018e-02f,
+5.77575155e-02f,+9.38109457e-02f,+1.90088630e-01f,+1.07398525e-01f,+6.08295612e-02f,
+4.91067916e-02f,+9.58701894e-02f,+2.20777094e-02f,+4.61890064e-02f,+1.91184506e-01f,
+6.36983514e-02f,+9.14152116e-02f,+1.86224788e-01f,-2.35388745e-02f,-3.06027513e-02f,
-8.74201730e-02f,-1.37688359e-02f,+8.55768844e-02f,+1.40065581e-01f,+1.26262546e-01f,
-2.98776738e-02f,-5.74017316e-02f,+1.28171921e-01f,+4.26297076e-02f,+2.41420016e-01f,
-5.12495153e-02f,+6.61037043e-02f,+4.89343740e-02f,+1.19780667e-01f,-9.06593725e-03f,
+6.99563175e-02f,+2.63587266e-01f,+5.53845540e-02f,+1.41871944e-01f,+1.40408874e-01f,
+1.13838181e-01f,+3.68549041e-02f,+8.67408365e-02f,+7.48346448e-02f,+4.25314568e-02f,
+1.35994047e-01f,+1.21151485e-01f,+1.66283965e-01f,+6.32010624e-02f,+1.03484623e-01f,
+1.90402299e-01f,+4.33102176e-02f,+5.31157143e-02f,-5.13706822e-03f,+8.43021646e-03f,
+1.22043610e-01f,+3.70479450e-02f,+5.02816737e-02f,+4.18471992e-02f,+2.60958783e-02f,
+1.94286443e-02f,+1.47644714e-01f,+1.03912011e-01f,-5.84388413e-02f,-4.42407504e-02f,
+4.51133065e-02f,+6.53993338e-03f,+9.99202579e-03f,-9.59219784e-02f,+1.15256697e-01f,
+5.12013361e-02f,+1.91792101e-01f,+5.77697530e-02f,+7.86160678e-02f,+1.48359612e-01f,
-1.32006695e-02f,-9.02193878e-03f,+9.52797085e-02f,+1.08086564e-01f,-2.12525134e-03f,
-2.30241939e-02f,+2.51172125e-01f,+1.13716915e-01f,+6.69341758e-02f,-3.21095809e-02f,
+1.56735539e-01f,+1.06185898e-01f,+1.21071063e-01f,+2.62979083e-02f,+9.96417254e-02f,
-5.88300973e-02f,+1.29406705e-01f,+1.39562711e-02f,+6.58012703e-02f,+1.24849819e-01f,
+7.46219754e-02f,+4.96897753e-03f,+1.26724809e-01f,+1.34428367e-01f,+5.24218827e-02f,
+1.31855369e-01f,+5.14865257e-02f,+4.41046059e-02f,+1.01135135e-01f,+6.77915812e-02f,
-7.69945560e-03f,+1.50057957e-01f,+1.02933191e-01f,+5.25786243e-02f,-6.00748099e-02f,
+1.19630188e-01f,+6.09496087e-02f,+1.09225452e-01f,+6.74297661e-02f,+9.39911678e-02f,
+1.06509864e-01f,+1.21231757e-01f,+1.58716291e-02f,+5.58665320e-02f,+7.93990642e-02f,
+1.06556833e-01f,+1.34058774e-01f,+6.96557388e-02f,+1.19990287e-02f,+4.95889504e-03f,
+7.59499660e-03f,+1.08942524e-01f,-5.48159191e-03f,+6.69245869e-02f,+6.60586804e-02f,
+1.16018869e-01f,-2.58953553e-02f,+3.09488606e-02f,-2.88954284e-02f,+8.69456008e-02f,
+5.88254668e-02f,+2.08612829e-01f,+9.18241367e-02f,+8.82595219e-03f,+1.77345544e-01f,
+4.10521552e-02f,+8.56915265e-02f,+2.34911102e-03f,+9.31140259e-02f,+1.11226246e-01f,
+3.23727205e-02f,+8.57122093e-02f,+5.34680113e-02f,+1.26696572e-01f,+1.05040289e-01f,
+7.82057121e-02f,+1.86662182e-01f,+2.07728557e-02f,+8.70170444e-02f,+2.08934128e-01f,
+1.90387964e-01f,+1.42908432e-02f,+1.31883934e-01f,-2.84330603e-02f,+3.02894890e-01f,
+1.40603423e-01f,+2.11362198e-01f,+5.75750284e-02f,+1.08544335e-01f,+2.44265161e-02f,
+8.30467790e-02f,+1.01251476e-01f,+2.84726295e-04f,+7.87722543e-02f,+1.22406147e-01f,
+1.72236934e-01f,+7.53460899e-02f,+1.03062391e-01f,+9.08652842e-02f,+7.70562664e-02f,
+2.94525307e-02f,+1.25429586e-01f,-6.72054617e-03f,+4.26221453e-02f,+1.73333198e-01f,
+5.41264750e-02f,-8.68945941e-02f,+2.21728504e-01f,+3.53825800e-02f,+1.00206099e-02f,
-1.10720061e-02f,+8.98667946e-02f,+3.98373865e-02f,+1.77517116e-01f,+2.10487936e-02f,
+1.99865043e-01f,+1.00346841e-02f,+3.55063826e-02f,+2.24279255e-01f,+8.31674505e-03f,
+1.35865882e-01f,-1.69468433e-01f,+2.32287616e-01f,-6.02943487e-02f,+1.54356226e-01f,
+3.20370123e-02f,+8.67459923e-02f,-9.09498706e-02f,+6.05127439e-02f,+7.14093596e-02f,
-8.67577922e-03f,+5.75553067e-02f,+5.70594594e-02f,+8.20753202e-02f,+5.41146509e-02f,
+9.50656682e-02f,-2.63108835e-02f,+1.26943499e-01f,-3.64010707e-02f,+6.31176233e-02f,
+2.52120793e-02f,-7.93030299e-03f,-6.80713505e-02f,-2.42547356e-02f,+2.36972272e-02f,
+1.23158157e-01f,+1.22552879e-01f,+1.63014367e-01f,+8.40352029e-02f,-1.43829524e-03f,
+9.29647014e-02f,+8.42929482e-02f,+4.73970436e-02f,-8.51621479e-02f,+1.10210173e-01f,
+3.14862095e-03f,+2.99785640e-02f,+6.18469939e-02f,+1.53026894e-01f,+1.23953499e-01f,
+9.19804629e-03f,+6.42387643e-02f,+6.27730489e-02f,+5.12764491e-02f,-3.38799432e-02f,
+4.18325886e-03f,+3.17741446e-02f,+1.46044880e-01f,+3.76363881e-02f,+5.46867363e-02f,
+1.56848226e-02f,+1.46072581e-01f,+3.24816965e-02f,+1.03574298e-01f,+9.48917568e-02f,
-1.90324541e-02f,+1.57772198e-01f,-6.90325070e-03f,+9.98696834e-02f,-2.42026746e-02f,
+8.88637155e-02f,+3.87970582e-02f,+3.83417085e-02f,-4.08488922e-02f,-2.46470645e-02f,
+1.17992662e-01f,+5.46223633e-02f,+2.59822961e-02f,+9.93966982e-02f,+2.16618225e-01f,
+1.62523702e-01f,-4.46884297e-02f,+7.25812539e-02f,+6.54876307e-02f,+1.91901494e-02f,
+6.63019046e-02f,-8.51362347e-05f,+6.31586164e-02f,+1.73144236e-01f,+1.05469227e-01f,
+5.05330861e-02f,+2.25081816e-02f,+3.83083634e-02f,-9.83219966e-02f,+4.99837585e-02f,
+4.99612764e-02f,-2.57062521e-02f,+1.47647589e-01f,+2.09135517e-01f,+3.29143833e-03f,
+1.04750738e-01f,+8.51307288e-02f,+2.11634841e-02f,+2.27641985e-01f,+1.69829145e-01f,
+1.62842840e-01f,+6.53871968e-02f,+4.97133844e-02f,+1.23642668e-01f,+9.02072489e-02f,
+7.48763159e-02f,+7.65752941e-02f,+3.76043916e-02f,+1.12417661e-01f,-1.12781627e-03f,
+3.02228719e-01f,+1.05227150e-01f,+1.00868598e-01f,+4.38648928e-03f,-3.39278765e-02f,
+7.92393163e-02f,-5.13076084e-03f,+4.49720584e-02f,+9.85492766e-02f,+1.85029805e-01f,
+5.58672585e-02f,+4.23783250e-02f,+1.35941178e-01f,+1.54582873e-01f,+1.64882600e-01f,
+5.15895113e-02f,+5.50819412e-02f,+1.20030776e-01f,+4.10264879e-02f,+7.59209394e-02f,
+6.46305382e-02f,+9.90773588e-02f,+9.97409597e-02f,+7.02582300e-02f,+1.13637388e-01f,
+9.46447551e-02f,+3.60935181e-02f,+1.15868092e-01f,+3.52276489e-02f,+1.02097064e-01f,
-1.48784341e-02f,-1.63868517e-01f,+1.00806653e-01f,+8.42181444e-02f,-7.16534853e-02f,
+1.21938162e-01f,+8.33982676e-02f,-1.11670303e-03f,-4.15570401e-02f,+2.76712924e-01f,
+8.49106163e-02f,-5.36760539e-02f,-7.04982877e-02f,+2.20403597e-01f,+6.30110875e-02f,
+6.63712099e-02f,+1.28278524e-01f,+1.02125555e-01f,+1.52634069e-01f,+3.19259241e-02f,
+3.28327149e-01f,-4.85366676e-03f,-5.49535900e-02f,+1.33772776e-01f,+3.37770469e-02f,
-8.47079679e-02f,+9.74338651e-02f,+1.39998868e-01f,+8.41394663e-02f,+1.33041084e-01f,
+1.93570703e-02f,+2.13022698e-02f,+1.10626906e-01f,-1.05541311e-02f,+3.44939195e-02f,
+5.84607236e-02f,+8.12330320e-02f,+1.03212021e-01f,+1.03426538e-01f,+8.62034708e-02f,
+1.55451577e-02f,-5.25723472e-02f,+9.26466957e-02f,+4.61761877e-02f,+8.68249610e-02f,
+1.25635117e-01f,-1.47507591e-02f,+4.07804362e-02f,+1.31583184e-01f,+1.33670896e-01f,
+1.40840188e-01f,-1.78882461e-02f,-3.22112292e-02f,+5.23653068e-02f,+3.55453715e-02f,
+6.77258968e-02f,+5.96163161e-02f,+1.06661266e-03f,+1.15857266e-01f,+1.35784581e-01f,
+1.12430491e-01f,+6.04545586e-02f,+2.08138092e-03f,+3.94113809e-02f,+1.16491660e-01f,
+1.21803381e-01f,+1.17301710e-01f,-1.18251726e-01f,+9.44873169e-02f,+1.03744946e-01f,
+9.93915349e-02f,+1.07263997e-01f,+8.81362557e-02f,+2.41909511e-02f,-3.73531319e-02f,
+1.43910289e-01f,+1.85812525e-02f,+7.61362538e-02f,+4.37560119e-02f,-2.63566468e-02f,
+7.16032237e-02f,+4.71220762e-02f,+1.17662854e-01f,-1.79796796e-02f,+1.16760984e-01f,
+4.15586233e-02f,+9.61874127e-02f,+2.96506397e-02f,+7.33738840e-02f,-3.71448621e-02f,
+1.07209980e-02f,+1.10614955e-01f,+4.18248475e-02f,+5.07069230e-02f,+7.98536390e-02f,
+4.05358449e-02f,+2.33302377e-02f,-9.53248516e-02f,+3.56524140e-02f,-2.62918845e-02f,
+1.19787036e-02f,-7.23807514e-02f,+4.43432778e-02f,-2.38262102e-01f,-4.50541601e-02f,
+6.92491382e-02f,+1.44488156e-01f,+1.33199513e-01f,+4.68240082e-02f,+8.18234980e-02f,
+8.91615599e-02f,+1.10184930e-01f,+1.29579991e-01f,+3.09039615e-02f,-3.65613885e-02f,
+1.80534393e-01f,+1.36662526e-02f,+1.06685370e-01f,-7.46502131e-02f,+1.39066298e-02f,
+7.14678690e-02f,+9.57537591e-02f,+1.38166279e-01f,-6.49291724e-02f,+1.98065653e-01f,
-4.87049902e-03f,-5.90670034e-02f,+9.52868685e-02f,+9.91056301e-03f,+3.70546989e-02f,
+1.15744807e-01f,-9.25137401e-02f,+1.32675603e-01f,+6.70026541e-02f,-4.29398380e-03f,
+1.44730002e-01f,+1.88466862e-01f,+8.23586732e-02f,+8.08963850e-02f,-1.23602739e-02f,
-4.16937992e-02f,+9.54461619e-02f,+1.34483017e-02f,+7.26940408e-02f,+1.80516485e-02f,
+9.48542953e-02f,+8.77475459e-03f,+3.48175429e-02f,-3.86507399e-02f,+1.94839850e-01f,
+2.53755916e-02f,+9.14401785e-02f,+9.79512930e-02f,+1.27624929e-01f,-8.52610543e-02f,
+3.71647254e-02f,-1.32010981e-01f,-9.88029912e-02f,+1.26685247e-01f,+1.08391896e-01f,
+2.04075620e-01f,+6.38236776e-02f,+7.75252134e-02f,+9.54331383e-02f,-6.81805909e-02f,
-1.00881711e-01f,+2.18559429e-01f,+1.12463953e-02f,+1.54285938e-01f,+1.68045964e-02f,
+2.36397143e-02f,+1.14341564e-02f,+1.48523524e-01f,+1.26933932e-01f,+2.49548361e-01f,
+9.74924192e-02f,+4.58205380e-02f,+4.72851843e-02f,+1.08746000e-01f,+3.51112485e-02f,
+1.81064531e-01f,+1.22477762e-01f,+6.64383769e-02f,+6.60209283e-02f,+9.21083912e-02f,
+3.87679003e-02f,+4.45267931e-02f,+5.32087218e-03f,+1.32941037e-01f,-3.09459623e-02f,
+2.10353822e-01f,+5.71188517e-03f,-4.84001040e-02f,+3.89379859e-02f,+2.48623323e-02f,
+1.92706198e-01f,+7.45787397e-02f,-1.14887826e-01f,+1.66597679e-01f,+3.32544073e-02f,
-2.00059712e-01f,-5.78324459e-02f,-1.31264299e-01f,-1.21462002e-01f,-1.04415618e-01f,
+1.25107095e-01f,+2.16018036e-01f,-4.81136329e-03f,-1.91505440e-02f,-1.49027064e-01f,
+9.49951112e-02f,+8.35990086e-02f,-7.73794651e-02f,-4.60194685e-02f,-1.50943279e-01f,
+1.63410172e-01f,+3.59861366e-02f,+7.52517805e-02f,+2.06547797e-01f,+1.14925228e-01f,
-2.48930648e-01f,+1.14612274e-01f,-2.69856583e-02f,+6.23635240e-02f,-1.53053775e-01f,
-3.74088623e-02f,+4.78168726e-01f,+1.37396783e-01f,+1.87680081e-01f,-6.12679869e-02f,
-5.04763387e-02f,-5.78438491e-02f,+1.33241368e-02f,-2.40909513e-02f,+1.38060451e-01f,
-2.06051562e-02f,+2.93275733e-02f,-5.80387451e-02f,+1.25563160e-01f,+5.61304428e-02f,
+8.70549530e-02f,-2.89589502e-02f,+8.90043005e-02f,-1.45494089e-01f,+8.13248008e-02f,
+6.14008456e-02f,+1.66303664e-01f,+4.50860821e-02f,+1.41707227e-01f,+8.45472515e-02f,
+1.21222334e-02f,+1.60665601e-01f,+6.55969158e-02f,+2.09836125e-01f,+2.60139555e-02f,
+2.29414385e-02f,+1.46934524e-01f,+3.25423256e-02f,+1.67326808e-01f,+3.49165201e-01f,
-7.28669018e-02f,+9.69039500e-02f,-7.12956339e-02f,+1.01700239e-01f,-4.19546943e-03f,
+1.86013132e-01f,-1.99622944e-01f,-1.61813255e-02f,+1.93665072e-01f,+1.36159047e-01f,
-1.85575321e-01f,+1.56350002e-01f,+2.72129148e-01f,+1.32769465e-01f,+1.79454852e-02f,
-4.13995087e-02f,+2.95219541e-01f,+9.85535383e-02f,+1.36522323e-01f,+7.40139186e-02f,
+4.65941392e-02f,-5.20781018e-02f,+2.24633619e-01f,-2.48573497e-02f,+4.55033779e-02f,
+7.48342648e-02f,-1.05243117e-01f,-1.39500042e-02f,+1.26816519e-02f,-8.81771892e-02f,
+6.32373020e-02f,-5.50679490e-02f,+1.64820105e-01f,-5.17308824e-02f,+5.22337779e-02f,
+1.06648482e-01f,+4.32633348e-02f,+2.15392828e-01f,+4.39650752e-02f,+1.62699103e-01f,
+6.80771144e-03f,+8.02086368e-02f,+3.89685817e-02f,+1.82598919e-01f,-8.11389927e-03f,
+5.07957041e-02f,+1.20182913e-02f,+5.77452295e-02f,+2.65593790e-02f,+6.44927397e-02f,
+8.03343728e-02f,+2.92410314e-01f,+1.23250008e-01f,+3.04083247e-02f,+1.21108346e-01f,
-1.14514768e-01f,-1.48670733e-01f,+4.31637913e-02f,+3.30700934e-01f,+3.33498232e-02f,
+2.21021503e-01f,-2.53681839e-01f,+5.76258963e-03f,+4.40594666e-02f,+1.12232484e-01f,
+7.87720233e-02f,+8.13983008e-03f,-4.11077440e-02f,-1.86978132e-02f,+4.66015488e-02f,
+1.65213823e-01f,+1.45721752e-02f,+1.64210573e-01f,+2.50094891e-01f,-2.46731527e-02f,
+5.21800667e-02f,+7.79101700e-02f,-4.88733165e-02f,+3.29674274e-01f,-1.59759764e-02f,
+1.89497862e-02f,-2.78976280e-02f,+6.12643696e-02f,-4.33985423e-03f,-1.78523920e-02f,
+1.13440901e-01f,+2.09074408e-01f,+1.82777345e-01f,+4.74679507e-02f,+1.44673347e-01f,
+5.15292175e-02f,+1.85220361e-01f,+7.98067749e-02f,-7.82961845e-02f,+2.96794057e-01f,
+4.53576595e-02f,+1.05971806e-01f,-4.55468101e-03f,-8.10416415e-02f,+8.19770768e-02f,
+9.79710370e-02f,-1.78618506e-02f,-5.70866019e-02f,-1.80195980e-02f,+1.23702958e-01f,
+3.50487581e-03f,-2.22153440e-02f,+1.31342292e-01f,-7.06708878e-02f,+2.17851073e-01f,
+5.78283370e-02f,+1.38290405e-01f,-9.91903022e-02f,+4.81095500e-02f,-1.37426987e-01f,
-1.18778132e-01f,-5.65343574e-02f,+1.24227688e-01f,+1.19757779e-01f,-1.79844666e-02f,
-6.80771172e-02f,+9.23737958e-02f,+2.39814803e-01f,+1.09252870e-01f,-4.29503396e-02f,
+1.63331509e-01f,+8.87901410e-02f,+5.28972931e-02f,+1.85844868e-01f,+1.66202694e-01f,
-3.27172764e-02f,+1.98133707e-01f,-1.66981101e-01f,+4.40686606e-02f,-1.45983621e-01f,
-1.22552752e-01f,-1.19779065e-01f,-4.38899323e-02f,+4.13967781e-02f,+1.63594149e-02f,
+1.67506605e-01f,-4.42376137e-02f,+1.95429072e-01f,+4.41012047e-02f,+1.28663510e-01f,
+2.47136563e-01f,-1.16531037e-01f,+1.87170923e-01f,+1.05036542e-01f,+1.59068604e-03f,
+3.46144624e-02f,+1.55384958e-01f,+1.14232950e-01f,+6.92480430e-02f,+1.33615792e-01f,
+3.59604806e-02f,+7.02655911e-02f,-6.13993034e-02f,-3.24682035e-02f,+3.16035211e-01f,
+1.19309545e-01f,-4.73878123e-02f,+9.05442163e-02f,+2.24595636e-01f,-4.42200340e-03f,
+9.52770188e-02f,+8.08315426e-02f,+1.89957231e-01f,-1.41644282e-02f,+3.81995857e-01f,
+1.48533866e-01f,-1.61742181e-01f,+2.10841581e-01f,-7.88414478e-02f,+1.31466826e-02f,
-8.37299451e-02f,+5.88598885e-02f,-5.48451170e-02f,+1.74257025e-01f,-2.07271025e-01f,
+5.54976910e-02f,+1.78267527e-02f,-8.02738406e-03f,-2.09151059e-02f,+5.44127368e-04f,
+7.44609013e-02f,+4.13750745e-02f,+7.66540170e-02f,-5.85751608e-02f,+1.72798619e-01f,
-1.26917928e-01f,-4.18874323e-02f,+6.10711202e-02f,-3.87960933e-02f,-1.21031357e-02f,
-1.45839348e-01f,+6.51886016e-02f,+1.50215358e-01f,-4.91008423e-02f,+9.62836761e-03f,
+1.38279364e-01f,+2.43856460e-02f,-4.95730601e-02f,-3.36631387e-02f,+2.57494122e-01f,
-4.06756476e-02f,+6.71035424e-02f,+1.21647857e-01f,-8.08920115e-02f,+1.83262870e-01f,
+1.58716813e-01f,+5.97895458e-02f,-6.26255274e-02f,+7.52446577e-02f,-5.02640381e-02f,
-7.17245713e-02f,+1.80582032e-01f,+6.66307732e-02f,+4.16824035e-02f,+5.18276542e-02f,
+9.07659009e-02f,+2.41264682e-02f,+1.13218427e-01f,+1.10222548e-01f,+5.62373511e-02f,
+2.54868358e-01f,+3.79987717e-01f,-7.62885958e-02f,+8.75887945e-02f,-8.97887051e-02f,
-3.76757197e-02f,+1.61763310e-01f,-9.92597416e-02f,-1.40361309e-01f,-6.02980070e-02f,
+1.39632612e-01f,-9.10279527e-02f,-6.59169331e-02f,-3.86593379e-02f,-3.06992680e-02f,
-1.53219387e-01f,+1.28062693e-02f,+1.93322673e-02f,-9.40315239e-03f,-5.01720570e-02f,
-7.16498634e-03f,-1.33420750e-01f,-2.19931692e-01f,+1.46006644e-01f,-2.30732951e-02f,
+5.84700815e-02f,+5.59311220e-03f,+7.27012455e-02f,+7.71557614e-02f,+8.57321247e-02f,
-4.15354893e-02f,-9.80842020e-03f,-4.23342250e-02f,-1.63466454e-01f,-2.44529340e-02f,
+1.42089054e-01f,+1.13371082e-01f,+1.39998183e-01f,+2.17913553e-01f,+8.03647265e-02f,
+3.55501443e-01f,+8.86231810e-02f,+5.98700047e-02f,+8.12794119e-02f,+9.25436467e-02f,
-5.71529679e-02f,+7.32358545e-02f,+6.26448244e-02f,+2.21997097e-01f,+1.17769875e-01f,
+1.38725966e-01f,+4.24455330e-02f,+1.94158122e-01f,+1.47809107e-02f,-1.64015085e-01f,
-1.25704229e-01f,-2.75825448e-02f,+1.04981000e-02f,+1.72587615e-02f,+2.44962901e-01f,
+1.53666665e-03f,+4.35524225e-01f,-2.32142434e-02f,-5.54937087e-02f,+1.74763083e-01f,
+1.75808966e-01f,+1.58880860e-01f,+7.89125934e-02f,+2.69317105e-02f,-7.50997439e-02f,
+2.73616225e-01f,-3.32182422e-02f,+1.51728556e-01f,+1.31368458e-01f,+2.01709256e-01f,
-9.69733596e-02f,+1.15624674e-01f,+3.99767607e-01f,-3.98777202e-02f,+7.84371165e-04f,
+4.57892381e-02f,-1.56385124e-01f,+3.18633988e-02f,+1.68580003e-02f,-4.17781100e-02f,
+5.47310710e-02f,+9.18918028e-02f,+6.84442073e-02f,+9.89929736e-02f,+5.69770113e-02f,
+5.92557043e-02f,+9.41803083e-02f,+1.89899281e-01f,-2.46552075e-03f,+9.08086598e-02f,
+4.95241322e-02f,-7.85646364e-02f,+9.32561606e-02f,+3.02971512e-01f,-3.70352603e-02f,
-1.45284617e-02f,+6.82304502e-02f,+1.55312181e-01f,+1.09857693e-01f,-3.23048495e-02f,
-2.95556001e-02f,+1.89829335e-01f,+1.34583097e-02f,+7.16363415e-02f,+6.41118959e-02f,
+1.32213771e-01f,+1.00786857e-01f,+5.05874716e-02f,+2.45534927e-01f,+1.78175956e-01f,
+7.76972026e-02f,-5.53937927e-02f,-2.83224578e-03f,+9.38693434e-02f,-6.88633174e-02f,
+1.76517829e-01f,-1.22565374e-01f,+2.13446885e-01f,-2.73242034e-02f,+1.15546156e-02f,
-1.50353611e-01f,+3.41785014e-01f,+1.48617402e-01f,+1.62347823e-01f,-6.08396642e-02f,
+5.60525097e-02f,+6.77196905e-02f,+1.35276213e-01f,-1.77284569e-01f,+8.17954615e-02f,
+6.63902760e-02f,+2.26653501e-01f,+1.75430059e-01f,-2.11864665e-01f,-3.89181711e-02f,
+7.25378096e-02f,+1.43426284e-01f,+1.10867396e-01f,-1.09776579e-01f,+1.71583027e-01f,
+1.67268363e-03f,-1.44032892e-02f,-1.32654551e-02f,+1.70285150e-01f,-1.03134789e-01f,
+9.25063118e-02f,-2.04751338e-03f,+9.71860066e-02f,-3.28195877e-02f,+9.09421593e-02f,
+4.97210398e-02f,-5.43823577e-02f,-1.21415192e-02f,+7.78955892e-02f,+1.11995079e-01f,
+8.09818283e-02f,+1.32817969e-01f,+1.12446211e-03f,-4.59654741e-02f,+1.73720181e-01f,
+5.33646420e-02f,+2.11962804e-01f,+2.36813337e-01f,-1.04776375e-01f,+1.58771966e-02f,
+1.01251736e-01f,+1.69828817e-01f,-1.00487478e-01f,+8.67731944e-02f,-2.17347010e-03f,
+1.36757806e-01f,+1.07330374e-01f,-8.11164677e-02f,-1.37907743e-01f,+8.13378021e-02f,
+3.04005127e-02f,+3.60968150e-02f,+4.95081283e-02f,-3.01244318e-01f,+1.31683527e-02f,
+2.12107748e-01f,-2.29683682e-01f,-1.44099388e-02f,-3.64240669e-02f,+8.17235187e-02f,
+4.06254455e-02f,+8.68734345e-02f,+2.50199646e-01f,-9.56523046e-02f,-1.39050186e-01f,
+1.23175167e-01f,-9.52216610e-03f,+1.14138238e-01f,+1.02857031e-01f,-1.07860722e-01f,
+1.12470724e-01f,-2.72195768e-02f,-1.80600993e-02f,+1.77143663e-01f,+1.87084436e-01f,
+2.53132340e-02f,+1.35590062e-01f,+8.44314992e-02f,-1.40712246e-01f,+1.15762621e-01f,
-4.97722477e-02f,-7.14725479e-02f,+1.72931567e-01f,+5.97626623e-03f,+1.42340973e-01f,
+1.22689828e-01f,-1.65173039e-02f,-1.01492286e-03f,-5.35607226e-02f,+8.27140175e-03f,
+2.39974171e-01f,+3.13749239e-02f,+1.25501305e-01f,+6.52308315e-02f,-2.78523769e-02f,
+1.21749513e-01f,-2.57931370e-02f,+7.89133385e-02f,+1.28032491e-01f,+6.96068406e-02f,
-2.02762321e-01f,-1.57240871e-02f,-1.05823297e-02f,+2.75423676e-02f,+2.89255381e-01f,
+9.93747711e-02f,-2.36193277e-02f,+8.80945697e-02f,-6.25234544e-02f,+4.13809456e-02f,
+9.34149921e-02f,+1.42359668e-02f,+9.18842033e-02f,+7.33058527e-02f,-1.49673298e-02f,
+5.94705604e-02f,+8.33550394e-02f,+6.34632781e-02f,+4.70951025e-04f,+3.39825973e-02f,
+2.98746526e-01f,+4.00674492e-02f,+1.08109951e-01f,+2.00467497e-01f,+1.87869996e-01f,
-2.98135038e-02f,-1.85419917e-01f,+6.46892190e-02f,+6.40708730e-02f,+1.54125527e-01f,
+2.50652760e-01f,-1.96488887e-01f,+3.58297117e-02f,+1.58803180e-01f,+1.33828193e-01f,
-9.74745080e-02f,+3.06717515e-01f,+1.37973309e-01f,-1.09744899e-01f,-1.50959417e-01f,
-1.78668369e-02f,+8.73915404e-02f,+1.28126413e-01f,-6.94753751e-02f,-1.00871801e-01f,
-6.46425504e-03f,-3.42839770e-02f,+3.51458825e-02f,+6.97504357e-02f,+2.80750632e-01f,
-6.68833032e-02f,+2.89985180e-01f,+4.04611602e-02f,+2.72033811e-01f,+3.03981394e-01f,
+1.86262559e-02f,-1.94694253e-03f,-1.32271452e-02f,+4.49068956e-02f,-6.59551546e-02f,
+1.51022058e-02f,-4.80061322e-02f,+2.10453570e-01f,+2.92858556e-02f,+2.22232983e-01f,
+5.32884747e-02f,-4.48777266e-02f,-9.73094180e-02f,+2.78262198e-01f,+4.63833101e-02f,
-1.11265749e-01f,+2.21301839e-02f,-4.32738923e-02f,+4.29194868e-02f,+2.25028172e-01f,
+1.75731793e-01f,-5.41720130e-02f,+2.00644687e-01f,+2.50864804e-01f,+7.74375647e-02f,
-6.41691079e-03f,+3.66679057e-02f,+1.50456697e-01f,+2.36665994e-01f,-1.76576078e-01f,
+6.85773939e-02f,+2.55268723e-01f,+2.59208530e-01f,-4.83340919e-02f,+2.17999190e-01f,
+1.62596554e-01f,-1.48007989e-01f,-8.37158039e-02f,-4.13162932e-02f,+8.61206464e-03f,
+1.86381452e-02f,+6.78140968e-02f,+1.28296867e-01f,+4.52504456e-02f,+1.36648685e-01f,
-2.71740146e-02f,+6.09577484e-02f,+1.30270585e-01f,+1.47194136e-02f,+6.23416640e-02f,
-5.98710477e-02f,+1.09185703e-01f,+8.93301591e-02f,+1.52846351e-01f,+1.39893636e-01f,
+5.26235020e-03f,+7.45155141e-02f,+8.02079514e-02f,+1.42503187e-01f,+8.37652236e-02f,
+9.75134298e-02f,+1.13375291e-01f,+2.36249007e-02f,-4.74769389e-04f,+2.63618771e-02f,
-8.60251039e-02f,+3.38705480e-02f,+1.39298424e-01f,+8.57376978e-02f,+1.07214391e-01f,
+6.58253804e-02f,+1.00098610e-01f,+5.92748746e-02f,+6.09738380e-02f,-2.38755345e-02f,
+3.84681001e-02f,-3.63315046e-02f,-3.32104079e-02f,+6.58445954e-02f,+8.12870711e-02f,
+1.11629002e-01f,+7.15345293e-02f,+1.03712909e-01f,-3.24391224e-03f,+5.77543974e-02f,
+1.57281980e-02f,+4.95891236e-02f,+7.95704201e-02f,+3.58899273e-02f,-1.37573853e-02f,
+6.07375763e-02f,+1.04509965e-01f,-1.37075903e-02f,+2.75858104e-01f,+1.35741830e-01f,
+1.74026787e-01f,+3.11147887e-02f,+7.85926729e-02f,+5.15649691e-02f,+1.57408655e-01f,
+9.12855193e-03f,+6.07957169e-02f,+1.46588340e-01f,+5.25898859e-02f,+8.96511376e-02f,
+1.23113304e-01f,+7.61664137e-02f,-2.77428306e-03f,+4.62636165e-02f,+7.59042278e-02f,
+3.69005725e-02f,-1.54255172e-02f,+4.98618521e-02f,-1.22034214e-02f,+8.82220641e-02f,
+8.97523984e-02f,-6.86669722e-02f,+3.28513794e-02f,-3.57499812e-04f,+8.75115171e-02f,
+1.58101484e-01f,+1.96792349e-01f,+1.60478368e-01f,+4.98432815e-02f,+6.42518774e-02f,
+1.69979900e-01f,+1.15110964e-01f,+1.12663181e-02f,+1.27701819e-01f,+9.91225466e-02f,
-1.37457281e-01f,+7.68978596e-02f,+2.01883782e-02f,+3.36844251e-02f,+5.59383705e-02f,
+7.54294544e-02f,+1.14655428e-01f,+3.25269089e-03f,+6.13026731e-02f,+5.02858646e-02f,
+7.19859675e-02f,+6.36885688e-02f,+1.42879352e-01f,+1.55375361e-01f,+6.62676096e-02f,
+2.43137516e-02f,+1.29713878e-01f,+1.07415400e-01f,-1.86597798e-02f,-7.65499519e-03f,
+2.35777110e-01f,-1.43536245e-02f,+7.23874792e-02f,+6.73700273e-02f,+1.30804241e-01f,
+8.72881990e-03f,-2.89600063e-02f,+1.56333700e-01f,+3.11806332e-02f,-1.67582687e-02f,
+7.53539279e-02f,-4.23576497e-02f,-6.30547255e-02f,+3.58343013e-02f,+5.05130254e-02f,
+1.48501277e-01f,+9.05079097e-02f,-1.02024972e-01f,+1.86575517e-01f,+2.89802328e-02f,
+2.58783758e-01f,+8.69459100e-03f,+6.20075352e-02f,+1.18720457e-01f,-7.14820921e-02f,
-1.29154371e-02f,+4.03787196e-02f,+2.46469560e-03f,-1.91246167e-01f,+8.90849344e-03f,
-6.36893958e-02f,+1.67900667e-01f,+1.35356709e-01f,+1.12436697e-01f,+4.19152342e-02f,
+5.18888533e-02f,+1.07204333e-01f,+1.33179426e-01f,+4.09843400e-02f,+2.53496394e-02f,
+9.14143398e-02f,+1.80197880e-01f,+8.65605026e-02f,-4.76638190e-02f,-3.60134766e-02f,
+1.19820558e-01f,+5.96566088e-02f,+1.32023111e-01f,-2.04670466e-02f,+8.48839283e-02f,
+1.89083666e-01f,+1.17207922e-01f,+7.21812770e-02f,+5.44025153e-02f,+1.21567339e-01f,
+5.95148392e-02f,-1.19775407e-01f,-8.73292685e-02f,+5.71206287e-02f,-6.36559911e-03f,
+1.22351430e-01f,+1.68462515e-01f,+5.47058545e-02f,+1.85374971e-02f,-3.63587663e-02f,
+6.26651645e-02f,+9.22484770e-02f,+6.43510520e-02f,+1.50329798e-01f,+8.68973732e-02f,
+6.08234964e-02f,+2.84745563e-02f,-8.77167434e-02f,+1.28506675e-01f,-3.59220468e-02f,
+1.69739947e-01f,+1.90045759e-01f,+1.81490973e-01f,+8.95621181e-02f,+1.51617870e-01f,
-1.35827111e-04f,+1.18344016e-01f,+1.46269292e-01f,+9.25144106e-02f,+2.43170232e-01f,
+9.34707448e-02f,+1.39714494e-01f,+6.48710653e-02f,+1.59571692e-01f,+9.20945928e-02f,
+6.24554455e-02f,+9.69251841e-02f,+1.03438430e-01f,+9.20091197e-02f,+6.20506071e-02f,
+9.20768902e-02f,+5.01064397e-02f,+2.02263936e-01f,+1.97420016e-01f,+5.71266375e-03f,
+1.83111861e-01f,+1.11206733e-01f,+1.31157637e-02f,+9.78283957e-02f,-3.48233096e-02f,
+4.04644944e-03f,+1.80855051e-01f,+2.73187067e-02f,+1.43041871e-02f,-1.20708682e-02f,
+1.69495448e-01f,+1.22151889e-01f,+7.38270879e-02f,+1.05299674e-01f,+1.04324669e-02f,
+7.61554092e-02f,+4.27432768e-02f,+2.60876060e-01f,+9.33531746e-02f,+2.27077119e-02f,
+1.47666648e-01f,+8.53375345e-03f,+1.83220673e-02f,-2.68783551e-02f,+1.01851828e-01f,
+1.12481199e-01f,+3.44714932e-02f,+2.05948144e-01f,+9.74824876e-02f,+3.46510522e-02f,
-2.11845413e-02f,+4.77894321e-02f,+1.80358380e-01f,+9.96026769e-02f,+1.13294527e-01f,
+9.27996784e-02f,+6.20558187e-02f,+1.32217601e-01f,-5.74604049e-03f,+7.15793073e-02f,
+1.40179425e-01f,+8.70017782e-02f,-8.46463144e-02f,+2.62924016e-01f,+2.02007160e-01f,
-1.15825078e-02f,+7.34031871e-02f,+1.06932484e-01f,+6.25575557e-02f,-2.22651046e-02f,
+7.42266029e-02f,-1.01924434e-01f,+9.88285765e-02f,-2.81130113e-02f,-1.03509575e-02f,
+1.02397144e-01f,+5.30101918e-02f,+1.96376488e-01f,+2.36371368e-01f,+1.44634351e-01f,
+3.58933210e-02f,+6.91390485e-02f,+8.09068307e-02f,+5.78643866e-02f,+1.65570546e-02f,
+1.26085058e-01f,+3.33885401e-02f,+1.53538868e-01f,-2.44574726e-01f,+8.97544995e-02f,
+3.14776436e-03f,+7.23226219e-02f,+6.96580857e-02f,-7.59114558e-03f,+3.83669585e-02f,
+1.42614558e-01f,+2.61813812e-02f,+1.05175711e-01f,+5.42410575e-02f,-6.51451424e-02f,
+7.57630542e-02f,+6.24030828e-02f,+1.43600494e-01f,+1.38859479e-02f,-3.50327697e-03f,
+2.63595641e-01f,+1.53664099e-02f,+5.11753187e-02f,+5.27854972e-02f,+8.98655951e-02f,
+1.00914992e-01f,-9.73079633e-03f,+9.49570462e-02f,+9.52833518e-02f,+1.02964178e-01f,
-1.42033147e-02f,+5.16448217e-03f,+2.18751043e-01f,+8.73382092e-02f,+6.55290112e-02f,
+1.23674259e-01f,+1.49143666e-01f,+2.33690906e-02f,+1.71489567e-01f,+1.11824818e-01f,
+2.34974220e-01f,+1.98725685e-02f,+1.47830814e-01f,+1.11498078e-02f,+1.08912542e-01f,
+6.83196783e-02f,+6.11520112e-02f,+4.00936902e-02f,+2.01885208e-01f,+3.58684026e-02f,
+1.10976413e-01f,+1.11476839e-01f,+1.56106070e-01f,-1.31824598e-01f,-7.49203786e-02f,
-6.82503060e-02f,+8.59441981e-02f,+2.64252156e-01f,+1.61482349e-01f,+2.28369106e-02f,
+1.15010273e-02f,-2.09417436e-02f,-3.23988274e-02f,+1.67352945e-01f,+5.24497144e-02f,
+1.55077428e-01f,+4.69723046e-02f,+6.52758032e-02f,+2.42072776e-01f,+1.54743165e-01f,
+1.96793139e-01f,-1.62808187e-02f,+3.96297760e-02f,-6.10554330e-02f,+2.54778415e-01f,
+5.64049371e-02f,+2.07101722e-04f,-2.93010443e-01f,+1.29352897e-01f,+8.41682032e-02f,
+1.76838383e-01f,-9.71350968e-02f,+7.35980272e-03f,-1.52930878e-02f,+2.04451010e-01f,
-4.34517413e-02f,-6.08799011e-02f,+7.98177049e-02f,+2.17105761e-01f,+1.76081225e-01f,
+3.07192691e-02f,-4.63933460e-02f,+6.60740188e-05f,+6.16239943e-02f,+7.56152943e-02f,
-1.21040806e-01f,-2.46476009e-02f,-1.09974854e-01f,+7.02291280e-02f,+1.41640544e-01f,
+1.10795043e-01f,+3.25599700e-01f,+1.04808703e-01f,+2.04513744e-01f,+1.30922332e-01f,
-1.21793672e-01f,-6.56256005e-02f,+3.13036710e-01f,-3.14743035e-02f,+1.35827556e-01f,
+1.88237727e-01f,+4.99495305e-02f,+1.80767551e-01f,+1.71163753e-01f,+9.89853069e-02f,
-4.28070361e-03f,+5.24659716e-02f,+1.78206384e-01f,-1.64349526e-02f,+1.66158319e-01f,
+1.45199403e-01f,-4.45389748e-02f,+1.03036612e-01f,+3.09907664e-02f,-8.20500590e-03f,
-4.58839834e-01f,-3.49286467e-01f,+6.67064860e-02f,+3.13845962e-01f,+1.45324633e-01f,
+8.77637193e-02f,+2.85081536e-01f,+8.07669386e-02f,+5.74212000e-02f,+1.58328742e-01f,
-5.81110716e-02f,+8.09001997e-02f,+9.94892865e-02f,+1.07734269e-02f,-1.47091206e-02f,
+2.24935502e-01f,-6.91750422e-02f,+6.55318201e-02f,-1.74106993e-02f,+1.56882510e-01f,
-2.66905576e-01f,+1.03914738e-01f,-1.47504797e-02f,-1.44364208e-01f,+1.60143495e-01f,
+1.14114285e-01f,+4.71127406e-02f,-2.05230024e-02f,+1.89369619e-01f,+1.89474389e-01f,
-1.23199984e-01f,+1.06139965e-01f,+1.76814631e-01f,+6.04421385e-02f,+1.97345570e-01f,
+1.98817268e-01f,+1.26005992e-01f,+1.73987970e-01f,+1.58247039e-01f,+1.59844667e-01f,
-2.19551563e-01f,+2.06388775e-02f,+5.34671210e-02f,+2.62448221e-01f,+6.21718056e-02f,
+2.11916789e-02f,-5.60015142e-02f,-3.37386727e-01f,+3.85420114e-01f,+2.65451729e-01f,
+5.29970042e-03f,+2.02039123e-01f,+1.30581558e-01f,+3.25384550e-02f,+1.54752314e-01f,
-5.79313934e-02f,+7.84432963e-02f,+5.75560555e-02f,+1.09302867e-02f,+7.20359087e-02f,
+1.71251953e-01f,+1.80555061e-02f,+2.95922756e-01f,-4.43487987e-02f,-1.03710532e-01f,
+1.26961797e-01f,+3.43292117e-01f,+1.38380066e-01f,+4.43227068e-02f,-8.95804241e-02f,
-8.79342407e-02f,-4.58861813e-02f,-1.73734073e-02f,-2.23637298e-01f,+1.04497135e-01f,
+2.02947974e-01f,+2.02053532e-01f,+2.14958832e-01f,+9.74138733e-03f,+6.45679906e-02f,
-2.66455207e-02f,+2.76743621e-01f,-5.54024801e-02f,+2.68382370e-01f,+2.08608150e-01f,
+4.11643907e-02f,+7.36231431e-02f,-1.38236731e-01f,+5.45630828e-02f,+1.23555683e-01f,
+6.18943423e-02f,+3.62814702e-02f,+1.17100915e-02f,+1.30853936e-01f,+2.05221340e-01f,
+9.98322517e-02f,+1.04952857e-01f,+2.09110320e-01f,-1.55855328e-01f,-5.97542003e-02f,
-2.33264178e-01f,+4.27969359e-02f,-1.02445506e-01f,+9.15698186e-02f,+2.02999726e-01f,
-7.79276863e-02f,+7.41696805e-02f,-3.74334306e-02f,-1.68700576e-01f,-3.31002653e-01f,
+1.91977397e-02f,+6.37656599e-02f,-2.51248293e-02f,+2.98335582e-01f,-8.69688764e-02f,
+1.03535302e-01f,+3.96723062e-01f,+1.38951153e-01f,+1.45442178e-02f,+8.78518298e-02f,
+3.02410424e-02f,+1.33949861e-01f,+4.09376696e-02f,+4.48003784e-03f,+1.61276951e-01f,
-4.26447438e-03f,-3.04997843e-02f,+3.72129530e-02f,+4.66642864e-02f,+9.76773873e-02f,
+1.82489902e-01f,+1.84549570e-01f,-4.91599971e-03f,-4.08481546e-02f,+2.11393654e-01f,
+3.19587827e-01f,+4.83606085e-02f,+2.52985269e-01f,+2.10866276e-02f,-1.91503167e-02f,
+5.81222400e-02f,-8.02540872e-03f,+1.79052070e-01f,+4.11841720e-02f,+1.55567244e-01f,
+1.83186695e-01f,+1.23296641e-01f,+1.46114454e-02f,+2.52758581e-02f,+2.55607724e-01f,
-3.00499022e-01f,+1.49131343e-01f,+3.57189449e-04f,+2.26332560e-01f,+2.79107690e-01f,
+9.38397795e-02f,+1.28655717e-01f,+1.38598305e-04f,+8.78636762e-02f,+7.49367848e-02f,
+1.75635561e-01f,+3.33498061e-01f,-1.61184762e-02f,+2.21389189e-01f,-1.00847177e-01f,
+9.46932007e-03f,+9.15134698e-02f,+4.08309810e-02f,+3.15345898e-02f,-3.87434155e-01f,
+3.66671272e-02f,+4.43811305e-02f,-1.26988282e-02f,+1.14138156e-01f,+1.87112764e-01f,
-2.06187382e-01f,-9.26051214e-02f,+2.94967711e-01f,-4.59383652e-02f,+1.15962617e-01f,
+3.05400938e-01f,+5.56557626e-02f,+6.34157732e-02f,+1.88354596e-01f,+1.36299938e-01f,
-1.92954242e-01f,+1.05173364e-02f,+3.05481195e-01f,+2.72417843e-01f,-1.14075944e-01f,
+5.95442243e-02f,-1.45562425e-01f,+3.14215869e-01f,+3.59310180e-01f,-2.06380561e-01f,
+1.88393727e-01f,+1.56777918e-01f,+1.59957096e-01f,-7.68295629e-03f,+1.27023786e-01f,
-7.00249337e-03f,+3.06607604e-01f,+2.15715647e-01f,+1.81447193e-01f,-8.30373354e-03f,
-6.49437904e-02f,+7.46963248e-02f,-3.95455137e-02f,+1.94892257e-01f,+2.28228033e-01f,
+2.70664364e-01f,-1.81959659e-01f,+2.72908926e-01f,+1.22463189e-01f,-1.53643176e-01f,
+9.74628255e-02f,+1.47146126e-02f,-3.78820039e-02f,-1.11197010e-01f,+2.27505699e-01f,
+1.09738655e-01f,+7.13568777e-02f,-1.65289149e-01f,+7.18959719e-02f,+2.94303894e-01f,
+1.48272691e-02f,+1.50482237e-01f,+3.97763550e-02f,+8.12660977e-02f,+1.36013985e-01f,
-2.31370822e-01f,+2.00242326e-01f,-3.26986462e-02f,+4.81333472e-02f,+1.46951184e-01f,
+4.90254350e-02f,+9.81632993e-02f,-1.98039450e-02f,-2.28346549e-02f,+1.18821874e-01f,
+1.86808228e-01f,+5.31402230e-01f,+6.38350993e-02f,-1.04173003e-02f,+1.63048267e-01f,
+1.29590556e-01f,-4.34190556e-02f,-2.28759218e-02f,+2.74728984e-01f,-4.67959940e-02f,
+2.05954790e-01f,+1.14809148e-01f,+7.51955509e-02f,+4.33161929e-02f,+8.50354657e-02f,
+1.35241076e-01f,+1.04787320e-01f,+1.17694236e-01f,-9.49935690e-02f,+1.28405407e-01f,
+6.74643070e-02f,-6.71188757e-02f,+2.03836724e-01f,+4.45499871e-04f,+5.28854467e-02f,
-5.64007722e-02f,+1.29623011e-01f,+1.31617114e-01f,+6.86279610e-02f,+3.93571630e-02f,
+8.83005261e-02f,+1.00407265e-01f,+6.80350438e-02f,+2.04114065e-01f,-1.40683344e-02f,
+1.23811021e-01f,+2.06199899e-01f,+4.82643098e-02f,+8.85503218e-02f,-9.58558321e-02f,
+3.26822400e-01f,-1.09194592e-03f,-9.82469693e-02f,+9.73675866e-03f,+3.77600268e-02f,
+3.40850092e-02f,-1.24233343e-01f,+1.38100594e-01f,+8.83768201e-02f,+1.93643719e-01f,
+1.99120954e-01f,-7.02972487e-02f,+6.88667297e-02f,-2.03005578e-02f,-1.63956545e-02f,
+1.12345614e-01f,+1.86063200e-01f,-1.19089521e-01f,+1.19898379e-01f,-3.02986205e-02f,
+1.39212430e-01f,-2.21219957e-01f,+4.41316105e-02f,+5.59395775e-02f,-2.45692376e-02f,
+2.87628651e-01f,+2.81884870e-03f,+3.10672000e-02f,+1.62796602e-01f,-1.17400382e-02f,
+7.41030276e-02f,-1.23732835e-02f,-1.33834794e-01f,+1.21481039e-01f,+3.86089869e-02f,
+1.12079568e-01f,-6.38083145e-02f,+2.50175167e-02f,+1.84287742e-01f,-1.47523642e-01f,
+5.02629578e-02f,+2.07420260e-01f,+7.49860555e-02f,-9.37542096e-02f,+3.18597436e-01f,
+8.24143440e-02f,+1.11536860e-01f,-4.87483628e-02f,+2.23677278e-01f,+1.51789889e-01f,
+1.27096072e-01f,+2.20380411e-01f,+6.82992339e-02f,-5.98991700e-02f,+8.91772285e-02f,
+8.00815448e-02f,+1.95115164e-01f,+2.28789058e-02f,+1.79676577e-01f,-2.61417925e-01f,
+2.00809203e-02f,+1.51528776e-01f,-2.13817600e-02f,+1.66684747e-01f,+3.47454138e-02f,
+1.69996709e-01f,+7.08732828e-02f,+4.20424715e-02f,+1.76752523e-01f,-6.29423782e-02f,
+3.41961859e-03f,+9.44691077e-02f,+2.38743871e-02f,+1.01757646e-01f,+7.70450085e-02f,
-6.53225183e-02f,-1.49786621e-01f,+4.92065996e-02f,-2.65568733e-01f,+2.49939099e-01f,
+2.91325934e-02f,-1.42497132e-02f,+6.96816072e-02f,+2.20876411e-01f,+1.91101074e-01f,
-5.16719259e-02f,+1.35074794e-01f,-5.55211082e-02f,+7.94448033e-02f,+1.24539137e-01f,
+3.19237083e-01f,+1.64727062e-01f,+7.21247271e-02f,+1.54649183e-01f,+9.03321728e-02f,
-3.48281078e-02f,+7.78304636e-02f,+7.63089359e-02f,+9.59758684e-02f,+3.08530517e-02f,
+8.36703554e-02f,-1.87854823e-02f,-1.01663910e-01f,+5.09508550e-02f,+9.06279385e-02f,
-2.09628437e-02f,+3.76363099e-01f,-6.30157255e-03f,-4.36197333e-02f,-4.76121008e-02f,
-4.73415777e-02f,+2.87630968e-03f,+1.76359355e-01f,+1.81995437e-01f,+9.94434059e-02f,
+1.45667762e-01f,+1.52115107e-01f,-3.36003979e-03f,-1.05879426e-01f,-4.42072637e-02f,
+2.76013333e-02f,+8.03949386e-02f,+9.64526013e-02f,-8.29931349e-03f,-7.95064494e-03f,
+3.41599621e-02f,+5.72010204e-02f,+1.28063753e-01f,+1.46895170e-01f,+9.92690772e-02f,
+2.01993480e-01f,+2.04607233e-01f,+7.96568617e-02f,+7.50853447e-04f,-6.15313202e-02f,
+1.28695428e-01f,+1.16340175e-01f,+1.29824420e-02f,-3.33330259e-02f,+5.66329472e-02f,
+6.48805723e-02f,+2.02325374e-01f,+1.09091207e-01f,-1.26705179e-02f,-1.69494882e-01f,
+8.44760314e-02f,+2.44079396e-01f,+2.35330891e-02f,+2.73111701e-01f,+1.20189369e-01f,
+1.70382589e-01f,-6.86946288e-02f,-8.64321291e-02f,+1.57199115e-01f,+9.33832824e-02f,
+1.27974218e-02f,-9.35290903e-02f,+9.62655097e-02f,+1.26163587e-01f,-8.09142087e-03f,
+2.12969169e-01f,+1.17914341e-01f,+2.38549430e-02f,+2.28803620e-01f,+2.55258501e-01f,
+1.18619390e-01f,+1.28729895e-01f,+1.24930672e-01f,+1.25563383e-01f,+3.60199630e-01f,
+1.30014077e-01f,+7.11129233e-02f,+3.52220982e-02f,+3.61593962e-02f,+1.58223346e-01f,
+1.94877088e-01f,+9.71096605e-02f,+1.98426843e-01f,-2.06337765e-01f,-6.86463788e-02f,
-2.73511130e-02f,+4.37660180e-02f,-3.87204369e-03f,+4.21461500e-02f,+4.63169143e-02f,
+2.16989722e-02f,+1.13157965e-01f,+5.26636988e-02f,-6.86173216e-02f,+7.89902732e-02f,
+1.11818828e-01f,+7.35030994e-02f,-9.21509638e-02f,+8.84831101e-02f,+4.18563783e-02f,
+1.45759657e-01f,-7.16674700e-02f,-1.19321242e-01f,+1.08369373e-01f,-7.28142336e-02f,
+2.41035353e-02f,+1.88989237e-01f,-6.84906915e-02f,-5.29513508e-03f,+2.85832603e-02f,
+6.11808188e-02f,-2.25492492e-02f,+1.61671883e-03f,+3.69832329e-02f,+9.43051875e-02f,
+2.06357930e-02f,-1.41831040e-02f,+1.78235978e-01f,+6.73326924e-02f,-6.28051683e-02f,
+6.54798970e-02f,+1.02265902e-01f,+1.02145821e-01f,+2.01804876e-01f,+5.55147119e-02f,
-1.10410415e-01f,-1.25469923e-01f,+2.61835121e-02f,+8.29335004e-02f,+3.76037657e-02f,
+2.89762039e-02f,+1.06165156e-01f,+1.35385603e-01f,+1.86399911e-02f,-6.97170617e-03f,
-1.40584096e-01f,+2.16840860e-02f,+7.69282281e-02f,-3.75911713e-01f,+1.95353478e-01f,
-9.16980878e-02f,+6.19012937e-02f,+1.58252388e-01f,+1.49208099e-01f,+1.05329916e-01f,
+1.79715723e-01f,-7.47483075e-02f,+1.44131541e-01f,+7.32135251e-02f,+4.12132479e-02f,
+1.84875175e-01f,-1.12079024e-01f,+5.95763661e-02f,+6.48929402e-02f,+2.22443834e-01f,
-8.46178606e-02f,-3.83580588e-02f,-7.22960103e-03f,-6.24054223e-02f,+4.52309363e-02f,
+5.60005568e-03f,-1.84417680e-01f,-1.06461205e-01f,+2.18614474e-01f,+7.45331496e-03f,
+2.14920379e-02f,-1.83926746e-02f,+1.74026877e-01f,+3.58530693e-02f,+1.65035967e-02f,
+1.66449949e-01f,+3.70564103e-01f,-2.12414324e-01f,+1.23047173e-01f,+6.93815993e-03f,
+2.79495195e-02f,+2.94292290e-02f,-8.58523697e-02f,+1.26827896e-01f,+2.77315974e-01f,
+8.25122893e-02f,+3.74168418e-02f,+2.22947434e-01f,+1.49983510e-01f,+1.78982347e-01f,
-6.09307401e-02f,+1.65645525e-01f,+1.23352394e-01f,+3.96905802e-02f,-1.41957879e-01f,
+7.75776953e-02f,+5.25097176e-02f,-6.71080723e-02f,+1.02631412e-01f,+9.75172669e-02f,
+2.23331019e-01f,-1.34786107e-02f,-3.36171053e-02f,+1.62260935e-01f,+2.03311116e-01f,
+6.87560290e-02f,+7.10240602e-02f,+2.93326136e-02f,+1.70433328e-01f,-1.54864835e-02f,
+1.18444927e-01f,+1.17469408e-01f,-4.46705036e-02f,+5.46723567e-02f,+1.51408970e-01f,
-4.50612344e-02f,+1.73901945e-01f,-1.05593368e-01f,-6.70105442e-02f,+1.67074855e-02f,
+1.47274420e-01f,+2.60071624e-02f,+1.30113304e-01f,+2.25665972e-01f,+3.04356478e-02f,
-1.29453819e-02f,+1.35605082e-01f,-1.77946221e-02f,-9.27536935e-02f,-1.73393078e-02f,
-2.04784557e-01f,+1.03234924e-01f,+5.16752377e-02f,+1.30237699e-01f,-8.77780095e-02f,
+2.67681926e-01f,+9.20740366e-02f,+2.00154141e-01f,+5.49632683e-02f,+6.04096316e-02f,
+1.34532139e-01f,-7.28475749e-02f,-2.05900729e-01f,+1.23732276e-01f,+9.27647278e-02f,
+1.83915064e-01f,-2.76637655e-02f,+3.52061018e-02f,+1.03193149e-01f,+1.54757112e-01f,
+1.62309036e-01f,-1.19340934e-01f,-3.53687793e-01f,-1.23684919e-02f,+1.29894530e-02f,
+2.22075850e-01f,+1.95706412e-01f,+7.42931888e-02f,-1.84241816e-01f,+4.55379114e-02f,
+1.57737061e-01f,+2.69179791e-01f,-1.16294026e-02f,+1.13872707e-01f,+6.15004823e-03f,
-2.97827530e-03f,+2.43286520e-01f,+1.52061164e-01f,-2.85647064e-02f,-7.32948557e-02f,
+2.20593959e-02f,-1.36649758e-01f,-6.83694258e-02f,-3.74206975e-02f,+1.27525434e-01f,
-5.38375974e-02f,+3.93140763e-02f,+8.47657099e-02f,+3.78978431e-01f,+2.50807166e-01f,
+4.55561996e-01f,+3.29556316e-02f,-2.13976845e-01f,+2.90234953e-01f,-7.69160613e-02f,
+2.96547674e-02f,-1.12939939e-01f,+2.75745429e-02f,+1.27305821e-01f,-4.45694802e-03f,
+1.25797793e-01f,+8.30385461e-02f,-1.20812289e-01f,-1.77148804e-01f,+2.27557108e-01f,
+9.49853808e-02f,-1.03610098e-01f,+1.08249664e-01f,-1.21342994e-01f,+1.91636324e-01f,
-6.51494414e-02f,-1.14776716e-01f,-1.51366480e-02f,+1.14583068e-01f,+5.87645844e-02f,
+1.38723683e-02f,+1.12058774e-01f,+8.58904272e-02f,+5.60703427e-02f,+1.78417156e-03f,
+4.72561002e-01f,+8.35058838e-02f,+4.00721952e-02f,-1.46437287e-01f,+1.18438281e-01f,
+6.09673336e-02f,+5.93752265e-02f,-3.19479778e-03f,+1.74631327e-02f,+9.32959467e-02f,
+1.10824212e-01f,+3.48762013e-02f,+1.32813022e-01f,+2.13970229e-01f,-1.26227913e-02f,
+2.91659564e-01f,+1.79313824e-01f,+3.94230723e-01f,-1.53799966e-01f,+1.66046396e-01f,
+2.84996390e-01f,-4.33961973e-02f,+4.27615911e-01f,-3.84461805e-02f,+1.06973955e-02f,
+3.61803412e-01f,+1.71910077e-01f,-1.24987677e-01f,+4.12805080e-02f,+5.44294268e-02f,
-7.44525865e-02f,-1.03274547e-01f,+6.65913746e-02f,+1.40512586e-01f,+4.63316217e-02f,
+2.03982815e-01f,+8.13376438e-03f,+1.60514742e-01f,-3.21745276e-02f,-3.59452330e-02f,
+8.21335912e-02f,+1.81707770e-01f,+7.99505785e-02f,+1.19169988e-01f,-8.61879811e-02f,
+1.98838696e-01f,+9.17380899e-02f,+1.46235347e-01f,+1.89767942e-01f,+4.65370789e-02f,
-1.70733199e-01f,+1.71626899e-02f,+2.53607798e-02f,+7.06770644e-02f,+3.49516608e-02f,
+6.30309880e-02f,+6.51385784e-02f,+6.75899163e-02f,+1.72429591e-01f,+1.26630604e-01f,
+1.03165939e-01f,-2.26305813e-01f,+4.84934635e-02f,+1.82281643e-01f,-5.04509509e-02f,
-1.35472864e-01f,+5.88313304e-02f,+2.41404086e-01f,-2.76595771e-01f,-6.43765777e-02f,
+4.78884876e-02f,+1.07184537e-01f,-1.13146611e-01f,+1.76897839e-01f,+2.34557524e-01f,
-4.34994966e-01f,+6.82109743e-02f,+5.16178720e-02f,+1.90933496e-01f,-1.54769048e-01f,
+4.02410813e-02f,+1.60014048e-01f,-1.61527500e-01f,-8.58277529e-02f,+4.94383201e-02f,
-1.33579418e-01f,+1.98825330e-01f,+1.56925932e-01f,+9.54088941e-02f,-1.63673703e-02f,
+1.22367129e-01f,+9.22049806e-02f,-1.11154862e-01f,-1.43764675e-01f,-1.19367965e-01f,
+1.22037187e-01f,-5.96836722e-03f,+1.29637450e-01f,+3.66096050e-02f,-5.44102909e-03f,
-2.19796568e-01f,-9.81000438e-02f,-5.15533499e-02f,+1.47210374e-01f,+1.87312648e-01f,
-1.25569731e-01f,+4.72978093e-02f,+8.14386532e-02f,-7.07962289e-02f,-1.27120927e-01f,
+8.95059779e-02f,+1.52027503e-01f,+1.50417864e-01f,-1.01893224e-01f,+1.45972028e-01f,
+4.93230969e-02f,-8.31603166e-03f,-9.53185931e-02f,+2.56485909e-01f,+2.45306522e-01f,
+1.82930171e-01f,+1.81356475e-01f,+1.66579768e-01f,+2.56316084e-02f,+1.48237512e-01f,
+3.01877707e-01f,+1.49886668e-01f,+3.22358161e-02f,-1.86553448e-01f,+1.60818361e-02f,
+1.66060746e-01f,+2.00630333e-02f,+4.95227426e-01f,+3.10283136e-02f,+1.59399316e-01f,
+1.22618768e-02f,+3.53078812e-01f,+1.76319778e-01f,+3.47573906e-02f,+1.17543668e-01f,
+5.57316765e-02f,-9.13800746e-02f,-6.71056435e-02f,+1.51323471e-02f,-1.72563508e-01f,
+2.54268765e-01f,+2.06638977e-01f,+1.65542543e-01f,+1.06734596e-01f,+9.20465142e-02f,
-2.75899451e-02f,-3.49588357e-02f,+1.44664869e-02f,-6.77571967e-02f,-9.03677568e-03f,
-4.55681374e-03f,+1.66172877e-01f,+7.00590461e-02f,-9.93076595e-04f,-3.49897556e-02f,
+1.00726016e-01f,-4.99693006e-02f,+7.72505477e-02f,+2.64279932e-01f,-1.55504227e-01f,
+6.61065951e-02f,-1.86346009e-01f,-7.82649890e-02f,+1.41028300e-01f,+1.18680798e-01f,
-2.06603557e-01f,-1.86507195e-01f,-5.21625280e-02f,+8.71655047e-02f,+1.99236646e-01f,
+3.12179804e-01f,-1.67016119e-01f,+1.93569660e-01f,+2.76291430e-01f,+8.52049887e-02f,
+9.08594429e-02f,+1.56295180e-01f,+4.32646275e-02f,+1.23218685e-01f,+1.65929571e-01f,
+3.20978612e-02f,+2.47980729e-02f,-1.28611382e-02f,-6.43394068e-02f,+3.11892003e-01f,
+1.60667822e-01f,-9.63629037e-02f,+3.00715435e-02f,+7.09021688e-02f,-1.37722999e-01f,
+2.04225987e-01f,+8.41930360e-02f,+4.25144695e-02f,-1.66276485e-01f,+1.89580679e-01f,
+8.95683169e-02f,+5.65935522e-02f,+3.43278348e-02f,+2.42329389e-01f,+8.78695026e-02f,
+2.73040235e-01f,+1.81609720e-01f,+4.08293933e-01f,-1.56815335e-01f,-1.18429244e-01f,
-8.24689716e-02f,+2.49822828e-04f,+4.19998616e-02f,-3.30586761e-01f,+4.20796961e-01f,
+7.87683800e-02f,-7.98418373e-02f,-1.94562115e-02f,-7.44370073e-02f,+5.83993420e-02f,
-1.82442311e-02f,+1.82875454e-01f,+1.98933065e-01f,+1.01727851e-01f,+2.42574751e-01f,
+2.01655366e-02f,+4.31884676e-02f,-6.11236282e-02f,+2.74904877e-01f,+4.23086062e-02f,
-2.66682170e-02f,+1.22703291e-01f,+1.05118349e-01f,+3.58613878e-02f,+6.68632612e-02f,
-6.63749427e-02f,+1.49357645e-02f,+1.80893227e-01f,+9.23457742e-02f,+5.61127290e-02f,
-4.28812616e-02f,-9.75405648e-02f,-4.41481024e-02f,+2.47127563e-01f,+2.60279477e-01f,
+4.69081812e-02f,+1.25288144e-01f,+3.23431700e-01f,+4.28791344e-02f,-1.53567269e-01f,
+3.85434657e-01f,-1.16036907e-01f,+1.11884922e-01f,-1.75852358e-01f,-6.75458275e-03f,
-5.14211468e-02f,+1.09712385e-01f,+1.64639223e-02f,-3.30895931e-01f,+1.19448669e-01f,
-5.83021641e-02f,+3.70899327e-02f,+2.49428451e-01f,+5.46508171e-02f,-1.37520537e-01f,
+2.59708405e-01f,+3.77726585e-01f,+8.83048922e-02f,-2.21911147e-01f,+2.85752743e-01f,
-5.70051819e-02f,+2.02873319e-01f,+1.19914547e-01f,-8.79571438e-02f,-9.67980102e-02f,
+1.20490389e-02f,+1.43225774e-01f,-7.01080412e-02f,-1.10362691e-03f,+1.45766914e-01f,
+2.19759345e-01f,+1.49369568e-01f,+2.00711340e-01f,+2.32449666e-01f,+2.29250699e-01f,
+1.79662332e-01f,-4.97310087e-02f,+1.43040940e-01f,+1.02129385e-01f,+1.81126205e-04f,
+2.06790671e-01f,+1.14101924e-01f,+2.96693742e-01f,-8.56070220e-02f,+8.04299861e-02f,
+1.39051247e-02f,-1.52845129e-01f,+2.92812258e-01f,+1.11889414e-01f,+1.76782638e-01f,
-8.03796053e-02f,+1.53497055e-01f,-1.14966407e-01f,-8.26336890e-02f,+5.94943538e-02f,
+9.77727324e-02f,-7.89658502e-02f,+1.27611101e-01f,+1.93607211e-01f,+2.08371460e-01f,
-1.50385827e-01f,-1.80301890e-01f,+1.26489205e-02f,-3.82717587e-02f,-3.00166830e-02f,
+1.69713318e-01f,-8.74154642e-02f,+7.79131874e-02f,+1.42119616e-01f,-6.17869757e-02f,
+1.43957794e-01f,+2.43063122e-02f,+2.78657347e-01f,+1.35869220e-01f,+1.01656944e-01f,
+2.05799475e-01f,+2.89420366e-01f,-2.66629100e-01f,-1.26694879e-02f,+7.78139085e-02f,
+2.73737684e-02f,+4.82687317e-02f,+1.19021581e-02f,+2.48894677e-01f,+1.61197126e-01f,
+1.27506256e-01f,+4.81757289e-03f,+1.41649470e-01f,-2.09296569e-01f,-1.93393111e-01f,
+2.83379424e-02f,+1.67138353e-01f,+2.17603594e-01f,+9.18346047e-02f,+1.24343097e-01f,
+1.74949646e-01f,+2.21270129e-01f,+4.10649106e-02f,-4.98342179e-02f,+1.98848575e-01f,
+1.53627753e-01f,+4.35439497e-02f,+2.51902062e-02f,-1.83780774e-01f,-2.87370253e-02f,
-7.72761228e-03f,+1.22605823e-01f,+2.51173705e-01f,-8.85949358e-02f,+5.83997071e-02f,
+1.70052186e-01f,+9.79851261e-02f,-6.56875819e-02f,+1.39395133e-01f,-2.09928025e-02f,
+9.14030746e-02f,-3.70301567e-02f,-5.74724339e-02f,+3.34346853e-03f,-1.50764529e-02f,
+2.77588636e-01f,+6.31389990e-02f,+3.32960747e-02f,-1.16642214e-01f,+1.00295715e-01f,
-7.22173676e-02f,-1.26193047e-01f,-3.31233554e-02f,-1.16197206e-01f,+8.56988132e-02f,
+8.61426666e-02f,+1.01539731e-01f,-1.99009523e-01f,+1.80099346e-02f,+8.32155943e-02f,
+5.77798150e-02f,+6.89486936e-02f,+3.29556800e-02f,-1.46211699e-01f,-4.81962692e-04f,
+2.46271849e-01f,-4.64406749e-03f,+2.16858819e-01f,+1.57063007e-02f,+8.24338123e-02f,
-7.49711841e-02f,-1.04676776e-01f,+2.25230921e-02f,+6.04133122e-03f,-4.18920927e-02f,
+6.71806857e-02f,+3.19326252e-01f,+5.03753796e-02f,+8.76396596e-02f,+1.86632320e-01f,
-1.44745559e-01f,+2.26540342e-02f,-4.82637957e-02f,+1.85524851e-01f,-1.02638908e-01f,
+2.32458338e-01f,-8.65888968e-03f,+6.79570138e-02f,+1.40158311e-01f,+2.16314405e-01f,
+1.63891539e-01f,-2.57673021e-02f,-1.21883154e-01f,-1.42824307e-01f,+8.30232129e-02f,
+1.79871559e-01f,+1.12847358e-01f,-5.44789582e-02f,+2.92141020e-01f,+1.86359305e-02f,
+8.15227330e-02f,+6.53894842e-02f,-6.83609396e-02f,-6.82334602e-02f,+6.86846450e-02f,
-4.00585197e-02f,+1.10370629e-01f,+5.04163317e-02f,+1.56359732e-01f,-3.04197380e-03f,
+7.54597262e-02f,+1.98992521e-01f,+5.58669828e-02f,+5.71810752e-02f,+1.56799570e-01f,
+3.47194523e-02f,+3.98545563e-02f,-3.60778235e-02f,-1.09090693e-01f,-2.22481877e-01f,
-9.05370936e-02f,+2.54621804e-02f,+2.43592542e-02f,-5.98954922e-03f,-2.19338890e-02f,
+6.60089105e-02f,+9.22022834e-02f,-8.71044993e-02f,+1.95296258e-01f,+1.35532156e-01f,
-1.04772747e-01f,+1.84528857e-01f,-7.77028054e-02f,-1.73181128e-02f,+1.74750090e-01f,
-1.01132885e-01f,+3.89907137e-03f,-2.73078568e-02f,+1.09503277e-01f,+1.99210033e-01f,
+3.84843081e-01f,-2.02278167e-01f,+1.91623032e-01f,-8.62589031e-02f,+1.12815641e-01f,
+4.13573300e-03f,+9.23383608e-03f,-1.20356545e-01f,+5.24252318e-02f,+2.87711114e-01f,
-9.31587592e-02f,+1.65121153e-01f,+3.88038158e-01f,-6.21610843e-02f,-2.28972986e-01f,
+8.14957768e-02f,+1.71431527e-01f,-6.07538931e-02f,+2.34234169e-01f,+1.73224196e-01f,
-8.50333422e-02f,+2.56860852e-01f,-1.22997642e-01f,+1.63793471e-02f,+1.12214796e-01f,
+1.67247072e-01f,+1.36559352e-01f,+5.61437905e-02f,-1.07044362e-01f,+2.45467022e-01f,
+1.64044965e-02f,-3.61512639e-02f,-9.95751396e-02f,+1.51781887e-01f,+1.89282000e-01f,
+6.10430129e-02f,+6.92718104e-02f,+1.75045297e-01f,+1.55085936e-01f,-2.38479093e-01f,
-3.41368884e-01f,+1.60053894e-01f,+1.53345540e-01f,+1.45899311e-01f,-4.93126623e-02f,
+1.96448574e-03f,-3.76234874e-02f,+1.41734304e-02f,+2.71387339e-01f,+1.03460327e-01f,
-4.12377119e-02f,-6.17604554e-02f,-9.84219462e-02f,-2.31392562e-01f,+1.04968764e-01f,
+1.12004317e-01f,-1.50129981e-02f,+9.54451188e-02f,+2.57174969e-01f,+8.27561542e-02f,
+2.63248850e-03f,-5.70383109e-03f,+1.99562609e-01f,+1.14351764e-01f,+3.61356027e-02f,
+2.66236234e-02f,+7.24816918e-02f,+6.05038926e-02f,+4.96985950e-02f,+2.90892012e-02f,
-3.46028283e-02f,-1.28897708e-02f,+1.24914072e-01f,+2.90280044e-01f,+1.95291191e-02f,
+2.92054832e-01f,+9.98557508e-02f,+2.96205908e-01f,+1.03222467e-01f,+1.13921337e-01f,
+8.86251926e-02f,-3.65623198e-02f,+2.14228202e-02f,+4.03651632e-02f,+2.07488015e-02f,
+1.17927995e-02f,+3.45726544e-03f,+1.54715508e-01f,+1.79699719e-01f,+2.35221744e-01f,
+6.03817729e-03f,+6.85030594e-02f,-1.46836996e-01f,+1.26197979e-01f,-1.89821184e-01f,
+3.82955730e-01f,-8.15679654e-02f,-7.03060851e-02f,+1.95325479e-01f,+1.30612716e-01f,
+1.06556192e-01f,+7.79820979e-02f,-9.82233509e-02f,-5.37254885e-02f,-1.58054397e-01f,
+8.46976321e-03f,+1.84969947e-01f,-1.55515103e-02f,+8.35319385e-02f,+8.47864598e-02f,
+1.20524548e-01f,-7.75489882e-02f,+3.28135699e-01f,-1.03192506e-02f,-1.08492009e-01f,
-3.42297494e-01f,+2.03329131e-01f,+1.40199766e-01f,+5.84974252e-02f,+1.58565581e-01f,
+4.60470505e-02f,-8.01324546e-02f,+1.97209299e-01f,+1.07798502e-01f,-6.52693585e-02f,
-1.12509042e-01f,+3.45919058e-02f,+1.53789476e-01f,-2.49334171e-01f,+3.70490670e-01f,
-6.08775392e-02f,-3.71644497e-02f,+3.54145207e-02f,+2.58269105e-02f,+4.54150178e-02f,
-9.21919942e-02f,-2.20395133e-01f,+1.30237624e-01f,+5.20908348e-02f,+2.60074496e-01f,
+6.59136549e-02f,+1.14123777e-01f,-1.68210551e-01f,+1.09162308e-01f,+1.02925925e-02f,
+7.57714957e-02f,-5.30729257e-02f,-3.63412090e-02f,-1.53643014e-02f,-5.97538054e-02f,
+5.69663793e-02f,-1.58592448e-01f,-4.26258743e-02f,+1.00424707e-01f,-1.28581181e-01f,
+7.59593323e-02f,+2.68443108e-01f,-9.43829790e-02f,+9.98827294e-02f,+1.50747359e-01f,
+4.60514762e-02f,+8.27687681e-02f,+1.08827412e-01f,+1.78528160e-01f,+4.55248356e-02f,
+6.29775003e-02f,+1.09836213e-01f,+1.55734107e-01f,-6.59309030e-02f,-2.55883709e-02f,
+8.92416909e-02f,-1.58583373e-01f,+2.85990089e-01f,-1.06540136e-01f,-1.69551268e-01f,
+1.97978303e-01f,-6.70015812e-02f,+4.71047685e-03f,+6.14744164e-02f,+2.66212463e-01f,
+1.41198874e-01f,+6.46739453e-02f,+1.49837555e-02f,+3.67553234e-02f,-5.06387092e-02f,
-3.05947632e-01f,-1.89434111e-01f,+3.84412825e-01f,+7.77520537e-02f,+1.38742030e-02f,
-1.49664149e-01f,-1.47802979e-01f,+9.06156749e-02f,+5.01651317e-03f,+1.03908241e-01f,
-1.54902730e-02f,-1.56432480e-01f,+3.50830629e-02f,+6.29878342e-02f,-3.64022516e-02f,
+4.53067213e-01f,-6.25083074e-02f,+8.43288824e-02f,+1.10341243e-01f,-2.19214737e-01f,
-5.55569008e-02f,+1.59756411e-02f,+1.77616596e-01f,+9.94056836e-02f,+1.02143131e-01f,
-1.60175726e-01f,-4.43818010e-02f,+5.01607209e-02f,+2.82004058e-01f,+3.07674967e-02f,
+9.65481550e-02f,+1.00109927e-01f,+1.41112715e-01f,+1.92852750e-01f,+1.83074459e-01f,
-2.42878720e-01f,+1.15427807e-01f,+8.77240002e-02f,+8.87943134e-02f,-1.35161057e-01f,
+5.00961319e-02f,+4.02940303e-01f,+3.35974917e-02f,+1.29159108e-01f,-4.94390987e-02f,
+1.54260695e-01f,+4.56442032e-03f,+2.05823556e-01f,+1.11047082e-01f,+1.59148872e-01f,
+1.23179324e-01f,+2.52026975e-01f,-3.28652598e-02f,+1.05113268e-01f,+1.42607719e-01f,
+1.48031011e-01f,-9.23001617e-02f,-7.60439085e-03f,-4.03270088e-02f,+5.09333313e-02f,
+1.89230636e-01f,+2.67152101e-01f,+2.37437591e-01f,-1.82677492e-01f,-1.04707278e-01f,
+1.20735943e-01f,-8.87446404e-02f,+4.10001837e-02f,+1.03386275e-01f,+5.90518191e-02f,
+1.45875975e-01f,+1.18891165e-01f,+3.11005384e-01f,+2.16051284e-02f,+4.23216894e-02f,
-7.35638514e-02f,+2.34943554e-02f,-2.86446009e-02f,+1.06623359e-01f,+3.82167190e-01f,
+8.45737010e-02f,+1.48729369e-01f,+3.49353142e-02f,+1.72173470e-01f,+8.30006972e-02f,
-1.31185196e-04f,+3.43505107e-02f,+7.54699185e-02f,-3.14649865e-02f,-2.37601548e-02f,
+6.65681288e-02f,-3.24980579e-02f,+1.76702127e-01f,+1.49623305e-01f,+1.17537707e-01f,
+1.67823851e-01f,+1.77241117e-01f,+4.09754477e-02f,+1.24477133e-01f,-5.07520791e-03f,
+2.35560890e-02f,+1.26576662e-01f,+7.50172660e-02f,-3.46696451e-02f,+1.72529921e-01f,
-2.02159472e-02f,-3.61771062e-02f,-2.02820286e-01f,+2.23971963e-01f,-9.75109115e-02f,
+2.09984146e-02f,+2.13946924e-02f,+4.59332578e-02f,+1.17731346e-02f,+1.74764052e-01f,
+6.21775202e-02f,-8.19298550e-02f,+1.15014546e-01f,+3.53775620e-01f,+1.40897647e-01f,
+1.86198130e-01f,+6.46814182e-02f,+9.01338980e-02f,+3.95250246e-02f,+2.05396026e-01f,
-5.40304445e-02f,+1.89224824e-01f,-2.03709170e-01f,+9.29045603e-02f,+1.42544135e-01f,
-6.83377460e-02f,-1.90150999e-02f,-7.63092712e-02f,-1.17748596e-01f,+9.37150866e-02f,
+2.08196133e-01f,+8.84220973e-02f,+1.19886585e-01f,+3.42688002e-02f,+1.33885294e-01f,
+1.32941023e-01f,-3.08142323e-02f,-7.70645589e-02f,+7.31986761e-02f,-4.33592275e-02f,
-1.29269719e-01f,+1.10121265e-01f,-2.03216542e-02f,+1.67511217e-02f,+1.07332058e-01f,
+7.99150020e-02f,-1.51980400e-01f,+1.32551985e-02f,+2.61181276e-02f,+1.25022173e-01f,
-2.06558108e-01f,-9.55630168e-02f,+1.84950262e-01f,-7.96320066e-02f,+1.41545787e-01f,
-7.50663802e-02f,+1.25680268e-01f,+1.03965953e-01f,-1.95388585e-01f,-1.71366051e-01f,
+1.67921349e-01f,-1.12229772e-01f,+2.09252328e-01f,-1.56446453e-02f,+6.47737458e-02f,
+8.20419639e-02f,+4.38599437e-02f,+5.64334542e-02f,+2.29922682e-01f,+1.18233867e-01f,
-1.52683407e-02f,+1.11981384e-01f,-3.60120051e-02f,+3.07504922e-01f,+6.38660863e-02f,
-5.40168583e-02f,+1.43200755e-02f,+1.10351764e-01f,+9.00290906e-02f,-1.80175707e-01f,
+1.25255421e-01f,+4.29575630e-02f,+3.46119888e-02f,+1.29691027e-02f,+1.19632661e-01f,
-2.13906378e-01f,-3.13850306e-02f,-7.69538656e-02f,-6.00079000e-02f,+2.95243561e-01f,
+9.84902903e-02f,-3.85364029e-03f,+2.61438191e-01f,-6.73315376e-02f,+1.81093812e-02f,
+2.08334953e-01f,+1.88264862e-01f,-2.16675224e-03f,+1.31515816e-01f,+5.62826432e-02f,
+1.88749894e-01f,+8.36404711e-02f,+5.36004528e-02f,+1.16312411e-02f,+9.86635685e-02f,
+7.19715133e-02f,+4.64638248e-02f,+1.03717633e-01f,+1.05944388e-01f,+6.67199865e-02f,
-2.76044719e-02f,+6.20126128e-02f,+4.29306515e-02f,+1.05617516e-01f,-7.94656128e-02f,
-2.71453541e-02f,-6.66312501e-02f,+1.10436529e-01f,-3.81240100e-02f,+1.23246415e-02f,
+1.77019387e-01f,+8.44920352e-02f,+7.07715899e-02f,+3.88571504e-03f,+6.82470128e-02f,
+2.52323318e-02f,+1.76410630e-01f,+5.40599637e-02f,+4.42932785e-01f,-1.63066193e-01f,
+6.77076131e-02f,+1.77429784e-02f,-5.28575480e-02f,+1.08540570e-02f,+7.13830963e-02f,
-1.56344771e-01f,+1.83810398e-01f,+1.41801447e-01f,+4.51545650e-03f,+4.36593108e-02f,
+5.21850437e-02f,-1.94939543e-02f,-9.80893448e-02f,-4.13882695e-02f,+4.90703918e-02f,
+1.57499239e-01f,-1.34453578e-02f,+9.44170132e-02f,+2.05689371e-01f,+2.16919735e-01f,
-7.55984290e-03f,+3.58465477e-03f,+2.19403245e-02f,-5.43113947e-02f,-2.99827028e-02f,
+5.09872958e-02f,+9.67439916e-03f,+2.94548422e-02f,-1.01168931e-01f,+6.91528767e-02f,
+6.68240786e-02f,+8.78550261e-02f,+4.12483402e-02f,+1.06692659e-02f,-2.66836062e-02f,
+1.97262987e-01f,-1.16622642e-01f,-7.90836364e-02f,+6.97988868e-02f,+2.14438260e-01f,
+1.73590913e-01f,-5.68299517e-02f,+6.75483644e-02f,+6.91286102e-02f,+1.32857740e-01f,
+8.05419385e-02f,-7.76538486e-03f,+1.03826441e-01f,+1.49211228e-01f,+3.26483399e-02f,
-8.41609538e-02f,+8.20339173e-02f,+1.91389337e-01f,+5.68976738e-02f,-7.72899240e-02f,
+5.62161393e-02f,+7.17902705e-02f,-3.15842748e-01f,+8.71482715e-02f,+9.85028073e-02f,
+6.97054565e-02f,+2.13778451e-01f,+7.77166039e-02f,+1.50981575e-01f,+3.36420268e-01f,
+6.23925626e-02f,+1.18684530e-01f,+7.41895288e-02f,+8.81904922e-03f,+1.05916880e-01f,
-3.19498070e-02f,+9.29022059e-02f,-4.84777652e-02f,+3.74362394e-02f,+1.18441932e-01f,
+1.64437637e-01f,+1.41341686e-01f,+8.46778601e-02f,+2.26343960e-01f,+3.13377120e-02f,
+1.99363187e-01f,+3.53375897e-02f,+2.59786155e-02f,-1.31099850e-01f,+1.94613904e-01f,
+1.03349514e-01f,-5.09551056e-02f,+3.14661153e-02f,+1.02262214e-01f,+1.82645291e-01f,
+2.40934476e-01f,+9.71539095e-02f,-1.38182342e-01f,+1.23896599e-01f,+3.29061180e-01f,
+1.59872711e-01f,+1.33686095e-01f,+1.00780092e-01f,+1.50426188e-02f,-1.71845090e-02f,
+1.10566035e-01f,-1.00699827e-01f,+1.78798527e-01f,+7.73997232e-02f,+2.02692658e-01f,
+3.15634042e-01f,+5.70504740e-02f,+1.69851065e-01f,+4.73936200e-02f,+3.08395237e-01f,
+1.37818620e-01f,+5.04496247e-02f,+2.11540103e-01f,-1.07403710e-01f,+3.37230898e-02f,
+2.96117395e-01f,-6.64212182e-02f,-8.94763544e-02f,+3.10400054e-02f,-7.55125508e-02f,
+8.54477584e-02f,+7.28667229e-02f,+2.24227518e-01f,-6.91610873e-02f,+4.05401513e-02f,
+3.51401120e-02f,+2.21124545e-01f,-7.27193728e-02f,+2.60155778e-02f,+4.51217890e-02f,
+1.15522653e-01f,+6.30199015e-02f,+1.14850909e-01f,+1.68159619e-01f,+2.41982564e-02f,
+1.01242043e-01f,+1.55810252e-01f,+1.47403225e-01f,-1.63406541e-03f,+2.41378456e-01f,
-2.69994531e-02f,+1.09286986e-01f,+1.84905291e-01f,+2.03810930e-02f,-4.38015833e-02f,
+2.96319962e-01f,+1.52159274e-01f,+1.45693004e-01f,-4.85513508e-02f,+2.78782517e-01f,
+6.86141923e-02f,+3.17087434e-02f,+1.58072993e-01f,+4.05457523e-03f,-1.75500557e-01f,
+1.44610330e-01f,-1.20424919e-01f,+1.03376925e-01f,+8.56054202e-02f,+3.82171273e-02f,
-1.74752414e-01f,-1.16098613e-01f,+2.03366145e-01f,+6.55646846e-02f,+1.35876387e-01f,
+8.33819285e-02f,+2.34023612e-02f,+6.43127933e-02f,+1.62697006e-02f,-6.89451098e-02f,
+5.15560396e-02f,+3.94615382e-01f,-1.17552001e-03f,-7.03810528e-02f,+5.48558086e-02f,
+1.30750999e-01f,+1.85083896e-01f,+5.87411188e-02f,+1.26286894e-01f,+1.04549639e-01f,
+2.62117207e-01f,-1.17601946e-01f,-2.70768907e-03f,+1.35746539e-01f,+7.61265233e-02f,
+8.64234716e-02f,+8.36725160e-02f,+1.49100780e-01f,+4.17382419e-02f,-3.17796618e-01f,
+1.61020070e-01f,-2.66476423e-02f,+1.00808010e-01f,+9.41427648e-02f,+6.11917935e-02f,
+1.72556981e-01f,+1.25666991e-01f,+1.06405109e-01f,+8.17075893e-02f,+2.34744921e-01f,
-4.92600575e-02f,+3.56918052e-02f,-2.86004804e-02f,-1.10792510e-01f,-1.00299351e-01f,
+1.01708218e-01f,+1.38927639e-01f,-2.20014006e-01f,+9.30936858e-02f,-4.39129360e-02f,
+3.36708948e-02f,-1.05160981e-01f,+1.40082911e-01f,+4.47039194e-02f,+8.33593383e-02f,
-3.49105708e-02f,+2.30437413e-01f,+2.72301972e-01f,+7.99880400e-02f,-1.35906145e-01f,
+6.52760789e-02f,+2.03105763e-01f,+3.24075580e-01f,+5.86509891e-03f,-1.85014978e-02f,
+1.81011081e-01f,+2.74526346e-02f,+7.95584098e-02f,+1.54830500e-01f,+2.95420792e-02f,
+1.11842871e-01f,+2.12342560e-01f,+2.43429393e-01f,+5.13420217e-02f,-8.12994018e-02f,
+2.34057680e-01f,-6.86845630e-02f,+3.27808186e-02f,-8.02642666e-03f,-1.25715196e-01f,
+7.17353001e-02f,+1.34790137e-01f,-8.15132167e-03f,-5.90090714e-02f,+1.71527177e-01f,
-1.63867548e-01f,+1.38397217e-01f,+2.70911127e-01f,-8.02977383e-03f,+1.52978124e-02f,
+1.53878629e-01f,-4.65017036e-02f,+1.24346346e-01f,+5.81559837e-02f,+7.73180649e-02f,
+1.08934743e-02f,+1.59116849e-01f,-1.48043251e-02f,+1.32770672e-01f,-2.40926556e-02f,
-4.93666111e-03f,+7.82795772e-02f,-3.85920960e-03f,-1.76722500e-02f,+1.44787058e-01f,
+1.31230146e-01f,+3.06489952e-02f,-1.96211055e-01f,-1.36004752e-02f,+4.14445587e-02f,
+9.28595383e-03f,+9.06358194e-03f,+1.60452053e-01f,+3.87132242e-02f,+1.77314252e-01f,
+5.99429160e-02f,+2.41413638e-01f,+2.22858444e-01f,+5.02382740e-02f,-9.80389211e-03f,
-1.09028101e-01f,+9.57422182e-02f,+6.93627596e-02f,+1.47224754e-01f,+3.95261943e-02f,
+9.85592827e-02f,+6.05732016e-02f,+9.07076895e-02f,+9.16912481e-02f,+3.06771249e-02f,
+1.87912673e-01f,+7.73317590e-02f,+1.03116609e-01f,+1.39016569e-01f,+3.43283415e-01f,
+1.34009480e-01f,+6.26778752e-02f,-1.35411099e-02f,+7.12721720e-02f,+2.45793670e-01f,
-3.73927541e-02f,-3.16734202e-02f,+1.22557908e-01f,+3.79506052e-01f,+1.64429918e-01f,
+1.57277137e-01f,+3.20691347e-01f,+1.11986194e-02f,-1.26413852e-01f,+7.47120008e-02f,
+6.18263967e-02f,+8.51484761e-02f,+2.06044421e-01f,-1.91356670e-02f,+1.46920577e-01f,
-7.17972592e-02f,+3.42830308e-02f,+1.76197529e-01f,+7.84369111e-02f,+6.86436370e-02f,
-8.29731897e-02f,+5.46734296e-02f,+3.64668965e-01f,+1.49723083e-01f,+9.87971425e-02f,
+7.55724758e-02f,-8.94237384e-02f,+1.76074669e-01f,-2.16526017e-01f,-1.75812766e-01f,
+1.57004982e-01f,+1.66264459e-01f,+1.71666026e-01f,-6.07582554e-02f,+1.67039320e-01f,
-2.71232352e-02f,-1.16252802e-01f,-1.42341226e-01f,+1.05678692e-01f,+1.25291705e-01f,
+2.09738985e-01f,+9.99237895e-02f,+1.15276642e-01f,+2.71188557e-01f,-1.44817848e-02f,
-3.87335084e-02f,+5.84381670e-02f,+1.13805346e-01f,+2.04402804e-01f,+9.59528908e-02f,
-1.20869294e-01f,-1.78399786e-01f,-1.36337370e-01f,+1.85516044e-01f,-2.86764801e-02f,
+1.32242844e-01f,+4.78793770e-01f,-1.67745110e-02f,+1.47361293e-01f,+4.21087928e-02f,
+7.51085505e-02f,-1.27187312e-01f,+1.63490504e-01f,+1.01659950e-02f,+1.65905371e-01f,
-9.96423289e-02f,+1.43233791e-01f,+1.51963681e-01f,+1.67002052e-01f,+6.39258102e-02f,
-1.02044977e-01f,+1.12730891e-01f,-1.91611022e-01f,-1.38773531e-01f,-4.80883978e-02f,
-1.27187282e-01f,-9.34481770e-02f,+1.81724221e-01f,-2.39492878e-02f,-1.83342636e-01f,
+1.38298333e-01f,-4.52856757e-02f,+2.47035250e-02f,+3.35453451e-01f,+1.47168875e-01f,
+1.08413577e-01f,+1.03367150e-01f,-5.10286987e-02f,+1.15536533e-01f,-4.49980190e-03f,
+1.17990807e-01f,+1.58647016e-01f,+2.17852672e-03f,-2.40994059e-03f,+7.68022165e-02f,
-3.95207703e-02f,-7.31185302e-02f,-9.22753941e-03f,+6.70742020e-02f,+2.94714570e-01f,
-2.43211240e-01f,-7.07173795e-02f,-1.03546016e-01f,+1.68713890e-02f,+1.20969981e-01f,
-2.00635195e-03f,+1.31588757e-01f,-1.16088934e-01f,+3.20314705e-01f,+3.79850492e-02f,
-1.90777406e-02f,-1.99435741e-01f,+4.89537455e-02f,-5.39696962e-02f,+9.65053122e-03f,
+1.57992244e-02f,+5.51859848e-02f,-4.47714254e-02f,+9.30345580e-02f,-5.53181842e-02f,
-4.53474186e-02f,-1.10603668e-01f,-1.54689461e-01f,+7.47169033e-02f,+3.74105498e-02f,
-6.32017255e-02f,+1.18955448e-01f,+9.32291150e-02f,+2.18250737e-01f,+1.81951329e-01f,
+2.25495428e-01f,+9.45240781e-02f,+3.35707404e-02f,+1.61227614e-01f,+8.79236832e-02f,
+1.50328249e-01f,+8.96728784e-02f,+1.22441545e-01f,+6.09229691e-02f,+1.26898745e-02f,
-6.37051463e-02f,+6.68078586e-02f,+7.85040557e-02f,+3.41448956e-03f,+1.30236626e-01f,
+9.67599005e-02f,+4.02267464e-02f,-5.34362346e-02f,+5.63480100e-03f,+1.15085766e-01f,
+1.49145991e-01f,-5.89337945e-02f,-5.86879179e-02f,+1.33539326e-02f,-1.25439405e-01f,
-2.22782772e-02f,-7.83528164e-02f,-5.76424301e-02f,-8.06836858e-02f,-3.83052640e-02f,
+1.96686894e-01f,-9.60696042e-02f,+3.78080279e-01f,+1.46442965e-01f,+8.86806753e-03f,
+1.32711694e-01f,+1.21235117e-01f,+1.21561848e-02f,+4.29721586e-02f,-1.37705028e-01f,
-4.06231023e-02f,+1.63985834e-01f,+1.53524637e-01f,+3.87572274e-02f,+1.38615310e-01f,
+3.04296702e-01f,-5.79331256e-02f,-1.78534895e-01f,+9.52446610e-02f,-8.73096138e-02f,
-1.24003515e-02f,+1.26421332e-01f,-6.56760633e-02f,+1.21498048e-01f,+1.17296763e-01f,
-1.45709440e-01f,+1.69702396e-01f,-8.41349885e-02f,-4.90539670e-02f,-1.53681263e-02f,
+1.61058128e-01f,+1.09032474e-01f,+3.58379185e-02f,+8.20569918e-02f,-1.25865499e-02f,
-6.00813814e-02f,+2.31399342e-01f,+2.06081674e-01f,+1.82939723e-01f,+1.57539826e-02f,
+6.06864952e-02f,+9.01607871e-02f,-1.77145675e-01f,+1.28436983e-01f,+1.20680131e-01f,
+3.75918224e-02f,+6.82067871e-03f,+1.00290626e-01f,+4.46322411e-02f,+1.36577085e-01f,
+2.57220507e-01f,+2.66321957e-01f,-1.66293696e-01f,-8.80239829e-02f,+8.81669521e-02f,
+3.86939310e-02f,+5.89097030e-02f,+6.11075982e-02f,-1.18885376e-01f,+7.85309225e-02f,
-4.40986454e-02f,-1.51564717e-01f,-1.78418364e-02f,+1.88296005e-01f,+1.42243858e-02f,
-4.29166704e-02f,-2.43934430e-02f,+6.99545164e-03f,+2.17073143e-01f,-1.65312916e-01f,
-2.88334433e-02f,-5.26286550e-02f,+2.06169318e-02f,+1.09848015e-01f,-5.40992059e-02f,
-8.74062851e-02f,-1.61785647e-01f,+5.34345955e-02f,+4.74494918e-05f,+3.95336980e-03f,
-1.49406478e-01f,+5.96782714e-02f,+7.11545944e-02f,-2.80925184e-01f,+3.50860246e-02f,
+5.94554879e-02f,+1.29831564e-02f,-3.03859394e-02f,+2.19224393e-03f,+4.57400791e-02f,
+4.77392003e-02f,-1.25496700e-01f,+2.99494416e-01f,+2.48557001e-01f,+5.76659292e-03f,
+2.38582149e-01f,+1.57173902e-01f,+1.67440847e-01f,+5.66828251e-02f,+2.05223799e-01f,
+4.15543199e-01f,+1.36578932e-01f,-3.83738019e-02f,+1.05741665e-01f,+2.34947339e-01f,
+4.52434532e-02f,+7.16318041e-02f,+3.26278776e-01f,-7.72215798e-02f,-1.96792111e-01f,
-7.54465610e-02f,+1.42098023e-02f,-8.79067406e-02f,-5.92201985e-02f,-2.93473322e-02f,
+2.76027739e-01f,-2.39019722e-01f,+8.56375992e-02f,+1.99885547e-01f,+1.85915790e-02f,
-9.94908214e-02f,-2.56182868e-02f,+5.89552000e-02f,+1.24055102e-01f,-4.46668305e-02f,
+2.11073533e-02f,-3.19885276e-02f,-3.41937765e-02f,-1.39994770e-01f,+4.89843152e-02f,
+3.72129716e-02f,+4.96036224e-02f,-9.04823542e-02f,+1.02036884e-02f,+1.58383295e-01f,
+1.14445508e-01f,+2.35240976e-03f,+3.82805057e-02f,+1.38779536e-01f,+3.02000833e-03f,
+1.99803799e-01f,+1.16049265e-03f,+2.09801923e-02f,+1.26345411e-01f,-3.22849154e-02f,
+2.25659475e-01f,+1.22551816e-02f,+1.43952332e-02f,+2.54779428e-01f,-2.67189257e-02f,
+6.86931983e-02f,-1.91836178e-01f,+7.45558962e-02f,-9.16729122e-02f,+1.01399980e-03f,
+1.02802642e-01f,-1.93733498e-01f,+8.15851148e-03f,+1.53970331e-01f,+5.95158897e-02f,
+1.98197678e-01f,-1.33079290e-01f,+7.92081207e-02f,+2.00082168e-01f,+2.19888017e-01f,
+1.42219663e-01f,+2.71977130e-02f,+8.24396908e-02f,+1.48279443e-01f,+8.23093951e-02f,
+2.00901330e-02f,-2.18694657e-01f,+1.01035386e-01f,-5.11819124e-02f,+2.75445968e-01f,
+6.05069520e-03f,+5.49421348e-02f,+7.19842464e-02f,-2.99489568e-03f,+1.16243131e-01f,
+2.34577984e-01f,-5.96537888e-02f,+1.78487554e-01f,+9.15653110e-02f,+1.29190326e-01f,
-6.97420761e-02f,+6.79886863e-02f,+1.14541508e-01f,+4.42206562e-01f,+4.91440780e-02f,
+9.61400419e-02f,-3.11499201e-02f,+1.18029695e-02f,+7.37075834e-03f,-1.26263171e-01f,
+1.98445227e-02f,-1.73004031e-01f,-6.88129961e-02f,+1.83214128e-01f,+1.49629982e-02f,
+4.59435940e-01f,+1.03773877e-01f,+1.66323781e-02f,-3.79191758e-03f,-6.55076206e-02f,
+6.97027892e-02f,-1.31345302e-01f,+7.35655501e-02f,-2.17280928e-02f,-1.31772012e-01f,
-2.38500088e-02f,+2.34930560e-01f,-1.68272689e-01f,+2.85653770e-01f,+1.73071653e-01f,
+1.09813303e-01f,-1.10644944e-01f,-3.86293262e-01f,-1.42970979e-02f,+1.15045935e-01f,
+3.75478715e-01f,+1.80925190e-01f,-6.75404742e-02f,+1.04185082e-01f,+7.93491527e-02f,
+6.34150133e-02f,+1.12146407e-01f,+1.27702057e-01f,-2.51387686e-01f,-2.21999004e-01f,
-1.49555162e-01f,+7.15187937e-02f,+9.91627723e-02f,+1.47637993e-01f,+2.33378962e-01f,
-8.50849375e-02f,+2.64795572e-01f,-3.22308913e-02f,+6.02078661e-02f,+1.71890527e-01f,
-4.75945026e-02f,+6.16854429e-02f,-9.46643949e-02f,+6.21938892e-02f,+1.78223237e-01f,
+9.98691022e-02f,+7.36958906e-02f,-1.59908339e-01f,+4.01176721e-01f,+1.53124228e-01f,
+1.02358796e-01f,+3.00003346e-02f,-1.41820192e-01f,+7.17315003e-02f,-1.47521617e-02f,
+1.73193261e-01f,+2.26208746e-01f,-8.08472633e-02f,-4.67170496e-03f,-5.90304881e-02f,
+7.52843097e-02f,+7.09477887e-02f,+1.38967037e-01f,+1.98762342e-01f,+2.91444719e-01f,
+2.06575796e-01f,+1.19497225e-01f,+1.81950033e-01f,-2.64578890e-02f,+3.29237312e-01f,
-7.49935731e-02f,+2.96945751e-01f,-1.11092761e-01f,+6.63443282e-02f,-1.44177690e-01f,
+2.22375318e-01f,+4.13393117e-02f,+2.58802205e-01f,-4.03371394e-01f,+2.43676901e-01f,
+7.39495158e-02f,-8.76907557e-02f,-8.56709704e-02f,-3.03162504e-02f,+3.09791137e-02f,
+1.42466590e-01f,-9.77440998e-02f,+1.70463935e-01f,-5.15256710e-02f,-4.34587635e-02f,
+4.79189336e-01f,-8.22869018e-02f,+3.98617208e-01f,+6.71529546e-02f,+3.12307104e-02f,
+7.30616078e-02f,-6.59047440e-02f,+2.89698899e-01f,+6.81769103e-02f,-6.72523528e-02f,
+2.17661098e-01f,-6.26059771e-02f,-6.77332282e-02f,-2.95069925e-02f,+7.07173944e-02f,
-6.47761822e-02f,-1.71892777e-01f,-3.27614136e-02f,+1.47754431e-01f,+8.30083042e-02f,
+1.05412789e-01f,+1.48827687e-01f,+1.45053789e-01f,-7.87384361e-02f,+1.03177782e-02f,
+1.89135313e-01f,+1.45091385e-01f,+1.36249028e-02f,+3.64957243e-01f,-3.16839130e-03f,
+3.91759537e-02f,+1.31335691e-01f,+6.92454949e-02f,+3.77165407e-01f,-3.47139910e-02f,
-1.28204271e-03f,-2.16392428e-02f,+1.08278818e-01f,+5.12799285e-02f,-1.44144967e-01f,
-6.96945116e-02f,+6.57764897e-02f,+2.65895218e-01f,+1.56562589e-02f,-1.48345068e-01f,
-9.64605436e-02f,+2.47483775e-02f,+1.82044089e-01f,+1.50690824e-01f,+1.04286835e-01f,
-4.01886515e-02f,-4.69642468e-02f,-7.84353018e-02f,+2.03186534e-02f,-5.70195653e-02f,
+9.88122821e-02f,+2.14166030e-01f,-2.13795416e-02f,+1.48493415e-02f,+1.08551644e-01f,
-2.98400581e-01f,-1.25984633e-02f,-3.52655321e-01f,-5.03717214e-02f,-3.65760960e-02f,
-9.30347219e-02f,+2.08160728e-01f,+1.34053916e-01f,+4.14969437e-02f,+3.68902162e-02f,
+6.32611569e-03f,+1.24964416e-01f,-1.14885911e-01f,+1.98540121e-01f,+5.09222932e-02f,
-2.90195346e-01f,+1.84009463e-01f,-2.43040472e-02f,-5.99836633e-02f,+1.26323134e-01f,
+9.78406146e-02f,+1.20710112e-01f,-9.67924669e-03f,+3.54763791e-02f,-1.67794496e-01f,
+1.21221818e-01f,+2.56719112e-01f,+1.56435043e-01f,+1.17666349e-01f,+2.01433077e-01f,
-8.74191597e-02f,-7.92808905e-02f,+6.24393346e-03f,-5.58957532e-02f,+1.71526641e-01f,
+1.08632751e-01f,+2.10677236e-01f,-1.59527406e-01f,-2.51829568e-02f,+2.05473602e-02f,
-1.21329622e-02f,+1.63671121e-01f,-6.09977543e-02f,+5.17950475e-01f,+4.74292040e-01f,
-5.60475290e-02f,+3.97739150e-02f,+9.01832581e-02f,+1.34896904e-01f,+5.06298915e-02f,
+2.24476323e-01f,-7.92258084e-02f,+8.91590714e-02f,-1.37405336e-01f,+1.78863406e-01f,
+1.61843598e-01f,+1.96602312e-03f,+4.70074147e-01f,+2.25824341e-01f,+6.22988157e-02f,
-4.57673036e-02f,-3.99193801e-02f,+1.44997686e-01f,+1.27161205e-01f,+1.80426426e-03f,
-6.59140423e-02f,+1.53712288e-01f,-1.29887804e-01f,-2.25236695e-02f,-1.07450143e-01f,
+1.04675405e-01f,+4.63092653e-03f,-8.25416073e-02f,-1.23653896e-01f,+4.88749892e-02f,
+1.26717210e-01f,-1.33033488e-02f,+1.44742439e-02f,-1.39121473e-01f,+1.35600986e-02f,
-3.13916981e-01f,-1.76055562e-02f,+1.35342181e-01f,-1.04945064e-01f,+1.89769883e-02f,
+1.76616117e-01f,+2.67787486e-01f,-6.48232177e-02f,-4.46307845e-02f,-5.03182374e-02f,
+1.60130844e-01f,+1.51359187e-02f,-1.19007550e-01f,-1.43251214e-02f,+2.25660190e-01f,
+2.33912796e-01f,+5.16553782e-03f,+1.63276464e-01f,-4.80544828e-02f,+2.58305911e-02f,
+4.09740955e-02f,+1.45158365e-01f,-5.36609218e-02f,+2.28834152e-01f,+5.47242500e-02f,
-7.73679167e-02f,+1.09066047e-01f,+3.01359147e-01f,+2.44022740e-04f,+1.39687024e-03f,
+8.11895877e-02f,+7.01698586e-02f,-5.37327975e-02f,+5.26065417e-02f,+1.45435795e-01f,
-1.51632344e-02f,+1.43153265e-01f,-5.49534410e-02f,+2.31081434e-02f,-3.67410660e-01f,
-5.89202866e-02f,-1.04631692e-01f,-1.39329955e-01f,+1.23614796e-01f,+2.36632943e-01f,
+7.83089325e-02f,+5.59353642e-02f,+1.01743214e-01f,+1.21128550e-02f,-1.30617812e-01f,
+1.01112776e-01f,-5.05077615e-02f,+3.94105881e-01f,+1.47077262e-01f,-4.87792939e-02f,
+1.12931006e-01f,+3.16017866e-01f,+3.37426998e-02f,-3.80820900e-01f,+1.71244159e-01f,
+3.55637699e-01f,+3.26056220e-02f,-9.31841135e-02f,-1.14416173e-02f,+1.19157791e-01f,
+4.44177128e-02f,-1.36646152e-01f,+1.51676238e-01f,+2.92896867e-01f,-1.99468192e-02f,
+5.72880469e-02f,+2.64891058e-01f,+1.53954789e-01f,+1.51787801e-02f,+1.48725763e-01f,
+3.56860645e-02f,+9.10299495e-02f,+4.95868362e-02f,-2.17889890e-01f,+8.59828293e-02f,
-9.64051054e-04f,+1.46421969e-01f,+4.55587834e-01f,+2.09953159e-01f,-5.60469069e-02f,
+1.10235602e-01f,+2.88828790e-01f,+1.16667777e-01f,+9.89748910e-02f,+1.24324687e-01f,
+2.63356060e-01f,+2.09839627e-01f,+4.97138165e-02f,-1.13024764e-01f,+3.64198461e-02f,
+3.31523776e-01f,-8.34333748e-02f,+1.32843643e-01f,-2.10055318e-02f,-8.79627392e-02f,
-1.54985145e-01f,+1.20488018e-01f,-4.80671711e-02f,-4.47096676e-01f,+7.30734318e-02f,
-7.22841769e-02f,+1.26201445e-02f,+3.39081407e-01f,-4.18798700e-02f,+1.98481962e-01f,
+1.64522529e-01f,+3.14893544e-01f,-2.08187615e-04f,+3.82365324e-02f,+2.80475259e-01f,
-5.66239916e-02f,+3.12977694e-02f,+1.42617198e-02f,+1.18699625e-01f,-7.14782029e-02f,
-1.31481305e-01f,+3.12596172e-01f,-5.27650900e-02f,+2.58829687e-02f,+9.70039368e-02f,
+1.48493573e-01f,+8.76573995e-02f,+1.14787482e-01f,+4.43238057e-02f,+7.87974894e-02f,
+9.37064216e-02f,+1.29344150e-01f,-8.33972543e-02f,-1.02084108e-01f,-1.59759764e-02f,
+8.58123526e-02f,+1.24819182e-01f,+2.34683424e-01f,+7.06128925e-02f,+2.44673882e-02f,
+7.54085630e-02f,-2.94158697e-01f,+3.71170133e-01f,+6.88528568e-02f,+2.61559129e-01f,
-2.14482665e-01f,-6.21238314e-02f,+1.68529097e-02f,+7.43747652e-02f,+2.13837236e-01f,
-2.43738815e-01f,-9.28578675e-02f,-1.78233236e-01f,-1.87151164e-01f,+1.68883707e-02f,
-1.82563532e-02f,+6.14043437e-02f,+5.85612766e-02f,+2.44582936e-01f,-5.40643409e-02f,
-4.86620516e-02f,+1.87421367e-01f,-1.17301699e-02f,+1.23489499e-01f,-1.40433744e-01f,
-1.12997321e-02f,+2.92872578e-01f,+2.38255411e-01f,+1.04726903e-01f,+1.78928629e-01f,
+7.53667578e-02f,+6.03653729e-01f,+1.19697921e-01f,+3.46654058e-02f,+1.36511743e-01f,
+7.43491501e-02f,+3.53942141e-02f,-7.18385726e-02f,+5.64083681e-02f,-6.70692399e-02f,
-5.25130033e-02f,+1.08362898e-01f,+2.26815324e-02f,+1.54282212e-01f,-4.71686898e-03f,
+2.15405785e-02f,+1.12427749e-01f,+2.79828250e-01f,+1.37771547e-01f,-5.08712754e-02f,
+1.27400547e-01f,-2.42922269e-02f,+1.33240700e-01f,-1.91625446e-01f,-9.00957584e-02f,
-1.58704575e-02f,+1.99672595e-01f,-1.12899289e-01f,+1.43346610e-02f,-1.61858499e-01f,
-1.07284471e-01f,+2.55586430e-02f,+1.60217747e-01f,-1.06477350e-01f,+3.83938476e-02f,
+2.85962075e-01f,+1.87201068e-01f,+2.99413145e-01f,+1.54088065e-01f,+1.13396503e-01f,
+1.03909984e-01f,+5.18532805e-02f,+1.07132554e-01f,+6.05003536e-02f,+1.68069765e-01f,
+1.36157677e-01f,-8.60749930e-02f,-5.30292466e-02f,+1.43114373e-01f,-5.78405336e-02f,
+2.18409210e-01f,+1.47372931e-01f,-2.05317840e-01f,-2.52817303e-01f,+1.64858878e-01f,
+1.71035632e-01f,-4.98054898e-04f,+1.07746340e-01f,+7.46061131e-02f,+2.35848632e-02f,
+1.24114618e-01f,+9.41422507e-02f,+2.26290002e-02f,-1.69382133e-02f,+2.64092274e-02f,
+1.02484763e-01f,+5.07266894e-02f,+5.78694157e-02f,-2.82649044e-02f,-1.29491195e-01f,
-1.40398860e-01f,-2.64754683e-01f,+1.16202734e-01f,-3.07285339e-01f,+2.03108624e-01f,
+2.07959354e-01f,+1.73356868e-02f,-7.14922603e-03f,+2.60614276e-01f,+1.22704268e-01f,
-5.50787821e-02f,-6.42662644e-02f,+1.33835495e-01f,+2.87705846e-02f,+9.56941694e-02f,
+9.16810557e-02f,+9.79369432e-02f,+2.05271453e-01f,+4.07176375e-01f,+6.47419319e-02f,
+6.80489168e-02f,+5.24453223e-02f,+6.13406487e-02f,-1.97877124e-01f,+1.23784244e-01f,
+5.79340607e-02f,+1.31831944e-01f,+1.30335346e-01f,+1.26261100e-01f,+1.03694415e-02f,
-7.22181574e-02f,+1.23488456e-01f,+3.31064701e-01f,+3.83017696e-02f,+2.42238402e-01f,
-2.05037110e-02f,+7.41261914e-02f,+5.93779348e-02f,+3.08821816e-02f,+1.10761262e-01f,
-1.83503646e-02f,+3.00368756e-01f,-2.90945242e-03f,-8.75892714e-02f,-1.03744775e-01f,
-1.80798508e-02f,+8.41053948e-02f,+3.04405019e-02f,+1.83267538e-02f,+1.21181183e-01f,
-2.03306396e-02f,-3.12602632e-02f,-1.49796456e-01f,+1.14616171e-01f,+1.57271296e-01f,
+1.07804820e-01f,+3.60457599e-02f,-1.12177894e-01f,+4.76187132e-02f,+5.40303998e-02f,
+3.12833376e-02f,+1.26289904e-01f,-7.44095594e-02f,-9.97795835e-02f,+2.12990686e-01f,
+6.11799536e-03f,+1.16496123e-01f,-2.09551960e-01f,+7.46707916e-02f,+1.48408651e-01f,
+2.92486370e-01f,-6.74216896e-02f,+1.19410679e-01f,-1.01444013e-01f,+1.57956287e-01f,
-1.25323549e-01f,+4.56562173e-03f,+8.76093283e-02f,+1.21785151e-02f,-4.19257060e-02f,
-4.44048233e-02f,+5.30277938e-02f,+6.17935061e-02f,+3.97884101e-02f,-7.80563662e-03f,
-3.88968810e-02f,+3.69598418e-02f,+4.87155393e-02f,+1.44699350e-01f,+1.36936560e-01f,
-2.43458785e-02f,+2.92274747e-02f,+1.68884490e-02f,+1.14276625e-01f,-4.66782562e-02f,
+5.34123965e-02f,+4.60009761e-02f,+1.31612852e-01f,+2.74553895e-01f,+9.51420609e-03f,
+1.49979750e-02f,+2.11991683e-01f,+1.91554278e-01f,+7.56549686e-02f,-6.01605289e-02f,
+2.22037330e-01f,+1.20095260e-01f,+3.42828304e-01f,-1.00410603e-01f,-3.54604214e-01f,
+9.82377231e-02f,+3.04671507e-02f,+1.23345524e-01f,-5.69925681e-02f,+7.07781613e-02f,
+2.21020263e-02f,+2.42642108e-02f,-6.55201450e-02f,-2.06975173e-02f,-9.63761657e-02f,
+5.72162569e-02f,+1.82491779e-01f,+1.51414201e-01f,+6.36549070e-02f,+1.16899818e-01f,
+9.57913473e-02f,-6.06871676e-03f,-3.49574797e-02f,+7.42918029e-02f,-8.71808007e-02f,
+2.37032473e-01f,+1.14208139e-01f,+4.41491753e-01f,-1.53344512e-01f,-3.27331811e-01f,
+8.32246616e-02f,+2.03856573e-01f,+1.95911810e-01f,-2.17790663e-01f,+6.54100254e-02f,
+1.55316636e-01f,+2.69703656e-01f,+1.11149892e-01f,+1.71314105e-01f,-1.49848446e-01f,
+1.42993391e-01f,+1.01583116e-01f,+1.44450605e-01f,-8.85674655e-02f,+1.52100742e-01f,
+2.99641579e-01f,-6.62840381e-02f,+2.26075724e-02f,-1.70537066e-02f,+1.62058100e-01f,
-8.15623775e-02f,-2.25111656e-02f,+1.95487440e-01f,-2.50697769e-02f,+1.89066038e-01f,
+1.19533584e-01f,+5.69232516e-02f,+1.95612833e-01f,+8.90006796e-02f,+8.30546170e-02f,
-3.34911309e-02f,+3.38636488e-02f,+2.07434937e-01f,-1.13250300e-01f,+6.73735961e-02f,
+1.59057632e-01f,-1.10767223e-01f,+2.16785803e-01f,-1.14423729e-01f,+9.22827795e-02f,
+9.20234695e-02f,+1.38586268e-01f,+3.42607677e-01f,+7.39201605e-02f,+1.69534355e-01f,
+8.52671340e-02f,+1.50515854e-01f,-1.50297776e-01f,-2.95140743e-02f,-4.24010977e-02f,
+7.45619386e-02f,-7.50361185e-04f,+2.22809643e-01f,+4.27959599e-02f,+1.48027703e-01f,
+1.57805040e-01f,-4.99997586e-02f,-4.13269773e-02f,+1.47702783e-01f,+2.24105537e-01f,
-2.70562381e-01f,+1.75128371e-01f,-4.25065875e-01f,+9.44882855e-02f,+1.95671380e-01f,
+1.56018764e-01f,-1.18547641e-01f,-1.54203519e-01f,+3.42895165e-02f,+1.14247277e-01f,
+2.04237491e-01f,-9.49387550e-02f,-9.64130387e-02f,-3.44023518e-02f,+7.98472315e-02f,
+2.53633440e-01f,-1.46933317e-01f,+9.20090601e-02f,+2.23470941e-01f,+1.24773405e-01f,
+2.62042377e-02f,+2.65808582e-01f,+8.54967013e-02f,+2.86695033e-01f,+3.24215032e-02f,
+1.79008216e-01f,+1.97731689e-01f,+3.21521878e-01f,+2.29514942e-01f,-1.07450932e-02f,
-3.50100398e-02f,+1.05018951e-01f,-1.94510609e-01f,+1.50105774e-01f,+1.58003286e-01f,
+4.72148098e-02f,+8.30175877e-02f,+9.54758972e-02f,+2.10104659e-01f,+6.66595399e-02f,
-1.46726117e-01f,-1.12872953e-02f,-4.46686847e-03f,+2.10165843e-01f,-1.34868667e-01f,
+9.63639691e-02f,-2.92385012e-01f,+2.96508163e-01f,+7.11863041e-02f,-1.15589209e-01f,
+1.42396828e-02f,+2.47012615e-01f,+1.73573449e-01f,+4.22948897e-02f,+1.76911414e-01f,
-8.62552002e-02f,+1.41998008e-01f,+5.18670715e-02f,+3.83930176e-01f,+6.20163716e-02f,
+2.10099533e-01f,-1.89220876e-01f,+6.92349821e-02f,-6.00356869e-02f,-1.09726459e-01f,
+1.71504378e-01f,-8.08092430e-02f,+5.54815354e-03f,+1.51769027e-01f,-2.98926905e-02f,
+6.79394156e-02f,-1.53521836e-01f,+9.77245420e-02f,-3.91031913e-02f,-2.49298122e-02f,
+1.36555880e-01f,-7.14969113e-02f,+6.44745454e-02f,+1.64949670e-01f,+3.45759168e-02f,
+3.16325694e-01f,+5.18974587e-02f,+8.10985640e-02f,+1.71691731e-01f,+6.69942237e-03f,
+2.16369584e-01f,-1.50252461e-01f,+1.38260401e-03f,+1.02092348e-01f,+6.02395162e-02f,
+4.76328060e-02f,+4.18023951e-02f,+1.90776587e-01f,+3.07757910e-02f,+8.41692314e-02f,
+2.44269863e-01f,+9.05649066e-02f,+1.58108577e-01f,-4.75401320e-02f,+4.57725860e-02f,
-1.71799377e-01f,+1.99723527e-01f,+8.72492790e-02f,-7.21915960e-02f,+1.40702128e-01f,
+1.82679877e-01f,+3.75133790e-02f,-6.19257428e-02f,-1.08136624e-01f,-1.77682482e-03f,
+1.92004852e-02f,-7.47145861e-02f,+5.16373068e-02f,+6.22884072e-02f,+6.02402277e-02f,
+1.29850740e-02f,+3.18147391e-01f,-1.44341722e-01f,+3.72317433e-02f,+3.99932303e-02f,
+3.38520080e-01f,+2.52614260e-01f,-1.08012527e-01f,+2.21266914e-02f,+3.06640030e-03f,
-2.60176510e-02f,+9.62475594e-03f,-5.65514266e-02f,-6.81604072e-02f,+2.95105994e-01f,
-3.74445319e-03f,+6.26269775e-03f,+9.36725512e-02f,-2.53600508e-01f,-5.29610850e-02f,
+1.92202345e-01f,+4.53725718e-02f,+1.29826829e-01f,+7.09077790e-02f,-1.29370660e-01f,
-1.08642749e-01f,+1.33083481e-02f,-1.87346861e-02f,-7.13851303e-02f,+1.91035405e-01f,
+1.47945225e-01f,+2.37077624e-01f,+3.95976268e-02f,-5.67676276e-02f,+3.41456011e-02f,
+9.13393591e-03f,+3.07316519e-02f,-9.76919942e-03f,+6.06115460e-02f,+8.70190784e-02f,
+1.06223844e-01f,+3.22268456e-01f,-3.88809550e-03f,+2.02392623e-01f,+1.83868945e-01f,
+8.84120166e-02f,-3.34057361e-02f,-1.61505088e-01f,+5.69797587e-03f,+2.31373981e-01f,
+5.55539057e-02f,+1.13461763e-02f,+5.73710836e-02f,+1.33076802e-01f,+1.33277133e-01f,
-1.29576743e-01f,+4.43244949e-02f,+1.08816072e-01f,+8.44073966e-02f,-1.12864107e-01f,
+1.32574022e-01f,+2.20844224e-01f,+3.90217990e-01f,+3.19464326e-01f,+4.30542752e-02f,
+3.33656967e-01f,+2.02512369e-01f,-6.70400262e-03f,+3.04916471e-01f,-1.03273675e-01f,
-8.42432305e-02f,+2.10994426e-02f,+1.83695957e-01f,+8.22360814e-02f,+1.54784471e-01f,
+2.94204980e-01f,+3.13650444e-02f,+3.38022970e-02f,+1.19461767e-01f,+2.58798212e-01f,
+2.01120943e-01f,+1.81868121e-01f,-4.77179885e-02f,+2.76376933e-01f,-1.51795894e-01f,
-3.13695699e-01f,+8.83677080e-02f,-1.94624752e-01f,+2.34536871e-01f,+1.34224501e-02f,
+1.52815744e-01f,+4.76875082e-02f,-4.74027395e-01f,+1.42712981e-01f,-4.83941473e-03f,
+8.27172026e-02f,+1.19892508e-02f,+1.65522974e-02f,-1.56260192e-01f,+2.05120090e-02f,
-8.54924228e-03f,-2.25313306e-02f,+8.14056769e-02f,+1.50129333e-01f,-1.38992935e-01f,
+8.26817676e-02f,+1.05039440e-01f,-9.21711400e-02f,-2.33411305e-02f,+8.23416039e-02f,
-1.14594504e-01f,+2.31332500e-02f,-2.13824995e-02f,-1.70401894e-02f,-7.82282650e-02f,
-1.48241326e-01f,-3.11445445e-02f,+3.73360291e-02f,+1.61971122e-01f,-7.98531771e-02f,
-8.96335170e-02f,-6.11348040e-02f,+6.41628355e-02f,+3.02861501e-02f,+2.37625226e-01f,
+8.61940011e-02f,-1.03358380e-01f,+1.08999260e-01f,+1.80311874e-01f,+2.35663280e-01f,
+2.27374002e-01f,+1.17790595e-01f,+1.90386012e-01f,+1.04807084e-02f,-2.47125011e-02f,
+2.30020151e-01f,-6.97339745e-03f,+9.87757649e-03f,+1.81803375e-01f,-5.63268885e-02f,
+6.72929408e-03f,+1.07572705e-01f,+1.51878536e-01f,+1.56240672e-01f,+2.28179228e-02f,
-1.90945677e-02f,+9.40937474e-02f,-7.27116391e-02f,-1.44956276e-01f,-8.17177910e-03f,
+3.24936956e-01f,-5.64186648e-02f,-1.67531595e-01f,+5.24802685e-01f,+1.69356242e-01f,
-2.11777732e-01f,-1.60197631e-01f,+5.60839057e-01f,+8.02642703e-02f,-1.05165690e-02f,
+5.36609069e-02f,-2.82004550e-02f,+2.51930386e-01f,-1.85655300e-02f,+2.00708866e-01f,
+1.33524328e-01f,+1.06543958e-01f,+1.38269796e-03f,+1.42853767e-01f,+1.62840441e-01f,
+1.51559159e-01f,-6.56488538e-02f,+1.49633244e-01f,+2.81632449e-02f,+2.21017450e-02f,
-7.24623725e-02f,-2.88339466e-01f,+1.88790351e-01f,+1.43662393e-01f,+3.13314646e-01f,
+2.93281347e-01f,+2.78282352e-02f,+1.25296056e-01f,+2.00582575e-03f,+2.36117113e-02f,
+8.47458541e-02f,-1.76552340e-01f,-1.37005389e-01f,+4.14914946e-04f,-1.05422912e-02f,
+1.70244753e-01f,-1.57996714e-02f,-7.75961876e-02f,-2.16999426e-01f,-1.06089354e-01f,
+3.17183323e-02f,+9.39155836e-03f,-1.15125226e-02f,-8.62277523e-02f,+1.06659234e-01f,
+1.73342794e-01f,+8.78053010e-02f,+2.37385541e-01f,+5.79190254e-02f,+7.72430450e-02f,
+6.28463328e-02f,+2.81340443e-02f,-1.05337292e-01f,-4.19485010e-02f,+2.07837090e-01f,
-3.13735396e-01f,+3.50055158e-01f,-2.12758005e-01f,-7.47007355e-02f,+1.82368740e-01f,
+5.32440841e-02f,+2.80938268e-01f,-3.18481401e-02f,-2.72739492e-02f,-2.09012665e-02f,
+1.69347063e-01f,-2.06284165e-01f,+1.91339664e-02f,+6.53110619e-04f,+4.01796401e-02f,
+7.84771442e-02f,-3.97070162e-02f,-1.23511627e-01f,-2.75306869e-02f,-6.40992299e-02f,
+1.93190500e-01f,-1.58604518e-01f,-1.16793685e-01f,+2.37446725e-01f,+2.28543654e-01f,
-4.57860623e-03f,-2.62133896e-01f,+1.69665411e-01f,-4.47715335e-02f,+2.90952444e-01f,
+2.17315778e-01f,+8.02611746e-03f,+1.61128491e-01f,-1.37545273e-01f,+2.53721718e-02f,
-1.71790703e-03f,+1.50258943e-01f,+1.50132880e-01f,-6.28376156e-02f,-5.04595563e-02f,
+7.89771676e-02f,+7.28913024e-02f,+1.35020494e-01f,-1.23351201e-01f,+2.95861781e-01f,
+1.97243422e-01f,-1.25146687e-01f,-3.77650037e-02f,-4.39734384e-02f,+9.58389938e-02f,
-2.45880842e-01f,+4.63101529e-02f,+2.03181624e-01f,-1.05304673e-01f,+1.05267186e-02f,
+2.00124875e-01f,+1.56273872e-01f,-1.18305825e-01f,+1.26918852e-01f,-8.07847828e-02f,
-2.96764448e-02f,-7.89437443e-02f,-2.03467701e-02f,+7.65789002e-02f,+8.89154226e-02f,
-1.01030730e-02f,+2.96806961e-01f,-9.48692784e-02f,+1.46699935e-01f,+2.28160471e-01f,
+6.52357340e-02f,-8.83464441e-02f,-6.60191430e-03f,+3.59934382e-02f,+1.83161795e-01f,
+2.40680173e-01f,+1.23533033e-01f,-9.92125049e-02f,+6.49954826e-02f,-1.12148188e-01f,
-1.37073070e-01f,+1.37887985e-01f,-1.05781339e-01f,+1.48647279e-01f,-6.29745871e-02f,
+7.32820928e-02f,-4.58336174e-02f,+2.16970503e-01f,-1.89333763e-02f,+8.42201263e-02f,
+8.44720528e-02f,-2.16946267e-02f,+1.29842944e-02f,+4.19385612e-01f,-1.04637876e-01f,
+1.19385429e-01f,+5.00591248e-02f,+8.03543031e-02f,+9.48041454e-02f,+9.38696638e-02f,
-3.16309258e-02f,+4.83869351e-02f,-7.93748870e-02f,-3.92884500e-02f,-6.44332021e-02f,
+9.53911841e-02f,+1.81670070e-01f,+5.35762012e-02f,+2.48809218e-01f,+2.47541405e-02f,
+1.80837706e-01f,+1.93907052e-01f,+1.53339863e-01f,+2.59138376e-01f,+1.42003253e-01f,
-1.19608276e-01f,+1.48944661e-01f,+5.67272231e-02f,+1.28850549e-01f,-2.08075210e-01f,
-1.15994118e-01f,+8.22129175e-02f,-7.14877695e-02f,+6.97572976e-02f,+1.24544024e-01f,
-2.51412019e-03f,+8.45692158e-02f,+7.04697967e-02f,-1.78025350e-01f,+9.24500227e-02f,
-2.91501489e-02f,+5.83170168e-02f,+4.28278372e-02f,+7.71297067e-02f,-1.87902749e-01f,
+2.57599771e-01f,+1.68590229e-02f,+3.99438366e-02f,+1.57931909e-01f,+4.23502363e-02f,
-1.11719519e-01f,-1.35759460e-02f,-1.25592589e-01f,+1.99957341e-01f,+5.68337217e-02f,
-1.00147016e-01f,+1.73325434e-01f,+2.00162902e-01f,+1.34174123e-01f,-5.42241074e-02f,
+1.17380731e-01f,+1.75050676e-01f,+1.44357532e-02f,+9.58069507e-03f,+7.56787583e-02f,
+6.95541948e-02f,+2.31521592e-01f,+1.41541824e-01f,-5.49419634e-02f,-6.22236393e-02f,
+1.68047026e-01f,+7.65823480e-03f,+1.73282877e-01f,-1.41137600e-01f,-2.83197500e-02f,
-9.37156305e-02f,+1.05687365e-01f,+3.12534906e-02f,-5.64693324e-02f,-7.99938142e-02f,
+5.19037545e-02f,+2.61465218e-02f,+8.10588375e-02f,+1.24471620e-01f,+5.57733551e-02f,
-2.11736128e-01f,-1.17728949e-01f,+9.42338537e-03f,+2.46978387e-01f,-2.05244601e-01f,
+1.36419594e-01f,-8.77495706e-02f,-6.01034798e-02f,+6.10540695e-02f,+7.62759149e-02f,
+1.02726154e-01f,+5.72505742e-02f,-5.82927652e-02f,+8.99174958e-02f,+1.47043854e-01f,
+2.40126848e-02f,-5.86199276e-02f,+4.19581681e-02f,-7.18407631e-02f,+9.96087566e-02f,
-2.90903822e-02f,-7.56443143e-02f,-5.63561656e-02f,-1.87620800e-02f,+8.44822153e-02f,
-9.34975501e-03f,+9.79915559e-02f,-1.41012752e-02f,+2.00010285e-01f,-6.24122359e-02f,
+1.81539580e-01f,+2.18273968e-01f,-4.50918265e-03f,+9.95976701e-02f,+2.41074741e-01f,
-3.02088074e-02f,-7.34481439e-02f,+2.83821762e-01f,+1.61038816e-01f,-1.26434907e-01f,
+2.00139299e-01f,+2.37422928e-01f,+1.12550385e-01f,+5.29315323e-02f,+1.50089309e-01f,
-2.11565644e-02f,+1.12170577e-01f,-2.75347773e-02f,-2.47741351e-03f,+1.50938898e-01f,
-1.84296463e-02f,+6.90347031e-02f,+1.70671418e-01f,+5.80656528e-02f,+1.08615808e-01f,
-5.41366823e-02f,+9.04396325e-02f,-2.61227284e-02f,+9.29934606e-02f,+2.77136862e-02f,
+5.18596023e-02f,+1.07203973e-02f,+7.30108544e-02f,-1.08500227e-01f,+7.04979673e-02f,
+2.12582603e-01f,+1.94670588e-01f,+2.91401073e-02f,-3.25163789e-02f,-3.84656936e-02f,
+1.01022877e-01f,+1.52578458e-01f,+2.05819592e-01f,-5.41261770e-03f,+1.15460195e-01f,
+1.42238438e-01f,+5.73188700e-02f,+3.71277556e-02f,+1.69945091e-01f,+2.42735863e-01f,
-3.25300582e-02f,+1.92182019e-01f,-1.13610953e-01f,-1.11553922e-01f,-1.02681816e-01f,
+1.52509943e-01f,+9.44233835e-02f,+9.46211368e-02f,+1.48399860e-01f,+1.19295277e-01f,
-1.04960062e-01f,+1.21345170e-01f,+1.55322105e-02f,+2.25608684e-02f,-1.06991254e-01f,
+2.91317165e-01f,-8.59653577e-02f,-1.65993780e-01f,+3.72737020e-01f,+1.44075781e-01f,
+1.80846706e-01f,+1.67993799e-01f,+7.83486292e-02f,-1.05650626e-01f,+2.59290002e-02f,
-5.29201254e-02f,+1.02434039e-01f,-8.58601853e-02f,+1.31181270e-01f,-3.66818383e-02f,
+9.85805467e-02f,-9.36000645e-02f,+6.80444688e-02f,+1.46157816e-01f,+1.13843903e-01f,
+1.66919351e-01f,+6.87830076e-02f,+1.95431724e-01f,+3.54100540e-02f,-7.28980750e-02f,
+6.30071163e-02f,-3.51373367e-02f,+1.10282838e-01f,+2.22927198e-01f,+1.52039468e-01f,
+1.62400901e-01f,+5.98083772e-02f,+5.90872802e-02f,+4.10583988e-02f,+1.14716597e-01f,
-1.49141133e-01f,+8.89647901e-02f,+2.86938380e-02f,+9.39393416e-02f,+1.29002675e-01f,
-1.25168497e-02f,-1.07259668e-01f,+2.50065267e-01f,-2.48001546e-01f,+1.20463483e-01f,
+1.30807295e-01f,+9.90353003e-02f,-1.65585987e-02f,-4.16590273e-02f,-7.30637321e-03f,
+6.31854730e-03f,+2.00643465e-01f,+1.35415211e-01f,-1.42873883e-01f,+1.86046168e-01f,
-1.37955114e-01f,+4.05431055e-02f,+6.12689145e-02f,+1.26553074e-01f,+3.94780040e-02f,
+4.65828925e-02f,+1.70875955e-02f,-1.05788276e-01f,+1.27907604e-01f,-8.81818607e-02f,
+1.49662554e-01f,-4.94548455e-02f,+2.14732438e-01f,+1.26574457e-01f,+1.18359081e-01f,
+1.49784788e-01f,+6.34045228e-02f,+1.05323002e-01f,-3.23110935e-03f,+9.84600782e-02f,
+2.52934903e-01f,+1.00989692e-01f,-6.95748255e-02f,+1.28386110e-01f,+1.90450370e-01f,
+6.43135840e-03f,-3.24316733e-02f,+9.59350914e-02f,+9.46861729e-02f,+1.22961283e-01f,
+2.72758394e-01f,-3.39714102e-02f,+1.32527187e-01f,+1.40543461e-01f,+2.66172457e-02f,
-3.76661867e-02f,+1.77727491e-02f,+1.82288870e-01f,-1.46578467e-02f,+1.54409304e-01f,
+1.53862104e-01f,+3.18103842e-02f,+2.56380111e-01f,-7.28848875e-02f,+3.07852961e-02f,
+3.12355489e-01f,+1.13322809e-02f,-3.92595120e-02f,-2.91354340e-02f,+2.45111242e-01f,
-1.29497468e-01f,-4.54846956e-03f,-4.75142039e-02f,+4.20101613e-01f,+1.28259510e-01f,
-2.21241806e-02f,+2.92203754e-01f,-1.03635676e-01f,+1.13616221e-01f,+2.46757582e-01f,
+7.56500512e-02f,+4.84098196e-02f,-6.37504384e-02f,-1.73263624e-01f,+7.71493763e-02f,
-2.50535887e-02f,+1.09011993e-01f,-1.01227887e-01f,-1.23573430e-01f,+1.47632405e-01f,
+1.17266931e-01f,+2.62344182e-01f,+1.49765939e-01f,+4.63291258e-01f,+3.29615436e-02f,
+7.70637169e-02f,+1.80035993e-01f,+1.25260875e-01f,+1.37309462e-01f,+1.36009976e-01f,
+1.31325811e-01f,+2.41678193e-01f,+1.63107604e-01f,-1.90481020e-04f,+4.19767573e-02f,
+4.92916889e-02f,+1.34494677e-01f,-7.84579888e-02f,+8.41734409e-02f,-1.16228417e-01f,
-1.38741508e-02f,-6.18122183e-02f,+6.40434772e-02f,+2.20130444e-01f,-3.74786146e-02f,
-5.10325357e-02f,-2.94232275e-03f,+2.02188239e-01f,-5.03291823e-02f,+2.45699704e-01f,
-4.69804406e-02f,+1.28594786e-01f,+1.11072235e-01f,+7.60145932e-02f,+2.40918085e-01f,
+1.43267646e-01f,-1.17610477e-01f,-6.01078104e-03f,+1.74855128e-01f,-2.83270981e-03f,
+6.07308261e-02f,+3.65694687e-02f,+2.96506705e-03f,+1.37261882e-01f,+1.21221036e-01f,
+1.28091782e-01f,-5.69600090e-02f,-4.16524746e-02f,+1.52511194e-01f,+2.90469229e-01f,
-3.14417705e-02f,+1.18575037e-01f,+1.44489825e-01f,+3.54885194e-03f,-5.55050895e-02f,
-2.84683760e-02f,+7.09311515e-02f,+1.98160350e-01f,+1.05396405e-01f,+1.59621611e-01f,
-8.82676244e-03f,+3.59191000e-02f,+7.07364902e-02f,+1.31066993e-01f,-9.44780260e-02f,
-1.04973949e-01f,-6.24687271e-03f,-4.07935269e-02f,+7.22518191e-02f,+5.10354973e-02f,
+1.24406151e-01f,+1.66699365e-01f,+3.28027341e-03f,+1.70772806e-01f,+1.49565741e-01f,
+1.07669711e-01f,+1.70647264e-01f,+2.53707431e-02f,+1.27936900e-01f,+1.77712575e-01f,
+1.01794153e-01f,+9.08818841e-02f,+1.66608617e-02f,+1.45219401e-01f,+1.05660088e-01f,
+3.34468111e-02f,+1.83550622e-02f,+1.55527636e-01f,+6.24927841e-02f,+2.51535769e-03f,
+8.35665986e-02f,-1.20857760e-01f,-3.64624374e-02f,+1.76741153e-01f,-9.05302912e-02f,
-4.21323031e-02f,+8.06015879e-02f,+1.79215342e-01f,+8.96588564e-02f,+1.43580511e-01f,
+8.86556879e-02f,+8.77124891e-02f,-9.46799144e-02f,-8.19010660e-02f,+2.07924888e-01f,
+1.07825108e-01f,+1.86359257e-01f,-9.12187248e-02f,+6.38867766e-02f,+3.93185578e-02f,
+1.98977739e-01f,+1.35147989e-01f,+1.81785554e-01f,-9.29889753e-02f,-2.39143800e-02f,
-2.02773381e-02f,+9.28149372e-02f,-1.07112765e-01f,+3.02040353e-02f,-1.31813779e-01f,
+1.10279784e-01f,+1.34296179e-01f,+1.28498167e-01f,-6.68316185e-02f,+1.12852789e-01f,
+1.12900071e-01f,+9.36998948e-02f,+1.01935372e-01f,+1.27363324e-01f,+2.13721618e-01f,
+8.46353546e-03f,+1.05578698e-01f,-1.00683250e-01f,-6.60234094e-02f,+7.02216402e-02f,
-9.15759280e-02f,-5.91484038e-03f,+6.48649260e-02f,-6.20041639e-02f,+7.38518164e-02f,
+4.08959528e-03f,-9.82570425e-02f,+1.09906942e-01f,+1.40178502e-01f,+9.23004299e-02f,
+2.07160190e-01f,+1.99713767e-01f,+1.13873914e-01f,-1.04090400e-01f,+1.00722969e-01f,
-3.73660424e-03f,+1.92927979e-02f,+2.47615293e-01f,+7.38730878e-02f,-2.47470327e-02f,
+2.83427775e-01f,-1.12867979e-02f,+1.09245919e-01f,+2.71385293e-02f,+5.21911792e-02f,
+5.96580729e-02f,+1.17847763e-01f,+2.29905546e-01f,-4.57003601e-02f,+1.51685849e-01f,
+9.63506252e-02f,-9.41545963e-02f,+5.96311092e-02f,+2.77562086e-02f,-7.42713213e-02f,
+2.29211468e-02f,+1.00273505e-01f,+3.04779429e-02f,-5.22127114e-02f,-1.16071053e-01f,
-1.30932823e-01f,-8.08816850e-02f,-1.36598021e-01f,-5.95134757e-02f,-8.49109963e-02f,
+1.23910010e-01f,+6.37738109e-02f,+7.31301159e-02f,+4.54723276e-02f,-2.51477212e-03f,
+1.67214513e-01f,+1.35322198e-01f,+1.56719595e-01f,+2.43463621e-01f,+1.23489194e-01f,
+9.74937109e-04f,-1.08009003e-01f,-1.14031287e-03f,+1.83357254e-01f,+1.40278459e-01f,
-4.27006707e-02f,-2.95246206e-03f,-1.35467783e-01f,+1.45313591e-01f,-3.14848609e-02f,
+2.47385517e-01f,+1.03825971e-01f,-1.26769811e-01f,-8.10691267e-02f,+1.53930619e-01f,
-9.34171956e-03f,+8.58229473e-02f,-1.00493856e-01f,+7.37070711e-03f,+8.86221603e-02f,
+1.68816417e-01f,+7.65925720e-02f,+1.58933904e-02f,+1.53713003e-01f,+9.42064300e-02f,
-1.94762409e-01f,-3.33399847e-02f,-7.25392997e-02f,-2.04186589e-01f,-8.44209734e-03f,
+1.07445858e-01f,-1.09790161e-01f,+1.73649713e-01f,-6.31540418e-02f,+7.94104412e-02f,
+2.49957398e-01f,-1.28800392e-01f,-8.33005011e-02f,-8.64542648e-02f,-1.84090868e-01f,
+7.17913732e-02f,-9.90247801e-02f,+1.14725754e-01f,+3.40413824e-02f,+2.85564780e-01f,
+1.97482303e-01f,+1.49788454e-01f,+5.12978137e-02f,+1.52091891e-01f,-9.24890414e-02f,
-6.18866570e-02f,+2.00164318e-01f,-9.76582542e-02f,+1.00789376e-01f,-3.34242322e-02f,
-8.60500559e-02f,+1.16889752e-01f,+6.53979480e-02f,-4.72607184e-03f,+5.03330864e-02f,
+2.60497391e-01f,+5.67263551e-02f,+1.01812825e-01f,+1.12824202e-01f,+2.62899008e-02f,
+4.39035185e-02f,+1.92407519e-02f,-3.03930719e-03f,-1.99567825e-02f,-9.53072235e-02f,
+2.64554083e-01f,-3.57540138e-02f,+5.13190217e-03f,+2.66421974e-01f,+1.81291059e-01f,
+9.28297825e-03f,+1.52277514e-01f,+2.13229939e-01f,+7.43411034e-02f,+1.46309212e-01f,
-6.20564669e-02f,+2.27980033e-01f,+7.61946663e-02f,-6.42675534e-02f,+1.24651484e-01f,
+1.07791297e-01f,-1.71441823e-01f,-4.30009887e-02f,+5.19764900e-01f,+5.17070992e-03f,
+6.34190887e-02f,+5.04090600e-02f,+1.97269306e-01f,+2.36499712e-01f,+4.35999334e-02f,
+1.20412499e-01f,+2.08595514e-01f,-9.15241465e-02f,+1.32058471e-01f,+1.33048519e-01f,
+2.61535078e-01f,-1.29243761e-01f,-1.66170225e-01f,+8.64912756e-03f,+1.18215129e-01f,
+9.97412950e-02f,-5.96780889e-02f,+5.54922037e-03f,-1.05096653e-01f,+3.12815636e-01f,
-1.26709223e-01f,+8.09186697e-02f,+1.18240528e-01f,-1.86940834e-01f,+9.85356420e-02f,
-3.40414494e-02f,-6.74161315e-02f,+9.78043210e-03f,+1.19803332e-01f,+1.32745191e-01f,
-1.33032143e-01f,+1.25949040e-01f,-1.14471875e-02f,+5.29058799e-02f,+1.29746914e-01f,
-1.75739340e-02f,+1.89857736e-01f,+1.09952483e-02f,+1.01565473e-01f,+5.38125150e-02f,
+9.24910307e-02f,+1.17362998e-01f,-8.19992200e-02f,+1.28864184e-01f,+2.34875247e-01f,
-8.53962377e-02f,-1.11468527e-02f,+2.53677577e-01f,+3.91802825e-02f,+4.96221185e-02f,
-2.16366109e-02f,+2.22523287e-02f,+3.49894255e-01f,-1.62326112e-01f,-5.67442589e-02f,
+9.53487232e-02f,+1.94991659e-02f,-1.79674104e-01f,+1.13420501e-01f,-2.32237488e-01f,
-1.51212007e-01f,+1.06707647e-01f,+1.85966730e-01f,+1.15930429e-02f,+4.67145368e-02f,
+1.13891944e-01f,+2.49587759e-01f,+2.94714025e-03f,+1.78490523e-02f,+1.83891043e-01f,
+1.27502292e-01f,-5.70499748e-02f,-6.69981465e-02f,+2.87032843e-01f,-1.29653975e-01f,
+2.47773752e-02f,+3.15773368e-01f,+2.50025809e-01f,+2.83969462e-01f,+2.51762271e-01f,
-5.56354187e-02f,-1.13867335e-01f,-3.51020731e-02f,+5.01743867e-04f,+2.17413262e-01f,
+1.18626561e-02f,-7.90794492e-02f,+1.76409855e-01f,+1.85553208e-01f,-2.98282299e-02f,
+1.37435272e-01f,-2.23736651e-02f,+2.51334757e-01f,-4.85416241e-02f,+2.66120702e-01f,
-2.18879282e-02f,+1.86000377e-01f,+6.77152118e-03f,+1.23657577e-01f,+1.51923159e-02f,
-6.95086941e-02f,+1.22739844e-01f,-5.47164492e-02f,-9.86298695e-02f,+9.51584056e-02f,
+2.89055519e-02f,+5.96657023e-02f,+2.32302263e-01f,+4.80304770e-02f,-9.38910097e-02f,
-9.49328542e-02f,+1.50439307e-01f,-3.01598851e-02f,-5.41885868e-02f,+2.49786004e-01f,
-2.90441550e-02f,+1.99168012e-01f,-1.33299991e-01f,+2.06175521e-01f,-5.47939204e-02f,
-2.69504189e-02f,+1.34510174e-01f,-4.38456237e-02f,-7.11564347e-02f,+1.41667232e-01f,
+9.61183086e-02f,-7.86852464e-02f,+9.46539044e-02f,+1.45187095e-01f,-4.26134765e-02f,
-1.49058521e-01f,+2.43717641e-01f,+1.24942981e-01f,+3.14960659e-01f,-1.22809999e-01f,
-3.91122922e-02f,+1.42586246e-01f,+1.55472890e-01f,+6.24305904e-02f,+1.37957603e-01f,
+2.58222729e-01f,+1.15315408e-01f,-1.84998602e-01f,-5.26585206e-02f,+1.23685911e-01f,
-8.05768594e-02f,-3.44419628e-01f,-1.57969311e-01f,+6.50390387e-02f,+2.72240490e-01f,
-1.22868255e-01f,-2.62109488e-01f,+1.35965109e-01f,+7.74488896e-02f,+1.63621962e-01f,
+3.73870611e-01f,+1.34386728e-03f,-4.71970439e-02f,-8.15275684e-02f,+1.37879252e-01f,
+7.30165616e-02f,+1.71130300e-01f,+2.35231489e-01f,-9.55333486e-02f,-2.60557886e-03f,
+2.52523929e-01f,-1.59801114e-02f,+1.28215933e-02f,+7.65661821e-02f,+5.41836321e-02f,
-4.16466855e-02f,+9.54121351e-02f,-6.30279630e-02f,-6.43124357e-02f,+3.42429221e-01f,
-1.57293479e-03f,-3.69896442e-02f,-7.10064322e-02f,-1.55690506e-01f,+7.84631744e-02f,
-7.51866251e-02f,+2.34722018e-01f,+1.36648729e-01f,-5.17757088e-02f,+1.94401607e-01f,
-8.51586536e-02f,-2.74480820e-01f,+1.99411735e-01f,+1.49429455e-01f,+1.87788144e-01f,
+1.62664652e-01f,+1.07589372e-01f,+1.31466120e-01f,+2.77214855e-01f,+2.71355063e-01f,
-1.72335267e-01f,+2.01422811e-01f,-6.83004111e-02f,+8.55697989e-02f,+3.85573447e-01f,
+3.44054541e-03f,+1.35492280e-01f,-7.52841458e-02f,+5.19801378e-02f,+3.63952577e-01f,
+1.85010090e-01f,+1.08447365e-01f,+1.14220195e-01f,+2.47690812e-01f,-3.14451498e-03f,
-2.90786713e-01f,-8.73054564e-02f,+6.46352097e-02f,-3.30446064e-02f,+1.23142280e-01f,
-2.97158919e-02f,+1.01178847e-01f,+9.08941105e-02f,+3.33509147e-02f,+8.37369412e-02f,
+1.11100882e-01f,-4.07835916e-02f,+3.82892974e-02f,-2.82240901e-02f,-2.76340544e-02f,
+2.32602894e-01f,+1.68640554e-01f,-1.19508937e-01f,+3.71486843e-01f,+1.44827932e-01f,
+3.96745615e-02f,+3.73502374e-02f,+1.84522733e-01f,+1.40105590e-01f,+3.14548500e-02f,
+5.26687540e-02f,+5.20639010e-02f,+4.05733645e-01f,+2.37987358e-02f,-2.19494298e-01f,
+3.44046066e-03f,-1.07629411e-01f,+2.85205059e-02f,-8.15557837e-02f,+6.66144416e-02f,
-4.31399047e-02f,-4.03873399e-02f,+3.19260545e-02f,-2.24531572e-02f,+4.37091850e-03f,
-8.67584124e-02f,+1.84175506e-01f,+9.61322561e-02f,+3.38549495e-01f,+2.10325792e-01f,
-4.37539481e-02f,-1.44702524e-01f,+3.94301005e-02f,+2.23656163e-01f,-3.03735323e-02f,
+8.58270600e-02f,+2.39532456e-01f,+2.87323594e-01f,+2.80718040e-02f,+1.26680195e-01f,
+1.90076128e-01f,-4.07616794e-02f,+4.24300581e-01f,-1.24683149e-01f,+1.70129865e-01f,
+2.70975418e-02f,-2.21955672e-01f,+1.81137487e-01f,+6.54613301e-02f,+1.95513606e-01f,
+8.24483708e-02f,-7.14761838e-02f,+3.69485319e-02f,-9.74052176e-02f,-8.96372423e-02f,
+3.31447840e-01f,-7.26416707e-03f,-1.19361945e-03f,+4.59577627e-02f,+1.66698650e-01f,
-1.69367954e-01f,-3.99000011e-03f,+2.18114004e-01f,-2.03997176e-02f,+1.13093011e-01f,
+1.87123612e-01f,-4.91650738e-02f,+2.01634672e-02f,+1.48747236e-01f,+1.65342897e-01f,
+2.38314509e-01f,-7.98001140e-02f,+7.84063712e-03f,+1.98265702e-01f,+2.43547812e-01f,
+6.32442012e-02f,+1.57160953e-01f,-2.19277106e-02f,-1.33324102e-01f,+1.69780493e-01f,
+2.25965694e-01f,+1.01741791e-01f,-5.23587242e-02f,-1.51857454e-02f,+3.32801677e-02f,
+3.74820903e-02f,-2.87201256e-02f,+8.07169750e-02f,+1.45178720e-01f,+2.04144031e-01f,
+4.05414283e-01f,-1.06157087e-01f,+2.41609097e-01f,-6.50555640e-02f,-8.83641243e-02f,
-1.25706226e-01f,+1.32789180e-01f,-8.21046233e-02f,+2.47655898e-01f,+3.39091867e-01f,
+2.55640205e-02f,-5.13818681e-01f,+4.16940928e-01f,-5.82063794e-02f,-1.50259398e-02f,
+4.17159736e-01f,+2.11562887e-01f,+1.31760880e-01f,+1.74372241e-01f,+1.79189980e-01f,
+1.26532212e-01f,+5.29328473e-02f,+2.20652893e-02f,+2.31638271e-02f,+2.12849472e-02f,
-5.44656180e-02f,+1.48019731e-01f,+5.71623817e-02f,+2.68674642e-01f,-8.89123157e-02f,
+6.13266937e-02f,+2.75669396e-01f,+1.08809091e-01f,+6.97815195e-02f,+1.26643524e-01f,
+2.94494659e-01f,+8.49881396e-02f,+1.59175806e-02f,-2.91340686e-02f,-5.44337556e-02f,
+1.59632415e-01f,+4.43314672e-01f,-2.65012205e-01f,-1.07599108e-03f,-1.85193736e-02f,
+9.66612324e-02f,+8.12281594e-02f,+2.08342522e-01f,+2.05496967e-01f,-8.36900249e-03f,
+3.76827158e-02f,-3.18043008e-02f,+2.75012404e-01f,-5.02366833e-02f,+1.07464373e-01f,
+1.32648200e-01f,+7.93727338e-02f,+1.60955228e-02f,+4.33475673e-02f,-1.25517964e-01f,
+1.54235303e-01f,+2.12712467e-01f,+3.22893620e-01f,+8.09208006e-02f,+1.34141788e-01f,
-3.94770466e-02f,+2.35006079e-01f,+1.52575344e-01f,-8.61969665e-02f,+3.29716325e-01f,
+8.98397788e-02f,+1.58549055e-01f,+1.66675106e-01f,+1.60579994e-01f,-1.72218129e-01f,
-1.16643406e-01f,+1.56179503e-01f,+6.94568381e-02f,+3.69015522e-03f,+1.54239312e-01f,
+2.90201187e-01f,+8.18825290e-02f,+6.75152093e-02f,+6.15291707e-02f,+3.46923061e-02f,
+1.36531591e-01f,+2.08604112e-01f,-1.22712210e-01f,-1.39210016e-01f,+6.35695457e-02f,
+9.31386948e-02f,-7.16617554e-02f,+7.53179044e-02f,-7.34307244e-02f,+2.22453043e-01f,
+1.81191757e-01f,-9.43628922e-02f,-3.35699692e-02f,+1.53979912e-01f,+1.38755105e-02f,
+2.78807014e-01f,+2.62282848e-01f,+1.87176988e-01f,+1.47214249e-01f,-7.02683330e-02f,
+7.22294897e-02f,+1.20084114e-01f,+3.02152753e-01f,+7.73473307e-02f,+2.23953072e-02f,
-6.83650523e-02f,-7.19117820e-02f,-5.60532138e-03f,+1.96893275e-01f,-4.08046022e-02f,
+1.71717592e-02f,+1.00708090e-01f,+4.97516990e-03f,+1.26902476e-01f,+2.08383888e-01f,
+3.75074297e-02f,-1.34932427e-02f,+1.14306272e-03f,-1.05304137e-01f,+8.51936340e-02f,
+7.23537207e-02f,+1.76812634e-01f,+7.55439699e-02f,+2.85380185e-01f,+2.04238854e-02f,
+1.30706713e-01f,-8.18081126e-02f,+1.47865430e-01f,+1.68169320e-01f,+1.37742907e-01f,
+1.00355074e-01f,-7.11817946e-03f,+3.69529545e-01f,+3.63115996e-01f,+2.77715862e-01f,
-1.26317292e-01f,+8.78021270e-02f,+8.46858174e-02f,+6.81697577e-02f,+1.39813393e-01f,
+3.96821238e-02f,+3.63532603e-02f,-5.15389182e-02f,-9.29377675e-02f,+2.08491027e-01f,
-1.11972556e-01f,-3.55486274e-02f,+2.19386205e-01f,-2.95617874e-03f,+2.02175796e-01f,
+7.19412863e-02f,-5.26978113e-02f,+2.00281516e-01f,-1.03425533e-01f,+9.75966454e-02f,
+9.14026275e-02f,+1.18423723e-01f,+1.88149605e-02f,-7.29826232e-03f,+7.19370833e-03f,
+1.45073533e-01f,-1.64220348e-01f,+8.62935930e-02f,+1.29921451e-01f,+2.15110093e-01f,
+1.08881414e-01f,+2.32437849e-01f,+1.86677486e-01f,+1.01429179e-01f,-1.76539063e-01f,
-4.76087779e-02f,-2.42066801e-01f,-1.08704632e-02f,+2.16146722e-01f,+1.20315701e-02f,
+2.05227256e-01f,+1.71677768e-02f,+1.43201649e-01f,+2.12985948e-01f,+3.23266536e-01f,
+4.28255051e-01f,+6.67034611e-02f,-9.99035090e-02f,-5.70399575e-02f,+2.02038169e-01f,
-4.67329398e-02f,+3.61331969e-01f,+2.25082740e-01f,+1.02658540e-01f,+8.00792873e-02f,
-1.48231313e-01f,+2.52739936e-02f,+1.72687113e-01f,+2.68791497e-01f,-9.48911384e-02f,
-9.02805775e-02f,+2.88338929e-01f,+1.07782952e-01f,-1.01999223e-01f,+1.75093748e-02f,
-2.17220504e-02f,+1.92187250e-01f,+1.75407171e-01f,+1.49901569e-01f,-8.73846859e-02f,
-7.88557306e-02f,+1.68235868e-01f,-7.37534650e-03f,+1.12631274e-02f,-1.05547875e-01f,
+1.80421516e-01f,+2.89600194e-01f,+2.36096948e-01f,+1.04612060e-01f,-4.54362594e-02f,
-1.48785830e-01f,-6.28674701e-02f,+1.67383566e-01f,-8.80645737e-02f,-3.05837616e-02f,
+3.11982632e-01f,+2.94770777e-01f,+7.48275779e-03f,+2.38350645e-01f,+2.38113448e-01f,
+3.33462954e-02f,+8.88360590e-02f,-1.10033877e-01f,-1.64602250e-01f,+1.87325906e-02f,
+8.88162851e-02f,-1.00118123e-01f,+3.13528515e-02f,+2.65352149e-02f,+3.21311504e-02f,
+2.75940567e-01f,+1.62334871e-02f,+2.60515094e-01f,+9.54195261e-02f,-1.08481012e-01f,
-4.49974984e-02f,+2.78440952e-01f,-8.53894800e-02f,-1.17970020e-01f,+7.68172666e-02f,
-3.49279568e-02f,+4.20948192e-02f,-2.06685752e-01f,+5.25228858e-01f,+2.42829606e-01f,
+5.13401581e-03f,+5.92152588e-02f,+1.86617404e-01f,+1.67993978e-01f,+1.01649038e-01f,
+2.76019484e-01f,+6.03191033e-02f,+2.04243273e-01f,-3.30073126e-02f,+5.09042405e-02f,
-1.17022529e-01f,+6.37455285e-02f,+1.67092919e-01f,+2.65604164e-02f,+6.65408671e-02f,
+1.54174631e-02f,-4.27012704e-02f,-3.50234658e-02f,+1.32961839e-01f,-1.62901670e-01f,
-7.36599565e-02f,+3.63355696e-01f,+1.15860753e-01f,+2.36178577e-01f,+6.84209317e-02f,
-1.78220570e-01f,+1.58167288e-01f,+1.18040346e-01f,-2.00597034e-03f,+7.27634132e-02f,
-2.41543483e-02f,+2.82288224e-01f,-2.52877828e-02f,-1.14621498e-01f,+1.45433277e-01f,
-7.70054758e-02f,-1.80441380e-01f,+2.30919868e-01f,-9.66302902e-02f,+3.84149477e-02f,
+9.15814191e-02f,+1.30839795e-01f,-2.00086638e-01f,-6.72953650e-02f,+2.53820330e-01f,
+2.38483269e-02f,-1.94793791e-01f,+2.19891012e-01f,+1.12957001e-01f,-5.24873249e-02f,
+4.29062136e-02f,+5.13938963e-02f,+5.66261113e-02f,+3.29719454e-01f,+8.02161992e-02f,
+1.81895077e-01f,+3.17226797e-02f,-1.99191004e-01f,-1.31220287e-02f,+1.15797468e-01f,
+2.98280865e-01f,-5.93296774e-02f,-4.27570380e-02f,-6.35433346e-02f,-3.76935042e-02f,
+2.84941465e-01f,-1.32750034e-01f,-1.90021582e-02f,-2.77376119e-02f,-1.21281914e-01f,
+1.77036464e-01f,+1.59779489e-01f,-6.69774488e-02f,-1.29983854e-03f,+2.56613046e-01f,
-1.65685788e-01f,+3.18414271e-02f,+1.39869437e-01f,-1.26246616e-01f,-1.31497696e-01f,
-5.82183897e-02f,+4.46884692e-01f,+1.04838945e-01f,+8.30298662e-02f,+4.56564389e-02f,
-1.53078381e-02f,+2.03231543e-01f,+2.11738333e-01f,+6.47447035e-02f,+1.24391414e-01f,
+1.49850085e-01f,+6.66970462e-02f,+8.50814581e-02f,+1.05224878e-01f,+1.32774532e-01f,
+1.01446092e-01f,-1.09804787e-01f,+1.69745982e-01f,-5.32951169e-02f,-2.57731497e-01f,
-1.44810379e-01f,+1.91252455e-01f,+3.56792770e-02f,+8.04335549e-02f,+1.27332404e-01f,
+1.57938544e-02f,+9.89796668e-02f,+5.14879711e-02f,-3.47561240e-02f,+5.61034456e-02f,
+3.65315825e-01f,-3.21908072e-02f,+9.59839374e-02f,-1.07699566e-01f,+1.48217767e-01f,
+8.56348723e-02f,-5.87019771e-02f,+2.18566298e-01f,+1.42124057e-01f,+1.29157886e-01f,
-2.54274700e-02f,+1.88572181e-03f,-6.86016530e-02f,-5.22243381e-02f,-1.75866291e-01f,
+4.37984347e-01f,-6.51592389e-02f,+2.38162905e-01f,+2.03297541e-01f,-7.07836598e-02f,
+8.43636245e-02f,-1.80909056e-02f,+7.21494108e-02f,+2.39478096e-01f,-3.60283777e-02f,
+1.68165848e-01f,+2.27682352e-01f,+9.99722704e-02f,+1.49838656e-01f,+1.49135396e-01f,
-2.83404849e-02f,+2.29302600e-01f,+1.53975070e-01f,+1.84982926e-01f,-9.91806611e-02f,
+1.11320637e-01f,-3.64505569e-03f,+7.01926574e-02f,-3.52096483e-02f,+1.27495378e-01f,
+8.55353400e-02f,+4.71418351e-02f,+6.60261810e-02f,-2.74416089e-01f,+1.64129883e-01f,
+1.15057774e-01f,-5.31988218e-02f,+2.40356922e-02f,-2.10210830e-02f,-1.07988110e-02f,
-3.22943091e-01f,+4.91818264e-02f,+6.24159388e-02f,-1.28981158e-01f,-2.44465880e-02f,
+1.59331426e-01f,+1.03838973e-01f,-7.65482113e-02f,+1.13899082e-01f,-4.45788801e-02f,
+2.65121553e-02f,-8.41901600e-02f,+1.56887591e-01f,-2.20159590e-02f,-4.75473814e-02f,
+4.28600051e-03f,-3.87653887e-01f,-1.04095474e-01f,-6.72344677e-03f,+1.58869028e-01f,
-2.66831130e-01f,-2.78741424e-03f,-7.05674291e-02f,-1.07687309e-01f,+1.29748449e-01f,
-1.35486066e-01f,+3.77695560e-01f,-1.20702513e-01f,-1.92129068e-04f,+2.49088630e-01f,
+9.95114297e-02f,+2.32950687e-01f,+3.10540378e-01f,+1.79247096e-01f,+1.25052497e-01f,
+1.25058398e-01f,+2.86663044e-02f,+4.43130657e-02f,+1.26020938e-01f,+1.62303552e-01f,
+1.27853230e-01f,+1.60854965e-01f,-6.04948439e-02f,+1.91801772e-01f,+1.85698926e-01f,
+9.49641690e-02f,-3.13481688e-02f,+5.97642735e-03f,-5.42264357e-02f,+2.24439073e-02f,
-5.46640009e-02f,+2.03218997e-01f,-5.15062399e-02f,+1.81636319e-01f,-1.27351582e-01f,
-2.74333656e-02f,+2.06063792e-01f,-3.36639881e-02f,+1.09198734e-01f,-4.76373732e-02f,
-4.53112125e-02f,-7.53776282e-02f,-1.56505331e-01f,+8.04713443e-02f,+1.04192542e-02f,
-1.77677244e-01f,+1.02913484e-01f,+1.12378851e-01f,+2.30540618e-01f,+1.42365113e-01f,
+1.37650296e-01f,+1.60551503e-01f,+1.43018931e-01f,+1.24116734e-01f,+2.89822400e-01f,
+3.04183345e-02f,-7.46333003e-02f,+1.11323595e-02f,+9.77776106e-03f,+1.30567357e-01f,
+8.57888311e-02f,-1.08115606e-01f,-2.43955404e-01f,+1.14030384e-01f,+3.22769791e-01f,
+4.10825498e-02f,+3.26751843e-02f,+5.82856592e-03f,+9.65621471e-02f,+3.23559463e-01f,
-3.32199335e-01f,+1.10458031e-01f,+2.56348163e-01f,-1.12470491e-02f,+1.67030796e-01f,
-5.29342555e-02f,+2.07592268e-02f,-6.61735469e-03f,-1.17775425e-01f,+1.94478333e-01f,
+1.72741652e-01f,+6.64418712e-02f,-9.98081043e-02f,-1.91666737e-01f,+1.14859417e-01f,
-2.03380838e-01f,+1.08554170e-01f,+1.07389398e-01f,+5.82117699e-02f,-3.38782072e-02f,
+3.14774871e-01f,+1.38063759e-01f,+9.68302861e-02f,+1.63724750e-01f,-1.02403224e-01f,
+2.53230602e-01f,+1.93766747e-02f,+2.01493576e-01f,-9.08586383e-02f,+2.56745160e-01f,
-6.78664148e-02f,-1.09414048e-01f,+1.76720828e-01f,-6.87465146e-02f,-1.68483347e-01f,
+9.22252610e-02f,+3.08485869e-02f,+1.15169257e-01f,+2.83834487e-02f,+8.58352426e-03f,
+1.37562752e-01f,+7.79761449e-02f,-2.24024743e-01f,+3.40581417e-01f,-2.88104378e-02f,
+2.72871032e-02f,-1.64754014e-03f,+9.08879191e-02f,-3.63416635e-02f,-7.66833276e-02f,
-1.03800088e-01f,+1.63880035e-01f,-1.42768651e-01f,+1.84128016e-01f,-1.42182648e-01f,
+2.14043602e-01f,+7.01764673e-02f,+1.41777396e-01f,+7.80057162e-02f,-8.62020105e-02f,
-7.87456483e-02f,+3.35257612e-02f,+2.07690559e-02f,-2.06014380e-01f,+1.25475749e-01f,
-3.15438546e-02f,+3.16567063e-01f,-2.21714303e-01f,+2.55821198e-01f,-5.23555912e-02f,
-1.00166779e-02f,-1.32458761e-01f,+3.05438131e-01f,+1.56037718e-01f,+3.39242935e-01f,
-1.64428979e-01f,-9.24330391e-03f,-6.01476505e-02f,+6.80649355e-02f,+1.40800759e-01f,
+8.25532302e-02f,+7.88559988e-02f,+5.36814183e-02f,+7.18518347e-02f,+6.41280040e-02f,
+2.07981631e-01f,+2.23116040e-01f,+2.81448830e-02f,+2.63715714e-01f,-1.59125865e-01f,
+5.52711450e-02f,-4.25873436e-02f,+2.25915268e-01f,+5.33547923e-02f,+1.07222125e-01f,
+9.33098868e-02f,+1.07060432e-01f,-7.06589818e-02f,-4.63957079e-02f,+1.94519460e-01f,
-1.79656595e-01f,+9.90541056e-02f,-1.42507017e-01f,+1.38080209e-01f,+1.41036406e-01f,
+9.22919437e-02f,+1.18815914e-01f,+1.13824196e-01f,+5.09551242e-02f,+2.79247582e-01f,
+7.12911412e-02f,+1.70192674e-01f,-8.73259977e-02f,-1.68897270e-03f,-3.42797041e-01f,
+1.05805270e-01f,+3.70384872e-01f,+2.50019897e-02f,+9.93585885e-02f,+1.73580080e-01f,
+7.78028220e-02f,-2.74981353e-02f,+6.67062774e-02f,+3.81552905e-01f,-1.22316569e-01f,
-2.24788524e-02f,-3.74878198e-01f,+2.88193990e-02f,-1.14887029e-01f,+1.15738526e-01f,
+1.46244720e-01f,+4.88914736e-02f,-4.05622907e-02f,+1.86057031e-01f,+1.13649063e-01f,
-3.06556791e-01f,+2.14095026e-01f,+1.12074524e-01f,-3.86726484e-02f,+1.43537968e-01f,
+1.50771022e-01f,+7.86324069e-02f,+1.19579926e-01f,-2.24924996e-03f,-1.35543302e-01f,
+1.35121629e-01f,+1.59202710e-01f,+2.65915155e-01f,+1.57584816e-01f,-6.12728596e-02f,
+1.24932833e-01f,+1.23185121e-01f,+7.80337453e-02f,+1.94249395e-03f,-7.14236498e-02f,
+3.83199230e-02f,+4.84798886e-02f,+5.71952993e-03f,+1.64170340e-02f,+7.04900846e-02f,
+2.23031446e-01f,-3.70399505e-02f,-4.19094004e-02f,+6.67774305e-02f,-3.42702377e-04f,
+2.13464752e-01f,+1.27115939e-02f,+1.36573270e-01f,-1.41680017e-01f,+8.24076459e-02f,
-1.68319017e-01f,+2.34959796e-01f,-8.82069170e-02f,+7.25596324e-02f,-9.93491784e-02f,
+1.03077330e-01f,+7.28679895e-02f,+1.21295854e-01f,+7.48733506e-02f,-1.81169391e-01f,
+1.17066074e-02f,+1.39523149e-01f,+1.23452798e-01f,+1.02412775e-01f,+3.59403528e-02f,
-1.35982677e-01f,-2.98310891e-02f,-4.92208786e-02f,-1.35511300e-02f,-1.03175029e-01f,
+2.06886619e-01f,+7.72368982e-02f,+4.39811349e-02f,-1.84644572e-02f,+1.28894970e-01f,
+7.27645233e-02f,+4.08420712e-02f,-1.54062107e-01f,-1.15888203e-02f,+4.54944074e-01f,
-2.62811128e-02f,-5.53491339e-03f,+2.22205743e-01f,-4.59705740e-02f,+3.79220605e-01f,
+1.01611808e-01f,+3.56631279e-01f,+9.84580964e-02f,-4.98756394e-02f,+1.75674781e-01f,
+7.28456154e-02f,+5.75053273e-03f,+1.10264517e-01f,-1.15602508e-01f,-9.58414674e-02f,
-8.45132470e-02f,+1.84090361e-01f,+6.84957653e-02f,-5.00506014e-02f,-1.49714760e-02f,
+7.18435198e-02f,+1.06422253e-01f,+6.47440925e-02f,+2.83869132e-02f,+6.47386238e-02f,
+2.62433857e-01f,+2.43472174e-01f,-9.78141353e-02f,+2.13274285e-02f,+2.24919200e-01f,
-9.36439261e-03f,+9.29620713e-02f,+1.16810113e-01f,-8.80916417e-02f,-1.45846099e-01f,
-1.32843718e-01f,+1.83336192e-03f,+1.82814181e-01f,+7.75816217e-02f,-3.00046746e-02f,
+8.66958797e-02f,+9.24771652e-02f,+4.66641597e-02f,+3.46871205e-02f,+1.07049197e-02f,
+1.72411576e-01f,+1.68575607e-02f,+6.99231401e-02f,-4.77240160e-02f,+5.57322912e-02f,
+1.04762584e-01f,+5.25383512e-03f,+9.71514285e-02f,+8.15365687e-02f,+4.08238657e-02f,
-6.03474304e-02f,+4.21381444e-02f,-1.84516653e-01f,+2.50500351e-01f,+3.13922822e-01f,
-1.96863592e-01f,+4.33569215e-02f,-3.75537127e-02f,-1.38475731e-01f,-9.59796980e-02f,
+2.99575143e-02f,+1.56755090e-01f,-2.09608793e-01f,-1.23373374e-01f,-8.83407369e-02f,
+3.49075608e-02f,+6.24649450e-02f,+1.46184072e-01f,+7.90830627e-02f,-5.51999062e-02f,
+8.09484124e-02f,+1.98882654e-01f,+1.68733940e-01f,+9.94930267e-02f,+4.35972586e-02f,
+1.71918318e-01f,+1.48944646e-01f,-2.59524863e-02f,+9.82564837e-02f,+2.54385978e-01f,
+1.59964189e-01f,-2.10956752e-01f,+7.55081847e-02f,-2.34175324e-02f,+4.36085649e-02f,
-1.06212266e-01f,+9.57789123e-02f,+8.59487280e-02f,+2.17904195e-01f,-1.78100795e-01f,
+4.93678125e-03f,+1.03225462e-01f,+2.34733094e-02f,-2.83744908e-03f,+1.32339239e-01f,
-1.23118959e-01f,+2.17379704e-01f,+3.70581329e-01f,-1.15850456e-01f,+1.29346594e-01f,
-7.47579634e-02f,+4.51615267e-02f,+1.42819798e-02f,+1.56527683e-02f,-1.51439369e-01f,
+2.21827403e-01f,+1.05655026e-02f,+4.48091067e-02f,-2.64933482e-02f,+2.85772562e-01f,
-1.14461608e-01f,+1.26264200e-01f,+9.58414450e-02f,+8.73212665e-02f,-9.29488391e-02f,
+5.06996661e-02f,+5.31546399e-02f,+1.07370719e-01f,+1.33109689e-01f,-2.30951473e-01f,
+1.55239105e-01f,-3.25672515e-02f,+1.11629225e-01f,-5.08387685e-02f,-1.00287370e-01f,
-3.02115045e-02f,-4.67646837e-01f,+1.72490060e-01f,+1.75370891e-02f,+8.36662054e-02f,
+1.22376360e-01f,+1.59053549e-01f,+2.76713371e-02f,+2.51979768e-01f,+7.05698272e-03f,
-1.02539711e-01f,-2.14864556e-02f,+2.32767314e-01f,-4.17470038e-02f,-4.46092803e-03f,
+3.34920883e-02f,-6.65421560e-02f,+1.07489936e-01f,+1.33784086e-01f,-4.31782156e-02f,
-2.12371591e-02f,+2.26108178e-01f,+2.04079263e-02f,-1.13368016e-02f,+2.69802004e-01f,
-6.49094908e-03f,-9.96665880e-02f,-2.99845301e-02f,+5.61831035e-02f,+1.22868396e-01f,
+6.39386289e-03f,+5.13631068e-02f,-4.34023589e-02f,+9.35521275e-02f,+1.89238153e-02f,
-7.37050623e-02f,+4.01583873e-02f,+1.81655020e-01f,+7.73719326e-02f,+3.16910781e-02f,
-1.67646974e-01f,-5.53100295e-02f,+2.43051037e-01f,+1.55077633e-02f,-1.41806118e-02f,
-7.09943399e-02f,-1.20242313e-01f,-1.17670320e-01f,-4.55187671e-02f,+1.54004887e-01f,
-9.40078497e-02f,+2.12975815e-01f,-6.05714358e-02f,+1.38839290e-01f,-2.87625398e-02f,
+1.80562772e-02f,+2.17602238e-01f,+1.07161216e-01f,+2.15589017e-01f,+9.67346504e-02f,
-1.62658930e-01f,-1.48054421e-01f,+1.60214186e-01f,+5.74506782e-02f,-8.57564714e-03f,
-1.01876058e-01f,+2.34653622e-01f,+2.89202720e-01f,+1.57533392e-01f,+6.62441328e-02f,
+1.34355247e-01f,+4.29933369e-02f,+8.83361399e-02f,+1.51210770e-01f,+1.03123486e-01f,
+1.32895082e-01f,+2.84364283e-01f,-5.17998487e-02f,-1.65026829e-01f,-2.10335404e-02f,
-4.14525457e-02f,-1.67742595e-02f,+1.20351575e-01f,+1.88634247e-02f,-1.20890103e-01f,
-6.01930264e-03f,+8.33818391e-02f,-2.00220063e-01f,+3.16423446e-01f,+1.35152280e-01f,
+2.31489137e-01f,+1.06910743e-01f,+4.33624871e-02f,+4.23083920e-03f,-2.25233003e-01f,
+5.16283214e-02f,-3.37980419e-01f,+2.26573393e-01f,-9.73758325e-02f,-1.41330184e-02f,
+6.86715916e-02f,-6.40080729e-03f,+1.40759006e-01f,-6.38945699e-02f,+3.12628388e-01f,
-4.50228266e-02f,+1.13233805e-01f,+1.54019892e-01f,+6.59810960e-01f,+2.38333587e-02f,
-1.19052380e-02f,+4.91827447e-03f,+1.49606869e-01f,-6.68579247e-03f,+7.03667253e-02f,
+2.35803798e-01f,-2.95980126e-01f,+1.05465632e-02f,+1.03551842e-01f,+5.17911240e-02f,
+3.46891493e-01f,-3.73809747e-02f,+4.03818712e-02f,+1.20117798e-01f,-3.09241619e-02f,
-7.22692236e-02f,+8.99418741e-02f,-1.24492422e-01f,-5.13827838e-02f,+1.46737888e-01f,
+7.93669671e-02f,+1.23736762e-01f,+4.38858777e-01f,+2.21217483e-01f,-1.97307337e-02f,
+1.42008826e-01f,+3.77457752e-03f,+3.63557637e-02f,+1.53293148e-01f,-1.23753555e-01f,
-1.30430087e-01f,+7.42143914e-02f,+7.57285580e-02f,-4.92189080e-02f,+1.82990566e-01f,
-8.90309960e-02f,+1.86094612e-01f,+6.89475089e-02f,+1.05157301e-01f,+1.41339168e-01f,
-9.39649642e-02f,-2.09855568e-03f,-1.14285931e-01f,+8.30273181e-02f,-1.77148432e-01f,
+1.90309346e-01f,+1.71068922e-01f,+2.61076763e-02f,-7.45439306e-02f,+3.40336189e-02f,
+1.24763817e-01f,-1.17234655e-01f,+1.04569294e-01f,+1.78674221e-01f,-5.14974780e-02f,
+7.94682577e-02f,+9.93180871e-02f,-9.99392495e-02f,+2.55494237e-01f,+7.91263580e-02f,
+2.21715897e-01f,+5.18254191e-02f,+1.87295660e-01f,+1.16459541e-01f,-2.86245421e-02f,
+7.38801137e-02f,-1.35004029e-01f,+1.85259432e-01f,-4.79590036e-02f,-9.22395755e-03f,
+1.31281152e-01f,-4.37261201e-02f,+1.44760637e-02f,-1.57414507e-02f,-3.79550806e-03f,
+9.63657908e-03f,-6.59416094e-02f,-1.32637350e-02f,+1.34368017e-01f,-1.04757901e-02f,
+3.66150364e-02f,+6.86201975e-02f,+8.39876831e-02f,+1.44656092e-01f,+2.12600037e-01f,
+1.39323613e-02f,+2.01273680e-01f,+1.02047332e-01f,+2.68832505e-01f,-1.16005749e-01f,
+3.19541067e-01f,+1.94277346e-01f,+1.13465637e-01f,-1.11449443e-01f,-2.92060301e-02f,
+4.74321544e-02f,+5.67013286e-02f,-4.33632657e-02f,+4.73746546e-02f,+4.19699885e-02f,
+1.54150754e-01f,+1.23736382e-01f,-1.03454627e-01f,+1.51467338e-01f,+4.58597206e-02f,
-8.32768902e-02f,+2.08337963e-01f,-4.69001755e-02f,-1.05245277e-01f,+9.39092189e-02f,
+4.26904851e-04f,+2.92096406e-01f,-6.81806803e-02f,+7.93284178e-02f,-7.79466191e-03f,
+1.57396227e-01f,+1.97982788e-01f,+1.85876563e-01f,+1.32255331e-01f,+1.47675484e-01f,
+1.74142465e-01f,-5.54757118e-02f,+7.00127259e-02f,+1.32175624e-01f,-1.85673777e-02f,
+1.19516060e-01f,+2.25089997e-01f,-2.36068293e-02f,+2.56587565e-01f,-1.40539305e-02f,
+8.76988322e-02f,+2.10398763e-01f,+1.79104194e-01f,+1.71280131e-01f,+1.06434315e-01f,
-8.08155835e-02f,+8.22590571e-03f,-1.22747816e-01f,+2.29734853e-01f,+2.29852006e-01f,
-1.26514360e-01f,+8.64159763e-02f,-3.97474021e-02f,-1.34585112e-01f,+9.56905410e-02f,
+2.30325647e-02f,+1.32120132e-01f,+2.39610344e-01f,+2.41485476e-01f,+7.44205788e-02f,
+3.30898166e-01f,+2.64293879e-01f,+2.85006553e-01f,+2.86604971e-01f,+1.58042610e-01f,
+2.02294677e-01f,+1.92224279e-01f,+6.89721704e-02f,+1.78354248e-01f,-1.90313905e-01f,
-7.93117378e-03f,+2.77382135e-02f,-4.22423147e-03f,+9.67678875e-02f,-5.68045489e-02f,
-4.41113748e-02f,+2.29809567e-01f,-5.99515699e-02f,+2.71618534e-02f,+3.48169804e-01f,
+1.13740399e-01f,+3.78916003e-02f,+2.36610919e-01f,+2.07098965e-02f,+3.56243812e-02f,
+1.03052128e-02f,+5.98952472e-02f,-3.24532278e-02f,+1.97988272e-01f,-1.88610777e-02f,
-6.35965690e-02f,-1.39285818e-01f,+1.07227243e-01f,+2.21968014e-02f,-1.50516359e-02f,
-1.86330348e-04f,+8.69295821e-02f,+1.24219418e-01f,+2.57268548e-01f,+1.01160824e-01f,
-2.54797959e-03f,+4.86339591e-02f,-1.20254718e-01f,+6.57894611e-02f,+1.81343988e-01f,
+1.08208202e-01f,+1.99561678e-02f,+1.81750566e-01f,+2.18966097e-01f,+4.12701070e-02f,
+1.25681832e-01f,-1.52060436e-02f,-4.81128804e-02f,-1.16201006e-01f,-1.61200479e-01f,
+9.76396427e-02f,+5.66084199e-02f,+1.35590121e-01f,+1.75444245e-01f,+2.42036544e-02f,
+7.88239241e-02f,+2.40157604e-01f,+2.51615405e-01f,+1.29986197e-01f,+5.14920019e-02f,
-6.56193309e-03f,-9.12261531e-02f,+7.24697709e-02f,+2.11519435e-01f,-2.31861725e-01f,
-4.95508127e-02f,-7.48265609e-02f,+2.71721333e-01f,-3.06794178e-02f,+1.13238536e-01f,
+3.78092647e-01f,+2.07977250e-01f,+2.08385646e-01f,+1.13751926e-01f,+1.56717896e-01f,
+1.63832590e-01f,-1.43645778e-01f,-8.42004046e-02f,+1.24653295e-01f,+1.38586298e-01f,
+1.14508979e-01f,+5.19371517e-02f,+1.67081401e-01f,+6.57568127e-02f,+3.20916846e-02f,
-3.39824967e-02f,+1.14506848e-01f,-1.27282247e-01f,+1.82734817e-01f,+4.16282676e-02f,
+1.83154836e-01f,+1.24969348e-01f,-7.15489313e-02f,+4.14288305e-02f,-1.94721315e-02f,
+6.14076443e-02f,-5.36123142e-02f,+1.48644745e-01f,+1.82882190e-01f,+5.82703464e-02f,
+2.89011151e-01f,+3.77257280e-02f,+2.42251560e-01f,-2.45560870e-01f,+1.40956566e-01f,
+6.84475154e-02f,+1.09947994e-01f,+2.67692078e-02f,+6.58749184e-03f,+6.83095902e-02f,
+1.15463153e-01f,+5.14922477e-02f,+1.34067193e-01f,-2.33443659e-02f,+9.83580276e-02f,
+2.33249292e-02f,+6.31419420e-02f,+1.76852003e-01f,+3.80115092e-01f,+2.03787424e-02f,
+9.30701569e-02f,+8.59175697e-02f,-3.59456658e-01f,+3.41683067e-02f,+2.28911471e-02f,
+2.93041378e-01f,+3.56726162e-02f,+5.87617233e-02f,-2.05808207e-02f,+3.98660079e-02f,
-1.50195673e-01f,+1.63304321e-02f,-1.62757531e-01f,-7.88583159e-02f,+1.22608310e-02f,
+7.40477145e-02f,-7.64795020e-02f,+3.11072618e-02f,+1.79020956e-01f,+2.78670546e-02f,
-2.78998725e-02f,+1.36510208e-02f,+1.46675361e-02f,+1.53104603e-01f,+9.01215822e-02f,
-4.43770699e-02f,+6.74654245e-02f,+3.36538348e-03f,-3.84126641e-02f,+5.89767564e-03f,
-1.30894864e-02f,+2.06445053e-01f,-1.10645413e-01f,+2.45433245e-02f,+1.10219352e-01f,
+2.61744320e-01f,+1.04465976e-01f,+1.54963672e-01f,+1.07744530e-01f,+1.48125812e-01f,
+8.66558403e-02f,+1.05765238e-02f,+2.13183731e-01f,-9.77534354e-02f,+5.55794910e-02f,
+7.66813979e-02f,-3.12880240e-02f,-2.34580547e-01f,+2.13423729e-01f,+1.71358585e-01f,
-5.89010864e-02f,+8.40869024e-02f,-1.94406301e-01f,+9.65932757e-02f,-5.24895005e-02f,
+9.03969556e-02f,-2.59362087e-02f,+3.91653040e-03f,-3.43695097e-02f,+7.04905484e-03f,
+1.13889985e-01f,-7.75310546e-02f,-5.71366921e-02f,+1.30419388e-01f,-6.99222907e-02f,
+5.25234528e-02f,+7.06727952e-02f,+3.52014787e-02f,+8.31314176e-02f,-1.35697260e-01f,
+2.17994213e-01f,+1.27649516e-01f,+1.18734807e-01f,+1.80185914e-01f,+8.88125002e-02f,
+5.18426783e-02f,+1.92245230e-01f,+7.23869503e-02f,-1.76794250e-02f,-5.21493815e-02f,
+1.30894691e-01f,+6.22387789e-02f,-1.33030161e-01f,-1.22989612e-02f,+1.82156041e-01f,
-6.28621504e-02f,+6.66956902e-02f,+2.71468703e-02f,-2.50174683e-02f,+1.63044348e-01f,
+1.13993242e-01f,+1.62168443e-01f,+6.72442764e-02f,+3.06444526e-01f,+8.71097296e-02f,
+1.25702411e-01f,+1.41151041e-01f,+2.29166761e-01f,+1.33959487e-01f,+3.47285382e-02f,
-1.10390365e-01f,-4.58654724e-02f,+1.20428693e-03f,+7.87216052e-02f,+1.51769370e-01f,
+1.35116890e-01f,+8.12782254e-03f,+1.31337624e-02f,-2.76475362e-02f,+8.07256550e-02f,
-1.40629500e-01f,+1.87672660e-01f,+4.16638181e-02f,-1.65866558e-02f,-7.12940246e-02f,
+1.58825442e-01f,+3.82028297e-02f,+5.34345321e-02f,+9.94675234e-03f,+1.11030638e-01f,
-1.51092559e-01f,+1.05336979e-01f,+1.34210318e-01f,+9.75040048e-02f,+6.38183728e-02f,
+6.83906898e-02f,+2.06205132e-03f,-1.87479053e-02f,+6.82460517e-02f,-1.30824596e-01f,
-1.22282058e-02f,+1.02888770e-01f,+9.26388577e-02f,-1.55771255e-01f,-1.50602669e-01f,
+3.15390830e-03f,+3.17873247e-02f,+7.06201270e-02f,+2.04712138e-01f,+1.13934509e-01f,
+8.72331392e-03f,-1.32378325e-01f,-1.56483762e-02f,+7.44167492e-02f,-1.36785656e-01f,
+2.46362109e-02f,-4.11609784e-02f,-4.99445163e-02f,+1.08421594e-01f,+5.51820807e-02f,
+7.77119175e-02f,+3.67190726e-02f,-1.30883195e-02f,-8.23563263e-02f,+2.17426598e-01f,
+2.33889315e-02f,-1.18876928e-02f,+9.08438042e-02f,+1.38459494e-02f,-7.16141239e-02f,
-5.25459684e-02f,+1.48412168e-01f,+3.73310149e-02f,+5.43355830e-02f,+7.93731597e-04f,
+7.73744332e-03f,+1.47996154e-02f,+5.05656190e-02f,+4.39983532e-02f,+2.42712013e-02f,
+1.99354500e-01f,-3.30843441e-02f,+1.10505462e-01f,+1.97432071e-01f,-6.19619898e-02f,
+1.03866398e-01f,+2.76324879e-02f,+1.50327951e-01f,+9.94636640e-02f,+2.81755589e-02f,
-9.66015235e-02f,-7.36928582e-02f,-4.19856049e-02f,+1.31684728e-02f,+1.03077665e-02f,
+1.41322557e-02f,+2.85760351e-02f,-2.64428016e-02f,+2.30901893e-02f,-5.97558990e-02f,
-1.34195268e-01f,-1.93631630e-02f,-7.04792375e-03f,+2.61229694e-01f,+8.71865973e-02f,
+8.58272687e-02f,-6.55585527e-02f,+1.54017480e-02f,-1.32001281e-01f,+5.64946048e-02f,
-2.37980098e-01f,+1.45048082e-01f,-5.62925935e-02f,-2.85160929e-01f,-7.55366236e-02f,
+8.02301988e-03f,+8.45277384e-02f,-6.16914555e-02f,+2.17871480e-02f,+4.11487818e-02f,
+3.06848362e-02f,+3.67232114e-02f,+4.05224562e-02f,-1.19397743e-02f,-2.93624215e-02f,
+6.48423433e-02f,+8.83869901e-02f,+2.75186390e-01f,-2.69451849e-02f,+2.49009132e-02f,
+5.05261309e-02f,+1.43265083e-01f,-6.50333166e-02f,-2.91122366e-02f,+8.20023790e-02f,
-1.18670578e-03f,+3.43038887e-02f,+3.93436961e-02f,+2.00023681e-01f,+3.04689687e-02f,
+7.78111368e-02f,+3.56903747e-02f,+6.79386482e-02f,+8.62485766e-02f,+1.96054593e-01f,
+1.56425387e-02f,+3.27493809e-02f,+3.22505742e-01f,-7.38674030e-02f,-1.85093388e-01f,
+1.21147409e-01f,-1.28712401e-01f,-2.95240760e-01f,-9.57203060e-02f,+1.04679637e-01f,
+2.27121651e-01f,-1.32921501e-03f,-1.70263514e-01f,-4.83202450e-02f,+9.14605036e-02f,
+1.34531960e-01f,+5.72080873e-02f,+1.83216810e-01f,+1.89789087e-01f,-7.20891356e-02f,
+5.67208305e-02f,+1.76989049e-01f,-2.20960490e-02f,-1.32342624e-02f,-2.35722393e-01f,
+2.84012973e-01f,+4.24150713e-02f,-1.17018968e-01f,+6.89204931e-02f,-1.71368808e-01f,
-2.76725478e-02f,-6.09068610e-02f,-4.94348556e-02f,+5.12389719e-01f,+2.03853354e-01f,
+6.85503557e-02f,-1.83526233e-01f,+2.26639137e-01f,-3.02758217e-02f,-1.67278484e-01f,
-4.47127260e-02f,-6.88440427e-02f,+2.22231686e-01f,-8.68818611e-02f,-4.30581113e-03f,
+9.62023288e-02f,+1.69396535e-01f,+3.42898294e-02f,+1.63786456e-01f,+7.24160001e-02f,
-1.29587620e-01f,+1.03496023e-01f,+5.73243946e-02f,-1.38294343e-02f,+5.09696491e-02f,
+1.66649461e-01f,-4.74534892e-02f,+1.09742051e-02f,+1.66549474e-01f,+7.77051523e-02f,
-1.71655595e-01f,+1.09901987e-01f,+1.56235054e-01f,+1.40830353e-01f,+1.01963438e-01f,
+9.30642635e-02f,-8.14367607e-02f,+1.95017606e-01f,+1.06557906e-01f,+1.88989460e-01f,
+2.06052497e-01f,+7.63759837e-02f,+2.09632695e-01f,+5.87053634e-02f,+4.84872749e-03f,
+2.83411946e-02f,+2.35896483e-01f,+1.12818681e-01f,+1.13211975e-01f,+1.25684783e-01f,
+1.69449896e-01f,+5.67820892e-02f,-1.22352345e-02f,+1.18033886e-01f,-1.98948290e-02f,
-5.24253957e-02f,-2.02481989e-02f,+5.04460111e-02f,+3.61112393e-02f,+4.79430612e-03f,
+7.13183254e-05f,+2.90255427e-01f,+8.59428495e-02f,-1.15677781e-01f,-2.09187008e-02f,
+1.00206353e-01f,+1.01029418e-01f,-1.17237501e-01f,+1.66414723e-01f,+1.21603310e-01f,
+1.68921575e-01f,+2.46806685e-02f,+7.92817324e-02f,+9.30479728e-03f,+1.25918731e-01f,
-3.43749784e-02f,-8.53076857e-03f,+1.04429595e-01f,-1.31560909e-02f,-1.39981415e-02f,
+2.04510525e-01f,+4.45840880e-02f,+5.87120876e-02f,-5.68194278e-02f,+1.41257256e-01f,
+1.84908256e-01f,+3.70186865e-02f,+5.30325510e-02f,+6.16751611e-02f,-7.34635666e-02f,
+7.28627294e-02f,+1.42253906e-01f,-5.82890166e-03f,+7.47126117e-02f,-1.69682741e-01f,
+1.26574188e-01f,-9.58325341e-04f,+1.15229525e-01f,+5.93999773e-02f,+7.28796348e-02f,
+1.55656636e-01f,+5.22728115e-02f,+6.25745803e-02f,-7.52098784e-02f,+2.33335957e-01f,
-6.62465347e-03f,+1.12194121e-01f,+1.42000169e-01f,+3.24930660e-02f,+6.37532249e-02f,
+9.74759273e-03f,+6.88457713e-02f,+2.35413369e-02f,+4.26319689e-02f,-2.44292229e-01f,
-3.51463375e-03f,+1.32838100e-01f,+1.23390362e-01f,+5.32447509e-02f,+1.76714838e-01f,
+2.33061999e-01f,+1.24692656e-01f,-1.40483119e-02f,-7.39916638e-02f,+1.30403908e-02f,
+1.29501894e-01f,+6.25701807e-03f,+2.99327467e-02f,+2.40593888e-02f,+1.45838529e-01f,
+2.28140712e-01f,+1.13588721e-01f,-8.05856008e-03f,+5.70731470e-03f,+4.01349589e-02f,
-1.78165846e-02f,+8.26372877e-02f,+5.31109981e-02f,+1.10957868e-01f,+1.08868934e-01f,
+6.71011880e-02f,-1.39461845e-01f,+1.90636478e-02f,-1.31064076e-02f,+2.29802392e-02f,
+1.22453123e-02f,+7.62586147e-02f,+1.28254369e-01f,+1.04220897e-01f,+1.66654885e-01f,
-6.20327853e-02f,+6.58807680e-02f,+4.16199937e-02f,+7.03959838e-02f,+1.47390082e-01f,
+4.40746220e-03f,-1.48557931e-01f,+1.78586453e-01f,+7.48704448e-02f,+8.00496414e-02f,
-1.54232094e-03f,+4.26533781e-02f,+5.86080141e-02f,+1.76423818e-01f,+8.00957605e-02f,
+6.14036731e-02f,+1.29130051e-01f,-1.50456578e-02f,-2.57061031e-02f,+1.30291685e-01f,
-3.54432990e-03f,+1.41961932e-01f,+1.04122408e-01f,+9.74280015e-02f,+2.54040975e-02f,
+4.15622443e-02f,+1.08704060e-01f,+1.67465612e-01f,+1.16837576e-01f,+6.28090575e-02f,
+1.63462818e-01f,+8.27180371e-02f,+8.48164409e-02f,-2.15968825e-02f,-2.40655267e-03f,
+1.78880114e-02f,+1.23989984e-01f,+1.83581054e-01f,-4.12181905e-03f,+1.58833563e-01f,
+3.73918675e-02f,+2.77054816e-01f,+1.42939359e-01f,+4.36364673e-02f,+1.15384847e-01f,
+1.13928869e-01f,+1.64981902e-01f,+4.81138639e-02f,+1.72698468e-01f,-2.51655001e-02f,
+7.33189061e-02f,+1.89623423e-02f,+9.04799774e-02f,-4.02781507e-03f,+2.12344378e-01f,
+1.10919289e-01f,+4.49944213e-02f,+9.92256775e-02f,+9.83689278e-02f,+6.17710948e-02f,
-3.06717176e-02f,-1.32255005e-02f,+4.68253382e-02f,+4.57137488e-02f,+1.55991971e-01f,
+1.74283698e-01f,+1.53586850e-01f,+1.21475846e-01f,+1.80435598e-01f,+7.32823461e-02f,
-2.95251161e-02f,+1.94272727e-01f,+7.93073624e-02f,+2.13791370e-01f,+6.63240328e-02f,
+1.24047793e-01f,+9.40594822e-02f,-1.10269397e-01f,+9.26496089e-02f,+9.77718532e-02f,
+1.08625807e-01f,+1.11766160e-01f,+1.40448898e-01f,+1.22548960e-01f,+5.32926694e-02f,
+5.34729399e-02f,+2.10214749e-01f,+9.87490043e-02f,+1.47220418e-01f,+1.22025050e-01f,
+3.26096155e-02f,+6.93238676e-02f,+1.12361275e-01f,-1.08952783e-01f,-4.23067361e-02f,
-4.67763990e-02f,+2.06533998e-01f,+4.40749042e-02f,-1.69302732e-01f,+1.91885173e-01f,
+4.36453968e-02f,+3.28602572e-03f,+2.85308417e-02f,+7.59235695e-02f,+8.16353932e-02f,
+7.11901188e-02f,+7.94884935e-02f,+3.67972739e-02f,+2.77680576e-01f,+7.62656704e-02f,
+3.15659828e-02f,+7.09458590e-02f,+1.59784451e-01f,+2.15733543e-01f,+1.58491567e-01f,
-2.26911847e-02f,-3.46314348e-02f,+5.74408509e-02f,-6.70718923e-02f,-1.09494710e-02f,
+1.36825264e-01f,+5.74471243e-02f,+1.54983044e-01f,+2.38960549e-01f,+1.56502724e-01f,
-1.42721292e-02f,-6.56540468e-02f,+1.65741086e-01f,+6.88976124e-02f,+5.81924766e-02f,
+7.06476569e-02f,+1.44654466e-02f,+4.54618298e-02f,+3.10498402e-02f,+1.41897678e-01f,
-1.43662160e-02f,+1.80775031e-01f,+1.00960009e-01f,+7.19358250e-02f,+2.07844693e-02f,
-3.10994834e-02f,+1.20545104e-01f,+2.45319828e-02f,+1.50818035e-01f,+3.76582183e-02f,
+2.43533313e-01f,+4.80415486e-02f,+7.20000342e-02f,+6.64565340e-03f,+1.06638215e-01f,
+6.69721514e-02f,-4.11137752e-03f,+6.54987693e-02f,+1.24983549e-01f,+8.36751014e-02f,
+7.24544749e-02f,-1.21549621e-01f,-2.09389061e-01f,+4.50545885e-02f,+1.46805048e-02f,
+5.35629503e-02f,-1.94177344e-01f,-4.86652069e-02f,+8.23115036e-02f,+5.29203340e-02f,
+9.91139784e-02f,+1.48018897e-01f,+1.01202525e-01f,-4.60268408e-02f,+1.34743109e-01f,
+1.23053499e-01f,+6.84576854e-02f,+1.43609881e-01f,+1.08128600e-01f,+1.04698293e-01f,
-1.11975065e-02f,+1.17786020e-01f,+1.53355077e-01f,-2.24369485e-02f,+2.68445220e-02f,
+1.24464773e-01f,-3.68531011e-02f,+5.12933061e-02f,+2.55627722e-01f,+8.08695108e-02f,
+3.57951857e-02f,+1.01779282e-01f,+5.47862835e-02f,+7.12963864e-02f,+7.15232193e-02f,
-2.89336983e-02f,+3.99159752e-02f,+6.85328022e-02f,+1.98029369e-01f,-5.01574464e-02f,
+8.34360793e-02f,+3.60725671e-02f,+7.82551467e-02f,+1.34670302e-01f,+4.88071144e-02f,
+2.69257724e-02f,+2.04002887e-01f,+1.59309343e-01f,+6.78659827e-02f,-5.96144982e-02f,
+1.15458518e-01f,+7.13728219e-02f,+1.57094657e-01f,+1.38412684e-01f,+1.14405900e-01f,
+8.45633224e-02f,+5.92497066e-02f,+4.22379933e-02f,+6.86776862e-02f,+1.28991410e-01f,
+4.93590496e-02f,+1.65071771e-01f,+8.71238634e-02f,+1.11404307e-01f,-1.96453091e-03f,
+1.98331401e-01f,-5.09138703e-02f,+1.23034166e-02f,+1.74704909e-01f,+1.49159012e-02f,
+1.05133317e-01f,+8.08608159e-03f,+1.80722162e-01f,+7.69999549e-02f,-2.61186600e-01f,
-2.34049670e-02f,+1.36639819e-01f,+5.06072976e-02f,+3.09983715e-02f,+1.78123768e-02f,
-1.15803063e-01f,+3.76484022e-02f,+1.50560960e-01f,+1.04563974e-01f,-7.54932314e-02f,
-5.19036241e-02f,+1.38041392e-01f,+5.62008284e-02f,-6.25543296e-02f,-1.55875459e-01f,
+1.74336076e-01f,+1.24937132e-01f,+1.88354924e-02f,-2.42204126e-03f,+2.07501411e-01f,
-1.81764306e-03f,-1.77878924e-02f,+5.76943941e-02f,+1.01865634e-01f,-7.11509818e-03f,
+5.81873506e-02f,+1.00174531e-01f,-5.08560985e-02f,+6.16730517e-03f,+2.37058308e-02f,
+4.32400629e-02f,+1.87259972e-01f,+9.28049758e-02f,+1.38128266e-01f,+1.50610939e-01f,
-1.33050039e-01f,-8.22035596e-02f,+7.07888156e-02f,+2.79735535e-01f,-4.68598679e-02f,
+5.06660268e-02f,+7.13572875e-02f,-1.14422604e-01f,-1.05032988e-01f,+1.54352766e-02f,
+1.66049570e-01f,+1.50826588e-01f,+1.69070661e-01f,-8.09557736e-02f,+1.15424737e-01f,
+3.64655852e-02f,-4.24319953e-02f,-2.04789102e-01f,+8.20817277e-02f,+2.12925728e-02f,
-1.17701953e-02f,+2.52087951e-01f,-1.08109646e-01f,+2.13655338e-01f,+1.70048341e-01f,
-9.20522735e-02f,-8.92313346e-02f,-6.75187819e-03f,-3.99503391e-03f,+8.80192220e-03f,
+4.80198413e-02f,+1.06787011e-01f,+3.64084363e-01f,-9.32665095e-02f,+5.05650416e-02f,
+1.08869955e-01f,+1.68697461e-01f,+5.59057482e-02f,+7.29669631e-02f,+3.66690874e-01f,
+1.00426890e-01f,+2.41186306e-01f,-8.40834901e-02f,+1.98922038e-01f,+1.27190560e-01f,
+1.19842783e-01f,-4.44317646e-02f,+3.54218520e-02f,-8.69289935e-02f,+2.73087084e-01f,
-2.53008395e-01f,+2.60297060e-01f,+7.80458003e-02f,-9.26434398e-02f,+9.18959975e-02f,
+3.38717774e-02f,+1.88445702e-01f,+2.67116398e-01f,-4.95519675e-03f,-7.20176054e-03f,
+1.30858153e-01f,+3.20041925e-02f,+1.83134153e-02f,-5.24635725e-02f,+2.36543700e-01f,
-1.24581158e-01f,-1.09250965e-02f,+4.69349176e-02f,+7.83533752e-02f,+1.98140983e-02f,
+1.12865150e-01f,-1.31903797e-01f,+2.59157389e-01f,+6.98039867e-03f,-1.78594917e-01f,
-3.15469713e-03f,+2.53981799e-01f,+1.85493469e-01f,-5.74609451e-02f,-1.50228843e-01f,
-3.55604431e-03f,+1.11545838e-01f,-1.21776439e-01f,-7.13226497e-02f,-7.01378137e-02f,
+1.40928000e-01f,-3.73949528e-01f,+1.81012556e-01f,+1.36435004e-02f,-1.09600745e-01f,
+1.22351132e-01f,-2.15114594e-01f,+1.82588995e-01f,+1.62319005e-01f,+1.79766342e-01f,
+1.91113934e-01f,-8.73322189e-02f,-3.28105725e-02f,-9.63754281e-02f,-3.73024940e-02f,
+4.47698720e-02f,+1.39006227e-01f,+6.26550764e-02f,+2.56864429e-01f,+1.02937236e-01f,
+1.50859416e-01f,+1.82488114e-01f,-1.36150256e-01f,+1.82913721e-01f,-1.14156231e-01f,
+2.56592363e-01f,+6.59752488e-02f,+2.89018273e-01f,-3.67391482e-02f,-5.61930723e-02f,
-1.70290917e-01f,+2.31344029e-02f,+1.48992270e-01f,+1.56894937e-01f,+1.76817492e-01f,
+5.22590317e-02f,+2.00758874e-02f,+7.92275593e-02f,+1.84863303e-02f,-4.28054154e-01f,
+1.85184833e-02f,-3.37995477e-02f,-1.87924970e-02f,+1.52759045e-01f,+6.89567327e-02f,
-1.20875217e-01f,+3.49422157e-01f,-5.33733480e-02f,+9.54243243e-02f,+8.67464095e-02f,
+2.78799832e-02f,+2.28238747e-01f,-1.72576942e-02f,-1.29799739e-01f,+9.89697203e-02f,
+1.55721277e-01f,-1.07863724e-01f,+4.49908301e-02f,-3.96131128e-02f,+2.72811987e-02f,
-7.95099884e-02f,+2.39621371e-01f,+6.04607761e-02f,+6.76632896e-02f,-3.23632769e-02f,
-8.01257491e-02f,+8.95056203e-02f,+1.84801161e-01f,+1.58943877e-01f,+8.98345001e-03f,
-7.37694055e-02f,+2.04912812e-01f,-8.68693143e-02f,+8.62267241e-02f,-9.75520536e-03f,
+2.86802072e-02f,+1.09826013e-01f,+1.30345315e-01f,-1.10930622e-01f,+2.67604798e-01f,
-9.32281241e-02f,-4.55491431e-02f,-1.26238376e-01f,-2.07632944e-01f,+2.44711965e-01f,
+1.92860216e-01f,+8.98498669e-02f,+1.64301193e-03f,-8.96107331e-02f,+8.93654302e-02f,
+7.09400028e-02f,+3.08524191e-01f,+2.64576405e-01f,+8.35226402e-02f,-8.57694149e-02f,
+4.80262330e-03f,+5.60984723e-02f,-3.23822722e-02f,+6.49473146e-02f,+2.46213749e-03f,
-3.65150929e-03f,+1.01337247e-01f,+9.75056291e-02f,-1.08377896e-01f,+9.66864675e-02f,
+1.04355641e-01f,+3.28354025e-03f,+2.75954247e-01f,-6.96240664e-02f,+2.91996419e-01f,
+1.27467541e-02f,-1.72219574e-02f,-8.42424035e-02f,+1.40251786e-01f,+1.22677281e-01f,
+6.33453354e-02f,-1.51700303e-01f,+1.67403985e-02f,+1.00333527e-01f,-2.73446709e-01f,
-4.37414758e-02f,+6.24203235e-02f,-1.27066791e-01f,-1.49792433e-01f,-1.16565011e-01f,
-5.35193793e-02f,+2.27139160e-01f,+5.83066344e-02f,+7.24555179e-02f,-6.52568862e-02f,
+1.58438124e-02f,+4.42690432e-01f,+2.31172621e-01f,+1.63577974e-01f,+2.54898835e-02f,
+2.35979825e-01f,+4.07851388e-04f,+9.64058116e-02f,+2.66770333e-01f,+3.51033174e-02f,
+1.19884364e-01f,+6.73378408e-02f,+1.77667633e-01f,-3.73902023e-02f,+1.32590001e-02f,
-2.64866278e-02f,+2.55967751e-02f,+1.63140863e-01f,-3.93495988e-03f,+1.22256048e-01f,
+2.74067391e-02f,+6.08092844e-02f,+2.11473599e-01f,+7.61212558e-02f,+2.23449707e-01f,
+2.57053617e-02f,+5.59301637e-02f,-6.65817484e-02f,+1.67013444e-02f,+5.01275621e-02f,
+8.34866464e-02f,+2.04051714e-02f,-1.69061184e-01f,-5.39983995e-02f,+3.62843387e-02f,
+2.09626719e-01f,+2.23476693e-01f,-1.00123785e-01f,+2.74474740e-01f,-6.22418486e-02f,
+9.08474624e-02f,+9.12851002e-03f,+9.68733802e-02f,+5.49688227e-02f,+1.33958772e-01f,
+3.39411274e-02f,+6.66376054e-02f,+2.47226320e-02f,-2.25918844e-01f,-6.24904260e-02f,
+9.13575385e-03f,+5.95279709e-02f,+1.76274821e-01f,+6.59732372e-02f,+1.72530431e-02f,
+3.03358525e-01f,-1.03491820e-01f,+2.02747792e-01f,+9.43722129e-02f,+3.66208367e-02f,
-7.58559555e-02f,-1.31866515e-01f,-9.22999680e-02f,+9.22539383e-02f,-1.07358918e-01f,
+2.11880296e-01f,-1.57767385e-01f,+1.87609524e-01f,+1.23864107e-01f,-2.34475024e-02f,
+8.59064832e-02f,+2.01871455e-01f,-8.40060264e-02f,+1.21549167e-01f,+2.04907537e-01f,
+1.03619717e-01f,-4.58702557e-02f,+1.57744303e-01f,+1.42307386e-01f,+9.35269594e-02f,
-7.07438737e-02f,+2.59785503e-01f,-2.99747318e-01f,+2.16230392e-01f,+3.21892381e-01f,
+6.22808002e-02f,+8.16425011e-02f,+9.34081823e-02f,+2.89204232e-02f,+7.00636432e-02f,
+2.05478072e-01f,-6.03322545e-03f,-1.39676303e-01f,+3.93193103e-02f,+1.02049403e-01f,
-8.91369581e-02f,+2.52688855e-01f,+8.43558311e-02f,+2.35045239e-01f,-1.85459051e-02f,
+5.04213106e-03f,+1.79569930e-01f,+1.76950514e-01f,+1.08753368e-01f,+1.01037681e-01f,
+3.05738837e-01f,+3.53999078e-01f,-4.81113419e-02f,-7.38374442e-02f,-1.40943944e-01f,
-5.83361322e-03f,+1.12781376e-01f,-3.47275287e-01f,-1.02308206e-01f,-9.02421549e-02f,
+2.74558961e-01f,+1.83831483e-01f,-8.82075354e-02f,-4.76704165e-02f,+2.38530431e-02f,
+1.91191956e-01f,+9.23968628e-02f,-5.71744889e-02f,-1.16735823e-01f,+9.44236144e-02f,
+1.27811864e-01f,+1.00239925e-01f,+2.03353576e-02f,+1.04194671e-01f,+1.44471720e-01f,
-1.55868590e-01f,+5.76310828e-02f,-8.95747691e-02f,+1.42691046e-01f,-3.40011120e-01f,
+1.00865819e-01f,+6.05286052e-03f,+1.70931011e-01f,+1.80953413e-01f,+1.90524235e-01f,
+4.16443869e-02f,-2.40499467e-01f,-5.60906678e-02f,-6.77224249e-02f,+1.10743664e-01f,
-4.36546095e-02f,+3.79775763e-02f,+1.02024794e-01f,-3.94592993e-02f,+1.35178745e-01f,
-3.84024647e-03f,+1.13539256e-01f,+1.83876958e-02f,-5.08314511e-03f,-7.69185424e-02f,
+7.52253756e-02f,+4.98600565e-02f,+1.98703427e-02f,+1.99242502e-01f,+2.40500227e-01f,
+1.93952881e-02f,-1.95424661e-01f,+2.30911106e-01f,+1.92961633e-01f,-9.69509855e-02f,
+1.90597385e-01f,-4.37512398e-02f,+1.92911386e-01f,+1.36433944e-01f,-1.52389973e-01f,
-5.95333800e-02f,+2.25062277e-02f,+1.95133924e-01f,+2.74977996e-03f,-1.62065238e-01f,
-2.69810800e-02f,+5.16305529e-02f,+8.38300958e-02f,-1.46514058e-01f,-8.66191536e-02f,
-2.17930734e-01f,-1.05984554e-01f,+2.01863255e-02f,+4.30735573e-03f,+1.09044760e-01f,
+5.11796921e-02f,-7.62293935e-02f,+1.22578219e-01f,+1.46331847e-01f,+1.72482207e-01f,
+5.10772429e-02f,+1.41899079e-01f,+7.47702196e-02f,+1.04285054e-01f,+2.95626640e-01f,
+7.48293549e-02f,+9.75298062e-02f,-2.57128924e-01f,+8.27540010e-02f,+8.37795958e-02f,
+1.01560503e-01f,-4.02789526e-02f,-4.31050248e-02f,+3.78985628e-02f,+3.23851138e-01f,
-3.44465524e-02f,-2.63527930e-01f,+5.65182194e-02f,-1.75149992e-01f,+5.40907621e-01f,
+6.04294799e-02f,+1.53677925e-01f,-2.95135435e-02f,-8.12452566e-03f,+1.37522087e-01f,
+1.69930160e-01f,+6.73437417e-02f,+5.31267002e-02f,+2.29360193e-01f,-2.92691626e-02f,
+4.18374501e-03f,-5.85238151e-02f,-3.32515687e-02f,-6.63962886e-02f,+5.72733805e-02f,
+2.02388600e-01f,+1.24477349e-01f,+1.90305352e-01f,+7.29407221e-02f,+4.55684252e-02f,
+1.73762754e-01f,-1.37696899e-02f,+1.53418183e-01f,+1.74965873e-01f,+9.05851349e-02f,
+2.50277668e-01f,+2.78601229e-01f,+3.90518904e-02f,+4.79615703e-02f,+4.71840538e-02f,
+7.34227942e-03f,+3.39191705e-01f,-7.17195868e-02f,+1.60464138e-01f,+8.04370642e-02f,
+8.99886042e-02f,-1.23510603e-02f,-1.28277943e-01f,+7.90669248e-02f,-3.19357663e-02f,
+2.84492999e-01f,-7.49395713e-02f,+1.07001334e-01f,+9.74700600e-02f,+4.14111875e-02f,
-2.59538423e-02f,+2.25643247e-01f,+1.85013473e-01f,-3.50916050e-02f,+1.66011423e-01f,
+4.51107621e-02f,+2.92214435e-02f,-9.41276643e-03f,+1.44447923e-01f,+1.34724677e-01f,
-4.70870100e-02f,+6.92266598e-02f,-2.45337114e-01f,-1.37915656e-01f,-6.35442361e-02f,
-4.28794213e-02f,-1.06612265e-01f,-7.41152540e-02f,+9.62991565e-02f,-9.47652087e-02f,
+1.89876482e-01f,+2.69219726e-01f,+2.59564251e-01f,+4.92218621e-02f,+1.33457735e-01f,
-4.71153110e-02f,+1.86945572e-01f,+9.17627360e-04f,+1.72419325e-01f,+4.55944287e-03f,
-6.66293949e-02f,+9.57419816e-03f,+1.43252194e-01f,+1.79009840e-01f,+4.55299467e-02f,
+8.87785479e-02f,+1.46281898e-01f,+1.58348799e-01f,+1.00728208e-02f,+7.65748471e-02f,
+9.15254876e-02f,+1.15823962e-01f,+2.17899084e-01f,+1.22132137e-01f,-1.63085833e-02f,
-2.21629962e-02f,-6.43307250e-03f,+1.73253089e-01f,-9.85368937e-02f,+1.10876635e-01f,
-1.64476216e-01f,+2.34082304e-02f,-7.12421313e-02f,+4.18355465e-02f,+2.51315802e-01f,
+3.01613927e-01f,+1.69572741e-01f,-1.09106913e-01f,+1.56700283e-01f,+1.01865575e-01f,
+4.49638516e-01f,+1.10797703e-01f,+1.89571500e-01f,+1.15265459e-01f,+2.66696066e-01f,
-2.71021272e-03f,+2.35971153e-01f,+1.30109228e-02f,-1.11334138e-02f,+3.11925948e-01f,
+4.80763540e-02f,+2.52450913e-01f,-1.85865983e-01f,-2.24122964e-02f,-1.31607056e-01f,
+6.67530000e-02f,-1.54389692e-02f,-1.73646715e-02f,-1.49696544e-01f,-2.01614425e-02f,
+1.41196713e-01f,+1.58200875e-01f,+3.44800413e-01f,+3.16294074e-01f,-1.76210143e-03f,
+6.94115087e-02f,+5.12365475e-02f,+3.34091097e-01f,-4.51970324e-02f,+2.59637445e-01f,
+2.35003307e-01f,+9.90953445e-02f,+1.16797119e-01f,+2.46183783e-01f,+7.33724013e-02f,
-9.77621078e-02f,+1.53242588e-01f,+1.80035681e-01f,+1.39917567e-01f,-1.74714267e-01f,
-5.44344038e-02f,+1.13370858e-01f,+9.41185951e-02f,-6.42736023e-03f,-9.90553349e-02f,
+1.03549540e-01f,+1.45283818e-01f,+8.82663822e-04f,+1.51568666e-01f,+3.09714004e-02f,
+2.97306001e-01f,-4.31806445e-02f,-3.30096148e-02f,+3.11586782e-02f,+7.47901201e-02f,
+9.38979611e-02f,+2.04862803e-02f,+2.73753494e-01f,-1.19253665e-01f,+1.00753911e-01f,
-5.53580560e-02f,-2.87902772e-01f,-1.79208711e-01f,+1.27646148e-01f,+9.72936004e-02f,
+1.29485101e-01f,-5.83590101e-03f,+1.59530386e-01f,+1.12810992e-01f,+2.15660051e-01f,
-9.51830000e-02f,+4.00380511e-03f,+5.41060567e-02f,-6.60819188e-02f,+1.15407579e-01f,
-1.82628974e-01f,+1.26625851e-01f,+7.07202032e-02f,+1.39744654e-01f,-1.12500422e-01f,
+1.34601310e-01f,-7.46473595e-02f,+1.97214827e-01f,-6.21250784e-03f,+4.08104628e-01f,
-2.70301998e-01f,+6.85802326e-02f,-1.61372479e-02f,+8.61562565e-02f,+1.86196551e-01f,
-3.08004320e-01f,+1.69073254e-01f,+2.12288350e-01f,+8.93179551e-02f,-2.04146877e-01f,
+1.82432339e-01f,-1.10892229e-01f,+1.89773917e-01f,-2.14474276e-01f,+1.64435044e-01f,
-3.57129090e-02f,-1.21865207e-02f,+7.90511891e-02f,+4.12880592e-02f,+2.14240700e-01f,
+1.63232669e-01f,+2.10956223e-02f,+3.36845294e-02f,+5.08823954e-02f,+1.65768117e-01f,
+4.93314229e-02f,+8.78374130e-02f,-1.39997527e-01f,+2.27717832e-02f,+2.02786773e-01f,
+1.51321888e-01f,-1.74784232e-02f,+1.47050738e-01f,-8.83775726e-02f,-1.13742501e-01f,
+7.40458369e-02f,-5.40792849e-03f,-6.77876249e-02f,+2.27746844e-01f,+1.01765126e-01f,
+1.18146054e-01f,+2.18004122e-01f,-1.35226338e-03f,+1.66605130e-01f,+3.29243243e-01f,
+2.45421957e-02f,-5.29802928e-04f,-1.68723717e-01f,-7.80873075e-02f,-3.28110904e-02f,
-1.20541872e-02f,-7.58350417e-02f,+8.49885941e-02f,-5.07947952e-02f,-1.64708629e-01f,
-1.42592594e-01f,+3.18376124e-02f,-7.12542459e-02f,-2.52172679e-01f,-5.03117731e-03f,
+1.11705601e-01f,+1.56807572e-01f,+2.52043419e-02f,+2.33903706e-01f,-1.11684397e-01f,
-5.71272522e-02f,+8.44051093e-02f,+6.82998588e-03f,+1.62361369e-01f,-1.61694899e-01f,
+1.95136219e-02f,+1.04412280e-01f,+2.59692878e-01f,+2.81854302e-01f,+8.90230238e-02f,
-1.71056855e-02f,+7.73104578e-02f,+2.20964432e-01f,-3.25829834e-02f,+1.00787699e-01f,
-5.32679148e-02f,+1.29985511e-01f,-8.12204108e-02f,+8.38520154e-02f,+1.45370424e-01f,
-1.15038427e-02f,+2.53788024e-01f,+1.15861826e-01f,-3.04907653e-02f,+3.10724318e-01f,
-1.12127654e-01f,+2.44075224e-01f,+8.92246142e-02f,+1.17992699e-01f,+8.04856718e-02f,
-2.02741906e-01f,+1.86166838e-01f,+8.79638791e-02f,-1.82958171e-01f,+6.92679733e-02f,
+2.84765422e-01f,+5.03631271e-02f,-8.56846720e-02f,+1.04936466e-01f,-3.48035872e-01f,
+2.93088973e-01f,+2.75837798e-02f,-1.90668225e-01f,+4.56950553e-02f,-1.99815184e-02f,
-5.01481034e-02f,+1.47511914e-01f,+2.16360256e-01f,+8.88657942e-02f,+7.92226791e-02f,
+7.07645714e-02f,-3.42219658e-02f,+9.10249799e-02f,+1.38365209e-01f,-1.35744154e-01f,
+1.51708707e-01f,-2.14809589e-02f,+2.24493161e-01f,+1.79566428e-01f,+1.51800096e-01f,
+9.22352895e-02f,+1.19381092e-01f,+7.52778128e-02f,+1.23774111e-01f,+7.41184503e-02f,
-1.00153238e-01f,+7.66361505e-02f,-5.12151085e-02f,+7.89275765e-02f,+1.68026894e-01f,
+1.20009877e-01f,+1.20131090e-01f,+2.30572388e-01f,+2.60656595e-01f,+1.73555955e-01f,
+1.70577392e-01f,+1.76047519e-01f,+4.34996821e-02f,-5.24607338e-02f,-2.92178169e-02f,
-7.69555056e-03f,+1.42893925e-01f,+3.16868313e-02f,+3.55147906e-02f,+6.35465756e-02f,
+3.96078564e-02f,+2.75450915e-01f,+2.01272547e-01f,+1.19259477e-01f,+8.21727067e-02f,
+6.79224283e-02f,+7.79414773e-02f,-1.41839594e-01f,-1.19413361e-01f,+1.27290234e-01f,
-3.10824186e-01f,+1.66528121e-01f,+1.21881232e-01f,+1.69426918e-01f,-1.49183303e-01f,
+6.44964799e-02f,+8.20729434e-02f,+2.37465929e-02f,-1.75620943e-01f,+2.75613636e-01f,
-5.64122349e-02f,+7.23389462e-02f,-1.81799620e-01f,+2.12984219e-01f,+1.58692463e-04f,
+9.90846008e-02f,+2.04775140e-01f,+1.20230108e-01f,+8.70137215e-02f,-3.61617282e-02f,
+4.22496587e-01f,+1.39802182e-02f,+9.30243582e-02f,+5.06827235e-02f,+3.84656228e-02f,
+1.17470101e-01f,+2.08823338e-01f,+2.76881550e-02f,-4.52911481e-02f,+2.29218841e-01f,
+1.86019719e-01f,+5.49309105e-02f,-6.63568377e-02f,+1.71922907e-01f,-6.50077909e-02f,
-1.14275634e-01f,+6.39410764e-02f,+1.85018569e-01f,+8.30704719e-02f,+6.39232770e-02f,
+1.24058254e-01f,-1.35364920e-01f,+1.68968111e-01f,+1.67124435e-01f,+1.04886934e-01f,
+2.77682573e-01f,-5.49300238e-02f,+1.33034855e-01f,+3.72586958e-02f,+2.99781747e-03f,
+2.09269345e-01f,+2.23259643e-01f,+7.81675354e-02f,+1.06842071e-01f,+2.41745740e-01f,
+1.02373697e-01f,+1.89325690e-01f,+2.27484927e-01f,+1.25860766e-01f,+2.33789727e-01f,
-7.30331019e-02f,+7.38109574e-02f,+8.55354294e-02f,-7.96921849e-02f,+8.64885449e-02f,
-1.36101972e-02f,+4.05709930e-02f,+2.34147429e-01f,+1.60453275e-01f,+3.64353396e-02f,
+1.29116639e-01f,-1.62008144e-02f,+3.89540941e-02f,+2.23543867e-01f,-7.60747641e-02f,
-5.91156036e-02f,+8.06856975e-02f,-6.95421770e-02f,+1.10286094e-01f,+9.53888427e-03f,
+8.44732970e-02f,+8.11647698e-02f,+6.38185954e-03f,+4.89670709e-02f,+5.58167472e-02f,
-4.99922708e-02f,-5.95959835e-02f,+1.41652912e-01f,+1.05072364e-01f,+5.12676388e-02f,
+1.60652876e-01f,-4.16279510e-02f,-1.10614812e-03f,+7.82876164e-02f,+8.93714055e-02f,
+1.18934460e-01f,-1.09884508e-01f,+5.16627543e-02f,-9.94710773e-02f,+7.25373402e-02f,
+3.99844974e-01f,+1.90216184e-01f,-4.91843633e-02f,+8.00180733e-02f,+1.49816155e-01f,
-3.59104574e-02f,+1.36352047e-01f,+1.77193135e-01f,+1.66535646e-01f,-1.37121290e-01f,
+6.65048882e-03f,+1.87595531e-01f,+8.88613015e-02f,+1.14911810e-01f,-3.29778902e-02f,
+2.13830531e-01f,+9.08704549e-02f,-3.57769430e-02f,+1.78226948e-01f,+8.21264014e-02f,
-1.45687480e-02f,-3.27988267e-02f,+1.91948693e-02f,+6.31868616e-02f,-2.84887981e-02f,
+1.25314012e-01f,-1.97867587e-01f,+9.63754952e-02f,+1.77432761e-01f,-2.07151100e-02f,
+8.28999653e-02f,+2.86459148e-01f,+5.77135421e-02f,+1.57392010e-01f,+1.61185279e-01f,
-1.50335431e-02f,-9.59219038e-02f,+1.91611145e-02f,+8.66049826e-02f,-1.42142713e-01f,
-8.99303481e-02f,+9.03117657e-02f,+2.66986471e-02f,+8.12776014e-02f,-7.31174573e-02f,
+1.23101279e-01f,-7.88577422e-02f,+3.47568467e-02f,+1.50438789e-02f,+1.30374208e-01f,
-7.73048848e-02f,+2.59622429e-02f,+3.17655206e-01f,-9.24344733e-03f,+1.65805206e-01f,
+1.51719943e-01f,+6.14551548e-03f,-9.26118344e-03f,+7.91051909e-02f,+8.32060575e-02f,
+1.30630553e-01f,+5.52369282e-02f,+3.79704893e-01f,-7.70506915e-03f,-1.44274488e-01f,
+2.81118780e-01f,-2.55708128e-01f,-5.48773184e-02f,+5.82895316e-02f,-3.21358830e-01f,
+2.74013817e-01f,+3.59847903e-01f,+3.30836982e-01f,+4.27632816e-02f,+2.79457092e-01f,
+1.10132843e-01f,+5.45924678e-02f,+2.99829185e-01f,-3.10530346e-02f,-6.84956983e-02f,
+1.21989861e-01f,+1.61210716e-01f,-1.40846550e-01f,-6.27109483e-02f,-4.44994047e-02f,
+9.70194042e-02f,+1.10621147e-01f,+9.14933383e-02f,+8.81731287e-02f,+5.74636133e-03f,
-9.32083502e-02f,-2.04999954e-01f,+9.20988470e-02f,-1.04663186e-02f,+7.81076727e-03f,
-7.41625503e-02f,-1.17611811e-01f,+8.15667659e-02f,-1.60296828e-01f,-6.86692372e-02f,
+1.74350329e-02f,+3.75190191e-02f,-1.25587344e-01f,+8.38067532e-02f,-3.14684138e-02f,
+5.41741326e-02f,+1.50221856e-02f,-7.33242258e-02f,+8.42487365e-02f,-1.69479549e-01f,
+1.30245253e-01f,+6.63265362e-02f,+2.33403370e-02f,+7.76534006e-02f,+5.77044263e-02f,
-2.16849465e-02f,+1.46418452e-01f,-8.30530524e-02f,-3.85170430e-02f,-1.34606838e-01f,
-1.68766335e-01f,+3.75984535e-02f,-4.05161232e-02f,-3.12714353e-02f,+3.24417427e-02f,
+6.12648316e-02f,+3.48234892e-01f,+1.49180624e-03f,-1.34837240e-01f,+1.79511346e-02f,
+1.27420072e-02f,-1.52824014e-01f,-1.38174817e-01f,+2.66621206e-02f,-1.41820638e-02f,
-4.66692680e-03f,+1.44384637e-01f,-2.79670563e-02f,+6.69067800e-02f,+1.82102323e-01f,
+1.58195212e-01f,+2.23531216e-01f,+2.25603469e-02f,-9.88936275e-02f,+6.32519200e-02f,
+8.35139975e-02f,-5.80656864e-02f,-1.51846576e-02f,+5.58365211e-02f,-2.30312943e-01f,
+2.17613429e-01f,+1.59709603e-02f,+2.05453649e-01f,+3.47701423e-02f,-4.06716131e-02f,
+1.49734244e-01f,+1.31742265e-02f,-3.52973416e-02f,-8.79879575e-03f,+2.65396208e-01f,
+1.65361390e-01f,+8.37887749e-02f,-6.64199367e-02f,-1.28438309e-01f,+4.26545776e-02f,
+2.52298951e-01f,-4.80124392e-02f,+4.43510339e-02f,-5.73850982e-02f,+2.19537273e-01f,
-5.58621846e-02f,-1.92596987e-01f,+9.52101275e-02f,-4.45360020e-02f,-1.11990152e-02f,
+6.41293749e-02f,-5.53171486e-02f,+1.65030405e-01f,+1.99348658e-01f,+9.97531861e-02f,
+3.08879302e-03f,-2.54131407e-02f,-7.00194240e-02f,+2.74207890e-02f,+2.03604639e-01f,
-2.90014520e-02f,+1.15474686e-01f,+1.67718858e-01f,-2.23761395e-01f,+4.41200379e-03f,
+7.39912316e-02f,+3.05216834e-02f,+1.55479163e-01f,-6.39902754e-03f,-1.82817038e-02f,
-5.82134835e-02f,+2.56461855e-02f,+3.80370587e-01f,+9.86886472e-02f,+5.51526435e-02f,
-6.06069379e-02f,-9.27750841e-02f,+1.30590886e-01f,-1.32059932e-01f,+1.01131774e-01f,
-2.63772737e-02f,-1.26148313e-01f,+6.73813671e-02f,+8.52931589e-02f,+3.22770253e-02f,
-1.38673380e-01f,+1.97308749e-01f,-2.08217558e-02f,+2.48454511e-02f,+1.13519371e-01f,
+1.34516343e-01f,+1.90367654e-01f,-3.53409816e-03f,+1.26692891e-01f,+1.88996673e-01f,
-8.30280036e-03f,-1.09987920e-02f,+4.00703028e-02f,+8.23164955e-02f,+2.20668241e-01f,
+8.50110352e-02f,-4.50359099e-02f,+1.99432492e-01f,-5.47865219e-02f,+1.83380187e-01f,
-6.34827614e-02f,+1.75550476e-01f,+3.10684025e-01f,+5.71325757e-02f,+1.56411946e-01f,
+1.22614644e-01f,+1.08112156e-01f,+2.50085276e-02f,+3.17658707e-02f,-1.86289430e-01f,
-3.62231284e-02f,+1.03916697e-01f,+2.34227777e-01f,+8.51179957e-02f,+7.04302043e-02f,
+2.18856886e-01f,+2.12069049e-01f,+1.80822089e-01f,-1.23987058e-02f,+2.70880926e-02f,
+5.93922660e-02f,+9.91019681e-02f,-2.52610277e-02f,+7.69825205e-02f,-2.55666822e-01f,
-3.28173712e-02f,+1.84614524e-01f,+1.17326729e-01f,+1.09789208e-01f,-7.99258947e-02f,
+1.02492273e-01f,+1.29070833e-01f,+1.30390972e-01f,-1.52533472e-01f,+1.46133751e-01f,
+2.05602363e-01f,+2.12308213e-01f,-5.09175509e-02f,+1.10644652e-02f,-4.16547544e-02f,
+1.11617371e-01f,+1.79099329e-02f,-1.65224094e-02f,-1.24528192e-01f,-3.35444734e-02f,
-5.96694164e-02f,-1.60238996e-01f,+7.18351752e-02f,+3.05443525e-01f,+4.51781275e-03f,
+1.80040479e-01f,-4.45646048e-02f,+4.28431593e-02f,+1.26788467e-01f,+3.10885515e-02f,
+6.80941641e-02f,-1.35351822e-01f,+4.70712557e-02f,-7.64384419e-02f,-5.40627912e-02f,
+3.02827097e-02f,-1.06047597e-02f,-1.41295241e-02f,-8.70103687e-02f,-6.56377003e-02f,
+2.01555461e-01f,+1.66274518e-01f,+3.23120177e-01f,-1.47481039e-01f,+2.01428548e-01f,
-3.33687216e-02f,+9.22795758e-02f,-2.00023111e-02f,+3.77804153e-02f,+1.40286475e-01f,
+8.92661810e-02f,-8.82957280e-02f,-1.94313049e-01f,-2.11576745e-02f,+1.59621134e-01f,
-2.69919075e-02f,+8.96422938e-02f,+8.32849294e-02f,+7.54413530e-02f,-2.77511068e-02f,
+1.11679055e-01f,+4.11318876e-02f,+6.02889322e-02f,-7.69121349e-02f,+1.01244949e-01f,
+1.11578867e-01f,+7.71993548e-02f,+1.75004136e-02f,-1.70070335e-01f,-7.53978193e-02f,
+1.44738376e-01f,+1.99528769e-01f,+3.68710607e-02f,+5.56467772e-02f,+8.87384117e-02f,
+2.28128750e-02f,+2.54114181e-01f,+2.21051157e-01f,+1.39317475e-02f,+8.06856155e-02f,
+6.25908300e-02f,-5.32900952e-02f,-1.29842281e-01f,+1.46601483e-01f,+8.12398121e-02f,
+2.37486988e-01f,+2.23108202e-01f,+6.77732378e-02f,+4.58784997e-02f,+1.00932784e-01f,
+1.81632899e-02f,+9.44178700e-02f,-1.96607877e-02f,-2.01772228e-02f,+1.29183263e-01f,
+1.70735940e-01f,-1.42719686e-01f,-1.36149442e-03f,+3.29966210e-02f,-2.63797920e-02f,
+1.56811088e-01f,+1.00101985e-01f,-7.16215745e-02f,+2.15352997e-01f,+4.24781023e-03f,
+1.88935678e-02f,+1.57325432e-01f,-4.80017923e-02f,+1.73633635e-01f,+5.84211685e-02f,
+4.21304163e-03f,-3.28601012e-03f,+1.85140580e-01f,-1.90608762e-02f,+2.49442309e-01f,
+2.38777891e-01f,-1.45940095e-01f,+6.88171089e-02f,+1.15326397e-01f,+1.74433321e-01f,
+1.55271545e-01f,+2.32503936e-02f,+1.08683527e-01f,+1.71812013e-01f,+2.32447177e-01f,
+4.01507765e-02f,+3.08641732e-01f,+1.03286624e-01f,+1.75217062e-01f,-3.44152823e-02f,
+4.04581837e-02f,+1.15957715e-01f,+3.29314500e-01f,-1.36472717e-01f,+1.56226054e-01f,
+1.10703900e-01f,-2.02720296e-02f,+1.53738305e-01f,+1.97659224e-01f,-1.26555024e-04f,
+1.15659758e-01f,+1.20161861e-01f,+2.87704080e-01f,-6.91462168e-03f,+1.97278291e-01f,
+5.44952601e-02f,+5.32891527e-02f,-1.68198362e-01f,-5.24166375e-02f,-2.56747723e-01f,
+6.27643988e-02f,+1.53876185e-01f,+1.03827693e-01f,-1.23238973e-01f,+6.29809573e-02f,
+1.22530378e-01f,-3.77413770e-03f,-1.69182256e-01f,-1.62542939e-01f,+1.32469505e-01f,
+1.66752353e-01f,-6.25655428e-02f,-3.41958664e-02f,-4.08635810e-02f,+1.62194818e-02f,
+3.58676352e-02f,+9.18050259e-02f,+2.17943892e-01f,+1.36883929e-01f,+1.16902150e-01f,
+1.17254861e-01f,+8.65406767e-02f,+1.74515992e-02f,-1.41943488e-02f,+9.39060450e-02f,
+2.47162804e-02f,+9.95573699e-02f,+1.40937716e-01f,+2.45454267e-01f,+1.23751305e-01f,
+3.03260565e-01f,+1.71615481e-01f,+6.34579137e-02f,-7.13122040e-02f,+1.87921613e-01f,
+1.15204133e-01f,+1.15974583e-01f,+6.80293962e-02f,+1.11931719e-01f,+2.45513711e-02f,
-3.72637436e-03f,+1.56158255e-02f,-1.70573086e-01f,+2.07559928e-01f,+1.24054484e-01f,
+1.03018433e-01f,+1.56628147e-01f,+2.61733048e-02f,+3.67234975e-01f,+3.18784714e-01f,
+5.31778276e-01f,+7.38714337e-02f,+5.64894602e-02f,+4.29395065e-02f,+7.07286177e-03f,
+4.59046625e-02f,+7.75940269e-02f,+9.87458900e-02f,-4.32274258e-03f,-1.70589238e-01f,
+9.95229036e-02f,-4.85265329e-02f,-7.32555017e-02f,+1.28922567e-01f,-1.13988146e-01f,
+5.21563180e-02f,+5.40221483e-02f,-7.47438371e-02f,+9.91326888e-05f,-8.10363144e-02f,
+6.09560460e-02f,+7.32895136e-02f,+9.82434154e-02f,-4.52931300e-02f,+1.00709870e-01f,
-8.58799182e-03f,+1.51876663e-03f,-9.90386456e-02f,+1.02876551e-01f,-3.70369926e-02f,
+1.09493367e-01f,-9.49689001e-02f,+1.14101321e-01f,-2.80032039e-01f,-5.95798753e-02f,
+5.80944903e-02f,+1.27014473e-01f,+1.21487223e-01f,+1.58081442e-01f,-7.91041367e-03f,
+8.45782682e-02f,-1.06265442e-02f,+9.55254734e-02f,+3.29075307e-02f,+7.66285211e-02f,
-1.68039486e-01f,-2.06655756e-01f,+1.33249328e-01f,+9.53008235e-02f,-9.15564075e-02f,
+4.04369198e-02f,-7.72195458e-02f,+6.67040721e-02f,+1.67926490e-01f,+5.52042350e-02f,
+1.52059302e-01f,+2.39028364e-01f,+1.23333827e-01f,+9.49653536e-02f,+9.98341292e-02f,
+1.81930974e-01f,-4.20437567e-02f,-4.80286628e-02f,-2.92593122e-01f,+1.29004687e-01f,
-7.90543854e-02f,-5.00061736e-02f,+1.27225682e-01f,+2.52754331e-01f,+3.87040637e-02f,
+9.90779996e-02f,-5.28892390e-02f,+4.88309339e-02f,+1.15564302e-01f,-4.14359309e-02f,
-3.36104631e-02f,-6.89836666e-02f,+2.64738083e-01f,-1.01400884e-02f,+6.93117380e-02f,
+9.61999744e-02f,+5.36281243e-02f,-6.96635321e-02f,+1.77625686e-01f,+3.22141126e-02f,
+2.58744150e-01f,+4.64965776e-02f,+1.51190132e-01f,+1.67296171e-01f,-1.07367396e-01f,
-4.93101776e-03f,+2.52316594e-01f,+1.88868895e-01f,-1.05671426e-02f,+8.41627643e-02f,
-2.72025187e-02f,+6.45137876e-02f,+2.45713979e-01f,+4.24593221e-03f,+1.43080041e-01f,
+1.21441863e-01f,+1.73209891e-01f,+7.10437447e-02f,-6.94394633e-02f,+8.65951926e-03f,
+2.41990879e-01f,+2.87856460e-01f,-7.21887723e-02f,-5.31530986e-03f,+6.92110509e-02f,
+3.54780741e-02f,-5.37132798e-03f,+2.77881444e-01f,+1.33358374e-01f,-3.17490101e-02f,
-1.91904232e-02f,-1.35189489e-01f,-8.38368982e-02f,+2.19340622e-01f,+7.45963901e-02f,
+2.01339647e-02f,+1.44631445e-01f,-2.81798784e-02f,-3.40344384e-02f,+1.81039467e-01f,
+1.24928325e-01f,+1.70001462e-01f,-1.06971428e-01f,-2.55809873e-02f,-2.91629404e-01f,
+1.80152297e-01f,+1.94229167e-02f,-9.57332477e-02f,-5.40484581e-03f,-5.60688712e-02f,
+1.44444004e-01f,+8.70184973e-02f,+4.88447994e-02f,+2.50491530e-01f,+1.84690058e-01f,
+6.88884705e-02f,+5.25623560e-02f,-3.28582600e-02f,+1.66864365e-01f,+1.47551358e-01f,
-1.31059960e-02f,+1.05026804e-01f,+9.68913659e-02f,+1.67499006e-01f,-3.88412774e-02f,
+9.01988298e-02f,+8.15063566e-02f,+2.37058420e-02f,-2.45542526e-02f,+1.07082576e-01f,
+6.41520917e-02f,+3.94305028e-02f,+7.40547925e-02f,+1.11647032e-01f,+1.82621509e-01f,
+1.24085546e-01f,-6.63084388e-02f,+1.44541278e-01f,+2.02759922e-01f,+8.65452960e-02f,
+1.17025748e-01f,-2.17347056e-01f,+1.39104873e-01f,+1.82852104e-01f,-1.92517459e-01f,
-6.39593676e-02f,+5.39713725e-02f,+1.96580857e-01f,+1.66115060e-01f,+2.05344811e-01f,
-2.77532697e-01f,-5.73411472e-02f,+4.42466177e-02f,+9.88453031e-02f,-3.83292064e-02f,
+2.43991420e-01f,+5.49300238e-02f,+2.68496573e-02f,+9.85584036e-02f,+5.50073124e-02f,
-2.61916071e-01f,-6.80172890e-02f,-1.55100793e-01f,+3.10130008e-02f,+6.84939250e-02f,
-1.51969213e-02f,+1.03368446e-01f,+1.63828954e-01f,+1.55936152e-01f,+1.76568568e-01f,
-3.46957967e-02f,-2.03848742e-02f,+8.05242285e-02f,+2.39557311e-01f,+4.37822975e-02f,
+6.39195666e-02f,+1.06455170e-01f,+1.24664970e-01f,+7.99264312e-02f,+1.01092927e-01f,
+1.16500534e-01f,+1.03859883e-02f,+8.26299414e-02f,+1.60586566e-01f,-9.40859690e-02f,
-5.29225767e-02f,+1.40707001e-01f,+3.84395160e-02f,+4.56774421e-02f,+7.29229208e-03f,
-1.54412344e-01f,+9.96862799e-02f,+1.33106887e-01f,+2.37497836e-02f,+1.97163150e-01f,
+6.21441333e-03f,+1.99223831e-01f,+1.82390988e-01f,-2.41908096e-02f,-1.19672447e-01f,
+1.96151718e-01f,+2.49508619e-01f,-1.99647844e-01f,-3.95389386e-02f,-7.21867308e-02f,
+2.88548488e-02f,+9.07911267e-03f,+7.57126734e-02f,+1.18458241e-01f,+5.09488806e-02f,
-6.03221431e-02f,+7.08000734e-02f,-1.05566405e-01f,+1.75754018e-02f,+1.32562499e-02f,
+7.16504902e-02f,+3.84941787e-01f,+3.93854380e-02f,+1.29262328e-01f,+3.22825402e-01f,
+2.25851581e-01f,+4.34578247e-02f,-1.30269215e-01f,+1.09199602e-02f,+1.20297268e-01f,
-7.39671960e-02f,+7.93324709e-02f,+2.72410095e-01f,+1.43197820e-01f,-1.59507822e-02f,
+2.21735060e-01f,+2.29711775e-02f,+1.90920636e-01f,+1.46579901e-02f,+3.29779834e-02f,
+3.16454530e-01f,-3.09925843e-02f,+8.98297206e-02f,+1.52649388e-01f,-2.24144727e-01f,
+9.72692743e-02f,+1.46951795e-01f,+9.24673155e-02f,+2.02491097e-02f,-2.25856365e-03f,
+1.85333624e-01f,+1.32346645e-01f,+4.62204404e-02f,+5.73993661e-02f,+9.09747854e-02f,
+3.38251106e-02f,-2.23343782e-02f,+6.99774250e-02f,-7.94850662e-02f,+2.79957019e-02f,
+5.68031706e-02f,+2.16972992e-01f,+6.13267347e-03f,+1.45297036e-01f,+2.06057742e-01f,
-4.94538508e-02f,+4.85371873e-02f,+1.07560575e-01f,-6.56680614e-02f,+7.18342215e-02f,
+5.31430691e-02f,+1.84231400e-01f,+3.17519270e-02f,+1.21325955e-01f,-5.00587411e-02f,
-2.09848713e-02f,+4.69151661e-02f,+2.39758119e-01f,-1.32552872e-03f,-9.69573706e-02f,
-9.46320221e-02f,+2.17610434e-01f,-4.48730867e-03f,-1.48894385e-01f,+9.33241621e-02f,
-2.62348384e-01f,-1.35272801e-01f,+6.14362434e-02f,-1.16887018e-01f,-1.03121817e-01f,
-1.03550619e-02f,-1.52304932e-01f,+1.43425092e-01f,+1.01658344e-01f,+1.51315928e-01f,
-4.42198198e-03f,+1.55765221e-01f,-1.99393973e-01f,+1.91017941e-01f,+5.85683435e-02f,
+7.04848617e-02f,-1.21971294e-01f,-8.23036656e-02f,+1.41096320e-02f,+1.69683862e-02f,
+4.83474955e-02f,-2.86568515e-02f,-1.07707664e-01f,-1.77963346e-01f,+3.83311421e-01f,
+7.06565976e-02f,+4.22810800e-02f,-8.80403146e-02f,+1.49762556e-01f,-9.64718014e-02f,
+1.20922387e-01f,+7.15231225e-02f,+1.71315789e-01f,+1.46144882e-01f,+1.55059785e-01f,
+1.41280312e-02f,+1.77147776e-01f,+2.10192174e-01f,-5.71571440e-02f,+7.91047886e-02f,
+7.61577487e-02f,+6.52930066e-02f,+2.60222673e-01f,-9.41887647e-02f,-9.89798382e-02f,
+1.72036067e-01f,+1.00367963e-01f,+9.65449810e-02f,-1.93689559e-02f,-4.25765570e-03f,
-7.09112138e-02f,+1.37851089e-01f,+6.69049919e-02f,+1.49953991e-01f,-7.58889690e-02f,
-2.93350369e-02f,+1.06143527e-01f,+1.49527282e-01f,-6.62802011e-02f,-9.85881910e-02f,
+9.54984054e-02f,+1.37679055e-01f,-2.90786778e-03f,-8.80571827e-02f,-9.40116718e-02f,
+3.93806666e-01f,+7.46420845e-02f,-7.30021819e-02f,+1.40059844e-01f,-3.15656960e-02f,
+1.16640761e-01f,+2.16820184e-02f,+8.43623281e-02f,+8.28008428e-02f,-2.24590302e-03f,
-5.66876009e-02f,+7.68554892e-05f,+9.30285752e-02f,+1.53271854e-01f,-5.10950107e-03f,
+1.18710145e-01f,+1.43577754e-01f,-1.87133044e-01f,+6.66685179e-02f,+1.94481581e-01f,
+2.14914277e-01f,+1.29985169e-01f,+8.50223750e-02f,+5.04349358e-02f,+1.90264016e-01f,
+1.86272383e-01f,+7.01483190e-02f,+1.92372322e-01f,+1.27078801e-01f,+2.07433745e-01f,
+1.71294078e-01f,-9.22953486e-02f,+6.98258430e-02f,+3.08157653e-01f,+9.33870859e-03f,
-2.75755813e-03f,+4.00012285e-02f,+9.56371352e-02f,+9.63620618e-02f,+3.00617516e-02f,
+4.02926169e-02f,-8.56364295e-02f,-2.81750970e-02f,+1.29854992e-01f,+1.13030761e-01f,
-7.22541614e-03f,+2.25937709e-01f,+1.90042600e-01f,+3.87240425e-02f,+5.89783490e-02f,
+6.94647804e-02f,+1.58085197e-01f,-4.92022187e-02f,-1.37847755e-02f,-2.68657766e-02f,
-4.57670912e-02f,-2.07541995e-02f,+1.08368829e-01f,+1.43799260e-02f,-7.29317665e-02f,
-5.43160290e-02f,+9.89868343e-02f,+1.66373670e-01f,+2.04456262e-02f,-3.00306967e-03f,
+1.16336279e-01f,+2.59060442e-01f,-7.49207586e-02f,+3.45013477e-02f,-2.61308458e-02f,
-9.28487629e-02f,+4.20170687e-02f,+6.35346537e-03f,+1.81127220e-01f,+1.47522435e-01f,
+6.14213720e-02f,+3.89827043e-02f,+1.25657275e-01f,-1.64790414e-02f,+1.24088868e-01f,
-1.69084221e-02f,+9.06754807e-02f,+1.43704489e-01f,-1.27004413e-02f,+1.74216926e-01f,
+1.33724418e-02f,+1.69802010e-01f,+8.91003013e-02f,-1.74513519e-01f,+1.57621503e-02f,
+1.59576252e-01f,+7.24357218e-02f,-1.24816168e-02f,-6.87031224e-02f,-1.51055157e-02f,
+8.91993493e-02f,-8.72041285e-03f,+2.45956015e-02f,+1.76608339e-02f,+1.40696809e-01f,
+3.74261923e-02f,+2.48353273e-01f,+9.63732973e-02f,+9.94384736e-02f,+7.95694515e-02f,
+3.10312714e-02f,-4.16122973e-02f,+1.53321683e-01f,-3.53452861e-02f,-4.06631939e-02f,
+6.85314909e-02f,-1.91816002e-01f,+2.30741743e-02f,+5.32725826e-02f,-8.96009654e-02f,
+1.62281826e-01f,+5.04970141e-02f,+1.44497439e-01f,-8.74089077e-03f,-5.80840111e-02f,
+1.08514272e-01f,+1.75903551e-02f,+3.13429952e-01f,+1.07502438e-01f,+1.16554024e-02f,
-4.13434431e-02f,-2.05354705e-01f,+1.30517185e-01f,+2.66418345e-02f,+2.17556894e-01f,
+3.52800749e-02f,+1.21768996e-01f,+2.28832170e-01f,+1.35443181e-01f,-5.82037773e-03f,
+6.12816811e-02f,-2.70944554e-02f,+1.85782388e-02f,-2.33376920e-02f,+1.63074180e-01f,
+2.29348630e-01f,+1.33494571e-01f,+2.40893215e-01f,-7.24174380e-02f,+6.18373975e-02f,
+1.08326286e-01f,+5.49268583e-03f,-1.19674087e-01f,+7.96456635e-03f,+2.47328281e-02f,
+3.83739993e-02f,+8.10850933e-02f,+1.73458368e-01f,+7.81545490e-02f,-1.00692876e-01f,
+2.23830476e-01f,-2.60520399e-01f,+1.02391399e-01f,+3.65997516e-02f,+1.08609378e-01f,
-2.69195795e-01f,-1.21289290e-01f,+1.00773066e-01f,+2.28049740e-01f,-7.93900490e-02f,
+4.93444324e-01f,+2.41531990e-03f,+1.19612642e-01f,+1.10000424e-01f,+7.59858489e-02f,
+1.02586165e-01f,-9.22749657e-03f,+5.62532768e-02f,-1.02662377e-01f,+1.51670784e-01f,
-1.09255821e-01f,+3.51996794e-02f,+2.39073023e-01f,-6.04037642e-02f,+6.02894686e-02f,
-8.43590274e-02f,+2.58913368e-01f,+1.26375780e-01f,-4.80270088e-02f,+4.77044545e-02f,
+2.22701617e-02f,-6.22348674e-02f,+9.17442515e-02f,-6.62670610e-03f,+1.34854138e-01f,
-1.49791446e-02f,-1.61750078e-01f,+2.00037798e-03f,-5.91159333e-03f,-1.39662892e-01f,
-2.52694683e-03f,-8.00992548e-02f,+3.49692069e-02f,-1.24588728e-01f,-6.46769181e-02f,
+3.44170444e-02f,-2.54855137e-02f,+1.98116526e-01f,+2.13652551e-02f,+1.16998009e-01f,
+8.01498592e-02f,+5.82955964e-02f,-8.72191936e-02f,-5.88246696e-02f,+6.79574162e-02f,
+9.61210057e-02f,+1.58801466e-01f,+1.12129629e-01f,+1.58885662e-02f,-7.92054757e-02f,
+1.72237024e-01f,+3.52685936e-02f,+6.24660142e-02f,+3.22923437e-02f,+2.82537937e-01f,
+1.71584576e-01f,-8.70139375e-02f,+7.35800415e-02f,-7.82147795e-02f,-6.45785108e-02f,
-5.31706400e-02f,+1.82708099e-01f,+1.93325281e-01f,+1.33487806e-01f,+1.22992367e-01f,
+7.35876635e-02f,+1.00770779e-01f,+2.52215743e-01f,+1.05805531e-01f,-4.99940738e-02f,
+6.17641881e-02f,+2.28764936e-01f,+2.77438670e-01f,-4.05075252e-02f,+1.82677701e-01f,
+2.22922623e-01f,+1.15086623e-01f,-9.52308401e-02f,-1.52753759e-02f,+2.02150166e-01f,
-4.92788777e-02f,+9.13409924e-04f,+7.93681666e-02f,+2.51850367e-01f,-6.71659969e-03f,
+9.44596678e-02f,+1.06727511e-01f,+1.36374176e-01f,+3.30176726e-02f,-1.78175732e-01f,
+5.14482670e-02f,+9.41993296e-02f,+1.42312318e-01f,+2.99269140e-01f,+1.78359136e-01f,
+3.86561453e-02f,+9.74258780e-02f,-1.65842056e-01f,+2.24180281e-01f,+1.58639610e-01f,
-6.18073568e-02f,+6.51841760e-02f,+1.48683637e-01f,-5.86458780e-02f,+1.22203350e-01f,
+1.29108384e-01f,+1.88440774e-02f,+6.82363063e-02f,-1.32906556e-01f,+1.63912103e-01f,
+8.32031220e-02f,+2.13962838e-01f,+9.78829712e-02f,+2.45815605e-01f,+1.08440276e-02f,
+1.55451104e-01f,-5.45492172e-02f,-4.08942476e-02f,+2.65981495e-01f,+1.37522474e-01f,
+8.33452120e-02f,+2.95786977e-01f,+9.71671417e-02f,+1.62815765e-01f,-1.48165390e-01f,
+3.50675993e-02f,-8.42902735e-02f,+1.79980353e-01f,-1.35178082e-02f,+2.01985300e-01f,
+5.07930666e-02f,-2.27928255e-02f,+4.83081155e-02f,+1.29143208e-01f,+2.23985106e-01f,
-2.42730349e-01f,-9.68848541e-02f,+1.02832146e-01f,+6.29791170e-02f,-9.70679298e-02f,
+7.29733706e-02f,+1.00720581e-03f,+8.02217796e-02f,-2.04008687e-02f,-1.33267507e-01f,
-1.27210557e-01f,+5.73236942e-02f,+5.41874021e-02f,-4.03966084e-02f,+2.46069446e-01f,
-3.01736537e-02f,+1.62169710e-01f,-5.40335961e-02f,+9.81756821e-02f,+1.90908954e-01f,
+1.36832744e-01f,-3.32673602e-02f,+2.05246001e-01f,+5.92865832e-02f,+3.10735200e-02f,
+2.39759907e-01f,-6.68048253e-03f,-1.62545368e-02f,+1.23579256e-01f,-1.06748985e-02f,
+2.54694372e-01f,+8.05150047e-02f,+1.09492354e-01f,+2.40042105e-01f,+1.04941279e-01f,
+8.26220140e-02f,+2.15371102e-01f,+1.11490786e-02f,-3.20052244e-02f,+4.45083901e-02f,
+3.29359435e-02f,+1.29451618e-01f,-4.55907509e-02f,+2.23762453e-01f,+8.96939859e-02f,
-3.11614245e-01f,+7.39877224e-02f,+3.65527980e-02f,+3.09438184e-02f,-7.92642124e-03f,
-1.80859596e-01f,+2.00625896e-01f,-7.05078989e-02f,-6.41955528e-03f,-1.16604768e-01f,
+4.54763435e-02f,-1.73263803e-01f,-6.28563315e-02f,+1.99666217e-01f,+1.67185158e-01f,
+1.16058707e-01f,-7.85790533e-02f,+9.65031087e-02f,+1.81307048e-01f,+1.00034386e-01f,
+8.01222697e-02f,-4.47623767e-02f,+9.38524753e-02f,+7.21911937e-02f,-1.61193937e-01f,
+1.45103619e-01f,+8.79910588e-02f,+7.42986286e-03f,+2.67511427e-01f,-2.18922775e-02f,
-2.41169840e-01f,+7.94354156e-02f,+2.18170062e-02f,-1.40539989e-01f,+1.29996046e-01f,
-3.43545079e-02f,+2.24308893e-01f,+7.96888471e-02f,-5.65477870e-02f,-1.37665225e-02f,
+4.51096632e-02f,-1.56771149e-02f,+1.85286060e-01f,-1.29859403e-01f,+2.09194735e-01f,
+1.17112525e-01f,+2.87696254e-03f,+1.05642870e-01f,+6.82164505e-02f,+3.12503874e-02f,
-2.39542246e-01f,+8.20169747e-02f,+1.24888107e-01f,+1.59451514e-01f,+2.42424443e-01f,
+2.14553028e-01f,+1.57409701e-02f,+3.65415029e-02f,-6.86524529e-03f,+4.80468832e-02f,
+2.22538143e-01f,+1.21807620e-01f,-5.82074281e-03f,+2.01749772e-01f,+5.76710217e-02f,
+2.47193407e-02f,-8.61088857e-02f,-3.91163416e-02f,+1.40170127e-01f,-3.69584821e-02f,
+8.17377195e-02f,-1.81971060e-03f,+1.09492630e-01f,-6.24811463e-02f,-1.41610071e-01f,
+9.65490118e-02f,+5.60368225e-02f,+1.52910337e-01f,+2.04730600e-01f,+2.17988685e-01f,
+2.75041703e-02f,-8.32583308e-02f,-1.17707931e-01f,+2.69997735e-02f,+2.45273449e-02f,
+1.22321866e-01f,+1.05888546e-02f,+3.41136530e-02f,-6.10012524e-02f,+9.17499587e-02f,
-6.14274852e-03f,-1.11171111e-01f,+9.12382901e-02f,-2.19789565e-01f,+7.39522651e-02f,
+6.50394410e-02f,+1.62871152e-01f,-6.97745681e-02f,-2.21513789e-02f,+2.47939855e-01f,
-1.72617454e-02f,-3.62358280e-02f,-4.95397151e-02f,-1.58410594e-01f,+4.52929661e-02f,
+1.18356727e-01f,-3.93533558e-02f,+2.40303986e-02f,-1.60360634e-01f,+1.56870559e-01f,
-1.10084414e-01f,+2.48008683e-01f,+1.92201912e-01f,+1.68171570e-01f,+1.18564051e-02f,
+2.05292523e-01f,+2.62894869e-01f,+1.70833781e-01f,+7.73054734e-02f,+2.83950239e-01f,
+7.68131763e-02f,+1.97458431e-01f,+8.42017084e-02f,+1.89284459e-01f,+1.01246238e-01f,
-4.71179467e-03f,+1.54405147e-01f,+9.74922702e-02f,+1.28494963e-01f,+1.91795938e-02f,
+4.24887501e-02f,+1.67977646e-01f,+1.14593888e-02f,-1.41499743e-01f,-7.17260092e-02f,
-5.31718433e-02f,+3.20320874e-02f,+1.05027899e-01f,-4.55032997e-02f,-5.64788431e-02f,
+2.74393052e-01f,-2.43917592e-02f,+2.16314808e-01f,+3.72848921e-02f,+2.10325524e-01f,
+3.11791331e-01f,+8.80170465e-02f,-8.54250789e-02f,-4.88684699e-02f,-1.02214009e-01f,
-1.27668548e-02f,+3.18110526e-01f,+1.19071566e-01f,+2.62933541e-02f,-7.36062080e-02f,
+1.40879735e-01f,+2.81733014e-02f,+1.05835341e-01f,+6.84283897e-02f,-3.38103808e-02f,
+4.03571054e-02f,+1.03210762e-01f,-2.60497369e-02f,+2.29034070e-02f,-5.12491167e-02f,
+5.53682148e-02f,+4.99290563e-02f,+6.76558092e-02f,-6.02600276e-02f,+1.06087059e-03f,
-5.86772822e-02f,+1.03110962e-01f,+6.62491173e-02f,+1.29685149e-01f,+1.79363534e-01f,
-5.24960309e-02f,-3.67465094e-02f,-8.24493095e-02f,+1.38528183e-01f,+3.94270197e-02f,
+8.27416033e-02f,+1.96369216e-01f,-3.86921130e-02f,+7.38083348e-02f,-4.88726702e-03f,
+9.43879038e-02f,+9.40903723e-02f,+1.20986827e-01f,-6.40489310e-02f,+1.49808094e-01f,
+2.33144537e-01f,+8.16859081e-02f,+9.40688029e-02f,+1.80773646e-01f,+2.69657165e-01f,
+1.10492565e-01f,+3.71071622e-02f,+1.88215878e-02f,+1.76062092e-01f,-1.46307498e-01f,
+3.31232518e-01f,+2.67318815e-01f,+1.50805607e-01f,+1.02621861e-01f,-1.22536272e-02f,
+1.47302747e-01f,+2.47194782e-01f,+1.81295842e-01f,-3.24045382e-02f,+2.79136896e-02f,
-1.01995520e-01f,+2.48914123e-01f,+1.68620646e-01f,-4.65016775e-02f,-5.93299884e-03f,
-2.06391945e-01f,+5.99370860e-02f,+1.45306185e-01f,+2.50769973e-01f,-1.88374013e-01f,
-1.39172897e-02f,-5.12218922e-02f,+3.34406383e-02f,-9.58966208e-04f,+4.58296528e-03f,
-7.02670664e-02f,-2.35339403e-01f,-7.40514174e-02f,+6.85821921e-02f,+1.99335992e-01f,
-3.04808080e-01f,-1.26811951e-01f,+7.49158710e-02f,-2.01051623e-01f,+2.55341642e-02f,
-7.08123744e-02f,+1.03759535e-01f,-3.19269337e-02f,+2.78115243e-01f,+5.51884733e-02f,
+1.23041775e-02f,-2.31031794e-03f,+1.58596680e-01f,+9.08280984e-02f,+7.20876157e-02f,
+5.49983010e-02f,-1.02802061e-01f,-5.20997867e-02f,+7.59261427e-03f,+2.09183618e-02f,
+2.03463435e-01f,-2.77404994e-01f,+1.75050974e-01f,+4.72837836e-02f,-1.57631487e-02f,
-8.85568038e-02f,+5.59427030e-02f,-1.39671803e-01f,-9.95392129e-02f,-7.81492214e-04f,
-7.15218903e-03f,-6.74133152e-02f,+7.76800439e-02f,+1.74894203e-02f,+1.17934830e-01f,
-2.19316930e-02f,+2.11774111e-02f,-1.54582262e-01f,+8.08537304e-02f,+2.29660999e-02f,
+7.27012902e-02f,+1.85126781e-01f,+7.29032382e-02f,-3.96306992e-01f,-1.35978460e-02f,
+2.85060536e-02f,+1.17679916e-01f,-1.87083222e-02f,+2.13486493e-01f,+1.46511570e-01f,
+7.49660805e-02f,+8.39095190e-02f,+1.26510888e-01f,+3.23525637e-01f,-8.15972984e-02f,
+1.68485746e-01f,+2.76974767e-01f,-1.72646254e-01f,-3.86296175e-02f,-1.47713977e-03f,
+5.59539348e-02f,+1.02771800e-02f,+1.25880204e-02f,+1.68888941e-01f,+5.00870720e-02f,
+5.18852323e-02f,-9.27349478e-02f,-2.09985718e-01f,-5.77346720e-02f,-1.96632720e-03f,
-6.22675046e-02f,+1.43805951e-01f,+2.86864161e-01f,+3.47289778e-02f,+1.63288936e-01f,
-6.37493655e-02f,+8.17533135e-02f,-7.60409907e-02f,-3.06150150e-02f,+9.22471881e-02f,
+1.64530501e-01f,+9.81715322e-02f,+1.14248127e-01f,+2.74101757e-02f,+4.20414209e-02f,
-1.46502301e-01f,-8.65963325e-02f,+3.42336521e-02f,+1.02069760e-02f,+3.00501168e-01f,
+2.09429190e-01f,+7.82991275e-02f,+9.72244367e-02f,+3.25920731e-01f,+3.63288254e-01f,
+1.33259758e-01f,+1.47198692e-01f,+1.86954573e-01f,+9.75482985e-02f,+1.01814494e-01f,
+2.13983655e-01f,+3.22566181e-02f,-1.03327252e-01f,+4.47954237e-02f,-5.90460226e-02f,
-1.63089577e-02f,-7.35917687e-02f,+1.77506670e-01f,+2.99576931e-02f,+3.64578962e-02f,
-9.70693305e-02f,-7.44166374e-02f,+8.60855877e-02f,+1.91842780e-01f,+9.96384025e-02f,
+1.65210664e-01f,+2.35530064e-01f,+1.40698403e-01f,+6.10748120e-02f,+1.67826936e-01f,
+1.54793069e-01f,+7.22743645e-02f,-1.13051474e-01f,+5.67574091e-02f,+1.95155829e-01f,
+1.41978413e-01f,+1.76949814e-01f,+1.42743602e-01f,-3.77447605e-02f,-1.40613234e-02f,
+7.53789917e-02f,+3.42269540e-01f,+6.76399395e-02f,+1.38734981e-01f,+4.10116836e-02f,
+1.71119850e-02f,-6.07521879e-03f,-1.64550561e-02f,+5.81486225e-02f,+1.87037766e-01f,
+3.88443470e-02f,+2.74449363e-02f,-2.84982137e-02f,+7.56796598e-02f,+7.83058926e-02f,
-4.97962274e-02f,+4.62313406e-02f,-3.01293135e-01f,+1.85166538e-01f,+2.50531644e-01f,
+2.39779010e-01f,+1.53688937e-01f,+1.94391549e-01f,-8.08579177e-02f,-6.06962293e-02f,
+2.39142459e-02f,+1.80355638e-01f,-5.06375693e-02f,+8.86575654e-02f,+2.41784319e-01f,
+2.66785264e-01f,+2.10308254e-01f,+2.16408327e-01f,+2.32223757e-02f,+1.84431404e-01f,
+5.34736589e-02f,+6.55482113e-02f,-5.13714328e-02f,-1.36752158e-01f,+8.05062130e-02f,
-4.19989340e-02f,+1.70492027e-02f,+2.25581042e-02f,+2.47001797e-01f,-4.48285975e-03f,
+2.01858819e-01f,+1.78648140e-02f,+4.66843136e-02f,+2.26395264e-01f,-1.36517972e-01f,
+2.59303302e-01f,+1.55081287e-01f,-1.26766548e-01f,-9.94336978e-02f,-5.34652807e-02f,
-1.17386505e-01f,+5.22873737e-02f,+1.23803638e-01f,-3.50688165e-03f,+1.01351716e-01f,
-3.21868323e-02f,+8.87815729e-02f,+2.20125213e-01f,+9.98258367e-02f,-4.69302535e-02f,
+8.50112084e-03f,+5.83540238e-02f,+4.49850321e-01f,+2.22454458e-01f,+1.24194503e-01f,
-6.28301576e-02f,-9.60620344e-02f,+1.27091870e-01f,-8.93115029e-02f,+2.19867736e-01f,
+1.78844810e-01f,+7.20482245e-02f,+2.83937544e-01f,+2.25029573e-01f,+2.09702197e-02f,
+1.98880881e-01f,-1.71177392e-03f,+1.03299364e-01f,+2.48629153e-01f,-5.84600586e-03f,
-7.16235861e-02f,-1.25691080e-02f,+4.50737663e-02f,+3.96476239e-02f,+1.58598199e-02f,
+2.68387318e-01f,+1.60030991e-01f,+6.08114637e-02f,+2.05486000e-01f,+1.88268378e-01f,
+4.91051041e-02f,-3.62853408e-02f,+1.33647293e-01f,+1.48617834e-01f,+1.53978281e-02f,
-4.69640531e-02f,+2.66537368e-02f,+5.44835478e-02f,+1.63976803e-01f,+7.73644447e-02f,
+3.60312879e-01f,+8.38172808e-02f,+2.07552895e-01f,-6.09529316e-02f,+5.65955713e-02f,
-2.16189653e-01f,+4.90837172e-02f,+1.11560166e-01f,+6.84925988e-02f,-2.22092494e-02f,
+1.46379191e-02f,+1.80344060e-01f,+1.69413894e-01f,+8.93934369e-02f,-7.17684859e-03f,
+2.46328399e-01f,+1.75556123e-01f,+9.81625915e-02f,+5.00385463e-02f,+2.30041489e-01f,
+5.14012501e-02f,+1.95971847e-01f,-2.85674669e-02f,+1.29488762e-02f,+1.35208428e-01f,
+4.49529923e-02f,+2.16766492e-01f,-1.25138834e-01f,-6.77613467e-02f,+1.26907248e-02f,
+1.52651798e-02f,+9.16647017e-02f,-5.87630384e-02f,+3.99581855e-03f,-2.79635563e-02f,
+1.04266413e-01f,+7.30855763e-02f,+9.60202422e-03f,+1.38808355e-01f,-3.58595885e-02f,
+1.11633673e-01f,-4.81055211e-03f,+2.32640386e-01f,+2.81135775e-02f,+1.07630081e-01f,
+2.62009948e-02f,+1.03930108e-01f,+1.43129349e-01f,+2.21536860e-01f,-1.72156528e-01f,
-5.46087548e-02f,+2.09825337e-02f,+1.87477451e-02f,+2.04501823e-01f,-3.69649418e-02f,
-1.03166131e-02f,+9.82702523e-02f,+2.54883975e-01f,+7.88121447e-02f,+5.31186312e-02f,
+1.17342934e-01f,+1.42296448e-01f,-2.84307208e-02f,-5.82837090e-02f,-2.05952212e-01f,
+1.32472664e-01f,-2.47528777e-02f,+8.50651935e-02f,-3.02317971e-03f,+8.55409727e-03f,
+5.87307587e-02f,+8.93018916e-02f,+5.20255417e-02f,+6.64742813e-02f,-6.20586378e-03f,
+4.49871346e-02f,+1.82648957e-01f,+2.02293351e-01f,-1.09607540e-01f,+3.41761969e-02f,
+3.03143598e-02f,+1.47276700e-01f,-1.81972627e-02f,+2.27456167e-02f,+9.78409275e-02f,
+1.71944536e-02f,+2.19334699e-02f,+1.86648499e-02f,+5.69489673e-02f,+1.04723953e-01f,
+1.37644544e-01f,+9.63684097e-02f,+9.14425552e-02f,+4.85187545e-02f,-6.42419467e-03f,
+1.82385132e-01f,+3.69757652e-01f,+4.29617502e-02f,+1.97007563e-02f,+1.41088516e-01f,
-3.24158072e-02f,+4.10638526e-02f,+2.94333175e-02f,+1.40053809e-01f,+9.40534696e-02f,
-1.14265960e-02f,-6.96188956e-02f,-1.51042715e-01f,+1.80967838e-01f,+1.17418036e-01f,
-9.30865332e-02f,+3.15040536e-02f,-7.68921375e-02f,+2.43326887e-01f,+3.56508672e-01f,
+1.04967445e-01f,+1.08026125e-01f,+9.42737386e-02f,+3.40870097e-02f,-2.23703071e-01f,
+2.32846707e-01f,+5.18937223e-02f,+7.20612779e-02f,+2.47504875e-01f,+2.12102272e-02f,
+1.18596338e-01f,+1.63733080e-01f,-3.94921191e-03f,+5.27106747e-02f,+8.50452259e-02f,
+1.52778029e-02f,-5.12623824e-02f,-3.55277844e-02f,+2.92043597e-01f,+2.47063190e-01f,
+1.06881261e-01f,-8.47828835e-02f,+3.33906561e-01f,-5.76654710e-02f,+2.29887769e-01f,
+8.84210411e-03f,+1.36311516e-01f,-1.47225345e-02f,+2.14507312e-01f,+5.23097143e-02f,
+1.27001822e-01f,+1.09343462e-01f,-4.38525043e-02f,-7.40038231e-02f,+7.81225190e-02f,
+1.07913405e-01f,-4.98823225e-02f,+6.09011576e-02f,-6.59407526e-02f,+1.44242391e-01f,
-2.70012654e-02f,+1.77644446e-01f,+1.70000851e-01f,+2.02800363e-01f,+7.26255476e-02f,
-2.62737479e-02f,-9.52551961e-02f,-5.89330867e-02f,+1.22149907e-01f,+5.77829182e-02f,
-1.25675097e-01f,+1.24232307e-01f,+5.92581257e-02f,+1.17751114e-01f,+6.41729832e-02f,
+2.81257108e-02f,+7.54404962e-02f,-8.72507766e-02f,+1.71892837e-01f,+1.60510778e-01f,
+5.23145720e-02f,+1.24321161e-02f,+1.16136156e-01f,+1.29801510e-02f,-5.38246557e-02f,
-9.79188550e-03f,-1.28935754e-01f,+1.61401883e-01f,+1.04416432e-02f,+9.31446925e-02f,
-1.69430804e-02f,-7.01971054e-02f,+1.75861582e-01f,-6.12602429e-03f,+2.16388509e-01f,
-8.70105028e-02f,-3.66732068e-02f,+1.69353709e-01f,+1.56433791e-01f,-1.65357992e-01f,
+2.23606452e-01f,-1.15642220e-01f,-1.64614860e-02f,+1.71456002e-02f,-9.86860320e-03f,
+2.36956403e-01f,+7.36538470e-02f,-9.64660496e-02f,+1.87462896e-01f,+3.39896858e-01f,
+2.27006689e-01f,-6.91926852e-02f,-1.74482018e-01f,+2.32241347e-01f,+5.95563911e-02f,
+1.38563616e-02f,+2.09337007e-02f,+1.52212858e-01f,+9.13237557e-02f,+3.10929567e-01f,
-3.74704879e-03f,-5.08376677e-03f,+3.74275535e-01f,+1.85904708e-02f,-5.89790419e-02f,
+1.08858831e-01f,+1.69389233e-01f,+5.93830831e-03f,+4.85695861e-02f,-1.50296716e-02f,
+1.75599948e-01f,+2.86617521e-02f,-9.16980430e-02f,+2.42016375e-01f,+2.19909206e-01f,
+9.86071303e-02f,-2.66180728e-02f,-3.20259086e-03f,+2.76770413e-01f,+1.15373001e-01f,
+3.94674912e-02f,+1.28361300e-01f,+8.58736485e-02f,-9.30895805e-02f,+1.27322331e-01f,
+1.93102166e-01f,+9.22585800e-02f,+7.78861120e-02f,+1.29502982e-01f,+1.66716486e-01f,
-3.41269709e-02f,+2.05315173e-01f,+5.69834486e-02f,-1.17267393e-01f,+3.92339714e-02f,
+2.45507173e-02f,-1.68241560e-02f,+8.64249393e-02f,-1.88756343e-02f,+2.74297353e-02f,
-3.95948477e-02f,+9.02882442e-02f,+5.04958369e-02f,+1.49441166e-02f,+5.23670502e-02f,
+4.41406853e-02f,+1.02793291e-01f,+5.31310476e-02f,+1.16726093e-03f,+7.45956376e-02f,
+2.23017171e-01f,-6.75830874e-04f,+2.60851711e-01f,+1.48161873e-01f,-1.38046980e-01f,
+7.25612938e-02f,+4.27070633e-02f,+1.92199335e-01f,-8.74233618e-02f,+4.31410931e-02f,
+3.61589342e-02f,-3.05399690e-02f,+6.04126602e-02f,-2.72684917e-03f,+4.72637154e-02f,
-2.80238464e-02f,-3.45810987e-02f,+3.92146707e-02f,+1.33245001e-02f,+1.60163969e-01f,
+2.38537844e-02f,-1.35009261e-02f,-5.05891070e-02f,+6.17756546e-02f,-1.06621549e-01f,
+1.07102841e-01f,+7.97113180e-02f,-9.10061784e-03f,+1.91228271e-01f,+2.12037355e-01f,
+5.95049337e-02f,+1.11795425e-01f,+5.22451662e-02f,+6.90989867e-02f,-4.08402681e-02f,
-2.38088425e-02f,+4.82895859e-02f,+9.38781053e-02f,+5.80420569e-02f,+1.68637156e-01f,
+6.53831959e-02f,-1.44437507e-01f,+2.69429862e-01f,+6.07441291e-02f,+2.59867579e-01f,
-1.22194029e-02f,-2.26415433e-02f,-2.86200583e-01f,-3.95342782e-02f,+1.45367905e-01f,
+1.59678116e-01f,-1.30566834e-02f,+2.41999418e-01f,+9.63750109e-02f,+8.95697847e-02f,
+1.55025169e-01f,+1.80840701e-01f,+1.78521752e-01f,+1.98030975e-02f,+1.95495442e-01f,
+2.03351956e-02f,-7.03588426e-02f,+1.89006716e-01f,+2.49857426e-01f,+1.67416140e-01f,
+7.50114908e-03f,-3.89656834e-02f,+1.09913692e-01f,+1.50941595e-01f,+8.58299509e-02f,
+2.24785388e-01f,+1.49441481e-01f,-1.08969346e-01f,-6.67827204e-02f,+2.05937792e-02f,
+1.39301389e-01f,+1.81376189e-01f,+9.10620466e-02f,+6.72052726e-02f,+9.56927761e-02f,
-1.24423116e-01f,+1.21170819e-01f,-1.07148722e-01f,+1.14918441e-01f,+1.00232929e-01f,
+9.67261493e-02f,+4.68720943e-02f,+2.13800520e-01f,+1.37735143e-01f,+1.63657755e-01f,
-9.41359401e-02f,-1.86323017e-01f,+4.25934605e-02f,+8.64968002e-02f,-1.32773623e-01f,
+2.44588286e-01f,+3.18194516e-02f,-9.95323360e-02f,+1.47977293e-01f,+3.06439966e-01f,
+1.59981418e-02f,+1.92047969e-01f,+2.01075286e-01f,+2.78266639e-01f,+7.74836764e-02f,
-3.52195576e-02f,-1.35597289e-01f,+1.94289312e-01f,+2.17053995e-01f,+1.01600409e-01f,
+7.30580389e-02f,+1.08713567e-01f,+1.60515398e-01f,+1.84249148e-01f,-9.76803452e-02f,
+1.27687007e-01f,+2.05394670e-01f,+5.10508478e-01f,+2.30710581e-02f,-1.24364384e-01f,
+1.00843394e-02f,+7.60693615e-03f,-2.09850240e-02f,+4.94539179e-02f,+1.02528632e-01f,
-2.62447353e-02f,+9.33518484e-02f,+1.54022902e-01f,-9.71019361e-03f,+3.87955122e-02f,
+5.11565879e-02f,-5.36904223e-02f,-4.17365879e-02f,-1.15653183e-02f,+1.22669265e-01f,
+2.28405342e-01f,+3.27141099e-02f,-4.47039939e-02f,+1.65570453e-02f,-8.11368674e-02f,
+9.51330364e-02f,+1.89466178e-01f,+1.94009349e-01f,+2.71670282e-01f,+9.43498872e-03f,
+3.73121426e-02f,+7.49279782e-02f,+9.90389511e-02f,+1.77988082e-01f,+1.14660105e-02f,
+7.47843087e-03f,-3.20095569e-02f,+8.97119492e-02f,+1.01377167e-01f,-6.42890856e-02f,
+7.37624168e-02f,+8.71713534e-02f,+9.96875390e-02f,+5.24089783e-02f,+4.08050001e-01f,
+9.32247788e-02f,-6.27664253e-02f,+1.02917679e-01f,+1.13414481e-01f,+1.69062629e-01f,
+6.63591176e-02f,+2.54850626e-01f,-1.43918833e-02f,-5.12772538e-02f,+5.78512251e-02f,
+2.05361247e-01f,+1.28855586e-01f,+1.53782353e-01f,-7.08995238e-02f,+1.37517825e-01f,
+5.16649961e-01f,+1.77797928e-01f,-1.41441375e-01f,+2.79773120e-02f,+7.73997754e-02f,
+1.57818630e-01f,+1.21100292e-01f,+1.00857742e-01f,+1.14849582e-01f,+4.37027775e-03f,
-4.53121066e-02f,+2.15292256e-02f,+1.73429828e-02f,-2.55726986e-02f,+2.65031338e-01f,
+1.96737885e-01f,+2.12734088e-01f,+1.52042940e-01f,+2.54275084e-01f,-1.11695707e-01f,
+1.92571759e-01f,-6.06892519e-02f,+2.30094641e-02f,+2.83154100e-01f,-3.03783696e-02f,
-9.16595161e-02f,+1.01488465e-02f,+1.17652245e-01f,-2.85084285e-02f,-8.84233043e-02f,
+1.04582943e-01f,+6.35082647e-02f,+6.13507479e-02f,-3.51110138e-02f,-6.44291937e-02f,
+5.97886927e-02f,+2.02656984e-01f,+1.22679189e-01f,+1.68847024e-01f,-2.51292437e-02f,
-5.42070949e-03f,+1.51555732e-01f,+6.65255636e-02f,+1.65056437e-01f,-1.55647183e-02f,
-1.13747522e-01f,+1.34680808e-01f,+7.90099502e-02f,-7.77508318e-02f,+2.56991118e-01f,
-1.04508571e-01f,+1.94842845e-01f,+1.94089890e-01f,+5.20308083e-03f,+4.35736217e-03f,
+8.17431584e-02f,+1.88728020e-01f,-6.79807365e-02f,+1.06427059e-01f,+1.39576495e-01f,
+2.85347819e-01f,+4.82270680e-02f,-1.01788267e-01f,+4.70102625e-03f,+3.89577867e-03f,
+2.82349456e-02f,+2.10865751e-01f,+1.08449042e-01f,+4.41081077e-02f,-5.19686863e-02f,
+8.01655501e-02f,+1.37227967e-01f,-7.39354128e-03f,-6.56942353e-02f,+7.87263364e-02f,
+1.62124783e-02f,-3.57917659e-02f,+1.17118016e-01f,-9.74553451e-03f,-8.99818540e-02f,
+1.13227025e-01f,+3.40288058e-02f,-7.80833513e-02f,+2.50920746e-02f,-9.93024930e-02f,
+5.38365804e-02f,+1.17370993e-01f,-6.28006011e-02f,-1.17193639e-01f,-1.39680617e-02f,
+2.43176192e-01f,+1.67323232e-01f,+2.07281634e-01f,-1.04303494e-01f,+2.73835152e-01f,
+2.63347268e-01f,-2.05177236e-02f,+1.21931396e-01f,+9.28136110e-02f,+4.88347150e-02f,
-2.11628273e-01f,-6.65030256e-02f,+6.56145904e-03f,+1.06944181e-02f,+1.90442093e-02f,
+3.36408675e-01f,+1.82684526e-01f,+1.13767520e-01f,-4.47008424e-02f,+4.37101573e-02f,
+5.51451975e-03f,+2.52256423e-01f,+4.77221549e-01f,+1.47743911e-01f,+1.55927300e-01f,
+4.46571335e-02f,-3.78124416e-02f,-1.13047451e-01f,+2.32422315e-02f,-7.62682036e-03f,
+1.81639075e-01f,+1.31105796e-01f,+8.46169218e-02f,+2.44780451e-01f,+3.31247523e-02f,
+1.70906931e-01f,+1.10033695e-02f,+9.93119925e-02f,+3.82819861e-01f,+9.61297303e-02f,
+6.22345787e-03f,+6.28267229e-02f,-1.69114545e-01f,+1.77273959e-01f,-1.76825877e-02f,
+1.49010226e-01f,-3.39009948e-02f,-4.96402122e-02f,-3.34165175e-03f,-4.25088629e-02f,
+8.12775176e-03f,+3.21145542e-02f,+4.29266393e-02f,+7.27810189e-02f,+2.42858499e-01f,
+4.84947935e-02f,+1.04899034e-01f,-6.80336729e-02f,+2.12617451e-03f,-2.49229837e-02f,
+7.60069042e-02f,+9.40422788e-02f,-1.57019511e-01f,+1.06314838e-01f,+1.06314592e-01f,
+1.09110894e-02f,+1.04234837e-01f,-4.08936925e-02f,+6.85456842e-02f,+4.55576517e-02f,
+1.16637656e-02f,+1.83733195e-01f,-8.39281827e-02f,+1.33504078e-01f,+2.63830414e-04f,
-4.15876172e-02f,-1.26296028e-01f,+3.56931359e-01f,+3.25573385e-01f,-8.43385831e-02f,
-1.35493532e-01f,+2.15885006e-02f,-7.13757947e-02f,+2.91851498e-02f,+3.42404954e-02f,
-2.51398206e-01f,-3.82623859e-02f,+5.52686788e-02f,+7.00101629e-02f,-4.79169972e-02f,
+1.37412222e-02f,+6.85883686e-02f,-4.18104939e-02f,+2.01294065e-01f,+7.71141751e-03f,
+1.13837523e-02f,-4.45504412e-02f,-6.02761880e-02f,+2.55258888e-01f,+4.34598029e-02f,
+9.71535742e-02f,-2.82935239e-02f,+1.31586522e-01f,+4.54317145e-02f,+1.27414256e-01f,
+5.73519841e-02f,+1.77396834e-01f,+1.78934664e-01f,+5.36151091e-03f,+5.19005060e-02f,
-4.31450531e-02f,-2.89872646e-01f,+7.63489977e-02f,+1.25770688e-01f,+5.89335412e-02f,
+1.44131750e-01f,-1.31627381e-01f,+5.17850704e-02f,+1.03222445e-01f,+2.52457470e-01f,
+6.83593238e-03f,+2.17935413e-01f,+1.32435068e-01f,-1.34375945e-01f,-1.14221193e-01f,
+8.42307433e-02f,-7.88342655e-02f,+1.48600712e-01f,+4.80909199e-02f,-2.37230584e-01f,
+1.24993116e-01f,-3.93980443e-02f,+7.48713687e-02f,+3.39922458e-01f,-2.71723736e-02f,
+8.33626911e-02f,+2.18220383e-01f,-2.10908040e-01f,-7.96952620e-02f,-2.09910616e-01f,
-7.38992766e-02f,+1.21498555e-01f,-6.92469359e-04f,+1.44711092e-01f,+1.10153615e-01f,
+1.05142333e-01f,-1.61796570e-01f,-3.92733775e-02f,+5.27926981e-02f,+4.59875688e-02f,
-1.95191473e-01f,-3.08753494e-02f,-1.64381817e-01f,+1.60390556e-01f,-8.15769434e-02f,
+3.65848467e-02f,+5.31600639e-02f,-3.79292257e-02f,+3.59740928e-02f,+1.54432818e-01f,
-6.41609654e-02f,+2.02871174e-01f,+8.21179152e-02f,-1.43132597e-01f,-1.18645042e-01f,
+1.92919269e-01f,+1.47369998e-02f,+1.59873575e-01f,-5.59559911e-02f,+4.06228863e-02f,
+7.56902695e-02f,-1.93741113e-01f,-9.03972089e-02f,+1.71715543e-01f,-1.89886540e-01f,
+1.72097906e-01f,-1.11637287e-01f,+1.55377418e-01f,+4.51682992e-02f,-1.21067204e-02f,
-2.50108957e-01f,+8.74904022e-02f,+1.21574728e-02f,+1.66888326e-01f,+1.56601630e-02f,
-9.34687927e-02f,+3.52754332e-02f,+1.21666662e-01f,-8.19953755e-02f,+6.21193461e-02f,
+5.25815859e-02f,+1.56784445e-01f,+1.34514362e-01f,+1.61615089e-01f,+7.66024962e-02f,
+1.92445591e-01f,+2.18552873e-01f,+2.47226924e-01f,+3.94793600e-02f,+7.73430616e-02f,
+4.65908945e-02f,+1.48435503e-01f,-1.14817671e-01f,+1.06479209e-02f,+6.19120896e-02f,
-7.82082751e-02f,+1.63424253e-01f,-1.12216540e-01f,+7.41690770e-02f,+1.73167259e-01f,
+7.15423450e-02f,+6.29155040e-02f,+4.70236093e-02f,+1.18390687e-01f,+1.43673673e-01f,
-1.68476366e-02f,+1.65886909e-01f,+1.88581705e-01f,-2.74177164e-01f,+3.43795381e-02f,
+4.71950956e-02f,+7.42023438e-03f,+4.04183790e-02f,+1.79292172e-01f,+3.89621370e-02f,
-1.43433511e-01f,+1.82234481e-01f,+2.17350014e-02f,-3.32756643e-03f,+1.77092676e-03f,
+2.43679285e-02f,+2.21959800e-01f,-8.55039284e-02f,-5.74815609e-02f,-1.07217647e-01f,
+9.37682837e-02f,+2.21273124e-01f,+9.18341149e-03f,+9.68624875e-02f,+2.41781399e-01f,
+1.96298793e-01f,+4.85026687e-02f,-9.48440954e-02f,+1.95769638e-01f,+1.64214015e-01f,
-3.63660753e-02f,+1.67522833e-01f,+8.01136196e-02f,-4.91366200e-02f,-1.31713003e-01f,
-8.54281932e-02f,+7.90071338e-02f,-1.83172420e-01f,+1.19271643e-01f,-9.78476740e-03f,
+1.48376271e-01f,+7.85190165e-02f,+7.65779689e-02f,+2.32020125e-01f,+2.28677839e-01f,
+1.25971735e-01f,+5.71200438e-02f,+1.26137793e-01f,+1.85813904e-01f,-1.90082286e-02f,
+8.83163977e-03f,+2.38411844e-01f,+9.46671739e-02f,+1.19356915e-01f,+6.01844937e-02f,
+1.09947100e-01f,-3.03039211e-03f,+6.69936314e-02f,+1.49850130e-01f,+4.06568944e-02f,
+2.83601761e-01f,-1.03417039e-02f,-2.07971800e-02f,+1.03569433e-01f,+1.49397999e-01f,
+1.92651212e-01f,+9.52597558e-02f,+1.48422614e-01f,-3.66338417e-02f,+1.30190685e-01f,
+2.06219777e-01f,+1.71716183e-01f,+1.54421702e-01f,+2.26514507e-02f,+1.80567116e-01f,
-5.32927141e-02f,+5.38491234e-02f,-4.96305376e-02f,-2.87922118e-02f,-9.91266742e-02f,
+7.41347298e-02f,+1.04147002e-01f,+8.78418703e-03f,+5.71519881e-02f,+1.60171777e-01f,
+2.20341548e-01f,-1.41465202e-01f,-1.65710207e-02f,+2.27268115e-01f,-4.18905467e-02f,
+1.24784850e-01f,+4.97395024e-02f,+1.10603131e-01f,+5.02460971e-02f,+8.67256746e-02f,
-2.90566720e-02f,-8.26396421e-02f,-8.08983296e-02f,+3.06515187e-01f,+5.81951067e-03f,
-1.90732291e-03f,+2.28532940e-01f,+1.06956229e-01f,+1.03052862e-01f,+4.19748202e-02f,
+1.10761307e-01f,+7.17057567e-03f,+1.87641948e-01f,+1.51267573e-01f,-2.94233002e-02f,
-4.42837849e-02f,+1.07687600e-01f,-1.21278226e-01f,+1.13176413e-01f,+4.53640334e-02f,
+1.57488912e-01f,-2.05515400e-02f,+1.57905236e-01f,+1.12828255e-01f,+1.09047763e-01f,
+1.02335744e-01f,+9.00929794e-02f,+1.11106135e-01f,+1.42290488e-01f,-1.45743566e-03f,
-3.35621759e-02f,+9.58649591e-02f,+3.66895311e-02f,+6.92017600e-02f,-5.85349626e-04f,
+2.03222424e-01f,-2.72773355e-01f,+1.22114390e-01f,+1.61154252e-02f,-2.94903163e-02f,
+1.21999539e-01f,+1.72732234e-01f,-3.37523594e-02f,+2.69740466e-02f,+2.76157707e-02f,
+2.23389734e-02f,+6.80706128e-02f,+4.03266586e-02f,+1.38040900e-01f,+3.81230153e-02f,
+2.62487173e-01f,+1.52464733e-02f,-1.17202122e-02f,+1.56419501e-02f,+7.59752393e-02f,
-7.86080584e-02f,+1.55104727e-01f,-4.58862782e-02f,-1.00830115e-01f,+3.37072611e-02f,
-1.59531329e-02f,+2.27640137e-01f,+1.66804165e-01f,+2.72028804e-01f,+2.95479950e-02f,
-3.34685929e-02f,+7.68988952e-02f,-4.64469381e-02f,-2.70717144e-02f,+7.30763674e-02f,
+9.96252522e-03f,-2.95927171e-02f,+1.84857681e-01f,+1.81555122e-01f,+4.43235114e-02f,
+1.41688898e-01f,+3.88370603e-01f,+7.91856796e-02f,-9.65500399e-02f,-7.29993731e-02f,
-4.39733677e-02f,+1.11919276e-01f,-8.68880227e-02f,+1.53868169e-01f,+1.35449901e-01f,
+6.72272146e-02f,+6.43569231e-02f,-4.63894270e-02f,-1.70334186e-02f,-3.84335816e-02f,
+1.65450945e-01f,+1.88472625e-02f,+9.56173986e-02f,+2.24450693e-01f,-5.83758913e-02f,
+2.05417663e-01f,+2.19967626e-02f,+9.11735091e-03f,+1.30244628e-01f,+1.20085314e-01f,
+4.38856184e-02f,-1.44211724e-01f,+4.21651080e-02f,+8.30387771e-02f,+2.40477212e-02f,
-2.50076912e-02f,+1.14982806e-01f,+1.22139268e-01f,+6.39011487e-02f,+1.04490429e-01f,
+7.77309090e-02f,+8.95233303e-02f,+1.37440562e-01f,-8.59164372e-02f,+7.08077326e-02f,
+2.28252739e-01f,+8.03177059e-02f,+9.80486497e-02f,+6.37400076e-02f,+1.04670692e-02f,
+1.98321287e-02f,+1.53386801e-01f,+1.06152140e-01f,+2.68725418e-02f,+3.88100259e-02f,
+2.46836647e-01f,-3.74422371e-01f,-6.09884635e-02f,+2.76056323e-02f,-4.77764010e-03f,
+2.05536202e-01f,+1.28122881e-01f,+1.59342632e-01f,+1.37696743e-01f,-6.67764544e-02f,
+2.05004975e-01f,+2.19389983e-02f,-2.53631361e-02f,+8.22424814e-02f,+1.30487591e-01f,
+2.23465338e-01f,+1.17910795e-01f,+1.55020982e-01f,+6.20903373e-02f,+8.22192430e-02f,
-2.67590396e-02f,+2.27038395e-02f,-4.03850004e-02f,+2.68472761e-01f,-8.74807406e-03f,
+2.82327402e-02f,+3.81943077e-01f,+1.26378208e-01f,-4.63542975e-02f,+2.91493796e-02f,
-1.00453883e-01f,+1.90544426e-01f,+1.23335399e-01f,-2.28646584e-02f,-3.18273120e-02f,
+1.35574117e-01f,+1.56620324e-01f,+8.57015848e-02f,+1.86249271e-01f,+3.25794905e-01f,
+1.14787603e-02f,+1.05108380e-01f,-7.49748796e-02f,-8.04693550e-02f,+1.42142296e-01f,
+1.99589282e-02f,+1.47200167e-01f,+2.06786230e-01f,+2.40996256e-02f,+2.61785984e-01f,
-2.76603773e-02f,+1.53105944e-01f,-8.63298848e-02f,+1.64012790e-01f,+7.11129010e-02f,
+3.55958253e-01f,+3.49402614e-02f,+4.79693338e-02f,+1.06115388e-02f,-1.09804928e-01f,
+5.92342429e-02f,+3.60342301e-02f,+1.28080711e-01f,+9.36158895e-02f,-2.19590738e-02f,
-9.44880247e-02f,+1.54132590e-01f,-7.22674131e-02f,+8.42582136e-02f,+5.62362522e-02f,
+1.88379332e-01f,-2.18932331e-01f,+4.21785377e-02f,-8.37030038e-02f,+2.32742801e-02f,
+1.38492629e-01f,-3.28468494e-02f,-1.96678862e-01f,+8.96138996e-02f,+2.63688087e-01f,
+5.88170663e-02f,-1.15077645e-01f,-9.54065472e-02f,+1.58442020e-01f,-2.76198864e-01f,
-3.89770195e-02f,+6.45726249e-02f,+1.53381983e-02f,+5.19755483e-02f,-1.15583882e-01f,
+2.58119702e-01f,+6.67634606e-02f,+1.23799942e-01f,+6.06763773e-02f,+5.75723611e-02f,
+1.03368625e-01f,+6.54001683e-02f,+2.04653218e-01f,+7.84313455e-02f,+1.03059947e-01f,
+1.76732570e-01f,-1.21904677e-03f,-2.22219285e-02f,+4.77112867e-02f,-3.95740010e-02f,
+5.52354194e-02f,-5.51079698e-02f,+6.69226199e-02f,+4.04885486e-02f,-1.07798666e-01f,
+1.73482552e-01f,+2.34068986e-02f,+3.29059139e-02f,+1.48246989e-01f,+7.92713165e-02f,
-4.63432819e-02f,+2.43739374e-02f,+1.58168077e-01f,+1.96850404e-01f,-6.69579953e-02f,
+1.15679512e-02f,-7.15603456e-02f,+6.58663288e-02f,-1.12441946e-02f,+2.25600749e-01f,
-5.20658568e-02f,+2.14793012e-01f,+1.28645092e-01f,-1.02966521e-02f,+2.81309903e-01f,
+1.22286730e-01f,-6.84957579e-02f,+7.53139630e-02f,+2.85643954e-02f,+2.18028799e-02f,
-1.07853226e-01f,+3.37703042e-02f,-4.78496179e-02f,+8.56549516e-02f,+3.44724506e-01f,
+7.22754523e-02f,+1.66774258e-01f,+1.87901482e-01f,+1.01537161e-01f,-5.21413684e-02f,
+1.30609453e-01f,+6.77506551e-02f,+9.28717013e-03f,+1.41917184e-01f,+6.41598925e-02f,
-5.32276109e-02f,+1.27712175e-01f,+2.43197586e-02f,+1.33151293e-01f,+2.90316015e-01f,
+1.97257951e-01f,+2.64639221e-02f,+1.01760618e-01f,-6.28753453e-02f,+7.79944956e-02f,
+2.41869688e-01f,+5.17492630e-02f,+1.39469445e-01f,-3.26558985e-02f,+9.54428315e-02f,
+1.02289133e-01f,-1.61849968e-02f,-1.46740615e-01f,-1.38387457e-01f,+8.12960118e-02f,
+9.45278332e-02f,+9.81702358e-02f,+1.30169630e-01f,+6.21199347e-02f,+5.85483611e-02f,
+7.15289041e-02f,+5.04940785e-02f,-1.16770556e-02f,+1.67740956e-02f,+1.34080052e-01f,
-9.57039520e-02f,+1.23540893e-01f,+6.88780099e-02f,-6.14671446e-02f,-4.64368761e-02f,
+8.15343484e-02f,-7.39190802e-02f,+9.18234363e-02f,+3.54705676e-02f,+4.69583750e-01f,
+6.79853112e-02f,+7.00330660e-02f,+1.63687184e-01f,-4.06703427e-02f,+2.88914204e-01f,
+1.04672268e-04f,+2.30189100e-01f,+2.33477831e-01f,+1.45820513e-01f,+1.61373429e-02f,
+1.34672001e-01f,-1.03235301e-02f,+1.67655915e-01f,-1.02388754e-01f,-3.33583504e-02f,
+2.60432184e-01f,+2.07977504e-01f,-1.71248674e-01f,-4.87443320e-02f,+2.62437016e-02f,
-6.44932166e-02f,+3.74670662e-02f,-1.21351860e-01f,+7.01887906e-02f,+1.91514231e-02f,
-1.31643014e-02f,+3.48274894e-02f,+2.12997317e-01f,+5.93684614e-02f,-1.07156478e-01f,
+1.14855230e-01f,+6.59953430e-02f,+6.03778400e-02f,+9.43169221e-02f,-2.24435274e-02f,
+2.05744520e-01f,+1.53328478e-02f,+9.11482275e-02f,+1.58357576e-01f,+6.97537288e-02f,
-5.25013097e-02f,+3.78870927e-02f,-1.84130147e-01f,+2.26216838e-01f,-8.31312314e-02f,
+1.49403643e-02f,-3.55996937e-02f,-1.42396569e-01f,+5.76542094e-02f,+3.38067450e-02f,
-5.05480506e-02f,+1.44472435e-01f,+2.15953309e-02f,+1.74584568e-01f,+5.38560264e-02f,
-1.48748934e-01f,-8.24734643e-02f,+3.64081957e-03f,-7.06471801e-02f,+2.90812328e-02f,
-5.14474414e-05f,+4.05637734e-02f,-1.51056245e-01f,+4.65175919e-02f,+8.33139792e-02f,
-5.62549643e-02f,+2.56621838e-02f,+2.81013511e-02f,+8.65178555e-02f,+7.94020370e-02f,
+1.27737790e-01f,+8.74228925e-02f,+5.72117716e-02f,+2.16750503e-01f,-2.34747417e-02f,
+4.70484346e-02f,+7.60076270e-02f,+3.85987125e-02f,-5.51868640e-02f,+1.81920052e-01f,
+8.12802985e-02f,+1.00379579e-01f,+1.94876656e-01f,+4.96925861e-02f,+7.61328861e-02f,
+2.28821844e-01f,-8.46473128e-02f,-1.17863886e-01f,+1.10726031e-02f,+7.71108782e-03f,
+1.60140917e-01f,+1.77021787e-01f,+9.23207402e-02f,+1.33775204e-01f,+1.72038540e-01f,
+4.32043746e-02f,+5.97682633e-02f,+2.34554405e-03f,-8.92867297e-02f,-7.43980929e-02f,
+2.47508958e-01f,+3.88322234e-01f,+9.05310065e-02f,-9.30330604e-02f,-2.29429334e-01f,
-4.38429974e-02f,+1.79791480e-01f,+2.55684704e-01f,+2.79533118e-02f,+7.67360702e-02f,
-4.41991799e-02f,+1.30532440e-02f,+5.49216978e-02f,-1.09160379e-01f,+1.20592035e-01f,
-6.80113509e-02f,-1.98553391e-02f,+2.03465149e-01f,+5.96100055e-02f,-2.05148116e-01f,
+5.60940988e-02f,+4.58452255e-02f,+1.19508244e-01f,+1.34987071e-01f,+1.56320423e-01f,
+3.66059393e-02f,+7.54940212e-02f,+3.30250323e-01f,+1.12043664e-01f,-2.07035020e-01f,
+7.12284893e-02f,+1.74846351e-01f,+5.42729162e-03f,+4.13638279e-02f,+1.20181471e-01f,
-1.31270379e-01f,-2.50318218e-02f,-1.25007451e-01f,+6.93544373e-02f,-1.07759312e-01f,
-2.93492991e-02f,-5.55518875e-03f,-6.61088526e-02f,+9.95980874e-02f,+8.23840126e-02f,
-1.28518894e-01f,+5.94726279e-02f,+6.91341758e-02f,+2.28074089e-01f,+8.82614106e-02f,
+2.91191250e-01f,+2.53053848e-02f,-1.36862740e-01f,-8.25419948e-02f,+5.72394319e-02f,
+2.70634249e-04f,+1.01669371e-01f,+7.76327848e-02f,+6.49615526e-02f,+2.99953192e-01f,
+1.75974220e-01f,-1.36150733e-01f,-1.99671715e-01f,+8.70916992e-02f,+2.91827973e-02f,
+1.98803291e-01f,+4.35102321e-02f,-2.12544352e-01f,+1.01271331e-01f,+1.60484210e-01f,
-1.44128473e-02f,+2.84267038e-01f,+1.78482085e-01f,+1.55528178e-02f,+6.89507499e-02f,
+1.57210663e-01f,+9.86166075e-02f,+1.47902057e-01f,+1.60315663e-01f,-3.87620777e-02f,
+2.05282383e-02f,+2.32228369e-01f,+4.71770465e-02f,-1.02564596e-01f,-1.42081557e-02f,
+9.56726000e-02f,-2.75355075e-02f,-1.16896741e-02f,+1.21422470e-01f,+2.79997826e-01f,
+1.51932552e-01f,-1.21078022e-01f,+1.62943095e-01f,-6.78960700e-03f,-8.66568685e-02f,
-2.55256947e-02f,+4.59577143e-03f,-1.23474754e-01f,+4.39020663e-01f,-5.17931394e-02f,
+3.23104486e-02f,-1.23416789e-01f,+6.14659600e-02f,+1.08797260e-01f,+9.90878716e-02f,
+8.62619728e-02f,-1.01000242e-01f,+2.16006208e-03f,-1.20781489e-01f,-5.76461069e-02f,
-9.99530330e-02f,-5.75273409e-02f,-2.05005649e-02f,+1.18098897e-03f,+5.00142500e-02f,
+2.35928550e-01f,+1.69333488e-01f,+2.56209046e-01f,-7.86276534e-02f,+1.00770451e-01f,
+1.18562639e-01f,+9.08790622e-03f,+1.53752670e-01f,+1.81033686e-01f,-7.33740479e-02f,
+2.15074904e-02f,+1.26343757e-01f,+2.44312868e-01f,+4.19297256e-02f,-8.15793723e-02f,
+5.99076450e-02f,+1.78769410e-01f,+1.03146285e-01f,+2.18288198e-01f,+1.02899514e-01f,
+1.14902891e-01f,+4.82532829e-02f,+3.94696258e-02f,-8.74285474e-02f,-2.98427474e-02f,
+1.62357554e-01f,+7.76292905e-02f,-9.80482623e-02f,+3.93669724e-01f,+1.21383958e-01f,
+1.35979921e-01f,+7.60145485e-02f,+2.20731236e-02f,+2.20325649e-01f,+1.07127704e-01f,
+2.58896016e-02f,+8.23127851e-02f,+1.96305543e-01f,+1.62863567e-01f,+8.38251114e-02f,
+6.73458725e-02f,+3.34477685e-02f,+8.36950094e-02f,+1.84345350e-01f,+2.21035153e-01f,
+1.60033867e-01f,+2.00742316e-02f,+1.27433389e-01f,+1.37069419e-01f,+1.21984474e-01f,
+3.28908935e-02f,+1.54573634e-01f,-1.59027539e-02f,+2.20161706e-01f,+8.57310593e-02f,
+1.07014857e-01f,-9.12879705e-02f,-1.52354306e-02f,+2.81562924e-01f,+1.48782909e-01f,
+8.75142068e-02f,+1.32345319e-01f,+1.03671802e-02f,+2.75724530e-02f,+1.74210053e-02f,
+1.12488188e-01f,+8.57184008e-02f,-2.13296548e-01f,+1.49717927e-01f,+1.43231273e-01f,
+5.89605272e-02f,-2.21194532e-02f,+3.55632342e-02f,+1.67662188e-01f,+9.56608281e-02f,
-4.62121703e-03f,+1.60701916e-01f,+1.34206772e-01f,+9.24196020e-02f,+4.05398868e-02f,
+8.43068436e-02f,+6.29637018e-02f,+8.58299658e-02f,+1.38386879e-02f,+2.29138166e-01f,
-3.39511186e-02f,+1.10667959e-01f,-2.39744827e-01f,+1.23022310e-01f,+2.69479360e-02f,
+1.15673793e-02f,+1.17326505e-01f,-5.87301813e-02f,+1.66271865e-01f,-2.78862789e-02f,
+2.10573807e-01f,-5.36039956e-02f,-2.25107092e-02f,+1.66658446e-01f,-1.26656979e-01f,
+6.42820299e-02f,+5.65387085e-02f,+1.59060434e-01f,+8.48385394e-02f,-7.06490949e-02f,
+4.59778011e-02f,+5.68148792e-02f,+7.99032971e-02f,-8.19132030e-02f,+2.14264572e-01f,
+1.11820213e-01f,-5.08089410e-03f,-3.27663012e-02f,+1.09331138e-01f,+1.54969320e-01f,
-1.17728047e-01f,+6.52308762e-02f,+1.09598912e-01f,+5.23285270e-02f,+2.52564922e-02f,
+1.96907595e-01f,+1.45640507e-01f,+1.61297441e-01f,-3.62702645e-02f,-3.72739583e-02f,
-1.72051638e-02f,+2.01434433e-01f,+2.19304442e-01f,+1.54973507e-01f,+5.99701479e-02f,
-7.28856549e-02f,+2.49127857e-02f,+6.68613911e-02f,+8.83475319e-02f,+1.75693482e-01f,
-7.14904517e-02f,-1.21429533e-01f,+1.18092708e-02f,+2.17440903e-01f,+2.87801474e-02f,
+3.39015163e-02f,-2.70129573e-02f,+7.57574243e-03f,-7.54526779e-02f,+7.11280853e-03f,
-2.24844646e-02f,-6.28785342e-02f,+1.90544471e-01f,-8.18726942e-02f,+5.42390756e-02f,
+1.11642368e-01f,+8.79581347e-02f,+8.11140984e-02f,+2.89861113e-01f,+3.65397036e-01f,
+7.58107901e-02f,+2.61204422e-01f,+1.69665098e-01f,+5.06076496e-03f,+2.69001871e-01f,
-4.59743999e-02f,+1.99913412e-01f,+3.54040444e-01f,-1.27613962e-01f,-3.19515541e-02f,
-1.05980881e-01f,+2.67989170e-02f,-4.62681660e-03f,+1.19763799e-03f,+5.41541949e-02f,
-2.00862393e-01f,+5.95901981e-02f,+1.09612271e-01f,+9.68358070e-02f,+6.91227093e-02f,
+5.90637997e-02f,-1.14156641e-01f,+1.66578099e-01f,+2.58101702e-01f,-5.92040177e-03f,
+1.38015062e-01f,-5.29596880e-02f,+2.31651723e-01f,+2.50581950e-01f,+2.14058429e-01f,
+1.62876341e-02f,-4.51530516e-02f,-6.38811961e-02f,+3.01818829e-02f,+1.08765185e-01f,
-9.41880718e-02f,+2.80074686e-01f,+1.07749842e-01f,-1.69129863e-01f,+1.52395973e-02f,
+2.64994800e-03f,+1.36347692e-02f,-2.52355933e-02f,+1.46923676e-01f,+1.81114918e-03f,
-1.28182471e-02f,+8.52255896e-02f,+6.76291361e-02f,+7.21758232e-02f,+1.99497625e-01f,
+1.20285600e-01f,+8.88734385e-02f,+1.01430140e-01f,-9.07139182e-02f,+1.67429581e-01f,
+1.45982057e-01f,+4.36734706e-02f,+6.86533600e-02f,+3.79260004e-01f,-2.30695888e-01f,
+2.12085724e-01f,+2.30133384e-01f,-1.22901976e-01f,+5.31091392e-02f,+1.26771271e-01f,
+2.09427714e-01f,-6.63695065e-03f,+1.13008231e-01f,-2.67574135e-02f,+1.45149499e-01f,
-1.25410229e-01f,+1.43932939e-01f,+1.63270637e-01f,+1.41225487e-01f,+5.22739366e-02f,
+2.09773798e-02f,+1.93345904e-01f,+9.93164480e-02f,+9.08659305e-03f,+6.17686622e-02f,
-3.42987895e-01f,+2.21932188e-01f,-1.28835857e-01f,+1.97400916e-02f,+1.01545662e-01f,
+1.65747833e-02f,-1.42040271e-02f,-1.80142578e-02f,+1.19713694e-01f,+1.75700277e-01f,
-6.37359619e-02f,+3.28907669e-01f,+1.66544113e-02f,-9.54706967e-02f,+1.57261238e-01f,
-1.21947832e-01f,-1.85339209e-02f,+1.17018316e-02f,-1.60822049e-02f,+1.50505528e-01f,
+1.18213132e-01f,+8.30628350e-03f,-2.37347484e-02f,+3.41561884e-02f,+8.00622106e-02f,
-6.56237751e-02f,-1.11150086e-01f,+8.83997753e-02f,+4.80719842e-02f,+5.63344732e-02f,
+5.19931829e-03f,+2.92778537e-02f,-1.31315440e-01f,+1.11014970e-01f,+5.21047153e-02f,
+1.10262623e-02f,-1.16364315e-01f,+2.06380803e-02f,-1.07177235e-02f,+5.11093438e-02f,
+1.22462481e-01f,+7.09953755e-02f,-3.62668210e-03f,-6.93348125e-02f,-2.38950625e-01f,
+1.33921161e-01f,-1.00835711e-01f,-1.09024242e-01f,+1.02050021e-01f,-1.54828176e-01f,
+2.09606409e-01f,-1.36386350e-01f,+7.23289177e-02f,-1.40813943e-02f,+9.10029411e-02f,
+9.17882249e-02f,+1.71152115e-01f,+5.38697876e-02f,+2.52524614e-01f,+2.17285842e-01f,
-4.73532304e-02f,-1.02766596e-01f,+1.92395318e-02f,+2.80855417e-01f,+3.73630017e-01f,
+1.82156056e-01f,+1.29436523e-01f,+1.06011324e-01f,+1.08839095e-01f,+1.49196714e-01f,
+1.94570288e-01f,+4.13066559e-02f,+1.08896382e-01f,+3.59886885e-01f,+1.06042391e-02f,
+2.13411346e-01f,-1.53865129e-01f,+6.77426159e-02f,-1.05976731e-01f,+2.28256593e-03f,
-2.15594843e-02f,+1.46818981e-01f,+4.10173722e-02f,+2.72782385e-01f,+1.93720952e-01f,
+6.42244816e-02f,-8.80871899e-03f,-7.46641606e-02f,+9.73337069e-02f,+5.51781207e-02f,
+5.52515499e-03f,-5.23723438e-02f,-1.32543951e-01f,+1.10605046e-01f,+1.94444448e-01f,
-5.17847203e-02f,-2.85625868e-02f,-8.76805186e-02f,-1.65827107e-02f,+1.42833471e-01f,
+8.58536586e-02f,+1.80299014e-01f,+2.10392088e-01f,+1.10860713e-01f,+1.41649842e-01f,
+4.29055020e-02f,-7.12801144e-02f,+7.64069930e-02f,+1.99228123e-01f,+3.72906290e-02f,
+1.74139038e-01f,+1.98018745e-01f,-3.57969031e-02f,+3.86543907e-02f,-1.09229758e-02f,
+4.25449878e-01f,+1.07816651e-01f,+1.42388791e-01f,+2.04343330e-02f,+1.77512243e-01f,
+1.38058022e-01f,+4.56690304e-02f,+1.87024429e-01f,+5.82897663e-03f,-1.98421657e-01f,
+2.93499380e-01f,+1.46884084e-01f,+1.50284514e-01f,+1.71200894e-02f,-5.61803160e-03f,
+6.90157413e-02f,-8.59749168e-02f,+1.58129022e-01f,-2.02213377e-02f,-5.45750465e-03f,
-1.95372384e-02f,+1.11256257e-01f,+2.18940124e-01f,-4.40756641e-02f,+7.08990768e-02f,
+5.60205691e-02f,+1.04944967e-01f,-1.06807109e-02f,+5.56928515e-02f,+1.54613540e-01f,
+3.05892736e-01f,+1.39077619e-01f,+6.70056939e-01f,+1.37140632e-01f,+4.73807864e-02f,
+3.73103395e-02f,+2.04003043e-02f,-4.90626469e-02f,+1.53342158e-01f,-4.10780571e-02f,
+1.29750706e-02f,-6.05596527e-02f,-1.24353178e-01f,-2.05475483e-02f,+6.46210015e-02f,
-1.14800163e-01f,+1.57325029e-01f,+1.24946162e-01f,+1.52597338e-01f,+3.08985878e-02f,
-1.03256196e-01f,+7.16851279e-02f,+4.90406346e-05f,+1.94563210e-01f,+1.86825797e-01f,
+2.95226295e-02f,+2.22852710e-03f,-3.25090662e-02f,-2.82962080e-02f,+3.07277292e-01f,
+1.13207266e-01f,+1.19838014e-01f,+6.78309649e-02f,+4.13322598e-02f,+2.58384198e-02f,
+6.67442530e-02f,-1.13727704e-01f,+2.30637193e-01f,-1.56632625e-02f,-2.11232528e-02f,
-4.96556573e-02f,-4.37434204e-02f,-6.55683922e-03f,-1.46800488e-01f,-1.27810417e-02f,
+9.20465887e-02f,+1.41271576e-01f,+6.65143803e-02f,+1.34191111e-01f,-2.13574558e-01f,
+1.53937206e-01f,+1.38728961e-01f,+7.59181827e-02f,+1.29077926e-01f,-3.63455317e-03f,
+2.67829090e-01f,+1.79181591e-01f,+5.23134358e-02f,+1.31631121e-02f,-2.90348325e-02f,
+1.56206995e-01f,+1.56736031e-01f,+6.83995485e-02f,+2.31354665e-02f,+3.75411734e-02f,
+1.17337368e-01f,+6.09090589e-02f,-8.18566605e-02f,-1.57338053e-01f,+1.01259716e-01f,
+1.97036620e-02f,+3.77991945e-02f,+1.72535002e-01f,+3.97651494e-02f,-8.97427555e-03f,
+1.23196403e-02f,+8.18597674e-02f,+9.94545594e-02f,+2.11710110e-01f,+1.61583900e-01f,
+3.04580014e-02f,+3.04103881e-01f,-1.53688912e-03f,+1.90192133e-01f,-2.28990056e-02f,
-1.89475727e-03f,+1.87170152e-02f,+3.09386365e-02f,-6.76254034e-02f,+2.03881979e-01f,
+3.57375622e-01f,-4.96202894e-02f,+7.10557075e-03f,+1.19139142e-02f,-3.60530794e-01f,
-6.02859445e-02f,-1.36004031e-01f,+1.08758852e-01f,+1.20230839e-01f,+7.40662441e-02f,
-9.65909585e-02f,+2.80841231e-01f,+8.90799984e-02f,-2.18446240e-01f,+1.54074848e-01f,
+6.93540424e-02f,+1.68802768e-01f,+3.62634622e-02f,+5.91597222e-02f,-4.99916263e-02f,
+3.78078711e-03f,+3.77421454e-02f,-1.45719470e-02f,-1.30881723e-02f,+2.22732455e-01f,
-2.47063115e-01f,+2.47517288e-01f,-5.51322065e-02f,-1.08271718e-01f,-1.04889415e-01f,
-4.13028412e-02f,+2.26956546e-01f,-2.87322421e-02f,+1.91089049e-01f,+9.92327705e-02f,
+5.35222441e-02f,+8.27401951e-02f,+2.86798865e-01f,+3.06676060e-01f,-4.28132899e-02f,
+3.74494076e-01f,-1.54359519e-01f,+1.73425034e-01f,+4.93907705e-02f,+5.87860029e-03f,
-1.63895816e-01f,+2.00370967e-01f,-1.80620939e-01f,+2.18140408e-02f,-8.60279500e-02f,
+2.46701799e-02f,-1.68925170e-02f,+5.64054437e-02f,-3.19846272e-02f,+2.70895064e-02f,
-7.14255497e-03f,+3.33716512e-01f,+8.17640275e-02f,+1.21531803e-02f,-1.50916338e-01f,
+5.22801615e-02f,-1.32672548e-01f,+9.33354497e-02f,+4.19563241e-02f,+1.28219098e-01f,
+1.60705015e-01f,-1.62306786e-01f,+4.33323160e-03f,+5.96686378e-02f,+1.16954498e-01f,
+1.74201339e-01f,-1.80995524e-01f,-7.00912476e-02f,-3.83331716e-01f,+1.10390134e-01f,
-8.11139420e-02f,+3.24882381e-02f,+7.16058612e-02f,-6.42970055e-02f,+1.10505372e-01f,
+2.71551371e-01f,-1.13808572e-01f,-1.70814648e-01f,+8.63975510e-02f,-5.24507165e-02f,
+7.31512383e-02f,+2.51415968e-01f,+7.27779567e-02f,+9.31556076e-02f,-6.63960576e-02f,
+1.42463446e-01f,+2.34505981e-01f,+2.46847197e-01f,-3.33973914e-02f,+1.50394022e-01f,
+2.44376045e-02f,+1.96729645e-01f,+1.13317885e-01f,-6.88122809e-02f,+3.92362066e-02f,
+9.38360170e-02f,+3.43274772e-02f,+3.21752541e-02f,+2.22862624e-02f,-2.13727728e-02f,
+2.45739579e-01f,+1.15620263e-01f,+4.43701774e-01f,-4.55343649e-02f,-1.61694080e-01f,
+2.53417846e-02f,+1.02744430e-01f,+7.41449930e-03f,+8.51694345e-02f,+1.49658158e-01f,
-6.42078444e-02f,-4.96561127e-03f,+6.54525831e-02f,+1.19011030e-01f,-6.82172552e-02f,
-4.72940579e-02f,-2.74290647e-02f,+3.36210318e-02f,+1.03877090e-01f,+4.89287935e-02f,
-2.64446795e-01f,+1.37126669e-01f,+1.92783102e-01f,-5.02540320e-02f,+7.84606785e-02f,
+1.21432588e-01f,+6.12839572e-02f,+5.14412485e-02f,-1.78275649e-02f,+2.75458157e-01f,
+2.24889293e-01f,-6.78469464e-02f,-3.88790593e-02f,+5.25474735e-03f,+1.25161663e-01f,
+2.15557814e-01f,+3.19402009e-01f,-6.43479005e-02f,+4.53478210e-02f,+1.69988833e-02f,
+1.28790662e-01f,-1.86567634e-01f,+5.87530024e-02f,-4.34809551e-03f,+4.27930318e-02f,
+5.05706705e-02f,+1.73823848e-01f,+2.17594996e-01f,-3.03967074e-02f,-1.08527308e-02f,
+1.16050169e-01f,+2.81041682e-01f,-6.70653805e-02f,-5.89012802e-02f,+1.95930943e-01f,
-2.22021937e-01f,+8.94769356e-02f,-3.12934816e-01f,+1.16392463e-01f,+4.46379185e-02f,
+1.11771367e-01f,-2.88599469e-02f,+1.07994348e-01f,+6.44758120e-02f,+1.59274250e-01f,
+1.03358097e-01f,+1.05833299e-01f,-4.27208692e-02f,+4.86380607e-02f,-2.97038287e-01f,
+9.00864899e-02f,+6.33317232e-02f,+1.03800647e-01f,-4.31144470e-03f,+1.10068932e-01f,
+6.00772724e-02f,+1.86947989e-03f,-4.99843135e-02f,+9.81728360e-02f,+2.59029958e-02f,
+2.92595085e-02f,+1.42331302e-01f,-5.17330579e-02f,+2.44764518e-02f,-1.07873105e-01f,
-1.83260977e-01f,+5.40844761e-02f,-3.88450809e-02f,-1.41028300e-01f,+3.40874977e-02f,
+2.97798924e-02f,-6.35930896e-02f,+6.54713437e-02f,-6.46570250e-02f,+1.22685276e-01f,
+1.17986843e-01f,+2.86440346e-02f,+3.99061739e-02f,+1.21646971e-01f,-1.26784474e-01f,
+5.50461709e-02f,-3.57294567e-02f,+5.06732613e-03f,+1.36487022e-01f,-8.77350569e-02f,
-1.53197246e-02f,-7.03750551e-03f,+1.08923070e-01f,-1.96874607e-02f,+2.08276268e-02f,
+9.12794173e-02f,+2.14673072e-01f,-9.86943841e-02f,+3.85773405e-02f,-4.61706556e-02f,
-1.52678013e-01f,-6.38517365e-02f,+5.12999147e-02f,+3.12544517e-02f,-7.08391294e-02f,
+1.88152403e-01f,+1.58002451e-01f,+5.72937317e-02f,-3.76273990e-02f,-2.30776556e-02f,
-9.71430317e-02f,+7.34784305e-02f,-2.75246538e-02f,+8.24437290e-02f,+6.75288066e-02f,
+8.36414658e-03f,-1.97200775e-01f,+1.77801013e-01f,-1.21050263e-02f,+7.72516429e-02f,
+1.00572996e-01f,+8.56713429e-02f,+1.05231076e-01f,+1.38052970e-01f,+1.30611137e-01f,
+1.06435306e-02f,+1.47932649e-01f,+6.13225922e-02f,+2.24928513e-01f,+1.52452245e-01f,
+1.10331364e-01f,-1.26827136e-02f,+1.01776138e-01f,+1.08125612e-01f,+1.50757417e-01f,
-3.66733894e-02f,-3.59065533e-02f,+1.91445649e-01f,+1.17416687e-01f,+1.75762773e-02f,
-2.97607221e-02f,-2.46003810e-02f,+9.41155553e-02f,-2.74190847e-02f,-6.05717069e-03f,
-2.90793087e-02f,+1.19087905e-01f,+1.37019977e-01f,+1.11886688e-01f,+3.42862457e-02f,
+2.60698795e-02f,+4.93340641e-02f,-7.59741813e-02f,+1.46485031e-01f,+1.21693589e-01f,
+1.54836625e-01f,-5.76018207e-02f,+1.20678924e-01f,+7.99654275e-02f,+8.47692564e-02f,
-1.28549248e-01f,+3.57191265e-02f,+8.90579522e-02f,+2.11991761e-02f,+7.57172331e-02f,
+2.45554261e-02f,+3.14596891e-01f,+9.89213511e-02f,+1.84176788e-01f,+2.38087893e-01f,
+1.63199261e-01f,+1.85403541e-01f,+3.13864797e-02f,+1.52744457e-01f,+1.20941296e-01f,
+5.44766411e-02f,-4.07778099e-02f,-4.73900437e-02f,+8.14255923e-02f,+9.22413841e-02f,
-1.55285418e-01f,+1.08681694e-01f,+1.00334935e-01f,+3.98427621e-02f,+1.27738714e-01f,
+1.00650273e-01f,+3.77177633e-02f,+8.42601582e-02f,+2.56567374e-02f,+7.47797117e-02f,
+1.37043566e-01f,+5.34594730e-02f,+1.22542540e-02f,+2.35986318e-02f,-1.10566549e-01f,
-5.13509177e-02f,-2.84734648e-02f,+1.00154854e-01f,-4.09555584e-02f,+1.57616526e-01f,
+2.63565719e-01f,+2.00939849e-01f,+1.60289794e-01f,+2.31079962e-02f,-1.32094935e-01f,
+1.15745790e-01f,+7.56057575e-02f,+8.33448097e-02f,+2.23479494e-01f,+1.37402952e-01f,
+2.50576548e-02f,+8.78209248e-02f,-5.19992597e-02f,+1.88827708e-01f,-1.48122251e-01f,
+8.85691270e-02f,+6.82163686e-02f,+1.48443747e-02f,-2.03933809e-02f,+6.75797686e-02f,
-4.67868820e-02f,+4.40435186e-02f,+3.58478464e-02f,-1.05166607e-01f,+1.36072468e-02f,
-6.02586046e-02f,-5.86798191e-02f,+7.82713816e-02f,-1.45870194e-01f,-1.93529278e-01f,
-3.25008444e-02f,+7.28756338e-02f,+5.10311052e-02f,+3.62222344e-01f,-1.67406574e-02f,
+1.98374428e-02f,+1.75628453e-01f,+1.62421018e-01f,+9.63687822e-02f,-4.99168299e-02f,
+1.31777581e-02f,+1.30421415e-01f,+1.39432922e-01f,+2.57423967e-01f,+6.18290864e-02f,
+7.58714080e-02f,+9.20713246e-02f,+2.60853469e-01f,+1.72135860e-01f,+7.83158913e-02f,
-3.19963358e-02f,-3.39624099e-02f,-3.00779147e-03f,+3.18435095e-02f,+1.53939556e-02f,
+1.92527488e-01f,+1.92803831e-03f,+1.06973402e-01f,+1.71711892e-01f,+8.49594623e-02f,
+1.57018416e-02f,+8.44561122e-03f,+2.00263783e-01f,+7.67059699e-02f,-6.20702608e-03f,
+1.27152512e-02f,+4.73644100e-02f,-8.92802775e-02f,+5.34608699e-02f,-7.39798695e-02f,
+2.13113144e-01f,+7.53669366e-02f,+1.75937731e-02f,+1.06730551e-01f,+3.27448621e-02f,
+2.35459208e-01f,+8.08962137e-02f,+8.43212828e-02f,-1.47275040e-02f,+1.60660818e-01f,
+1.23388596e-01f,+7.56694078e-02f,+4.83014435e-02f,-2.16758531e-03f,+5.39811850e-02f,
+1.34304553e-01f,+9.03463215e-02f,-1.85804870e-02f,+2.23638094e-03f,+9.57655534e-02f,
+7.66273886e-02f,+9.59874913e-02f,+8.08342732e-03f,-1.33581221e-01f,+1.76344261e-01f,
+9.09748375e-02f,-1.27510503e-01f,+1.00750569e-02f,+5.67349829e-02f,+4.28112336e-02f,
-4.27840697e-03f,+1.13411933e-01f,+1.27343625e-01f,+1.38575435e-01f,+8.80348906e-02f,
+7.98172725e-04f,+8.99087545e-03f,-4.69400585e-02f,+2.17803568e-01f,-1.09642707e-01f,
-3.62782590e-02f,+1.35227174e-01f,+1.16313092e-01f,+1.12849697e-01f,+3.95602360e-02f,
-5.48637360e-02f,-1.35911210e-02f,+9.31448340e-02f,+3.05242389e-01f,+6.70853928e-02f,
-4.23927456e-02f,+8.98599550e-02f,-9.35589895e-02f,+1.45481050e-01f,+8.95342380e-02f,
+8.48641768e-02f,+3.46965231e-02f,-3.97328734e-02f,+1.02480292e-01f,+8.31478760e-02f,
-5.91845736e-02f,+7.66959265e-02f,-5.20908786e-03f,+1.32388338e-01f,-1.06911808e-02f,
+6.55750185e-02f,+3.47278565e-01f,-5.83135560e-02f,+2.07218274e-01f,-1.13042191e-01f,
+1.09022580e-01f,+6.22844622e-02f,+2.84660105e-02f,+2.41501555e-02f,+9.30657759e-02f,
+8.23019892e-02f,+2.34498680e-01f,+4.14251722e-02f,+2.33962893e-01f,+1.25495568e-02f,
+1.39190495e-01f,+4.36395109e-02f,+2.90548533e-01f,+1.03362761e-01f,+1.35428488e-01f,
+1.73408110e-02f,+2.73549080e-01f,+1.11754850e-01f,+6.13358989e-02f,+7.61843845e-02f,
+6.69251720e-04f,+1.95303768e-01f,+5.38772084e-02f,+3.45774256e-02f,+1.25921011e-01f,
+2.18132123e-01f,+7.22607151e-02f,+5.06621227e-03f,+6.06819466e-02f,-3.85350473e-02f,
+8.15277323e-02f,-2.52832267e-02f,+2.04421729e-02f,+1.37065619e-01f,-5.48344329e-02f,
-7.06054131e-03f,+1.26254737e-01f,+1.12156250e-01f,-2.31351834e-02f,+1.61820114e-01f,
+6.39866665e-02f,+4.89927083e-02f,+3.40239890e-02f,+2.32904777e-01f,+4.67304625e-02f,
+1.41166061e-01f,-2.99386606e-02f,+7.34928325e-02f,+8.64238590e-02f,+7.75568634e-02f,
+1.99945822e-01f,-9.14006587e-03f,+8.40204477e-04f,-3.22517864e-02f,+6.90865740e-02f,
-1.35381088e-01f,+8.87365118e-02f,-1.16867974e-01f,+6.93857223e-02f,-3.90691981e-02f,
+5.18838353e-02f,+7.88630694e-02f,+7.41163492e-02f,+1.43536910e-01f,+5.33499829e-02f,
+1.24045454e-01f,+7.03890175e-02f,+1.13706999e-01f,+1.40502870e-01f,+8.87261480e-02f,
-5.25719710e-02f,+3.09619829e-02f,-4.29755002e-02f,+1.19503289e-01f,+8.41678008e-02f,
+5.91095090e-02f,+1.63183555e-01f,+1.51385143e-01f,-2.22521019e-03f,+2.28342012e-01f,
+1.59656495e-01f,-3.38057317e-02f,+1.81054339e-01f,+6.94250762e-02f,+2.44578794e-01f,
+9.02664363e-02f,+1.17585212e-01f,-8.04182664e-02f,+3.74112912e-02f,+1.59153804e-01f,
+1.64518997e-01f,+8.44192281e-02f,+6.35230988e-02f,+7.72778466e-02f,+8.54684263e-02f,
-5.01357578e-02f,+1.10181242e-01f,-7.59465992e-02f,+1.07358694e-01f,+7.32096210e-02f,
-2.92105764e-01f,+1.99732378e-01f,-8.35314691e-02f,+6.84946775e-02f,+2.10455768e-02f,
+1.12629831e-01f,+8.62838551e-02f,-5.02227806e-03f,+2.21133530e-01f,+4.00309497e-03f,
+1.61179379e-02f,+3.24675068e-02f,+1.13492079e-01f,+1.24542557e-01f,-9.62689985e-03f,
-1.52394801e-01f,+1.89509150e-02f,+1.43313348e-01f,+7.12188408e-02f,+1.29563361e-01f,
+5.71956672e-02f,+3.34676392e-02f,+1.22002579e-01f,-2.10262779e-02f,+2.62123030e-02f,
+4.65389080e-02f,+3.67028452e-02f,-5.06741703e-02f,+1.21152125e-01f,+3.96606289e-02f,
+1.11996971e-01f,+1.52739719e-01f,+2.37090923e-02f,+1.27027795e-01f,+1.01476848e-01f,
-2.56844256e-02f,+9.18989033e-02f,+1.11381456e-01f,+1.52082235e-01f,-2.77076978e-02f,
+3.90576161e-02f,+2.79105604e-02f,+1.32853076e-01f,+6.86238036e-02f,-2.03194488e-02f,
+9.78439599e-02f,+2.16642977e-03f,+3.06533985e-02f,+3.97284441e-02f,+7.16249123e-02f,
+2.23631829e-01f,-1.39722098e-02f,+9.55564231e-02f,+7.26570487e-02f,+1.31130785e-01f,
+1.44553080e-01f,+1.09930508e-01f,+2.04552799e-01f,+4.55922596e-02f,+1.10457823e-01f,
+3.46356034e-02f,+1.70769855e-01f,-1.18528105e-01f,+1.42954499e-01f,+1.61575615e-01f,
+1.30056310e-02f,+1.43923182e-02f,-9.35765728e-03f,+1.97532594e-01f,+1.35206714e-01f,
+1.67529568e-01f,+1.25685930e-01f,+1.18501224e-01f,+1.07603878e-01f,+1.26563787e-01f,
-3.46716195e-02f,+1.98411882e-01f,+4.41949107e-02f,+3.00531536e-02f,+7.86664188e-02f,
+1.26987666e-01f,+1.43384591e-01f,+1.29930988e-01f,+1.84568793e-01f,+6.88276514e-02f,
+1.35857791e-01f,+7.63121173e-02f,+1.25357270e-01f,-2.78756575e-04f,+1.55355129e-02f,
+1.05614491e-01f,+1.51330411e-01f,+1.26995921e-01f,+1.56234995e-01f,-3.85305025e-02f,
+1.62035540e-01f,+1.57546923e-01f,+1.60932943e-01f,+2.44122937e-01f,+1.28645480e-01f,
+7.70585835e-02f,+8.37641507e-02f,-1.34452671e-01f,+1.26105696e-01f,+1.42975161e-02f,
+7.87792653e-02f,+6.03918582e-02f,+2.27906644e-01f,+3.89520414e-02f,+9.15328562e-02f,
+9.47749689e-02f,-7.34888390e-03f,+1.29593655e-01f,+1.32656097e-01f,+1.70213968e-01f,
+1.62660509e-01f,+2.11403251e-01f,+1.74466938e-01f,+1.11954510e-01f,+2.36846074e-01f,
+1.75531790e-01f,+1.66015700e-02f,-5.47827147e-02f,-7.73637220e-02f,-1.16607986e-01f,
-7.33345300e-02f,+1.33951634e-01f,+1.53418472e-02f,+4.72900420e-02f,+1.69823170e-01f,
+1.04495943e-01f,+1.57634318e-01f,+4.40879352e-02f,+8.25559869e-02f,+7.43372692e-03f,
+1.16829716e-01f,+1.84646070e-01f,+5.33925518e-02f,+1.85654715e-01f,+9.88187417e-02f,
-6.93256557e-02f,-2.74579525e-02f,+1.48975495e-02f,+3.91650014e-02f,-3.60062532e-02f,
+7.04591125e-02f,+6.07473589e-02f,-5.62996119e-02f,+3.54062393e-02f,+8.52709189e-02f,
+1.22613549e-01f,+4.82483618e-02f,+7.40825310e-02f,+7.88457245e-02f,+1.28613487e-01f,
+1.49293363e-01f,+3.22600733e-03f,+5.84092282e-04f,+1.26358429e-02f,+2.00808287e-01f,
-1.67815089e-02f,-1.19019635e-02f,+2.98070669e-01f,+1.68406084e-01f,+2.06163637e-02f,
+2.15697795e-01f,-3.66038010e-02f,+8.74379352e-02f,+1.68938357e-02f,+1.50528371e-01f,
+1.35655865e-01f,+4.64663804e-02f,+7.22007528e-02f,-4.04634699e-02f,+1.02038205e-01f,
+4.65453938e-02f,+5.18807806e-02f,+1.11950204e-01f,-7.72924200e-02f,+2.00140715e-01f,
+1.19614892e-01f,-8.16620365e-02f,+6.13149963e-02f,+7.67857358e-02f,-5.12177683e-03f,
+1.94685370e-01f,+1.83355242e-01f,+8.94681737e-02f,+1.20140865e-01f,+8.72984901e-02f,
+1.91610500e-01f,-1.01441838e-01f,+1.95050567e-01f,+2.80747563e-01f,+1.34238526e-01f,
+1.64463222e-01f,+6.82256222e-02f,+1.01832077e-01f,+7.32610598e-02f,+1.39054870e-02f,
+7.54017681e-02f,-6.13908879e-02f,+1.49546400e-01f,+1.37060076e-01f,+1.70199260e-01f,
+1.48076370e-01f,+1.30850729e-03f,+1.47557378e-01f,-2.49799080e-02f,+1.10874183e-01f,
+4.30908836e-02f,+5.47657907e-02f,+1.13881640e-01f,+1.00865901e-01f,-4.43968587e-02f,
+5.43957464e-02f,+7.09816907e-03f,+1.87301546e-01f,+1.29752979e-01f,+1.74299985e-01f,
+4.30444889e-02f,+7.84089267e-02f,+1.06833845e-01f,+2.24914253e-02f,+2.30250388e-01f,
+3.48273888e-02f,-6.62090778e-02f,-8.49039119e-04f,+2.53777839e-02f,+3.60276736e-02f,
+1.30625442e-01f,+7.78120756e-02f,+1.58994362e-01f,+6.67746961e-02f,+1.37689173e-01f,
+6.71235248e-02f,+1.80076152e-01f,+3.10092922e-02f,+8.29688981e-02f,+1.53276175e-01f,
+1.50217190e-01f,-6.08875789e-02f,+2.65419725e-02f,-3.50370817e-02f,+7.20394477e-02f,
+9.53999609e-02f,+3.73275317e-02f,+1.76929124e-02f,+9.52730253e-02f,+8.92158598e-02f,
+2.03179545e-03f,+9.55723152e-02f,+1.19264178e-01f,+2.31808797e-01f,+1.24118552e-02f,
-1.60755496e-02f,+3.59207019e-02f,-4.18674499e-02f,+1.48707211e-01f,+6.18487261e-02f,
+6.39464855e-02f,+9.21351910e-02f,-3.14231403e-02f,+1.61924332e-01f,+4.48139757e-02f,
+8.52057487e-02f,-2.60270275e-02f,-5.79112433e-02f,+7.55830258e-02f,+4.15261574e-02f,
+1.58375755e-01f,+1.37194484e-01f,-1.19998092e-02f,+4.60152812e-02f,-4.68378849e-02f,
+5.21639995e-02f,+3.37515660e-02f,+1.56792209e-01f,-1.19468914e-02f,+1.89095765e-01f,
+6.19252324e-02f,+1.39523998e-01f,+9.00171623e-02f,+7.09697381e-02f,-1.88743249e-02f,
+4.79771243e-03f,-1.33549288e-01f,-2.34041419e-02f,+8.04685354e-02f,-8.93017650e-02f,
+1.73509195e-01f,-4.07257769e-03f,-1.06855549e-01f,+2.36926191e-02f,-1.39418781e-01f,
+1.40728923e-02f,+2.29843587e-01f,-3.59456241e-02f,-3.59534658e-02f,-1.39402643e-01f,
+2.95197014e-02f,-1.88771859e-02f,+1.62433684e-01f,-1.50774106e-01f,+1.26948506e-01f,
+1.20502263e-01f,-8.03570151e-02f,-7.78388605e-02f,-7.16292709e-02f,-1.00524552e-01f,
-5.60552068e-02f,+1.42656192e-01f,+1.56697914e-01f,+1.37705311e-01f,-5.35390973e-02f,
+2.36701071e-02f,-1.13766313e-01f,+6.02195002e-02f,+1.60318792e-01f,-3.58332787e-03f,
+7.44949877e-02f,+9.59171504e-02f,+1.37932658e-01f,+4.45477292e-02f,-9.03753117e-02f,
+9.94383544e-02f,+2.22802594e-01f,-8.44566151e-03f,+6.95899799e-02f,+2.14064531e-02f,
+1.12078199e-02f,+1.15794860e-01f,-5.71923591e-02f,+5.97383268e-02f,+1.37366191e-01f,
+9.27042738e-02f,+8.45219195e-03f,+1.08315162e-01f,+1.95853785e-01f,+1.87076237e-02f,
+7.23494440e-02f,+9.79556739e-02f,+1.68297231e-01f,-2.00373977e-01f,+8.38713497e-02f,
+1.41283870e-02f,+2.61925399e-01f,+8.71940106e-02f,+1.18369304e-01f,+1.56363606e-01f,
+2.72459835e-02f,+6.33716136e-02f,-2.47497354e-02f,+1.47675663e-01f,+9.60279033e-02f,
+6.99653178e-02f,+1.54711545e-01f,-9.47431177e-02f,+1.72257319e-01f,+9.14345756e-02f,
+6.90441877e-02f,+2.52007432e-02f,+1.66925211e-02f,+1.61492079e-01f,-2.98254751e-02f,
+2.16218680e-01f,+4.53369168e-04f,-7.41568133e-02f,+2.12420393e-02f,+2.14853529e-02f,
-1.77119989e-02f,+7.56343007e-02f,+1.45098725e-02f,+1.71352997e-01f,+1.98682010e-01f,
+1.84730306e-01f,+6.14071339e-02f,+2.87778437e-01f,+1.23540998e-01f,+1.86801866e-01f,
-9.50675011e-02f,+1.74604639e-01f,+7.20129386e-02f,+8.93714204e-02f,+1.01941423e-02f,
-4.70426045e-02f,-4.66327593e-02f,-6.69121370e-02f,-6.69762418e-02f,+1.45267637e-04f,
+9.09591615e-02f,+6.03565872e-02f,-8.50490388e-03f,+2.00889055e-02f,+2.21469477e-02f,
-1.07357353e-01f,+7.68847540e-02f,+1.60143614e-01f,+1.40695512e-01f,+1.16934236e-02f,
+1.50642499e-01f,+1.01208851e-01f,+2.12510452e-01f,+9.63520035e-02f,+1.22234359e-01f,
-9.01294127e-02f,+4.92850766e-02f,-4.41928692e-02f,+9.26252175e-03f,-3.34926769e-02f,
+2.00622529e-02f,+5.14642037e-02f,+9.65484008e-02f,+4.01702076e-02f,+4.09357101e-02f,
+1.92072857e-02f,-7.03378245e-02f,+9.05325413e-02f,+6.47486895e-02f,+1.17948510e-01f,
-1.34427786e-01f,+2.10167766e-01f,-1.17175922e-01f,-9.28973183e-02f,+3.77198122e-02f,
-3.04876938e-02f,+4.99202833e-02f,-6.40088469e-02f,+7.71905482e-02f,+1.16721034e-01f,
+1.37347549e-01f,+1.34465694e-01f,+2.74732001e-02f,-7.70428777e-03f,+1.68366298e-01f,
+2.58181859e-02f,+1.15345009e-01f,-3.53687652e-03f,-8.34851786e-02f,-5.60406744e-02f,
+4.72326167e-02f,+1.63290441e-01f,+1.29142582e-01f,-5.71055599e-02f,+6.99172029e-03f,
+9.67903361e-02f,+1.66693225e-03f,+1.77119046e-01f,+1.94828287e-02f,+1.50598288e-01f,
+1.22661784e-01f,+1.31041124e-01f,+1.73072428e-01f,+1.22456767e-01f,+1.49279721e-02f,
-6.87335730e-02f,+2.22279519e-01f,+1.54408380e-01f,+2.12600697e-02f,+5.58545180e-02f,
+2.13538632e-01f,-3.39199081e-02f,-6.92004040e-02f,-9.11343098e-03f,+3.92559133e-02f,
-7.83079024e-03f,+8.43521282e-02f,+7.09547251e-02f,+9.36719030e-02f,-7.61480071e-03f,
+2.23528985e-02f,+1.11251347e-01f,+4.47709039e-02f,-1.11790650e-01f,-9.85030681e-02f,
+3.22263762e-02f,+1.74498677e-01f,+2.09043343e-02f,-9.98245329e-02f,+1.33035239e-02f,
+7.31655806e-02f,-9.77260694e-02f,+6.50273636e-02f,+1.02036871e-01f,-4.63985763e-02f,
+9.06884372e-02f,-2.07843492e-03f,+1.99791836e-03f,+9.61449221e-02f,-4.02193516e-02f,
+4.32182215e-02f,+1.23312965e-01f,+2.80988161e-02f,-7.09251240e-02f,+2.67769042e-02f,
+3.97270210e-02f,+8.06378946e-02f,+9.49189588e-02f,-2.64644828e-02f,+1.28328398e-01f,
+1.18155092e-01f,+6.22611083e-02f,+2.20227093e-01f,+1.34803638e-01f,-3.57816555e-02f,
+1.44861862e-01f,-3.53630423e-03f,+9.45900828e-02f,+1.28822848e-01f,+5.21328449e-02f,
+9.56863314e-02f,+1.36234730e-01f,-4.66869958e-02f,-1.39535412e-01f,+1.96061786e-02f,
+8.82519856e-02f,+1.68801785e-01f,+1.12891585e-01f,+1.67769473e-02f,+7.96046630e-02f,
+5.62635623e-02f,-1.01542152e-01f,-1.09584900e-02f,+3.55586559e-02f,+7.56931156e-02f,
+5.55566177e-02f,+3.45819324e-01f,-1.00881822e-01f,+1.06966130e-01f,-6.55046776e-02f,
-2.71090716e-02f,+3.23499106e-02f,+4.68850546e-02f,+1.37427792e-01f,+8.86365846e-02f,
+4.73668054e-02f,+3.91351096e-02f,-1.32417187e-01f,+7.30751976e-02f,+1.87680183e-03f,
-1.21580577e-02f,+6.15637302e-02f,-8.01218003e-02f,-9.82742906e-02f,-1.00591807e-02f,
+2.33189669e-02f,+1.84428364e-01f,+1.95630580e-01f,-1.44976705e-01f,+1.16424337e-01f,
+2.21658796e-01f,+7.29985088e-02f,+7.61091113e-02f,+2.67676711e-01f,-6.39985502e-02f,
+1.42601237e-01f,+9.30056646e-02f,-1.82214472e-02f,+9.12487358e-02f,-1.59122739e-02f,
-2.75866166e-02f,+3.03354897e-02f,+1.64745495e-01f,-4.30465229e-02f,+1.95630014e-01f,
+9.95346904e-03f,-5.78548387e-03f,-7.25572854e-02f,-8.49196762e-02f,+2.05450561e-02f,
-1.14597708e-01f,+1.82292536e-01f,+7.18294978e-02f,+7.48358443e-02f,-5.18372282e-02f,
+5.82761429e-02f,-3.94865498e-02f,-1.33998040e-02f,+2.10772362e-02f,+1.50446221e-01f,
+7.41051286e-02f,+1.41129330e-01f,-5.50112054e-02f,+8.61246958e-02f,+4.12733108e-02f,
-3.49234091e-03f,-3.29937078e-02f,+8.14099386e-02f,+8.90979916e-02f,+9.02804434e-02f,
+2.33636647e-02f,+2.56871343e-01f,-8.42015296e-02f,+2.82497644e-01f,-1.92911960e-02f,
+2.88358275e-02f,+1.31352901e-01f,+8.21323693e-02f,+2.59609371e-02f,+1.41216010e-01f,
+1.11803889e-01f,-4.53172289e-02f,-1.30934358e-01f,-8.53327736e-02f,+9.29566324e-02f,
-4.45575006e-02f,-9.98626556e-03f,-1.05740142e-03f,+5.89632988e-02f,+1.49199113e-01f,
-9.58717428e-03f,-4.73037213e-02f,+2.18354076e-01f,+1.32041991e-01f,+7.14257061e-02f,
+5.45487404e-02f,-7.87789971e-02f,+7.01435953e-02f,-1.19875751e-01f,-3.20534292e-03f,
-1.92998111e-01f,+1.49527311e-01f,+8.71734694e-02f,+8.42516422e-02f,-2.57959645e-02f,
+1.35452002e-01f,-3.44709419e-02f,+1.25994056e-01f,+1.06329247e-02f,+1.85831860e-01f,
+8.39322358e-02f,-5.89293726e-02f,+2.54122972e-01f,+1.33926168e-01f,+1.51918858e-01f,
-1.17619060e-01f,-1.71093643e-02f,+1.42743558e-01f,+1.28686294e-01f,+8.44302028e-02f,
+9.17057320e-03f,+5.58888651e-02f,+6.43088147e-02f,+1.05530374e-01f,-4.49098833e-02f,
+4.70292531e-02f,-2.07049567e-02f,+5.41935153e-02f,-3.39702100e-01f,+2.75654532e-02f,
-1.74321719e-02f,+3.71225774e-02f,+2.05454063e-02f,+2.37009048e-01f,+3.36945355e-02f,
+1.46535218e-01f,+1.27900079e-01f,+1.42425820e-01f,+8.33929405e-02f,+9.43528786e-02f,
+8.79796818e-02f,+1.65149540e-01f,-2.38105878e-02f,-6.46059439e-02f,+7.74501413e-02f,
+2.64969468e-02f,+1.02442525e-01f,+2.03156933e-01f,+1.42887801e-01f,-7.11095706e-02f,
+1.42853007e-01f,-4.70741875e-02f,-2.78816484e-02f,-1.50087886e-02f,+8.25956687e-02f,
+2.71099284e-02f,+1.21127233e-01f,-6.57013357e-02f,+1.86153144e-01f,+1.49149179e-01f,
+4.97798659e-02f,+1.44174531e-01f,+1.15904391e-01f,-9.38359722e-02f,+4.56223078e-02f,
+1.42288029e-01f,+3.61296278e-03f,+6.95719495e-02f,+2.04761207e-01f,+7.20000416e-02f,
+1.51085541e-01f,+1.35818988e-01f,-7.86019266e-02f,+7.66398236e-02f,+1.28611624e-01f,
+1.20885544e-01f,+8.71049091e-02f,+1.34318704e-02f,+2.73316264e-01f,-3.64652276e-01f,
+7.93118589e-03f,-1.53256580e-01f,-1.83293093e-02f,+1.92857772e-01f,+6.29475191e-02f,
+2.84362823e-01f,+1.37887850e-01f,+1.74621027e-03f,+4.69479226e-02f,+2.08463833e-01f,
-8.43693987e-02f,+7.99643770e-02f,+1.45351186e-01f,-1.39879305e-02f,+9.31007639e-02f,
+3.21110375e-02f,+9.53218639e-02f,+5.32806665e-02f,+7.97109306e-02f,+1.97269723e-01f,
+1.26178202e-03f,+2.99934205e-02f,-4.54789624e-02f,-1.44116908e-01f,+2.04460874e-01f,
+5.35225160e-02f,+1.13475755e-01f,-1.91968083e-01f,-4.58947290e-03f,+1.55207798e-01f,
+3.20794046e-01f,+3.86470482e-02f,+2.85538435e-02f,+2.11567238e-01f,+5.19304257e-03f,
+5.32749631e-02f,-5.26868403e-02f,+1.12776667e-01f,+1.10099144e-01f,+5.25921062e-02f,
+1.46784216e-01f,+3.53164114e-02f,+1.92498136e-02f,+1.29297867e-01f,+2.21116722e-01f,
+3.31438519e-02f,+1.59638017e-01f,-2.92560179e-02f,+2.77530514e-02f,+1.15497597e-01f,
-3.46627943e-02f,+5.15860021e-02f,+7.46591762e-02f,+3.39484327e-02f,-4.25563119e-02f,
+9.53366533e-02f,+2.40081802e-01f,+1.47150323e-01f,+1.70423031e-01f,+1.15439825e-01f,
-2.83172522e-02f,+7.59418607e-02f,+1.37269944e-01f,+1.03502460e-01f,+1.94039807e-01f,
+1.11750372e-01f,+2.30101589e-02f,+1.88315347e-01f,+1.09715797e-01f,+6.51594773e-02f,
-4.55671363e-02f,+4.35999706e-02f,-3.78061868e-02f,-2.23102361e-01f,-1.42353848e-01f,
+2.86001340e-02f,-8.98169279e-02f,-5.28285839e-02f,+8.56373757e-02f,+1.59890950e-01f,
-4.44616638e-02f,+8.31734166e-02f,+7.68493637e-02f,+1.32311955e-01f,+1.88974127e-01f,
+6.32395521e-02f,+1.07836947e-01f,+4.28101458e-02f,+2.98127551e-02f,+1.12893954e-01f,
+3.49238253e-04f,+1.82893887e-01f,-2.06285462e-01f,+1.47837162e-01f,+6.91397861e-02f,
-6.59548268e-02f,-4.49134484e-02f,+1.83423653e-01f,+1.98552296e-01f,+7.89619833e-02f,
+1.18688159e-01f,+1.17692359e-01f,+3.07688378e-02f,+1.97349563e-01f,+9.06857848e-02f,
+1.28050178e-01f,+5.14370203e-02f,+4.94351238e-02f,+1.01984804e-02f,+3.83371711e-02f,
+3.14089000e-01f,+1.71115622e-01f,-3.26245464e-02f,+3.56662720e-02f,+1.99144065e-01f,
+5.02495617e-02f,+1.71033725e-01f,+5.26863895e-02f,+1.88805565e-01f,+5.74234799e-02f,
+1.18453607e-01f,+4.30780500e-02f,+1.44755170e-01f,+9.34759378e-02f,+6.46517202e-02f,
+6.71436787e-02f,+3.46730053e-02f,+8.31701607e-02f,+9.55384448e-02f,+7.43275434e-02f,
+1.07680015e-01f,-5.38743809e-02f,-1.09391093e-01f,+5.04965894e-03f,+1.07106492e-02f,
-8.22597463e-03f,-1.89989045e-01f,+1.02257624e-01f,+9.59576219e-02f,+4.65552248e-02f,
+1.57356128e-01f,+2.85763502e-01f,+1.40951201e-01f,+7.65069481e-03f,+9.49494988e-02f,
+2.11026251e-01f,+1.44378111e-01f,+6.62624463e-02f,+9.32782218e-02f,+1.06782667e-01f,
-1.55691814e-03f,+1.57240927e-01f,+3.14345658e-02f,+1.49342522e-01f,+1.33125275e-01f,
+8.24337453e-02f,+2.41165861e-01f,+2.31284276e-02f,-3.07530556e-02f,+2.12744996e-01f,
-2.20470354e-02f,+4.34006415e-02f,-4.56287749e-02f,+9.59864818e-03f,+2.25602731e-01f,
+1.00241944e-01f,+9.33452398e-02f,+1.33152515e-01f,+3.70396040e-02f,+8.50788131e-02f,
+1.80384535e-02f,-9.08311829e-03f,+1.49690136e-01f,+1.42408282e-01f,+3.62075008e-02f,
+2.23960518e-03f,+4.78964560e-02f,-1.53298359e-02f,-2.37352848e-02f,-3.26368771e-02f,
+2.35352829e-01f,+1.03041492e-01f,+4.30367626e-02f,+9.04944316e-02f,+1.24869652e-01f,
+4.12643068e-02f,+1.16748642e-03f,-4.42280658e-02f,+1.38258919e-01f,+6.01921864e-02f,
+8.56961608e-02f,+1.14525512e-01f,+4.15763035e-02f,+6.52401671e-02f,+1.65262863e-01f,
+1.26099801e-02f,+4.42637578e-02f,+1.59602076e-01f,+2.72206701e-02f,+2.38144666e-01f,
+2.04544872e-01f,-5.52685112e-02f,+1.20234363e-01f,+3.25453095e-02f,+8.30892473e-02f,
+9.44161341e-02f,+9.95394513e-02f,-1.04004890e-01f,+8.56190026e-02f,-5.70631353e-03f,
+1.56004190e-01f,+1.16025031e-01f,+2.55802963e-02f,+4.44136336e-02f,+1.22217178e-01f,
+1.31318733e-01f,-1.21789845e-03f,+1.16032613e-02f,+2.15935782e-01f,+7.45711997e-02f,
+4.31781188e-02f,+1.30544692e-01f,-1.26907662e-01f,-7.38776475e-03f,+2.58090109e-01f,
+1.48702174e-01f,+1.10155106e-01f,+4.06317785e-02f,+4.89161573e-02f,+2.07846556e-02f,
+1.60886499e-03f,-2.25547835e-01f,+1.22784801e-01f,+2.18380224e-02f,+9.68088023e-03f,
+2.89475381e-01f,+1.33909479e-01f,+1.48618415e-01f,+1.21806890e-01f,+1.31942809e-01f,
+1.38302799e-02f,+8.40689316e-02f,+4.03354950e-02f,+1.50277749e-01f,+5.46570942e-02f,
+7.17771947e-02f,-3.90927754e-02f,+1.19979180e-01f,+2.22856030e-02f,+7.40356967e-02f,
+1.97242558e-01f,+8.85507539e-02f,+2.80151628e-02f,-7.30065703e-02f,-1.72462780e-03f,
+2.19699681e-01f,+7.19702989e-02f,-1.75384134e-02f,+3.19083594e-02f,+1.17887273e-01f,
+1.05210893e-01f,-2.45816670e-02f,+1.56481951e-01f,+2.58430075e-02f,-5.46760438e-03f,
+1.26659483e-01f,+1.07651323e-01f,+7.28588775e-02f,+1.50227435e-02f,+7.17803603e-03f,
+1.95719227e-01f,+1.07656837e-01f,+9.70421359e-02f,+7.57080391e-02f,+8.91701207e-02f,
+4.84679081e-03f,+5.58985658e-02f,+7.36733451e-02f,+2.70449817e-01f,-5.95087670e-02f,
+5.95079623e-02f,+9.30121988e-02f,+2.35185429e-01f,+1.70600846e-01f,+7.87868053e-02f,
+1.04373872e-01f,+7.73869902e-02f,-1.27614707e-01f,+4.16046232e-02f,+1.54193610e-01f,
+6.36943281e-02f,+5.31092696e-02f,+8.09166729e-02f,+1.94572389e-01f,+6.51951730e-02f,
+2.58481950e-02f,+7.43953288e-02f,+1.31596133e-01f,+1.50807485e-01f,+1.27088845e-01f,
+6.46536946e-02f,+7.30799139e-02f,+2.06752509e-01f,+1.16946101e-01f,+1.05264589e-01f,
+1.81260780e-01f,-1.33396527e-02f,+7.82313272e-02f,+8.50764364e-02f,+1.21808700e-01f,
+8.17445666e-02f,-5.37497401e-02f,+1.06405325e-01f,+6.59608692e-02f,+1.56387448e-01f,
+5.80151752e-02f,+6.81997985e-02f,-1.06357751e-04f,+7.29675665e-02f,+8.56748074e-02f,
+2.78353155e-01f,+4.37276661e-02f,+2.32046157e-01f,+8.77818018e-02f,+1.34923786e-01f,
+2.33370185e-01f,-4.24299669e-03f,+2.01652095e-01f,+9.15534422e-02f,+1.96561098e-01f,
+6.83277920e-02f,+7.74525777e-02f,-3.49953249e-02f,+1.18523985e-01f,+7.82776698e-02f,
+2.78513372e-01f,+1.71065584e-01f,+3.05109620e-02f,+1.26865223e-01f,-4.06032652e-02f,
+8.41480419e-02f,+1.34723157e-01f,+1.11540131e-01f,+9.76164117e-02f,+3.69020514e-02f,
-4.48675547e-03f,-1.98721346e-02f,+6.48012245e-03f,+1.14150159e-01f,+3.13050412e-02f,
+9.06325132e-02f,+1.63628176e-01f,+1.69476077e-01f,+5.91556877e-02f,+9.09396484e-02f,
-9.38615575e-03f,+1.00531146e-01f,+1.48859724e-01f,+5.93009070e-02f,+1.21498980e-01f,
+5.00641018e-02f,+1.57141611e-01f,+1.26150817e-01f,-2.74770753e-03f,-3.71640213e-02f,
+6.50762022e-02f,-1.09276315e-02f,+1.10305734e-01f,+7.89969489e-02f,+1.51112854e-01f,
+6.48475215e-02f,-1.67562533e-02f,+5.61030135e-02f,-1.45776987e-01f,+3.04522738e-02f,
+2.22331792e-01f,+1.14531785e-01f,+4.36672568e-02f,+1.40634820e-01f,+1.11078925e-01f,
-1.41167734e-03f,+5.66762760e-02f,-3.20595205e-02f,+1.91817865e-01f,-4.12618704e-02f,
-4.84728999e-03f,-1.23089412e-02f,-1.44543611e-02f,+1.07645489e-01f,-2.14831650e-01f,
-4.53125462e-02f,+2.42838472e-01f,+9.56307501e-02f,+2.85728186e-01f,+5.00394814e-02f,
-5.57981171e-02f,+1.31395310e-01f,+2.00213492e-02f,+1.07210599e-01f,-2.42170412e-03f,
+5.63028231e-02f,+1.14166200e-01f,+2.29989067e-02f,+9.69807804e-02f,+6.73111528e-02f,
+3.13567072e-01f,-5.23914360e-02f,+1.10440724e-01f,+1.29764378e-01f,+1.51697084e-01f,
-1.02139199e-02f,+5.73291183e-02f,-9.09261405e-02f,+5.63634485e-02f,+7.70838708e-02f,
+2.03226417e-01f,+1.31769329e-02f,+1.65380269e-01f,+4.77771610e-02f,+1.47667781e-01f,
+4.71922755e-02f,-8.85280687e-03f,+9.95691270e-02f,+9.18945968e-02f,+2.29182988e-01f,
+6.87854588e-02f,-7.93115422e-02f,+9.00806114e-02f,+1.14926845e-02f,+1.23477429e-01f,
+2.57493883e-01f,+1.62380412e-01f,+1.62320770e-02f,+1.07901014e-01f,+9.83928889e-03f,
+1.63561791e-01f,+4.44129147e-02f,+5.87749071e-02f,+5.72954044e-02f,+4.71348874e-03f,
+9.77927819e-02f,+1.69587731e-01f,+9.66749117e-02f,+1.67350039e-01f,+1.29647672e-01f,
+1.45163402e-01f,+8.77667740e-02f,+9.79694873e-02f,+9.08469632e-02f,+2.95725465e-02f,
+2.02092767e-01f,+3.82029936e-02f,+1.77107915e-01f,+7.61906803e-02f,-5.39969616e-02f,
-2.33158097e-03f,+3.11271269e-02f,+1.09955497e-01f,+8.60886090e-03f,+7.09784254e-02f,
-1.35089487e-01f,+1.33379465e-02f,-8.18944070e-03f,+4.81891520e-02f,-1.97678059e-02f,
+3.22820246e-03f,+2.15505600e-01f,+9.85613465e-02f,+4.31484655e-02f,-1.18013836e-01f,
+3.58480550e-02f,-5.04902564e-03f,+6.52344972e-02f,+2.40730960e-03f,+2.66307920e-01f,
-5.26648536e-02f,+2.47213268e-03f,+9.63666588e-02f,+1.28823176e-01f,+1.94926515e-01f,
+4.54617590e-02f,+4.07855175e-02f,+1.42808154e-01f,+2.89403439e-01f,+1.47954421e-02f,
+1.85124353e-02f,+4.02246043e-02f,+9.10892785e-02f,+4.21830453e-02f,+1.35760382e-01f,
+1.15438156e-01f,-2.60792989e-02f,-6.46561906e-02f,+2.25317515e-02f,+1.52254283e-01f,
+7.39251375e-02f,+4.72597107e-02f,+6.73111826e-02f,+3.30063216e-02f,-2.94648129e-02f,
+1.39784738e-01f,+1.54509500e-01f,-5.63652962e-02f,+1.15248948e-01f,+1.17293537e-01f,
+7.76338801e-02f,+1.30539656e-01f,+1.49835363e-01f,+1.69667244e-01f,+8.21781009e-02f,
+9.39339921e-02f,+6.21640496e-02f,+1.85417920e-01f,+4.30513397e-02f,+3.24482247e-02f,
+6.84276782e-03f,+1.41403854e-01f,+3.85834798e-02f,-7.76145086e-02f,+1.20300241e-01f,
+1.07880160e-01f,+1.53634518e-01f,+8.55599940e-02f,+8.56510177e-02f,+7.70897940e-02f,
+7.01715127e-02f,-7.37188086e-02f,+1.26769334e-01f,+5.97356260e-02f,+2.72675008e-01f,
-2.12555844e-02f,+1.50152072e-01f,-1.34969950e-02f,+7.24097937e-02f,+3.09069604e-02f,
+8.02749619e-02f,+7.17285499e-02f,+8.57514963e-02f,+2.28370130e-02f,+1.16766363e-01f,
+1.28812864e-01f,+6.30455511e-03f,+1.77664816e-01f,+5.43419942e-02f,+4.12417501e-02f,
+5.24316952e-02f,+1.81851044e-01f,+1.27037302e-01f,-1.00335136e-01f,+1.17149884e-02f,
-7.12052546e-03f,+4.39887829e-02f,+1.41814157e-01f,+2.84077615e-01f,+4.69810329e-02f,
+1.60484269e-01f,-1.14306174e-02f,+1.13267571e-01f,-6.74335286e-02f,-1.06932223e-01f,
-1.35112405e-01f,-1.89303849e-02f,+6.33323565e-02f,-8.28311965e-02f,+1.62357584e-01f,
+1.20522313e-01f,+9.42133293e-02f,+8.61389413e-02f,+5.90133853e-02f,+2.50955205e-02f,
+5.11053316e-02f,+2.67083794e-02f,+2.99711432e-02f,+1.49881095e-01f,+7.97268897e-02f,
-3.46501195e-03f,+1.38974234e-01f,+1.40192956e-01f,-7.91877806e-02f,-9.03426334e-02f,
+4.38286737e-02f,+3.40029337e-02f,+1.67991266e-01f,+9.12795514e-02f,+1.94196030e-02f,
+1.70409858e-01f,+5.12813367e-02f,+8.90735090e-02f,+9.46617201e-02f,+1.18789375e-01f,
+3.52710448e-02f,+4.89585381e-03f,+5.42031564e-02f,-7.08475932e-02f,-1.68298092e-03f,
+1.07480988e-01f,+2.91824546e-02f,+1.39755933e-02f,-6.10861406e-02f,+2.16787666e-01f,
+1.74938127e-01f,+1.39069423e-01f,+2.22928643e-01f,+9.57697406e-02f,+7.96984211e-02f,
+7.29513392e-02f,+2.33273394e-02f,+2.52547674e-03f,+8.82199034e-02f,+1.42273605e-01f,
+1.51312174e-02f,+1.75382674e-01f,+1.42375395e-01f,+6.74654245e-02f,+1.42562255e-01f,
+8.93725548e-03f,+2.47705758e-01f,-6.25284985e-02f,+1.69325426e-01f,+1.14805907e-01f,
+4.04205658e-02f,+5.90044633e-02f,+1.00239195e-01f,+1.26704797e-01f,+6.82958439e-02f,
+6.94064656e-03f,+5.29226586e-02f,+6.50750995e-02f,+2.40841415e-02f,+1.67241096e-01f,
+6.18963055e-02f,-1.35541568e-03f,+5.00234701e-02f,+1.12164252e-01f,+7.89515749e-02f,
-8.93936306e-03f,+6.74945414e-02f,-1.53367100e-02f,-7.19343498e-02f,+4.84269373e-02f,
-4.07483466e-02f,+7.33404681e-02f,+5.26987799e-02f,-7.18145147e-02f,-1.56131670e-01f,
+1.61515996e-01f,+1.49106756e-01f,+4.99974154e-02f,+5.95901385e-02f,+1.56744584e-01f,
+1.04126088e-01f,+1.95995346e-01f,+1.88226271e-02f,+1.09850362e-01f,+1.47232205e-01f,
+5.12221567e-02f,-1.22461721e-01f,+2.83679049e-02f,+3.03642843e-02f,-1.48402117e-02f,
-6.92610219e-02f,+4.80374098e-02f,+1.29135951e-01f,+1.55259520e-01f,-3.01791690e-02f,
+9.80023444e-02f,+2.82502780e-03f,-1.26019374e-01f,+1.19553832e-02f,+1.64966971e-01f,
+1.37586579e-01f,+7.72409216e-02f,+2.49895662e-01f,-1.77031066e-02f,+7.36436844e-02f,
+1.25388935e-01f,+1.85103163e-01f,+1.15187638e-01f,+1.75864592e-01f,+1.83347732e-01f,
+8.24487209e-02f,+5.61821423e-02f,+1.16411336e-02f,+1.90812066e-01f,+1.64409935e-01f,
+1.26598597e-01f,+1.34515092e-02f,+2.20006645e-01f,+1.28699765e-01f,+3.97538245e-02f,
+1.05730310e-01f,+1.48395464e-01f,+1.21521488e-01f,+7.48807564e-02f,+1.11373588e-01f,
+1.53063253e-01f,-6.76804110e-02f,+1.90992713e-01f,+1.14623502e-01f,+2.19094008e-02f,
+1.34674728e-01f,-7.32118487e-02f,-1.30513858e-03f,+4.44847047e-02f,+1.15927376e-01f,
-1.58274975e-02f,+1.04788333e-01f,+1.13793220e-02f,+4.96011376e-02f,-8.60883519e-02f,
-1.69688102e-03f,+8.11297968e-02f,-1.54741004e-01f,+3.07649463e-01f,+1.45982146e-01f,
+1.28568426e-01f,+5.01789674e-02f,+2.13914607e-02f,+1.23610958e-01f,+1.05988167e-01f,
+1.49848759e-02f,+9.67981517e-02f,+1.67022109e-01f,+1.72328837e-02f,+1.12654932e-01f,
-1.20859854e-02f,+1.53373852e-01f,+1.92145199e-01f,+1.01911113e-01f,+1.79132968e-02f,
+9.50336680e-02f,+9.53230113e-02f,+1.50040746e-01f,-5.65315150e-02f,+6.57520965e-02f,
-2.52486486e-03f,+1.30460620e-01f,-9.74511653e-02f,+7.60202184e-02f,+1.34391347e-02f,
-7.13421330e-02f,+2.50731651e-02f,+4.04076092e-02f,+8.04875046e-03f,-5.04512899e-02f,
-1.50996661e-02f,+6.20427988e-02f,+1.29659027e-01f,+1.45094842e-01f,+1.10672424e-02f,
+1.55955032e-01f,+8.80872607e-02f,+8.71160254e-02f,+4.27434221e-02f,-5.71398549e-02f,
-2.87122950e-02f,-4.17958796e-02f,-9.78788268e-03f,+1.89047754e-01f,+1.11663491e-02f,
+6.10441305e-02f,+1.20923035e-01f,+1.51367947e-01f,+1.43589005e-01f,+1.68604050e-02f,
-5.25126681e-02f,+2.52764188e-02f,-1.21683925e-01f,+5.00694104e-02f,+1.03493622e-02f,
+9.18811262e-02f,+6.92742020e-02f,+9.15353000e-02f,-9.87373590e-02f,+2.04189017e-01f,
+1.59337640e-01f,+2.38428675e-02f,+2.70993561e-02f,+1.72467768e-01f,+3.76336537e-02f,
+2.55361442e-02f,+3.64877075e-01f,+7.22880214e-02f,+7.45792240e-02f,+8.57530758e-02f,
+1.37296215e-01f,-1.74194351e-01f,-2.72672959e-02f,+1.98564291e-01f,+1.52253196e-01f,
+7.57902339e-02f,-2.41397098e-02f,+8.24098364e-02f,+1.78957164e-01f,+1.69286672e-02f,
+1.05536491e-01f,+9.84532833e-02f,-3.94813670e-03f,+1.14543959e-01f,-8.05322230e-02f,
+9.29039866e-02f,+8.46502930e-02f,-1.52079789e-02f,-2.47680508e-02f,-8.66205916e-02f,
+5.38284890e-02f,+2.70879030e-01f,+9.90861952e-02f,-4.74021323e-02f,+7.06849843e-02f,
+2.08402146e-02f,+4.60320637e-02f,+8.47163796e-02f,+2.00628825e-02f,+8.01192820e-02f,
+8.77294168e-02f,+1.45038411e-01f,+8.67851377e-02f,+1.33828551e-01f,+8.59204903e-02f,
+2.14796630e-03f,+4.14790511e-02f,+1.94032595e-01f,+6.96953237e-02f,+4.76065325e-03f,
+8.11194777e-02f,+1.89381391e-01f,-2.58146320e-02f,+9.94285569e-02f,-2.14293040e-02f,
+9.94437933e-02f,+1.65970519e-01f,+7.64921084e-02f,-3.48293222e-02f,+4.92001139e-02f,
+3.75969894e-02f,+2.17900842e-01f,-8.08685124e-02f,+1.00128226e-01f,-1.16059072e-02f,
-6.69860542e-02f,+2.12489404e-02f,+3.52945738e-02f,+7.90339485e-02f,-9.57093164e-02f,
+1.13813907e-01f,+8.58775228e-02f,-6.50042668e-02f,-9.49151516e-02f,+9.21686292e-02f,
+1.56313613e-01f,+1.00344807e-01f,-9.34141036e-03f,-1.07037224e-01f,-3.61692905e-02f,
+5.17809913e-02f,+5.13186678e-02f,+9.53522325e-02f,-1.32515639e-01f,+5.15768863e-02f,
+1.07752450e-01f,+7.82756954e-02f,-3.45408432e-02f,+8.05077776e-02f,-1.12285651e-01f,
+5.15416414e-02f,-3.02028567e-01f,+9.81510654e-02f,+4.07177582e-03f,+2.21810695e-02f,
+2.96958331e-02f,-3.27429944e-03f,-6.26678541e-02f,+2.39432588e-01f,+1.22271016e-01f,
+4.21994254e-02f,+1.36036783e-01f,+1.66007295e-01f,+7.70948380e-02f,+1.21176653e-01f,
+9.79461335e-03f,+1.45787612e-01f,+1.58857882e-01f,-1.49674296e-01f,+1.96595900e-02f,
+1.06033031e-02f,-2.53312849e-02f,+8.60857964e-02f,-8.79333727e-03f,-7.97131211e-02f,
+2.27159504e-02f,-2.12469753e-02f,+8.20598304e-02f,-1.10954672e-01f,+1.91840887e-01f,
+6.33488074e-02f,+1.18507043e-01f,-1.10166825e-01f,+6.38030320e-02f,-9.69304144e-02f,
+2.87079178e-02f,+1.29599527e-01f,+2.74866372e-01f,-1.19983263e-01f,+2.51467265e-02f,
+1.03176340e-01f,+1.06915198e-02f,+4.88409549e-02f,-4.16198559e-02f,+2.88893759e-01f,
+1.50336996e-01f,+7.69987926e-02f,-2.47307364e-02f,+6.43974319e-02f,+2.70798653e-01f,
-7.73585066e-02f,-6.24827556e-02f,+1.27505794e-01f,+7.38037005e-02f,+2.31764261e-02f,
-5.44313118e-02f,+4.40566540e-01f,+1.61452770e-01f,-2.36001294e-02f,-3.18556949e-02f,
+1.06184952e-01f,-1.78873297e-02f,+6.38989061e-02f,+1.62710678e-02f,-6.94352612e-02f,
-1.65708363e-01f,+1.49096161e-01f,+7.31569603e-02f,+7.92929381e-02f,+2.81373616e-02f,
+5.88547364e-02f,+2.68883980e-03f,-8.43647942e-02f,+2.61666998e-02f,-1.39887072e-02f,
-3.82863730e-02f,+1.54571190e-01f,+2.77925998e-01f,+6.70730248e-02f,+9.13105011e-02f,
+3.14986184e-02f,+1.07082643e-01f,+2.69513518e-01f,-5.19635193e-02f,-3.21212232e-01f,
-3.87846753e-02f,+1.13943808e-01f,-8.37691277e-02f,-5.01284525e-02f,+8.96644816e-02f,
-3.45650613e-02f,+9.41730067e-02f,+6.67284355e-02f,-7.22463802e-02f,+1.11579649e-01f,
-7.35030845e-02f,-2.39515305e-02f,+5.54218479e-02f,+5.76500446e-02f,-4.33985777e-02f,
+8.25898275e-02f,-1.44677330e-02f,-1.12261876e-01f,-8.03262964e-02f,-1.85977250e-01f,
+2.93856323e-01f,+1.55887082e-01f,-8.26190263e-02f,-1.45288646e-01f,+1.18336186e-01f,
+9.41703096e-02f,+2.30402991e-01f,+9.36840326e-02f,+3.43593918e-02f,+4.16694991e-02f,
-1.30806407e-02f,-3.11031453e-02f,-2.01200351e-01f,+2.81678070e-03f,+4.25873436e-02f,
+1.21048726e-02f,+4.62247133e-02f,+3.99923660e-02f,-7.88076669e-02f,+1.11220233e-01f,
+8.47725868e-02f,+1.89855605e-01f,+2.11299643e-01f,+1.93170562e-01f,+1.87119860e-02f,
+3.64026912e-02f,+2.88708478e-01f,-1.16624624e-01f,-5.26075158e-03f,+6.31239414e-02f,
+1.75165430e-01f,-5.95429838e-02f,+4.28843498e-02f,-7.25502521e-02f,-6.22460470e-02f,
+9.31944773e-02f,+1.31539449e-01f,-9.41140763e-03f,+1.38443336e-01f,+5.64028583e-02f,
+6.04481660e-02f,-7.23519623e-02f,+7.81191215e-02f,+5.18245809e-02f,-2.53803357e-02f,
-1.77020975e-03f,+1.43510997e-01f,+1.98424608e-01f,+6.55369684e-02f,+9.85897258e-02f,
+1.66437373e-01f,+2.60309160e-01f,+1.00787416e-01f,+1.05016075e-01f,+4.60290723e-02f,
+9.23226625e-02f,+3.40045020e-02f,-1.39734089e-01f,+2.79372364e-01f,+1.94103301e-01f,
+3.82744193e-01f,-9.96363238e-02f,+1.02693617e-01f,+5.04626483e-02f,-9.58614498e-02f,
+1.16407715e-01f,-5.65453731e-02f,+1.70932025e-01f,+9.07678306e-02f,+2.10782304e-01f,
+8.91073719e-02f,+5.84460162e-02f,+8.03051367e-02f,+1.74242221e-02f,-6.84460104e-02f,
-1.49124758e-02f,+9.26719680e-02f,+9.28104669e-02f,+1.27997026e-01f,+9.60867032e-02f,
+2.03041002e-01f,+4.94234599e-02f,-6.96819201e-02f,+4.04602140e-02f,+9.41515639e-02f,
+3.55129987e-02f,-6.15987228e-03f,+2.00421363e-02f,-9.13934410e-03f,-5.51751256e-02f,
+1.95204303e-01f,-2.87208259e-02f,-6.69096038e-02f,-1.17879063e-01f,-2.66754217e-02f,
-7.81745538e-02f,+1.11300848e-01f,-7.41023570e-02f,-3.94855700e-02f,+1.40710184e-02f,
+2.64172703e-02f,+8.70385915e-02f,+6.16829209e-02f,+9.14428085e-02f,-2.09704310e-01f,
+6.64894357e-02f,+5.45669720e-02f,+2.05869049e-01f,+1.80946721e-03f,-1.52140688e-02f,
+8.69128108e-02f,-1.20268606e-01f,+1.42222628e-01f,+5.80244251e-02f,+1.90471970e-02f,
+2.30018571e-02f,+2.65492439e-01f,+3.86159085e-02f,-8.77289176e-02f,-4.13027257e-02f,
+3.74667704e-01f,-4.36317772e-02f,+6.95020109e-02f,+1.38386011e-01f,+3.41815025e-01f,
+3.44446711e-02f,+6.45699501e-02f,+5.91633515e-03f,+1.70640666e-02f,+1.42067969e-01f,
-3.01588595e-01f,-1.10650800e-01f,+2.34349877e-01f,+4.07452993e-02f,-8.87758061e-02f,
+2.68250722e-02f,+6.08465858e-02f,+1.68123662e-01f,+2.85149589e-02f,+4.53553209e-03f,
+9.39042270e-02f,-5.83473826e-03f,+2.45454043e-01f,+1.56738162e-01f,-1.03702158e-01f,
+9.98686776e-02f,+4.98911738e-02f,+1.88556701e-01f,-1.85109600e-02f,+1.92517772e-01f,
-4.15230729e-02f,+9.23093930e-02f,-4.72936444e-02f,+3.07601839e-02f,+1.23716734e-01f,
+1.80336326e-01f,+7.62447789e-02f,-3.39965448e-02f,+9.85979289e-02f,-9.04127769e-03f,
-1.86714083e-01f,-1.19314240e-02f,+5.60465567e-02f,-9.26353037e-02f,-1.90691240e-02f,
+2.59981230e-02f,+1.92696275e-03f,+8.98835212e-02f,+1.73774302e-01f,+8.89761522e-02f,
+3.52921337e-02f,-8.19809809e-02f,+2.02271357e-01f,+1.10147204e-02f,+1.51970267e-01f,
-8.48530382e-02f,-1.42863482e-01f,+8.09433535e-02f,+1.15774676e-01f,+5.54432953e-03f,
+8.22663978e-02f,+2.13291258e-01f,+1.45064518e-01f,+6.99138790e-02f,-6.20089006e-03f,
+1.18780322e-01f,+1.46691576e-01f,-1.23272054e-01f,-4.71227318e-02f,+1.61398917e-01f,
+3.31777155e-01f,+4.14361246e-03f,+5.65893240e-02f,+9.08502713e-02f,+5.97336143e-02f,
-7.48085007e-02f,+2.01418012e-01f,-1.43539563e-01f,-4.69547883e-02f,+1.04713470e-01f,
-5.97346425e-02f,+9.03889760e-02f,+2.84442473e-02f,+5.63724265e-02f,+5.21917874e-03f,
-1.21094771e-02f,-2.36713275e-01f,+1.29565150e-02f,+5.14831804e-02f,+2.39674017e-01f,
+2.56420761e-01f,+7.07508251e-02f,+1.70443475e-01f,+5.25661111e-02f,+9.84620005e-02f,
-3.90537754e-02f,+1.36218816e-01f,+1.80901960e-02f,+1.42375574e-01f,+1.30012399e-02f,
-2.47079074e-01f,+1.16646916e-01f,+1.67381138e-01f,+1.46211550e-01f,-1.80191532e-01f,
+7.55801126e-02f,+8.16045254e-02f,-1.10079393e-01f,-3.95583063e-02f,+8.59432761e-03f,
+1.17187664e-01f,-1.92996681e-01f,+8.54541510e-02f,-1.79377109e-01f,+1.62460670e-01f,
+1.60910562e-01f,-6.54594526e-02f,+1.60247475e-01f,+1.61815733e-01f,+3.17019522e-02f,
+6.95835939e-03f,+3.69144112e-01f,+3.49092707e-02f,+6.78908452e-02f,+6.48887306e-02f,
+2.53822338e-02f,-1.68463528e-01f,+1.66566625e-01f,-1.39262923e-03f,-1.25150934e-01f,
+1.63687859e-02f,-1.72990024e-01f,+3.83907743e-02f,+1.82147816e-01f,+1.06106006e-01f,
+1.65942028e-01f,-1.20262846e-01f,+5.01434989e-02f,+7.24466294e-02f,+1.67587727e-01f,
-4.14043590e-02f,-9.68717784e-02f,+4.24547903e-02f,+1.87780991e-01f,+2.39024371e-01f,
+1.05545834e-01f,-8.09697434e-03f,+1.49042653e-02f,+6.72288015e-02f,+7.84105510e-02f,
+9.57898796e-02f,+1.05025798e-01f,-9.08373147e-02f,+6.77595139e-02f,-2.04579271e-02f,
+7.83281475e-02f,+3.32047671e-01f,-1.74093544e-01f,+2.29789820e-02f,-1.29353285e-01f,
-1.85371593e-01f,-2.92873736e-02f,+1.33618668e-01f,+9.04506817e-02f,-1.49424188e-02f,
+1.39046550e-01f,+3.38475779e-02f,+7.31760710e-02f,+6.18403554e-02f,-1.72289491e-01f,
+4.65008616e-03f,+1.90984502e-01f,-1.12395115e-01f,-5.17480299e-02f,-5.82064353e-02f,
+8.78499746e-02f,+1.60087839e-01f,-1.34919062e-01f,+5.64217642e-02f,+8.52574501e-03f,
-2.34395415e-02f,-8.03763494e-02f,+3.74729820e-02f,-8.58409256e-02f,+1.39481112e-01f,
+2.34106541e-01f,-3.15152779e-02f,+7.58710727e-02f,-5.41965961e-02f,+1.82109684e-01f,
-1.55375591e-02f,+2.27183364e-02f,+5.30544147e-02f,+1.24302752e-01f,+2.04008520e-02f,
-3.38792279e-02f,+1.99313492e-01f,+4.42633815e-02f,+3.13806608e-02f,+2.53306836e-01f,
+9.38759837e-03f,-3.86375859e-02f,+3.59004438e-01f,-8.22864622e-02f,+3.05507630e-01f,
+4.81554642e-02f,+1.65332556e-01f,+9.79395360e-02f,+2.72966586e-02f,-1.03163198e-01f,
-7.68548101e-02f,+1.18321285e-01f,-7.26996064e-02f,+1.14751495e-01f,+9.02392715e-02f,
+5.49252070e-02f,+2.22155884e-01f,-8.97217467e-02f,+9.61261541e-02f,-1.35452347e-02f,
+5.98975122e-02f,-4.18683849e-02f,+2.35801876e-01f,+9.68929678e-02f,+1.92989692e-01f,
+4.15079258e-02f,+1.00290617e-02f,-6.70774803e-02f,-5.54281697e-02f,+1.71934702e-02f,
+9.81152803e-02f,+6.30007535e-02f,+9.49234217e-02f,+2.43858323e-02f,-6.56418502e-02f,
+1.31445378e-01f,+9.02337283e-02f,-2.24342495e-02f,+1.09370328e-01f,-6.73564076e-02f,
+8.20039883e-02f,-1.16799712e-01f,-1.11833423e-01f,-9.04303044e-03f,+9.66941863e-02f,
+2.51888841e-01f,+1.49014518e-01f,+1.98537439e-01f,-2.53024604e-02f,+2.50911117e-01f,
+2.73766726e-01f,+1.08365163e-01f,-1.04263730e-01f,+2.08072923e-02f,-3.97013202e-02f,
+5.76653071e-02f,-2.63623390e-02f,-6.37695426e-03f,+2.68708766e-01f,-1.44841641e-01f,
-8.74440446e-02f,-2.16979254e-02f,+9.57051590e-02f,+1.55704066e-01f,+9.22671184e-02f,
-6.51309639e-02f,+1.20077156e-01f,+1.41709790e-01f,+1.77026123e-01f,-7.36847594e-02f,
+3.44251037e-01f,-1.73556924e-01f,-8.80722608e-03f,+6.64780438e-02f,+1.36265054e-01f,
+1.31739732e-02f,-1.49839595e-01f,+1.04834564e-01f,+1.07176103e-01f,+1.84905883e-02f,
-1.05174012e-01f,-5.20363972e-02f,+7.47299939e-02f,-1.50783975e-02f,-6.50069192e-02f,
+1.11254029e-01f,+3.25416997e-02f,+8.45859870e-02f,-9.57814790e-03f,+1.26348138e-01f,
+1.87027276e-01f,+1.28779590e-01f,-1.63277760e-01f,+9.87302735e-02f,+1.33554488e-02f,
+1.40972883e-01f,+2.73070067e-01f,+1.74906999e-01f,+1.97175130e-01f,+1.32030427e-01f,
+3.92045118e-02f,-4.15195189e-02f,+1.15292452e-01f,+2.70206854e-02f,-4.57067862e-02f,
+1.59900159e-01f,+1.66016668e-01f,+1.10806540e-01f,-1.46397967e-02f,+1.46037098e-02f,
+1.07781492e-01f,-1.34113461e-01f,+1.48363397e-01f,+2.47807100e-01f,+3.51900868e-02f,
+1.80006310e-01f,+2.50548553e-02f,+2.58536667e-01f,+2.54672289e-01f,+2.13224464e-03f,
-3.43600772e-02f,+1.43551677e-02f,+2.82704681e-01f,+1.18379302e-01f,-9.80248153e-02f,
+1.79848492e-01f,+1.91776436e-02f,+3.10176872e-02f,-8.57700631e-02f,-1.09477840e-01f,
+1.93712115e-02f,+8.99228826e-02f,+4.31263968e-02f,-4.42736968e-02f,-1.03066258e-01f,
+1.37833148e-01f,-1.32257551e-01f,-4.56473343e-02f,-1.24022357e-01f,-2.41136886e-02f,
+1.49542347e-01f,+2.07358241e-01f,-3.09268124e-02f,+5.08601926e-02f,+2.49233946e-01f,
-1.46707594e-02f,+1.10568926e-01f,+7.40676448e-02f,-5.09185642e-02f,+1.98983371e-01f,
+1.50561491e-02f,-9.07156616e-02f,+9.36711133e-02f,-4.56552431e-02f,-1.50374603e-02f,
+2.00164709e-02f,+1.42686442e-01f,+4.82599288e-02f,-4.15401906e-02f,+1.47019863e-01f,
-7.99137447e-03f,+3.61372411e-01f,+5.11164442e-02f,+1.40126035e-01f,+4.82489020e-02f,
+1.98911458e-01f,+1.43834919e-01f,-4.60010506e-02f,+1.18618339e-01f,+1.24603380e-02f,
-9.57662314e-02f,+1.84921771e-01f,+1.51827201e-01f,+2.89750509e-02f,-2.11294275e-02f,
+2.08645761e-02f,+1.35908574e-02f,-8.28007907e-02f,-1.80779006e-02f,+1.29056290e-01f,
+9.04016942e-02f,+1.14196762e-01f,+1.06637478e-01f,+2.38764793e-01f,-2.34789252e-02f,
+3.44851166e-02f,+1.44128114e-01f,+1.16305135e-01f,+2.65973136e-02f,+2.36058440e-02f,
+1.96172297e-01f,-8.91165528e-03f,-1.06446236e-01f,+4.52452675e-02f,+5.26971258e-02f,
+3.29981029e-01f,-1.92542560e-02f,+1.27294436e-01f,+1.01067193e-01f,+2.24317178e-01f,
-7.37985969e-02f,-4.32611078e-01f,+2.80198961e-01f,+2.43443325e-01f,-1.15909778e-01f,
+1.10640883e-01f,-4.93690297e-02f,+6.60410300e-02f,-6.22957274e-02f,+6.47535995e-02f,
-1.23638414e-01f,+5.49716651e-02f,+6.86795935e-02f,-7.48130605e-02f,+3.55689935e-02f,
-6.78827390e-02f,+1.41015351e-01f,+5.27145108e-03f,-5.62510416e-02f,+1.95693858e-02f,
+1.01555176e-01f,+3.68380286e-02f,-5.17342873e-02f,+8.67196470e-02f,-1.14696003e-01f,
+1.02665946e-01f,-2.10710727e-02f,-6.38179630e-02f,+1.42733589e-01f,+9.13717151e-02f,
+1.57488763e-01f,+1.81074113e-01f,+8.60212371e-03f,+6.01518825e-02f,-8.62875134e-02f,
+4.77942463e-04f,+1.13014905e-02f,-8.65926072e-02f,-1.86328769e-01f,+1.64986581e-01f,
-4.94415574e-02f,+2.01351225e-01f,+2.32640952e-01f,+1.53546706e-01f,+4.66916673e-02f,
+3.39109927e-01f,-7.53309280e-02f,+5.26353121e-02f,+9.70495865e-02f,+7.34395236e-02f,
-1.33845001e-01f,+9.13170800e-02f,-1.12558119e-01f,+1.03119589e-01f,+8.18030071e-03f,
+2.05518350e-01f,-6.69639334e-02f,-1.31567359e-01f,+8.04880820e-03f,-1.03710126e-02f,
+1.53174758e-01f,+1.33313611e-03f,+2.67506354e-02f,+8.24635550e-02f,+5.51141938e-03f,
+2.65602946e-01f,+1.19514406e-01f,+3.81912589e-02f,+1.99767336e-01f,+7.37765729e-02f,
+5.50638810e-02f,-2.61414014e-02f,+2.28557304e-01f,+1.34237543e-01f,-7.50531107e-02f,
-2.21975874e-02f,+2.17360690e-01f,-6.17978461e-02f,-7.40690483e-03f,+2.29251062e-04f,
-1.71923280e-01f,-1.03062265e-01f,+1.40083656e-01f,+2.48921663e-01f,+1.17678918e-01f,
-2.25875303e-02f,+2.26692230e-01f,+1.23958930e-01f,+1.10067025e-01f,+5.71627244e-02f,
+7.47095421e-02f,+1.45222232e-01f,-7.56903663e-02f,+1.77661255e-02f,-2.10356973e-02f,
+2.29585567e-03f,+2.10722759e-01f,-5.61746843e-02f,+6.58441707e-02f,-5.23921521e-03f,
+2.09251568e-01f,-2.45591719e-02f,-8.71541053e-02f,+2.86737978e-02f,-1.41431972e-01f,
-5.14890663e-02f,+8.03576782e-03f,-1.75282344e-01f,+1.21965937e-01f,+1.41361892e-01f,
-1.43279287e-03f,-3.97793539e-02f,+5.42229787e-02f,-3.35914828e-02f,-4.21056012e-03f,
+1.35461628e-01f,+1.22188948e-01f,+3.00757170e-01f,+2.14803308e-01f,+6.56859353e-02f,
-5.61527051e-02f,-1.35226799e-02f,+7.31307939e-02f,-9.50056966e-03f,-1.98836681e-02f,
+1.08446099e-01f,-1.06327482e-01f,+2.29851052e-01f,-8.68719742e-02f,+1.80615354e-02f,
+9.17843953e-02f,-1.96948331e-02f,+4.10651900e-02f,+6.54928163e-02f,+9.07552391e-02f,
+1.89611405e-01f,-5.21860905e-02f,+1.94439963e-02f,+8.99581462e-02f,+1.57447904e-01f,
+9.51186661e-03f,+2.57663310e-01f,+2.24999815e-01f,+1.02975249e-01f,+4.90730666e-02f,
+4.01181094e-02f,-2.36253962e-02f,+1.82290822e-01f,+4.50137220e-02f,+3.76175009e-02f,
+2.98018344e-02f,-6.28485456e-02f,-1.50276005e-01f,-4.75034975e-02f,+7.30595887e-02f,
+6.85864091e-02f,-1.98986530e-02f,+9.79671702e-02f,+2.35604435e-01f,+1.00468397e-01f,
+5.34653068e-02f,+1.17649585e-01f,+6.55813813e-02f,-4.74610273e-03f,-1.14265241e-01f,
+1.36599466e-01f,+1.27738416e-01f,+1.84402421e-01f,-3.85866351e-02f,+1.85208023e-01f,
+9.96701717e-02f,+5.68540841e-02f,+1.29465342e-01f,+1.99527234e-01f,-4.37753983e-02f,
+1.12921603e-01f,+1.12088919e-01f,+3.84627879e-02f,+2.88522262e-02f,+1.48890197e-01f,
-1.16264880e-01f,-3.17566954e-02f,+4.87872548e-02f,+3.51608843e-01f,+3.32251713e-02f,
-8.88937991e-03f,+3.55116516e-01f,-1.13145843e-01f,+1.31020769e-01f,+2.39962805e-02f,
+1.46562070e-01f,-4.28344980e-02f,+5.39044738e-02f,-1.00146830e-01f,+8.88430178e-02f,
+2.54990578e-01f,+2.62836248e-01f,+1.05466962e-01f,+4.81459610e-02f,+1.15660215e-02f,
+1.68122262e-01f,+8.15247446e-02f,+4.27813977e-02f,+1.32559344e-01f,+2.93596298e-01f,
-1.03594616e-01f,+2.06193730e-01f,+1.67527869e-01f,-8.75029638e-02f,+2.15614647e-01f,
+2.31275648e-01f,+2.14712933e-01f,-6.52008224e-03f,+3.81177962e-02f,-1.25481397e-01f,
+1.15937151e-01f,+9.85821057e-03f,-3.63087468e-02f,-9.61276179e-04f,+1.66340098e-01f,
+2.22344577e-01f,+2.08012149e-01f,-6.88642412e-02f,+3.58187109e-02f,+4.64531742e-02f,
+2.94438191e-02f,+1.19480696e-02f,-5.91195002e-02f,+1.95872277e-01f,-1.39946535e-01f,
-1.28419837e-02f,+3.87729928e-02f,-2.45541916e-03f,+5.97228333e-02f,-2.10308671e-01f,
-8.94813165e-02f,+3.27391699e-02f,+7.72822201e-02f,-1.04894355e-01f,+1.47980139e-01f,
+7.47525096e-02f,+5.00571914e-02f,+3.77699211e-02f,-1.49953321e-01f,+7.35186264e-02f,
+9.69002247e-02f,+2.96646565e-01f,-6.73919916e-02f,-1.18606025e-02f,+1.06752679e-01f,
-6.96723685e-02f,+1.61173776e-01f,-4.49979044e-02f,+2.27415189e-01f,+1.11013189e-01f,
+8.94288868e-02f,+1.62455291e-01f,+6.18673861e-02f,-2.69573461e-02f,+7.81091750e-02f,
+2.05630600e-01f,+5.71506433e-02f,+1.29368857e-01f,+2.52852648e-01f,+2.15873327e-02f,
+8.92692059e-02f,-5.20375045e-03f,+9.88088176e-02f,-4.29425463e-02f,+9.30124149e-02f,
+3.68447185e-01f,+5.92437536e-02f,+1.66151389e-01f,+1.48019478e-01f,+5.41468989e-03f,
+1.54580191e-01f,-1.76421165e-01f,+1.16820648e-01f,+2.52160281e-01f,-5.33819683e-02f,
+1.72760889e-01f,+3.40097427e-01f,-6.02042302e-02f,+1.29870519e-01f,+4.53096367e-02f,
+7.90592805e-02f,+4.31424752e-02f,+9.45496932e-02f,-2.37720981e-02f,+3.55027802e-02f,
+6.83545843e-02f,+1.64800361e-02f,-3.52138281e-02f,+3.13231684e-02f,+7.56911188e-02f,
+1.03359938e-01f,-8.33894536e-02f,+1.85412481e-01f,+2.12602049e-01f,+6.15742542e-02f,
-1.02500834e-01f,-1.88493691e-02f,-3.55369109e-03f,+1.44447610e-01f,+2.36861050e-01f,
+2.04530463e-01f,+8.31880700e-03f,+1.06947780e-01f,+7.80997500e-02f,+8.41758698e-02f,
+2.48311721e-02f,+5.38563207e-02f,+1.56265408e-01f,+1.03903048e-01f,+1.38801768e-01f,
+5.34758903e-04f,+6.60093725e-02f,-6.74337372e-02f,+1.62601009e-01f,+2.63416748e-02f,
+5.56324273e-02f,-4.91821468e-02f,+6.18028687e-03f,+3.29495855e-02f,+2.52617627e-01f,
-3.18255797e-02f,+4.46424335e-02f,+1.53078735e-01f,-5.80085721e-03f,+7.77169392e-02f,
+1.44274935e-01f,+1.11663088e-01f,+1.63141280e-01f,-2.50144806e-02f,+5.57503290e-02f,
+5.78889698e-02f,-2.76759919e-02f,-9.29003879e-02f,-4.68153767e-02f,-9.34428945e-02f,
-7.27476627e-02f,+7.95771182e-02f,-5.03781810e-02f,-1.13648633e-02f,+3.61775905e-02f,
+2.19985291e-01f,+3.08158785e-01f,+5.21745868e-02f,-1.20299041e-01f,+8.16793814e-02f,
-1.08678542e-01f,+5.27112111e-02f,+7.59136826e-02f,+1.68083683e-02f,+1.22922368e-01f,
+1.21677041e-01f,+1.58366725e-01f,-3.44466902e-02f,+2.50074565e-01f,+4.72667404e-02f,
+2.10797817e-01f,-1.47432685e-01f,+1.53517835e-02f,-1.72466096e-02f,+1.69278741e-01f,
+4.45812903e-02f,+4.00139630e-01f,+1.12217534e-02f,+1.24935485e-01f,+2.26143226e-01f,
+2.60618143e-02f,+1.22024566e-01f,-2.79831626e-02f,-7.23422989e-02f,+1.46523431e-01f,
+2.65306700e-02f,-3.37693878e-02f,+4.91612870e-03f,-6.75873458e-02f,+3.17258537e-02f,
+1.24603465e-01f,+6.79306388e-02f,+2.79756021e-02f,+8.04923922e-02f,-2.88695353e-03f,
+1.14750966e-01f,+5.49123660e-02f,-2.22868659e-02f,+3.85366790e-02f,-3.98558564e-03f,
-2.96680164e-02f,+3.96890789e-02f,+4.99421693e-02f,+5.72933480e-02f,-1.57031268e-01f,
-5.79848588e-02f,+3.83514874e-02f,-2.24344134e-01f,+1.90806702e-01f,-8.89815241e-02f,
+1.67368930e-02f,+9.07366276e-02f,-3.43901813e-02f,-1.41828671e-01f,+8.61423761e-02f,
+2.25272685e-01f,+4.36871886e-01f,+2.91996449e-01f,-1.75692379e-01f,+1.18668623e-01f,
-6.05290048e-02f,+1.83034971e-01f,+2.26033762e-01f,+3.12302038e-02f,+2.05664590e-01f,
+4.61866595e-02f,+1.48614436e-01f,+3.64429466e-02f,+1.40322134e-01f,+8.48274399e-03f,
+6.57741725e-02f,+1.89810589e-01f,-1.20114833e-02f,+6.06666431e-02f,+1.22671284e-01f,
+1.40773743e-01f,-5.79976477e-02f,+1.73320472e-01f,+8.88554081e-02f,+3.63030955e-02f,
+1.28004372e-01f,-3.67835816e-03f,+6.82822838e-02f,-8.34247693e-02f,+7.14415833e-02f,
-8.62252712e-02f,-1.56115536e-02f,-1.88010842e-01f,+1.02947146e-01f,+7.47695938e-02f,
-6.00868016e-02f,-2.45420203e-01f,+3.74891721e-02f,+5.07218875e-02f,+6.24723509e-02f,
+3.01840790e-02f,+1.37491543e-02f,-2.27300808e-01f,+7.64065683e-02f,+1.16917603e-01f,
-1.94526706e-02f,+5.01512527e-01f,+2.68009335e-01f,+5.00003994e-02f,-1.42023964e-02f,
+4.47270796e-02f,-2.76664756e-02f,+2.94350386e-01f,-7.52238557e-02f,+2.78662413e-01f,
+2.02624008e-01f,+1.33687006e-02f,-1.39655080e-02f,+7.66863599e-02f,-5.28470017e-02f,
+5.14762290e-02f,+4.31965292e-02f,-2.22006571e-02f,-7.00760782e-02f,+2.03760505e-01f,
+8.40462670e-02f,-1.82152279e-02f,-1.81616228e-02f,-1.54794499e-01f,+2.97470372e-02f,
+1.34101540e-01f,-7.04426393e-02f,+8.70590582e-02f,+1.83762327e-01f,+3.22493315e-02f,
-3.78432795e-02f,+7.35947415e-02f,+1.11328285e-04f,-1.60618514e-01f,+1.43613294e-01f,
+1.43644214e-01f,+6.08920194e-02f,+7.85487741e-02f,-2.79523470e-02f,-1.85548905e-02f,
+8.55053663e-02f,+8.86653736e-02f,+8.18092003e-02f,-2.33628787e-02f,-1.15941867e-01f,
+6.37337118e-02f,+1.74301658e-02f,+2.03170598e-01f,+1.78385094e-01f,-3.28944139e-02f,
-5.61235473e-02f,+2.47203633e-02f,+1.22262567e-01f,+1.51327908e-01f,+1.60844564e-01f,
+9.47354138e-02f,+8.38163495e-02f,+5.30491471e-01f,+1.20810745e-02f,+2.60057300e-01f,
-5.23953289e-02f,+7.57420734e-02f,+2.04251155e-01f,+2.76181757e-01f,-8.38854983e-02f,
+1.63741410e-02f,+3.18002403e-02f,+6.46674335e-02f,-8.27350691e-02f,+5.94894253e-02f,
-8.62594415e-03f,+2.62802601e-01f,-2.69739814e-02f,+1.32972538e-01f,+3.28455493e-02f,
-4.90312539e-02f,+7.51902768e-03f,-1.51034921e-01f,+8.37540478e-02f,+1.44943342e-01f,
+1.30557353e-02f,+5.97589426e-02f,+1.66670293e-01f,+3.30429636e-02f,+8.33122246e-03f,
+9.18787420e-02f,+2.51355693e-02f,+2.09311545e-02f,+2.19122291e-01f,-9.65879858e-02f,
+1.28701463e-01f,+1.79562077e-01f,+3.53391585e-03f,-3.74439405e-03f,+4.85661216e-02f,
-4.36404385e-02f,+1.00907097e-02f,-1.12982400e-01f,-4.26161699e-02f,+1.09227657e-01f,
-5.67699894e-02f,+1.90621272e-01f,+7.09924698e-02f,+3.99652570e-01f,+3.25599223e-01f,
+3.60606462e-02f,-3.34936343e-02f,+1.07527979e-01f,+1.93925276e-01f,-6.74337819e-02f,
+9.65415910e-02f,-1.95413500e-01f,+5.41097783e-02f,-7.15784132e-02f,+6.58414513e-02f,
+4.78775091e-02f,-2.78356057e-02f,+2.25088954e-01f,-1.89737380e-01f,+3.82571101e-01f,
+3.62052470e-01f,-8.78239796e-02f,+4.63750474e-02f,+2.15310603e-02f,+1.87771276e-01f,
+8.68918188e-03f,+1.05952621e-02f,+2.97357172e-01f,+4.23832722e-02f,+6.90987632e-02f,
+2.73310095e-01f,+2.57325262e-01f,-5.74158318e-03f,+1.25103733e-02f,+4.17859435e-01f,
-7.50851119e-03f,+2.39672154e-01f,-4.96215671e-02f,+1.89894125e-01f,+1.73948333e-01f,
+1.05606027e-01f,+1.00257099e-01f,+2.30034888e-02f,+3.21646184e-02f,-2.41592914e-01f,
+3.80629152e-02f,-2.46471968e-02f,-2.71827504e-02f,+4.72097956e-02f,+2.19510719e-01f,
-1.03471652e-02f,-3.20185684e-02f,+8.43786355e-03f,+1.41230956e-01f,+9.33635384e-02f,
+1.19881835e-02f,-1.39383972e-03f,+2.14760318e-01f,-1.23439625e-01f,-6.99904412e-02f,
-5.62705807e-02f,+7.10116401e-02f,+8.29073936e-02f,+1.07291631e-01f,-1.05546974e-01f,
-3.89978848e-02f,+7.40474015e-02f,+5.11445804e-03f,+7.94418752e-02f,+1.35943919e-01f,
+1.07888274e-01f,+1.43997252e-01f,+1.63600743e-01f,-4.96541895e-02f,+1.91952959e-01f,
+2.37494454e-01f,+8.52660611e-02f,+2.99143838e-03f,-3.89938876e-02f,-1.06495738e-01f,
+1.15528978e-01f,+4.20867838e-02f,+8.01980570e-02f,-2.93342173e-02f,+1.27316654e-01f,
+5.10145677e-03f,+2.57216929e-03f,+7.79011473e-03f,-1.76311165e-01f,+5.72811887e-02f,
+3.62522185e-01f,+1.86773330e-01f,+1.61962628e-01f,+1.96802124e-01f,+1.18034668e-01f,
+1.55636966e-01f,+4.86335419e-02f,-1.57643497e-01f,-2.99947374e-02f,-1.55820802e-01f,
+8.14956054e-02f,+5.19117191e-02f,-1.88570157e-01f,-7.68753141e-03f,+6.68229982e-02f,
-5.99918962e-02f,-1.39200509e-01f,+1.41913280e-01f,+1.32274991e-02f,+1.33400440e-01f,
+3.31791043e-02f,-7.79460073e-02f,+6.86439797e-02f,-5.24016991e-02f,-7.33958036e-02f,
+3.78310643e-02f,+3.65888439e-02f,+8.79228190e-02f,-3.10783796e-02f,+9.01498571e-02f,
+2.31747985e-01f,-8.06977004e-02f,-2.76198573e-02f,+2.01670364e-01f,+1.54699281e-01f,
+5.67530841e-02f,+2.29890913e-01f,+1.28027827e-01f,-2.60259900e-02f,-3.63860722e-03f,
+2.22101718e-01f,+4.82540876e-02f,-8.33274126e-02f,-3.75178605e-02f,+2.49001868e-02f,
-1.43351302e-01f,+1.38255164e-01f,+1.51361763e-01f,+9.59598795e-02f,+1.80623159e-01f,
+5.39341509e-01f,+4.07559946e-02f,+4.82114293e-02f,+3.10484290e-01f,+1.76608920e-01f,
-1.10192150e-01f,+1.09445147e-01f,+2.22902924e-01f,+6.20310009e-02f,-2.33947560e-01f,
+1.25598744e-01f,+3.42790216e-01f,+3.53194065e-02f,+6.06483072e-02f,-2.09338531e-01f,
-1.26070365e-01f,+1.45144671e-01f,-1.83504492e-01f,+1.44425973e-01f,-1.43851917e-02f,
+1.31082907e-01f,+2.00643674e-01f,+1.86765403e-01f,+7.96582922e-02f,-5.28324069e-03f,
+3.75855714e-01f,+1.12905189e-01f,+1.37979677e-02f,-6.03748299e-02f,+7.30587617e-02f,
+1.23741902e-01f,-3.14498693e-02f,+4.85703237e-02f,+1.66551962e-01f,+2.82190204e-01f,
+1.13363773e-01f,-9.52258557e-02f,+2.51590133e-01f,+4.05442804e-01f,-1.75568700e-01f,
+2.45983630e-01f,+1.49821594e-01f,+6.51291311e-02f,+3.88828665e-01f,-3.34412232e-02f,
-9.41181928e-02f,+3.78280431e-02f,+1.73643515e-01f,+9.40444246e-02f,+8.53824168e-02f,
+6.47759065e-02f,-1.51801765e-01f,+1.20133325e-01f,-6.32829666e-02f,+1.02198400e-01f,
+1.46756381e-01f,+1.22656606e-01f,+1.83304042e-01f,+1.57859683e-01f,-4.03201729e-02f,
+4.78545502e-02f,-2.83707026e-02f,+9.80431512e-02f,-3.08760125e-02f,+6.75463304e-02f,
-4.22689915e-01f,+1.04272038e-01f,+4.60226238e-02f,+1.56109612e-02f,-1.61541641e-01f,
+2.08136484e-01f,+1.28026202e-01f,+2.11951464e-01f,+2.81035677e-02f,+1.80458706e-02f,
+2.27833554e-01f,+3.64914052e-02f,+1.89922258e-01f,+4.36509326e-02f,+2.93951221e-02f,
-1.40300125e-01f,+1.32121384e-01f,+9.83791649e-02f,+1.70306787e-01f,+8.78854394e-02f,
+2.52777010e-01f,+9.22870561e-02f,+1.33680359e-01f,+1.47385225e-01f,+1.32251456e-01f,
+4.88493219e-02f,+1.82011068e-01f,-9.97545384e-03f,+1.25733450e-01f,-5.53859547e-02f,
+8.34484771e-02f,+1.40569955e-01f,+1.67523801e-01f,-3.32683884e-02f,+2.51201820e-02f,
+8.69169086e-02f,-1.59889255e-02f,+1.28035977e-01f,+1.53444409e-01f,-1.44797293e-02f,
+6.91584200e-02f,+3.33630592e-01f,+4.79195965e-03f,+1.90166291e-02f,+5.43466210e-02f,
-2.58564986e-02f,+1.38806015e-01f,+9.92116556e-02f,+1.08699851e-01f,+7.80162066e-02f,
-1.27649605e-01f,+1.24560371e-01f,+1.47146061e-01f,+1.60263702e-01f,-4.95852120e-02f,
+5.30063473e-02f,+3.66135128e-02f,-4.23518717e-02f,+1.33088961e-01f,+2.57077999e-03f,
+1.43072262e-01f,+4.89786603e-02f,+4.50353225e-04f,+8.41192603e-02f,+6.97700977e-02f,
-4.68563288e-02f,+1.06738340e-02f,-1.11258933e-02f,+3.39429945e-01f,+2.67875016e-01f,
+3.11610941e-02f,+1.92635685e-01f,-1.12769436e-02f,-6.00466039e-03f,-8.38539898e-02f,
+7.67501369e-02f,+1.11825839e-02f,+1.41262144e-01f,-3.94681513e-01f,+1.48357376e-01f,
+9.67476591e-02f,+1.46167845e-01f,-1.78061426e-02f,+1.03542887e-01f,+5.01926877e-02f,
+4.81465533e-02f,-1.95217617e-02f,-1.84602588e-01f,+3.49729687e-01f,-1.36283571e-02f,
+1.17360115e-01f,+7.34808445e-02f,+1.18222646e-01f,+5.56395166e-02f,+9.89720598e-02f,
-7.53807798e-02f,-2.30233893e-02f,+2.36009046e-01f,+6.64707944e-02f,+9.03894678e-02f,
-2.04772758e-03f,+5.82985729e-02f,-1.35696884e-02f,+8.10143426e-02f,-1.27515405e-01f,
-1.00643024e-01f,-4.52520065e-02f,+7.26409629e-02f,+9.76808965e-02f,+2.76538506e-02f,
-2.12030753e-01f,+1.83876231e-01f,-1.18682906e-01f,-5.77190779e-02f,+5.29205538e-02f,
-9.53588169e-03f,+1.27111331e-01f,+1.51147127e-01f,+1.08092844e-01f,+1.31618559e-01f,
+1.64083540e-02f,+3.01498212e-02f,-7.98852891e-02f,+1.69686794e-01f,+2.37069931e-02f,
+9.01546776e-02f,-9.30627361e-02f,-4.58999053e-02f,+1.32867321e-01f,+1.16279960e-01f,
-5.70627488e-02f,+2.61846900e-01f,-2.44055893e-02f,+2.27791488e-01f,+6.25482108e-03f,
-2.33485997e-02f,+8.22057128e-02f,+8.54794011e-02f,+1.27104729e-01f,+2.17452664e-02f,
+1.10392161e-02f,-2.87184883e-02f,-4.67670113e-02f,-1.40256584e-01f,+3.94373536e-02f,
+5.84384874e-02f,+4.33844417e-01f,+2.12275404e-02f,+2.09927887e-01f,-5.38241640e-02f,
+1.34659305e-01f,-1.07847475e-01f,+1.53118134e-01f,+2.91440189e-01f,+4.06550523e-03f,
-2.10964277e-01f,-1.20496370e-01f,-1.42040536e-01f,+9.26064402e-02f,+1.67613149e-01f,
-1.75144468e-02f,+1.58311129e-01f,+2.61839982e-02f,+2.09365755e-01f,+1.47159055e-01f,
-3.20380069e-02f,+1.21585585e-01f,+1.04029328e-01f,+7.27905184e-02f,+2.31614336e-02f,
+1.62702322e-01f,-7.06873685e-02f,+1.49304479e-01f,+7.20571429e-02f,-1.04629537e-02f,
+4.95803542e-02f,+1.15026668e-01f,+6.48632720e-02f,+1.60897866e-01f,-1.02641815e-02f,
+9.55276862e-02f,+5.14212996e-02f,+6.68320805e-03f,+2.54914090e-02f,-6.60855174e-02f,
-1.17648961e-02f,-3.38708684e-02f,+1.28098339e-01f,+1.29138887e-01f,-2.82617146e-03f,
-4.93279882e-02f,+7.93488231e-03f,+2.33952906e-02f,+2.37176895e-01f,+4.12489362e-02f,
+1.42826810e-01f,-8.39856192e-02f,+4.43358906e-02f,+3.08362216e-01f,+7.15313628e-02f,
-8.42910912e-03f,+7.59649575e-02f,+7.32276738e-02f,+4.94271964e-02f,+1.52768657e-01f,
+7.20337406e-02f,+2.11910028e-02f,+1.22449458e-01f,-3.08516398e-02f,-5.14189601e-02f,
+8.04163069e-02f,+2.76807666e-01f,+1.16007328e-02f,+1.49480343e-01f,+8.13590363e-02f,
+2.35124350e-01f,+2.07726493e-01f,+1.40936449e-01f,-2.22887903e-01f,-1.05365574e-01f,
+1.87956512e-01f,+1.51428014e-01f,+1.58314526e-01f,-5.07654957e-02f,+1.56392589e-01f,
+9.16887447e-02f,+5.39115518e-02f,+8.70933905e-02f,+8.40621218e-02f,+1.64172441e-01f,
-1.32969031e-02f,+7.81280827e-03f,-7.27894390e-03f,-7.16868229e-03f,+1.08733736e-01f,
-2.04411764e-02f,+2.67640390e-02f,+1.79407988e-02f,+9.40663666e-02f,-2.55467184e-02f,
+8.84276815e-03f,-2.23825648e-02f,+1.41514048e-01f,+2.17166473e-03f,-5.86543465e-03f,
+4.29643840e-02f,+8.21771547e-02f,-8.63932539e-03f,+2.83471569e-02f,+3.99400443e-02f,
+7.47967139e-02f,+1.64365426e-01f,+1.05215032e-02f,+1.22767098e-01f,+1.50020361e-01f,
+3.09952442e-02f,+5.73651083e-02f,+7.82430265e-03f,-1.13993257e-01f,-2.11757962e-02f,
-1.21829443e-01f,-7.64655024e-02f,+4.74057756e-02f,+1.59499340e-03f,+1.55211017e-01f,
+7.06062540e-02f,-6.47301599e-02f,-2.72440817e-03f,+2.14717120e-01f,+1.53603703e-01f,
-8.16120580e-03f,+1.46934807e-01f,-3.82685274e-01f,+3.82059604e-01f,+1.15741082e-02f,
+7.70520046e-02f,+3.28425080e-01f,+1.95521880e-02f,+2.41349205e-01f,-1.61609165e-02f,
+8.73822942e-02f,+4.44390699e-02f,+5.91617711e-02f,+1.31655224e-02f,+1.86597720e-01f,
+1.97293922e-01f,+4.31312472e-02f,+1.12219393e-01f,+1.22314505e-02f,+6.11304305e-02f,
+1.32002115e-01f,+1.39233366e-01f,-6.20716438e-03f,+1.28915995e-01f,+1.31715745e-01f,
-4.08460852e-03f,+2.57148653e-01f,+2.04196751e-01f,+1.26465827e-01f,-1.59824193e-02f,
-9.42834988e-02f,+7.94698596e-02f,-2.99061704e-02f,+1.85247242e-01f,+6.84114769e-02f,
-1.90680996e-01f,+7.93138295e-02f,-6.80509508e-02f,+6.50766119e-02f,+6.80048242e-02f,
+4.06892446e-04f,+6.81307316e-02f,+1.23555273e-01f,-9.06048119e-02f,-3.71658849e-03f,
-2.38589928e-01f,+1.64599955e-01f,+1.42642498e-01f,+6.40021116e-02f,-2.33073235e-02f,
-1.04485229e-02f,+9.48394388e-02f,+9.06739160e-02f,-1.56820476e-01f,+4.26416695e-02f,
-1.09056585e-01f,+1.37123406e-01f,+2.19282247e-02f,+1.99595973e-01f,-9.38699096e-02f,
+1.72059074e-01f,+2.50704191e-03f,+4.90717813e-02f,+1.45204797e-01f,+4.36899848e-02f,
+1.02933399e-01f,+1.02512082e-02f,+1.84889010e-03f,+5.98046184e-02f,+7.83569068e-02f,
+8.57838467e-02f,+1.09085038e-01f,+1.21200189e-01f,+5.54566346e-02f,-5.31386770e-02f,
+1.87949911e-01f,-2.45060734e-02f,+4.35398966e-02f,-4.29126099e-02f,+1.87573969e-01f,
+4.82250638e-02f,+5.42248748e-02f,+1.11475326e-01f,+2.45364513e-02f,+5.17857596e-02f,
+9.90304053e-02f,-4.42274660e-02f,+3.38025652e-02f,+2.02149693e-02f,-1.12085808e-02f,
+7.23430812e-02f,+1.72147095e-01f,-1.26002282e-01f,+2.72641517e-02f,+1.65493205e-01f,
+7.25297555e-02f,-9.52920616e-02f,-7.61764823e-03f,+6.71170652e-02f,+3.01013380e-01f,
+1.50562692e-02f,+1.59939285e-02f,-6.99181557e-02f,-4.66651060e-02f,+1.52474344e-01f,
+6.92961514e-02f,+1.44838318e-01f,+1.21723004e-02f,+1.19464360e-01f,+8.02084152e-03f,
+1.28827966e-03f,+1.09328404e-01f,-1.29030600e-01f,+6.90810382e-02f,+4.04614210e-02f,
+9.92456600e-02f,+3.63727920e-02f,-3.86064537e-02f,+1.03468031e-01f,+5.10295741e-02f,
+1.24387309e-01f,+2.62188703e-01f,+1.65760666e-01f,+8.05938840e-02f,+8.64640400e-02f,
+8.66124108e-02f,+8.43495205e-02f,+9.25152674e-02f,+7.34362528e-02f,+1.02801040e-01f,
-1.13958307e-01f,+4.04487625e-02f,-1.46744147e-01f,-4.34480384e-02f,+6.93045706e-02f,
+5.25297411e-02f,+8.24977830e-02f,+1.16810028e-03f,+2.39176303e-02f,+6.93281298e-04f,
+2.12078452e-01f,-6.12916574e-02f,-3.80131006e-02f,+7.81547204e-02f,+1.36232048e-01f,
+1.47038147e-01f,-1.02019301e-02f,+9.47559401e-02f,+1.89436778e-01f,+9.97053608e-02f,
+1.41292542e-01f,-8.40095356e-02f,+8.61305296e-02f,+1.25285298e-01f,-1.34008881e-02f,
+1.21069819e-01f,+1.61475524e-01f,+7.95776471e-02f,-8.84750579e-03f,+1.04802758e-01f,
+1.33571461e-01f,+1.70243204e-01f,-2.94647831e-02f,+1.00258082e-01f,+9.90327597e-02f,
-1.13528699e-01f,+1.00289881e-01f,+7.42840767e-02f,-1.84093062e-02f,+1.60107717e-01f,
-4.20023873e-02f,+1.16098993e-01f,-1.73250567e-02f,-1.23130530e-01f,-6.41341582e-02f,
+1.53524190e-01f,+1.27830878e-01f,+1.69900060e-01f,+4.72569577e-02f,-2.11714402e-01f,
+3.29185575e-01f,+9.82181430e-02f,+1.40421614e-01f,+8.47888216e-02f,+2.15236023e-02f,
+1.21153621e-02f,+1.71517190e-02f,+1.25722632e-01f,+4.29960303e-02f,+7.48025179e-02f,
-6.11430071e-02f,-5.62769249e-02f,-2.92974655e-02f,-4.38546799e-02f,+1.84842292e-02f,
+2.06381693e-01f,-8.57757106e-02f,+2.05305055e-01f,+9.67707112e-02f,+1.90058321e-01f,
-1.11899987e-01f,+1.10415369e-01f,-1.20947817e-02f,+2.61869058e-02f,+4.81403396e-02f,
-4.16261591e-02f,-8.26250985e-02f,+1.26538575e-01f,+2.01391689e-02f,+2.47265041e-01f,
-6.21380471e-03f,+2.18337223e-01f,+1.14631150e-02f,-1.07853629e-01f,-4.22639959e-02f,
+1.41317904e-01f,+6.41925111e-02f,-1.03730708e-01f,-1.92011818e-02f,+1.72568038e-02f,
+8.41037855e-02f,-1.28901759e-02f,+8.84596184e-02f,-1.20420024e-01f,-1.60742011e-02f,
+7.99042359e-03f,+2.61158794e-01f,+1.53693780e-01f,-1.07442357e-01f,+4.66999747e-02f,
+1.35917664e-01f,+9.59612876e-02f,+6.65777326e-02f,+1.33250162e-01f,-2.56403964e-02f,
-8.61305892e-02f,+8.07025582e-02f,+6.41462058e-02f,-1.51686803e-01f,+7.82992616e-02f,
+7.29082376e-02f,-7.62968808e-02f,+6.28162399e-02f,+8.39501917e-02f,+1.96953416e-01f,
+6.21616244e-02f,-8.43500495e-02f,+7.35732988e-02f,-7.40006007e-03f,+8.37720186e-02f,
+2.25087330e-01f,+7.45308772e-02f,+2.40985323e-02f,+7.37309307e-02f,+4.33646291e-02f,
+1.31034449e-01f,+2.06538923e-02f,+1.91354126e-01f,+7.54029676e-02f,+7.85457939e-02f,
+9.30927414e-03f,+6.83347732e-02f,-5.18737771e-02f,-1.61733061e-01f,+4.72285636e-02f,
+2.42405646e-02f,+5.21245152e-02f,-3.50861363e-02f,+8.51117969e-02f,-1.35609493e-01f,
+8.11271463e-03f,-7.18269497e-02f,+1.29523903e-01f,+6.24402389e-02f,+2.13782147e-01f,
+1.22729115e-01f,+6.80155829e-02f,+1.51194289e-01f,+6.11934066e-02f,-1.65172154e-03f,
+3.35043594e-02f,+1.84627250e-02f,+1.96278449e-02f,+7.34618083e-02f,+8.64424482e-02f,
+8.73718336e-02f,+8.79782960e-02f,+5.60358204e-02f,+7.11998146e-05f,+5.27521968e-02f,
+1.12883493e-01f,+3.04010846e-02f,+6.21717796e-02f,-6.28391728e-02f,-2.02848557e-02f,
+1.58630759e-01f,+6.73986077e-02f,+7.74474293e-02f,+1.16702333e-01f,+1.09805856e-02f,
+5.43898530e-02f,-6.44244105e-02f,+8.20244104e-02f,+1.94353595e-01f,-3.65348975e-03f,
+1.37251616e-01f,+1.17652096e-01f,+7.45124295e-02f,-1.15185268e-01f,+1.95534136e-02f,
+7.86239356e-02f,-2.97147725e-02f,-1.28904385e-02f,-5.62678240e-02f,+3.70411128e-02f,
+2.36440167e-01f,+7.09903985e-02f,+9.94848832e-02f,+1.30884433e-02f,-8.73779431e-02f,
+1.03553563e-01f,+1.52427197e-01f,+3.85080501e-02f,+7.74371475e-02f,-1.09892553e-02f,
-1.93625409e-02f,+5.80704324e-02f,-1.39732836e-02f,+1.36795804e-01f,+1.27786681e-01f,
-6.05398789e-02f,+3.58907804e-02f,-6.14319071e-02f,+1.24720462e-01f,+5.95913716e-02f,
+4.25540134e-02f,-1.91259698e-03f,+5.62136397e-02f,+2.32531995e-01f,+1.95804164e-01f,
+9.28734466e-02f,-1.20509733e-02f,+4.51324694e-03f,-2.04700436e-02f,+1.47757651e-02f,
-5.31969070e-02f,+8.13491940e-02f,+7.36728832e-02f,+6.37579858e-02f,+6.06062487e-02f,
-5.50746210e-02f,-1.47633359e-01f,+1.53888687e-01f,+5.30258901e-02f,+7.63986036e-02f,
+2.00393662e-01f,-1.82741974e-02f,+6.56373426e-03f,+7.96259716e-02f,+7.88564831e-02f,
+3.55911143e-02f,+1.36790082e-01f,+1.82442516e-01f,+7.23768100e-02f,+4.27224264e-02f,
+7.56232142e-02f,+2.50435830e-03f,+2.81341463e-01f,-1.86094604e-02f,+2.18119308e-01f,
+2.86243460e-03f,+2.06919596e-01f,+1.14885848e-02f,-1.82084448e-03f,+1.40279949e-01f,
-3.38592939e-02f,+5.35890833e-02f,+1.62981227e-01f,+1.07593156e-01f,+1.20613351e-01f,
+1.23208441e-01f,+1.00619152e-01f,-5.43913990e-02f,+1.66025296e-01f,+4.90093268e-02f,
+5.06782671e-03f,+1.33355096e-01f,+2.96121221e-02f,+9.23089683e-02f,+2.52632648e-02f,
+2.16358695e-02f,+7.86968842e-02f,+8.53475928e-02f,+9.88121107e-02f,+1.78682834e-01f,
+7.89198056e-02f,+9.61701944e-02f,-6.77852333e-02f,+4.96803820e-02f,+3.02831680e-01f,
+3.29724029e-02f,+6.73414990e-02f,+1.46115065e-01f,-1.81975830e-02f,+2.57183701e-01f,
+8.36629868e-02f,+2.02107266e-01f,+8.97786543e-02f,+8.54577869e-02f,-2.59673372e-02f,
+4.55973558e-02f,-4.17843238e-02f,+1.50730431e-01f,+8.36683139e-02f,-2.68552341e-02f,
+2.06761546e-02f,+4.67109345e-02f,+3.75339873e-02f,+3.06493323e-03f,+3.91892865e-02f,
+1.83986455e-01f,+1.14618056e-01f,+6.77482635e-02f,-7.95389041e-02f,+9.86285955e-02f,
+2.05255315e-01f,+3.68388928e-02f,+8.82441550e-02f,+4.11044434e-02f,+1.35351956e-01f,
-1.59503464e-02f,+9.48892012e-02f,+4.46735881e-02f,+1.44509494e-01f,+1.27863392e-01f,
+7.02222139e-02f,+1.81915149e-01f,+4.31571417e-02f,+2.01279610e-01f,+1.09860986e-01f,
+6.12740107e-02f,+6.86310753e-02f,+2.60551684e-02f,-1.32684447e-02f,+9.18226317e-02f,
+7.62796402e-02f,-3.86441164e-02f,-1.34227369e-02f,+1.04378968e-01f,+7.20207989e-02f,
-3.83497439e-02f,+4.96234857e-02f,+2.14615115e-03f,+8.95037353e-02f,+1.31614849e-01f,
+3.95445377e-02f,+1.08093530e-01f,+1.85903329e-02f,+1.60526708e-01f,+1.04888462e-01f,
+2.81444360e-02f,+2.10755169e-01f,+7.40667284e-02f,+1.44806847e-01f,-8.99875723e-03f,
+1.65725812e-01f,+1.82477415e-01f,+4.74936925e-02f,+1.53716803e-01f,+7.27304369e-02f,
+9.47564617e-02f,+8.26319978e-02f,+5.64760081e-02f,+4.78824191e-02f,-5.36533557e-02f,
-7.99030717e-03f,+9.58300456e-02f,+8.17340985e-02f,+3.54545899e-02f,+7.00785443e-02f,
+1.56690076e-01f,+7.98128322e-02f,+8.50833878e-02f,+3.39040197e-02f,+1.20217487e-01f,
+7.93738365e-02f,+5.07608168e-02f,+1.63039248e-02f,+6.96455613e-02f,-6.92722797e-02f,
-4.77170162e-02f,+1.26970364e-02f,+4.74505201e-02f,+6.13080757e-03f,+1.08293481e-01f,
+1.29190013e-01f,+8.79427120e-02f,+1.37143299e-01f,+9.34038386e-02f,+6.78636879e-02f,
-1.68151408e-02f,+8.11922774e-02f,+1.57642826e-01f,+1.47347823e-01f,+8.86822566e-02f,
+2.08669659e-02f,-1.15637548e-01f,+7.99285918e-02f,+6.99381754e-02f,-4.13314849e-02f,
-2.40671858e-02f,+4.38247547e-02f,+9.03647095e-02f,+7.43488669e-02f,+1.57063544e-01f,
+5.02899289e-02f,+1.13645814e-01f,+9.78795588e-02f,+1.23910859e-01f,+2.84376610e-02f,
+7.47423694e-02f,+1.06529427e-04f,-4.98787127e-02f,+2.05214508e-02f,+2.11200461e-01f,
+4.29548658e-02f,-1.75233204e-02f,+1.08349085e-01f,+1.14523850e-01f,+1.19803093e-01f,
+1.22619115e-01f,+6.32943735e-02f,+1.47179596e-03f,-1.10273227e-01f,+3.21992099e-01f,
-2.61192560e-01f,+1.16675057e-01f,+3.43321972e-02f,+1.09300755e-01f,-1.82928279e-01f,
+1.56560138e-01f,+1.69279337e-01f,+1.29861861e-01f,+8.17851052e-02f,+7.79589042e-02f,
+6.35476857e-02f,+1.05092622e-01f,+1.21093504e-01f,+5.65363243e-02f,+6.62406385e-02f,
-1.51322439e-01f,+4.30843458e-02f,+4.87110317e-02f,+1.08156875e-01f,+3.42489295e-02f,
+1.13508999e-01f,+6.30917773e-02f,+1.00293867e-02f,+8.39563236e-02f,+2.67601907e-01f,
+1.47103265e-01f,+8.11375454e-02f,+1.48607761e-01f,-1.26259131e-02f,+8.21829513e-02f,
+6.78188652e-02f,+1.31012663e-01f,+1.99156366e-02f,+2.97561027e-02f,-2.84262840e-02f,
+1.86805904e-03f,+4.91650961e-02f,+1.30012542e-01f,-1.95049774e-02f,+1.15364879e-01f,
+7.03731179e-02f,+2.37965919e-02f,+1.35611832e-01f,+1.62211999e-01f,+4.56137285e-02f,
+7.22944960e-02f,+1.59645036e-01f,+6.34337813e-02f,+4.34168950e-02f,+8.55610222e-02f,
+1.86041653e-01f,+7.30180182e-04f,+3.66908610e-02f,+4.11527343e-02f,+2.82445371e-01f,
+1.01458505e-02f,-3.53254452e-02f,-1.10039942e-03f,+6.14305250e-02f,-3.17132175e-02f,
+6.29223604e-03f,+9.84677747e-02f,-3.58080072e-03f,-1.25000313e-01f,-1.01671763e-01f,
+1.08852468e-01f,+4.61319141e-04f,-7.15212524e-02f,-9.94635187e-03f,+3.04854941e-02f,
-2.47500747e-01f,-9.67716798e-02f,+1.09479146e-03f,+1.04166232e-01f,-4.40943912e-02f,
+1.68355465e-01f,-1.35332823e-01f,+1.11001290e-01f,+3.40208262e-02f,+3.30199488e-02f,
-9.41975638e-02f,+2.95212030e-01f,+6.14398122e-02f,+2.93753259e-02f,-3.30357045e-01f,
+4.94591109e-02f,+1.81458846e-01f,+3.66942696e-02f,+5.21561317e-02f,-3.62540781e-02f,
+8.21849182e-02f,+7.99489766e-02f,-7.04648555e-04f,+1.45943433e-01f,+2.56881732e-02f,
+2.36483037e-01f,+5.77160669e-03f,+5.88488840e-02f,+9.13836136e-02f,+7.41973743e-02f,
-1.23625202e-02f,+1.88607648e-02f,+3.24593335e-01f,-1.17568694e-01f,-8.97011310e-02f,
-1.03579776e-03f,+3.63411754e-02f,+1.42501406e-02f,-3.90241742e-02f,+1.04760818e-01f,
-7.18440413e-02f,-2.90858839e-02f,+3.41543913e-01f,+3.19082350e-01f,+6.59142211e-02f,
-2.16852129e-01f,-1.23795345e-01f,+1.72510788e-01f,+1.93346873e-01f,+1.12297095e-01f,
+6.61994070e-02f,-1.47509063e-02f,-4.89930958e-02f,-6.63221776e-02f,-1.26658648e-01f,
+7.52506405e-02f,+6.91904873e-02f,+1.64163634e-01f,+1.06584638e-01f,+2.56159361e-02f,
+8.95930976e-02f,+1.25363871e-01f,+2.67037481e-01f,+1.94138482e-01f,-2.19093524e-02f,
+1.43367454e-01f,+1.61770016e-01f,+4.00561541e-02f,+5.08480566e-03f,+2.05789208e-01f,
-5.08346222e-02f,+1.20094210e-01f,+5.70541382e-01f,+9.96398851e-02f,-1.41197398e-01f,
+2.41276827e-02f,+4.06386033e-02f,-3.19667794e-02f,+3.39944586e-02f,+2.50472147e-02f,
-6.91095218e-02f,+2.48939842e-02f,+1.12347521e-01f,-1.00759022e-01f,+1.60951227e-01f,
+1.61800236e-01f,+3.64682525e-02f,-1.23073488e-01f,-2.03652114e-01f,-3.19168508e-01f,
+1.64908603e-01f,-8.95272419e-02f,+8.50295275e-02f,-1.55043555e-02f,+1.36903837e-01f,
-8.91674906e-02f,-1.80409700e-02f,-1.67251572e-01f,-3.07631552e-01f,+1.49474010e-01f,
+2.11168021e-01f,+1.61979824e-01f,-2.41953246e-02f,-8.66656750e-02f,+5.01780249e-02f,
-4.61071730e-02f,-8.20571780e-02f,+9.14328545e-02f,+4.71748747e-02f,+5.11901006e-02f,
+2.13590711e-01f,+1.04684614e-01f,+4.50219885e-02f,+2.81194150e-01f,+2.60637496e-02f,
-3.31763811e-02f,+7.17832297e-02f,+4.85307783e-01f,+6.28049448e-02f,+1.18770093e-01f,
+1.05606504e-01f,-2.82207597e-02f,-1.76663324e-02f,-2.59101316e-02f,-9.85395610e-02f,
+2.34878972e-01f,+1.75585728e-02f,-1.25119776e-01f,+1.26714781e-01f,+1.10089161e-01f,
-3.11968569e-02f,+1.80953369e-01f,-1.06384791e-01f,-4.13721427e-02f,+1.25180751e-01f,
-9.18952450e-02f,-2.18619518e-02f,+2.54933778e-02f,+1.47621155e-01f,+4.04342264e-02f,
+6.58078566e-02f,+3.54526974e-02f,-3.85890782e-01f,+4.36909087e-02f,+2.05976993e-01f,
+8.33551884e-02f,+1.36395976e-01f,-3.15541029e-02f,+3.33792791e-02f,+2.16598555e-01f,
+2.39340976e-01f,-1.16538756e-01f,+1.14401598e-02f,+7.32487142e-02f,-2.32089441e-02f,
-1.11447372e-01f,-4.71657179e-02f,+8.46782848e-02f,+1.28281042e-01f,-1.09311333e-02f,
+3.03043313e-02f,+5.82561567e-02f,-1.09782845e-01f,+2.04857349e-01f,+6.64197505e-02f,
-1.10806517e-01f,+4.49328274e-02f,+2.56883383e-01f,-3.74690369e-02f,-9.80106518e-02f,
+1.80048004e-01f,+6.94998577e-02f,+9.10644904e-02f,+4.77118105e-01f,+1.30264178e-01f,
+9.37890783e-02f,-1.79430276e-01f,+7.50616018e-04f,+2.87103653e-01f,-1.61917582e-02f,
-2.93417145e-02f,+4.04910259e-02f,+7.15548843e-02f,+1.59360841e-02f,-1.19667001e-01f,
+1.08060345e-01f,-2.98444957e-01f,+2.72116661e-02f,+1.39337912e-01f,+4.23142277e-02f,
-1.33897007e-01f,+5.70412427e-02f,+9.29566845e-03f,+1.85090229e-02f,-1.07364185e-01f,
+1.38601631e-01f,+3.74341682e-02f,-9.33503732e-02f,+3.37013453e-02f,+7.57539719e-02f,
-4.99075688e-02f,-7.80112073e-02f,+1.50955707e-01f,-1.43928111e-01f,+3.29991430e-01f,
-1.10027954e-01f,-1.66791126e-01f,+8.36216584e-02f,+1.40524939e-01f,-4.72104363e-02f,
+1.06649280e-01f,+1.84426904e-02f,+6.77101538e-02f,-1.03229620e-01f,+8.76656175e-02f,
+1.47193432e-01f,-2.32563838e-02f,+9.43817496e-02f,+1.48973301e-01f,-2.54841652e-02f,
+1.95382103e-01f,-1.15874082e-01f,-4.33225520e-02f,+5.05092107e-02f,+8.92434418e-02f,
+1.36075225e-02f,+1.54646695e-01f,-3.26621175e-01f,+2.23141953e-01f,+2.76589487e-02f,
+3.33581865e-01f,-1.05689779e-01f,+7.23270997e-02f,+2.63075709e-01f,-1.35831740e-02f,
+4.87716198e-01f,+1.17855631e-01f,+2.57890839e-02f,+1.39568552e-01f,-4.09604376e-03f,
+6.83463812e-02f,+1.72443464e-01f,-1.60562813e-01f,+2.89182395e-01f,-1.09290052e-02f,
+7.92700276e-02f,-1.15091443e-01f,-1.12405218e-01f,+8.75634551e-02f,-1.54708475e-01f,
+1.04915060e-01f,+3.21214944e-02f,+1.17450513e-01f,-1.79108933e-01f,-1.89110935e-01f,
+4.40024771e-02f,-1.04419403e-01f,+2.09437624e-01f,-6.31329864e-02f,+1.19638294e-01f,
-1.50326509e-02f,+1.73588693e-01f,-1.57415450e-01f,+1.22512378e-01f,+1.63269296e-01f,
-1.34597450e-01f,+1.73437119e-01f,+6.64506853e-02f,-3.39554101e-02f,+1.47518087e-02f,
+3.11412252e-02f,+6.94788992e-02f,+2.06694916e-01f,+1.30321294e-01f,+3.29967439e-02f,
+6.83164969e-02f,+5.99279143e-02f,+1.50863221e-02f,+1.96394041e-01f,-5.69041725e-03f,
-9.67424512e-02f,-2.52101868e-01f,-6.62534684e-02f,+4.79127839e-02f,-1.83567435e-01f,
+8.14417899e-02f,-4.77543324e-02f,+1.38921905e-02f,+1.03749901e-01f,-5.90692274e-02f,
-3.38937039e-03f,+3.45524669e-01f,-4.33795573e-03f,+3.39497887e-02f,-1.52907133e-01f,
-9.73323267e-03f,+1.50333896e-01f,+1.00426078e-01f,+3.15676890e-02f,-6.34503141e-02f,
+2.19783410e-01f,+1.57088071e-01f,-8.95059630e-02f,+1.90689638e-01f,+2.28995204e-01f,
+3.33246887e-02f,+1.37058701e-02f,+1.72878802e-01f,-9.06519070e-02f,+1.20588467e-01f,
+1.02695875e-01f,+9.76329744e-02f,+4.51712385e-02f,+1.43984601e-01f,+1.40411675e-01f,
-2.62712747e-01f,-3.64503870e-03f,+3.47448915e-01f,+3.02430272e-01f,+1.77716807e-01f,
-1.16962358e-01f,+2.21550073e-02f,-1.95248306e-01f,+1.56088604e-03f,-2.34034553e-01f,
+1.68549836e-01f,+1.09714486e-01f,-2.45958790e-02f,+2.74615079e-01f,-1.83530226e-02f,
-4.40728441e-02f,+1.83457043e-02f,+5.07153831e-02f,-2.28211116e-02f,+1.71365902e-01f,
-5.07608391e-02f,+1.68778464e-01f,-5.85860088e-02f,-1.12045303e-01f,+1.15647405e-01f,
-1.87220514e-01f,+3.12606134e-02f,-1.77293181e-01f,-2.39832196e-02f,-1.42780304e-01f,
-2.30230927e-01f,+2.90217735e-02f,-1.20030612e-01f,-2.59629618e-02f,-5.50457314e-02f,
+2.07561374e-01f,+5.55732585e-02f,+2.55918980e-01f,+1.04097739e-01f,+3.34878899e-02f,
+1.70227960e-01f,+4.88566868e-02f,+1.36862859e-01f,+1.72925293e-01f,+1.67895883e-01f,
-6.94341213e-02f,+2.56213158e-01f,+2.48932049e-01f,+1.11476868e-01f,-9.02857482e-02f,
+7.57406801e-02f,-2.00276613e-01f,-1.45971388e-01f,+1.37905568e-01f,-1.19203068e-01f,
+1.34266153e-01f,+3.08328830e-02f,+1.62745357e-01f,+1.69714674e-01f,+2.75364995e-01f,
+1.23515867e-01f,-1.38473719e-01f,-3.20017099e-01f,-9.19294432e-02f,+1.83136519e-02f,
+8.07106942e-02f,+3.16767037e-01f,+1.51683569e-01f,+1.03696108e-01f,-3.38626211e-03f,
+5.93340546e-02f,+7.39092194e-03f,+6.74342271e-03f,-4.32836935e-02f,-1.70353614e-02f,
-8.46353546e-02f,-5.70212491e-02f,+2.86547065e-01f,-2.95705739e-02f,-1.74497530e-01f,
+3.37500781e-01f,+5.28025568e-01f,+6.77011013e-02f,+1.29705846e-01f,+2.24892110e-01f,
+1.00848721e-02f,-1.65038630e-01f,+2.42122523e-02f,-4.23393101e-02f,+1.04784630e-01f,
+2.95810979e-02f,+9.59285423e-02f,-3.43395807e-02f,+5.29538654e-02f,+9.13135186e-02f,
-6.85064197e-02f,-1.45385087e-01f,+1.49959713e-01f,-1.37040988e-01f,+5.08638285e-02f,
+1.18512195e-02f,-6.28667772e-02f,+2.34164540e-02f,+1.36453822e-01f,-9.51142982e-02f,
+1.13114387e-01f,+1.57267570e-01f,+3.55000794e-01f,-8.80681502e-04f,-1.83359124e-02f,
-1.33587688e-01f,-6.86775073e-02f,+5.88815808e-02f,+7.87659734e-03f,+2.13931710e-01f,
-1.06207225e-02f,+2.34374329e-01f,+2.30492860e-01f,-3.95480283e-02f,-3.69101726e-02f,
+8.90472904e-02f,+1.47130579e-01f,+1.48776084e-01f,+6.14571944e-02f,+8.33676830e-02f,
-1.74627677e-01f,+3.90610605e-01f,+1.36453837e-01f,+1.69057414e-01f,+1.04734950e-01f,
+8.36349204e-02f,-1.21238492e-01f,+2.40564108e-01f,+1.30519882e-01f,+1.00052349e-01f,
+1.20661728e-01f,+6.15317300e-02f,-1.94573402e-01f,+4.70976308e-02f,+1.12453960e-01f,
+1.15359519e-02f,+1.13924652e-01f,+9.03726891e-02f,+8.09722487e-03f,+3.44529510e-01f,
+2.48771608e-01f,+1.62993684e-01f,-6.10384569e-02f,+6.79123178e-02f,+2.57623196e-02f,
+5.37853986e-02f,+1.57961890e-01f,-4.49300371e-02f,-7.90655315e-02f,-1.43325821e-01f,
+4.97682691e-02f,+1.27190098e-01f,+7.01252371e-02f,-2.26375043e-01f,+7.25115836e-02f,
+8.54234397e-03f,+9.28254724e-02f,+2.85480797e-01f,+6.45519495e-02f,-1.02197461e-01f,
-1.14945543e-03f,+9.70778894e-03f,+5.42211980e-02f,+5.97516596e-02f,+1.64126262e-01f,
+2.65486062e-01f,+1.15829349e-01f,+1.27786666e-01f,+2.64249831e-01f,+2.25057919e-02f,
+5.45637347e-02f,-1.09020904e-01f,-4.78666052e-02f,+1.28495783e-01f,-4.53309007e-02f,
+1.62118047e-01f,-2.00016815e-02f,+3.90336186e-01f,-1.02519855e-01f,+1.56791478e-01f,
-1.98397636e-02f,+1.95931643e-03f,-1.72006130e-01f,+5.14577515e-02f,+2.48200312e-01f,
-3.28095071e-02f,+2.67907858e-01f,+3.97335403e-02f,-1.96960159e-02f,+1.16591409e-01f,
-5.14494367e-02f,+8.73367712e-02f,+6.76009953e-02f,+4.77551743e-02f,+7.27168992e-02f,
+1.30820975e-01f,+6.76695406e-02f,+3.30046654e-01f,+5.90237826e-02f,-2.63847783e-02f,
+5.31812087e-02f,+2.69099046e-02f,+1.39354795e-01f,+1.47971332e-01f,+1.88382551e-01f,
+1.30104929e-01f,+4.09948118e-02f,+7.91871995e-02f,+1.89751834e-01f,+1.45390302e-01f,
+1.24345236e-01f,-1.22670852e-01f,+4.59746681e-02f,+4.58064154e-02f,+1.60572872e-01f,
+6.72372207e-02f,+9.36443917e-03f,+8.95631686e-02f,+1.29530877e-01f,+3.76425236e-02f,
-2.41297050e-04f,+2.89712660e-02f,-5.74253388e-02f,-7.26788044e-02f,+2.32878774e-01f,
+1.88498646e-02f,-1.95851192e-01f,+6.33831248e-02f,+6.68243691e-02f,+6.10990152e-02f,
+4.72948626e-02f,+1.32813111e-01f,-7.82442763e-02f,+2.33258098e-01f,-9.29477960e-02f,
+1.28125846e-01f,+2.89568692e-01f,-1.08217932e-01f,+1.80489883e-01f,+4.35770154e-01f,
-1.02047831e-01f,+1.49113089e-01f,-4.65794513e-03f,+1.57661840e-01f,-4.21719924e-02f,
-8.54073912e-02f,-3.72947752e-01f,+4.89433140e-01f,-4.80174981e-02f,-1.73107862e-01f,
+1.28680095e-01f,+1.19854219e-01f,-5.52044734e-02f,+2.68417686e-01f,+3.32250208e-01f,
+7.35184327e-02f,+4.61272802e-03f,+2.82689571e-01f,-2.30754204e-02f,+1.33479372e-01f,
+1.29946172e-01f,+4.47497293e-02f,-1.56191275e-01f,+1.37574494e-01f,+5.38212731e-02f,
+7.69684911e-02f,+2.12455586e-01f,-1.15112901e-01f,+1.61059394e-01f,+3.45292568e-01f,
-1.05007567e-01f,+1.46576902e-02f,+5.14203906e-02f,+1.09026156e-01f,+8.77256468e-02f,
-2.03632563e-01f,+1.02759361e-01f,+2.80782785e-02f,+1.35650292e-01f,+8.78196359e-02f,
+1.87729463e-01f,+7.05518248e-03f,+6.75146133e-02f,+1.47545356e-02f,+1.39852792e-01f,
+1.90693498e-01f,+8.85957852e-02f,-1.26005173e-01f,-1.34604713e-02f,+3.07374932e-02f,
+5.70708513e-02f,-7.52804475e-03f,+1.84149489e-01f,-9.31501854e-03f,+1.73541665e-01f,
-7.68279796e-03f,-7.44252130e-02f,+1.94523841e-01f,-4.48387973e-02f,-2.07697675e-02f,
+1.05822384e-02f,+9.03333277e-02f,-6.92269355e-02f,+9.87417549e-02f,+8.82805586e-02f,
-5.25092781e-02f,+9.99412388e-02f,+6.25899211e-02f,+6.27593547e-02f,+1.16713367e-01f,
+1.57058954e-01f,+2.69572102e-02f,+2.24364594e-01f,+9.70432758e-02f,+1.71501115e-01f,
-3.60406607e-01f,-1.87544823e-01f,+1.47145987e-01f,+8.43252987e-02f,-2.83249199e-01f,
-9.16539058e-02f,-1.33854039e-02f,+4.13813949e-01f,+1.54235259e-01f,-5.16568832e-02f,
+9.36853662e-02f,+2.14736402e-01f,+6.04924299e-02f,-2.41921127e-01f,+7.86783695e-02f,
-2.13648751e-02f,+7.04657659e-02f,-1.42520498e-02f,-2.26210151e-02f,+1.31789669e-01f,
+7.22219050e-02f,+6.12747036e-02f,+6.21576644e-02f,+8.62741247e-02f,-3.21635455e-02f,
-1.87586606e-01f,+3.05496529e-02f,-2.41212770e-01f,+6.74462989e-02f,+1.24871671e-01f,
+2.16470603e-02f,+4.16340828e-02f,-1.56322539e-01f,+2.11847529e-01f,+1.57939985e-01f,
-3.94297913e-02f,-3.21445093e-02f,+3.52250785e-02f,+1.09926879e-01f,+3.42433840e-01f,
-2.40354374e-01f,+6.51679337e-02f,+2.08326012e-01f,-1.44191146e-01f,-3.32633965e-02f,
+3.08896720e-01f,-1.51333123e-01f,+7.11062849e-02f,+9.83905420e-02f,+2.82790624e-02f,
+5.23661561e-02f,-4.06627804e-02f,+3.43270935e-02f,+8.24678540e-02f,+1.16315760e-01f,
+5.37883118e-03f,-4.21332493e-02f,+4.74386886e-02f,+3.89350653e-01f,+4.48033214e-02f,
+4.66370918e-02f,+1.13446554e-02f,+9.64973569e-02f,+3.87982763e-02f,+1.92240685e-01f,
-6.87559396e-02f,+8.26113969e-02f,+1.00828111e-01f,+7.63977915e-02f,+1.42698601e-01f,
+1.69946045e-01f,+1.40078187e-01f,+2.95105249e-01f,+1.73964232e-01f,-3.78131270e-02f,
+1.15680970e-01f,+7.68578202e-02f,-6.17273785e-02f,+5.29016331e-02f,+1.33476287e-01f,
-8.12231526e-02f,-9.30319428e-02f,+5.52916294e-03f,-6.77618012e-02f,+1.74088106e-01f,
-3.62072587e-02f,+2.91679293e-01f,+1.28806941e-02f,-6.90350384e-02f,+1.35444567e-01f,
+9.41528305e-02f,+2.39490066e-02f,+6.10774681e-02f,+6.66463673e-02f,+1.06963210e-01f,
+1.23731472e-01f,+6.16711602e-02f,+2.36663312e-01f,+1.77697167e-01f,+1.12131894e-01f,
+1.78045165e-02f,+2.40478352e-01f,+1.96921512e-01f,+8.63971338e-02f,+4.38748524e-02f,
+6.48279712e-02f,+9.35625657e-02f,-3.61803919e-03f,+2.18720362e-01f,-1.18629178e-02f,
-1.86863229e-01f,+1.38476482e-02f,+1.72605693e-01f,+1.05051607e-01f,+6.11752383e-02f,
-2.51161307e-02f,-1.91316247e-01f,-3.18811387e-02f,+7.53617510e-02f,-1.21038698e-01f,
+1.26532793e-01f,+8.35897774e-02f,+6.62962720e-02f,+1.36934265e-01f,+4.09983955e-02f,
+1.70115620e-01f,+1.77614376e-01f,+2.73312151e-01f,-1.85440913e-01f,+2.25543082e-01f,
+1.40543595e-01f,+2.18147650e-01f,+9.82218236e-03f,-1.76364835e-02f,+2.00387642e-01f,
+1.62578493e-01f,+1.63517803e-01f,+5.76936640e-03f,+1.58746064e-01f,+2.13636085e-01f,
+1.12511411e-01f,+1.21602349e-01f,+4.89303470e-02f,+1.49002016e-01f,+1.50182799e-01f,
+6.70185536e-02f,-5.71650565e-02f,+2.29442328e-01f,-1.36688262e-01f,-1.16030015e-02f,
+5.19941561e-02f,+1.14926323e-01f,+1.76315188e-01f,-3.67586985e-02f,+1.09416872e-01f,
-2.63753921e-01f,+9.78749171e-02f,+1.70159072e-01f,+2.02144384e-01f,+2.93563664e-01f,
+1.32659089e-03f,+7.14090541e-02f,+3.95285599e-02f,+1.12027690e-01f,+8.62585753e-02f,
+3.71024758e-03f,+8.18322375e-02f,+5.92481419e-02f,+2.93519467e-01f,-8.79553985e-03f,
-1.72865689e-02f,+3.48517418e-01f,+1.31853402e-01f,+1.66908920e-01f,-1.03437398e-02f,
-6.82461038e-02f,+7.70593900e-03f,+2.20142547e-02f,+2.52866447e-02f,+7.42173335e-03f,
+2.68798709e-01f,+8.65238383e-02f,-6.83474168e-02f,+1.20026529e-01f,+2.84230769e-01f,
+1.78474471e-01f,+2.48993427e-01f,+2.70054396e-02f,+1.53435573e-01f,+1.24212779e-01f,
+2.58049387e-02f,+1.37905121e-01f,-7.75534473e-03f,-1.57183766e-01f,-3.75961699e-02f,
+2.06258625e-01f,+7.27377534e-02f,-1.80054456e-03f,+1.39316559e-01f,-9.67767183e-03f,
+9.80061367e-02f,+3.57287340e-02f,-5.04663065e-02f,-1.20092161e-01f,+1.31836206e-01f,
+1.51845038e-01f,+1.22353591e-01f,-7.00148521e-03f,+1.59369618e-01f,+1.09117828e-01f,
-7.65281618e-02f,+4.44909595e-02f,+1.09315418e-01f,-3.69982496e-02f,+1.13612756e-01f,
+1.18892729e-01f,+4.54389937e-02f,+8.75965506e-02f,+7.28627443e-02f,-5.70906550e-02f,
+1.38421193e-01f,+5.51248603e-02f,+5.06066680e-02f,-1.99723989e-03f,+1.94374304e-02f,
+8.62761214e-02f,-3.46200913e-02f,+1.94541812e-01f,+4.08802368e-03f,-9.62831080e-04f,
-3.36667858e-02f,+1.04758823e-02f,+1.55327052e-01f,+1.30123511e-01f,+3.81604321e-02f,
+1.79949239e-01f,+1.37030289e-01f,-3.91624197e-02f,+4.59766090e-02f,+7.59791732e-02f,
-1.43709213e-01f,-1.38550505e-01f,-3.65266018e-02f,+1.64157063e-01f,+9.81510878e-02f,
-2.82250792e-02f,+1.01869062e-01f,+2.76810020e-01f,-4.29980382e-02f,+4.73507233e-02f,
+1.33183420e-01f,-8.60801525e-03f,+1.06880032e-01f,+1.64142340e-01f,-7.23336190e-02f,
+1.29911363e-01f,+3.36690366e-01f,+6.43196627e-02f,+3.27295244e-01f,+6.66098436e-04f,
+1.69564083e-01f,+1.62798330e-01f,-1.10919848e-01f,+4.82602865e-01f,-9.22928527e-02f,
+2.08982572e-01f,+2.61059523e-01f,+9.52741504e-02f,+2.18026042e-01f,+4.18418199e-02f,
+1.25269100e-01f,-8.38957205e-02f,+7.12586641e-02f,+3.69262338e-01f,+2.94461071e-01f,
+2.37700060e-01f,-6.77006915e-02f,+6.19781855e-03f,-1.18266456e-01f,+1.07616007e-01f,
+1.78969041e-01f,+1.92886397e-01f,+4.60081473e-02f,+2.05305368e-01f,+3.37152004e-01f,
+1.05727695e-01f,+1.43952351e-02f,+1.64759487e-01f,+1.35901002e-02f,+2.74305372e-03f,
+1.67836085e-01f,+6.74801692e-02f,+2.48220906e-01f,+1.43892691e-01f,+8.11775923e-02f,
-3.67574841e-02f,+2.38510579e-01f,+1.11407988e-01f,+7.46591687e-02f,-4.27972637e-02f,
+4.69683036e-02f,+5.06614745e-02f,+6.56905025e-02f,+3.23088840e-02f,+7.16862008e-02f,
-1.30986959e-01f,-2.90186167e-01f,+3.95217165e-02f,+1.88620076e-01f,+1.81008369e-01f,
+1.91875622e-01f,+1.31987274e-01f,+4.07062285e-02f,+2.10566863e-01f,+1.67262018e-01f,
+1.03089146e-01f,+1.50579453e-01f,+1.91075101e-01f,+8.60703066e-02f,+1.80687845e-01f,
+8.31459612e-02f,+7.03337342e-02f,+1.63594067e-01f,-1.25019124e-03f,+1.03175029e-01f,
+8.62995610e-02f,+9.14988369e-02f,+6.60389736e-02f,-1.03240415e-01f,+1.23742469e-01f,
+2.19586715e-01f,-1.74439535e-01f,+1.11497670e-01f,-2.87020355e-02f,+1.21116154e-02f,
-1.91350356e-01f,+1.05669880e-02f,-9.38138738e-03f,+2.09088391e-03f,+7.39913434e-02f,
-7.22109824e-02f,+3.65116559e-02f,+5.20801954e-02f,-3.31613272e-02f,+1.19338669e-01f,
+4.68080603e-02f,+1.84372157e-01f,-1.50104780e-02f,+1.50813937e-01f,+2.91066676e-01f,
+3.54824401e-02f,-3.98432352e-02f,+4.43851016e-02f,-2.91964058e-02f,+4.66610864e-02f,
-8.04566070e-02f,-2.33943760e-03f,+2.04501018e-01f,+2.60867149e-01f,-1.18699126e-01f,
+1.37101337e-01f,+7.73407295e-02f,+2.51146644e-01f,+4.96362858e-02f,+4.34515923e-02f,
+1.13658510e-01f,+9.33692083e-02f,+1.78732388e-02f,+2.34974816e-01f,+2.65672654e-01f,
+1.13396324e-01f,-3.72359753e-02f,+7.87020624e-02f,-1.44685119e-01f,-4.76551726e-02f,
+2.49875654e-02f,-1.94937736e-02f,+4.60395031e-02f,+1.71341449e-01f,-7.82828331e-02f,
+1.34141341e-01f,-3.60633852e-03f,+3.20902281e-02f,+1.28950790e-01f,+2.44477034e-01f,
+4.85884994e-02f,+2.23739352e-02f,-1.73309390e-02f,-1.89402297e-01f,+3.06405444e-02f,
+2.36932009e-01f,+1.01562021e-02f,+8.93154889e-02f,+1.04022130e-01f,+2.66384423e-01f,
+1.57445163e-01f,+6.85308054e-02f,-1.27489597e-01f,+9.35907140e-02f,+2.95284986e-01f,
-3.76525931e-02f,-6.03623763e-02f,+5.67679033e-02f,+5.07686920e-02f,+7.66976625e-02f,
+5.47267981e-02f,+9.58846658e-02f,+1.95044324e-01f,+6.24044053e-02f,+8.39821398e-02f,
-3.49645205e-02f,-1.32003028e-04f,+3.93275738e-01f,+2.51014903e-02f,+1.69312898e-02f,
+8.98886323e-02f,+5.87144233e-02f,+2.57479437e-02f,+1.36042520e-01f,+1.26747742e-01f,
-2.74741501e-02f,+7.83946514e-02f,-4.18049246e-02f,-1.31221367e-02f,-6.50524199e-02f,
+7.28907660e-02f,+6.23083338e-02f,+1.47487655e-01f,-1.19698867e-01f,+5.08762784e-02f,
+2.96964217e-02f,+1.56815067e-01f,-1.15717806e-01f,-1.27496868e-02f,+2.73799282e-02f,
+2.79228926e-01f,+3.82228270e-02f,-1.21571226e-02f,+1.39736086e-01f,+1.41366854e-01f,
+5.76740094e-02f,+1.71621427e-01f,+1.66281313e-01f,+1.79758623e-01f,+4.72892411e-02f,
-1.69193611e-01f,-9.46262404e-02f,+1.03121027e-02f,+1.27090618e-01f,-1.87704340e-02f,
-1.73339881e-02f,+6.04351796e-02f,+5.08179963e-02f,+8.31173435e-02f,-9.66119468e-02f,
+1.67981535e-01f,-6.95068762e-02f,+2.77309623e-02f,+2.38770396e-01f,-2.86728679e-03f,
+8.60758722e-02f,+1.30703434e-01f,+1.22899801e-01f,+1.47481756e-02f,-5.58669008e-02f,
-4.67785262e-02f,+2.05417439e-01f,-2.95835012e-03f,+1.12833031e-01f,+1.58408672e-01f,
+6.54297397e-02f,+6.63064867e-02f,+1.56956181e-01f,+1.18292719e-01f,+5.07110059e-02f,
+3.29951681e-02f,-5.67258336e-02f,+1.51860327e-01f,+4.99596186e-02f,-6.72863200e-02f,
+6.96700020e-03f,+1.23664506e-01f,-1.34284228e-01f,+2.16056049e-01f,+4.79340591e-02f,
+1.06065147e-01f,-8.21391791e-02f,-4.43524718e-02f,-2.89593861e-02f,-1.74788162e-02f,
+7.31963292e-02f,-7.78638944e-02f,-6.26303302e-03f,+5.62162101e-02f,+8.42088014e-02f,
-7.88731053e-02f,-3.21634635e-02f,-5.03320433e-02f,+8.49526227e-02f,+3.70577499e-02f,
+2.78300881e-01f,+1.99273914e-01f,+6.26274794e-02f,+8.22108164e-02f,-6.78473935e-02f,
-4.29198593e-02f,-4.88413051e-02f,+7.24644959e-02f,+3.05944011e-02f,+1.74900934e-01f,
+7.41422176e-02f,+1.19012050e-01f,-1.57758459e-01f,+8.79942924e-02f,+3.85249220e-02f,
+1.80890799e-01f,-7.39620775e-02f,-1.18677005e-01f,+1.05455436e-01f,-5.65105639e-02f,
-7.15731159e-02f,-7.08978474e-02f,-2.00416688e-02f,-5.67791238e-02f,+2.98027247e-01f,
-7.48033673e-02f,+1.54789999e-01f,-7.71130144e-04f,-6.47549704e-02f,+8.22774544e-02f,
-6.55335858e-02f,+1.24283940e-01f,+4.25339006e-02f,+1.14925161e-01f,+1.12771675e-01f,
+6.02655020e-03f,-5.01403995e-02f,+1.61466837e-01f,+1.68246806e-01f,+7.60480911e-02f,
-4.89194784e-03f,+1.18255325e-01f,+3.90390716e-02f,+2.29715053e-02f,+1.81350917e-01f,
+1.14222988e-01f,+3.71352769e-02f,+1.31207049e-01f,+1.03910021e-01f,-4.08118702e-02f,
+2.81108648e-01f,-5.64870983e-03f,-3.66134346e-02f,+1.85732111e-01f,-5.06498441e-02f,
+1.30978990e-02f,+1.51778996e-01f,+3.53956193e-01f,-2.38000266e-02f,-3.03296834e-01f,
-4.96812239e-02f,+2.10960303e-02f,+7.68099427e-02f,+1.26006618e-01f,+3.86877693e-02f,
+2.68612360e-03f,-2.29597799e-02f,+1.63992777e-01f,+1.99817479e-01f,+1.07905701e-01f,
-1.00629382e-01f,-1.08419970e-01f,+6.50815815e-02f,+2.70119101e-01f,-8.77923593e-02f,
-1.28055841e-01f,-4.32184748e-02f,+8.74281377e-02f,+6.24909103e-02f,+1.94918260e-01f,
+1.65781111e-01f,-1.19398534e-01f,-2.07129598e-01f,+1.12358943e-01f,+7.39569888e-02f,
-5.79935983e-02f,+4.52973731e-02f,+3.79709303e-01f,+2.34010443e-01f,+7.85049796e-02f,
+5.30076437e-02f,+2.05133766e-01f,+1.22724146e-01f,+5.71488515e-02f,-2.39193384e-02f,
+1.67779684e-01f,+1.10603377e-01f,-1.05268665e-01f,-9.92153883e-02f,-1.02289416e-01f,
+2.34570131e-01f,+7.78628737e-02f,+1.63552478e-01f,+6.94862306e-02f,-5.60810082e-02f,
+3.27351317e-02f,+3.68493088e-02f,+1.13392556e-02f,+8.20553526e-02f,-1.04132205e-01f,
+1.09106764e-01f,-1.75951645e-02f,-4.75133061e-02f,+1.70057621e-02f,+1.30186647e-01f,
+1.53417692e-01f,+1.75492838e-01f,+5.11967167e-02f,+1.61508061e-02f,+1.55752366e-02f,
-5.02092764e-02f,+4.17962819e-02f,+1.33703396e-01f,-2.36375891e-02f,-7.15678036e-02f,
+1.42472073e-01f,-2.54192740e-01f,+9.48999226e-02f,+1.56342424e-02f,-1.33583084e-01f,
+1.86978370e-01f,+4.96431142e-02f,+4.08418104e-02f,+1.10356487e-01f,+1.97681654e-02f,
-7.13807642e-02f,+1.44680381e-01f,-3.53976600e-02f,+6.15711063e-02f,+6.59823567e-02f,
+2.33743951e-01f,+1.25433251e-01f,+4.95858900e-02f,-1.17525622e-01f,+7.05541447e-02f,
+1.73596993e-01f,+3.31746846e-01f,+1.50256291e-01f,-1.86586827e-02f,-2.30179690e-02f,
+1.39187217e-01f,-1.98358949e-02f,+5.43889124e-03f,+5.40021136e-02f,+3.18274498e-02f,
-1.22472137e-01f,+6.00466356e-02f,+1.51052438e-02f,-3.31592222e-04f,+7.43088722e-02f,
+1.46577492e-01f,+6.51292726e-02f,+1.49838179e-01f,+3.22908349e-02f,-1.15266807e-01f,
+3.16284299e-02f,+4.97782603e-03f,+8.22875723e-02f,+1.83248073e-01f,+1.27184382e-02f,
-8.28529894e-03f,+2.30558701e-02f,+1.74074441e-01f,+3.04972064e-02f,+2.58836448e-01f,
+3.76958214e-02f,+1.20777659e-01f,+1.07460111e-01f,+9.61068925e-03f,+6.65288186e-03f,
+8.44690800e-02f,+3.97747755e-02f,+8.05158913e-03f,-5.05754948e-02f,+5.96608855e-02f,
-5.51509298e-02f,-1.20831002e-02f,+7.07500130e-02f,+1.73455119e-01f,+7.41096884e-02f,
+1.37088075e-01f,+7.81420171e-02f,+1.45153835e-01f,+1.98414639e-01f,+1.42602071e-01f,
-1.53237030e-01f,+1.99465394e-01f,-3.19095352e-03f,+1.77109048e-01f,+2.85620004e-01f,
+7.23986924e-02f,+1.64467003e-02f,+4.87339962e-03f,+4.73883897e-02f,+1.18172817e-01f,
+1.33054361e-01f,+6.72974735e-02f,+7.34030008e-02f,+2.08806023e-02f,+1.15083404e-01f,
+8.90206173e-02f,-2.74425503e-02f,+2.01381981e-01f,-9.23865754e-03f,-7.40227252e-02f,
+9.95781124e-02f,+5.56597114e-02f,+5.58696352e-02f,-2.38075480e-03f,+7.29356930e-02f,
+7.24059120e-02f,-4.09083962e-02f,+7.30539039e-02f,+1.01871558e-01f,+1.26341349e-02f,
-3.05448379e-02f,-4.08574473e-03f,+9.98069346e-02f,+5.93209043e-02f,+2.52723172e-02f,
+3.19519162e-01f,-1.96373522e-01f,-2.84390580e-02f,-4.70447820e-03f,+1.39056787e-01f,
+1.02685250e-01f,-1.20815625e-02f,+1.61366329e-01f,-1.01189233e-01f,+1.94272503e-01f,
+2.21884340e-01f,+1.23865925e-01f,+1.20531172e-01f,-8.16707313e-03f,+7.68465549e-02f,
+2.42821611e-02f,+1.06938392e-01f,+8.91876444e-02f,-3.55429798e-02f,+7.05951750e-02f,
+3.59164961e-02f,+2.40999050e-02f,-2.26694252e-02f,+3.08832284e-02f,+1.21607639e-01f,
+3.10617089e-02f,+2.40808547e-01f,-4.67397124e-02f,+9.14922822e-03f,-4.96557951e-02f,
+2.25637183e-02f,-2.56787334e-02f,+5.55525459e-02f,+6.75161630e-02f,+1.47283331e-01f,
+1.24245085e-01f,+7.00255707e-02f,+5.41720502e-02f,+1.83694422e-01f,+1.58077031e-01f,
+4.75392453e-02f,+1.36432648e-01f,-4.90111671e-02f,+3.67352031e-02f,+2.14107320e-01f,
-7.09059760e-02f,+4.37423587e-02f,+8.49228874e-02f,+1.49344340e-01f,+6.84657320e-02f,
+1.59544721e-01f,+8.79306123e-02f,-2.42160889e-03f,+5.27861714e-02f,+1.81744546e-01f,
-1.20039932e-01f,+1.11214161e-01f,+4.79172431e-02f,-6.07322641e-02f,+9.27235931e-02f,
-1.09185763e-01f,+1.38603315e-01f,-5.36280684e-03f,+2.28584874e-02f,+9.22644436e-02f,
+2.55506605e-01f,+1.56629696e-01f,+1.31191596e-01f,+1.45503998e-01f,+5.70316948e-02f,
+6.48916699e-04f,+1.86882932e-02f,+1.43406078e-01f,+9.21644643e-02f,-3.49816959e-03f,
+1.71013758e-01f,+2.24944040e-01f,+2.67508533e-02f,-1.23823630e-02f,+3.28107588e-02f,
+1.49215847e-01f,+1.52568370e-01f,+6.70128465e-02f,+8.08642432e-02f,-1.40777618e-01f,
+8.43138918e-02f,-3.05649871e-03f,+1.06687732e-01f,+2.71556340e-02f,+9.02251452e-02f,
+5.07109724e-02f,+3.54053900e-02f,+1.96979851e-01f,+5.31302877e-02f,+1.07867956e-01f,
+1.12027988e-01f,+1.96365029e-01f,+3.92259844e-03f,+5.94831333e-02f,+6.92754164e-02f,
+1.53287500e-01f,+4.23967838e-02f,+1.50126398e-01f,+1.36782691e-01f,+5.46168014e-02f,
+2.11066648e-01f,+1.17467949e-02f,+2.26251468e-01f,+8.46083909e-02f,+1.05953880e-01f,
+1.13448881e-01f,-5.07987440e-02f,+3.67406458e-02f,+1.00331314e-01f,+9.80718210e-02f,
+4.81730253e-02f,+1.48733333e-01f,-2.22792197e-02f,+1.19179614e-01f,+3.50024104e-02f,
+1.77593231e-01f,+4.00880873e-02f,-2.32766755e-02f,+9.89934728e-02f,+8.79034773e-02f,
+1.67790428e-01f,+1.04301766e-01f,+1.42681137e-01f,+8.82508233e-02f,+1.40061647e-01f,
+7.90078044e-02f,-2.63225120e-02f,+2.10324422e-01f,-8.20135623e-02f,+1.30978316e-01f,
+2.05845878e-01f,-2.72386894e-02f,+6.58692047e-02f,-5.82751371e-02f,+4.40412350e-02f,
-3.89677472e-02f,+1.02814361e-01f,+8.25044215e-02f,+4.81356941e-02f,-8.05701837e-02f,
+2.31205989e-02f,+4.03570235e-02f,-4.35168147e-02f,-3.86540219e-02f,+1.40698522e-01f,
+2.17678592e-01f,+2.49826878e-01f,-7.15175197e-02f,+1.10351346e-01f,+1.46516830e-01f,
-5.22869229e-02f,+5.75171039e-02f,+2.94905938e-02f,+9.71824601e-02f,+1.31928585e-02f,
+2.05337435e-01f,+2.08812922e-01f,+1.85005814e-02f,+1.18346028e-01f,+8.22701752e-02f,
+5.38625494e-02f,+4.92107086e-02f,-2.35569365e-02f,-1.65514927e-02f,+2.62432426e-01f,
-6.17241152e-02f,+8.38361606e-02f,+5.41742928e-02f,+1.31894246e-01f,-3.19430642e-02f,
+1.77023727e-02f,+5.38320839e-02f,+1.19244620e-01f,+6.78854436e-02f,-1.44395493e-02f,
+6.16522226e-03f,+1.02799356e-01f,+5.32521307e-02f,-4.66549285e-02f,-8.12601894e-02f,
+6.34806156e-02f,+6.51660264e-02f,+5.53984717e-02f,-6.87868297e-02f,+5.42290695e-02f,
-1.19400829e-01f,+1.61645070e-01f,+3.38467695e-02f,+1.58813968e-01f,-1.06019296e-01f,
+1.15917020e-01f,+6.96540400e-02f,-6.70641437e-02f,-3.18589881e-02f,+3.89105491e-02f,
+1.39293104e-01f,+1.89635426e-01f,-8.82739648e-02f,+7.48081878e-02f,+1.54706687e-01f,
-3.21192220e-02f,+1.60510257e-01f,+1.23629406e-01f,-1.78278715e-03f,-1.82618406e-02f,
+1.49289116e-01f,-1.14646830e-01f,+1.15716513e-02f,+7.00908378e-02f,-1.33994082e-02f,
+7.05072731e-02f,+1.78563282e-01f,+3.83175048e-03f,+1.41707718e-01f,+2.12291062e-01f,
+1.79205269e-01f,+2.95199960e-01f,+6.93684295e-02f,+1.72940806e-01f,-2.18192816e-01f,
+2.55600754e-02f,+1.05704427e-01f,+8.73784646e-02f,+8.99474323e-02f,+9.44425091e-02f,
-4.44424897e-03f,+2.24717945e-01f,-5.74103259e-02f,+1.04929842e-01f,+3.06782834e-02f,
+1.25441626e-01f,+4.00981158e-02f,+2.49963969e-01f,+1.68378532e-01f,+1.05138958e-01f,
-6.06424399e-02f,+2.00112805e-01f,+1.95961632e-02f,+6.11367226e-02f,+1.12860017e-01f,
+1.04272947e-01f,+3.52859497e-02f,+2.38064289e-01f,+2.08951741e-01f,+1.03356190e-01f,
+8.77755582e-02f,-1.19759487e-02f,+1.85791567e-01f,+6.94754422e-02f,+1.19965598e-01f,
-1.81338608e-01f,+2.85282165e-01f,-3.86522822e-02f,+7.80772343e-02f,-4.67752246e-03f,
+3.46705727e-02f,+1.57141611e-01f,+8.37518051e-02f,+1.02307331e-02f,+9.28323641e-02f,
+1.08688332e-01f,+1.59729853e-01f,-1.22070514e-01f,+1.77412510e-01f,-5.79537332e-01f,
+1.69283450e-01f,-1.16522154e-02f,+1.67335629e-01f,-1.59154192e-01f,-4.88288924e-02f,
+7.97358602e-02f,-1.49505630e-01f,+1.44418433e-01f,+1.55420810e-01f,+9.51503813e-02f,
-6.12196513e-02f,+2.37727836e-01f,-2.64348015e-02f,+3.92462127e-02f,+1.51645809e-01f,
-4.41573374e-03f,+1.10945940e-01f,+3.36594254e-01f,+2.04627976e-01f,+2.36582994e-01f,
+1.98575705e-01f,+6.32528737e-02f,-1.38548777e-01f,+6.48621609e-03f,-7.01034814e-02f,
+3.84760797e-02f,+7.85343125e-02f,-2.09230810e-01f,-9.50049236e-02f,-6.65343851e-02f,
-2.13359922e-01f,-6.37879595e-02f,+8.27467814e-02f,+1.40581327e-02f,-9.20483544e-02f,
+1.55148342e-01f,-1.05499506e-01f,-3.88718359e-02f,+2.00957190e-02f,-1.37444556e-01f,
+1.08896799e-01f,-6.39100978e-03f,+2.53277749e-01f,+1.18540868e-01f,+1.41800214e-02f,
-1.62174523e-01f,+2.23160475e-01f,-7.97187984e-02f,-1.74068753e-02f,+2.24838987e-01f,
-3.40309031e-02f,+1.40521020e-01f,+3.72185171e-01f,-1.28371054e-02f,+2.95848161e-01f,
-1.54525131e-01f,+9.02050659e-02f,+3.25145662e-01f,+2.47345850e-01f,-2.76170075e-01f,
-5.69642186e-02f,+1.39439240e-01f,-8.78234059e-02f,+1.02956489e-01f,+5.87054007e-02f,
-2.26212647e-02f,+6.77862018e-02f,-2.87854001e-02f,-2.35393941e-01f,-4.06685984e-03f,
+1.31327108e-01f,+8.04612413e-02f,-7.54352808e-02f,+1.38713375e-01f,-4.03630398e-02f,
+6.03043549e-02f,+1.99065059e-01f,-1.00269780e-01f,-9.81402621e-02f,+6.69477955e-02f,
+5.83828911e-02f,-3.95025797e-02f,-1.61032766e-01f,+1.08786285e-01f,+2.01665595e-01f,
-2.16674507e-02f,+4.37040851e-02f,+1.20744854e-02f,-2.55875230e-01f,-3.03985775e-02f,
+1.85658097e-01f,-8.79857969e-03f,+8.50568116e-02f,+1.67759091e-01f,-1.01472422e-01f,
+7.35869333e-02f,+2.55235806e-02f,+1.29190356e-01f,-3.94693017e-02f,+9.55089852e-02f,
-6.31467327e-02f,+1.18833818e-01f,+3.11063796e-01f,+2.56903648e-01f,-3.27565568e-03f,
+8.30203742e-02f,+1.42889887e-01f,+6.07081167e-02f,+8.11210498e-02f,+7.13278577e-02f,
+1.73887193e-01f,+8.10153484e-02f,+2.20310539e-01f,-1.04583986e-01f,-5.13268262e-02f,
-5.98095246e-02f,+3.62231255e-01f,+2.43269026e-01f,+2.65425723e-02f,+1.73798889e-01f,
+9.12257358e-02f,+1.52335493e-02f,+2.52127886e-01f,+2.29816288e-02f,+1.12396836e-01f,
+1.50985509e-01f,+5.85405864e-02f,-1.55057520e-01f,-9.01196301e-02f,+5.71648814e-02f,
-3.47278751e-02f,+6.32607266e-02f,-1.12001203e-01f,+1.51480556e-01f,-1.52694941e-01f,
+1.32411897e-01f,-1.25128657e-01f,-1.15830591e-02f,+9.34508219e-02f,+1.95418507e-01f,
-1.28422286e-02f,+5.21562845e-02f,+4.98762866e-03f,-1.28583014e-01f,+3.25610898e-02f,
+1.83703050e-01f,+1.37069911e-01f,-4.16157842e-02f,-1.74695790e-01f,+3.08281798e-02f,
+1.17264770e-01f,+2.57957399e-01f,+2.35275105e-01f,-3.16185914e-02f,+1.23616949e-01f,
-6.15924820e-02f,+5.36429808e-02f,+9.05197337e-02f,+4.54677820e-01f,+1.55521199e-01f,
+1.27478018e-01f,-2.58603077e-02f,-5.75553589e-02f,+2.69372463e-01f,+7.32986256e-02f,
+3.18087228e-02f,+7.57744908e-02f,-1.34052590e-01f,-1.11969493e-01f,-4.11825962e-02f,
+1.15933478e-01f,+7.59831369e-02f,+2.00232282e-01f,+8.11163411e-02f,-7.21139908e-02f,
+1.10551961e-01f,+8.96982774e-02f,+1.60341606e-01f,-3.74583006e-02f,+2.44147349e-02f,
+4.34677079e-02f,+1.03145458e-01f,+2.30863765e-01f,+2.31262922e-01f,+5.34149855e-02f,
+8.14019591e-02f,+4.21716459e-02f,-8.26762989e-02f,+1.56063780e-01f,+9.75993425e-02f,
+7.19185472e-02f,+3.17532346e-02f,+3.39192189e-02f,+1.80123094e-02f,+7.91376010e-02f,
-8.03243518e-02f,+5.91796339e-02f,-5.34639433e-02f,+2.33464465e-01f,-4.42839190e-02f,
+8.02244022e-02f,+6.43687230e-03f,+1.51932031e-01f,+2.72856891e-01f,+4.70501706e-02f,
+1.31799325e-01f,+6.26788568e-03f,+1.40118241e-01f,-2.53551528e-02f,-4.49510384e-03f,
-5.59395067e-02f,+3.70997302e-02f,-2.36550979e-02f,+1.63771331e-01f,+1.36100769e-01f,
+1.40039012e-01f,+1.18126079e-01f,-1.96439289e-02f,+2.24643707e-01f,-9.22265127e-02f,
+3.56040657e-01f,+2.24671587e-01f,-3.57903950e-02f,-7.44183511e-02f,-6.77499697e-02f,
+1.38220256e-02f,+6.74292818e-02f,-2.92089611e-01f,+1.17409520e-01f,+3.25708650e-02f,
-1.63227946e-01f,+1.27620921e-01f,-8.25875551e-02f,-4.33025584e-02f,+1.60070047e-01f,
+2.38757864e-01f,+2.24770941e-02f,-8.72920975e-02f,-2.80972496e-02f,+1.13874257e-01f,
-3.77946757e-02f,+1.11226924e-01f,+2.02836499e-01f,+5.47703505e-02f,-1.01482160e-01f,
+1.09796666e-01f,-7.57687911e-02f,+3.44831884e-01f,-2.62408443e-02f,-1.52063429e-01f,
-7.85777569e-02f,+1.46083981e-01f,+2.73287557e-02f,+1.43920466e-01f,-7.34364539e-02f,
-7.78331980e-02f,+2.74835587e-01f,-5.92973493e-02f,-5.89648858e-02f,+3.07062175e-02f,
+1.01837598e-01f,+9.95937586e-02f,+7.45570567e-03f,-3.54314260e-02f,-2.98777018e-02f,
+2.18497142e-02f,+4.39190306e-02f,-1.58820480e-01f,-2.31354982e-02f,+1.32439777e-01f,
+1.92634061e-01f,+3.83168668e-03f,+2.07609795e-02f,-1.52096912e-01f,-9.52523127e-02f,
+2.17812851e-01f,-9.34311152e-02f,-8.91476050e-02f,-1.26292100e-02f,+5.34091070e-02f,
-9.26228315e-02f,-3.69361863e-02f,+2.40339264e-01f,+5.37928119e-02f,-2.78825294e-02f,
+1.18623354e-01f,+8.59816596e-02f,+9.55512896e-02f,-5.28627671e-02f,+2.22322643e-01f,
+4.22484837e-02f,-7.19734505e-02f,+8.36750567e-02f,-1.70119535e-02f,+1.17232978e-01f,
+2.32306257e-01f,-4.24285308e-02f,+8.67001638e-02f,+8.57137814e-02f,+3.02838050e-02f,
-3.53813350e-01f,-8.45286995e-02f,+2.95086086e-01f,-1.65908914e-02f,+8.17181170e-02f,
+2.23159745e-01f,-1.20756328e-01f,-1.25120245e-02f,+1.29830334e-02f,-2.14303866e-01f,
-8.51422176e-02f,+3.18009295e-02f,+7.05879740e-03f,+1.40149176e-01f,+1.13302298e-01f,
-9.69915166e-02f,+1.32975012e-01f,-6.55090362e-02f,-9.85720456e-02f,-6.81279786e-03f,
+4.50199582e-02f,+3.05429846e-01f,+1.54529050e-01f,-2.61427820e-01f,+1.21419199e-01f,
-4.03419882e-02f,+6.98279813e-02f,+1.24366969e-01f,-2.13270828e-01f,-3.09152026e-02f,
+6.32856339e-02f,+4.60148007e-02f,+7.78059438e-02f,+1.26129583e-01f,+4.63196747e-02f,
+1.58188179e-01f,-1.86733857e-01f,+7.71881342e-02f,+2.41931871e-01f,+2.80301669e-03f,
-1.58078726e-02f,+6.51559383e-02f,-6.60699680e-02f,-2.12875873e-01f,+1.39714137e-01f,
+3.50557175e-03f,+2.61097420e-02f,-1.47886023e-01f,-6.13591149e-02f,-2.48735100e-02f,
+1.13563620e-01f,+8.34731832e-02f,-1.21506497e-01f,+6.91306964e-02f,+7.01780319e-02f,
+1.43280715e-01f,+1.01799183e-01f,-8.02734960e-03f,+9.58469659e-02f,+2.18312666e-01f,
+2.92396955e-02f,+9.48867649e-02f,-8.13097805e-02f,-2.43585572e-01f,+5.49785607e-02f,
+1.82659090e-01f,+3.79707485e-01f,+1.10016212e-01f,+7.54466876e-02f,-1.40426904e-01f,
+2.01743066e-01f,+2.09018111e-01f,-2.15099622e-02f,-1.84068859e-01f,+7.86275864e-02f,
+1.59069762e-01f,-1.05236784e-01f,-6.40505180e-03f,+2.53788829e-01f,+1.87021166e-01f,
+1.77678436e-01f,+4.95996356e-01f,+2.28889771e-02f,+3.09824586e-01f,+2.54657775e-01f,
-3.28390040e-02f,+3.30111906e-02f,+5.95347174e-02f,+2.31852353e-01f,+2.50878818e-02f,
+2.27703437e-01f,+2.68332046e-02f,+2.17801705e-02f,+7.48539492e-02f,+6.50878325e-02f,
+6.66246638e-02f,-6.63765147e-02f,+6.28707260e-02f,-6.63786381e-02f,+2.58859068e-01f,
-1.52043536e-01f,+6.55890480e-02f,+1.49382174e-01f,-4.72005196e-02f,-2.75743380e-02f,
-1.39552400e-01f,+1.32488767e-02f,+1.45403832e-01f,-2.68240343e-03f,-1.04958989e-01f,
+1.85258478e-01f,+2.57913411e-01f,-1.71667054e-01f,+1.74278572e-01f,+8.14414695e-02f,
+3.72672044e-02f,-3.59291993e-02f,-8.69769081e-02f,-3.27935480e-02f,-2.47122031e-02f,
-2.22690683e-03f,-7.62922764e-02f,+4.97844033e-02f,-3.83224487e-02f,+4.35667159e-03f,
-1.32918628e-02f,+2.21478552e-01f,+2.33713090e-01f,-9.66962501e-02f,+5.01956008e-02f,
+1.02989659e-01f,+2.24624634e-01f,+3.16262037e-01f,+9.74412188e-02f,-1.03258438e-01f,
+1.00125335e-01f,+1.82844207e-01f,-2.88944338e-02f,+1.94609910e-01f,+1.76934302e-02f,
-2.77281135e-01f,-4.68951557e-03f,+1.34498432e-01f,+1.58213824e-02f,+1.39525225e-02f,
+1.15472950e-01f,-2.97541898e-02f,+1.49964198e-01f,-1.23154037e-01f,+7.03462586e-03f,
+5.82427196e-02f,+1.54769989e-02f,+1.01629406e-01f,+5.98067194e-02f,+1.01753585e-01f,
+2.60192662e-01f,+1.95844352e-01f,+1.40154615e-01f,+5.65164909e-02f,-1.20254301e-01f,
+1.05451467e-02f,-8.19964260e-02f,+3.51151407e-01f,+2.58390475e-02f,-1.19054615e-01f,
-3.16415876e-02f,+7.70620480e-02f,+6.26355857e-02f,-4.33554277e-02f,-1.35541335e-01f,
-6.79990975e-03f,+8.88858363e-02f,+1.54394865e-01f,+4.97568220e-01f,+1.08816713e-01f,
-1.67726338e-01f,+9.69699547e-02f,+6.57109544e-02f,+2.43462808e-03f,-1.13750435e-01f,
+4.29843105e-02f,+1.30161330e-01f,+2.96486139e-01f,+1.27733618e-01f,+7.72071183e-02f,
+1.40413508e-01f,+1.41074201e-02f,-8.78739133e-02f,-7.60995299e-02f,+8.05040002e-02f,
-5.87563030e-02f,-1.10459188e-02f,+1.57806888e-01f,+5.61143318e-03f,-2.81160474e-02f,
-1.36478290e-01f,+5.41772656e-02f,+1.27658933e-01f,+6.38521463e-02f,+6.63737655e-02f,
-8.75932649e-02f,+1.09985262e-01f,-1.37263536e-02f,+3.50624770e-02f,+1.50781840e-01f,
+3.95262577e-02f,-4.54950072e-02f,+9.69609618e-03f,+6.20342940e-02f,-1.53382104e-02f,
-2.62411702e-02f,+8.53494406e-02f,+8.99808779e-02f,-1.75895840e-01f,-1.11985795e-01f,
-4.52054776e-02f,+1.87789023e-01f,+5.47942519e-03f,-5.42982779e-02f,+1.87114343e-01f,
-2.20348164e-02f,+1.75197735e-01f,+9.01716426e-02f,-7.63286501e-02f,+1.32484436e-01f,
+7.38707483e-02f,-1.36508435e-01f,+1.73645793e-03f,+3.23851369e-02f,+2.01779529e-02f,
-1.36539191e-02f,-8.65505710e-02f,+3.03338636e-02f,+2.21805833e-02f,+3.46075334e-02f,
+1.79237932e-01f,+4.04546857e-02f,-2.60340512e-01f,-1.07486464e-01f,-8.67657363e-02f,
+4.21352647e-02f,-9.44875106e-02f,+1.65373102e-01f,-8.25046152e-02f,+4.33693111e-01f,
+1.71872750e-01f,+3.12519446e-02f,+4.51523587e-02f,+1.53472081e-01f,+1.36609524e-01f,
+5.96502870e-02f,-2.17534512e-01f,+4.28919971e-01f,+5.67505956e-02f,+4.84826155e-02f,
+4.01834816e-01f,+2.19305515e-01f,-9.69161317e-02f,+1.55350287e-02f,+3.02418292e-01f,
+1.10885426e-01f,-2.67089009e-01f,+7.42096379e-02f,+2.05541342e-01f,+1.06586084e-01f,
+7.95756802e-02f,-3.55421845e-03f,+2.69356012e-01f,-6.55651465e-02f,+6.74759895e-02f,
-1.85724542e-01f,-1.60504505e-02f,+3.94257903e-01f,+5.56230508e-02f,+2.08256543e-01f,
-2.25217387e-01f,+1.26999497e-01f,-1.61825225e-01f,+1.09658390e-01f,+6.76805750e-02f,
+1.80495128e-01f,-1.08742610e-01f,+6.15273230e-02f,+3.59534398e-02f,+2.09583595e-01f,
+8.14207643e-02f,+1.12855390e-01f,-5.12756817e-02f,+1.83752090e-01f,+5.80266789e-02f,
-6.23085126e-02f,+6.38622120e-02f,+9.07384828e-02f,+1.12220690e-01f,+2.77631909e-01f,
+9.33839902e-02f,+7.30552003e-02f,+4.94674183e-02f,+2.55776700e-02f,+2.58745909e-01f,
+4.06902097e-03f,+9.28023085e-02f,-1.16690975e-02f,+8.84215236e-02f,-4.43555973e-02f,
+1.50124833e-01f,+1.71879068e-01f,+1.27767935e-01f,+8.50877911e-02f,+7.63741732e-02f,
+8.28478113e-02f,-3.00530083e-02f,+1.70679495e-01f,-6.15348220e-02f,+4.47081216e-02f,
+3.71073224e-02f,+9.63764265e-02f,+3.46695930e-01f,+2.18295097e-01f,+4.88146627e-03f,
+1.05192907e-01f,+8.68835778e-04f,+3.11771668e-02f,-9.29636322e-03f,-4.07784462e-01f,
-3.83189023e-02f,+9.75108147e-02f,-1.19883902e-02f,+9.25609618e-02f,+1.82505891e-01f,
+1.17241688e-01f,+1.37509070e-02f,+1.06521312e-03f,-5.02090808e-03f,+2.56059080e-01f,
+3.01918783e-03f,+1.18975416e-01f,-1.44794255e-01f,+8.52307379e-02f,+8.73683617e-02f,
+6.33041048e-03f,+1.53213918e-01f,+1.56497970e-01f,+1.06428519e-01f,+1.31549329e-01f,
+1.00578517e-01f,-6.35279790e-02f,-6.63912818e-02f,-4.00890000e-02f,+1.92346554e-02f,
+1.08796179e-01f,+3.14451247e-01f,+4.01016138e-02f,+1.21223237e-02f,+3.38412702e-01f,
+1.20670453e-01f,+1.81265995e-01f,+1.06013492e-01f,-9.12163034e-02f,+2.97068149e-01f,
-1.17592603e-01f,-4.86539304e-02f,-8.75306278e-02f,+2.22652644e-01f,+1.97160598e-02f,
+2.38040805e-01f,+4.78935353e-02f,+3.17033678e-01f,+1.65876567e-01f,+1.07268088e-01f,
+4.36335318e-02f,-1.35185957e-01f,+1.68456316e-01f,-1.56567115e-02f,+7.95917436e-02f,
+1.19490311e-01f,+2.89245695e-01f,+7.42820129e-02f,+2.90609449e-01f,-1.19137183e-01f,
+9.32528172e-03f,+1.11795068e-02f,+6.85811490e-02f,+1.03070058e-01f,+1.01623073e-01f,
+2.12337710e-02f,+1.80243757e-02f,+1.66267782e-01f,-1.25336453e-01f,-1.64455652e-01f,
+1.79341242e-01f,+1.14095367e-01f,+7.83230290e-02f,-1.03924252e-01f,-1.50666490e-01f,
+6.71771765e-02f,+3.48385498e-02f,+2.61006474e-01f,+3.35373804e-02f,+3.61800417e-02f,
+4.79801223e-02f,-8.14530477e-02f,+1.66992754e-01f,-1.12397321e-01f,+1.49118081e-01f,
+1.18087679e-01f,+2.88250685e-01f,-2.49482170e-02f,+1.71271250e-01f,+2.47789383e-01f,
+2.04131901e-01f,+8.64140913e-02f,-1.35156577e-02f,-8.10715482e-02f,+9.58991423e-02f,
+1.23797864e-01f,-1.09669380e-01f,-1.17066674e-01f,+3.63966003e-02f,+4.28350940e-02f,
+1.49298877e-01f,-2.35259801e-01f,+1.95513099e-01f,+2.28060395e-01f,+2.28663608e-01f,
-5.45583144e-02f,+1.90329984e-01f,+3.95048819e-02f,+7.25930259e-02f,-6.64321631e-02f,
-3.31834316e-01f,+6.48387820e-02f,+2.44775712e-01f,+2.30855364e-02f,+9.94525179e-02f,
-1.02362933e-03f,-9.78243947e-02f,+6.14738129e-02f,+6.52910322e-02f,+5.05465083e-02f,
+3.44566852e-02f,-3.63727547e-02f,+1.40685350e-01f,+6.14238493e-02f,+7.22677112e-02f,
+5.32152727e-02f,+4.72435430e-02f,+8.35355148e-02f,-4.14719172e-02f,+1.62448153e-01f,
+9.88668799e-02f,+3.45129222e-02f,+1.98485538e-01f,+1.39907345e-01f,-1.13642380e-01f,
-4.73689139e-02f,-1.18693247e-01f,+6.80908784e-02f,-6.57032356e-02f,+9.74719529e-04f,
-1.05131380e-01f,+4.14310507e-02f,+1.19754672e-01f,-2.29297817e-01f,+2.51541346e-01f,
+5.67166694e-02f,+9.75753460e-03f,+3.30617040e-01f,-1.62412286e-01f,-2.99301147e-02f,
+2.28824228e-01f,-3.98670770e-02f,-6.70422763e-02f,+1.71344891e-01f,+7.89769590e-02f,
-1.42606378e-01f,+2.19701976e-02f,+1.64676651e-01f,+8.54676068e-02f,+8.72744154e-03f,
+1.66385904e-01f,-5.94456606e-02f,+2.04736784e-01f,+2.75405705e-01f,+5.39530814e-02f,
+2.12479398e-01f,+3.75286162e-01f,+9.80818942e-02f,+2.64881924e-02f,+1.86895400e-01f,
+3.15530598e-01f,-1.03573039e-01f,-3.01221833e-02f,+1.48604393e-01f,+1.40111983e-01f,
-4.35647219e-02f,+2.71720052e-01f,-2.10748136e-01f,+1.09352790e-01f,+1.53511362e-02f,
-4.54556122e-02f,+1.24951653e-01f,+2.14342743e-01f,+2.18615890e-01f,-8.55960324e-02f,
-9.32499915e-02f,+1.45017684e-01f,-4.53588739e-02f,-9.73008424e-02f,+9.89771038e-02f,
+1.80753440e-01f,+1.60243094e-01f,+7.48319626e-02f,-1.50642795e-02f,+1.22283466e-01f,
+8.83555934e-02f,-8.64617750e-02f,-2.72794455e-01f,+2.68061012e-01f,+1.53702959e-01f,
+1.17871404e-01f,+2.01250747e-01f,+9.68804210e-02f,+1.53442159e-01f,+4.21592779e-02f,
-2.48746518e-02f,-1.39655069e-01f,-9.31461677e-02f,-2.11150736e-01f,+5.55373617e-02f,
+1.00997448e-01f,-1.12361703e-02f,+1.63158610e-01f,+1.90749153e-01f,+2.02077460e-02f,
-6.12590648e-02f,-1.00900285e-01f,+7.04308823e-02f,+2.43296027e-01f,+1.88168753e-02f,
-7.99200032e-03f,+2.07912661e-02f,-5.34954406e-02f,-1.02011427e-01f,+1.51758373e-01f,
-1.36961952e-01f,+1.91657469e-01f,+3.65685038e-02f,+7.21314922e-02f,-3.20089422e-02f,
+1.42573416e-01f,+1.35736212e-01f,+1.55567795e-01f,-2.12890040e-02f,+3.87624325e-03f,
-4.46672104e-02f,+1.72982633e-01f,-3.68521139e-02f,-1.03675619e-01f,+1.03440948e-01f,
-2.45637566e-01f,+2.13916093e-01f,-6.53063296e-04f,+3.09792280e-01f,+8.04031268e-02f,
-2.82623861e-02f,-2.35604167e-01f,+1.58784449e-01f,+6.57654600e-04f,+2.82698691e-01f,
-1.24548585e-03f,+6.55779094e-02f,-5.93374036e-02f,+1.70383573e-01f,+9.34940353e-02f,
+1.13955125e-01f,+5.78665674e-01f,+5.98126054e-02f,-2.85564121e-02f,-3.01583484e-03f,
+6.19197972e-02f,+7.35098049e-02f,+7.93190673e-02f,+7.31793463e-01f,+1.11954182e-01f,
+2.21617833e-01f,+6.16214089e-02f,-1.85296521e-01f,-2.35438272e-01f,+4.81560603e-02f,
+3.67446057e-02f,-5.86589985e-02f,+1.46535197e-02f,-1.26933083e-02f,+2.13470936e-01f,
+1.32922560e-01f,+2.41796449e-02f,+8.92684907e-02f,-1.82482734e-01f,+4.21854034e-02f,
+8.70628748e-03f,+2.46155694e-01f,-5.31356968e-02f,+7.06118196e-02f,-3.55243348e-02f,
+1.79268792e-01f,+2.91868560e-02f,-9.96178016e-02f,+1.79893419e-01f,+2.44201705e-01f,
+1.16305025e-02f,+2.03381866e-01f,+2.31328934e-01f,-1.10468939e-01f,-2.18903631e-01f,
+6.00520037e-02f,+1.58011727e-02f,+2.10403562e-01f,+2.01231211e-01f,+1.08184673e-01f,
+6.48933044e-03f,+2.11178318e-01f,+2.45143741e-01f,+1.39300495e-01f,+8.59965086e-02f,
+1.49558246e-01f,-1.01386733e-01f,+5.77447973e-02f,+1.46082133e-01f,-6.14466444e-02f,
+6.32899851e-02f,+2.71342229e-02f,+1.05418079e-01f,+2.26356089e-01f,+7.04731941e-02f,
+4.84119542e-02f,+6.07578494e-02f,+2.53449410e-01f,-2.02068344e-01f,-1.11023299e-02f,
+5.53151295e-02f,+8.46390426e-02f,+5.96822165e-02f,+2.07283318e-01f,+2.35922486e-02f,
+2.19084159e-01f,+1.45708382e-01f,+1.56325802e-01f,-7.50523955e-02f,-2.97090173e-01f,
+2.84451425e-01f,+1.16765253e-01f,+3.14563513e-02f,-8.25329274e-02f,+5.03604067e-03f,
+5.38826548e-02f,+8.65587890e-02f,-1.18931994e-01f,-4.38470468e-02f,-2.92883953e-03f,
+4.89365272e-02f,+1.61689907e-01f,+2.99977278e-03f,+7.73270205e-02f,-1.61620975e-01f,
-4.88675237e-02f,-4.59462889e-02f,+1.25143424e-01f,+7.34083727e-02f,+3.43513936e-01f,
-2.19030693e-01f,+1.10493153e-01f,+1.76527143e-01f,+5.47438599e-02f,+1.19882315e-01f,
+8.75192285e-02f,+2.77498037e-01f,+9.96453241e-02f,+1.70572907e-01f,-1.91798415e-02f,
-7.61792110e-03f,+1.78915799e-01f,-8.54093581e-02f,+4.37630080e-02f,+2.40782928e-02f,
+1.53015286e-01f,+4.08934951e-02f,-3.16624194e-02f,+5.99859022e-02f,+2.97800899e-01f,
-3.51523548e-01f,-7.45140389e-02f,-9.05315876e-02f,+5.34203649e-02f,-1.65611699e-01f,
-3.66883501e-02f,+3.38041522e-02f,-2.95349061e-02f,+1.60775378e-01f,-1.72860101e-01f,
-5.23608215e-02f,+1.95294216e-01f,-3.84176254e-01f,+1.83949322e-01f,-2.14016363e-02f,
+5.93740121e-02f,+6.69318363e-02f,+1.27224833e-01f,+5.72944731e-02f,+1.47779599e-01f,
+2.38075465e-01f,+6.64451942e-02f,+1.63930923e-01f,+3.49349789e-02f,+3.72098178e-01f,
+1.13320716e-01f,+1.55452435e-04f,+7.31536373e-02f,+2.00284958e-01f,+2.08677202e-01f,
+3.43264788e-02f,-9.83974189e-02f,+2.72549242e-01f,-4.57910709e-02f,+9.53605250e-02f,
+4.39513326e-02f,+7.43367597e-02f,+2.12005064e-01f,-1.80829749e-01f,+5.53539768e-02f,
-9.69446376e-02f,+4.93105920e-03f,+1.90090761e-01f,-4.58221324e-02f,+1.01617180e-01f,
+3.23692448e-02f,+5.83627373e-02f,+1.21292822e-01f,+2.60911807e-02f,+8.26288983e-02f,
+7.51789510e-02f,+7.63828307e-02f,-2.99219799e-04f,-9.37662367e-03f,+1.18055426e-01f,
-7.11461082e-02f,+9.89631638e-02f,+7.32783228e-02f,+3.91717143e-02f,-7.39249662e-02f,
-8.85102823e-02f,+2.82427371e-02f,-7.43604228e-02f,+1.26262903e-01f,-8.11754540e-02f,
+3.09516370e-01f,+9.20914114e-02f,-6.98014349e-02f,-6.95315525e-02f,-8.85186568e-02f,
+2.61408865e-01f,+2.42135778e-01f,+4.28939462e-02f,+4.93232086e-02f,+7.72588998e-02f,
+4.11364079e-01f,-6.11097217e-02f,+1.04547806e-01f,+1.90908611e-01f,+1.58992380e-01f,
+1.92553159e-02f,-1.06603596e-02f,-4.88591678e-02f,-2.62381998e-03f,+2.61051524e-02f,
+2.33452231e-01f,+9.42563340e-02f,+1.77593365e-01f,-7.12282360e-02f,+6.11105822e-02f,
+2.48058051e-01f,+1.67915568e-01f,+3.13606635e-02f,+1.70672283e-01f,+3.45377624e-02f,
-7.40357786e-02f,+1.53148606e-01f,+6.27115592e-02f,-8.24722275e-02f,+3.73841785e-02f,
-2.97494736e-02f,+1.38019286e-02f,+1.23999715e-02f,+1.19451262e-01f,+3.26215513e-02f,
+1.80806652e-01f,+4.75198738e-02f,-3.64165008e-02f,-1.28205821e-01f,+3.00914317e-01f,
+2.01721996e-01f,+1.12262055e-01f,-7.77504295e-02f,+2.39532907e-02f,+9.02183801e-02f,
+1.11826360e-01f,+2.07978979e-01f,+9.63553190e-02f,+4.91806772e-03f,-1.04296014e-01f,
+9.60137099e-02f,+5.22956997e-02f,-7.39527196e-02f,+1.50523586e-02f,+2.28274167e-02f,
+1.54672816e-01f,+6.84211999e-02f,-1.05901755e-01f,-1.89086720e-02f,-3.48524819e-03f,
+4.59184758e-02f,+3.89574468e-01f,+2.45102450e-01f,+7.02622905e-02f,+1.03344277e-01f,
-1.36313826e-01f,+8.92376378e-02f,-1.93478927e-01f,+1.34255037e-01f,+2.24692702e-01f,
-1.38205186e-01f,-6.41521998e-03f,+3.69297899e-02f,+1.55610755e-01f,+1.49155259e-01f,
+2.74953246e-01f,+9.78672281e-02f,+7.63080344e-02f,-1.45400241e-01f,+5.42145148e-02f,
+3.36190090e-02f,+1.19018359e-02f,-5.03907688e-02f,-2.65082508e-01f,-1.44463815e-02f,
+8.70968476e-02f,+1.23467222e-01f,+2.13657413e-02f,+6.23891270e-03f,-1.92290675e-02f,
+1.24132998e-01f,-6.95219403e-03f,+1.33297533e-01f,+2.21588939e-01f,+1.93427708e-02f,
+2.84328043e-01f,-1.27259955e-01f,+1.03610214e-02f,-7.68921822e-02f,+8.19405839e-02f,
-2.59627588e-02f,+8.89578555e-03f,+3.50708328e-02f,-5.36258752e-03f,-1.25130609e-01f,
+4.01642593e-03f,-1.30923584e-01f,+4.95954454e-02f,+3.31589989e-02f,+1.69898838e-01f,
+7.71267489e-02f,+2.20094547e-01f,+1.46906197e-01f,+5.78612015e-02f,-9.81164128e-02f,
+1.24561504e-01f,+1.86854661e-01f,+1.85956866e-01f,-5.11144511e-02f,-2.58950412e-01f,
-3.45833153e-02f,-4.85609323e-02f,+1.00738168e-01f,+1.43980742e-01f,-4.38623615e-02f,
-5.12933098e-02f,+3.27006467e-02f,+5.85310236e-02f,+1.61209181e-01f,+1.37754409e-02f,
-9.08266380e-02f,+5.04026487e-02f,+1.22505628e-01f,+4.43932973e-02f,-1.12792179e-02f,
+2.44856730e-01f,+2.25014985e-01f,-3.80303711e-02f,+5.09035885e-02f,+1.86298564e-01f,
+2.36746579e-01f,+1.87373728e-01f,+1.22316249e-01f,-1.53340935e-03f,-1.80386201e-01f,
-2.52129287e-01f,+8.69596004e-02f,+3.78657818e-01f,-5.50787672e-02f,-2.30674446e-01f,
-1.45427197e-01f,+1.48591682e-01f,+1.00126527e-01f,+1.31327286e-01f,-7.63356360e-03f,
-1.51373092e-02f,+2.37580691e-03f,+4.36767228e-02f,-4.45134491e-02f,-3.34884644e-01f,
+5.47883630e-01f,-2.21656896e-02f,-3.55141386e-02f,+6.62693828e-02f,+6.52601123e-02f,
-1.70065358e-01f,+2.28729650e-01f,+1.20937780e-01f,-1.75992735e-02f,+1.33883655e-01f,
+6.78017437e-02f,+1.21385895e-01f,+1.86099842e-01f,-7.03397691e-02f,+1.35158986e-01f,
+7.62515292e-02f,+2.07386494e-01f,-3.25474367e-02f,-1.76289722e-01f,+3.05408742e-02f,
+9.83190909e-03f,-2.74409838e-02f,+1.25740647e-01f,+1.23010188e-01f,+1.04659043e-01f,
-1.72942787e-01f,-7.79063031e-02f,+3.23145725e-02f,+4.79111820e-02f,+5.84637821e-02f,
+3.37658137e-01f,-1.20606869e-01f,+5.26167937e-02f,+8.67650211e-02f,+2.74831474e-01f,
-3.63329463e-02f,-6.56468794e-02f,+7.73733109e-02f,+1.71144798e-01f,+1.27372844e-02f,
+1.83070824e-01f,+1.19053401e-01f,-8.84331204e-03f,+7.70880729e-02f,-1.48570374e-01f,
+2.12408513e-01f,+2.63249397e-01f,+9.97885317e-02f,-1.61192521e-01f,+2.96064794e-01f,
+1.38117939e-01f,+1.36133537e-01f,+1.08295292e-01f,-3.13956067e-02f,+2.10886359e-01f,
+2.72348732e-01f,+1.70776755e-01f,+7.56460242e-03f,+1.04732491e-01f,+6.55556237e-03f,
-1.19176833e-02f,+3.87910940e-02f,+5.23344725e-02f,+2.15365976e-01f,+1.05147742e-01f,
+7.03388453e-02f,+5.84301986e-02f,+3.84517796e-02f,+7.49374554e-02f,-2.47994140e-02f,
+6.83379620e-02f,-7.62091950e-02f,+5.31553328e-02f,-5.42771108e-02f,-7.08056092e-02f,
+1.00228168e-01f,+1.40062019e-01f,+3.51969749e-02f,-7.91308377e-03f,+1.68386415e-01f,
+4.19617072e-02f,+2.84431800e-02f,+1.26609709e-02f,+4.24844548e-02f,-6.57546446e-02f,
+9.42277759e-02f,+8.29843655e-02f,+6.78941384e-02f,-1.21927923e-02f,-1.20517567e-01f,
+7.76786655e-02f,+5.83031867e-03f,+4.04183567e-02f,+8.76648538e-03f,-6.64625689e-02f,
+1.43560633e-01f,-6.09794399e-03f,+8.67154002e-02f,+1.56185463e-01f,+3.83927636e-02f,
+6.45360723e-02f,+1.05893172e-01f,+3.95360887e-02f,+1.14700541e-01f,+2.64335461e-02f,
+1.27761438e-01f,-8.42574239e-02f,+1.18854500e-01f,+4.15146574e-02f,+7.97919482e-02f,
+2.92599443e-02f,+5.17352894e-02f,-1.34642020e-01f,+1.91194192e-01f,+1.63256347e-01f,
+1.11454554e-01f,+2.46723313e-02f,-9.57663283e-02f,+5.31672314e-02f,+1.19330019e-01f,
+5.12053668e-02f,-5.93936536e-03f,+8.06801114e-03f,-5.73680736e-02f,+7.98553508e-03f,
+2.48501256e-01f,+9.43780243e-02f,+1.50677443e-01f,+1.33550748e-01f,+1.70612894e-02f,
+2.61169970e-02f,+2.48957938e-03f,+1.78147316e-01f,+1.18963897e-01f,+1.10219292e-01f,
+2.23267019e-01f,-5.01368828e-02f,+1.59079671e-01f,+2.19065174e-01f,-1.32091492e-01f,
+1.58405751e-02f,+4.82483953e-02f,+1.03092007e-01f,+1.37905707e-03f,-1.23740554e-01f,
+1.07791565e-01f,+9.47789289e-03f,+1.84852242e-01f,-5.90569414e-02f,+1.60323665e-01f,
+1.66265681e-01f,+1.73635438e-01f,+4.91208881e-02f,+1.00206360e-01f,+1.50571942e-01f,
+3.91070656e-02f,+3.36963758e-02f,+1.55536279e-01f,+7.00647011e-03f,+1.16509730e-02f,
+2.24163592e-01f,+8.81049260e-02f,+1.97804719e-02f,+4.01229337e-02f,-2.03299839e-02f,
-5.91479354e-02f,+9.84423012e-02f,+1.35519609e-01f,+1.00585349e-01f,-1.66417789e-02f,
+5.69951226e-05f,+2.26490889e-02f,+5.81055284e-02f,+1.07523419e-01f,+6.16257191e-02f,
+1.35410711e-01f,+8.94815922e-02f,-2.71607544e-02f,+2.63448656e-02f,+3.47985536e-01f,
+1.69157073e-01f,+1.13388643e-01f,+1.98136538e-01f,+2.00252142e-02f,+1.56928957e-01f,
+5.83940521e-02f,+8.41509402e-02f,+3.47341597e-02f,+1.64254814e-01f,+7.86900818e-02f,
+1.38234660e-01f,-1.18314333e-01f,+1.69420853e-01f,+1.46803394e-01f,-5.06896190e-02f,
+2.42137518e-02f,+8.54324736e-03f,+8.52164775e-02f,+1.63693219e-01f,+8.05953518e-02f,
+1.23160526e-01f,+6.14995174e-02f,+6.03078119e-02f,-2.85824928e-02f,-2.43199021e-02f,
+1.01280361e-01f,+5.19771278e-02f,+1.23211876e-01f,+3.84425819e-02f,+5.93835190e-02f,
-1.34745585e-02f,+5.16875088e-02f,+1.55273020e-01f,+7.41324499e-02f,+2.32854366e-01f,
+3.77861038e-02f,+1.11070678e-01f,-4.29743901e-03f,+1.00404851e-01f,+8.55366886e-02f,
+2.14031320e-02f,+8.88643973e-03f,-5.35889827e-02f,+8.35103542e-03f,+1.37961656e-01f,
+8.82437378e-02f,+1.27140358e-02f,+7.50000849e-02f,+2.82787401e-02f,+1.57112598e-01f,
-7.55271986e-02f,+1.19663537e-01f,+8.01103711e-02f,+7.99955428e-02f,+1.54539481e-01f,
-1.37758717e-01f,+1.02985367e-01f,-5.79385646e-02f,+1.19770482e-01f,+1.44503891e-01f,
-4.46399525e-02f,+1.55173138e-01f,-7.94473477e-03f,+1.06320851e-01f,+4.01346898e-03f,
+1.02021657e-01f,+5.79293519e-02f,+8.19868296e-02f,+8.09196457e-02f,+1.08942151e-01f,
+1.96354777e-01f,+1.14790089e-01f,+1.08794421e-01f,+1.17833354e-01f,-3.94662544e-02f,
+2.79130265e-02f,+4.26788107e-02f,+9.26505178e-02f,+8.53482913e-03f,-2.60209907e-02f,
+2.78175294e-01f,+1.85977414e-01f,+1.58659052e-02f,+1.00116827e-01f,+2.84101833e-02f,
+4.51239496e-02f,+4.39108536e-02f,+7.46348649e-02f,+6.43094480e-02f,+7.44225681e-02f,
+1.37969449e-01f,+1.77200995e-02f,+4.11880724e-02f,+4.89419401e-02f,+1.76552739e-02f,
+2.53351722e-02f,-2.11701100e-03f,+3.63068655e-02f,-2.42283512e-02f,+3.59530486e-02f,
-3.91533040e-02f,+1.61345169e-01f,+1.04758836e-01f,+6.64592385e-02f,-4.12054211e-02f,
+2.37835705e-01f,+7.82884434e-02f,+1.29406154e-01f,+7.74991065e-02f,+1.54620007e-01f,
-3.80931608e-02f,+6.69137575e-03f,+7.68167228e-02f,+5.69268912e-02f,+1.42569646e-01f,
+1.00348309e-01f,+1.01716593e-01f,+1.55860379e-01f,+1.27435550e-01f,-1.47149935e-01f,
+3.39170769e-02f,+1.38645574e-01f,+7.74892196e-02f,-5.45263961e-02f,+1.12408087e-01f,
+8.25518966e-02f,+1.46554247e-01f,+6.71536177e-02f,+1.76641613e-01f,+2.09893987e-01f,
+1.59674753e-02f,+1.33051634e-01f,+1.09633975e-01f,+1.43971130e-01f,+2.61399627e-01f,
+3.05755599e-03f,+3.84136997e-02f,-6.39516413e-02f,+1.68170348e-01f,-2.88845170e-02f,
+1.09261557e-01f,+9.12520289e-02f,+2.91649282e-01f,+5.85431233e-02f,+1.13903753e-01f,
-3.40423360e-02f,-1.18616819e-02f,+4.04925011e-02f,-8.89167264e-02f,-1.70288794e-03f,
-1.19905010e-01f,+5.02399541e-02f,+6.47623762e-02f,+1.51551589e-02f,-4.44854088e-02f,
+2.45503932e-02f,+5.09171486e-02f,+3.22852582e-02f,+1.52675048e-01f,+1.38776794e-01f,
+8.65190998e-02f,-1.88988913e-02f,+2.26096269e-02f,-1.11376017e-01f,-1.75678693e-02f,
-2.57350709e-02f,-7.69360363e-02f,+7.57202059e-02f,+3.00389864e-02f,+1.13210656e-01f,
-8.46428052e-02f,+1.36507722e-02f,+1.10876210e-01f,-4.23907302e-02f,+1.75685734e-01f,
+2.88390517e-02f,+3.81332822e-02f,+7.58545427e-03f,+9.74973217e-02f,+7.09699560e-03f,
+8.35379735e-02f,+1.46992236e-01f,+2.17465218e-02f,+1.90109890e-02f,+7.00059012e-02f,
+1.52088255e-01f,+2.19089556e-02f,-6.30863681e-02f,+1.17714681e-01f,+3.93163472e-01f,
+8.55043083e-02f,-7.12593198e-02f,+2.22811643e-02f,+1.02866460e-02f,-4.36842628e-02f,
-2.82340273e-02f,+1.57675698e-01f,-1.32389560e-01f,+2.22611845e-01f,+5.38678579e-02f,
+4.73920368e-02f,+4.23424551e-03f,+1.25562787e-01f,-3.87856513e-02f,-1.00703396e-01f,
-4.27607685e-01f,+2.50538662e-02f,+1.55170888e-01f,+1.62171037e-03f,+1.35579690e-01f,
-1.27256975e-01f,-1.34255767e-01f,+4.72208597e-02f,+1.25105102e-02f,-1.20549381e-01f,
+1.29980028e-01f,+2.68605910e-02f,+2.35374212e-01f,+5.16560934e-02f,-3.36686790e-01f,
+6.10136390e-02f,-3.08024734e-01f,+7.93070942e-02f,+1.88024670e-01f,+6.23702817e-02f,
+7.22428709e-02f,+1.22570042e-02f,-2.82746833e-03f,+5.80128543e-02f,+1.20875441e-01f,
+4.74511907e-02f,+2.82324165e-01f,-5.43954298e-02f,+7.57151991e-02f,+1.91384424e-02f,
+6.77166879e-02f,-4.60152030e-02f,+3.56380463e-01f,+7.64958486e-02f,+1.41266137e-02f,
+5.98669171e-01f,-5.83548620e-02f,+8.42523128e-02f,+1.64232142e-02f,+2.61773378e-01f,
-6.83137327e-02f,+1.42113373e-01f,-6.92004338e-02f,+1.03148716e-02f,+2.90680192e-02f,
+2.52055880e-02f,-7.69854710e-02f,-5.01991473e-02f,+8.87203589e-02f,+1.75423682e-01f,
+1.00900985e-01f,+1.46988004e-01f,+1.24107130e-01f,+1.38949752e-01f,+1.22855864e-02f,
-1.57452762e-01f,+1.93063561e-02f,+4.20612469e-02f,+1.77900866e-01f,+1.39514670e-01f,
+3.97582427e-02f,-2.71958741e-03f,+3.09741367e-02f,+5.58996350e-02f,+5.99116832e-02f,
+1.63684636e-01f,+4.88367639e-02f,-1.32406145e-01f,-1.86158925e-01f,-1.60376966e-01f,
+5.76251112e-02f,+1.32178411e-01f,+2.86775261e-01f,+4.29387391e-01f,-1.48510537e-03f,
-4.07615751e-02f,+8.58829170e-02f,-1.15954101e-01f,+1.55082002e-01f,+5.57004474e-02f,
+2.27866441e-01f,+7.00756237e-02f,+5.50144799e-02f,-9.74268373e-03f,+5.68347657e-03f,
+5.76835945e-02f,+1.04120381e-01f,+4.89898808e-02f,-1.08164931e-02f,+8.42355490e-02f,
+3.08072958e-02f,-1.45702913e-01f,+2.72869114e-02f,+8.99634808e-02f,+8.71053785e-02f,
+7.92737002e-04f,+1.77070022e-01f,-2.47277856e-01f,+4.62247543e-02f,+1.31722122e-01f,
+9.54872668e-02f,+5.77240884e-02f,-1.16400354e-01f,-2.75957704e-01f,+1.64928868e-01f,
+8.08974579e-02f,+1.54767916e-01f,+1.26693025e-01f,-9.38808396e-02f,+4.84666228e-02f,
+1.12753689e-01f,+1.13523640e-01f,-1.56756327e-01f,+1.41141802e-01f,+3.19779553e-02f,
+2.75363445e-01f,+1.06236048e-01f,+1.74987301e-01f,+1.89334065e-01f,-4.58948053e-02f,
+1.70858502e-01f,+1.82662591e-01f,-1.77034095e-01f,-4.54941653e-02f,-1.90892890e-01f,
+3.05482388e-01f,+1.15496442e-01f,-9.84258875e-02f,+8.35860297e-02f,+8.36362541e-02f,
-3.33100855e-02f,+8.39312822e-02f,+2.35604513e-02f,+7.21241608e-02f,-1.81760155e-02f,
-1.00298204e-01f,+3.61318178e-02f,+7.19815716e-02f,+5.53415753e-02f,-6.48800880e-02f,
-3.66003662e-02f,+3.99132892e-02f,-2.10979674e-02f,-2.55709421e-02f,-2.32262537e-02f,
+3.78034823e-02f,+4.12841812e-02f,-2.94561926e-02f,+1.04344599e-02f,-7.63842389e-02f,
+7.49671534e-02f,-6.86925948e-02f,+2.13467598e-01f,+4.42986310e-01f,-7.28803426e-02f,
+4.52283882e-02f,+5.17022051e-02f,+1.70861512e-01f,+2.36816809e-01f,+3.78982201e-02f,
+3.37913312e-04f,+1.11569744e-02f,-1.77822322e-01f,+1.06876791e-01f,+1.18183289e-02f,
+3.76172811e-02f,-1.59413025e-01f,+1.48228360e-02f,+1.45890489e-01f,-1.87747210e-01f,
+5.22674657e-02f,+1.50063172e-01f,+2.95524389e-01f,+4.36365247e-01f,-1.43641271e-02f,
+8.12403262e-02f,+2.86851943e-01f,+1.17676765e-01f,+3.59210856e-02f,+1.06778048e-01f,
+9.68147814e-02f,-2.30038594e-02f,+8.78517106e-02f,+1.86980650e-01f,-2.81504560e-02f,
+1.93828076e-01f,-7.62785450e-02f,+1.53566241e-01f,-1.80098526e-02f,+2.67131507e-01f,
-1.45128340e-01f,+5.94004877e-02f,+6.01936206e-02f,+1.90653242e-02f,-1.78555418e-02f,
+1.52121365e-01f,-2.73599997e-02f,+1.13759730e-02f,-2.80194879e-02f,-3.37525159e-02f,
+4.59906012e-02f,+2.46650517e-01f,+1.09759003e-01f,-1.50486737e-01f,-3.14977132e-02f,
+1.06134247e-02f,-1.90518275e-01f,+1.08235873e-01f,-1.00733601e-02f,+1.90414757e-01f,
+2.79535115e-01f,-9.01015401e-02f,+1.98686883e-01f,-2.06394866e-02f,+8.72790068e-02f,
+7.18968809e-02f,-3.81039381e-02f,+8.06166008e-02f,+6.34319801e-03f,+9.44309533e-02f,
+3.54595453e-01f,+5.82671212e-03f,-1.75370704e-02f,+6.05343133e-02f,-1.51220262e-01f,
-1.76585410e-02f,+8.79161358e-02f,-1.32993639e-01f,+2.35617869e-02f,+9.86331701e-02f,
+8.18698667e-03f,-4.44523282e-02f,+8.35706964e-02f,+1.90145373e-02f,+3.67340818e-02f,
+1.18705034e-01f,+2.15678737e-01f,+1.11903101e-01f,-1.14276566e-01f,+1.55911103e-01f,
+9.89116132e-02f,+1.92995712e-01f,-5.53272627e-02f,+4.10542458e-01f,+1.73919782e-01f,
-9.69261304e-02f,-8.79928917e-02f,-1.31610185e-01f,+8.39862153e-02f,+3.51173654e-02f,
+1.14200674e-01f,-3.62557173e-02f,+1.48732692e-01f,-1.30300775e-01f,-2.10666329e-01f,
+9.07191560e-02f,-2.76378021e-02f,+1.85920686e-01f,-5.42812310e-02f,+5.50458543e-02f,
-4.47456725e-02f,+2.84967422e-01f,+1.56241968e-01f,-6.08719960e-02f,+2.85011470e-01f,
+4.28345762e-02f,-2.18411326e-01f,-3.81929912e-02f,-6.98868707e-02f,-4.49619703e-02f,
+2.15371788e-01f,-6.70310631e-02f,+8.60333070e-02f,+9.38227028e-02f,-8.32068995e-02f,
+3.33442329e-03f,+1.08237639e-01f,+7.83269629e-02f,+7.29139224e-02f,+8.29100087e-02f,
+3.98380384e-02f,-1.15196183e-01f,+2.99425185e-01f,+2.05490179e-02f,+1.04609780e-01f,
+2.05500051e-01f,+7.18907639e-02f,+1.00353822e-01f,+1.92069449e-03f,+6.81012794e-02f,
+1.38206080e-01f,+1.25424132e-01f,-7.82655478e-02f,+1.75495520e-01f,+7.11396113e-02f,
+1.38637111e-01f,+1.46788850e-01f,+1.37635753e-01f,-1.60742644e-02f,+1.26319453e-01f,
+1.56328425e-01f,+3.78030986e-02f,+2.58498406e-03f,+1.75640300e-01f,+1.10543072e-01f,
+1.09209292e-01f,+2.27673531e-01f,+1.58815347e-02f,-2.31707119e-03f,+2.72545606e-01f,
+1.74147990e-02f,+7.26687834e-02f,+7.75695741e-02f,-8.40002671e-02f,+7.57168606e-02f,
-1.13656797e-01f,-1.62011564e-01f,+1.76114943e-02f,+2.29061991e-01f,+1.13735087e-01f,
+2.43993383e-02f,-1.38835553e-02f,+2.68432975e-01f,-1.12930551e-01f,-1.18680149e-01f,
+6.37934953e-02f,+8.35789070e-02f,+2.10854341e-03f,-1.02153555e-01f,+9.44213495e-02f,
-6.14119396e-02f,-3.94943580e-02f,-2.15909816e-02f,+1.52225852e-01f,-2.94105299e-02f,
+4.90032993e-02f,+2.71408916e-01f,+6.96686804e-02f,-1.31163105e-01f,-8.60980004e-02f,
-1.58667024e-02f,-1.64648756e-01f,+1.05437256e-01f,+9.37185138e-02f,+1.17665850e-01f,
+1.93361834e-01f,+5.49845807e-02f,-4.07324024e-02f,-2.19849944e-02f,+4.52498198e-02f,
+2.23191202e-01f,+4.89325747e-02f,-4.89606075e-02f,-7.11180642e-02f,-1.04821153e-01f,
+1.08484253e-01f,+4.22796965e-01f,+1.56533629e-01f,+2.03943953e-01f,+2.68332988e-01f,
+1.10794879e-01f,+6.38768598e-02f,+2.15108722e-01f,+2.29088485e-01f,+1.12593755e-01f,
+1.19697779e-01f,+1.17071584e-01f,+1.21881310e-02f,+1.89174816e-01f,-8.24983791e-02f,
-1.25722692e-03f,+1.40804172e-01f,+4.60502021e-02f,+5.39449714e-02f,+2.03338370e-01f,
+1.90050527e-01f,+1.04774773e-01f,+1.91031937e-02f,-5.86828962e-02f,+1.56625018e-01f,
-5.01539074e-02f,+4.05762553e-01f,+9.60140228e-02f,+1.70251399e-01f,-2.16294657e-02f,
-7.59024993e-02f,-6.81724250e-02f,+9.33168679e-02f,-7.25812688e-02f,+1.57409191e-01f,
-5.27196191e-03f,+3.20036918e-01f,+3.49533297e-02f,+1.00836053e-01f,+1.52500212e-01f,
+1.17755070e-01f,+3.12316895e-01f,-2.44368650e-02f,-2.04318047e-01f,+3.57886225e-01f,
-7.43766949e-02f,+4.96262312e-03f,+8.07539523e-02f,-2.71279402e-02f,+1.44597948e-01f,
+1.60796717e-02f,+1.43768623e-01f,-1.36948436e-01f,+1.19976312e-01f,-2.11972266e-01f,
+6.55379072e-02f,+7.02869520e-02f,+2.47090627e-02f,+2.12685466e-01f,+1.32983968e-01f,
+2.07521409e-01f,+1.23675518e-01f,+2.53276546e-02f,+2.06172302e-01f,+1.13535404e-01f,
-1.62094459e-02f,-1.42146483e-01f,+6.69671819e-02f,+1.72241628e-01f,-2.80281939e-02f,
+1.80732369e-01f,-7.35613704e-02f,-1.60936024e-02f,+5.46127371e-02f,+5.84748015e-03f,
+1.61594048e-01f,-4.91039380e-02f,-1.71873812e-02f,-7.02674761e-02f,+8.03233385e-02f,
+7.30150193e-02f,+1.77527010e-01f,-9.72124040e-02f,+9.59580392e-02f,+1.54352903e-01f,
+2.37493105e-02f,+1.92026183e-01f,+1.12548783e-01f,+4.16724682e-02f,-2.50670224e-01f,
+2.35651247e-02f,+3.99291553e-02f,+1.50133505e-01f,+6.79293200e-02f,+2.03159720e-01f,
-3.63970250e-02f,-3.36734083e-04f,-4.84662876e-02f,+2.65432782e-02f,+4.46750782e-02f,
+1.39050588e-01f,-8.65625367e-02f,-2.37624049e-02f,-7.57457167e-02f,+1.62059098e-01f,
+6.18657544e-02f,+2.90452987e-01f,+3.48464623e-02f,-4.15731259e-02f,+3.44468690e-02f,
+3.68929058e-02f,-3.81602682e-02f,+1.29361406e-01f,+2.67671108e-01f,-1.86212007e-02f,
+1.73783153e-02f,-2.99522523e-02f,+8.55054036e-02f,+1.17649369e-01f,+3.31812426e-02f,
+1.06912583e-01f,+1.27448931e-01f,+6.63557947e-01f,-4.69045304e-02f,-1.99958645e-02f,
+1.20992854e-01f,+3.63513120e-02f,+1.75602153e-01f,-1.43565297e-01f,+4.53220457e-02f,
+7.96479955e-02f,+2.24428587e-02f,+4.24039990e-01f,+1.86725646e-01f,-1.48884118e-01f,
+2.62583017e-01f,+3.53908874e-02f,+2.54645329e-02f,+1.62380829e-01f,-1.85421631e-02f,
+5.05642593e-03f,+8.56536254e-02f,+3.51589233e-01f,+1.50535867e-01f,+5.96212298e-02f,
+9.82567146e-02f,+8.82416070e-02f,+2.97743827e-01f,+3.56452987e-02f,+1.85694113e-01f,
+5.28408997e-02f,+1.26201008e-02f,-5.67422360e-02f,-3.17204475e-01f,-8.56679678e-02f,
-1.59440279e-01f,+4.38693948e-02f,-3.06720845e-02f,+1.22361042e-01f,-5.47550656e-02f,
+1.09921560e-01f,+9.40237939e-02f,+1.85712144e-01f,+1.17944188e-01f,+9.41727832e-02f,
+8.88677835e-02f,-5.18039055e-02f,+1.90994710e-01f,-1.63753405e-02f,-5.49366139e-02f,
-2.54833549e-02f,+2.48543061e-02f,-4.18083034e-02f,+1.97618872e-01f,+1.19181998e-01f,
-1.04486533e-01f,+1.05188657e-02f,+2.21102864e-01f,-2.32037693e-01f,+2.42510989e-01f,
+1.53383121e-01f,+6.58762977e-02f,+1.68452680e-01f,+3.79870608e-02f,-7.13822525e-03f,
-4.21854202e-03f,+8.56315866e-02f,+1.22345556e-02f,+2.11685047e-01f,+2.32967600e-01f,
+1.16549775e-01f,-2.99316850e-02f,-2.15889569e-02f,+7.96647295e-02f,-9.78431944e-03f,
+1.51195392e-01f,-2.47256324e-01f,-2.30754558e-02f,-8.81259814e-02f,+1.69767082e-01f,
+1.99607477e-01f,+8.37136358e-02f,+7.79259428e-02f,-1.62017077e-01f,+4.38069433e-01f,
+2.06997156e-01f,+1.99766401e-02f,+2.45969027e-01f,-1.84642337e-02f,-5.05678169e-02f,
+1.09096698e-01f,+4.42076065e-02f,+3.14498305e-01f,-1.47806332e-02f,-1.57530323e-01f,
-3.65168341e-02f,+4.00112793e-02f,+8.28233659e-02f,+1.17402636e-01f,+4.76530403e-01f,
-1.77489407e-02f,+1.87134128e-02f,-5.63059784e-02f,+4.62061539e-02f,+7.35132024e-02f,
+6.29954739e-03f,+1.28772960e-03f,+2.97022443e-02f,+1.23858742e-01f,+4.19464521e-02f,
+4.40061912e-02f,-1.51675001e-01f,+1.01265773e-01f,+7.17331395e-02f,+9.48103052e-03f,
+1.07600957e-01f,+1.31556496e-01f,-6.29619434e-02f,+1.65169910e-01f,+8.73772651e-02f,
+5.41181816e-03f,+1.42883554e-01f,+2.80493535e-02f,+7.13573173e-02f,+7.97638595e-02f,
-7.85886869e-02f,+8.03787857e-02f,+3.19449186e-01f,+1.16114400e-01f,-6.33331165e-02f,
+5.38753867e-02f,-2.28322074e-02f,+1.33720795e-02f,+6.19307496e-02f,+2.39713028e-01f,
+1.96446627e-02f,+1.13583371e-01f,+1.86982095e-01f,-2.22711675e-02f,+1.16882607e-01f,
+9.51684043e-02f,+3.52724269e-02f,+3.38113867e-02f,-1.14665605e-01f,+1.60188928e-01f,
+1.01292441e-02f,-8.74329824e-03f,-1.28106534e-01f,+1.48980021e-02f,+1.91830948e-01f,
+1.11613885e-01f,+9.04234722e-02f,+2.89406776e-01f,+2.11880669e-01f,-8.20215195e-02f,
+1.23213924e-01f,-5.15234284e-02f,+3.77850175e-01f,+3.65876406e-01f,+2.40275823e-03f,
+6.54961318e-02f,+2.22789217e-02f,+8.40569660e-03f,+8.73820409e-02f,+6.29725605e-02f,
-4.67615239e-02f,-2.50871275e-02f,+2.44226649e-01f,+1.15827076e-01f,-4.24585156e-02f,
+1.29576296e-01f,-7.61874616e-02f,+1.62419513e-01f,-7.26819038e-02f,+4.79957685e-02f,
-3.20470668e-02f,+6.72933459e-02f,+2.17355311e-01f,-4.03945744e-02f,+5.04357181e-03f,
+1.82066381e-01f,+8.84244591e-02f,+1.92419086e-02f,-1.27108824e-02f,+2.35613197e-01f,
+7.87826851e-02f,+3.62407565e-02f,+9.51381177e-02f,+2.92236686e-01f,+2.08693951e-01f,
+1.77286819e-01f,+8.36495496e-03f,+1.85571276e-02f,-1.82533637e-02f,+4.44127768e-02f,
+1.63221151e-01f,-2.60054599e-03f,+4.32005674e-02f,+1.54114114e-02f,+2.14537252e-02f,
-4.37854826e-02f,+1.56390682e-01f,+2.36500710e-01f,-2.93296464e-02f,+3.41908373e-02f,
+2.02087343e-01f,+2.25572646e-01f,+4.47403863e-02f,-8.10786337e-02f,+8.99502337e-02f,
-3.92634198e-02f,+5.07757030e-02f,-1.21193394e-01f,+6.91717938e-02f,-1.37242049e-01f,
-1.89277813e-01f,+8.57996643e-02f,+1.01123326e-01f,+2.85803825e-02f,-1.12774456e-02f,
-9.16141495e-02f,+2.34522656e-01f,-1.68014299e-02f,-2.63620224e-02f,-2.52974406e-02f,
-6.46840557e-02f,+3.29453528e-01f,+1.69334188e-01f,+6.10952117e-02f,+2.15174705e-01f,
+2.21280735e-02f,+1.94578618e-01f,-2.75337603e-02f,+3.71548571e-02f,+6.91278502e-02f,
+2.52354052e-02f,+1.12323977e-01f,+3.47735919e-02f,+1.04695179e-01f,+8.06447864e-02f,
+6.22925237e-02f,+1.86477304e-01f,-1.16249494e-01f,-1.27641305e-01f,+2.79165544e-02f,
+7.24454224e-02f,+1.09358236e-01f,+3.21555465e-01f,-5.90877011e-02f,+1.45838484e-01f,
-1.65765882e-01f,+1.42484993e-01f,-6.86814170e-03f,+1.03695765e-01f,+2.14235559e-01f,
-8.78823623e-02f,+8.98571834e-02f,+2.58700758e-01f,+1.89636201e-01f,+4.68589924e-02f,
-2.53896844e-02f,+2.02933818e-01f,+1.14207052e-01f,+3.06325145e-02f,-1.82106018e-01f,
-2.79505993e-03f,+6.33659661e-02f,+1.80587955e-02f,+3.04230936e-02f,+1.56035423e-01f,
+3.47510353e-02f,+1.59117073e-01f,-7.35989632e-03f,+8.05001855e-02f,-9.36290473e-02f,
+5.31169213e-02f,+2.41875976e-01f,+9.10633535e-04f,+1.87588762e-02f,-3.22585902e-03f,
+1.86963335e-01f,+1.96114093e-01f,+3.00897881e-02f,-2.59716995e-02f,-4.62332144e-02f,
-3.12351082e-02f,+1.13246150e-01f,+6.81426972e-02f,-2.17620446e-03f,+3.59196961e-02f,
+1.11946501e-01f,+2.05639958e-01f,+1.46194682e-01f,+1.05027974e-01f,+1.17245145e-01f,
+3.19575742e-02f,+7.88579434e-02f,+5.34141809e-02f,+1.95262268e-01f,+9.67247561e-02f,
+1.94914579e-01f,+2.19838768e-02f,+4.22421768e-02f,-4.29436713e-02f,+1.39495224e-01f,
+1.03834659e-01f,+1.38375238e-01f,+1.86810687e-01f,-8.92562047e-03f,-3.05790622e-02f,
-1.56310290e-01f,+1.20398782e-01f,+1.70995608e-01f,-1.10012189e-01f,+1.37963891e-01f,
+2.10173838e-02f,+8.03799108e-02f,+1.02473125e-01f,-1.16941780e-02f,+1.38044879e-01f,
-1.13378100e-01f,-1.04256044e-03f,-5.29109798e-02f,+1.48581803e-01f,+8.67314264e-02f,
+1.90896764e-01f,+1.25329252e-02f,+9.33322534e-02f,+9.89539102e-02f,+4.71873395e-02f,
+1.66360334e-01f,+1.03604548e-01f,+4.78673689e-02f,+1.26771852e-01f,+4.59398963e-02f,
+3.71222501e-03f,-1.51010200e-01f,-1.21508613e-02f,+6.45965785e-02f,-1.47239909e-01f,
+6.78056702e-02f,-9.60750058e-02f,-1.75648984e-02f,-9.59353447e-02f,+2.12997362e-01f,
+6.50344267e-02f,-3.16403359e-02f,+1.23961098e-01f,+2.96435226e-03f,+1.00192644e-01f,
+3.03712487e-02f,-1.92175686e-01f,+8.22970495e-02f,+1.58220112e-01f,+2.98129395e-02f,
+2.19728529e-01f,+4.67496030e-02f,+1.02763355e-01f,+1.37212798e-01f,+5.58529496e-02f,
+2.49255300e-01f,+1.40226290e-01f,+2.16347322e-01f,+3.18700038e-02f,+5.42442165e-02f,
+1.66622519e-01f,-1.28305089e-02f,+3.07767559e-02f,+2.04812270e-02f,+8.06690678e-02f,
+2.30521038e-01f,+2.05152594e-02f,-7.50764385e-02f,+2.02524424e-01f,+1.60118505e-01f,
+1.54490797e-02f,+8.07059482e-02f,+2.59244293e-01f,+8.62223506e-02f,-4.62214500e-02f,
+1.92400277e-01f,+2.08852842e-01f,-7.57325590e-02f,-2.87938938e-02f,+5.97011298e-04f,
+3.37488460e-03f,+5.40918894e-02f,+1.95468828e-01f,+6.22229613e-02f,-1.18393702e-02f,
-9.49032307e-02f,+2.39978321e-02f,+1.92791666e-03f,+2.77939796e-01f,-4.23260070e-02f,
+2.13725522e-01f,-1.01103410e-01f,+1.89716548e-01f,-1.54097319e-01f,+1.00158930e-01f,
+6.43119812e-02f,-1.16892569e-02f,-7.56109282e-02f,+2.92470634e-01f,+1.70612246e-01f,
+6.87777176e-02f,+1.59045964e-01f,+1.06088825e-01f,-3.82307172e-02f,+3.43054608e-02f,
+9.08548534e-02f,-1.04306400e-01f,+1.33618593e-01f,-1.16909765e-01f,-4.27364483e-02f,
+1.83046073e-01f,+1.42935187e-01f,+1.01727858e-01f,+4.76956442e-02f,+2.85072085e-02f,
+7.49198422e-02f,+1.10270858e-01f,+1.02849662e-01f,+1.20531589e-01f,+8.64697807e-03f,
-7.88263977e-02f,+1.80959217e-02f,+7.73578808e-02f,+1.76985830e-01f,-7.16702491e-02f,
+1.00880533e-01f,-5.43143228e-02f,+1.13356598e-02f,+3.75525951e-02f,+2.25097939e-01f,
+4.84663546e-02f,-5.85326403e-02f,+8.33957642e-02f,+1.05312586e-01f,+6.95630386e-02f,
-6.06235191e-02f,+1.57276481e-01f,+7.22711012e-02f,+1.14937395e-01f,+1.55970395e-01f,
+1.66592792e-01f,+1.55073002e-01f,-7.89964758e-03f,-4.01022993e-02f,+8.33331868e-02f,
+4.90122288e-02f,-1.12997793e-01f,+5.72715774e-02f,+1.54666990e-01f,-4.45098132e-02f,
-1.11621462e-01f,-9.79003161e-02f,-3.16551067e-02f,+5.84591553e-02f,-1.15762979e-01f,
+8.10794160e-03f,+6.87071607e-02f,+7.43766651e-02f,+1.29381552e-01f,+1.53631195e-02f,
-3.23403440e-02f,-7.70452842e-02f,-9.36248747e-04f,+9.75562930e-02f,+9.29817110e-02f,
+1.61059245e-01f,-3.13322991e-02f,-4.90303338e-02f,-8.28900114e-02f,+9.26171802e-03f,
+9.30871144e-02f,-6.27764761e-02f,+2.02990606e-01f,+1.05203778e-01f,+5.45651950e-02f,
+3.52243371e-02f,+6.90655187e-02f,+1.11473747e-01f,-5.65249398e-02f,+8.45249835e-03f,
-1.39601883e-02f,+1.23520747e-01f,-6.72106296e-02f,+4.67020161e-02f,-2.45183147e-02f,
+7.70838782e-02f,-3.31456773e-02f,+9.53670070e-02f,+5.76078519e-02f,-7.47138038e-02f,
-1.82110861e-01f,+7.91482031e-02f,+1.24368139e-01f,+1.29267707e-01f,+1.64712340e-01f,
+5.79030924e-02f,+6.13264740e-02f,+1.26859974e-02f,-2.19205678e-01f,+7.12959990e-02f,
+7.48223215e-02f,+1.98771179e-01f,+8.01848099e-02f,-1.98226739e-02f,+1.65095091e-01f,
-4.49416563e-02f,+9.80881676e-02f,-7.43739074e-03f,-4.66674082e-02f,+9.94860008e-02f,
+2.73136124e-02f,-6.65972009e-02f,+1.18422978e-01f,+8.93028080e-02f,-4.16736752e-02f,
+1.77482069e-01f,+2.75352784e-02f,+1.92012310e-01f,-7.62032764e-03f,+1.30317837e-01f,
-1.42168095e-02f,-1.10717202e-02f,-9.33554620e-02f,+9.06858891e-02f,-9.96423960e-02f,
-2.02898324e-01f,-6.27996996e-02f,+2.50969142e-01f,-1.05029821e-01f,+9.14462358e-02f,
+8.27183127e-02f,+1.57915607e-01f,+5.39286956e-02f,+1.23787902e-01f,+1.31111220e-01f,
+3.18561830e-02f,+7.41776731e-03f,-1.13627091e-01f,+1.84479773e-01f,+1.65268287e-01f,
-7.11862370e-02f,+2.13559464e-01f,-9.71273705e-02f,-9.66797173e-02f,+1.69126406e-01f,
+1.01398684e-01f,+6.18221797e-02f,-7.91371912e-02f,-1.39099231e-03f,+1.78472996e-01f,
+1.06180631e-01f,+2.10662812e-01f,-5.58839515e-02f,+1.36995912e-02f,+9.30981860e-02f,
+5.96126169e-02f,+6.92446828e-02f,-2.28707269e-02f,+1.81578457e-01f,+3.05571079e-01f,
-2.23399878e-01f,+2.83094645e-01f,+5.51581681e-01f,-1.31293640e-01f,+1.61150828e-01f,
-5.39300293e-02f,+5.76900430e-02f,+1.23669714e-01f,+4.48407419e-02f,+1.99382469e-01f,
-2.34169550e-02f,+2.80621380e-01f,+3.12722325e-02f,+1.17427759e-01f,+5.63765392e-02f,
+1.72187237e-03f,-9.74634662e-02f,+7.88208768e-02f,-2.52675246e-02f,-4.24708612e-02f,
-2.31036935e-02f,+2.49301121e-01f,+2.11466491e-01f,+6.35761172e-02f,+1.95349559e-01f,
-7.05999285e-02f,+1.82781324e-01f,+3.04328322e-01f,-9.30021852e-02f,+4.64787073e-02f,
+1.76018000e-01f,+1.35048345e-01f,-1.49964532e-02f,+2.77358234e-01f,+1.95343614e-01f,
+1.08418092e-01f,+4.03308496e-02f,+1.39006916e-02f,+9.40300077e-02f,+7.20464364e-02f,
-1.50913775e-01f,+3.95437237e-03f,+2.61120647e-01f,+7.59270117e-02f,+1.14406586e-01f,
+1.70278028e-02f,+1.61056995e-01f,+6.05614409e-02f,+1.56226113e-01f,+1.29886284e-01f,
+2.06072330e-01f,-1.26449198e-01f,-3.64378430e-02f,+1.79780349e-01f,+1.31861269e-01f,
+1.89085305e-01f,+1.69650361e-01f,+8.53992850e-02f,+1.83675095e-01f,+5.14211357e-02f,
+4.86238189e-02f,+1.18368953e-01f,+5.96160591e-02f,+1.24143638e-01f,-9.29670129e-03f,
-7.62787908e-02f,+1.33849317e-02f,-8.50472413e-03f,+2.50231057e-01f,+2.55990535e-01f,
+5.50573617e-02f,-1.64136812e-02f,+1.12643957e-01f,+5.22931889e-02f,+2.65617132e-01f,
-1.08950101e-01f,+8.40723738e-02f,-3.11281458e-02f,+1.07718045e-02f,+2.89304048e-01f,
+4.48769145e-03f,-1.43347578e-02f,-4.51755617e-03f,-5.97316213e-02f,-1.29616991e-01f,
-1.90477863e-01f,-5.41253090e-02f,+7.46946707e-02f,+1.14413209e-01f,-1.21633753e-01f,
+1.29858553e-02f,+2.54019767e-01f,-1.06136933e-01f,+6.19703233e-02f,+7.67959952e-02f,
+2.17566475e-01f,+2.24423304e-01f,+1.06700614e-01f,-5.77299856e-02f,+7.10406015e-03f,
+2.03230754e-01f,-2.40143463e-02f,-2.02696375e-03f,+3.56334858e-02f,+2.60068715e-01f,
+1.05516739e-01f,+5.82409315e-02f,+6.75854236e-02f,-2.57784333e-02f,-1.09145001e-01f,
+4.38576750e-02f,+1.41981781e-01f,+2.95047164e-01f,+1.17272157e-02f,-5.18274792e-02f,
+4.66527976e-02f,-5.73557764e-02f,+6.44949377e-02f,-2.52767533e-01f,+1.18319511e-01f,
+7.40453303e-02f,+9.04317573e-03f,+7.51766842e-03f,-1.13161221e-01f,+1.12235127e-02f,
+4.48481664e-02f,+1.86894208e-01f,+4.44887094e-02f,-6.78827763e-02f,-3.51909921e-02f,
+1.76534548e-01f,+1.76372990e-01f,-7.50196502e-02f,+4.17459384e-02f,+1.27148911e-01f,
+1.62171468e-01f,+6.05236180e-02f,-1.26402248e-02f,+9.10644010e-02f,+4.83082756e-02f,
+5.02679013e-02f,+1.36287004e-01f,+1.39893785e-01f,-1.54501824e-02f,-3.20748277e-02f,
+1.18412323e-01f,+2.32914612e-02f,+1.58074666e-02f,+3.32705714e-02f,-8.82328376e-02f,
+3.42277698e-02f,+8.54597166e-02f,+1.21507816e-01f,+1.74939200e-01f,-4.02815044e-02f,
+1.35188252e-01f,-7.65535384e-02f,+1.03525549e-01f,+5.21547645e-02f,+2.84393936e-01f,
+3.01534757e-02f,+9.36542004e-02f,+7.63398642e-03f,+5.00053018e-02f,+6.69772774e-02f,
+2.18863972e-02f,-6.89909980e-02f,+1.06166877e-01f,+1.37052283e-01f,+1.28871396e-01f,
+3.42719369e-02f,+5.51946647e-02f,+1.23630606e-01f,+1.59791216e-01f,+1.10856093e-01f,
-1.03182271e-01f,+1.07797958e-01f,+4.24446352e-02f,+1.75172731e-01f,+1.47317827e-01f,
-5.11132693e-03f,+1.79249968e-03f,-1.96514994e-01f,+1.37603402e-01f,+8.06564018e-02f,
-5.14664873e-02f,+4.02962327e-01f,+1.10310204e-01f,+1.79958884e-02f,-9.13939327e-02f,
+2.45108992e-01f,-4.93910648e-02f,+3.88567871e-03f,+1.87973026e-02f,-5.96160851e-02f,
+2.24716902e-01f,+1.69034826e-03f,+8.14469345e-03f,+1.92924701e-02f,+1.45396575e-01f,
-5.18441275e-02f,-1.07613869e-01f,+8.19227621e-02f,-9.82806310e-02f,-2.04904680e-03f,
-3.74898538e-02f,-6.15325049e-02f,+1.22369535e-01f,+1.20511830e-01f,+2.13218294e-02f,
+5.18417694e-02f,+1.45438790e-01f,-2.42970511e-02f,+1.19412974e-01f,+1.20300502e-01f,
+2.44579524e-01f,-7.05850660e-04f,-1.68837663e-02f,+1.48696780e-01f,+1.13652147e-01f,
+1.98638812e-01f,+1.26665831e-01f,+2.02474728e-01f,+9.26947743e-02f,-1.29541844e-01f,
+1.32546693e-01f,+8.02812912e-03f,+1.56159177e-01f,+1.05729297e-01f,+7.31279179e-02f,
+2.15864107e-01f,+8.75352472e-02f,+3.33035052e-01f,-3.08749080e-02f,-4.13865373e-02f,
+1.42066002e-01f,-4.24758606e-02f,+3.56617495e-02f,-1.21915117e-01f,+3.39363515e-02f,
+1.91441134e-01f,+5.33170812e-02f,-3.74816847e-03f,+1.52751893e-01f,-2.80470047e-02f,
-5.33371195e-02f,+4.07419391e-02f,+2.23947838e-02f,-9.73268226e-03f,+2.47021884e-01f,
-2.62652010e-01f,+1.35231510e-01f,+2.16503710e-01f,+1.46064848e-01f,-7.74688423e-02f,
+8.43515247e-02f,-1.66427568e-02f,+1.40903339e-01f,-4.83879223e-02f,-4.21295688e-02f,
+3.30581702e-02f,+5.50573841e-02f,+1.44399479e-01f,+1.36857852e-01f,+7.99522847e-02f,
+8.07403307e-03f,+7.32086524e-02f,+1.95663795e-01f,+2.93058828e-02f,+2.37824395e-01f,
-5.06459922e-02f,+5.95421717e-02f,+1.34384677e-01f,-8.07058625e-03f,+5.87521680e-02f,
+1.46290899e-04f,-4.77002040e-02f,-8.02404135e-02f,+1.65774271e-01f,-5.35368826e-03f,
+1.36165753e-01f,-1.30177826e-01f,+1.13803588e-01f,-4.74265851e-02f,+1.63736731e-01f,
+1.12175003e-01f,+1.10728135e-02f,+2.73550022e-03f,+7.00897574e-02f,+2.20730633e-01f,
+1.56299055e-01f,+1.86771363e-01f,+9.38093811e-02f,+1.43328398e-01f,+9.03151333e-02f,
+6.65416867e-02f,+4.39103432e-02f,-2.30557155e-02f,+6.93769008e-02f,+5.22698872e-02f,
+2.44310256e-02f,+2.86228269e-01f,-4.32874169e-03f,+9.21290070e-02f,+1.87526673e-01f,
-1.33608943e-02f,+6.89637512e-02f,+1.72878265e-01f,-3.17046732e-01f,-4.49024029e-02f,
-2.11506542e-02f,+1.54719934e-01f,+2.20104977e-01f,+1.62805736e-01f,+1.83165371e-01f,
+1.12798512e-02f,+2.64702532e-02f,+3.34344059e-02f,+1.10516600e-01f,-1.71875544e-02f,
-1.32277729e-02f,+2.20035128e-02f,+8.36212412e-02f,-2.29215384e-01f,+1.84109688e-01f,
+5.14703095e-02f,-2.69972265e-01f,+2.78846443e-01f,+3.04648373e-02f,+1.60478085e-01f,
+9.68769938e-02f,+4.24561612e-02f,+7.64536113e-02f,-4.12237905e-02f,+1.88607484e-01f,
-4.71498221e-02f,+1.08095586e-01f,+1.42524466e-01f,+1.23582996e-01f,+3.52126732e-02f,
+8.31850246e-02f,+1.87071666e-01f,+1.98038235e-01f,+1.30045384e-01f,+1.87992051e-01f,
-8.86614025e-02f,+6.79581091e-02f,+2.29417123e-02f,-6.82897046e-02f,+7.99122676e-02f,
+3.09600625e-02f,+7.35634714e-02f,+2.00966015e-01f,+6.50458038e-02f,-4.77706129e-03f,
+8.30268338e-02f,+1.13267414e-01f,-4.58339266e-02f,+1.44334342e-02f,-2.73473701e-03f,
+5.10996506e-02f,+9.60794762e-02f,+2.51629092e-02f,+7.12635461e-03f,+4.84892912e-03f,
+2.60745883e-02f,-3.20715010e-02f,-2.41723023e-02f,-7.65159577e-02f,+1.75328970e-01f,
+8.46669450e-03f,+1.92248523e-01f,+2.94522531e-02f,+1.61388740e-02f,+1.67534605e-01f,
+1.51547015e-01f,+8.40505734e-02f,+4.78177220e-02f,-3.36587168e-02f,+1.15662888e-01f,
-7.41647556e-02f,+2.19999447e-01f,+5.88391311e-02f,-9.03234184e-02f,-4.03579697e-02f,
-1.44012660e-01f,+5.54527864e-02f,-1.31111662e-03f,+1.64926693e-01f,+1.55378714e-01f,
+2.97879964e-01f,+2.10515410e-02f,-4.21223491e-02f,+1.08361281e-02f,+7.76394904e-02f,
+1.00160398e-01f,+5.13492748e-02f,+7.16482326e-02f,+1.12686902e-02f,+8.64015147e-02f,
+1.49901167e-01f,+3.20249870e-02f,+8.39431733e-02f,+2.80247610e-02f,+9.24401283e-02f,
+9.21922773e-02f,+3.55920702e-01f,+2.81185899e-02f,+1.87571421e-01f,+1.10614777e-01f,
+1.38575152e-01f,+7.84875378e-02f,-5.26255171e-04f,+3.04876655e-01f,+1.27499536e-01f,
-6.28162324e-02f,+1.61581159e-01f,+1.80019870e-01f,+4.39783819e-02f,+1.28296793e-01f,
-3.45678777e-02f,+7.08028078e-02f,+6.39578030e-02f,+9.17213410e-02f,+1.96435377e-02f,
+1.99988291e-01f,-6.27634525e-02f,-9.88705456e-03f,+8.10374692e-02f,+1.00456767e-01f,
+1.40744418e-01f,+4.36988808e-02f,+7.67981112e-02f,+5.47995716e-02f,+6.06898814e-02f,
-1.41428988e-02f,-2.98221588e-01f,+1.60413951e-01f,+3.27401496e-02f,+7.07963258e-02f,
+1.06541507e-01f,+2.78354824e-01f,+2.20460668e-01f,+1.12839669e-01f,-1.74007099e-02f,
+1.18571393e-01f,-1.70259718e-02f,+1.00049429e-01f,+1.32501885e-01f,+6.76197857e-02f,
+2.29566127e-01f,+8.99838880e-02f,+2.01093182e-01f,+7.34786689e-02f,+1.13701247e-01f,
-4.37452719e-02f,+4.61497977e-02f,+1.17430791e-01f,-6.38847128e-02f,-1.50190191e-02f,
+2.54042596e-01f,-5.20521887e-02f,-2.65723616e-02f,+1.37596112e-02f,+4.01113741e-02f,
+4.15379293e-02f,+9.96779725e-02f,+1.61050037e-01f,+1.18620448e-01f,-4.45805863e-03f,
+1.23502456e-01f,-7.40097323e-03f,+1.15207829e-01f,+1.53927341e-01f,+3.32486741e-02f,
+1.77930713e-01f,+1.47817194e-01f,+4.41261334e-03f,+7.50436038e-02f,+1.11649603e-01f,
+1.04581630e-02f,-7.85850659e-02f,+8.78251940e-02f,+1.94712449e-02f,-7.76815340e-02f,
+2.28068754e-02f,+1.49447739e-01f,+3.29814181e-02f,+4.59663533e-02f,+5.04382439e-02f,
+1.60434246e-01f,+8.56274217e-02f,+3.52921709e-02f,+6.43463712e-03f,+1.09138906e-01f,
-3.66983786e-02f,-1.91818289e-02f,+8.09651166e-02f,+1.24801204e-01f,+1.40000507e-01f,
-4.43143323e-02f,+2.21968554e-02f,+1.39427394e-01f,+1.23513199e-01f,+4.78893667e-02f,
+8.20342675e-02f,+8.55712295e-02f,-1.39350053e-02f,+1.52647689e-01f,+8.07757080e-02f,
-2.52499610e-01f,+6.65510027e-03f,+7.72483200e-02f,+1.39961928e-01f,+8.07768777e-02f,
+6.87581450e-02f,+1.50229305e-01f,+8.91075954e-02f,+1.72196344e-01f,-3.34981292e-01f,
+2.54478693e-01f,+1.26952454e-01f,-2.11463086e-02f,-5.19150831e-02f,+1.26091540e-01f,
+6.95414841e-02f,+2.68240958e-01f,+6.40710667e-02f,+1.96027793e-02f,+2.00739339e-01f,
+6.45052865e-02f,+1.42712165e-02f,+9.72132087e-02f,+1.95190553e-02f,+1.17315829e-01f,
-1.24119325e-02f,+4.86883782e-02f,+3.42515782e-02f,+5.34464605e-02f,+7.79947452e-03f,
+2.27053747e-01f,+2.71630317e-01f,+6.41169399e-02f,+1.37055451e-02f,+6.38976470e-02f,
+1.18282877e-01f,+2.28915632e-01f,+3.49064991e-02f,+2.17725128e-01f,-3.11935872e-01f,
+1.09191172e-01f,+4.39039543e-02f,+7.42069557e-02f,+1.48542076e-01f,+6.32716715e-02f,
+4.95895520e-02f,+8.03547651e-02f,+1.05191194e-01f,+1.54341996e-01f,+1.02282166e-01f,
+1.45611838e-01f,+5.81309907e-02f,+2.03959838e-01f,+3.66565324e-02f,+1.62852257e-01f,
-3.95571701e-02f,+1.33536905e-01f,+1.99154727e-02f,-3.89137417e-02f,+1.00192703e-01f,
+5.45232184e-03f,+4.41391803e-02f,+2.36021727e-01f,+2.78997421e-01f,-8.90313089e-02f,
+1.73666194e-01f,+1.35886550e-01f,+6.84037432e-02f,+5.29835485e-02f,-1.03370398e-02f,
-2.27097407e-01f,-2.02048011e-02f,-1.07361458e-01f,+5.68069518e-02f,+7.64891729e-02f,
-8.75790790e-02f,-7.72280321e-02f,+8.74360725e-02f,+1.51073024e-01f,+1.10232979e-01f,
-8.26746784e-03f,+2.57554315e-02f,+2.20874205e-01f,-7.83794224e-02f,+4.94048558e-02f,
+2.07093567e-01f,-3.03660929e-02f,+1.57655299e-01f,+8.38369280e-02f,+1.53917879e-01f,
+3.59086618e-02f,+2.72088915e-01f,+6.47076517e-02f,+8.98962915e-02f,+3.44653428e-02f,
+1.52386427e-01f,-1.21757537e-01f,-1.40501931e-01f,+1.18507266e-01f,+8.43171105e-02f,
-1.89964306e-02f,+1.49231821e-01f,+4.83351722e-02f,+2.71849451e-03f,+3.49924937e-02f,
+9.97287035e-02f,+2.89903045e-01f,+1.85710751e-02f,+2.84775179e-02f,+5.01365699e-02f,
+2.47799270e-02f,+1.77756250e-01f,-6.40468672e-02f,+8.17989036e-02f,+5.49114272e-02f,
+1.29787862e-01f,+2.72929907e-01f,+1.20352879e-01f,+1.41950965e-01f,+1.28428191e-01f,
-1.22986278e-02f,+5.39181083e-02f,+8.41645338e-03f,+2.24822536e-01f,+1.95697308e-01f,
+9.77400616e-02f,+9.62240249e-02f,-6.46353066e-02f,+2.07346410e-01f,+4.83416915e-02f,
-2.56064177e-01f,+1.00296661e-01f,+1.43896088e-01f,+1.33206263e-01f,+2.58888483e-01f,
-2.24943310e-02f,-6.35319650e-02f,+1.18879229e-01f,-4.26004343e-02f,+7.09916949e-02f,
-3.09578492e-03f,+1.16347685e-01f,-2.63771210e-02f,-1.82331696e-01f,+2.64120579e-01f,
+8.71623009e-02f,+6.37192726e-02f,+4.89141308e-02f,+1.88279629e-01f,+8.67546722e-02f,
+1.06618486e-01f,+3.90784815e-02f,+2.03546621e-02f,+1.66809395e-01f,+1.20981157e-01f,
+3.61661911e-02f,+5.52841052e-02f,+1.17756806e-01f,+1.58798143e-01f,+2.82769501e-01f,
+1.30675435e-01f,+8.71268287e-02f,+1.77939177e-01f,-6.50929064e-02f,+6.01185560e-02f,
-1.01146795e-01f,-2.02719239e-03f,-2.11620256e-02f,+2.22271055e-01f,+1.61750130e-02f,
+1.03332058e-01f,+2.19093170e-02f,+9.10139382e-02f,+2.78361440e-01f,+1.92675501e-01f,
-1.75232720e-02f,+7.42020160e-02f,+6.86752647e-02f,+1.56634096e-02f,+1.60012588e-01f,
+2.86846627e-02f,+4.53693867e-02f,-4.85683307e-02f,+1.45641014e-01f,+1.59163512e-02f,
-1.98704507e-02f,+2.20142186e-01f,+9.73660275e-02f,+3.00884724e-01f,+1.00321606e-01f,
+1.05751917e-01f,+1.17172673e-01f,+9.95196775e-02f,+3.17421824e-01f,+1.64391577e-01f,
+1.20321810e-01f,+1.87888727e-01f,+2.74529546e-01f,+2.26874594e-02f,+7.53360167e-02f,
-5.32593243e-02f,+2.48673350e-01f,+7.32911006e-02f,+7.60315582e-02f,+2.48209268e-01f,
+5.34281023e-02f,+9.23328549e-02f,+8.90384614e-02f,+2.09603608e-01f,+1.13268055e-01f,
+8.86309370e-02f,+4.50281017e-02f,+1.98680237e-01f,+1.56061977e-01f,+1.26843572e-01f,
-5.33086360e-02f,+6.37934655e-02f,-4.23878282e-02f,+2.88281828e-01f,+1.31241366e-01f,
+1.73843980e-01f,+8.65421891e-02f,+1.02625959e-01f,+2.69990861e-02f,+9.18420181e-02f,
+5.64983115e-02f,+2.27488995e-01f,+1.50898248e-01f,+4.25852314e-02f,+3.81709309e-03f,
+1.18534289e-01f,+1.63052574e-01f,+2.46696204e-01f,+3.10355071e-02f,+1.59435123e-01f,
+2.24922180e-01f,+4.91394959e-02f,+1.12557158e-01f,+1.32092074e-01f,+3.21646065e-01f,
-3.26075852e-02f,+9.06741470e-02f,+7.04897791e-02f,-2.64617026e-01f,+4.50472422e-02f,
-1.65487021e-01f,+1.13223009e-02f,+2.51448512e-01f,+6.37220666e-02f,-9.59272236e-02f,
+7.52941146e-02f,+1.44449919e-01f,-4.07338925e-02f,+6.33975565e-02f,+1.67247742e-01f,
+1.72078744e-01f,+7.41941929e-02f,+2.08503455e-02f,+1.69439226e-01f,+2.11115763e-01f,
+1.36267006e-01f,+1.55359238e-01f,+9.01121274e-02f,+2.34733030e-01f,+9.30515751e-02f,
-1.47785014e-02f,+1.62439331e-01f,+1.46205842e-01f,+1.24277256e-01f,+1.20418385e-01f,
+1.87229753e-01f,+3.43495965e-01f,+1.12584710e-01f,+1.06729008e-01f,+1.39498368e-01f,
+6.37787431e-02f,+1.41764119e-01f,-3.61919776e-03f,-6.08135313e-02f,+1.05518423e-01f,
-2.11683977e-02f,+1.33789003e-01f,+2.66083274e-02f,+1.23694651e-01f,+1.07119173e-01f,
+6.30079359e-02f,+1.02785036e-01f,-6.98990673e-02f,+1.97226591e-02f,+2.08578274e-01f,
+1.17454782e-01f,+9.11817774e-02f,+1.90188423e-01f,+1.93120137e-01f,-5.34619838e-02f,
+2.60167252e-02f,+1.41033038e-01f,+2.43495762e-01f,-1.46299511e-01f,+3.81520800e-02f,
+7.97648579e-02f,+1.01291329e-01f,+3.82297784e-02f,+1.68483751e-03f,-1.07126340e-01f,
-2.12290913e-01f,-7.57652894e-02f,+1.05581693e-01f,-2.98500359e-01f,+7.15899765e-02f,
+2.58417092e-02f,+6.00827299e-02f,-9.96633396e-02f,+7.54410028e-02f,+1.45178601e-01f,
-6.45622313e-02f,+9.04450119e-02f,+1.21939257e-01f,+5.44990078e-02f,+4.45893183e-02f,
+1.67231932e-01f,+1.17670342e-01f,+1.52467325e-01f,+2.72689104e-01f,+6.07524291e-02f,
-3.76308076e-02f,+8.91844779e-02f,+1.41992299e-02f,+1.99973628e-01f,-1.33525461e-01f,
+2.03200489e-01f,-7.05071688e-02f,+1.15283914e-01f,-3.17387506e-02f,+1.96817033e-02f,
+9.33944061e-02f,+5.77828810e-02f,+4.68941331e-02f,+4.31644917e-02f,-4.11131866e-02f,
+8.47844258e-02f,-1.20629661e-01f,+1.72143042e-01f,+1.54802144e-01f,-6.58385307e-02f,
+7.50974417e-02f,+2.72306018e-02f,+5.07755168e-02f,+2.05727801e-01f,+4.77868207e-02f,
+1.46135226e-01f,+4.90065999e-02f,+6.37518615e-02f,+1.58266723e-01f,+2.02774797e-02f,
+7.07641765e-02f,+3.83679643e-02f,+1.26899183e-01f,-1.03360228e-02f,+1.03769459e-01f,
+2.21640378e-01f,+5.67314699e-02f,+6.96919188e-02f,+4.83909510e-02f,+1.81631133e-01f,
+2.03392625e-01f,+2.11670354e-01f,+1.21755838e-01f,+9.75400433e-02f,+2.25319162e-01f,
+1.52999863e-01f,+7.76969120e-02f,+7.79922903e-02f,+3.50929648e-02f,+1.01340860e-01f,
+2.51985993e-02f,-3.32548708e-01f,+1.19750820e-01f,+3.86072159e-01f,+7.70400390e-02f,
+1.23950869e-01f,-2.19061151e-02f,+6.51797652e-02f,+1.33449314e-02f,-1.47300526e-01f,
+3.51628708e-03f,+1.16953766e-02f,-7.93044493e-02f,+2.76837438e-01f,+6.37599379e-02f,
-4.35164794e-02f,+3.57535407e-02f,+8.01912248e-02f,+3.54755521e-02f,-5.62197268e-02f,
+1.43393099e-01f,-3.10963690e-02f,+5.31051606e-02f,+2.02141166e-01f,+1.44903645e-01f,
-5.84221929e-02f,+1.52316289e-02f,+8.35795328e-02f,+1.16062641e-01f,-1.68800578e-02f,
+1.18742073e-02f,-3.38425845e-01f,-8.51738974e-02f,-7.90778548e-02f,-8.01635385e-02f,
-4.52982895e-02f,-7.13353651e-03f,-1.57519244e-02f,+6.48035258e-02f,+3.49727087e-02f,
+1.14993356e-01f,+3.89596596e-02f,-1.26036368e-02f,+6.61905156e-04f,+1.53737053e-01f,
+2.92833984e-01f,+6.47606999e-02f,+1.78829074e-01f,+2.00248346e-01f,-4.55146693e-02f,
-5.81473559e-02f,+2.02310696e-01f,-1.08623780e-01f,+2.25830927e-01f,-1.04827406e-02f,
-4.97473627e-02f,-4.13830355e-02f,-3.35352123e-01f,-1.91499460e-02f,-7.53288642e-02f,
+3.22940387e-03f,+1.23935767e-01f,+4.74356534e-03f,+1.06301986e-01f,+3.32313403e-02f,
-3.66975032e-02f,+2.82983035e-02f,-5.72208650e-02f,-1.32334709e-01f,+2.44283676e-02f,
-3.16180736e-02f,+4.45119478e-02f,+1.64786160e-01f,-2.49057151e-02f,-8.59632716e-02f,
+1.73044980e-01f,+3.46372753e-01f,+7.92995691e-02f,+2.37728655e-02f,+1.76110547e-02f,
-6.17247969e-02f,+1.96355060e-01f,-8.19556564e-02f,-1.17690563e-01f,+5.04675470e-02f,
+2.27803543e-01f,-1.64160222e-01f,+4.52237397e-01f,+1.81324661e-01f,+2.65987553e-02f,
-1.57237038e-01f,+9.43913907e-02f,-1.21418787e-02f,-5.76102324e-02f,+6.06690533e-02f,
+1.19278915e-01f,-1.84858553e-02f,-6.04424477e-02f,+1.18286513e-01f,-8.79403949e-02f,
+8.21357220e-02f,+2.07520008e-01f,-5.01670428e-02f,+1.16332993e-01f,+8.08331594e-02f,
+1.83199532e-02f,-1.39000908e-01f,-9.38389376e-02f,+1.18811041e-01f,+4.22300249e-01f,
+4.55914848e-02f,-6.80485889e-02f,+1.98415920e-01f,-1.32291034e-01f,+5.15294671e-02f,
-1.00509450e-01f,-1.74742594e-01f,+1.27848625e-01f,-3.08246091e-02f,+1.22876190e-01f,
-7.89870620e-02f,+1.83923796e-01f,-6.11048490e-02f,+7.36603839e-03f,+1.50897399e-01f,
+7.56747276e-03f,-9.55944732e-02f,+1.73483610e-01f,-7.47752413e-02f,+1.06256388e-01f,
+6.90281093e-02f,+3.31730634e-01f,-9.47478786e-02f,+2.44938768e-02f,-9.56305563e-02f,
-1.69831321e-01f,+1.60401866e-01f,+1.74216285e-01f,+4.47199028e-03f,-1.19111024e-01f,
+5.16047813e-02f,+1.85024709e-01f,+1.70676820e-02f,-1.01265544e-02f,-9.86100361e-02f,
+5.61276153e-02f,-3.12685184e-02f,+5.08734249e-02f,+1.61283836e-01f,+1.35249361e-01f,
-6.12542555e-02f,-7.06046005e-04f,-8.75370428e-02f,-5.50219901e-02f,+4.33536880e-02f,
+3.51716615e-02f,-8.98504406e-02f,-5.89674897e-02f,-6.97372407e-02f,+1.39181927e-01f,
-6.42523170e-02f,-1.02865078e-01f,+1.83127508e-01f,+1.32604033e-01f,+1.77694727e-02f,
+1.86435550e-01f,+2.27459148e-01f,+8.14558491e-02f,-4.99101840e-02f,-4.59930189e-02f,
+7.42921680e-02f,-1.53993547e-01f,+1.92950889e-01f,+9.18738768e-02f,+4.61180918e-02f,
+8.33738968e-02f,+4.97845486e-02f,+1.77429523e-02f,+1.27309188e-01f,-3.32052186e-02f,
+2.29254793e-02f,+5.05907414e-03f,+2.38081664e-01f,+2.70521082e-02f,-1.36956170e-01f,
+7.72713572e-02f,+1.30989000e-01f,-2.94532835e-01f,+2.61600912e-02f,+3.06517649e-02f,
-1.37165040e-01f,+7.30679408e-02f,-8.13400894e-02f,-1.02852195e-04f,-2.29084500e-04f,
+2.06238255e-02f,-7.26232156e-02f,+1.28284782e-01f,+1.81033880e-01f,+9.46292505e-02f,
-6.39826879e-02f,+1.95062924e-02f,+1.24347664e-01f,-1.75421685e-01f,-3.74425128e-02f,
-1.62077412e-01f,-3.38768354e-04f,+6.61014169e-02f,-5.10269254e-02f,+9.93246585e-02f,
+7.07471669e-02f,+6.64856732e-02f,-1.13295101e-01f,+7.61964619e-02f,+1.06043585e-01f,
-9.00882948e-03f,+1.44015504e-02f,+7.68054202e-02f,+1.11589305e-01f,+8.23660940e-02f,
-1.03762500e-01f,-1.07059292e-01f,+1.32285170e-02f,+2.44143754e-01f,-5.29466569e-02f,
+9.09095258e-03f,+1.04119554e-01f,+1.22674264e-01f,-6.26151077e-03f,+6.41275570e-03f,
+1.04166716e-01f,-7.54708648e-02f,-4.66670990e-02f,+7.28663057e-02f,+9.16937143e-02f,
+5.92896715e-02f,-1.16068006e-01f,-6.47571161e-02f,-2.56721452e-02f,+2.91597635e-01f,
-4.94851917e-02f,-3.08599532e-01f,-6.02989271e-02f,-1.20404914e-01f,+6.27614930e-02f,
+2.91449457e-01f,-1.26822265e-02f,-1.70395747e-01f,-2.96033263e-01f,+6.95259199e-02f,
+2.49798577e-02f,-6.93841279e-02f,+1.16488680e-01f,+9.31840837e-02f,-1.74736768e-01f,
+3.30825210e-01f,-6.44948408e-02f,+1.12297595e-01f,-8.80120769e-02f,+9.96669903e-02f,
-2.86907405e-02f,+3.09488356e-01f,+8.69344100e-02f,-6.17031269e-02f,-2.57181644e-01f,
+2.30394274e-01f,+1.57351628e-01f,+1.32296942e-02f,+1.44184917e-01f,+1.67865440e-01f,
-5.57622761e-02f,+5.86113660e-03f,-5.21660782e-02f,-3.53048258e-02f,+5.10382354e-02f,
-3.59587464e-03f,+3.26645747e-02f,-1.78152442e-01f,+2.19927039e-02f,+8.37115273e-02f,
+2.70617515e-01f,-4.76044565e-02f,+3.45194668e-01f,-4.69145775e-02f,-1.39583454e-01f,
+1.98082905e-02f,+3.19322534e-02f,+1.15961820e-01f,+1.40583282e-02f,+1.58674315e-01f,
-6.54919958e-03f,-8.51828456e-02f,+2.02852651e-01f,+1.03580333e-01f,+9.37766433e-02f,
-7.23443329e-02f,+5.78010567e-02f,+5.77369370e-02f,+2.33467862e-01f,-7.86902979e-02f,
-5.41323006e-01f,+3.97798931e-03f,-3.84138338e-02f,-3.35199125e-02f,+3.31122160e-01f,
+2.24061653e-01f,+2.88823303e-02f,+2.00524092e-01f,-1.45935878e-01f,+1.29298091e-01f,
+3.03170774e-02f,-9.01619717e-02f,-5.67421131e-02f,-5.79719953e-02f,+8.88983682e-02f,
-1.43476985e-02f,+2.24073455e-01f,-2.67889559e-01f,+2.50909060e-01f,+1.47728428e-01f,
+6.35008365e-02f,-3.64219882e-02f,+1.86264217e-01f,+7.22808465e-02f,+2.15747114e-02f,
-5.36113866e-02f,+1.90482050e-01f,-6.67953417e-02f,+4.60974962e-01f,+1.35711864e-01f,
+1.47932455e-01f,+1.05945446e-01f,-1.00027114e-01f,+1.63815320e-02f,+1.46490932e-01f,
-5.90359233e-02f,+1.71058416e-01f,+2.67792463e-01f,-6.76031709e-02f,+3.20372544e-02f,
-1.01191938e-01f,-6.46643341e-02f,+1.76594019e-01f,-6.52645230e-02f,+2.84053199e-02f,
+7.14665628e-04f,+1.22351520e-01f,+3.69494461e-04f,-9.86624658e-02f,-7.65109388e-03f,
+1.64927378e-01f,+2.75238268e-02f,-2.88657509e-02f,+1.09235846e-01f,+1.19662009e-01f,
-4.09441181e-02f,-1.19486243e-01f,-1.31448801e-03f,+3.02719325e-01f,+1.04779780e-01f,
+9.29689617e-04f,+1.15201034e-01f,+1.26103774e-01f,+7.57833868e-02f,+2.72726268e-01f,
+8.87200832e-02f,+7.74673186e-03f,+1.10367946e-01f,+8.12229291e-02f,-1.23584799e-01f,
-5.38608320e-02f,+1.41493455e-01f,+1.13964707e-01f,+1.54046178e-01f,-6.33630529e-02f,
+1.70718938e-01f,-1.30045533e-01f,-1.10148139e-01f,+3.03763468e-02f,+2.20974684e-01f,
+8.60068202e-02f,-4.26637866e-02f,+1.51986659e-01f,+3.18938978e-02f,+8.27265456e-02f,
+1.76163614e-01f,+2.60801852e-01f,-4.44568582e-02f,+1.39895463e-02f,+1.82224721e-01f,
-1.92189720e-02f,+1.06129758e-01f,+9.85484123e-02f,-7.88434297e-02f,-1.81613117e-01f,
+2.17292234e-02f,+3.57289650e-02f,+2.87799925e-01f,+1.61572844e-01f,-6.35065734e-02f,
+1.28913105e-01f,+1.20464340e-01f,-3.55631746e-02f,+2.21573189e-02f,+1.54095992e-01f,
+2.72928149e-01f,+6.59643635e-02f,+5.02074063e-02f,+1.24773020e-02f,+2.01846920e-02f,
+1.54648364e-01f,+1.20003656e-01f,+1.84472725e-01f,+1.03140660e-01f,-2.24383637e-01f,
-9.74284410e-02f,+1.40949503e-01f,+7.09920302e-02f,-3.76104750e-02f,+7.31890947e-02f,
+3.62694860e-02f,+1.47951348e-02f,+2.07696222e-02f,+5.17774224e-02f,-1.86132640e-02f,
-1.10247545e-02f,+5.09211197e-02f,+6.50122166e-02f,+2.33141482e-02f,+5.83294481e-02f,
+2.57649958e-01f,+1.75693333e-01f,+1.76273048e-01f,+1.55056089e-01f,+2.27384269e-02f,
+7.75008500e-02f,-5.83589524e-02f,+2.62913778e-02f,+1.35906059e-02f,+3.55497301e-02f,
-1.39471218e-01f,+1.14079125e-01f,+3.18187661e-02f,+2.71422230e-02f,+1.76429659e-01f,
+1.03210151e-01f,-1.49418358e-02f,+5.21187559e-02f,+1.74730435e-01f,+7.33215287e-02f,
+2.52578165e-02f,+1.87619388e-01f,+4.52595204e-02f,+1.26646280e-01f,+8.04834366e-02f,
-1.23687148e-01f,+1.30856261e-02f,+1.80777386e-01f,+4.78991866e-02f,+2.45143965e-01f,
+1.81666896e-01f,+1.43476143e-01f,-3.49345803e-02f,+1.65347144e-01f,+2.29202643e-01f,
+4.19986024e-02f,+1.70905113e-01f,-1.32732354e-02f,-4.26169299e-02f,+1.75510511e-01f,
+1.12845749e-01f,+7.64090195e-02f,+8.17913190e-02f,-4.45973799e-02f,+2.35231176e-01f,
+1.35751948e-01f,-5.12464270e-02f,+1.71854198e-01f,+2.27291152e-01f,+7.51470700e-02f,
+1.24141939e-01f,+1.75211787e-01f,-1.46802142e-02f,+3.17525752e-02f,-1.62039250e-01f,
+1.39442191e-01f,-2.20519558e-01f,-3.42592821e-02f,+5.73413819e-03f,-6.42676502e-02f,
-1.63426414e-01f,+1.02569297e-01f,+1.94846764e-01f,+4.92161922e-02f,-7.84583669e-03f,
+1.01491474e-01f,-2.69056886e-01f,-4.68987003e-02f,+1.98242292e-01f,-1.33677423e-01f,
+3.90529148e-02f,+7.00749308e-02f,-1.61932912e-02f,-2.08155066e-02f,+1.48200154e-01f,
-4.37763222e-02f,+1.81440383e-01f,+1.22816883e-01f,-2.68769488e-02f,+3.02106030e-02f,
+1.91258594e-01f,+1.78209931e-01f,-6.43519387e-02f,+1.97594967e-02f,+7.71127567e-02f,
+4.92100790e-02f,-6.73165768e-02f,-7.69276693e-02f,-2.69544512e-01f,+2.10715942e-02f,
+8.65349770e-02f,+1.10013016e-01f,-2.73913592e-02f,+1.24373764e-01f,-7.03794211e-02f,
+4.36392315e-02f,-6.59503043e-02f,+3.02058280e-01f,+8.17683637e-02f,-1.57472700e-01f,
+1.64226785e-01f,+2.15695336e-01f,+9.22668129e-02f,+1.95663139e-01f,+1.11131206e-01f,
+9.67570022e-03f,+1.13978907e-01f,+1.63843423e-01f,-9.95819196e-02f,+1.55837819e-01f,
-6.74584508e-02f,+1.15528740e-02f,+1.71930209e-01f,-6.03719018e-02f,+8.66423994e-02f,
+1.48986913e-02f,-7.07794633e-03f,+1.44317657e-01f,+6.14683814e-02f,-5.51637914e-03f,
-1.72747046e-01f,-1.15864918e-01f,+1.32362485e-01f,+1.69060789e-02f,+8.67122486e-02f,
-7.33997971e-02f,-1.08288657e-02f,+1.38126552e-01f,+4.46352214e-02f,+4.77964990e-02f,
-1.11575529e-01f,+9.47591886e-02f,+8.95820856e-02f,+2.99712159e-02f,-3.18563893e-03f,
-6.87103271e-02f,+3.81355077e-01f,+4.54100333e-02f,+2.58318663e-01f,-1.15280159e-01f,
+2.77433749e-02f,+2.56206244e-02f,+1.25119269e-01f,+1.46217003e-01f,+1.49079368e-01f,
-6.48802370e-02f,-1.73127517e-01f,+1.14155926e-01f,-2.01583549e-01f,+3.15867513e-01f,
+5.46271242e-02f,+1.94719769e-02f,+1.75699070e-01f,+2.46459171e-02f,+2.41212994e-01f,
+1.09722570e-01f,-1.23265170e-01f,+1.45133018e-01f,-3.76826912e-01f,+2.17516124e-01f,
+8.22342560e-02f,+4.03568856e-02f,-2.29956321e-02f,-1.12545028e-01f,-3.16540487e-02f,
+5.15906475e-02f,+1.08865649e-02f,+2.97401305e-02f,-5.74653968e-02f,-1.07905008e-01f,
-1.47708893e-01f,+3.26476470e-02f,+8.27402547e-02f,+8.54432359e-02f,-6.99931532e-02f,
+5.26311509e-02f,+9.52742100e-02f,-3.84457745e-02f,+1.38893634e-01f,+1.11013018e-01f,
+5.49900830e-02f,+2.28514433e-01f,-3.92668769e-02f,+5.57993837e-02f,+7.97465444e-03f,
-5.69088459e-02f,-2.74105556e-02f,+1.26352072e-01f,+4.73551452e-02f,-7.10909953e-03f,
-2.81458292e-02f,+1.29420027e-01f,+2.02226430e-01f,+1.09294020e-01f,-3.15300375e-02f,
-4.31002900e-02f,+2.27846831e-01f,+1.67530417e-01f,+1.34322509e-01f,+2.90127546e-02f,
+1.29412070e-01f,+2.35601086e-02f,+4.58432399e-02f,+1.03822455e-01f,+1.30441666e-01f,
+2.83881009e-01f,+5.82601577e-02f,+1.37547895e-01f,+5.04541583e-02f,+1.27309695e-01f,
+1.38911828e-01f,+1.15229771e-01f,-1.64369985e-01f,+1.93677947e-01f,+1.28901511e-01f,
+1.27116889e-02f,-1.02389872e-01f,+7.21913800e-02f,-4.60912623e-02f,-9.54632536e-02f,
-4.66294065e-02f,+1.96499988e-01f,-6.42438531e-02f,+4.19739261e-02f,+1.41769379e-01f,
+1.59244999e-01f,+2.21919212e-02f,+1.91991165e-01f,-3.37867136e-03f,-1.73819080e-01f,
+6.68834150e-02f,+5.60241528e-02f,+1.03940561e-01f,+1.23920523e-01f,+6.90601617e-02f,
+4.46658581e-02f,+2.10127775e-02f,+2.61019498e-01f,+1.15785867e-01f,+2.85065413e-01f,
+3.17967422e-02f,-2.56279111e-02f,+1.62207991e-01f,+7.54598854e-03f,+1.07335865e-01f,
-1.45673811e-01f,+1.76150966e-02f,+4.21802215e-02f,+1.65387407e-01f,+1.52361274e-01f,
+3.59398723e-01f,+6.45795166e-02f,+8.56697038e-02f,+1.00525327e-01f,-4.38823998e-02f,
-7.15429187e-02f,-4.48901616e-02f,+8.17405805e-02f,-6.78339303e-02f,-1.05908606e-02f,
+1.06371567e-01f,+1.57570988e-01f,+6.82710484e-02f,-2.82213208e-03f,+1.25045478e-01f,
+2.37176120e-02f,+6.45413250e-02f,+1.91939175e-02f,-2.08896082e-02f,+1.17119350e-01f,
+1.44875407e-01f,+1.17513910e-01f,+2.17628464e-01f,-4.62490916e-02f,+7.09104910e-02f,
+1.22303292e-01f,-4.25001234e-02f,-2.61709131e-02f,-8.94830078e-02f,-6.66978071e-03f,
-1.84248984e-02f,+5.44824414e-02f,+4.02949452e-02f,-9.15867835e-02f,-1.80075884e-01f,
+9.96031612e-03f,+1.11399978e-01f,-2.52223536e-02f,+2.34084167e-02f,-3.00209560e-02f,
-1.62523866e-01f,+9.78365093e-02f,-2.82156561e-02f,+1.22833466e-02f,+2.25425720e-01f,
+5.07274307e-02f,+5.80467377e-03f,+1.51730016e-01f,-5.63292541e-02f,-3.17765474e-02f,
+4.57408093e-02f,-3.16330679e-02f,+1.67090878e-01f,+1.44926444e-01f,+7.41627961e-02f,
-2.05184072e-01f,+1.45166442e-01f,+5.18108159e-02f,+1.52811650e-02f,+1.28881827e-01f,
+2.49446243e-01f,+2.54178375e-01f,+1.22051261e-01f,+4.29407470e-02f,+7.66100595e-03f,
+1.17231660e-01f,+7.81029612e-02f,+1.23271838e-01f,+1.19136266e-01f,+4.15244140e-02f,
-2.38392398e-01f,+3.92062254e-02f,+3.07601225e-02f,+1.07179746e-01f,-2.88305953e-02f,
-2.15455405e-02f,-1.33419767e-01f,+2.22708777e-01f,-2.68956032e-02f,-8.82020406e-03f,
+1.66645035e-01f,-6.34503737e-02f,+2.04097241e-01f,+1.53888822e-01f,+1.68712944e-01f,
+3.79435942e-02f,+2.64248084e-02f,-2.96588242e-02f,-2.47174576e-02f,+3.97940092e-02f,
+2.04206314e-02f,-7.04430416e-02f,+2.43961126e-01f,+1.48781203e-02f,+1.14662789e-01f,
+1.22518472e-01f,+1.94207039e-02f,+9.35987756e-03f,+3.85800079e-02f,+2.62505472e-01f,
+8.64053592e-02f,+1.01697922e-01f,+2.05898002e-01f,+6.44467324e-02f,+6.57803193e-02f,
+1.19412042e-01f,+1.09614156e-01f,-1.76185928e-02f,+1.18661948e-01f,-6.06405502e-03f,
+3.18018757e-02f,+5.49568562e-04f,+1.62602916e-01f,-3.11739021e-03f,-1.93290025e-01f,
+6.76952600e-02f,+5.32364249e-02f,+8.93088430e-02f,+1.21067606e-01f,+8.16834569e-02f,
-8.29848200e-02f,+1.67625956e-02f,+1.56574659e-02f,+1.82402655e-01f,+1.17321193e-01f,
+6.23799190e-02f,+4.34735343e-02f,+1.52028408e-02f,+5.76779246e-02f,-5.37973121e-02f,
+7.65624791e-02f,+1.20084815e-01f,+8.78511295e-02f,+4.07962129e-02f,+1.11623913e-01f,
-3.50816622e-02f,+1.75443605e-01f,+2.27143258e-01f,-3.65607515e-02f,+1.43669501e-01f,
+5.05455770e-03f,-6.56258017e-02f,+9.52023342e-02f,+5.11455871e-02f,-1.79409143e-02f,
+9.68706608e-02f,+9.08123329e-02f,-7.30148777e-02f,-8.74213001e-04f,-1.25911221e-01f,
+2.43717313e-01f,+8.22340548e-02f,+1.22568741e-01f,+3.38519588e-02f,-1.14822395e-01f,
+1.48981074e-02f,-1.55975804e-01f,-1.72077231e-02f,+2.58474648e-02f,+9.74867791e-02f,
+1.98899403e-01f,+9.62089077e-02f,+1.59259513e-01f,+1.61607742e-01f,+3.36064841e-03f,
+9.60759893e-02f,+1.85648710e-01f,-4.18824144e-02f,+1.37301907e-01f,+1.40410095e-01f,
-2.13577431e-02f,+2.46440899e-02f,+1.10834457e-01f,+2.99168900e-02f,+2.78263748e-01f,
-6.58773258e-03f,+1.46181816e-02f,+1.55639932e-01f,+1.51283756e-01f,+8.77556950e-02f,
-1.56279933e-02f,-2.80829407e-02f,+5.02781570e-02f,+5.37119843e-02f,-1.01013921e-01f,
+1.03073195e-02f,+1.02136903e-01f,-9.86703299e-03f,-2.38614306e-02f,+5.37513234e-02f,
+4.99648117e-02f,-1.40515612e-02f,+1.37219071e-01f,+4.78901751e-02f,+5.07875308e-02f,
+6.13018796e-02f,-4.89026913e-03f,+5.79431616e-02f,+1.14791334e-01f,+1.53876603e-01f,
-1.07118450e-01f,+6.31465241e-02f,-5.92631921e-02f,+6.73588961e-02f,+7.67584071e-02f,
+5.15589081e-02f,-3.88092026e-02f,+1.32917017e-01f,+9.14499313e-02f,+2.98849829e-02f,
+2.02757239e-01f,+1.69328138e-01f,-1.56964585e-02f,-2.92684957e-02f,+7.33225420e-02f,
+4.03858535e-02f,+1.27712086e-01f,+2.02836600e-04f,+1.29331453e-02f,+1.09541193e-01f,
+2.25465707e-02f,+1.24429829e-01f,+2.72781283e-01f,+1.40608415e-01f,-1.57671608e-02f,
-4.90669496e-02f,-2.13440079e-02f,+8.87346193e-02f,-5.34423552e-02f,+4.97495681e-02f,
+8.90950114e-02f,+7.17274621e-02f,+1.07071608e-01f,+2.08331347e-02f,+1.23586599e-02f,
+7.75156617e-02f,+8.30461532e-02f,-1.70902982e-02f,+3.67665254e-02f,-3.56178824e-03f,
+7.44525194e-02f,+9.63919610e-02f,+1.26307294e-01f,+2.52609700e-02f,-6.54942244e-02f,
+7.79967532e-02f,+1.13651335e-01f,+1.68508723e-01f,+1.77696213e-01f,+2.03201678e-02f,
+3.13830115e-02f,+1.16928570e-01f,+1.05562210e-01f,-4.86485008e-03f,+7.24322498e-02f,
+4.75393012e-02f,+2.88751163e-03f,+1.47029981e-01f,+1.53325349e-01f,+4.43459004e-02f,
+3.28524970e-02f,+1.07894205e-01f,+5.60882464e-02f,+9.52709317e-02f,+5.29304007e-03f,
-2.73009520e-02f,+1.64021999e-01f,+2.44958308e-02f,+6.76805228e-02f,-7.64624327e-02f,
+4.10690196e-02f,+1.19066209e-01f,+7.73463175e-02f,+1.18708074e-01f,+7.98217952e-02f,
+1.54580280e-01f,+3.88061516e-02f,+3.31875980e-02f,+1.31294608e-01f,-7.74251893e-02f,
+1.00087658e-01f,+2.57965233e-02f,+7.34361559e-02f,-3.68692577e-02f,+1.10525079e-01f,
+8.58245641e-02f,-8.50686803e-02f,+7.83253312e-02f,+9.52065885e-02f,+1.50613636e-01f,
+1.33174822e-01f,+3.51915956e-02f,+7.40787983e-02f,+3.04180160e-02f,+2.46448666e-02f,
+2.33664270e-02f,-1.29877165e-01f,+4.89667840e-02f,+1.62624929e-03f,-1.65091418e-02f,
+1.60907418e-01f,+1.81358859e-01f,+1.47770688e-01f,+1.79393962e-01f,+1.51176304e-01f,
+1.12845480e-01f,+9.40293968e-02f,-1.28059432e-01f,-7.84859359e-02f,-3.55458036e-02f,
+9.88484994e-02f,-7.24427626e-02f,+8.57738778e-02f,-1.21070452e-01f,+2.17389185e-02f,
+1.26923487e-01f,-3.05141602e-02f,-4.78791259e-02f,+1.91850844e-03f,+9.65006799e-02f,
+2.11833455e-02f,-6.74139038e-02f,+1.16336115e-01f,-8.84859543e-03f,-1.02125719e-01f,
+1.07021861e-01f,+1.60537258e-01f,+3.58630903e-02f,-6.52009100e-02f,+1.55389190e-01f,
+1.22898020e-01f,+1.88782766e-01f,+8.22284445e-02f,+1.07375523e-02f,-5.70316762e-02f,
+8.74862969e-02f,+2.44806781e-02f,-7.42295980e-02f,-8.58471915e-02f,+1.58349276e-01f,
+7.01812133e-02f,+5.52505404e-02f,+1.51168063e-01f,+1.05922490e-01f,+1.98757902e-01f,
-5.73130660e-02f,+3.19450684e-02f,+6.14334233e-02f,+1.20727561e-01f,-3.57049033e-02f,
+1.27210245e-01f,+1.83772787e-01f,+1.16833664e-01f,+6.65618330e-02f,+1.36139980e-02f,
+4.62130979e-02f,+3.53493239e-03f,+2.20610619e-01f,+1.63345814e-01f,+2.04595596e-01f,
+2.70215794e-02f,+1.39287235e-02f,-4.43562493e-03f,+2.25732833e-01f,+2.09942862e-01f,
+1.32312095e-02f,+7.62403617e-03f,+2.97616869e-02f,+3.11755478e-01f,+2.68341571e-01f,
+1.20811813e-01f,-1.80668626e-02f,+6.87965900e-02f,+2.89535910e-01f,+3.60892452e-02f,
+3.31751555e-02f,+4.10031937e-02f,+9.14648697e-02f,+1.05156697e-01f,+2.57375780e-02f,
+1.31060392e-01f,-1.04462609e-01f,+1.12200707e-01f,+6.14972040e-02f,+2.78830696e-02f,
+1.69350743e-01f,+1.24710284e-01f,+7.53372386e-02f,+9.35363919e-02f,-6.10060319e-02f,
+1.42443433e-01f,+5.79949021e-02f,+1.51448429e-01f,+3.38389091e-02f,-1.47123942e-02f,
+1.09129198e-01f,+1.58888876e-01f,+4.51234914e-02f,+5.18042073e-02f,+1.14507653e-01f,
+2.10325494e-01f,+6.45606220e-02f,-5.00028506e-02f,+2.40614284e-02f,-8.70307088e-02f,
+1.26402080e-01f,+7.41680041e-02f,+3.05599980e-02f,-8.01548064e-02f,+1.86659470e-01f,
+2.51147121e-01f,+2.49841213e-02f,+6.08968213e-02f,-6.17406005e-03f,+1.22175820e-01f,
+1.95929319e-01f,-7.66893402e-02f,+1.64220452e-01f,+1.89329177e-01f,+5.38645359e-03f,
-3.41292731e-02f,+1.92193925e-01f,+1.67788506e-01f,-1.50673792e-01f,+1.58974573e-01f,
+1.63742393e-01f,-1.44857764e-01f,+2.13500038e-01f,-7.41617009e-02f,+1.50491312e-01f,
-6.32685497e-02f,+8.65914673e-02f,-2.45925114e-02f,+3.51343676e-02f,+1.69645324e-01f,
+5.68263456e-02f,+1.50719225e-01f,+8.69017318e-02f,+1.37933284e-01f,+1.00969836e-01f,
+4.73413691e-02f,-8.73315260e-02f,+1.74037367e-01f,+2.20617950e-02f,+2.54459321e-01f,
+3.13071966e-01f,+2.07012534e-01f,+3.59583274e-02f,+9.13204774e-02f,-1.91043541e-02f,
+3.29128653e-02f,+1.59974843e-02f,+9.79319289e-02f,-1.75666511e-02f,-6.24795966e-02f,
+7.37572834e-02f,-1.90756023e-02f,+1.69257522e-02f,-8.70435387e-02f,+9.17576328e-02f,
+1.14597268e-01f,-3.62102911e-02f,+1.15737766e-01f,+7.46720359e-02f,+3.16169590e-01f,
+9.67765003e-02f,-2.68753618e-03f,-1.76500324e-02f,+1.97229281e-01f,+2.48871893e-01f,
+1.69017985e-02f,+1.64571390e-01f,+2.16197774e-01f,-3.52786556e-02f,+3.24501880e-02f,
+1.19986013e-01f,+1.36450171e-01f,+3.61795872e-02f,+1.71208516e-01f,+1.28444359e-01f,
+2.37610564e-02f,-3.02785840e-02f,+1.51938647e-01f,-2.85453778e-02f,-3.00864270e-03f,
+3.57475840e-02f,-1.50618136e-01f,+1.82897188e-02f,+2.07435861e-01f,+9.58594903e-02f,
+1.71621554e-02f,+1.76669195e-01f,-1.47765696e-01f,-1.12543562e-02f,-1.57262255e-02f,
+1.21663176e-02f,+1.80072650e-01f,+1.26054473e-02f,-1.68410111e-02f,-7.59800710e-03f,
+2.05891371e-01f,+1.07535254e-02f,-4.46401127e-02f,+5.88371567e-02f,-9.35821012e-02f,
+2.55297143e-02f,+1.02029391e-01f,+9.12137106e-02f,+1.48053378e-01f,+1.35334209e-01f,
+6.78110644e-02f,+1.48616403e-01f,+7.40713105e-02f,+2.39391252e-02f,+4.52190042e-02f,
+1.07291743e-01f,-5.57809249e-02f,-2.86553670e-02f,+1.86130315e-01f,+1.21770054e-01f,
+1.28569216e-01f,+9.40335169e-02f,-2.42416002e-02f,-6.71622679e-02f,+2.02463105e-01f,
+9.35532004e-02f,+1.93475746e-02f,-3.26068737e-02f,+1.52149908e-02f,+1.57563344e-01f,
+6.29955977e-02f,+1.66979924e-01f,+5.22983037e-02f,-3.01909205e-02f,-1.83357745e-01f,
-1.31019773e-02f,-6.96453825e-03f,-1.24319233e-02f,+5.04374541e-02f,+1.58937603e-01f,
-1.84909813e-02f,+7.66486153e-02f,+1.64007828e-01f,+7.55315125e-02f,+1.60749760e-02f,
+1.00254707e-01f,+3.95876728e-02f,+1.06179513e-01f,+1.06061861e-01f,-4.11397293e-02f,
+4.65352945e-02f,-3.26714665e-02f,+1.19018026e-01f,+1.86473966e-01f,+1.06213003e-01f,
+5.25090955e-02f,-1.76438838e-01f,+7.10783750e-02f,-1.97947910e-03f,-9.03675631e-02f,
-2.53270846e-02f,+1.53980434e-01f,+7.21080974e-02f,+3.02433968e-02f,+2.92110257e-02f,
-8.29311535e-02f,+1.49361983e-01f,-4.51294184e-02f,+8.93676877e-02f,+5.97776808e-02f,
+5.46124354e-02f,+6.60504699e-02f,-5.94300777e-02f,+1.25990033e-01f,+1.17981233e-01f,
+3.75368036e-02f,+2.29759738e-01f,+5.45174070e-02f,-1.01908021e-01f,+6.70010969e-02f,
+1.54848069e-01f,+1.52514964e-01f,-1.19750686e-02f,+8.65690038e-02f,+7.47928768e-02f,
-2.42280145e-03f,+1.38023928e-01f,+1.30804211e-01f,+2.12034732e-01f,+8.31473693e-02f,
-1.76869035e-02f,+5.04259206e-02f,+6.07081279e-02f,+9.71929431e-02f,+1.19276710e-01f,
-1.05588613e-02f,+9.60839763e-02f,+1.16663493e-01f,+9.00394619e-02f,+1.25977144e-01f,
+8.22637156e-02f,+1.42431110e-01f,+2.65950821e-02f,+2.65041769e-01f,+5.43824397e-02f,
+3.49891782e-02f,-2.61104815e-02f,+2.73547024e-01f,+4.42043841e-02f,-8.51086453e-02f,
-3.12721059e-02f,+1.15493491e-01f,-2.04571132e-02f,+1.62210502e-02f,+1.28069952e-01f,
+3.51281077e-01f,+1.80672985e-02f,-5.19431941e-02f,+6.04757890e-02f,+2.40159690e-01f,
+4.32866737e-02f,+1.11358449e-01f,+1.78722441e-02f,+2.42109708e-02f,-4.11959104e-02f,
-1.28298840e-02f,-9.27854478e-02f,-1.29081467e-02f,+1.73425958e-01f,-2.89319366e-01f,
+1.95097253e-01f,+1.08326569e-01f,+2.24174932e-01f,+1.09170213e-01f,+2.35332418e-02f,
+8.88280869e-02f,+1.16608314e-01f,+1.71273172e-01f,-4.48255353e-02f,+4.11618687e-02f,
-1.23740816e-02f,-1.42131105e-01f,+1.15434684e-01f,+8.05879012e-02f,+6.98909461e-02f,
+4.81717959e-02f,+7.91283250e-02f,+2.62464017e-01f,+1.54757217e-01f,+1.66819841e-01f,
+6.74986020e-02f,+5.18988334e-02f,+2.07873851e-01f,+5.88949956e-02f,+5.99952228e-03f,
-1.12749085e-01f,-6.97138831e-02f,+8.35619643e-02f,+3.13301980e-02f,+1.86990440e-01f,
+6.30523339e-02f,+1.00836128e-01f,+1.17096283e-01f,-4.18167338e-02f,+7.68169314e-02f,
-4.88917194e-02f,-3.11104786e-02f,-2.46136308e-01f,+2.36731291e-01f,+1.90575436e-01f,
+2.07984075e-01f,-2.65139699e-01f,+1.21230349e-01f,+7.13917837e-02f,-1.09313622e-01f,
-4.11898866e-02f,+2.79236585e-02f,-6.58615232e-02f,-1.51144981e-01f,+1.06336854e-01f,
+2.89511681e-01f,-5.57200424e-02f,-3.44210342e-02f,-8.38183798e-03f,+9.90502760e-02f,
-8.04684609e-02f,+1.06665261e-01f,-5.30723259e-02f,-3.43367755e-02f,+4.66365479e-02f,
-1.82139389e-02f,+1.66253939e-01f,+1.20091066e-01f,+8.81012529e-02f,+1.20354429e-01f,
+7.08255917e-02f,-6.49842713e-03f,+4.44752574e-02f,-4.61023115e-02f,+1.33848399e-01f,
+5.54337166e-02f,-1.71578827e-03f,+7.22937509e-02f,-4.00891125e-01f,+7.59605411e-03f,
-2.10451875e-02f,+1.69143707e-01f,+1.55501381e-01f,+7.82998453e-04f,+2.29687527e-01f,
+3.74573879e-02f,+1.30690336e-01f,+4.64806408e-02f,+1.56182721e-01f,+1.81025509e-02f,
+1.30208403e-01f,+2.07761914e-01f,+6.19247071e-02f,-2.47353106e-04f,+5.01653180e-02f,
+8.06709006e-02f,+1.40582174e-01f,-1.79115683e-01f,+8.33512694e-02f,-3.52450944e-02f,
+1.41834423e-01f,+6.27624691e-02f,+2.27097999e-02f,+2.59567410e-01f,+1.53598618e-02f,
-1.79503169e-02f,+1.10500455e-01f,+1.88591078e-01f,+4.11540829e-03f,+1.07101426e-01f,
+4.60512005e-02f,-5.82455546e-02f,+1.14197619e-01f,+1.27760187e-01f,+3.06313802e-02f,
+1.35897562e-01f,+5.47583476e-02f,+1.28236651e-01f,+5.87118343e-02f,+7.70768151e-02f,
+7.15538561e-02f,-3.00234407e-02f,+1.62245110e-01f,+1.41744152e-01f,-7.24801198e-02f,
+2.03107998e-01f,-7.77104422e-02f,+8.22365955e-02f,+3.57361555e-01f,+8.22089240e-02f,
+5.58542088e-02f,+8.32322687e-02f,-4.32888456e-02f,+2.00626627e-01f,+1.14844128e-01f,
+1.99874625e-01f,+6.66125044e-02f,-8.42549279e-02f,-8.07674676e-02f,-3.15718353e-02f,
+2.80310065e-02f,+6.37232289e-02f,+1.15769446e-01f,+2.58395318e-02f,+1.19126365e-01f,
-4.31094915e-02f,+1.13194503e-01f,+1.81702346e-01f,+9.94916558e-02f,+1.15111331e-02f,
+1.53760597e-01f,+8.88696909e-02f,+9.44813415e-02f,+2.50807524e-01f,+9.40452665e-02f,
+5.57343923e-02f,+2.24457130e-01f,+1.99169591e-01f,+6.62736073e-02f,-5.82035407e-02f,
+2.21788913e-01f,+5.70376404e-02f,+2.57278401e-02f,-1.69406578e-01f,+6.88085034e-02f,
+3.54605988e-02f,+1.00869581e-01f,+5.20086847e-02f,+8.75283629e-02f,+1.53083071e-01f,
+8.15381482e-02f,+2.39740200e-02f,+1.12716667e-01f,+9.45329741e-02f,+3.45665999e-02f,
+1.72404468e-01f,+7.73698315e-02f,-1.59987167e-01f,-3.12896781e-02f,+8.36142749e-02f,
-8.14464390e-02f,+1.29037946e-01f,+1.50054544e-01f,+1.52913928e-01f,+1.74237132e-01f,
+3.31330568e-01f,+1.46942064e-01f,-5.65951969e-03f,+1.19964562e-01f,+1.20068088e-01f,
-2.05682874e-01f,+2.47083753e-01f,+8.74308348e-02f,+1.23410761e-01f,+8.09194297e-02f,
+1.45778626e-01f,+6.11693785e-02f,+2.44990572e-01f,+3.56897153e-02f,+1.00816503e-01f,
+1.07052602e-01f,+1.82143331e-01f,+4.33705971e-02f,-3.84906307e-02f,+7.04508498e-02f,
+1.07027099e-01f,-3.27494703e-02f,+1.89283267e-01f,+9.74550620e-02f,+1.25415862e-01f,
+1.84190601e-01f,+2.46257603e-01f,+1.63444481e-03f,+2.76217997e-01f,+1.85098410e-01f,
+1.19997084e-01f,+1.36922225e-01f,+8.87988135e-02f,-6.92951307e-02f,+7.66659016e-03f,
+9.70784500e-02f,+1.30293429e-01f,+1.00428015e-01f,-3.02923843e-02f,+8.23448598e-02f,
+1.79017350e-01f,+6.73701316e-02f,+5.27268462e-02f,+4.59797159e-02f,+2.14245543e-01f,
+2.60874182e-01f,+9.33174938e-02f,+7.78701976e-02f,+8.98495913e-02f,+1.65536627e-02f,
-1.01639830e-01f,+2.23709896e-01f,+1.38763368e-01f,+5.16238902e-03f,+5.74969463e-02f,
+4.78147753e-02f,+1.08591236e-01f,+1.00360744e-01f,+1.63206905e-01f,+2.31793113e-02f,
+2.53286630e-01f,-1.46940127e-01f,+1.43374994e-01f,-1.36212334e-01f,-6.75926581e-02f,
+1.41944900e-01f,-1.01895794e-01f,-2.55773757e-02f,+1.47630513e-01f,+2.19475422e-02f,
+2.58792788e-01f,-1.32638188e-02f,+5.16217239e-02f,+1.95597038e-02f,+2.00587630e-01f,
+1.68962270e-01f,+1.36327744e-01f,+5.13584726e-02f,+2.30663568e-01f,+8.62291530e-02f,
+1.23081468e-01f,+1.59561127e-01f,+6.33439934e-03f,+1.03644311e-01f,-9.25674196e-03f,
+8.66181254e-02f,+1.30260974e-01f,+5.23797013e-02f,-1.92493975e-01f,+7.23228902e-02f,
-1.59545671e-02f,-1.19510382e-01f,+8.09102878e-02f,-7.13537112e-02f,-8.08953643e-02f,
+7.31201917e-02f,+4.90130819e-02f,+1.03198200e-01f,+1.01244837e-01f,-3.33264768e-02f,
+1.34052292e-01f,+9.11681652e-02f,+7.78884217e-02f,+9.51556936e-02f,+1.95080653e-01f,
+2.88017392e-02f,+1.48426890e-01f,+3.99086103e-02f,-1.17839389e-01f,+1.06179580e-01f,
+2.80429367e-02f,-2.58230679e-02f,+4.71108072e-02f,+9.97012779e-02f,-2.15803459e-02f,
+1.03036836e-01f,+1.87800065e-01f,-2.56161112e-02f,+1.40454978e-01f,+4.30532694e-02f,
+1.31685957e-01f,-1.69045404e-01f,+1.12483740e-01f,+2.69958317e-01f,+1.20029226e-01f,
+2.20162511e-01f,-1.13293799e-02f,+2.31674016e-01f,-1.83230434e-02f,+4.21238057e-02f,
+2.24611890e-02f,+9.20826642e-05f,+9.43094194e-02f,+1.69895753e-01f,-5.36867678e-02f,
-2.85687577e-02f,-6.45686537e-02f,-1.56913981e-01f,+1.87267259e-01f,-5.32106198e-02f,
+8.46925601e-02f,+2.66387880e-01f,+1.46273166e-01f,+1.30846709e-01f,+1.61888868e-01f,
+3.07960752e-02f,+1.44376531e-01f,-4.82829520e-03f,-2.02830173e-02f,+2.22492293e-02f,
+7.99713582e-02f,+8.51861611e-02f,+7.46439993e-02f,+4.90165651e-02f,+2.13591475e-02f,
+3.58587913e-02f,+1.27277195e-01f,-3.30974683e-02f,-6.65917844e-02f,-1.82732809e-02f,
+9.33942720e-02f,+2.69557118e-01f,+2.46101797e-01f,+6.83211312e-02f,+1.13172285e-01f,
-6.85633793e-02f,-1.80081800e-02f,+8.53302106e-02f,+8.35875794e-02f,+1.48977060e-02f,
+6.75215432e-03f,+1.18275583e-02f,+8.27817693e-02f,+7.55407959e-02f,+2.58424226e-02f,
+9.78862494e-02f,+7.66964927e-02f,+6.60510659e-02f,+5.17282728e-03f,+5.75696714e-02f,
+1.58941612e-01f,+1.44884124e-01f,+3.18291187e-02f,+9.38725471e-02f,-1.08409084e-01f,
+2.11195305e-01f,+1.04373902e-01f,+6.37459103e-03f,+1.16815805e-01f,+2.06471533e-01f,
+3.93288881e-02f,+3.97734493e-02f,+9.12533998e-02f,+5.57837673e-02f,+1.80198774e-01f,
+1.95886418e-01f,+2.05221083e-02f,+1.31450474e-01f,+8.19419860e-04f,-1.26709417e-01f,
-1.80530660e-02f,+9.12226513e-02f,+1.95898816e-01f,+1.30174875e-01f,-3.90966684e-02f,
+1.18807226e-01f,+7.30653107e-02f,+7.25548118e-02f,+1.15183681e-01f,-5.48589451e-04f,
+2.24239379e-02f,+1.55660525e-01f,-1.03640212e-02f,+6.35042489e-02f,+3.92107256e-02f,
-3.57257165e-02f,+2.16152295e-02f,+1.57598108e-01f,-3.27626988e-02f,-9.05339792e-02f,
+1.77918106e-01f,+1.75912470e-01f,+9.23747122e-02f,+1.27031609e-01f,+1.47282138e-01f,
+1.30948439e-01f,-2.29410455e-02f,+8.45110640e-02f,-9.03075337e-02f,+1.73012584e-01f,
+1.14137411e-01f,+6.29899874e-02f,+9.08809528e-02f,+9.40469801e-02f,+8.49024802e-02f,
+1.79302134e-02f,+1.44569099e-01f,+9.80506837e-02f,-3.52233872e-02f,+2.20663343e-02f,
+2.75320671e-02f,+5.41369198e-03f,+6.76602945e-02f,-3.80490534e-02f,+4.74357158e-02f,
+2.50904709e-01f,+1.91999450e-01f,-2.72341855e-02f,+4.90666963e-02f,+7.21541122e-02f,
+6.64795116e-02f,+1.44741133e-01f,-7.05053508e-02f,+6.21936517e-03f,+1.10223643e-01f,
+9.12587270e-02f,+6.24344265e-03f,+4.42651361e-02f,+1.20669551e-01f,+7.20376372e-02f,
+1.23100936e-01f,+1.00274146e-01f,+3.72781493e-02f,+8.67992565e-02f,+1.31581858e-01f,
+5.30448370e-02f,+1.48528770e-01f,+9.04693753e-02f,+1.16239771e-01f,+2.24834278e-01f,
+1.06463730e-01f,+8.10272410e-04f,+1.31123856e-01f,-4.55968566e-02f,+4.78589572e-02f,
+1.03918962e-01f,-3.66437137e-02f,+7.40757510e-02f,-2.93954965e-02f,+5.89470416e-02f,
+1.63923241e-02f,-6.17006458e-02f,-5.63159138e-02f,+1.11910939e-01f,+1.18083023e-01f,
+1.54461995e-01f,+6.73063695e-02f,+1.00526072e-01f,-4.83532585e-02f,-1.76564790e-02f,
+5.84681965e-02f,+7.59285539e-02f,+1.15354590e-01f,+1.25765413e-01f,+8.97377804e-02f,
+9.47437957e-02f,-1.68481305e-01f,-6.12484664e-02f,+1.52267858e-01f,+7.33465031e-02f,
+1.57108381e-01f,+1.85594976e-01f,-4.88549359e-02f,-2.55510006e-02f,+1.29210845e-01f,
+1.15658619e-01f,+1.51725248e-01f,+1.22068912e-01f,+1.11174785e-01f,+1.44698024e-01f,
+1.77538753e-01f,+2.53688544e-02f,+1.30371481e-01f,+1.76724851e-01f,+5.39785996e-02f,
+3.62416953e-02f,+8.21021274e-02f,+1.77157228e-03f,+2.13753823e-02f,-7.46166110e-02f,
+4.08782717e-03f,+4.05858308e-02f,+1.12435676e-01f,-8.61222763e-03f,+3.12978961e-02f,
+1.16698951e-01f,+4.88714827e-03f,-1.40425161e-01f,+1.15444198e-01f,+3.94259654e-02f,
+9.86161381e-02f,+1.33132860e-01f,+1.96324904e-02f,+9.86264944e-02f,+4.97331023e-02f,
+1.60701185e-01f,+9.11691412e-03f,+6.58120513e-02f,+3.53350826e-02f,+9.60076749e-02f,
+5.77071421e-02f,+1.38397396e-01f,-2.90923584e-02f,+1.04134806e-01f,+1.05534032e-01f,
+1.85257886e-02f,-1.41708907e-02f,+1.79098248e-01f,+4.51923050e-02f,+7.37736672e-02f,
-4.26561199e-02f,+5.95718436e-02f,-1.97581341e-03f,+2.05366164e-01f,+3.16551775e-02f,
+3.52132395e-02f,+9.73537713e-02f,-7.28834495e-02f,+3.67171913e-02f,+1.07488886e-01f,
+5.43987677e-02f,+8.63405243e-02f,+9.34710354e-02f,+6.96957158e-03f,+8.08996931e-02f,
+4.60768938e-02f,-2.01763641e-02f,-3.27240191e-02f,+7.52294362e-02f,+2.22632021e-01f,
+4.27501984e-02f,+1.01862371e-01f,+6.41201213e-02f,-5.10779358e-02f,-1.62315920e-01f,
+9.45541561e-02f,+2.03694534e-02f,+1.14744417e-01f,+2.81843636e-02f,+2.49998137e-01f,
+5.36971986e-02f,+2.28192192e-02f,+3.09644155e-02f,+2.75675878e-02f,+2.52028018e-01f,
+1.12759970e-01f,+4.20454796e-03f,-8.75604451e-02f,-2.19941773e-02f,-3.64879556e-02f,
-4.38441597e-02f,-3.73404101e-02f,+7.34378174e-02f,+4.77723293e-02f,-4.25391458e-02f,
+4.63026278e-02f,+1.49670452e-01f,+6.55690357e-02f,+1.05402417e-01f,-2.42931936e-02f,
+1.70628816e-01f,+1.24563992e-01f,+1.46063820e-01f,-8.56766775e-02f,-1.50863975e-02f,
+1.75263152e-01f,+6.14889562e-02f,-1.16819829e-01f,+8.73930976e-02f,+8.84844884e-02f,
+8.10997039e-02f,+4.26767804e-02f,+1.01293653e-01f,+1.97030857e-01f,+1.06489159e-01f,
+1.78338289e-02f,+1.83749497e-02f,+8.65664110e-02f,+6.06902018e-02f,+1.85274944e-01f,
-6.30081594e-02f,+1.11331224e-01f,+7.75854685e-04f,-7.53086731e-02f,+1.59724176e-01f,
+6.64642528e-02f,+7.90880024e-02f,+1.72379598e-01f,+9.80034173e-02f,+2.49568205e-02f,
+4.05256972e-02f,+8.65167081e-02f,+4.35387939e-02f,+9.20421109e-02f,+3.28393206e-02f,
-2.92235948e-02f,+1.57895014e-01f,+8.46913084e-02f,+1.35155588e-01f,+4.71486337e-02f,
+1.97428182e-01f,-5.19070476e-02f,+1.86982483e-01f,+9.55012441e-02f,+7.56506473e-02f,
+1.19253241e-01f,+8.47142041e-02f,+1.21949926e-01f,+4.85783294e-02f,+2.25229263e-01f,
+6.11794665e-02f,+6.87019080e-02f,+2.58325059e-02f,+1.05366960e-01f,+1.08246423e-01f,
+1.09224781e-01f,-2.90334341e-03f,+1.74759850e-01f,+1.85349241e-01f,+2.02033803e-01f,
+1.20688111e-01f,+8.63573179e-02f,+8.32661763e-02f,+2.21426338e-02f,+4.92269360e-02f,
+1.61167860e-01f,+9.74800438e-02f,+3.96584608e-02f,+1.49538130e-01f,+6.82592541e-02f,
+1.51802786e-02f,+1.07051898e-02f,+6.28289133e-02f,+1.46371588e-01f,-6.00673556e-02f,
+1.06112801e-01f,-9.98073891e-02f,+3.61774154e-02f,+5.79169281e-02f,+8.09787586e-02f,
+1.74487934e-01f,-5.18285334e-02f,+1.41021162e-01f,-6.21715421e-03f,+1.33030176e-01f,
-1.05939336e-01f,+8.94451737e-02f,+2.52963305e-01f,+6.82505444e-02f,+5.30786626e-02f,
+7.06071481e-02f,+1.31501511e-01f,+6.20263703e-02f,+6.56619966e-02f,-4.54714298e-02f,
+1.93729714e-01f,+1.06537212e-02f,+5.31257801e-02f,+7.73695409e-02f,+1.00266347e-02f,
+2.06584975e-01f,+9.70379561e-02f,+1.04615122e-01f,-1.06751611e-02f,-1.79410800e-02f,
-4.70491201e-02f,+2.18960822e-01f,+4.74807099e-02f,-1.64179116e-01f,-2.38485243e-02f,
+1.58540774e-02f,+8.65635946e-02f,+8.63192305e-02f,+9.70546827e-02f,+1.15658000e-01f,
-4.65179197e-02f,-7.41714984e-02f,+1.01834320e-01f,+4.56651524e-02f,+6.67621121e-02f,
+1.21361151e-01f,+1.08737394e-01f,+7.29138926e-02f,+1.39388517e-01f,+1.33310199e-01f,
+6.67764619e-02f,+6.94330111e-02f,-4.11684029e-02f,+7.49632716e-02f,+1.00148857e-01f,
+1.89813226e-01f,+2.03779683e-01f,+1.16467416e-01f,+2.21906640e-02f,+2.49919165e-02f,
-4.99172173e-02f,+8.23506638e-02f,-9.32112932e-02f,+1.51493371e-01f,+2.48929083e-01f,
+5.34131192e-02f,-8.19840580e-02f,+1.13895953e-01f,-1.57329887e-01f,+1.35714158e-01f,
+3.11680753e-02f,-2.41855979e-02f,+4.10719842e-01f,+1.13443218e-01f,+5.66634052e-02f,
+1.71322320e-02f,+7.52971023e-02f,-5.22587709e-02f,+4.15233634e-02f,+1.22174822e-01f,
+6.87565356e-02f,-9.34199095e-02f,+1.24586873e-01f,+7.37738237e-02f,+1.66009203e-01f,
-1.11271010e-03f,+6.66859224e-02f,+7.41665736e-02f,+1.98925585e-01f,+5.58861438e-03f,
-5.26865721e-02f,+1.07418776e-01f,-2.64235027e-02f,+8.71350318e-02f,-1.35350581e-02f,
+1.37076959e-01f,+2.20103309e-01f,+1.37401953e-01f,+1.31499603e-01f,+5.41053116e-02f,
+1.28760308e-01f,+4.23459530e-01f,+4.28741872e-02f,+4.96143773e-02f,+1.27950180e-02f,
+2.23461673e-01f,+1.54123127e-01f,-3.64772491e-02f,+6.04872592e-02f,+9.07471254e-02f,
+8.95432830e-02f,-1.47287957e-02f,+1.13550454e-01f,+1.58456951e-01f,-2.01533530e-02f,
-5.40344454e-02f,+2.81453222e-01f,+2.57082097e-02f,-2.44236700e-02f,+3.40123996e-02f,
+4.43230793e-02f,+2.77911365e-01f,+1.36131018e-01f,+1.88653573e-01f,+1.15897045e-01f,
+8.15369412e-02f,+7.10716918e-02f,+2.60264035e-02f,-5.99425137e-02f,+1.48354203e-01f,
+1.25785053e-01f,+1.05426703e-02f,+2.74775684e-01f,+1.16459124e-01f,+3.63076851e-02f,
+4.43742462e-02f,+5.79119027e-02f,+9.40883681e-02f,+8.45599696e-02f,-2.14997735e-02f,
+2.17273846e-01f,+4.00738674e-04f,+4.94975336e-02f,+9.80687588e-02f,+3.49389724e-02f,
+1.55795410e-01f,+1.34996548e-01f,+6.94969371e-02f,+1.88021615e-01f,-2.16788054e-02f,
-5.75812198e-02f,+2.58713782e-01f,+5.42130060e-02f,-6.84635108e-03f,-1.57760009e-01f,
+1.23747870e-01f,+7.37501159e-02f,-1.43751413e-01f,-1.42414942e-01f,-1.21113397e-02f,
+2.62524257e-03f,+2.92847324e-02f,-5.03186546e-02f,+5.49675487e-02f,-1.31136812e-02f,
-1.76467430e-02f,+1.11404970e-01f,-5.33885583e-02f,-1.12035181e-02f,+1.52694762e-01f,
-3.07382550e-02f,-1.87841415e-01f,+6.29316270e-02f,-1.10306241e-01f,-4.67045307e-02f,
-4.27268306e-03f,-1.41402408e-01f,+1.02574512e-01f,-1.27536189e-02f,+5.71429208e-02f,
+1.05255008e-01f,+5.24045788e-02f,+4.99374755e-02f,+2.71502435e-01f,-5.03495336e-02f,
+1.34500898e-02f,+2.67842971e-02f,+2.14872301e-01f,+1.38153300e-01f,+9.90211964e-02f,
+5.41328229e-02f,+9.46775749e-02f,-2.75739860e-02f,+1.23365693e-01f,+1.02733202e-01f,
+1.10191211e-01f,+7.59384707e-02f,+6.08115271e-02f,+1.10177420e-01f,+3.28724384e-02f,
+4.26890105e-02f,+6.43158779e-02f,+1.12008996e-01f,+5.47042303e-02f,+1.63733259e-01f,
-4.39272961e-03f,+4.41267118e-02f,+9.13431048e-02f,-6.74649626e-02f,+1.23157017e-01f,
-1.45941162e-02f,+7.62470961e-02f,+1.70024991e-01f,+5.18759666e-03f,+3.57561372e-02f,
-1.34135842e-01f,+1.33419767e-01f,-4.69051301e-02f,+1.43057406e-01f,+7.96916485e-02f,
+4.02259342e-02f,+2.59593483e-02f,-8.97045806e-02f,+1.35422185e-01f,+1.11953750e-01f,
+9.13434997e-02f,-3.04905269e-02f,-1.98334660e-02f,+8.02411437e-02f,+1.19128332e-01f,
-4.21642475e-02f,-1.02455005e-01f,+6.14991970e-02f,+8.08165073e-02f,+1.19061051e-02f,
+9.81045738e-02f,+2.18566090e-01f,+7.51351193e-02f,+1.03174157e-01f,+1.42126530e-01f,
+1.48417819e-02f,+1.52787179e-01f,+1.37722284e-01f,+4.15798090e-02f,+1.11752115e-01f,
+1.12182260e-01f,+3.65713015e-02f,+8.00801292e-02f,+2.96900928e-01f,+1.13760936e-03f,
+2.05290794e-01f,-3.46183442e-02f,-8.10432155e-03f,+1.04636431e-01f,+7.83612672e-03f,
-2.82883365e-02f,+3.10868267e-02f,+4.67443541e-02f,+2.21188545e-01f,+1.83591604e-01f,
+1.64130524e-01f,+6.04279060e-03f,-1.43886665e-02f,+1.52222037e-01f,+5.18311374e-02f,
+7.55591094e-02f,+4.76679802e-02f,+2.37039894e-01f,+9.36439857e-02f,+7.73425847e-02f,
+1.54929822e-02f,-6.95649534e-02f,+6.75464496e-02f,-7.28457347e-02f,+1.33462340e-01f,
+1.06910251e-01f,-2.94423755e-03f,+7.21873567e-02f,+9.76121926e-04f,-6.29888661e-03f,
+1.76667180e-02f,+1.31648295e-02f,+3.72847244e-02f,+4.03170325e-02f,-1.24189720e-01f,
-1.16580753e-02f,+2.47709647e-01f,-1.00089252e-01f,+1.70237139e-01f,+1.08083747e-01f,
+1.75102472e-01f,+6.87523698e-03f,-3.18015404e-02f,+7.00260028e-02f,+3.31813358e-02f,
+6.65547252e-02f,+8.53690729e-02f,-6.16701692e-02f,+1.85191423e-01f,-2.22692303e-02f,
+1.22376375e-01f,+5.16796252e-03f,+1.82318911e-01f,+5.06514795e-02f,-1.25372589e-01f,
+2.07532607e-02f,+2.89850324e-01f,-1.22213826e-01f,-1.42774358e-01f,+8.15300718e-02f,
+1.31233493e-02f,+2.65471134e-02f,-3.06027327e-02f,+4.99273539e-01f,+1.79472342e-02f,
+2.50954658e-01f,-3.43407877e-03f,+1.18720241e-01f,+1.38345838e-01f,-1.78690511e-03f,
+7.90675450e-03f,+3.45187485e-02f,+1.18241692e-02f,+2.16746449e-01f,+5.09897955e-02f,
+2.75057629e-02f,+1.13037586e-01f,+1.57442376e-01f,+6.59514144e-02f,+5.51081821e-02f,
+1.43732846e-01f,+2.12093279e-01f,+2.94916928e-02f,+1.77657798e-01f,+1.57803465e-02f,
-1.57658130e-01f,+1.87779263e-01f,+6.09068274e-02f,+3.51560444e-01f,+1.80089474e-01f,
+2.93020401e-02f,+2.33016685e-02f,+7.80769065e-02f,-3.92757095e-02f,+1.12180836e-01f,
-1.21050708e-01f,+6.28360584e-02f,+9.92545709e-02f,-2.81294826e-02f,+3.06332931e-02f,
+2.07503259e-01f,+9.49961543e-02f,-6.67635202e-02f,-2.36403346e-02f,-6.06990680e-02f,
+8.06850344e-02f,-8.77206922e-02f,+6.99376166e-02f,-6.79780124e-03f,+9.24251527e-02f,
+1.40798107e-01f,-6.43867105e-02f,+1.31491572e-02f,+9.19564888e-02f,-7.35678151e-03f,
+8.90285969e-02f,+1.04649685e-01f,-2.20328085e-02f,+1.35262161e-01f,+1.04002900e-01f,
+1.07612900e-01f,+1.71617538e-01f,-1.72567125e-02f,+1.04553543e-01f,-5.61973341e-02f,
-6.01336546e-02f,+1.05645061e-01f,-6.03020377e-02f,-2.32226383e-02f,+2.38976017e-01f,
+1.60549164e-01f,+8.52534324e-02f,+3.77238146e-03f,+1.93549544e-02f,-1.23796441e-01f,
+3.87353674e-02f,+8.30537751e-02f,-8.05873945e-02f,+5.53721488e-02f,+1.69668719e-01f,
+4.55639660e-02f,+1.19313389e-01f,+1.57030955e-01f,-1.50057673e-02f,-2.42906734e-01f,
+3.30815464e-02f,+1.35713995e-01f,+4.94503118e-02f,-3.39882225e-02f,+1.41771257e-01f,
+1.27864599e-01f,+2.32519135e-01f,-7.38555100e-03f,+1.26751423e-01f,+1.42924041e-01f,
-5.47007285e-02f,+1.45456389e-01f,+2.41025522e-01f,+4.07628864e-02f,-4.04192209e-02f,
+2.04910308e-01f,+2.21764565e-01f,+1.96437448e-01f,+3.49266753e-02f,+8.58296305e-02f,
+1.05886981e-01f,+2.33939484e-01f,+1.33269817e-01f,+5.71189187e-02f,+4.20400538e-02f,
+4.18118924e-01f,+9.61438194e-02f,+3.53951380e-02f,-4.41045426e-02f,-7.65642375e-02f,
+3.04113597e-01f,+4.49536033e-02f,+1.23892821e-01f,+8.94288570e-02f,+1.23595446e-01f,
+1.46925360e-01f,-1.07519120e-01f,+3.77175808e-02f,+9.49759688e-03f,+9.86206438e-03f,
+1.43709570e-01f,+7.79111236e-02f,-2.29310356e-02f,+1.52782992e-01f,-2.79971421e-01f,
+4.36599761e-01f,+9.08637568e-02f,-8.52527469e-02f,+2.50682354e-01f,+1.22291138e-02f,
+3.54603797e-01f,+9.98164713e-02f,+9.14445072e-02f,+1.68145210e-01f,+1.30267516e-01f,
-6.92175105e-02f,+1.91137940e-01f,+8.27076100e-03f,-3.44511680e-02f,+8.81466269e-02f,
+7.80219957e-02f,+1.23153806e-01f,-3.05084679e-02f,+1.36555865e-01f,+1.06636956e-01f,
-7.17625534e-03f,+4.31377813e-02f,+8.74162018e-02f,+1.51309334e-02f,+1.02453820e-01f,
+7.29496107e-02f,+7.32444897e-02f,-7.68914446e-02f,+4.03019190e-02f,+1.97831169e-01f,
+8.00899267e-02f,+6.58215582e-02f,+1.23237640e-01f,+8.72702152e-03f,+4.30355445e-02f,
+1.64474651e-01f,+1.39380231e-01f,+8.80133361e-02f,+4.45410144e-03f,+6.54888749e-02f,
+1.75493374e-01f,+2.01766063e-02f,-9.25434381e-02f,-1.68165062e-02f,-1.29808402e-02f,
+2.04753414e-01f,+9.47914198e-02f,+2.68760324e-02f,+1.17088184e-01f,+6.30619377e-02f,
-1.03533797e-01f,-4.20088358e-02f,+1.02658078e-01f,+1.60871565e-01f,+1.74347907e-01f,
-4.29185212e-01f,+1.21945865e-01f,-1.58734713e-02f,-9.68234148e-03f,+1.83414578e-01f,
+9.86803137e-03f,-1.88511666e-02f,-5.46732210e-02f,+1.10117858e-02f,+1.18904836e-01f,
+8.36172476e-02f,+1.59692809e-01f,+1.56220555e-01f,-1.75328493e-01f,+1.99012771e-01f,
+1.00060821e-01f,+1.91258237e-01f,-9.56950039e-02f,+7.65969455e-02f,+1.11725949e-01f,
+1.29984021e-01f,+1.07047409e-01f,+7.17961863e-02f,+1.43317893e-01f,-6.32638857e-02f,
+4.47260402e-02f,+2.15738803e-01f,+1.62117034e-01f,+2.07999453e-01f,-2.02069934e-02f,
+7.01774061e-02f,+1.81745425e-01f,+3.11658569e-02f,+1.66342985e-02f,+9.71584767e-02f,
+7.60995969e-02f,+8.17672070e-03f,-3.37532572e-02f,+1.30083010e-01f,-1.40277855e-02f,
+9.43258330e-02f,+1.74136475e-01f,-4.94324900e-02f,+5.84464222e-02f,-8.07086900e-02f,
+6.90948442e-02f,+1.52700350e-01f,+2.55730867e-01f,+2.96452660e-02f,+3.15262862e-02f,
+4.29684808e-03f,+3.03495497e-01f,+1.57614544e-01f,+2.26429999e-02f,+1.31849885e-01f,
+6.89342469e-02f,+4.23867665e-02f,+6.47145137e-02f,+1.05368704e-01f,+1.62745863e-01f,
+1.94221124e-01f,+2.02167816e-02f,-8.22388083e-02f,+1.95548981e-01f,+1.15208752e-01f,
+4.49407883e-02f,+1.24691963e-01f,+1.82284221e-01f,+2.97031901e-03f,+2.95034409e-01f,
+8.80089998e-02f,-9.27332975e-03f,+3.97130027e-02f,+1.90693047e-02f,+4.46571447e-02f,
+1.37414351e-01f,+8.07924494e-02f,+9.40714553e-02f,-9.11618117e-03f,-5.41195944e-02f,
+1.45864189e-01f,+8.86241123e-02f,+1.02248602e-01f,+2.20047869e-02f,-5.26007935e-02f,
+4.60626185e-02f,-6.33312482e-03f,-3.40169482e-02f,+1.30423293e-01f,+6.93594739e-02f,
+1.39806360e-01f,-1.05843104e-01f,+9.44445201e-04f,+1.52783971e-02f,-2.41497476e-02f,
+2.03636717e-02f,-1.04526961e-02f,-3.24111618e-02f,-8.39391723e-02f,+6.35295883e-02f,
-5.59599102e-02f,+1.66138664e-01f,+4.62229513e-02f,+2.03273937e-01f,+1.61212116e-01f,
+8.53035897e-02f,-3.12040970e-02f,+1.04499638e-01f,-1.98899135e-02f,-4.91439663e-02f,
+5.00403233e-02f,+5.78158945e-02f,+1.32860750e-01f,+1.59763083e-01f,-1.49606690e-01f,
+3.18189785e-02f,+1.84972379e-02f,+3.21228653e-01f,+6.37189113e-03f,+5.56274727e-02f,
-3.14993411e-02f,-1.09478272e-01f,+2.78988834e-02f,+3.59435566e-02f,+1.26726851e-01f,
+1.31635938e-03f,-3.89224514e-02f,+1.76628515e-01f,+6.55125380e-02f,+5.55770397e-02f,
+1.20367706e-01f,+1.72468081e-01f,+1.97249614e-02f,+3.83210592e-02f,+6.01101294e-02f,
+1.76933721e-01f,-1.61377266e-01f,+5.09752184e-02f,-1.13457054e-01f,-4.36258130e-02f,
+1.33185282e-01f,-1.18774734e-02f,+4.08918440e-01f,-6.44472465e-02f,+2.27470994e-01f,
+7.23682120e-02f,+4.15310403e-03f,-8.81225690e-02f,-3.38145047e-02f,+9.71592143e-02f,
+6.15607947e-02f,-6.15738221e-02f,+7.37421885e-02f,+4.39522527e-02f,+1.20233677e-01f,
+2.47912463e-02f,+2.78113000e-02f,-1.38289526e-01f,-7.47372583e-03f,+1.79120332e-01f,
+1.33873492e-01f,+9.37283691e-03f,-3.55178304e-02f,+4.44098143e-03f,-1.14636049e-01f,
-2.16390848e-01f,+1.29333034e-01f,+4.03113477e-02f,+2.58008614e-02f,+6.04282022e-02f,
-6.87896460e-03f,+9.63720530e-02f,+1.08225606e-01f,-1.08595401e-01f,+1.21994317e-01f,
+8.20397735e-02f,+1.89998634e-02f,+6.10434413e-02f,-2.93725818e-01f,-1.49016047e-03f,
+2.98335068e-02f,-2.67937165e-02f,-5.84198497e-02f,+7.45377466e-02f,-1.70504749e-01f,
-8.53274669e-03f,+3.26662511e-01f,+1.38251409e-01f,+1.11597024e-01f,-4.69201766e-02f,
+2.98595056e-02f,+9.54544265e-03f,+3.37489657e-02f,-3.56234424e-02f,-6.93467259e-02f,
+1.03682876e-02f,-1.91741697e-02f,+1.36427104e-01f,+9.37179253e-02f,-8.71457458e-02f,
-8.91544670e-02f,+3.11096981e-02f,-1.15180291e-01f,+1.46908283e-01f,+2.44912222e-01f,
+1.06140547e-01f,+1.33392438e-02f,-8.12940300e-03f,+1.51130229e-01f,+6.43036366e-02f,
-9.84240472e-02f,+7.39815086e-02f,+9.01106670e-02f,+2.77100503e-01f,+5.57208955e-02f,
+1.56627491e-01f,+6.52564541e-02f,+1.33541122e-01f,+6.08380809e-02f,-2.30677407e-02f,
+2.94109523e-01f,+1.99191660e-01f,-2.92331968e-02f,-3.01138312e-01f,+6.31958023e-02f,
+5.12292646e-02f,-5.86430822e-03f,+1.18665077e-01f,-4.52921614e-02f,-2.49112602e-02f,
-7.83713534e-03f,-2.39039846e-02f,+8.34571645e-02f,+8.31746235e-02f,-4.92428802e-02f,
+4.61030789e-02f,-1.15257926e-01f,-2.57123113e-02f,-8.73863995e-02f,+7.51230046e-02f,
+6.51447847e-02f,+1.76839694e-01f,+3.99101861e-02f,+1.04684152e-01f,-7.23344088e-02f,
+1.99636832e-01f,+7.30728507e-02f,-1.06861502e-01f,-3.28667045e-01f,-9.92093086e-02f,
+9.07802805e-02f,-1.25012156e-02f,+2.85197288e-01f,+1.84953697e-02f,+4.27567065e-02f,
+1.44518793e-01f,+1.10174760e-01f,+6.17435835e-02f,-8.20709690e-02f,+3.42006013e-02f,
+1.23334907e-01f,+9.28826183e-02f,-1.38379838e-02f,-1.16833225e-01f,+1.37341112e-01f,
-1.52417701e-02f,-1.43507347e-01f,+2.78488159e-01f,-3.41532260e-01f,+8.06307644e-02f,
+6.12234436e-02f,+8.46630186e-02f,+1.07224390e-01f,+1.47729903e-01f,+3.25341336e-03f,
+2.57503018e-02f,+1.81632519e-01f,+8.34614187e-02f,-9.17212144e-02f,+4.34365049e-02f,
+5.85191473e-02f,+9.81199890e-02f,+2.99051255e-01f,-6.57574236e-02f,-1.66113991e-02f,
+4.81364690e-03f,-6.96775988e-02f,+1.18391134e-01f,+1.65790871e-01f,+5.17454334e-02f,
+5.41773029e-02f,+1.04573011e-01f,+1.22617640e-01f,+7.91256726e-02f,+5.55507131e-02f,
+1.01119816e-01f,+7.20285550e-02f,+1.26054361e-01f,+1.26029819e-01f,+2.15253774e-02f,
+1.14889942e-01f,-3.08352560e-02f,+6.63385615e-02f,-3.30625847e-02f,+5.97833470e-02f,
+1.40565515e-01f,+1.84208885e-01f,+2.43594870e-01f,-8.07711855e-02f,+5.59861585e-02f,
+1.89866111e-01f,+1.26697704e-01f,+8.11168626e-02f,+1.37236295e-02f,+8.61645490e-02f,
+2.15386555e-01f,+2.20834076e-01f,+1.98142797e-01f,+1.14789449e-01f,-2.60518286e-02f,
-9.20031965e-03f,+8.25370941e-03f,+4.99128476e-02f,+1.79544717e-01f,-1.01804033e-01f,
+1.69685945e-01f,-1.17721152e-03f,-1.59019276e-01f,+8.97701755e-02f,+3.63315910e-01f,
-2.95699500e-02f,+1.09024435e-01f,+2.34437715e-02f,+8.90220515e-03f,+4.34876084e-02f,
-1.68718576e-01f,+3.99250649e-02f,+1.51954144e-01f,+7.87041616e-03f,+8.71923938e-02f,
-1.89258650e-01f,+9.06301737e-02f,+9.41937417e-02f,+9.87941995e-02f,+2.55963411e-02f,
+8.84758832e-04f,+2.55221818e-02f,-1.04305455e-02f,-2.26334836e-02f,+1.05707876e-01f,
+6.60028309e-02f,-1.64493784e-01f,+2.21010134e-01f,+1.40406355e-01f,+6.76650032e-02f,
+6.26980662e-02f,-5.39703257e-02f,+6.62697554e-02f,+8.44165236e-02f,+8.42327550e-02f,
-4.00742888e-02f,+2.27234848e-02f,-7.54587501e-02f,+1.75847098e-01f,+1.64939180e-01f,
+1.22376204e-01f,+3.71085964e-02f,-3.50440070e-02f,+7.23396093e-02f,-2.06049662e-02f,
-2.93140914e-02f,+1.16562899e-02f,+1.70401365e-01f,-6.76623136e-02f,+1.68242961e-01f,
-5.25062494e-02f,+1.26699835e-01f,+1.44454643e-01f,-8.05606470e-02f,+1.80527866e-02f,
+1.48961827e-01f,+1.50088556e-02f,+9.33082178e-02f,+8.10458958e-02f,+6.36572316e-02f,
+2.02562466e-01f,-2.31269121e-01f,-1.31667778e-01f,+3.55187207e-02f,+9.00861174e-02f,
-4.58999947e-02f,+7.59686828e-02f,+1.68774322e-01f,+4.15699482e-01f,-1.82757378e-01f,
+8.20984915e-02f,-6.24170154e-02f,+2.17924088e-01f,-2.39078142e-02f,-4.77266721e-02f,
+1.80446543e-02f,-1.92631379e-01f,+4.94880900e-02f,-8.35258290e-02f,+7.52728879e-02f,
+1.31573066e-01f,-8.01118687e-02f,+5.29871322e-02f,+1.52011439e-01f,+2.71298969e-03f,
+7.63925314e-02f,+2.69821938e-02f,+2.51064431e-02f,+8.34197626e-02f,+7.93461874e-02f,
+1.07997119e-01f,-2.36087352e-01f,+1.60551921e-01f,+1.20849364e-01f,-9.05439407e-02f,
+8.89244080e-02f,+7.70217776e-02f,+1.59371659e-01f,+6.71694661e-03f,+3.46905112e-01f,
+1.92181617e-01f,+1.01116791e-01f,+5.65025955e-03f,-1.43212169e-01f,-8.46504141e-03f,
+1.56650439e-01f,+2.29497929e-03f,+7.42997229e-02f,-1.48927094e-02f,+9.12937820e-02f,
-3.25958356e-02f,+9.28953066e-02f,+2.35226274e-01f,+8.42943341e-02f,-8.65942463e-02f,
-3.93598750e-02f,+1.87016707e-02f,+1.01150163e-01f,-6.20001853e-02f,+1.30447254e-01f,
+1.05233513e-01f,+3.38784307e-02f,+1.66450113e-01f,+2.85764039e-01f,+4.58074845e-02f,
+1.96112916e-01f,+1.65626109e-01f,+1.35390043e-01f,+1.03391064e-02f,-4.16076416e-03f,
+1.37816206e-01f,-6.21792562e-02f,+2.11214665e-02f,+1.86518416e-01f,-7.94466361e-02f,
+1.23076767e-01f,+9.99050736e-02f,+2.59500593e-01f,+5.36037982e-02f,+1.64421111e-01f,
+1.67194977e-02f,+6.81938827e-02f,+4.89879958e-02f,+1.85695261e-01f,+1.23987958e-01f,
+9.58687738e-02f,+9.91235301e-02f,+8.41192454e-02f,+8.76993537e-02f,+5.47720939e-02f,
+8.87441859e-02f,+1.26134515e-01f,+1.08924367e-01f,+1.16540782e-01f,+8.84263739e-02f,
+1.86122805e-01f,+1.11222513e-01f,+1.89571697e-02f,+4.97773476e-02f,-2.76942719e-02f,
-1.90848522e-02f,+1.52888879e-01f,+1.73616856e-01f,+1.91115618e-01f,+3.33885878e-01f,
+1.37484312e-01f,-1.15337826e-01f,-1.52424173e-02f,-9.89243388e-02f,+1.40761420e-01f,
+8.96826982e-02f,+1.27415583e-01f,-1.83094721e-02f,+5.20679653e-02f,+6.93355724e-02f,
+3.07335675e-01f,-2.14220434e-02f,+2.09180132e-01f,-6.50416315e-02f,+1.59147933e-01f,
+2.67826375e-02f,+1.37912109e-01f,-9.48154032e-02f,+2.41602704e-01f,+5.90643063e-02f,
-2.75538087e-01f,+9.72205922e-02f,+1.48278981e-01f,-2.72806063e-02f,+1.62540656e-02f,
+1.53965782e-02f,+9.58846360e-02f,+3.66075784e-02f,+8.76938179e-02f,+3.94501127e-02f,
+1.29716128e-01f,+2.54713356e-01f,+2.16613058e-02f,+1.79368794e-01f,+1.42810524e-01f,
-3.02116722e-02f,+1.66195054e-02f,+1.17171176e-01f,-7.94748440e-02f,+1.77136675e-01f,
-3.54348845e-03f,+1.54255003e-01f,+2.26125624e-02f,+6.13470525e-02f,+8.03502575e-02f,
-3.56570818e-02f,+4.70003560e-02f,+2.11852435e-02f,+1.81591101e-02f,-2.78890152e-02f,
-4.95205261e-02f,-5.74418381e-02f,+4.45809476e-02f,+1.80508375e-01f,-6.18152581e-02f,
-8.50467309e-02f,+2.90981010e-02f,+4.15306129e-02f,+2.89884750e-02f,+1.86419949e-01f,
-8.14430136e-03f,+1.04878657e-01f,+7.17875659e-02f,+2.02018023e-01f,+8.72472301e-02f,
+1.80205271e-01f,+1.59519017e-02f,+2.99491774e-04f,+1.83960855e-01f,+2.85452548e-02f,
+6.75779507e-02f,+1.06928021e-01f,+2.33303476e-02f,+2.13173077e-01f,-2.85236398e-03f,
+7.70306587e-02f,+3.46020982e-02f,+4.41881791e-02f,+2.43349046e-01f,-3.05705471e-03f,
+1.24824189e-01f,+3.07914525e-01f,+2.70598561e-01f,+1.63118243e-01f,+6.18741699e-02f,
+5.11142462e-02f,-9.60520934e-03f,+5.09832166e-02f,+4.71192552e-03f,+5.31567186e-02f,
+1.60531223e-01f,+1.53814673e-01f,+6.06425628e-02f,+9.36466604e-02f,-6.68701231e-02f,
+1.16389520e-01f,+7.13369772e-02f,+1.18919067e-01f,+1.59757763e-01f,-3.55758481e-02f,
-4.47871052e-02f,-1.40898615e-01f,-1.33056998e-01f,+2.75494397e-01f,+1.37309730e-01f,
+8.52483436e-02f,+1.53287351e-01f,-2.97714435e-02f,+1.51934147e-01f,+6.56021833e-02f,
-1.43682100e-02f,+1.12410381e-01f,+6.76684007e-02f,-2.23086122e-02f,+3.06679718e-02f,
-4.79990505e-02f,+3.09279785e-02f,+3.14722359e-02f,-2.25197710e-03f,+1.07309386e-01f,
+1.20605454e-01f,+8.11174065e-02f,+1.50638103e-01f,-6.08134009e-02f,+1.20480999e-01f,
+7.09852502e-02f,+1.69312283e-02f,+4.45006005e-02f,-5.60277179e-02f,+2.46673390e-01f,
+6.16550557e-02f,+1.74412414e-01f,+3.65318207e-04f,+4.90929261e-02f,+4.96062040e-02f,
+4.41189036e-02f,+9.80582982e-02f,+1.06420413e-01f,+1.52838692e-01f,+1.12736359e-01f,
+1.94419190e-01f,+6.68116882e-02f,+2.17678890e-01f,+1.32561758e-01f,+1.21123210e-01f,
+1.45164862e-01f,+3.54896262e-02f,+1.30971983e-01f,+1.56571433e-01f,+2.84839701e-02f,
-4.17736582e-02f,-5.25431335e-02f,+5.91788478e-02f,-2.12927200e-02f,+3.26373316e-02f,
-6.56116428e-03f,+2.11280778e-01f,-1.85001679e-02f,-4.12406176e-02f,-5.77085577e-02f,
+2.47246727e-01f,+1.85198143e-01f,+1.20705210e-01f,-1.37930036e-01f,+1.00451186e-01f,
+1.45847723e-01f,+3.87284607e-02f,+1.02371804e-01f,-3.45903151e-02f,+4.08970952e-01f,
+7.67285004e-02f,+4.80011366e-02f,+1.85161963e-01f,+7.07443431e-02f,+2.84511566e-01f,
+1.45179987e-01f,-9.87175629e-02f,+1.09984577e-01f,+8.02354701e-03f,+1.20725937e-01f,
+7.50783905e-02f,+5.37024848e-02f,+1.21054806e-01f,+7.35650510e-02f,+7.80594647e-02f,
+1.65519610e-01f,+1.98812142e-01f,+3.34678218e-02f,+1.81541547e-01f,+8.70876294e-03f,
+7.80158713e-02f,-3.10375746e-02f,+9.85688195e-02f,-2.11261567e-02f,+1.07383756e-02f,
+1.84615016e-01f,+6.40038475e-02f,-7.52043575e-02f,+1.33277131e-02f,+4.80810031e-02f,
+9.61893499e-02f,+3.30316238e-02f,-7.15751499e-02f,+5.50176241e-02f,+1.81545824e-01f,
+2.31246293e-01f,-1.33342315e-02f,-1.67694855e-02f,+9.53007787e-02f,+3.20870019e-02f,
-7.46133178e-02f,+2.00374940e-04f,+2.10475311e-01f,-2.37030815e-02f,+4.53121439e-02f,
+2.61341959e-01f,+5.62657677e-02f,+9.13841426e-02f,-6.85411841e-02f,+5.96516132e-02f,
+2.31442645e-01f,+1.84391171e-01f,+1.16685741e-01f,+9.94560942e-02f,+7.40864947e-02f,
+4.09562849e-02f,-5.67896813e-02f,-1.34162024e-01f,-7.02438429e-02f,-8.82337168e-02f,
-2.69961864e-01f,+2.48098165e-01f,+1.24852344e-01f,+5.27281500e-02f,+9.14105847e-02f,
-2.86413670e-01f,+1.57089919e-01f,-2.21466180e-03f,+3.14993501e-01f,-8.90554860e-02f,
-7.15301782e-02f,+8.64794552e-02f,+7.02636912e-02f,-3.10790706e-02f,-2.50264909e-02f,
+2.17005149e-01f,+1.22315675e-01f,+1.20943367e-01f,+1.30629584e-01f,+6.83102906e-02f,
+2.31202155e-01f,-1.02877527e-01f,+1.99833773e-02f,+2.21504733e-01f,-1.68451235e-01f,
+1.53389320e-01f,-1.00077569e-01f,+1.54845759e-01f,-1.27035812e-01f,-6.49573579e-02f,
+9.90674794e-02f,+9.07546133e-02f,+1.00447267e-01f,+2.72916764e-01f,+1.68701991e-01f,
-1.87843107e-02f,+5.88653311e-02f,-5.71216457e-02f,+1.15834898e-03f,+1.23512723e-01f,
+1.04466349e-01f,+4.20015156e-02f,+2.06485521e-02f,+2.48387814e-01f,+2.01732844e-01f,
+1.92994416e-01f,+4.50936146e-03f,+4.56659012e-02f,+2.25866541e-01f,+2.45867874e-02f,
-1.81905576e-03f,+8.86578336e-02f,+3.67073491e-02f,+2.35409047e-02f,+3.60081568e-02f,
+1.78366557e-01f,-3.20470147e-02f,+9.03751850e-02f,+2.57460207e-01f,+1.44405991e-01f,
+1.25839338e-01f,+4.62127365e-02f,+1.08976565e-01f,+3.23586106e-01f,-4.62198742e-02f,
+7.20974281e-02f,-2.53489316e-01f,-9.84971151e-02f,-8.55497345e-02f,+3.63137275e-02f,
+2.88473427e-01f,+8.03071633e-02f,+3.74651961e-02f,+1.36400178e-01f,+9.77835655e-02f,
+1.15882404e-01f,+6.26956969e-02f,+1.25800565e-01f,+2.57313624e-02f,+1.01443585e-02f,
-1.14803828e-01f,-2.78937891e-02f,+1.14194984e-02f,+8.10288116e-02f,+1.60823930e-02f,
-4.99349013e-02f,+1.17154792e-01f,-4.77331318e-02f,-9.13518220e-02f,+2.13009454e-02f,
-8.45695212e-02f,+1.56393006e-01f,+5.10202870e-02f,-3.96906249e-02f,+1.27669021e-01f,
-1.33692309e-01f,-9.26632509e-02f,+5.48105463e-02f,+4.82068770e-02f,+8.38356987e-02f,
+3.94161753e-02f,+6.34768754e-02f,+9.31872949e-02f,+1.47133231e-01f,-3.79657634e-02f,
+1.87026769e-01f,+1.00151673e-01f,-5.22465818e-02f,+1.38963312e-02f,+7.25887194e-02f,
-1.27784058e-01f,+2.04727933e-01f,+2.18229070e-01f,+2.02318296e-01f,+3.75638492e-02f,
+1.20798670e-01f,+2.00055391e-01f,-1.02770112e-01f,+1.07317448e-01f,+1.21924564e-01f,
+4.64599617e-02f,-3.66936587e-02f,+5.06817847e-02f,-3.28383557e-02f,+1.37520090e-01f,
-9.05545577e-02f,+3.99841294e-02f,+8.69493112e-02f,-9.84810386e-03f,+5.07197715e-02f,
+1.44951597e-01f,+3.87476921e-01f,+4.57132310e-01f,+4.80798334e-02f,+4.49441671e-02f,
+2.05040984e-02f,+1.50597438e-01f,+1.84781119e-01f,+9.87177938e-02f,+2.88542546e-02f,
-5.02807610e-02f,+2.08447012e-03f,-9.29915905e-02f,+1.11296676e-01f,+9.69846696e-02f,
+1.68928683e-01f,-1.55576449e-02f,-1.09398462e-01f,+8.77325684e-02f,+7.62536190e-04f,
+1.30322194e-02f,-3.45671207e-01f,-7.44291209e-03f,+2.50469059e-01f,+1.79407001e-01f,
+4.83701378e-02f,+1.09397769e-01f,+8.88055488e-02f,+3.18440124e-02f,+2.88084328e-01f,
+3.29701938e-02f,-5.55610582e-02f,+4.92078215e-02f,-1.07945716e-02f,-1.27401680e-01f,
+1.70386046e-01f,+1.84732735e-01f,+4.78260927e-02f,+1.12422310e-01f,+9.42901447e-02f,
-3.93822230e-03f,+5.30230589e-02f,+6.19000942e-02f,-6.25707433e-02f,+2.02732891e-01f,
+9.28441286e-02f,-2.62974888e-01f,-3.95264924e-02f,+7.06304014e-02f,-5.34628443e-02f,
+3.10198180e-02f,+2.46200517e-01f,+5.24900295e-02f,+1.76385164e-01f,+4.35406230e-02f,
+6.62864447e-02f,+2.74732988e-02f,+3.90087031e-02f,+1.00840621e-01f,+1.66124955e-01f,
+7.62615204e-02f,+1.14656851e-01f,+5.11279795e-03f,+1.56442508e-01f,+2.19526440e-01f,
-9.70684662e-02f,-3.84270102e-01f,+8.00223425e-02f,+4.67489697e-02f,+1.03058495e-01f,
+1.08279012e-01f,+1.21191964e-01f,-7.96989724e-02f,+1.56396348e-02f,+6.62328675e-02f,
+3.66401747e-02f,+2.85759429e-03f,+1.23475596e-01f,+5.65014333e-02f,+3.80270854e-02f,
+1.13295764e-01f,+6.13020174e-02f,-4.34545800e-02f,-8.81176442e-02f,+1.47182614e-01f,
+1.41575292e-01f,+1.19129643e-01f,+1.63375944e-01f,+1.02807753e-01f,-1.77618768e-02f,
+1.24305010e-01f,+3.27980965e-01f,+1.01348355e-01f,+1.33565679e-01f,+8.20168108e-02f,
+6.36897832e-02f,-1.55295813e-02f,-2.02083169e-03f,-4.76546809e-02f,+8.00674111e-02f,
+1.41323030e-01f,+1.87331568e-02f,-1.84158434e-03f,-5.18968590e-02f,+1.02545604e-01f,
+1.48513705e-01f,+3.68094295e-02f,+1.86462346e-02f,+1.88241061e-02f,+4.20487486e-02f,
+1.42630577e-01f,-4.30253008e-03f,-8.81641656e-02f,+1.05602272e-01f,+1.96700141e-01f,
-3.45189348e-02f,-3.50274891e-02f,+2.07957253e-01f,-4.38721813e-02f,-7.69348294e-02f,
+6.46202415e-02f,+6.01264276e-02f,-3.47543359e-01f,-1.34391457e-01f,-4.98320833e-02f,
+2.67046899e-01f,+5.17172590e-02f,-4.17639036e-03f,+1.62796393e-01f,+7.40905777e-02f,
+9.16226301e-03f,+1.31283086e-02f,+4.15837988e-02f,-5.66509031e-02f,+1.67914882e-01f,
+2.50429094e-01f,+1.49792165e-01f,+5.20495959e-02f,+1.76332831e-01f,+1.50150195e-01f,
+5.50043918e-02f,+5.85801825e-02f,-1.69994339e-01f,+3.67376246e-02f,+1.12433895e-01f,
+4.78781722e-02f,+1.00354739e-02f,+1.81840017e-01f,-1.43545508e-01f,+3.58865336e-02f,
-1.21516623e-02f,+8.34272802e-02f,+1.98308349e-01f,+2.69350428e-02f,+6.39414862e-02f,
+1.53350681e-01f,+2.55242810e-02f,-1.91611499e-02f,+1.33318171e-01f,-4.11522947e-02f,
-2.02363376e-02f,+6.53504357e-02f,-3.30144241e-02f,+8.55155960e-02f,+5.72659671e-02f,
+8.21390823e-02f,-5.74620925e-02f,-1.63519219e-01f,+1.94416702e-01f,+8.41931850e-02f,
+1.23675115e-01f,+4.88424972e-02f,-1.13406042e-02f,-1.07875966e-01f,-7.57969171e-02f,
+1.10019371e-01f,+1.01136953e-01f,-1.13500752e-01f,+6.52193800e-02f,+1.06665298e-01f,
+6.27150536e-02f,-8.90547261e-02f,-8.88092220e-02f,+2.31244400e-01f,-4.28694308e-01f,
+5.91976494e-02f,+1.15078747e-01f,+5.87949231e-02f,-7.71416798e-02f,+3.93099897e-02f,
+5.73084317e-02f,+4.57127571e-01f,-1.35988206e-01f,+1.10974170e-01f,+1.53131168e-02f,
+1.95537016e-01f,+1.98436812e-01f,-2.03526750e-01f,+8.19768980e-02f,-1.25218078e-01f,
-1.69370475e-03f,+1.13381082e-02f,+7.46400207e-02f,+1.42625764e-01f,+1.43223092e-01f,
+1.19981132e-01f,+7.12178871e-02f,+1.53284147e-01f,+1.95716545e-02f,+2.23051347e-02f,
+1.91329286e-01f,+1.06636241e-01f,+3.37877832e-02f,+1.18110381e-01f,+2.39563525e-01f,
-1.58039838e-01f,+9.42304358e-02f,-9.46668442e-03f,+1.09485768e-01f,+3.20470482e-01f,
-1.79418847e-02f,+4.09783758e-02f,+1.63393077e-02f,-5.81367388e-02f,+1.31366462e-01f,
-9.32875052e-02f,+3.92848030e-02f,+7.01267794e-02f,+3.33986551e-01f,+2.84258518e-02f,
+2.37404257e-02f,+1.13174520e-01f,+2.41749976e-02f,+1.46825537e-01f,-5.66539494e-03f,
+9.03781205e-02f,+4.24745530e-02f,+1.35895312e-01f,+7.11705461e-02f,+1.41505256e-01f,
+5.31040877e-02f,-5.61591685e-02f,+4.70557660e-02f,+9.22432691e-02f,+6.24694787e-02f,
+1.28003374e-01f,+4.32747081e-02f,+1.41759634e-01f,+5.63334264e-02f,+1.04997881e-01f,
+1.28297945e-02f,+3.67788970e-02f,+2.62772422e-02f,+1.20222248e-01f,-2.61940788e-02f,
+5.55560645e-03f,+1.65110961e-01f,+4.28818971e-01f,+4.77130301e-02f,-3.10222283e-02f,
+1.70578167e-01f,+5.87250516e-02f,-9.72660258e-02f,-6.59409910e-02f,+4.01374936e-01f,
+7.45800659e-02f,+3.99452001e-02f,-3.36601079e-01f,+7.26173669e-02f,+6.05618432e-02f,
+1.83052137e-01f,+1.46067515e-01f,+8.59713480e-02f,+1.73174888e-01f,+1.07533917e-01f,
+2.28065521e-01f,-7.01226890e-02f,+3.13181877e-02f,+1.12104096e-01f,+1.66498810e-01f,
+2.59645075e-01f,-7.67401829e-02f,+4.07177582e-02f,+1.07956501e-02f,+2.38112465e-01f,
-6.44018035e-03f,+4.35131550e-01f,-5.27205095e-02f,-4.12942283e-03f,+1.77051827e-01f,
+1.34318739e-01f,+1.33044705e-01f,+1.57837123e-01f,+4.75240946e-02f,+9.62355062e-02f,
+1.96513925e-02f,+1.28783926e-01f,+1.06262833e-01f,-3.78550887e-02f,-1.38856426e-01f,
+1.30079269e-01f,+1.08226150e-01f,+1.29310161e-01f,+9.76591483e-02f,+1.51486471e-01f,
+7.88036808e-02f,+1.51368633e-01f,+2.52538890e-01f,+1.35042846e-01f,+1.42207816e-01f,
-1.39577448e-01f,+8.90746887e-04f,+1.40744206e-02f,+1.91430569e-01f,+6.30322769e-02f,
+2.17400491e-01f,-5.35571165e-02f,+2.02691913e-01f,+1.21995308e-01f,-2.68270761e-01f,
+2.04641715e-01f,+1.89152151e-01f,+1.04720913e-01f,-2.78407382e-03f,+5.95006011e-02f,
-1.69308677e-01f,+2.57181674e-01f,+9.95493494e-03f,-5.07590361e-04f,+3.87792438e-02f,
+8.92773569e-02f,+1.89115137e-01f,+1.41054183e-01f,-2.19031926e-02f,+1.96463540e-01f,
-1.12509793e-02f,+1.16567396e-01f,-2.06860021e-01f,+1.65633723e-01f,+4.50176969e-02f,
+1.06356144e-01f,+1.08692190e-02f,+4.03646156e-02f,+1.20189704e-01f,+6.38082251e-02f,
-3.62061977e-01f,+1.79964006e-01f,+1.17198177e-01f,+5.36635295e-02f,+1.94661841e-01f,
+7.63341635e-02f,-3.48399580e-02f,+2.81768013e-02f,+1.42161086e-01f,+2.03223139e-01f,
+3.24655473e-02f,+1.00022733e-01f,+8.98839012e-02f,+1.39178187e-01f,+6.71665668e-02f,
+4.90088239e-02f,+3.89628001e-02f,-1.27188792e-03f,+1.05692625e-01f,-1.37823269e-01f,
-6.76079001e-03f,+1.68002948e-01f,-1.03662424e-02f,+6.77465126e-02f,+1.33410200e-01f,
+2.02314019e-01f,+2.15991706e-01f,+1.81236953e-01f,+7.44309723e-02f,+9.73764807e-03f,
-2.82307770e-02f,-1.99565083e-01f,-3.80386040e-02f,+1.01313479e-01f,+7.41518289e-02f,
+9.06912982e-02f,-7.63735250e-02f,-1.04533724e-01f,+3.62865888e-02f,+1.06138326e-01f,
-2.89375111e-02f,+6.73869178e-02f,+1.95981652e-01f,-2.74384338e-02f,+2.56491780e-01f,
-2.13763565e-01f,+4.74865615e-01f,+8.24428222e-04f,+1.07509479e-01f,+4.35068123e-02f,
-2.32014209e-02f,+2.38660380e-01f,-3.31113115e-02f,+2.63992429e-01f,+2.12335605e-02f,
+1.46216661e-01f,+2.57932879e-02f,-6.71412423e-02f,-1.05213061e-01f,+3.55564535e-01f,
+1.88298360e-01f,+4.00856361e-02f,+2.74942428e-01f,-1.05655752e-02f,-1.26885548e-01f,
+6.27379641e-02f,+1.55371055e-01f,-3.63775156e-02f,+1.77451715e-01f,-8.98203701e-02f,
-4.69779372e-02f,+2.76054814e-02f,+1.33965224e-01f,-6.09937403e-03f,+1.98257845e-02f,
+1.18196448e-02f,+8.85507241e-02f,+2.62097478e-01f,+2.65908509e-01f,+7.48280529e-03f,
+2.33092844e-01f,-1.29496247e-01f,+7.32308030e-02f,-8.61099586e-02f,-3.56173702e-02f,
+3.18555713e-01f,+5.68841919e-02f,+4.21451889e-02f,+8.05579275e-02f,-1.51585117e-02f,
+5.42496424e-03f,+1.50316492e-01f,-2.38954760e-02f,+1.70937046e-01f,+7.56057203e-02f,
-2.78685112e-02f,+2.83605512e-02f,+8.55421927e-03f,+7.09998980e-02f,+1.84910763e-02f,
-2.02569570e-02f,-2.61082083e-01f,+7.49751180e-02f,+1.04167059e-01f,+6.77891374e-02f,
-2.99175419e-02f,+2.10247964e-01f,-2.69877203e-02f,-2.05197074e-02f,+9.02739763e-02f,
+1.58550799e-01f,-7.09333643e-02f,+8.59138593e-02f,-3.40583995e-02f,+1.31001845e-01f,
+7.58465081e-02f,+8.59862193e-02f,+1.62776887e-01f,+1.47061214e-01f,-7.26444740e-03f,
-2.15974310e-03f,+1.02913156e-01f,+1.69254825e-01f,+3.41438912e-02f,+2.06022635e-01f,
+1.51231050e-01f,+4.21788394e-02f,+1.89719692e-01f,+2.99353987e-01f,-1.32339939e-01f,
-3.25034074e-02f,-2.47754063e-02f,+1.43295020e-01f,+1.25784084e-01f,-1.68249026e-01f,
-8.19603056e-02f,+1.23161376e-01f,-4.25676815e-03f,+1.38977945e-01f,+2.63466090e-01f,
+1.06025413e-01f,-5.38966022e-02f,-2.05265861e-02f,+7.89002851e-02f,+1.85613960e-01f,
+6.91229180e-02f,+1.61393121e-01f,+5.11599854e-02f,+1.41987413e-01f,+7.21349344e-02f,
+2.95706987e-02f,+9.36554447e-02f,-5.27984910e-02f,+7.24842921e-02f,+2.13437364e-01f,
+1.16686083e-01f,+9.21519250e-02f,-1.22407235e-01f,+1.21284351e-01f,+6.65769354e-02f,
+1.13058873e-01f,+4.31283973e-02f,-1.20201379e-01f,-1.78798541e-01f,-8.49931836e-02f,
-3.71796004e-02f,-3.80036567e-04f,+3.82876843e-02f,+2.91810408e-02f,+3.58987860e-02f,
+4.50107664e-01f,-1.05389640e-01f,+5.22757135e-02f,+7.30385855e-02f,+1.74021199e-01f,
+1.57761555e-02f,+1.95728630e-01f,+1.36117227e-02f,-1.54759973e-01f,+7.44712651e-02f,
+3.03774357e-01f,+5.63633628e-02f,+9.58755985e-03f,+2.81346682e-02f,+8.78047198e-03f,
+2.48872295e-01f,+4.78781648e-02f,-3.32738943e-02f,+1.91158071e-01f,+2.32913978e-02f,
-4.18398194e-02f,+1.45742446e-01f,+7.94854537e-02f,+8.68691802e-02f,+2.26982404e-02f,
-1.64871290e-02f,+2.49731541e-01f,-8.73969495e-02f,+1.67635635e-01f,+1.50525182e-01f,
+6.06607310e-02f,+2.51199782e-01f,-1.01089478e-01f,+1.27498835e-01f,+1.51619598e-01f,
+1.35400429e-01f,+7.57850409e-02f,+1.66595295e-01f,-2.87508294e-02f,-1.83380619e-01f,
+2.31963173e-02f,+4.47603427e-02f,+1.88124374e-01f,+1.58008590e-01f,-1.20073512e-01f,
+1.09941818e-01f,+8.42324719e-02f,+9.93155017e-02f,+1.10583842e-01f,+1.62328288e-01f,
+7.53054321e-02f,-3.23462784e-02f,+9.23914835e-02f,+2.02438697e-01f,+1.04593441e-01f,
-8.89878795e-02f,+6.71207830e-02f,+6.93687424e-02f,+1.15262158e-01f,+8.75370428e-02f,
+2.25075111e-01f,+9.88938436e-02f,+1.75124809e-01f,-1.44536188e-02f,+1.32125422e-01f,
-9.77068096e-02f,+2.42781475e-01f,+7.83443898e-02f,-3.70248519e-02f,+1.40635058e-01f,
+1.37633145e-01f,+1.21777005e-01f,-5.46850897e-02f,+2.02823237e-01f,+9.31841433e-02f,
+2.14557111e-01f,-2.09780335e-02f,+1.74291223e-01f,+8.51465985e-02f,+6.88744187e-02f,
-2.87514012e-02f,-8.29698667e-02f,+6.50824308e-02f,-3.28082703e-02f,-1.23877332e-01f,
+2.27873102e-02f,+1.27374023e-01f,-9.27442126e-03f,-1.40847415e-02f,+4.26717028e-02f,
+4.27227467e-02f,+1.15681015e-01f,-9.70792398e-03f,+2.92027891e-02f,+2.05961734e-01f,
-3.29076648e-02f,+1.13481581e-01f,+4.05788720e-02f,+1.10144064e-01f,-1.32045299e-02f,
-6.49110004e-02f,-5.69557250e-02f,-6.26072437e-02f,+4.87594754e-02f,+1.38213620e-01f,
+4.58364002e-02f,+1.84231773e-02f,-1.08436562e-01f,-5.96501157e-02f,+1.66549429e-01f,
+2.10761614e-02f,-5.15897349e-02f,-2.55179424e-02f,-1.21286824e-01f,+1.04165502e-01f,
+1.19754277e-01f,-1.45078748e-01f,+1.21314593e-01f,-1.34424031e-01f,+4.08529863e-02f,
+7.16904476e-02f,-1.61995571e-02f,+8.24527740e-02f,+1.53262973e-01f,-4.69446778e-02f,
+1.55320793e-01f,+2.91248839e-02f,-2.94988722e-01f,+2.73813903e-01f,-2.84971297e-02f,
+1.40895009e-01f,+2.63706297e-02f,+4.48375531e-02f,+3.15121561e-02f,+1.13859631e-01f,
+4.18181390e-01f,-8.29830095e-02f,+4.92255874e-02f,-5.18562943e-02f,+1.92557871e-01f,
+2.41401076e-01f,+1.43244833e-01f,+9.20419767e-02f,-1.21546887e-01f,+1.58372670e-01f,
+8.98252279e-02f,+1.34214321e-02f,+8.18482935e-02f,+1.24729238e-01f,+7.56992847e-02f,
-2.38609090e-02f,+2.03046158e-01f,+1.98007226e-01f,-2.14085340e-01f,-1.63630307e-01f,
-9.44464803e-02f,+1.68352827e-01f,+6.03941306e-02f,+2.95168720e-02f,+8.18286687e-02f,
+2.48450130e-01f,+1.22340567e-01f,-9.00226682e-02f,+6.69777989e-02f,+1.74581110e-02f,
-2.85443719e-02f,-6.70000305e-03f,+9.96263027e-02f,+1.05690755e-01f,+4.85792644e-02f,
-1.05204917e-01f,+2.24538550e-01f,+2.43516356e-01f,+1.47595316e-01f,+6.62568631e-03f,
-3.12558636e-02f,+7.98313022e-02f,-2.80091297e-02f,-1.20348230e-01f,-1.41442209e-01f,
+1.16303213e-01f,+8.92984942e-02f,-4.72124964e-02f,+7.38997236e-02f,+1.48065850e-01f,
+5.14982045e-01f,+1.71346322e-01f,+7.61013571e-03f,+5.24185821e-02f,+1.91422284e-01f,
+1.65744528e-01f,+6.28381735e-03f,+4.27206941e-02f,+5.11572184e-03f,+1.11436807e-01f,
-3.08715720e-02f,-5.72359078e-02f,+2.13199496e-01f,-2.61808024e-03f,+5.12820389e-03f,
+1.76238120e-01f,+9.43644270e-02f,+3.12320981e-02f,+8.86686705e-03f,+1.21382914e-01f,
+1.82381004e-01f,+8.67127776e-02f,+1.62602067e-01f,+9.96323526e-02f,-1.37456814e-02f,
-6.71801940e-02f,+1.75376207e-01f,+1.10362403e-01f,-5.50778583e-02f,-3.27953920e-02f,
-1.54791288e-02f,-1.48697108e-01f,+1.23741604e-01f,+1.40969113e-01f,-7.33936438e-03f,
+3.38212661e-02f,+9.86485928e-02f,-6.61573261e-02f,+1.88601643e-01f,+3.26921701e-01f,
+1.03897050e-01f,+1.50447354e-01f,+6.09574430e-02f,-1.98161662e-01f,+2.09563360e-01f,
+1.38266549e-01f,+1.01611547e-01f,+1.37301445e-01f,+6.85020760e-02f,+3.39610211e-04f,
-1.37680337e-01f,-3.88196744e-02f,-7.97599331e-02f,+1.17171109e-01f,-1.70646869e-02f,
-3.05001903e-03f,-1.03030898e-01f,-1.93224549e-01f,+1.52327985e-01f,-6.76560774e-02f,
+1.19505905e-01f,+2.36684367e-01f,+1.57428935e-01f,+8.63321219e-03f,-9.24588460e-03f,
+1.21770082e-02f,+1.17571056e-01f,-6.51583597e-02f,-6.33702651e-02f,+2.51885861e-01f,
-1.95976064e-01f,+4.95210057e-03f,-2.02212974e-01f,+1.77738309e-01f,+1.19344771e-01f,
+6.19790480e-02f,+1.52245477e-01f,-1.12615153e-01f,+4.69881371e-02f,-1.40831172e-01f,
+1.85899451e-01f,-1.12226792e-01f,+6.10559322e-02f,+3.26628760e-02f,+1.40937597e-01f,
+1.47015095e-01f,+8.82930756e-02f,+7.01957979e-05f,+1.44127950e-01f,+1.21181026e-01f,
-5.06050214e-02f,+1.16932511e-01f,+1.31354555e-01f,+1.82839096e-01f,+2.50185225e-02f,
+1.91758871e-01f,+8.79985914e-02f,+2.32001133e-02f,+1.59447387e-01f,+3.61549631e-02f,
+5.26173674e-02f,+8.38200524e-02f,-7.14187101e-02f,+7.80724585e-02f,+9.01803449e-02f,
+6.29262347e-03f,+1.80764049e-01f,-2.68763807e-02f,+1.93023775e-02f,+7.35411197e-02f,
+2.48717293e-02f,+9.75924507e-02f,-2.29950193e-02f,+4.40252908e-02f,+1.82296638e-03f,
-2.58642156e-02f,+4.73581515e-02f,+4.29899208e-02f,+6.98959157e-02f,+1.34834245e-01f,
-1.85836535e-02f,+1.35409921e-01f,-2.68029720e-02f,-8.34179856e-03f,+9.94445458e-02f,
+9.82111320e-02f,+7.70711377e-02f,+9.58147198e-02f,+1.67233646e-01f,+1.28808524e-02f,
-8.88449792e-03f,-3.93326730e-02f,-8.73956829e-02f,+1.47929937e-01f,+6.00765981e-02f,
+5.98824732e-02f,+2.12249649e-03f,+1.14273071e-01f,+9.56933852e-03f,+1.48525625e-01f,
-1.96203619e-01f,+2.13266730e-01f,+1.52177885e-01f,-9.25455466e-02f,+2.67211022e-03f,
-1.92439184e-01f,+2.90681589e-02f,-1.86676178e-02f,+1.24471448e-01f,-3.79785933e-02f,
-1.60697922e-01f,+1.08558998e-01f,+1.45712554e-01f,-1.28392905e-01f,-1.97928697e-01f,
+7.23648667e-02f,+5.37094474e-02f,-2.02453751e-02f,+1.71399608e-01f,-6.19750172e-02f,
+6.21096827e-02f,-3.30932885e-02f,+6.22350164e-02f,+2.84136157e-03f,-1.57558143e-01f,
-1.46410257e-01f,+1.81165412e-01f,+1.21577978e-01f,-7.13665932e-02f,+8.63679722e-02f,
-1.02092348e-01f,+3.35994922e-02f,+4.87117954e-02f,+5.76388799e-02f,+1.67044941e-02f,
+7.66892731e-02f,+8.96183476e-02f,+1.05582185e-01f,-1.98581945e-02f,+5.68572842e-02f,
+3.17414477e-02f,-1.23646446e-01f,+5.58877885e-02f,+1.38954461e-01f,+1.44610196e-01f,
-9.88649055e-02f,-1.27824366e-01f,+1.08773112e-01f,+6.59169629e-02f,+9.46859196e-02f,
-5.92509620e-02f,-2.58414913e-02f,+4.51685209e-03f,+4.95337062e-02f,+2.96716124e-01f,
+1.03667967e-01f,+3.07039134e-02f,+1.67467073e-01f,-3.18249539e-02f,+1.52162276e-02f,
-2.34182719e-02f,+1.52014494e-01f,-4.06025983e-02f,-6.57156706e-02f,+1.22919783e-01f,
+2.63014823e-01f,-5.92571450e-03f,+3.09766792e-02f,+2.20523924e-01f,+1.32248715e-01f,
+4.25033495e-02f,-5.19366283e-03f,+4.02476996e-01f,+1.76067993e-01f,+1.75850347e-01f,
-3.21016610e-02f,+1.22854948e-01f,+1.14288576e-01f,-1.00782976e-01f,+2.37369258e-02f,
+7.59371519e-02f,+1.86444819e-02f,+1.03312664e-01f,+3.64210717e-02f,+1.16693661e-01f,
+9.19362605e-02f,+5.77907488e-02f,-3.36184003e-03f,+1.49701044e-01f,+4.85273376e-02f,
+2.58315410e-02f,+8.47875848e-02f,+4.02436331e-02f,-8.99719913e-03f,-1.76323131e-02f,
-2.96713952e-02f,+8.22863728e-02f,+9.15563852e-02f,+1.99341610e-01f,+1.14856064e-01f,
+2.14702263e-02f,+7.04219490e-02f,-1.47851571e-01f,+1.32901505e-01f,-6.52650297e-02f,
+1.82748228e-01f,-1.14944875e-01f,-5.37029691e-02f,-7.81449676e-03f,+1.12370059e-01f,
-2.31828704e-03f,+5.33190705e-02f,+2.86818407e-02f,+1.57311354e-02f,-1.00362627e-02f,
+2.31730580e-01f,+3.66670415e-02f,+2.61219501e-01f,+7.80338943e-02f,-1.04792789e-02f,
+1.61512181e-01f,+3.79340127e-02f,-1.10673644e-01f,-1.29287913e-02f,-1.40220404e-01f,
+7.18287006e-02f,+1.89877953e-02f,-1.06924005e-01f,+9.08880532e-02f,+6.80688536e-03f,
+2.12904140e-02f,-3.00874896e-02f,-4.49235700e-02f,+7.30687901e-02f,+1.13106638e-01f,
+6.55568987e-02f,-8.11730511e-03f,+1.36411697e-01f,+7.59403408e-02f,+1.05874434e-01f,
+3.49114020e-03f,-1.89229641e-02f,+1.67112142e-01f,-9.28841531e-02f,-2.10483894e-02f,
+2.04154655e-01f,+2.63656396e-03f,+5.99530041e-02f,+5.16309813e-02f,-4.25428376e-02f,
+1.74851380e-02f,-1.17498018e-01f,+1.84714552e-02f,+2.36433461e-01f,+5.60893007e-02f,
+1.71948746e-01f,-1.47852786e-02f,-1.23394086e-04f,-4.98443423e-03f,-7.01792166e-02f,
-1.21179849e-01f,+2.67190665e-01f,+6.31475523e-02f,+8.30148607e-02f,+9.01776459e-03f,
+5.23574352e-02f,+9.56907347e-02f,+1.22556062e-02f,+6.93566948e-02f,+9.65256691e-02f,
-4.55385074e-02f,+1.85700491e-01f,-7.79229961e-03f,+5.84626012e-03f,-2.29279534e-03f,
+1.06568247e-01f,+1.97035491e-01f,+4.53167930e-02f,+6.58389777e-02f,+1.31824881e-01f,
+1.21129990e-01f,+7.72024840e-02f,+1.50615230e-01f,-2.63716504e-02f,+7.18975961e-02f,
-8.67510960e-02f,+6.00198433e-02f,-7.39413351e-02f,-3.79522368e-02f,+9.78283435e-02f,
+9.74427685e-02f,+8.95949900e-02f,+1.71745159e-02f,-7.48411119e-02f,-3.13644782e-02f,
+9.86664519e-02f,-5.05748652e-02f,+1.21493936e-01f,+9.87153575e-02f,+1.44291922e-01f,
+7.88674802e-02f,+5.39471954e-02f,+5.03651500e-02f,+4.74435315e-02f,+7.31077939e-02f,
+2.18703263e-02f,+2.70641595e-01f,+4.76883762e-02f,+1.03899106e-01f,+4.27121036e-02f,
+1.19841425e-02f,-3.62341851e-02f,+1.28645509e-01f,+1.17094792e-01f,+5.88293821e-02f,
+6.53933967e-03f,+3.70296538e-02f,+2.55416855e-02f,+1.98605701e-01f,+1.25766948e-01f,
-5.21877706e-02f,+1.24495424e-01f,-8.54652673e-02f,+1.10114202e-01f,+3.59830558e-02f,
+2.66351476e-02f,-1.08760275e-01f,-1.24232192e-02f,+1.98092815e-02f,-5.71071124e-03f,
+1.07823191e-02f,+2.31512800e-01f,-9.19104787e-04f,+2.61097867e-02f,+2.76024789e-01f,
+6.70735016e-02f,+1.57930344e-01f,+6.96669221e-02f,+1.28249049e-01f,-2.50665913e-03f,
+1.60823539e-01f,+7.98548907e-02f,+4.98554744e-02f,+4.84216399e-02f,+3.50453183e-02f,
-3.39860916e-02f,+1.86484270e-02f,+1.88480057e-02f,+2.70805694e-02f,+2.89698299e-02f,
+1.14090055e-01f,-6.86365440e-02f,+1.20263264e-01f,+5.50918654e-02f,+1.48451015e-01f,
+5.42398058e-02f,+1.14700630e-01f,-1.14821211e-01f,-6.61322474e-02f,+1.01646557e-01f,
+3.18700075e-02f,+2.26601258e-01f,-5.26894778e-02f,+2.25702092e-01f,-2.82595884e-02f,
+9.98485535e-02f,+1.78139105e-01f,+5.28931431e-02f,-9.26279798e-02f,+1.25571445e-01f,
+1.06524676e-01f,+1.31710753e-01f,+3.42357084e-02f,+5.77629879e-02f,+1.31285354e-01f,
+1.75777301e-01f,-1.00179605e-01f,-5.50332572e-03f,+5.58931828e-02f,+1.25916839e-01f,
+5.82781397e-02f,+3.72097790e-02f,-1.64187346e-02f,+5.08359782e-02f,+4.38287668e-02f,
+2.85901070e-01f,+8.27978253e-02f,+7.30255842e-02f,+2.36232076e-02f,+7.97675699e-02f,
-3.01325414e-03f,-4.15450148e-02f,+1.49561390e-01f,+4.09230450e-03f,+1.29272684e-01f,
+1.30913481e-01f,+5.88254072e-02f,+1.98641717e-02f,+1.02428742e-01f,-2.83709075e-02f,
+1.64912380e-02f,+1.62048742e-01f,+6.76697195e-02f,-5.85864531e-03f,+7.49665126e-02f,
+3.52011733e-02f,+7.31481239e-02f,+1.81546658e-01f,+1.38275996e-01f,-5.37577160e-02f,
+8.01447555e-02f,-7.32081980e-02f,+8.21041614e-02f,-2.06456278e-02f,+8.83398280e-02f,
+7.29134381e-02f,+1.93841353e-01f,+2.68581156e-02f,+5.75467385e-02f,-2.54345797e-02f,
+1.41345277e-01f,-4.94941212e-02f,+1.74884245e-01f,+4.11726832e-02f,+2.04031412e-02f,
+2.02276811e-01f,+8.27709958e-02f,+2.16824919e-01f,+1.08245827e-01f,+9.39518865e-03f,
+1.10336185e-01f,-2.46494710e-01f,-1.12174816e-01f,-4.68349596e-03f,+2.41259690e-02f,
-8.13451484e-02f,+1.36048064e-01f,+1.27057537e-01f,+2.33741015e-01f,-7.25188330e-02f,
-5.93130365e-02f,+7.25925639e-02f,+2.07906634e-01f,+1.11693956e-01f,+2.49925628e-02f,
+1.40436977e-01f,-5.08292541e-02f,+1.38812184e-01f,+1.84037507e-01f,+4.27844822e-02f,
+6.34110346e-02f,+1.06432669e-01f,+1.31645063e-02f,-7.93425515e-02f,+1.17203489e-01f,
+4.02586311e-02f,+1.59281939e-01f,+1.08893521e-01f,+4.86145578e-02f,+2.24411655e-02f,
-8.14013034e-02f,+5.17572137e-03f,-6.56741783e-02f,+7.46753663e-02f,+1.29490435e-01f,
+1.34601846e-01f,+7.56251961e-02f,+6.41776994e-02f,-1.75437313e-02f,+1.28273591e-01f,
+1.24220580e-01f,+1.80713713e-01f,+2.13841990e-01f,+7.79849887e-02f,+8.00337363e-03f,
+1.21595236e-02f,+1.27310991e-01f,-1.14767225e-02f,+1.25497177e-01f,+1.08583823e-01f,
-1.93391126e-02f,+2.10817769e-01f,+5.57837263e-02f,+3.34705450e-02f,-4.47610840e-02f,
+1.29393771e-01f,-4.95865475e-03f,+4.30318303e-02f,-1.20951487e-02f,+1.41165644e-01f,
+6.41844571e-02f,-1.13609508e-02f,+1.58065051e-01f,+4.43190522e-02f,+1.39332507e-02f,
-1.79678632e-03f,+6.54891804e-02f,-4.76236604e-02f,+2.86285102e-01f,-1.83840305e-01f,
+1.88673913e-01f,+1.50403688e-02f,+1.06817178e-01f,+4.82774265e-02f,-1.15617355e-02f,
-3.94367687e-02f,+2.93281019e-01f,+1.13666043e-01f,-5.19723035e-02f,+8.34657550e-02f,
-6.04776032e-02f,+9.43743661e-02f,+1.10432118e-01f,+1.35368839e-01f,+2.02113941e-01f,
+5.50153181e-02f,+1.22778125e-01f,+1.27195954e-01f,-1.77284300e-01f,+3.28947715e-02f,
+4.98639531e-02f,-5.71621768e-02f,+7.24156871e-02f,+1.49572790e-01f,+6.96692616e-02f,
+2.12766510e-02f,+2.06875071e-01f,+1.67185843e-01f,-3.68583128e-02f,+6.71687573e-02f,
+7.36771002e-02f,-1.43875822e-01f,-3.67938548e-01f,+4.21765782e-02f,+1.48912236e-01f,
+8.02477300e-02f,+9.78418440e-02f,+3.17763574e-02f,-7.65462220e-02f,+4.84715551e-02f,
+1.66814238e-01f,+4.13801596e-02f,+2.17590164e-02f,+2.26450682e-01f,+1.80574134e-01f,
-1.12453010e-02f,+1.62131593e-01f,+8.79891589e-02f,+1.82098728e-02f,+1.27307475e-01f,
+1.95342138e-01f,+1.54454157e-01f,-7.33211357e-03f,+5.51740155e-02f,+6.50646091e-02f,
+6.40197890e-03f,+8.38095397e-02f,-7.72772729e-02f,+2.99848795e-01f,+1.89895645e-01f,
+1.41700881e-03f,+8.01754072e-02f,+1.87971234e-01f,+1.26957998e-01f,+1.35266304e-01f,
-4.11113314e-02f,-6.40528277e-02f,+5.07862195e-02f,+5.24732955e-02f,-1.02045409e-01f,
-6.26075864e-02f,+1.79782361e-02f,-3.82102653e-02f,-5.20344339e-02f,-4.97288331e-02f,
+6.59947097e-02f,+5.81164891e-03f,-2.57319421e-01f,+6.10279627e-02f,+1.57451212e-01f,
+1.84291825e-01f,+1.57038748e-01f,-5.25375176e-03f,+1.46342501e-01f,+1.05627961e-01f,
-2.33824309e-02f,+1.73786238e-01f,+1.91373512e-01f,+9.47962552e-02f,+1.25924870e-01f,
+5.87858111e-02f,+3.15539055e-02f,+9.34335217e-02f,+1.38734162e-01f,+1.58382162e-01f,
+1.73528001e-01f,+1.06878698e-01f,-6.36808723e-02f,+1.73986614e-01f,+1.16009802e-01f,
-5.52739054e-02f,+8.01936090e-02f,+3.87776755e-02f,+1.90169334e-01f,+3.21640968e-02f,
+1.15056507e-01f,+8.77908394e-02f,+1.38951195e-02f,+4.11440074e-01f,+2.08954886e-01f,
+2.03710660e-01f,+4.95617986e-02f,+5.93334287e-02f,+2.18814835e-01f,+9.11779329e-02f,
-5.68621717e-02f,-1.54789453e-02f,-9.81891379e-02f,+7.51258293e-03f,-5.02965786e-02f,
-9.26232636e-02f,+1.30658016e-01f,-1.19650640e-01f,+3.92502069e-01f,+2.55746603e-01f,
+2.68580522e-02f,+1.30034506e-01f,+5.35868965e-02f,+2.85061657e-01f,+3.07469703e-02f,
+1.14913292e-01f,+1.66287303e-01f,+3.22117805e-02f,-7.75575405e-03f,+1.47333015e-02f,
+1.08111382e-01f,-6.94724396e-02f,+7.11686909e-03f,+5.73948771e-02f,+1.37954280e-01f,
+5.64711131e-02f,+2.32929587e-01f,-2.44575157e-03f,-1.12301745e-02f,+1.94204729e-02f,
+2.89340075e-02f,+1.15869744e-02f,+1.81555793e-01f,+1.54690966e-01f,+4.27642837e-02f,
+1.87191308e-01f,-4.13981862e-02f,+2.19280362e-01f,+4.90822382e-02f,+1.07512832e-01f,
+1.97171438e-02f,+2.17702329e-01f,+2.33882174e-01f,-1.18515871e-01f,-6.64332462e-03f,
-1.08309500e-02f,+2.06418723e-01f,+2.42504939e-01f,+1.39935806e-01f,+1.41054645e-01f,
+4.82479744e-02f,-2.76558474e-03f,+1.27303779e-01f,+2.79527664e-01f,+5.33201396e-02f,
-4.95892623e-03f,+5.28872898e-03f,-1.92637622e-01f,+3.39007489e-02f,+1.33550212e-01f,
+9.67319086e-02f,+5.37005812e-02f,+1.09899864e-01f,-2.89085180e-01f,+1.16349697e-01f,
-2.16896728e-01f,+1.02946879e-02f,+1.66202977e-01f,+6.33150563e-02f,+3.69578898e-02f,
+3.95999216e-02f,+1.25540301e-01f,+1.23838767e-01f,+1.51061878e-01f,+1.15535639e-01f,
+7.03879967e-02f,+3.37935276e-02f,+3.62767130e-02f,+7.86034465e-02f,+2.53364798e-02f,
+1.10767834e-01f,+2.07093582e-01f,-8.33264645e-03f,+2.01546967e-01f,+4.93861996e-02f,
-9.47057307e-02f,+7.44780377e-02f,+2.68747639e-02f,+7.39930421e-02f,+2.14079171e-01f,
+6.64391145e-02f,+2.93541759e-01f,-6.37742318e-03f,-2.06274334e-02f,+2.61325151e-01f,
-1.59566978e-03f,+1.92834482e-01f,-1.63854912e-01f,+1.48252189e-01f,-6.98308423e-02f,
-1.37030873e-02f,+1.57180652e-01f,+6.27921596e-02f,+2.63315104e-02f,+1.21926658e-01f,
+1.14641236e-02f,+1.70013215e-02f,-6.30600899e-02f,-1.57779977e-01f,-7.56175146e-02f,
+2.12618992e-01f,+8.96119848e-02f,-1.00137210e-02f,+2.92629242e-01f,+2.09226441e-02f,
+1.63496390e-01f,+8.53266865e-02f,+1.15367331e-01f,-2.23452840e-02f,-8.33699852e-02f,
+6.71503469e-02f,+1.32320508e-01f,+4.04281095e-02f,-5.22784442e-02f,-7.21958727e-02f,
-4.19253111e-01f,+9.45063084e-02f,-2.96921767e-02f,-3.62574942e-02f,+9.84715894e-02f,
+8.58807191e-02f,+7.29315802e-02f,+3.04517686e-01f,-4.27568704e-02f,-2.10125539e-02f,
+1.16619542e-01f,+7.22125918e-02f,+1.64693877e-01f,+2.05915123e-01f,+1.97052434e-01f,
+1.23821765e-01f,+8.42436776e-02f,+1.24089450e-01f,+2.17740580e-01f,+2.15667769e-01f,
-4.75119315e-02f,+1.22490264e-01f,-1.31938651e-01f,-6.59454265e-04f,+1.83652908e-01f,
+2.36245140e-01f,+2.10651934e-01f,+1.54954940e-01f,+1.85605139e-01f,+7.07433745e-02f,
+1.32148713e-02f,+7.31602758e-02f,+6.33261050e-04f,+7.91162029e-02f,+1.49108276e-01f,
-1.03446853e-03f,-8.34984034e-02f,+4.82599102e-02f,+1.94485188e-01f,+1.05918221e-01f,
+1.33256981e-04f,+7.13473037e-02f,+5.76420873e-02f,+8.75407979e-02f,+1.07376263e-01f,
-1.07072378e-02f,+1.10089488e-01f,+1.61656246e-01f,+8.67895335e-02f,+2.69145966e-02f,
+1.13596372e-01f,+1.25749901e-01f,+7.29206651e-02f,+2.05471054e-01f,-1.56032033e-02f,
+1.25535533e-01f,+8.39554071e-02f,+2.90317774e-01f,+2.05407903e-01f,+5.43822348e-02f,
+2.49748528e-01f,+1.69305623e-01f,+1.02049902e-01f,+4.17430736e-02f,+1.66190282e-01f,
+2.10097879e-01f,-1.70594566e-02f,+1.06081776e-01f,+5.00206128e-02f,+4.00388725e-02f,
+1.44576617e-02f,+1.02813616e-01f,+3.60134915e-02f,+3.61001432e-01f,+1.33329242e-01f,
+6.64011091e-02f,-2.11804509e-02f,-4.54488583e-02f,+7.40139335e-02f,+3.64152119e-02f,
+2.30452001e-01f,+1.36998236e-01f,+1.51908919e-01f,+1.53272778e-01f,-4.25390713e-02f,
-2.61224937e-02f,-6.28248453e-02f,+8.96130130e-02f,+1.44138694e-01f,-2.28958189e-01f,
-3.59025747e-02f,+1.11079691e-02f,+1.29755095e-01f,+4.71436791e-02f,-1.71954110e-02f,
-3.31825726e-02f,-1.70431379e-02f,+1.42268404e-01f,+5.03400378e-02f,+8.60588104e-02f,
+7.36036375e-02f,+2.31330153e-02f,-1.78735569e-01f,+4.27236827e-03f,+2.00595185e-01f,
+1.92298084e-01f,-8.49553868e-02f,+1.10929243e-01f,+2.80263126e-02f,+1.81804165e-01f,
-9.18335244e-02f,-1.21499654e-02f,-7.87861366e-03f,+2.54201796e-02f,+2.00435743e-01f,
+1.32898793e-01f,+2.00197138e-02f,+5.78429326e-02f,+1.16805695e-01f,-5.66324294e-02f,
+1.38897076e-02f,+2.63623238e-01f,-8.31763968e-02f,-7.04394607e-03f,+3.41925204e-01f,
-9.10702161e-03f,+1.32248774e-01f,+1.23511933e-01f,+2.26014387e-02f,-1.97366215e-02f,
-3.42713706e-02f,+1.96692813e-02f,+7.05002397e-02f,-1.41457785e-02f,-2.05271140e-01f,
-4.39226925e-02f,-1.46446256e-02f,-1.69384796e-02f,+1.47768587e-01f,-3.43827941e-02f,
-9.25183296e-02f,+1.73063710e-01f,+1.44812793e-01f,+1.62953034e-01f,+8.29571858e-02f,
+1.67275891e-01f,+3.34762149e-02f,+2.65061054e-02f,-1.06424438e-02f,+1.43917218e-01f,
-5.00335097e-02f,-2.70823501e-02f,+3.43189538e-02f,+2.70211369e-01f,+3.82949971e-02f,
+7.36120790e-02f,+1.39593184e-01f,+1.74499661e-01f,+7.76397884e-02f,+1.01661123e-01f,
+2.45776512e-02f,-3.49905938e-01f,+2.10638449e-01f,-2.02944815e-01f,-2.38999590e-01f,
+2.18546744e-02f,+7.29573071e-02f,+4.40015830e-03f,-3.01888455e-02f,+3.10379863e-02f,
-1.02565568e-02f,+1.08239196e-01f,-8.84418562e-02f,+1.63569659e-01f,+5.10357656e-02f,
+3.58813219e-02f,-1.99431204e-03f,+6.80010915e-02f,+1.52257457e-01f,+1.84860289e-01f,
-5.22222407e-02f,+8.52568820e-03f,-6.09120391e-02f,+8.31461847e-02f,+2.26291478e-01f,
+9.46646035e-02f,-9.62329060e-02f,+8.69839862e-02f,+9.75510255e-02f,+1.32520631e-01f,
+2.20478382e-02f,+5.31546585e-03f,-7.50008300e-02f,-2.31995463e-01f,+5.66313528e-02f,
+2.01782472e-02f,+1.31963700e-01f,+1.06198356e-01f,+4.88973930e-02f,+2.46846139e-01f,
+1.19962931e-01f,+1.19618863e-01f,+8.73420015e-02f,-3.10468301e-03f,+9.07536596e-02f,
+5.91646954e-02f,-2.16409445e-01f,+4.84610721e-02f,-9.92182549e-03f,+6.81353062e-02f,
+1.06166609e-01f,+1.14369795e-01f,+8.58651698e-02f,+1.32746413e-01f,+2.46635437e-01f,
+4.99899946e-02f,-3.62234823e-02f,+1.16439588e-01f,+1.48217544e-01f,+4.93170433e-02f,
+6.18812814e-03f,-1.06763601e-01f,+1.57653280e-02f,+1.62860051e-01f,-5.81320450e-02f,
+3.75886410e-02f,+1.87331751e-01f,+5.95801771e-02f,+2.62503121e-02f,+6.77918419e-02f,
-5.42874448e-03f,-1.11037314e-01f,-1.22054152e-01f,+2.77090400e-01f,-8.40356350e-02f,
+1.18566550e-01f,+4.74505946e-02f,+7.65822828e-02f,+8.18640143e-02f,+1.46082163e-01f,
-9.39160120e-03f,-7.33585283e-02f,+1.49995640e-01f,+1.03044555e-01f,+3.50142419e-01f,
-8.60144794e-02f,+1.59977764e-01f,+2.11107954e-01f,+1.33883625e-01f,+6.29393235e-02f,
+1.07993431e-01f,+3.78145836e-02f,+2.72807807e-01f,+2.23091409e-01f,-1.21078510e-02f,
+1.81814656e-01f,+2.78507650e-01f,+7.77222514e-02f,-1.19932806e-02f,+4.21794839e-02f,
+1.50109887e-01f,+7.87391588e-02f,-2.40523711e-01f,+8.18286166e-02f,+9.00246724e-02f,
-4.47244123e-02f,+9.67179239e-02f,+4.97156829e-01f,+1.22883096e-01f,+1.05036788e-01f,
-1.30491033e-01f,+1.53872818e-01f,+1.92866959e-02f,+1.02255233e-01f,+3.19159091e-01f,
-1.26313955e-01f,+1.91070139e-01f,+1.05041917e-02f,+3.00190657e-01f,-2.15424076e-01f,
-8.16920623e-02f,+9.81505886e-02f,-4.89701796e-03f,+1.88000262e-01f,-3.33174801e-04f,
+4.23472710e-02f,+1.21825449e-01f,+2.23716977e-03f,-7.92002156e-02f,+3.74025330e-02f,
+9.04764310e-02f,+6.02454953e-02f,+9.77590680e-03f,-1.43454422e-03f,+6.76372647e-02f,
-8.33355784e-02f,+2.39181742e-01f,-1.41445026e-02f,-5.39849140e-02f,+1.08358078e-01f,
+2.91192513e-02f,-4.67604473e-02f,-1.63059086e-02f,+1.20219350e-01f,+9.35453698e-02f,
-8.10202286e-02f,+2.32070267e-01f,+1.77382573e-01f,+3.01478803e-01f,+2.11676806e-01f,
-8.56720656e-02f,-1.27730653e-01f,+6.20132498e-02f,+6.69889152e-02f,-5.42326532e-02f,
-4.37998511e-02f,-1.17232248e-01f,+1.24381527e-01f,+1.29843891e-01f,+3.14490110e-01f,
+9.58650112e-02f,+1.64271325e-01f,+1.66684866e-01f,+2.54731506e-01f,-8.74321908e-02f,
+6.96745962e-02f,+1.44927755e-01f,+2.08957046e-01f,+1.31296605e-01f,+7.47985020e-02f,
+9.59824026e-02f,+4.71645772e-01f,-6.25550747e-02f,+2.26272285e-01f,+7.46446326e-02f,
+1.40280873e-01f,-1.84891243e-02f,+2.86294450e-03f,-1.11822963e-01f,-2.77525306e-01f,
+1.70689099e-03f,-1.04797550e-01f,+9.47543755e-02f,-2.70471990e-01f,+3.06592405e-01f,
-2.64984537e-02f,+1.63169041e-01f,+1.35533866e-02f,+2.81142201e-02f,+1.13555469e-01f,
+2.85889447e-01f,-6.87380647e-03f,+4.83675860e-02f,+6.68620095e-02f,-8.67719725e-02f,
+2.15254173e-01f,+1.63970977e-01f,+5.85653260e-02f,+1.62627533e-01f,+1.47287130e-01f,
-3.14147472e-02f,+1.01300098e-01f,+1.43342584e-01f,+9.61891562e-02f,-6.46639317e-02f,
+1.33471012e-01f,+8.56450275e-02f,+6.23340607e-02f,-9.25326124e-02f,+9.89634097e-02f,
-7.65223475e-03f,-1.62044615e-01f,+1.37093186e-01f,-4.80244048e-02f,+2.39683986e-01f,
+1.95466094e-02f,+5.64668104e-02f,+2.98259109e-02f,+7.45383874e-02f,+1.29857600e-01f,
+7.68911913e-02f,-1.82906225e-01f,+1.63097426e-01f,-9.88617986e-02f,-9.43410024e-02f,
-9.68279466e-02f,+1.98735192e-01f,+8.40623081e-02f,-1.39461756e-01f,+2.82841831e-01f,
+1.56967774e-01f,+7.71603212e-02f,+8.44265372e-02f,+2.60795355e-01f,+8.46271142e-02f,
+2.71247089e-01f,+6.20446205e-02f,-4.25938815e-02f,+2.94519011e-02f,+5.76077178e-02f,
+1.70592383e-01f,+2.24137038e-01f,+4.74515706e-02f,+1.13221839e-01f,+6.59352064e-01f,
-6.72942400e-02f,+8.85103419e-02f,+1.92924902e-01f,+5.70898391e-02f,-6.62292214e-03f,
-1.56723429e-02f,-1.79400072e-02f,+4.86597568e-02f,+1.06944844e-01f,+1.32071957e-01f,
+2.86083877e-01f,-1.94650330e-02f,+4.03185859e-02f,-5.57790808e-02f,-7.17122778e-02f,
+1.11021802e-01f,-1.06682718e-01f,+3.62440087e-02f,-5.42452447e-02f,+1.81121781e-01f,
+5.66556826e-02f,+9.45963264e-02f,-3.93449031e-02f,+8.12698901e-02f,-6.36687204e-02f,
+1.40966326e-01f,+3.37589718e-02f,+2.14302674e-01f,+1.55620873e-01f,-1.31869223e-02f,
+1.37140397e-02f,-7.77489096e-02f,+1.51192427e-01f,+2.06259504e-01f,-2.78197378e-01f,
+1.39908299e-01f,+5.05184233e-02f,+1.09473571e-01f,-2.25490145e-02f,+7.64522776e-02f,
+2.19577864e-01f,+1.27015308e-01f,+7.12279230e-02f,-1.07954919e-01f,+1.05460465e-01f,
+2.04556033e-01f,+1.68491453e-01f,+1.11870885e-01f,+1.53602466e-01f,-7.41174221e-02f,
+2.13912874e-02f,+9.72160622e-02f,-8.76097232e-02f,+1.99206978e-01f,+2.54961222e-01f,
+7.92865828e-02f,+6.12520101e-03f,+4.82629798e-02f,-1.64037272e-01f,+8.84251110e-03f,
+2.12990701e-01f,+1.62408903e-01f,+1.09044194e-01f,+4.56604548e-02f,+2.32740138e-02f,
-1.95100438e-02f,+1.04731649e-01f,-3.26174833e-02f,-2.33755261e-02f,+1.83342829e-01f,
+1.98442176e-01f,-7.47970343e-02f,+5.64859286e-02f,+4.73111272e-02f,+5.43873087e-02f,
+2.27215439e-01f,-7.65238628e-02f,+7.54944980e-02f,+1.22830220e-01f,-1.29966944e-01f,
+7.68580213e-02f,-2.37119049e-02f,+2.51308590e-01f,+2.84860790e-01f,+7.27791712e-02f,
-1.28303124e-02f,-1.73654705e-02f,+1.34908790e-02f,+2.49990135e-01f,+9.47237387e-02f,
+9.26827826e-03f,-3.16375196e-02f,+4.25986238e-02f,+3.76125984e-02f,-8.32961127e-02f,
+3.16675678e-02f,+2.80616909e-01f,+1.21456720e-02f,-4.50613210e-03f,+3.94436903e-02f,
+4.86438833e-02f,+1.53748140e-01f,+1.36735216e-01f,+7.76497200e-02f,+1.42649993e-01f,
+7.87601806e-03f,+9.13096368e-02f,+6.95746541e-02f,+1.01635363e-02f,-1.63425077e-02f,
+1.42648607e-01f,+2.86314487e-01f,+2.49823987e-01f,+1.36418760e-01f,+9.15053114e-02f,
-5.41686006e-02f,+3.63487266e-02f,-4.36555892e-02f,+9.05269757e-02f,+5.62509559e-02f,
-3.03816646e-02f,+5.97269647e-02f,+6.69557452e-02f,+5.22714928e-02f,-9.12283361e-02f,
+4.75388616e-02f,+2.47511953e-01f,+2.16744691e-01f,+6.03895215e-03f,+1.16059817e-01f,
-2.67358311e-02f,+1.98746681e-01f,-2.94547155e-02f,-5.40473089e-02f,+2.78683156e-02f,
+1.02462679e-01f,+2.82678846e-02f,-8.17623883e-02f,-1.78465657e-02f,+1.16291352e-01f,
+1.44447371e-01f,+1.02129485e-02f,-7.15612769e-02f,+1.52325049e-01f,+3.02409232e-01f,
+2.09117293e-01f,+1.00309625e-01f,+3.47875282e-02f,+1.49078399e-01f,-1.90828498e-02f,
+1.26732469e-01f,+4.72428575e-02f,-2.78587770e-02f,+5.11537939e-02f,+8.86523649e-02f,
-1.45196140e-01f,+1.16431370e-01f,-4.47061658e-02f,+3.42382863e-02f,+6.57937005e-02f,
+3.12880725e-02f,-2.59027779e-01f,+7.57672638e-02f,+8.19596425e-02f,+6.96009919e-02f,
-4.94815260e-02f,+2.06392437e-01f,+1.11603983e-01f,+1.26665443e-01f,+9.26240385e-02f,
+5.07311039e-02f,-3.97286303e-02f,+3.99425849e-02f,+2.06048623e-01f,+2.32660752e-02f,
-4.51058429e-03f,+7.82107413e-02f,-1.61937959e-02f,+8.05025175e-03f,+2.17719246e-02f,
+1.99470311e-01f,-1.53762121e-02f,+1.97481677e-01f,+1.00396015e-01f,+1.01484619e-01f,
-5.05011790e-02f,-7.77883083e-02f,-6.23764284e-02f,-1.89304911e-02f,+1.38872191e-01f,
+3.85257266e-02f,-2.60301633e-04f,+8.21055248e-02f,+7.89921880e-02f,-3.77532542e-02f,
+1.86628088e-01f,-2.84343679e-02f,-2.67696977e-02f,+2.92350769e-01f,+3.19724858e-01f,
+1.59479287e-02f,+1.27371699e-01f,-1.92010850e-02f,+1.58995524e-01f,+7.76765198e-02f,
-8.88398811e-02f,+2.22691506e-01f,+9.65301543e-02f,-3.58918458e-02f,+2.23319039e-01f,
+3.66781466e-02f,+2.99250573e-01f,+1.98879451e-01f,-1.80920213e-02f,+2.60914356e-01f,
-1.94061965e-01f,+4.45862971e-02f,+3.59321050e-02f,+6.93391040e-02f,+7.71118328e-02f,
+1.50937781e-01f,+6.94846036e-03f,+1.22193575e-01f,+2.37055909e-04f,+6.88054115e-02f,
-2.43313044e-01f,-6.77779093e-02f,-2.23251730e-02f,+3.58989149e-01f,-2.33887862e-02f,
-1.14855655e-01f,-1.36040887e-02f,+9.44923535e-02f,+2.18254983e-01f,+1.14251733e-01f,
+1.72382012e-01f,-2.94786654e-02f,+2.63264067e-02f,-3.88685837e-02f,-3.56225893e-02f,
+3.12902369e-02f,-5.33394814e-02f,+2.98662204e-02f,-8.82650167e-02f,+8.08514431e-02f,
-1.10532254e-01f,-3.48958895e-02f,-1.60689801e-01f,+5.91387749e-02f,+1.58210233e-01f,
-1.78750511e-02f,-3.59973609e-01f,-1.10438861e-01f,-1.77625660e-02f,+9.37507004e-02f,
+1.49365917e-01f,+1.08717673e-01f,+2.16942325e-01f,-2.03793421e-01f,-4.92761247e-02f,
+9.02153403e-02f,-1.17740305e-02f,+2.80271888e-01f,-6.89514279e-02f,+1.71624079e-01f,
+1.09891348e-01f,+6.77502677e-02f,+4.88719977e-02f,+1.52064845e-01f,-3.60616781e-02f,
+1.34865493e-01f,+9.50656161e-02f,+1.22042447e-01f,+1.65731952e-01f,-1.18613774e-02f,
+2.54738070e-02f,+2.84794383e-02f,+1.00924700e-01f,+2.07914896e-02f,+7.10753277e-02f,
+1.44464923e-02f,+5.98783419e-03f,+8.97477046e-02f,+1.58436716e-01f,+1.11497203e-02f,
+6.42433837e-02f,+3.22773755e-02f,+6.97565377e-02f,-4.02112082e-02f,+3.38929892e-02f,
+9.35731158e-02f,-8.22506398e-02f,+1.76218539e-01f,+4.70890850e-03f,+1.80187728e-02f,
+1.36059038e-02f,+1.80645496e-01f,-8.00209716e-02f,+1.41795173e-01f,+1.02128163e-01f,
+1.79322258e-01f,+1.64256841e-01f,+1.14183709e-01f,+7.85052329e-02f,+1.86305866e-01f,
+2.67834608e-02f,+1.46781281e-02f,+7.07618371e-02f,+3.18970755e-02f,+3.19391722e-03f,
-6.09333906e-03f,+4.66556735e-02f,+4.84802350e-02f,+7.81711712e-02f,+3.41589600e-02f,
+6.00486137e-02f,+2.95847058e-01f,-4.90194783e-02f,+5.72401062e-02f,-2.02097762e-02f,
-1.10768206e-01f,-3.11358981e-02f,+4.67584096e-02f,+1.14427343e-01f,+8.66028965e-02f,
+1.94634750e-01f,-9.83356386e-02f,+9.12997127e-02f,+4.77917232e-02f,+1.18641295e-01f,
+1.10580429e-01f,-6.65742299e-03f,+7.00282976e-02f,-2.96558253e-02f,-2.52664667e-02f,
+1.96725950e-02f,+3.77950184e-02f,+1.42453551e-01f,+5.15457988e-02f,+7.12607726e-02f,
+1.29175752e-01f,+5.12501709e-02f,+2.23797765e-02f,+9.72822309e-02f,-8.79849680e-03f,
+2.34618813e-01f,+8.90473500e-02f,+1.22181185e-01f,+8.63796249e-02f,-6.39263913e-02f,
-4.72586639e-02f,+3.60409133e-02f,-3.76151167e-02f,+8.58920068e-02f,+4.65641171e-02f,
+4.87892553e-02f,+3.05556245e-02f,+1.50509283e-01f,+9.09776390e-02f,-4.55370769e-02f,
+1.27262976e-02f,+1.86952293e-01f,+1.21527284e-01f,+2.97706435e-03f,-1.58812016e-01f,
+1.51952535e-01f,+7.71266893e-02f,+1.88388586e-01f,-6.63383678e-03f,+2.83149872e-02f,
+1.24291983e-02f,-6.35885745e-02f,+4.50880788e-02f,+1.57131821e-01f,+1.46335974e-01f,
+6.14019446e-02f,+1.17177479e-01f,+4.21544425e-02f,-2.42582913e-02f,+5.31058609e-02f,
+2.07702816e-01f,+1.42524198e-01f,-2.61961669e-02f,+1.12564504e-01f,-9.87184197e-02f,
-1.50776014e-01f,+4.62608561e-02f,+3.42979067e-04f,+6.94140717e-02f,+1.32543951e-01f,
+1.70997813e-01f,+1.53486148e-01f,+8.63502845e-02f,-1.25548005e-01f,+6.12535365e-02f,
+1.17759921e-01f,-6.99029416e-02f,-9.82977636e-03f,+1.56817332e-01f,-4.64963615e-02f,
+7.83395544e-02f,+1.34235322e-01f,+1.25568256e-01f,+9.85651761e-02f,-6.34248108e-02f,
+1.34378731e-01f,+8.15863386e-02f,-1.09988777e-02f,+1.28241092e-01f,+8.46473908e-04f,
+2.01837465e-01f,+1.31278291e-01f,-8.21983814e-02f,+9.78471339e-02f,+6.81169480e-02f,
+4.51501422e-02f,+1.16145402e-01f,+8.20933431e-02f,+1.95321038e-01f,-6.69521838e-02f,
+9.54285860e-02f,+2.06516646e-02f,+2.41192460e-01f,-5.80960959e-02f,-4.86289710e-03f,
+1.35519162e-01f,-7.56668672e-03f,-5.36600091e-02f,+9.25870240e-02f,+1.50050655e-01f,
+2.89942157e-02f,-2.60691587e-02f,+5.39838709e-02f,+1.79447960e-02f,+9.63349417e-02f,
+7.10275248e-02f,-1.34854205e-02f,+1.99276730e-01f,+4.15170938e-02f,+1.34279922e-01f,
+3.67275365e-02f,+3.16018872e-02f,+3.29426937e-02f,+4.31357846e-02f,-7.59789869e-02f,
+1.34885013e-01f,+8.50010067e-02f,+1.27645999e-01f,+1.93132296e-01f,+1.26378000e-01f,
+2.50945956e-01f,+4.73044738e-02f,+9.58309844e-02f,+1.45411283e-01f,+5.83701991e-02f,
+1.54536530e-01f,-5.82520477e-02f,+2.13260114e-01f,+1.13586962e-01f,+9.06263944e-03f,
+1.43823819e-02f,-3.47026400e-02f,+9.56450999e-02f,+1.45392999e-01f,-2.80569587e-03f,
-1.00567481e-02f,+1.20132081e-01f,+1.99570715e-01f,-8.97270739e-02f,-1.67485550e-02f,
+5.69246821e-02f,+7.67315701e-02f,+9.72849969e-03f,+1.79807663e-01f,-1.32454876e-02f,
-5.51998056e-02f,+2.43418798e-01f,+1.58651859e-01f,+1.60309985e-01f,+1.21663190e-01f,
+1.02955685e-03f,+1.36409417e-01f,-1.50952432e-02f,+1.03306361e-01f,+1.18664168e-01f,
-4.53224853e-02f,+7.24399239e-02f,+1.30653754e-01f,+4.29303385e-02f,+1.72470972e-01f,
+8.57275277e-02f,-2.63960566e-02f,+8.09451193e-02f,+8.98774639e-02f,-3.69824432e-02f,
+2.27458626e-01f,+1.00379370e-01f,+5.95175549e-02f,+8.77052769e-02f,+1.11657374e-01f,
+6.55217394e-02f,-7.29163140e-02f,+1.04775712e-01f,+1.30621465e-02f,-6.87892362e-02f,
+1.35682270e-01f,-9.32249182e-04f,+4.06987183e-02f,+2.84494795e-02f,+1.40584469e-01f,
+6.06307238e-02f,+8.55363309e-02f,-1.15687177e-02f,+7.54978135e-02f,+1.14672929e-01f,
+1.28642365e-01f,+1.75806448e-01f,+1.52444795e-01f,+2.13834181e-01f,+1.85285211e-01f,
+4.25546877e-02f,+8.86632353e-02f,+2.75840797e-02f,+5.38980141e-02f,+1.04873516e-01f,
+2.98699457e-02f,+9.75584090e-02f,+9.37313884e-02f,+1.13677166e-01f,+8.77688602e-02f,
-6.93605095e-02f,+1.91748232e-01f,+1.24148272e-01f,+1.13450877e-01f,+1.02916947e-02f,
+5.51739410e-02f,-9.90492664e-03f,+1.38598755e-02f,-2.24732067e-02f,+1.21869713e-01f,
-9.35955569e-02f,-8.10127929e-02f,+1.04925394e-01f,+6.20888509e-02f,+1.56556014e-02f,
-6.91706836e-02f,-2.15766411e-02f,+3.97646353e-02f,-2.17697257e-03f,+7.49219358e-02f,
+1.05318084e-01f,+1.04324602e-01f,+7.51085058e-02f,+7.97788948e-02f,+2.19762802e-01f,
+2.32069626e-01f,+5.89834079e-02f,-1.46133423e-01f,+7.47417361e-02f,+3.51868384e-02f,
+6.08186275e-02f,-9.70665831e-03f,+2.17682272e-01f,+3.84406894e-02f,+1.02296963e-01f,
+4.00551669e-02f,-6.82757571e-02f,+6.37710840e-02f,+6.55639246e-02f,+1.09182097e-01f,
+2.50243872e-01f,+4.42577899e-02f,+1.41617864e-01f,-7.21459612e-02f,+5.81279099e-02f,
+5.70124909e-02f,+4.41702828e-02f,-1.34237424e-01f,+3.01726609e-01f,+6.81904331e-02f,
+9.64889675e-02f,+4.07444648e-02f,-2.92777330e-01f,+1.48621440e-01f,+1.32843435e-01f,
+1.82921380e-01f,-1.23082493e-02f,+9.67818424e-02f,-6.16523437e-02f,-4.79193777e-03f,
-1.04054116e-01f,+1.06035434e-01f,+2.17130244e-01f,+5.63599840e-02f,+1.11759022e-01f,
-9.65947881e-02f,+5.45175895e-02f,+1.67508751e-01f,-5.60574941e-02f,+1.45524070e-02f,
+1.40142575e-01f,+5.31363934e-02f,+2.15675890e-01f,-2.81033404e-02f,+1.58724770e-01f,
+9.50565040e-02f,+3.50837372e-02f,+7.30909873e-03f,+9.14830267e-02f,+5.06715514e-02f,
+5.17726801e-02f,+1.72913015e-01f,+2.05199674e-01f,+8.28824192e-02f,-7.54179657e-02f,
+2.55950633e-02f,-4.05898951e-02f,+1.50323302e-01f,-2.86099734e-03f,+5.91104776e-02f,
+2.25792229e-02f,+9.59469900e-02f,+7.95819834e-02f,+9.81485937e-03f,-5.28232269e-02f,
+4.43596654e-02f,+4.06140201e-02f,-3.94484438e-02f,+6.06357381e-02f,+1.03469849e-01f,
+1.22739151e-01f,+1.21578716e-01f,+1.90956429e-01f,+6.11209683e-02f,+2.01380923e-01f,
+5.92982173e-02f,+1.77700877e-01f,-2.67226547e-02f,+1.03670014e-02f,+2.42802620e-01f,
+1.46500766e-01f,-4.84086350e-02f,+4.41116281e-02f,+3.84946093e-02f,-3.75385620e-02f,
+1.32644787e-01f,-8.31496865e-02f,+2.22066455e-02f,+1.67001262e-01f,+5.49191162e-02f,
+1.46349385e-01f,+1.43058985e-01f,+9.06234980e-02f,+7.42429495e-02f,-1.11468717e-01f,
+2.44537055e-01f,+2.03279063e-01f,-3.62341292e-02f,+1.53306164e-02f,+7.84335658e-02f,
+4.76948172e-02f,+1.28916353e-01f,+1.01937801e-01f,+8.62677097e-02f,-2.20881850e-02f,
+3.73470075e-02f,-1.20531254e-01f,+1.25301719e-01f,+7.63256941e-03f,+5.42622097e-02f,
+2.00165391e-01f,+1.52660608e-01f,+1.65619805e-01f,+8.68728757e-02f,-3.01918294e-02f,
+8.58966857e-02f,+2.01899245e-01f,+3.78232896e-02f,+8.77128989e-02f,-7.27425097e-03f,
+3.21962051e-02f,+4.94441912e-02f,-9.02163982e-02f,+1.00099839e-01f,+1.12956971e-01f,
+9.24476087e-02f,+1.11092953e-02f,+9.38976333e-02f,+3.26657295e-02f,+1.71376750e-01f,
+9.36723500e-02f,-2.54814416e-01f,+1.26219407e-01f,+1.46172985e-01f,-7.66767487e-02f,
-5.67649771e-03f,+1.78195819e-01f,-2.38312438e-01f,+1.66073695e-01f,+2.33163148e-01f,
+7.70116001e-02f,+1.49363011e-01f,+1.12613507e-01f,+1.56869173e-01f,+1.55937314e-01f,
+1.40965611e-01f,-6.25883937e-02f,-8.25032592e-02f,+1.36403725e-01f,+1.58904284e-01f,
+1.21490657e-01f,+9.34920162e-02f,+3.54261324e-02f,+1.38373971e-01f,+1.96200415e-01f,
-1.06224520e-02f,+3.10761537e-02f,+8.78263786e-02f,+2.53553510e-01f,+6.14166074e-02f,
+4.83599566e-02f,+2.33140051e-01f,+7.91701674e-02f,+1.68801636e-01f,+1.44613624e-01f,
+1.75282046e-01f,-2.01118942e-02f,-6.37613386e-02f,-1.38162866e-01f,+4.93088514e-02f,
+2.62972713e-01f,+1.07568137e-01f,+4.76809405e-02f,+1.46921575e-01f,-2.14209575e-02f,
-2.23293509e-02f,+1.38928100e-01f,+1.15723900e-01f,-1.13279447e-01f,+5.06096222e-02f,
+1.23541512e-01f,+1.19694836e-01f,-3.60865006e-03f,-7.22910166e-02f,+1.72104686e-01f,
+2.08620504e-01f,+1.96201980e-01f,+5.10420054e-02f,+1.81607336e-01f,+7.46541843e-02f,
+2.84950552e-03f,+3.97194549e-02f,+6.93690479e-02f,-2.01007009e-01f,+1.31207287e-01f,
+1.22125484e-01f,-1.29042387e-01f,+1.12640457e-02f,+1.71937853e-01f,+3.68448973e-01f,
+3.88775580e-02f,-5.07235192e-02f,+1.08190998e-01f,+8.24922994e-02f,+1.47110447e-01f,
-6.36452362e-02f,+9.59569737e-02f,+5.99608794e-02f,+6.26944304e-02f,+3.79062854e-02f,
+2.33595759e-01f,+6.51711300e-02f,+6.30138218e-02f,-2.22166833e-02f,-3.39688100e-02f,
+8.67249966e-02f,+5.43650389e-02f,+4.97498326e-02f,+3.11700962e-02f,+1.66221380e-01f,
+9.18778107e-02f,-9.48516279e-02f,+6.54016882e-02f,+8.62390921e-02f,+1.52092531e-01f,
+8.84473547e-02f,-7.87247568e-02f,+2.13255316e-01f,+1.05997242e-01f,-2.28685979e-02f,
+2.54600763e-01f,+1.36751696e-01f,+5.39622232e-02f,+1.40047431e-01f,+1.79874167e-01f,
+2.21614391e-02f,+1.21896632e-01f,+8.29699100e-04f,-1.08477762e-02f,+3.27058695e-02f,
+1.89944729e-01f,-1.04051590e-01f,+1.21156707e-01f,+4.71905433e-02f,+8.66779089e-02f,
+9.90860686e-02f,+1.20793171e-01f,+6.14338405e-02f,-5.04084937e-02f,-1.99616492e-01f,
+8.74959603e-02f,+1.29665837e-01f,+3.82651836e-02f,+2.88901129e-03f,+9.32535976e-02f,
+5.89527749e-03f,+5.72520792e-02f,+1.78683013e-01f,+2.01152358e-03f,+1.39713764e-01f,
+1.95275858e-01f,+2.09512919e-01f,-1.90194231e-02f,+1.37861967e-01f,+3.06065623e-02f,
-7.30895847e-02f,-7.18002096e-02f,+1.39220446e-01f,-1.57568068e-03f,-3.05176198e-01f,
+5.78104109e-02f,+2.44623311e-02f,+7.81647712e-02f,-7.21772090e-02f,+6.44658878e-02f,
-1.17167151e-02f,+1.33595049e-01f,+7.36563280e-02f,+8.57046098e-02f,-1.45573422e-01f,
-9.17008705e-03f,+7.45332241e-02f,+1.12889029e-01f,+2.98759043e-01f,+9.36644748e-02f,
+4.02822047e-02f,+2.74092823e-01f,+8.98713693e-02f,+9.88816544e-02f,-7.28824884e-02f,
+1.79640010e-01f,+4.17609625e-02f,+1.96859732e-01f,-2.74132360e-02f,+1.02515802e-01f,
+1.86094850e-01f,+1.48011699e-01f,-7.20308274e-02f,+6.28361702e-02f,+2.82135010e-01f,
+1.78105384e-01f,+1.87132165e-01f,+8.50041658e-02f,-2.07344927e-02f,-2.46919710e-02f,
+9.86835510e-02f,-3.61655392e-02f,+8.51816013e-02f,+2.32951995e-03f,-8.05548206e-03f,
+1.04944669e-01f,+2.73324531e-02f,+9.99621972e-02f,-3.70573252e-02f,+4.68642414e-02f,
+1.61025032e-01f,+9.06337723e-02f,+1.38509020e-01f,+3.96452956e-02f,+2.57753842e-02f,
+1.43319726e-01f,+1.41369672e-02f,+1.03797920e-01f,+7.14212358e-02f,+5.70136681e-02f,
-1.52928317e-02f,+8.78632292e-02f,+2.12868720e-01f,+6.78797886e-02f,-2.49879062e-02f,
+9.83094126e-02f,-1.94942132e-01f,+1.27219811e-01f,+1.61445618e-01f,+1.15601666e-01f,
-9.81673077e-02f,+7.58385956e-02f,+5.35006970e-02f,+3.51616979e-01f,-5.25839180e-02f,
+5.62584549e-02f,+2.06747994e-01f,+2.76576430e-01f,+1.55947983e-01f,+3.39866765e-02f,
+7.37816989e-02f,+1.13590315e-04f,+5.11618294e-02f,+1.35864183e-01f,+3.52755263e-02f,
-8.97006243e-02f,+1.61952768e-02f,+1.48114078e-02f,+5.00169173e-02f,+6.15814477e-02f,
+1.41384169e-01f,-3.70934159e-02f,-7.79195875e-02f,-1.49038315e-01f,+8.95303786e-02f,
+8.01453181e-03f,+2.96796590e-01f,+8.41042772e-02f,+8.77910554e-02f,+1.99672863e-01f,
+4.76748645e-02f,+1.15141608e-01f,+2.43680030e-01f,+2.15002447e-01f,+1.57910332e-01f,
+2.69451104e-02f,+2.20080867e-01f,+1.10921971e-01f,+6.11302108e-02f,+5.10953041e-03f,
+1.28863722e-01f,+1.04924403e-01f,-4.13303562e-02f,-8.46815705e-02f,+3.12923156e-02f,
+5.63045517e-02f,-2.15172712e-02f,+5.31653315e-02f,+5.88668045e-03f,+1.00079767e-01f,
+1.10724144e-01f,+6.97567612e-02f,+1.70978695e-01f,+4.45998497e-02f,-1.34640053e-01f,
+4.14400473e-02f,-2.33071577e-02f,+3.64603698e-02f,+5.86888231e-02f,+8.37487504e-02f,
-8.51185769e-02f,+7.94822350e-02f,+4.50195745e-02f,+7.19236806e-02f,+8.91542062e-02f,
+2.09047168e-01f,-1.17594481e-01f,-8.99347067e-02f,+4.63156737e-02f,+1.29929543e-01f,
-4.18374054e-02f,+8.76624584e-02f,+6.08988479e-02f,+6.36437237e-02f,+2.31795117e-01f,
+8.20754990e-02f,+1.41068339e-01f,+1.71963889e-02f,+2.83872426e-01f,+2.88095754e-02f,
+1.46278009e-01f,+1.02046907e-01f,+8.59819278e-02f,+4.01869044e-02f,-2.72518806e-02f,
+1.45328879e-01f,+8.36851299e-02f,-2.34710947e-02f,-1.93596501e-02f,+1.38607636e-01f,
-1.18713118e-01f,+1.74387753e-01f,+8.17849785e-02f,+6.69448823e-02f,+6.64559677e-02f,
+2.10716333e-02f,+4.77111526e-02f,+1.03587250e-03f,+1.48159221e-01f,+9.49346423e-02f,
+1.47989066e-02f,-2.43360307e-02f,+3.07071116e-02f,+1.84633152e-03f,+5.27920686e-02f,
-9.70370770e-02f,-2.63635423e-02f,+2.79357620e-02f,+1.17790647e-01f,+1.93038195e-01f,
-1.18753284e-01f,-1.44990072e-01f,+1.07291758e-01f,+1.91480201e-02f,+4.26167808e-02f,
+7.75671899e-02f,+6.46091774e-02f,-1.34420749e-02f,+5.55810928e-02f,+7.61421919e-02f,
-1.06210969e-02f,-3.39221675e-03f,+6.17640726e-02f,-5.94922788e-02f,+2.24522680e-01f,
+9.67198238e-03f,+1.63532868e-01f,-3.54254954e-02f,-2.92600971e-02f,+7.10548833e-02f,
-3.01594250e-02f,+8.72014835e-02f,+4.99967821e-02f,+1.21642552e-01f,+4.65924330e-02f,
-5.43106236e-02f,+1.18872471e-01f,-4.29212824e-02f,+4.42799106e-02f,+2.45337412e-02f,
-7.84418434e-02f,+2.06684209e-02f,+1.15397468e-01f,+2.30439365e-01f,+1.85696676e-01f,
+2.54913066e-02f,+9.09025669e-02f,+1.75732732e-01f,-5.93248978e-02f,+3.22014838e-02f,
-7.23263398e-02f,+1.98436901e-01f,-1.95270136e-01f,-1.18498817e-01f,+1.11270905e-01f,
-5.55690601e-02f,+2.32908204e-02f,-2.53866374e-01f,-1.48074925e-02f,+1.98479652e-01f,
+2.10773759e-02f,+8.78678486e-02f,+1.17754996e-01f,+5.16516045e-02f,+1.51045412e-01f,
-3.89478024e-04f,+1.17033809e-01f,+1.05925590e-01f,+8.94308984e-02f,-2.30160356e-02f,
+9.60443765e-02f,+1.02355741e-01f,-6.26849663e-03f,-1.82649810e-02f,-1.38640240e-01f,
+1.65377855e-01f,-2.37067696e-03f,-4.32481058e-03f,+6.94367066e-02f,+2.24526804e-02f,
+6.14848323e-02f,+4.08708639e-02f,+1.36478677e-01f,+2.40343641e-02f,+7.90548101e-02f,
+7.41248578e-02f,+7.93807954e-02f,-2.09445339e-02f,+2.98755825e-01f,+1.32671073e-01f,
+1.45047322e-01f,-3.00295185e-02f,+1.54359475e-01f,+9.84015167e-02f,+1.35466293e-01f,
+9.16331708e-02f,+5.26853278e-02f,+9.03388038e-02f,+1.40828788e-01f,+1.44468686e-02f,
-6.22449480e-02f,+1.01235993e-01f,+4.38089743e-02f,+4.05186802e-01f,+4.67218459e-02f,
+1.90708280e-01f,+2.49333046e-02f,+4.81008627e-02f,+1.27167478e-01f,+5.06590009e-02f,
+2.69240022e-01f,+8.33401978e-02f,+2.44682450e-02f,-6.99207559e-02f,+5.71907461e-02f,
+6.88543916e-02f,+7.53867626e-02f,+1.60738364e-01f,+1.84464436e-02f,-2.82437680e-03f,
+6.38601184e-02f,-3.71161103e-02f,+5.56497127e-02f,+5.79529256e-02f,+1.46280289e-01f,
+2.85680275e-02f,+1.22413799e-01f,+2.35813528e-01f,+1.22104526e-01f,+1.13856949e-01f,
+2.57601533e-02f,+1.01401061e-02f,+1.52972311e-01f,+4.18672636e-02f,+1.83210477e-01f,
+2.96230316e-01f,+1.42949179e-01f,-1.10164369e-02f,-5.91937840e-01f,+1.42198708e-02f,
-4.79072370e-02f,+1.25548288e-01f,+1.56819209e-01f,-1.11718975e-01f,+5.29442504e-02f,
-7.75801344e-03f,+5.24309743e-03f,+5.32840639e-02f,+8.44798458e-04f,+1.80930570e-02f,
+2.10038379e-01f,-1.43716829e-02f,-9.57651064e-02f,+1.65003333e-02f,+6.40648752e-02f,
+5.21843992e-02f,+5.87683916e-02f,+4.84654866e-02f,-2.10820064e-01f,-9.11297351e-02f,
+4.76653203e-02f,-1.77723244e-02f,+1.49826258e-01f,-3.05707213e-02f,+1.10406049e-01f,
-6.76547065e-02f,+5.14737107e-02f,+3.19152810e-02f,+1.06648296e-01f,+5.00010327e-02f,
+1.11741900e-01f,+2.17357323e-01f,+3.86598073e-02f,+6.66299984e-02f,+1.10574819e-01f,
+1.34732619e-01f,+3.68041135e-02f,-3.54160815e-02f,+5.39603606e-02f,+3.66442800e-02f,
+4.56770696e-02f,+7.06995502e-02f,+4.81823385e-02f,+9.71370861e-02f,+1.13985479e-01f,
+1.47511229e-01f,+1.67739019e-01f,+6.83280155e-02f,+1.13289118e-01f,+5.04699461e-02f,
-1.57569386e-02f,+2.11273164e-01f,-1.74392993e-03f,+1.63589767e-03f,+2.44564369e-01f,
-7.25492761e-02f,+7.41292089e-02f,+6.13462515e-02f,-1.35897741e-01f,+5.94161078e-02f,
-3.03843170e-02f,+1.00340195e-01f,-1.04725538e-02f,+3.13711911e-02f,-7.44575355e-03f,
+9.33829471e-02f,+3.42082828e-02f,+1.11417644e-01f,+8.02309215e-02f,-1.20704852e-01f,
-1.17491577e-02f,+1.52324960e-01f,+1.74458712e-01f,+7.26795122e-02f,+7.82568380e-02f,
-2.65662931e-03f,-5.31021878e-02f,+8.96931887e-02f,+1.08192405e-02f,+1.04254417e-01f,
-2.50160515e-01f,-1.54525965e-01f,+3.27834077e-02f,-1.44874945e-01f,-2.76002809e-02f,
+1.43487349e-01f,-7.47026205e-02f,+3.05943847e-01f,-2.29652092e-01f,+2.21831352e-02f,
+3.24896246e-01f,+6.39721751e-02f,+4.75667790e-02f,-9.92267728e-02f,+1.86444800e-02f,
-1.94219425e-01f,+1.43785849e-01f,+1.19076200e-01f,+2.16743574e-01f,+8.72548521e-02f,
+7.11618690e-03f,+6.69232011e-02f,+7.47529138e-03f,-4.81554084e-02f,-8.73634666e-02f,
+1.15012482e-01f,+2.49324694e-01f,+2.22516462e-01f,-5.84715120e-02f,-3.22231720e-03f,
-1.24573000e-02f,-8.17038640e-02f,+4.60312217e-02f,-6.50928989e-02f,-1.36988908e-02f,
+2.54252285e-01f,-5.59253693e-02f,-8.53056163e-02f,+3.98325585e-02f,+4.39481921e-02f,
+1.28608212e-01f,+1.07431844e-01f,+8.70481879e-02f,+1.82264179e-01f,+2.31819019e-01f,
+5.79454079e-02f,-5.21897785e-02f,+9.76056829e-02f,+7.12084770e-02f,-5.22031374e-02f,
+2.30744760e-03f,+7.74631202e-02f,+4.71684672e-02f,-2.06985697e-02f,-1.15537168e-02f,
+1.04387380e-01f,+8.81649330e-02f,+1.93922780e-02f,-1.21709993e-02f,+8.83403346e-02f,
+7.54166394e-02f,+1.42287970e-01f,+9.70615298e-02f,+1.45926088e-01f,+2.07637548e-01f,
+1.26024812e-01f,+2.61342004e-02f,+4.74257357e-02f,+1.64247751e-02f,+9.41829830e-02f,
+5.66754080e-02f,-7.00868070e-02f,+1.87245250e-01f,+3.13225597e-01f,-3.27525474e-02f,
+7.31758252e-02f,+4.84503694e-02f,+1.33793755e-02f,+3.67431180e-03f,-1.18612096e-01f,
-3.00400481e-02f,+1.58126220e-01f,+2.51206517e-01f,-1.57035470e-01f,+1.86231285e-01f,
+5.88859543e-02f,+4.74930443e-02f,+1.65903419e-01f,+4.98572104e-02f,+8.34908411e-02f,
+1.29210323e-01f,+1.33363515e-01f,+2.98579838e-02f,+1.63467263e-03f,-2.66250167e-02f,
+7.86767900e-02f,+1.02888949e-01f,+4.14453186e-02f,+6.78451136e-02f,+1.41984850e-01f,
+1.75054744e-01f,+1.44163370e-01f,+1.43444777e-01f,+2.22165480e-01f,+7.10897222e-02f,
+8.94496664e-02f,+6.27269670e-02f,+3.64096835e-02f,+8.50023516e-03f,-2.45880485e-02f,
+1.28787439e-02f,+4.13708575e-02f,+1.07555456e-01f,+7.49797225e-02f,+1.51304910e-02f,
+1.55056685e-01f,-3.05759329e-02f,-8.60431343e-02f,+1.47770733e-01f,-6.28778618e-03f,
+5.80455288e-02f,-1.45956531e-01f,+1.02833293e-01f,-6.83749765e-02f,-9.04860944e-02f,
-3.31976241e-03f,+5.47000840e-02f,+2.55095601e-01f,+2.02018712e-02f,+1.28440171e-01f,
+1.63219184e-01f,-7.96562284e-02f,+4.04863879e-02f,+2.96485499e-02f,+3.85662727e-02f,
+1.66884288e-01f,+8.75448361e-02f,+6.45771921e-02f,+6.17446788e-02f,+3.55617441e-02f,
+1.39662400e-01f,+7.65267462e-02f,+1.34635851e-01f,+1.80507768e-02f,+1.57568216e-01f,
+3.52979898e-02f,+1.52624667e-01f,+3.29709388e-02f,+1.39872491e-01f,-8.72888369e-04f,
+3.08406372e-02f,-1.72016174e-01f,+7.22905546e-02f,+1.03021532e-01f,-3.88991856e-03f,
+8.09624121e-02f,+5.48467115e-02f,-8.36381689e-02f,-1.86586715e-02f,+1.75633371e-01f,
+2.17556477e-01f,-9.75618232e-03f,+2.03032158e-02f,+1.31613582e-01f,+5.57874404e-02f,
+1.64674446e-01f,-5.42295575e-02f,+1.38803586e-01f,+3.05856355e-02f,+7.65408352e-02f,
+1.37157843e-01f,+7.45561272e-02f,-4.06837538e-02f,+4.78740633e-02f,+7.04562217e-02f,
+1.52826801e-01f,+6.15686551e-02f,+8.79548788e-02f,-5.15651964e-02f,+4.16237935e-02f,
-1.75395459e-02f,-2.60471012e-02f,+3.45669761e-02f,+1.15621254e-01f,+1.13587223e-01f,
+8.92085359e-02f,+2.63765156e-01f,+2.55578347e-02f,+1.31635502e-01f,+9.59585160e-02f,
+8.11875686e-02f,+8.68256390e-02f,+1.36625811e-01f,+1.85894836e-02f,+1.93185017e-01f,
-2.46930439e-02f,+3.55821401e-02f,-1.85474958e-02f,+8.12743157e-02f,+2.10033935e-02f,
-2.92539597e-02f,-4.31921259e-02f,+1.19083673e-01f,-6.74064159e-02f,+6.33439869e-02f,
-2.12953221e-02f,+1.18285738e-01f,+2.76943028e-01f,+1.34205446e-01f,+1.34101629e-01f,
+1.55199260e-01f,+6.73934445e-02f,+2.12253124e-01f,+8.46432969e-02f,+1.37503371e-01f,
+1.02028839e-01f,+8.82419720e-02f,-8.35110992e-02f,+2.06373576e-02f,+3.44457850e-02f,
+1.57152545e-02f,+5.30813523e-02f,+2.82966555e-03f,+1.36852920e-01f,-1.57462452e-02f,
+8.83916840e-02f,+1.53245509e-01f,+3.92651483e-02f,+1.00878686e-01f,+5.13185337e-02f,
+1.36506125e-01f,+1.55977607e-01f,-8.12315270e-02f,+9.75711644e-02f,+1.78655729e-01f,
+1.01617597e-01f,+6.65411130e-02f,-1.49694430e-02f,+5.84104136e-02f,+1.24971740e-01f,
-1.16116330e-02f,+2.03271121e-01f,-8.81986320e-02f,+5.79450605e-03f,+9.25150886e-02f,
+7.90646672e-03f,+3.67470011e-02f,+4.87449914e-02f,+7.08126277e-02f,+7.44232684e-02f,
+7.09543237e-03f,+4.16236483e-02f,+1.15468711e-01f,+1.22624204e-01f,+1.54674388e-02f,
+6.08309694e-02f,-4.33873348e-02f,+1.04047939e-01f,+1.08880565e-01f,+2.97951791e-03f,
+4.79129925e-02f,+1.81617692e-01f,+1.15658201e-01f,+1.40840158e-01f,-4.34659701e-03f,
+1.48218765e-03f,+5.30610457e-02f,-8.86280164e-02f,+3.64294685e-02f,-8.19983631e-02f,
+6.66528419e-02f,+2.01945230e-01f,+2.30959766e-02f,+1.87593684e-01f,+1.66783720e-01f,
+7.64134154e-02f,+1.18440405e-01f,+4.85544764e-02f,+1.01317748e-01f,-4.16719727e-02f,
-1.60467215e-02f,-2.29980843e-03f,+1.23060927e-01f,+3.91949899e-02f,+1.05345948e-02f,
+4.87317294e-02f,+1.14078805e-01f,+1.06386334e-01f,-3.69608849e-02f,-1.14840465e-02f,
+1.18451498e-01f,+8.23472366e-02f,-5.50048845e-03f,+5.85734025e-02f,-2.36890092e-02f,
+5.14048636e-02f,+3.21918204e-02f,+1.77608043e-01f,-2.45921351e-02f,+3.46036628e-02f,
+7.07424060e-02f,+1.30297706e-01f,+1.21196374e-01f,+6.30940348e-02f,+2.90786140e-02f,
-5.77538013e-02f,+2.66966745e-02f,+5.68289720e-02f,+7.82043189e-02f,+1.35851070e-01f,
+7.27673098e-02f,-2.14053947e-03f,+7.52639100e-02f,-4.05880064e-02f,+3.66820046e-03f,
+2.99662463e-02f,+8.84395689e-02f,+5.40960804e-02f,+9.45789739e-02f,+2.19783455e-01f,
+1.72989760e-02f,+1.33420989e-01f,+1.34262964e-01f,+5.07538132e-02f,+4.47281115e-02f,
-6.86210617e-02f,+3.50238793e-02f,+5.64072654e-03f,+9.09010842e-02f,+5.40926419e-02f,
+8.16249251e-02f,+8.10992718e-02f,+3.67467999e-02f,+7.58605599e-02f,+1.61082353e-02f,
+1.60861641e-01f,+7.10945576e-02f,+4.23502289e-02f,+2.22047959e-02f,+4.81068008e-02f,
+3.52718346e-02f,-5.62728494e-02f,+1.99462160e-01f,+1.75291091e-01f,+9.04765204e-02f,
+1.95941612e-01f,-9.19237826e-03f,+8.65725875e-02f,-2.58204620e-02f,+2.35425964e-01f,
+2.40514964e-01f,+1.94829404e-01f,+1.01407744e-01f,+1.28407180e-01f,+2.19307356e-02f,
+9.29703936e-03f,+6.86317310e-02f,-3.98273021e-02f,+1.77567512e-01f,+1.10757694e-01f,
-9.69603360e-02f,+4.60689291e-02f,-1.15739956e-01f,+2.73100231e-02f,+2.61969510e-02f,
+1.08189389e-01f,+3.08897402e-02f,+1.38590083e-01f,-2.52461843e-02f,+3.92663218e-02f,
+1.82235748e-01f,-2.66496115e-03f,+2.69700121e-03f,+7.28323609e-02f,-3.94382374e-03f,
-4.17681262e-02f,-1.64176077e-02f,+1.37837619e-01f,-3.85649689e-02f,+2.23492324e-01f,
+6.58812700e-03f,+1.50227186e-03f,+2.39455074e-01f,+4.03452739e-02f,+5.56365177e-02f,
+4.40359674e-02f,+7.17739314e-02f,+2.42413089e-01f,+6.27111569e-02f,+1.58439949e-01f,
+6.88509271e-02f,+1.23776309e-01f,+2.45493986e-02f,+9.69419479e-02f,+5.67862429e-02f,
-2.78951116e-02f,+1.05704568e-01f,+2.72798508e-01f,-1.63872391e-01f,-8.35545063e-02f,
+3.57537828e-02f,+2.12769397e-02f,+7.22111091e-02f,+7.53882974e-02f,+4.82537672e-02f,
+1.20982192e-01f,}; 
k2c_tensor l5_kernel = {&l5_kernel_array[0],2,104976,{324,324,  1,  1,  1}}; 
float l5_bias_array[324] = {
-1.92873740e+00f,-2.16477561e+00f,-1.46631038e+00f,-9.99110818e-01f,-1.51606178e+00f,
-1.59615469e+00f,-2.01881111e-01f,-2.33698153e+00f,-1.36268330e+00f,-1.55717766e+00f,
-2.00735831e+00f,-2.00253916e+00f,-1.99506736e+00f,-1.90501344e+00f,-1.69373584e+00f,
-1.41207576e+00f,-1.56973636e+00f,-1.77867353e+00f,-1.98823500e+00f,-1.71716046e+00f,
-1.24683940e+00f,-2.06992507e+00f,-1.43276787e+00f,-2.23945999e+00f,-2.21676087e+00f,
-1.97253919e+00f,-2.16308904e+00f,-1.69279468e+00f,-9.02197599e-01f,-1.99788451e+00f,
-1.59197915e+00f,-1.38633025e+00f,-1.87319255e+00f,-2.22928309e+00f,-1.56492800e-01f,
-1.40484917e+00f,-1.93486881e+00f,-1.73721027e+00f,-1.80672753e+00f,-2.13044691e+00f,
-1.67427516e+00f,-2.11010122e+00f,-2.00827527e+00f,-2.07108092e+00f,-1.86635935e+00f,
-2.03764987e+00f,-1.69407558e+00f,-1.53111005e+00f,-1.47595966e+00f,-4.03693765e-01f,
-1.34052241e+00f,-1.75420916e+00f,-2.37645078e+00f,-2.01343918e+00f,-1.80818892e+00f,
-1.94309413e+00f,-1.50216186e+00f,-2.06226254e+00f,-1.51394773e+00f,-2.36078906e+00f,
-1.70148373e+00f,-1.78322875e+00f,-1.21827757e+00f,-1.23933351e+00f,-8.77051473e-01f,
-1.54586554e+00f,-1.91573811e+00f,-2.05327463e+00f,-1.73012650e+00f,-9.54634130e-01f,
-1.78785563e+00f,-1.74906886e+00f,-1.57876039e+00f,-2.02945065e+00f,-2.27384186e+00f,
-1.78019142e+00f,-1.42862153e+00f,-1.46990919e+00f,-2.46849036e+00f,-2.15162611e+00f,
-1.99686646e+00f,-8.55023563e-01f,-2.01614141e+00f,-1.53413153e+00f,-2.19855428e+00f,
-2.54434896e+00f,-7.53912151e-01f,-2.30573916e+00f,-8.38719964e-01f,-1.06449986e+00f,
-1.96075571e+00f,-2.05115724e+00f,-2.80721998e+00f,-1.92650425e+00f,-2.03490710e+00f,
-1.88728404e+00f,-2.11392045e+00f,-1.00424707e+00f,-2.29504848e+00f,-1.54506958e+00f,
-2.10311556e+00f,-1.67725527e+00f,-2.14100957e+00f,-1.52892554e+00f,-2.57998228e+00f,
-2.23672080e+00f,-1.41994071e+00f,-2.29468203e+00f,-2.06017375e+00f,-2.17771339e+00f,
-7.80455470e-01f,-1.78971624e+00f,-2.65478897e+00f,-2.25932646e+00f,-2.41457105e+00f,
-1.90220487e+00f,-1.96877468e+00f,-4.83541280e-01f,-1.18021286e+00f,-1.62265432e+00f,
-1.10521650e+00f,-2.26714134e+00f,-2.59899950e+00f,-1.89438272e+00f,-2.35743070e+00f,
-1.03700447e+00f,-2.11993122e+00f,-1.56225610e+00f,-1.55170703e+00f,-2.13636255e+00f,
-3.78489941e-01f,-2.09255546e-01f,-1.89399230e+00f,-9.80942130e-01f,-2.06975770e+00f,
-1.98037851e+00f,-1.90984786e+00f,-1.54582798e+00f,-1.50476182e+00f,-1.63982868e+00f,
-1.29977810e+00f,-1.90329647e+00f,-9.61328447e-01f,-1.83405185e+00f,-1.97221720e+00f,
-1.29452360e+00f,-2.25179529e+00f,-1.90229774e+00f,-2.25895524e+00f,-2.30563760e+00f,
-2.39254785e+00f,-1.65645397e+00f,-1.66363394e+00f,-2.13446951e+00f,-1.43656433e+00f,
-7.68826485e-01f,-2.13001466e+00f,-1.81195211e+00f,-2.05361128e+00f,-1.03409433e+00f,
-2.49878931e+00f,-2.35061622e+00f,-2.18229675e+00f,-1.47823393e+00f,-6.46607816e-01f,
-2.24663997e+00f,-1.32311380e+00f,-2.32843637e+00f,-1.89646184e+00f,-1.57480240e+00f,
-1.94673991e+00f,-1.76455343e+00f,-1.78648376e+00f,-1.61579382e+00f,-9.81216192e-01f,
-8.03354084e-01f,+2.35550568e-01f,-1.37395108e+00f,-1.73090410e+00f,-1.76694274e+00f,
-2.36557055e+00f,-2.27498245e+00f,-2.48305559e+00f,+5.29434383e-02f,-1.52206016e+00f,
+8.98845680e-03f,-2.23477173e+00f,-1.60486603e+00f,-2.38170052e+00f,-1.80017579e+00f,
-2.13337040e+00f,-2.55790544e+00f,-1.30983993e-01f,-2.53785157e+00f,-1.55020308e+00f,
-1.52718747e+00f,-2.70709276e+00f,-6.67659700e-01f,-1.78847492e+00f,-2.14994287e+00f,
-2.22981954e+00f,-1.91560769e+00f,-2.20820785e+00f,-1.20910001e+00f,-1.79471970e+00f,
-2.31395602e+00f,-9.51944649e-01f,-2.05707216e+00f,-1.94520473e+00f,-9.68640625e-01f,
-2.38605356e+00f,-2.31780577e+00f,-1.75228333e+00f,-8.29414546e-01f,-1.83778107e+00f,
-1.62132728e+00f,-2.03043461e+00f,-1.95483506e+00f,-1.81557322e+00f,-9.62631226e-01f,
-1.62422132e+00f,-1.85245299e+00f,-1.76852214e+00f,-1.63324821e+00f,-1.51302159e+00f,
-7.51173973e-01f,-1.74041903e+00f,-1.64627445e+00f,-2.59629273e+00f,-1.53201520e+00f,
-1.09064722e+00f,-1.96034837e+00f,-1.44513881e+00f,-9.04920220e-01f,-2.42519283e+00f,
-1.93213761e+00f,-1.65437138e+00f,-8.18048358e-01f,-1.97037935e+00f,-1.94225693e+00f,
-1.67587960e+00f,-2.47651219e+00f,-2.36706924e+00f,-1.35079837e+00f,-2.38453293e+00f,
-1.90521932e+00f,-1.76707029e+00f,-2.20322633e+00f,-1.26711309e+00f,-1.88923013e+00f,
-2.59384823e+00f,-1.61125886e+00f,-2.27888823e+00f,-1.24558532e+00f,-1.97261870e+00f,
-1.97210503e+00f,-1.76517415e+00f,-1.74851382e+00f,-1.55503261e+00f,-1.59832811e+00f,
-2.82889557e+00f,-1.20029843e+00f,-1.86779034e+00f,-1.68916655e+00f,-9.23221707e-01f,
-8.30830574e-01f,-1.68376684e+00f,-3.70212287e-01f,-1.61256135e+00f,-2.62181592e+00f,
-1.76171708e+00f,-1.69599879e+00f,-2.06123209e+00f,-1.67781150e+00f,-1.43633699e+00f,
-2.27339649e+00f,-1.13288927e+00f,-2.76287317e+00f,-1.47979462e+00f,-2.00231743e+00f,
-2.10813093e+00f,-2.38321328e+00f,-2.63039494e+00f,-1.54909432e+00f,-1.91961765e+00f,
-2.11728454e+00f,-1.90042531e+00f,-1.69592488e+00f,-1.70935869e+00f,-1.88964880e+00f,
-1.83652377e+00f,-1.81648612e+00f,-1.71572244e+00f,-1.89441025e+00f,-3.08841467e-01f,
-4.24477220e-01f,-1.82467663e+00f,-1.58727646e+00f,-2.32343912e+00f,-1.22776258e+00f,
-2.25842738e+00f,-2.50378013e+00f,-2.15831685e+00f,-1.55701530e+00f,-1.70794082e+00f,
-2.33672738e+00f,-1.66455328e+00f,-1.38206232e+00f,-1.08749270e+00f,-2.40612841e+00f,
-1.91849029e+00f,-2.08187848e-01f,-1.60232306e+00f,-2.15584826e+00f,-1.97348273e+00f,
-7.17678010e-01f,-1.68050122e+00f,-1.29723024e+00f,-1.19360554e+00f,-1.70078909e+00f,
-2.42604637e+00f,-1.12134016e+00f,-1.95149362e+00f,-2.49670768e+00f,}; 
k2c_tensor l5_bias = {&l5_bias_array[0],1,324,{324,  1,  1,  1,  1}}; 
float l5_fwork[105300] = {0}; 

 
float l7_kernel_array[6480] = {
-3.54436249e-01f,-6.44109845e-01f,-4.87297952e-01f,-3.98115396e-01f,-3.71332228e-01f,
-4.43385094e-01f,-9.50089812e-01f,-4.36597317e-01f,-4.99414414e-01f,-5.71017921e-01f,
-3.16768736e-01f,-9.54001784e-01f,-1.07623506e+00f,-7.19271183e-01f,-7.36202180e-01f,
-4.81260687e-01f,-7.21666276e-01f,-5.29360592e-01f,-8.18149328e-01f,-1.66259599e+00f,
+3.45529765e-02f,-8.87241006e-01f,-4.47798163e-01f,-3.57190460e-01f,-2.52401233e-01f,
-4.78756279e-01f,+2.69811898e-01f,-1.15240455e-01f,-3.12954396e-01f,-4.44854945e-01f,
-1.97579280e-01f,+1.84690595e-01f,-4.50834811e-01f,-1.07226801e+00f,-8.30890834e-01f,
+1.04934439e-01f,-3.48395944e-01f,-7.53104329e-01f,+3.07654977e-01f,-1.50735676e-01f,
-6.99260890e-01f,-5.78876853e-01f,-8.54549050e-01f,-4.60331291e-01f,-5.47308862e-01f,
-4.86680448e-01f,-5.91377556e-01f,-3.85178059e-01f,-4.06272411e-01f,-5.77427685e-01f,
-3.79849583e-01f,-7.05076218e-01f,-7.74557173e-01f,-8.54852259e-01f,-8.43740225e-01f,
-4.96689528e-01f,-6.01721585e-01f,-5.50094306e-01f,-5.76935709e-01f,-1.13495541e+00f,
-9.39862669e-01f,-1.01164401e+00f,-1.55305296e-01f,-1.14820719e+00f,-6.52068555e-01f,
-8.58832300e-01f,-1.40206861e+00f,-9.76660490e-01f,-6.37577116e-01f,-3.51090372e-01f,
-6.93272293e-01f,-7.59583712e-01f,-1.09276748e+00f,-8.92019689e-01f,-4.86674577e-01f,
-1.09330022e+00f,-9.15635049e-01f,-9.82211292e-01f,-1.12656820e+00f,-7.60325015e-01f,
-7.61898518e-01f,-5.06585479e-01f,-6.57185733e-01f,-4.80829388e-01f,-5.87821841e-01f,
-5.03356874e-01f,-1.22410202e+00f,-1.01623201e+00f,-7.95401454e-01f,-5.00928581e-01f,
-4.71437186e-01f,-1.12705660e+00f,-9.91387963e-01f,-8.11234355e-01f,-6.08366847e-01f,
-5.12490928e-01f,-6.44850850e-01f,-4.95221138e-01f,-1.11169708e+00f,-5.12121975e-01f,
-5.38529396e-01f,-5.61480999e-01f,-3.21824878e-01f,-6.69774830e-01f,-5.82739592e-01f,
-9.39600646e-01f,-9.71027017e-01f,-5.60464323e-01f,-5.82287312e-01f,-9.25297320e-01f,
-5.47764480e-01f,-7.17836022e-01f,-4.96207714e-01f,-8.14897954e-01f,-1.35098004e+00f,
-6.04270041e-01f,-7.45780170e-01f,-5.48868239e-01f,-7.89677083e-01f,-5.67173541e-01f,
-7.76874125e-01f,-7.35204399e-01f,-1.24173331e+00f,-7.04166949e-01f,-1.21498334e+00f,
-7.48742044e-01f,-6.82273149e-01f,-1.22960556e+00f,-6.51265860e-01f,-7.90692925e-01f,
-6.80115819e-01f,-7.08758414e-01f,-7.33148456e-01f,-7.84501672e-01f,-7.73829103e-01f,
-7.39843667e-01f,-7.85188556e-01f,-7.49610722e-01f,-7.26115108e-01f,-7.41646171e-01f,
-1.86074153e-01f,-2.21912935e-01f,-2.04356983e-01f,-6.90721154e-01f,-7.68661320e-01f,
-4.85155940e-01f,-1.24660563e+00f,-3.50248009e-01f,-2.13439047e-01f,-9.10980701e-01f,
-4.49830800e-01f,-1.24575949e+00f,-2.61235356e-01f,-1.59986809e-01f,-1.64828956e-01f,
-3.93802881e-01f,-1.76822215e-01f,-3.48236740e-01f,-1.49407339e+00f,-2.20005974e-01f,
-6.50431395e-01f,-3.75854492e-01f,-1.21907151e+00f,-6.28016174e-01f,-7.13970721e-01f,
-3.19888443e-01f,-2.07550228e-01f,-2.42098674e-01f,-2.43355423e-01f,-9.48201299e-01f,
-3.84040207e-01f,-1.85743839e-01f,-2.25478977e-01f,-7.23266304e-01f,-3.69551450e-01f,
-4.28116858e-01f,-8.71598899e-01f,-3.53180885e-01f,-1.96600094e-01f,-4.72901762e-01f,
-3.70504022e-01f,-6.24316275e-01f,-1.33169758e+00f,-7.19496250e-01f,-9.76976752e-01f,
-3.49979192e-01f,-2.39593208e-01f,-7.19046533e-01f,-4.74052340e-01f,-1.02896905e+00f,
-4.35012430e-01f,-2.36398414e-01f,-2.66335219e-01f,-3.49237949e-01f,-1.12992835e+00f,
-3.58757794e-01f,-3.23208839e-01f,-4.79859620e-01f,-2.40027547e-01f,-5.83109617e-01f,
-4.38590050e-01f,-3.59528542e-01f,-2.61604935e-01f,-4.76561636e-01f,-1.22734058e+00f,
-7.96087265e-01f,-1.08457899e+00f,-6.47630870e-01f,-4.08586830e-01f,-6.41408920e-01f,
-5.23523092e-01f,-1.23528647e+00f,-4.43734199e-01f,-6.37276530e-01f,-4.32191283e-01f,
-5.30090868e-01f,-6.64282739e-01f,-4.77470219e-01f,-1.56711972e+00f,-3.31976503e-01f,
-5.39640546e-01f,-4.42818016e-01f,-5.70766747e-01f,-1.01095259e+00f,-1.42008162e+00f,
-4.43117887e-01f,-3.60065132e-01f,-9.95421290e-01f,-6.24465168e-01f,-8.25505674e-01f,
-9.58981395e-01f,-3.80022109e-01f,-3.84418160e-01f,-4.28118765e-01f,-4.24948245e-01f,
-4.48352069e-01f,-4.15691167e-01f,-4.43378061e-01f,-3.63222599e-01f,-4.52959657e-01f,
-2.70549327e-01f,-3.55774075e-01f,-8.21818888e-01f,-5.54191172e-01f,-7.72255242e-01f,
-9.73831713e-01f,-3.46532881e-01f,-3.90666634e-01f,-4.31657016e-01f,-4.65368301e-01f,
-4.67514813e-01f,-4.08450484e-01f,-2.07558542e-01f,-6.28715932e-01f,-3.00248921e-01f,
-7.70804167e-01f,-4.90783453e-01f,-3.66391391e-01f,-7.97667563e-01f,-3.00598413e-01f,
-4.24892038e-01f,-1.95783004e-01f,-1.84043765e-01f,-8.84542823e-01f,-4.21296328e-01f,
-6.79992855e-01f,-8.50250661e-01f,-7.36543953e-01f,-3.82529497e-01f,-6.93752229e-01f,
-6.87487304e-01f,+1.21933587e-01f,-9.73796658e-03f,-3.58105481e-01f,-2.16347519e-02f,
-5.62382221e-01f,-3.47436935e-01f,-4.10176307e-01f,+7.26671517e-02f,+4.78693955e-02f,
-7.52669752e-01f,-7.76797771e-01f,-6.89216912e-01f,-5.85505307e-01f,-5.82020521e-01f,
-6.34046018e-01f,-1.18522930e+00f,-5.34398973e-01f,-8.35405886e-01f,-5.86300254e-01f,
-5.64363360e-01f,-8.16210330e-01f,-1.32073152e+00f,-7.94153929e-01f,-7.62781680e-01f,
-6.62100255e-01f,-7.29969203e-01f,-6.81606293e-01f,-7.46032774e-01f,-1.03169394e+00f,
-5.06247342e-01f,-5.55272996e-01f,-9.32637453e-01f,-4.76376861e-01f,-9.84217465e-01f,
-5.57366073e-01f,-1.23384416e+00f,-6.94479883e-01f,-8.34034801e-01f,-6.13902271e-01f,
-1.07345939e+00f,-6.79686666e-01f,-1.06305361e+00f,-5.36632657e-01f,-5.35596073e-01f,
-5.59417546e-01f,-5.33020258e-01f,-5.70391178e-01f,-6.63978219e-01f,-5.75716972e-01f,
-6.51799917e-01f,-6.74115419e-01f,-1.10134637e+00f,-6.37580991e-01f,-1.63949108e+00f,
-7.35635877e-01f,-5.68082154e-01f,-8.93883705e-01f,-8.68045747e-01f,-7.37229586e-01f,
-9.16179359e-01f,-5.74591041e-01f,-6.03692174e-01f,-6.70429051e-01f,-8.06578279e-01f,
-7.80935645e-01f,-6.52116060e-01f,-6.99746728e-01f,-5.76827586e-01f,-8.05514932e-01f,
-4.85348195e-01f,-5.00889063e-01f,-9.42609906e-01f,-5.42321086e-01f,-1.24377275e+00f,
-5.01518190e-01f,-4.02852446e-01f,-1.29821885e+00f,-7.93661475e-01f,-1.09958982e+00f,
-1.23783731e+00f,-4.25800592e-01f,-4.54785287e-01f,-4.87975568e-01f,-4.72327679e-01f,
-4.82412726e-01f,-4.78637964e-01f,-5.00757694e-01f,-4.19973314e-01f,-5.10671616e-01f,
-2.88142592e-01f,-3.13110352e-01f,-2.08269149e-01f,-7.21591234e-01f,-2.23776102e-01f,
-3.14881980e-01f,-1.34523582e+00f,-4.74762142e-01f,-3.18120360e-01f,-8.97414505e-01f,
-3.50096315e-01f,-8.15779626e-01f,-7.61664391e-01f,-2.31225640e-01f,-2.00626746e-01f,
-3.58782679e-01f,-2.36659721e-01f,-3.92682940e-01f,-8.32667947e-01f,-3.56817752e-01f,
-6.54150903e-01f,-7.71317720e-01f,-8.95102799e-01f,-3.82029742e-01f,-3.88527483e-01f,
-2.42079616e-01f,-8.09727982e-02f,-1.83566466e-01f,-2.05574915e-01f,-6.42227232e-01f,
-1.02943152e-01f,-2.88374811e-01f,-6.72141910e-01f,-8.10921252e-01f,-1.01126897e+00f,
-2.03084648e-01f,-5.27952492e-01f,-5.58242440e-01f,-2.75451362e-01f,-2.13978767e-01f,
-8.64413917e-01f,-6.03327572e-01f,-5.83818436e-01f,-5.69360197e-01f,-6.93338215e-01f,
-6.76140547e-01f,-1.14152884e+00f,-4.54687208e-01f,-7.68845558e-01f,-8.51061702e-01f,
-4.59814280e-01f,-6.89903736e-01f,-4.87613231e-01f,-7.19225287e-01f,-9.21132147e-01f,
-9.26028371e-01f,-7.84118712e-01f,-6.77488744e-01f,-7.58189857e-01f,-1.12034833e+00f,
-2.04652250e-01f,-2.93444395e-01f,-5.54395616e-01f,-5.97621262e-01f,-8.93497109e-01f,
-3.29933167e-01f,-6.46544397e-01f,-3.85806799e-01f,-2.94199765e-01f,-6.42205656e-01f,
-4.24682975e-01f,-1.62086809e+00f,-3.17622304e-01f,-1.96380839e-01f,-1.88334689e-01f,
-3.94408822e-01f,-2.18160167e-01f,-3.33225757e-01f,-1.78451061e+00f,-2.40839109e-01f,
-4.05557573e-01f,-6.03550792e-01f,-1.20392179e+00f,-4.44728196e-01f,-1.45031440e+00f,
-7.32588768e-01f,-3.30861479e-01f,-7.14978397e-01f,-8.93171072e-01f,-5.61525345e-01f,
-9.85576212e-01f,-3.50297183e-01f,-3.88087988e-01f,-4.64914262e-01f,-7.15357423e-01f,
-7.48303592e-01f,-4.60135728e-01f,-6.18328869e-01f,-3.48809004e-01f,-6.41606629e-01f,
-3.56614262e-01f,-1.58071771e-01f,-2.22433493e-01f,-6.84154153e-01f,-1.14600527e+00f,
-6.14946723e-01f,-6.71716094e-01f,-3.12959641e-01f,-2.95814097e-01f,-8.20609927e-01f,
-5.71553409e-01f,-1.09937727e+00f,-3.35268110e-01f,-1.32834777e-01f,-1.27062231e-01f,
-5.10613739e-01f,-1.27311274e-01f,-1.52655408e-01f,-7.80286074e-01f,-1.31748900e-01f,
-6.68067858e-02f,-6.61930919e-01f,-1.12792648e-01f,-3.32258135e-01f,-8.53725001e-02f,
-2.84820139e-01f,-5.77214181e-01f,-5.15170455e-01f,-5.70541501e-01f,-1.12926118e-01f,
-4.12249088e-01f,-1.22146356e+00f,-3.20055276e-01f,-1.85273424e-01f,-1.50008157e-01f,
-3.11950743e-01f,-2.42697209e-01f,-5.43934524e-01f,-1.17930031e+00f,-8.64436626e-01f,
-2.90925473e-01f,-2.04892039e-01f,-1.01981771e+00f,-5.50639212e-01f,-7.58193672e-01f,
-2.30815396e-01f,-8.31130981e-01f,-4.90976304e-01f,-2.88813829e-01f,-8.93511236e-01f,
-5.56271851e-01f,-8.66210282e-01f,-9.14489925e-01f,-1.19819880e+00f,-5.44727325e-01f,
-1.99466765e-01f,-7.20994532e-01f,-1.90950006e-01f,-9.09679353e-01f,-1.77737698e-01f,
+1.36066586e-01f,-5.78657508e-01f,-5.06570280e-01f,-3.10316503e-01f,-3.99967700e-01f,
-6.71623368e-03f,-8.15750659e-01f,-2.31005073e-01f,-2.14348510e-01f,+4.47468638e-01f,
-1.82195261e-01f,-5.62282145e-01f,-4.43715572e-01f,-8.24341830e-03f,+5.24913520e-02f,
+2.85863765e-02f,-1.66388631e-01f,-4.53771770e-01f,-5.90863526e-01f,-5.60319662e-01f,
-2.42548719e-01f,-3.13954622e-01f,-7.11875379e-01f,-7.38360465e-01f,-7.23838359e-02f,
-8.81502032e-01f,-2.32263327e-01f,-2.31907889e-01f,-2.68066198e-01f,-3.35159272e-01f,
-3.91661257e-01f,-7.81807303e-01f,-4.62734640e-01f,-7.87630081e-01f,-1.03012908e+00f,
-2.94831306e-01f,-5.38743556e-01f,-2.90000737e-01f,-7.13598609e-01f,-2.40126193e-01f,
-8.69938731e-01f,-6.06818080e-01f,-5.06366313e-01f,-4.53993410e-01f,-8.96403253e-01f,
-3.37093204e-01f,-4.31102157e-01f,+2.15342063e-02f,+7.30439499e-02f,-5.50154507e-01f,
-3.83281142e-01f,-5.83016694e-01f,-5.16990364e-01f,-7.15610236e-02f,-6.44784033e-01f,
-5.57687819e-01f,-8.57008621e-02f,-4.85987633e-01f,-8.19124520e-01f,-4.09676760e-01f,
-1.70234427e-01f,-5.49582899e-01f,-2.72881120e-01f,-2.17109606e-01f,-1.01512738e-01f,
-2.93838531e-01f,-1.01046550e+00f,-1.76103979e-01f,-7.25252151e-01f,-1.74912915e-01f,
-2.26470262e-01f,-1.20522416e+00f,-9.06320274e-01f,-3.18161637e-01f,-1.99448168e-01f,
-4.83457804e-01f,-7.31019676e-01f,-5.61431289e-01f,-9.77954507e-01f,-1.14774513e+00f,
-3.31719786e-01f,-7.00300932e-01f,-2.88368911e-01f,-3.23287576e-01f,-2.63313353e-01f,
-4.99232680e-01f,-1.25212848e+00f,-2.40836725e-01f,-4.99371886e-01f,-2.51768619e-01f,
-8.91957879e-01f,-1.20203280e+00f,-9.45264161e-01f,-3.25365126e-01f,-6.46684110e-01f,
-4.45222497e-01f,-3.42278063e-01f,-5.98667026e-01f,-9.99821067e-01f,-7.96771765e-01f,
-7.29960978e-01f,-5.65986037e-01f,-7.82610178e-01f,-4.97607797e-01f,-5.79060435e-01f,
-5.27859867e-01f,-5.07719815e-01f,-4.31932300e-01f,-1.39715755e+00f,-5.33876657e-01f,
-4.67114478e-01f,-5.30200303e-01f,-4.89817142e-01f,-6.67911291e-01f,-7.41019964e-01f,
-5.41798651e-01f,-6.63024247e-01f,-5.52532494e-01f,-5.15004039e-01f,-9.04669642e-01f,
-4.04687673e-01f,-4.83689308e-01f,-8.97384644e-01f,-1.17158639e+00f,-1.45405865e+00f,
-6.77070022e-01f,-1.97936743e-01f,-8.83771122e-01f,-3.38507056e-01f,-1.14018536e+00f,
-9.29693341e-01f,-2.24059626e-01f,-2.16104478e-01f,-3.33007097e-01f,-2.81965703e-01f,
-9.65817630e-01f,-3.28526020e-01f,-5.69599688e-01f,-2.01980829e-01f,-3.22313398e-01f,
-5.88977337e-01f,-1.78183794e-01f,-9.64251161e-01f,-5.51353097e-01f,-1.01352584e+00f,
-2.32799843e-01f,+4.80679236e-02f,-6.85802758e-01f,-7.85798550e-01f,-9.14879739e-01f,
-5.34723818e-01f,+4.14142981e-02f,+1.12843998e-02f,-3.49664241e-01f,-4.31168556e-01f,
-5.90326488e-01f,-2.13515878e-01f,-1.52466297e-01f,+4.11339011e-03f,-5.56584239e-01f,
-8.28786135e-01f,-6.46847844e-01f,-8.85675848e-01f,-5.09919941e-01f,-7.05371499e-01f,
-5.13522089e-01f,-9.83406782e-01f,-3.24344933e-01f,-2.89578319e-01f,-6.16719067e-01f,
-5.73237419e-01f,-1.28589261e+00f,-4.27368850e-01f,-6.35383487e-01f,-8.54169130e-01f,
-7.02489853e-01f,-5.00431895e-01f,-5.86179674e-01f,-1.19550979e+00f,-7.79861987e-01f,
-6.91129804e-01f,-6.29160523e-01f,-7.80407965e-01f,-1.02204072e+00f,-1.23049510e+00f,
-6.40063643e-01f,-6.20925486e-01f,-1.29475272e+00f,-7.79047608e-01f,-1.03607798e+00f,
-1.17762947e+00f,-6.24267876e-01f,-6.12108946e-01f,-6.38175428e-01f,-6.18714750e-01f,
-6.40389919e-01f,-6.26976311e-01f,-6.25649929e-01f,-6.11943662e-01f,-6.25031054e-01f,
-6.84582949e-01f,-5.93334436e-01f,-2.92744488e-01f,-9.14807856e-01f,-1.15259504e+00f,
-8.20039272e-01f,-1.21381514e-01f,-6.51522696e-01f,-5.51780403e-01f,-2.90706635e-01f,
-7.91310012e-01f,-2.33983919e-01f,-2.31141642e-01f,-6.58222079e-01f,-6.87798679e-01f,
-6.20810747e-01f,-4.48323935e-01f,-6.05178952e-01f,-2.17052028e-01f,-4.22115713e-01f,
-1.14700116e-01f,-3.75479847e-01f,-8.35669875e-01f,-7.37982333e-01f,-7.93270826e-01f,
-6.50935411e-01f,-9.26195085e-01f,-2.10343778e-01f,-2.30882809e-01f,-8.46696973e-01f,
-2.13034049e-01f,-6.98782265e-01f,-2.17623860e-01f,-1.20702364e-01f,-1.46427542e-01f,
-4.59879458e-01f,-1.14947595e-01f,-5.20561457e-01f,-8.00429821e-01f,-2.66108334e-01f,
-4.38076943e-01f,-1.59262896e-01f,-8.33709717e-01f,-6.04220986e-01f,-4.27947789e-01f,
-1.17868698e+00f,-1.72789037e-01f,-9.75132704e-01f,-1.14729166e+00f,-4.73657250e-01f,
-9.12389874e-01f,-1.84548363e-01f,-2.09536120e-01f,-5.48739195e-01f,-5.17401457e-01f,
-1.08540237e+00f,-7.05396593e-01f,-1.90858409e-01f,-2.44297579e-01f,-1.14214122e-01f,
-4.59754556e-01f,-1.07010651e+00f,-1.89387396e-01f,-2.19069526e-01f,-3.98695260e-01f,
-1.73843745e-03f,-2.50944853e-01f,+2.84412980e-01f,+3.05173323e-02f,-3.40588629e-01f,
+2.58977730e-02f,+1.04729086e-01f,-8.18543851e-01f,-4.52343494e-01f,-8.13145399e-01f,
+1.52298555e-01f,-1.20696193e-02f,-7.49739528e-01f,+1.72163352e-01f,-5.14809012e-01f,
-2.07968459e-01f,-4.14286464e-01f,-5.96546493e-02f,-4.88527685e-01f,-2.17573389e-01f,
-5.21760166e-01f,-6.79027736e-01f,-7.08002388e-01f,-3.99715334e-01f,-3.88642460e-01f,
-5.86184740e-01f,-3.92901450e-01f,-5.20512581e-01f,-5.27673066e-01f,-5.02364598e-02f,
-7.50863671e-01f,-3.95808011e-01f,-1.03344917e+00f,-4.23030287e-01f,-1.49865553e-01f,
-5.15981495e-01f,-6.54753685e-01f,-3.17971021e-01f,-5.05356431e-01f,-3.95599067e-01f,
+1.05356336e-01f,-2.13543251e-01f,-1.85539931e-01f,-3.60620707e-01f,-5.76577485e-01f,
-2.39242747e-01f,+1.18719324e-01f,-5.96232712e-02f,-1.94495007e-01f,-3.15240115e-01f,
+1.52354747e-01f,-4.23686534e-01f,-6.10691905e-01f,+1.71392500e-01f,+7.42868409e-02f,
-4.69272733e-01f,-5.95987916e-01f,-3.55325222e-01f,-3.57849747e-01f,-2.04204142e-01f,
-2.39827305e-01f,-1.56183493e+00f,-3.41981202e-01f,-7.45860159e-01f,-4.71976757e-01f,
-2.52558112e-01f,-2.76918411e-01f,-1.24393225e+00f,-5.72021127e-01f,-3.31160218e-01f,
-2.93990314e-01f,-5.08923471e-01f,-3.24176073e-01f,-2.27526680e-01f,-9.71588731e-01f,
-1.96820676e-01f,-8.97763431e-01f,-3.55071574e-01f,-3.99933904e-01f,-1.82524353e-01f,
-4.77953941e-01f,+2.51021624e-01f,-8.33247006e-02f,-1.48202315e-01f,-2.10056618e-01f,
-1.57245010e-01f,+1.77983448e-01f,-5.34223974e-01f,-3.74306828e-01f,-7.67209530e-01f,
+1.28808081e-01f,-5.61218321e-01f,-8.23495686e-01f,+2.25985363e-01f,-3.45250368e-01f,
-4.73906159e-01f,-4.30618793e-01f,-1.03388381e+00f,-7.25870132e-01f,-5.04613042e-01f,
-5.14578044e-01f,-2.75033593e-01f,-5.29071152e-01f,-7.68143177e-01f,-1.32002485e+00f,
-8.30899537e-01f,-3.26529741e-01f,-3.07161868e-01f,-4.13317889e-01f,-4.10166383e-01f,
-4.98375237e-01f,-3.92303765e-01f,-4.66076732e-01f,-2.91449010e-01f,-4.16933179e-01f,
-4.38285202e-01f,-9.71536279e-01f,-8.90131176e-01f,-4.90018964e-01f,-5.03700599e-02f,
-3.61501604e-01f,-1.01428986e-01f,-1.37643859e-01f,-2.13343963e-01f,-8.96227121e-01f,
-2.43835390e-01f,-3.54868546e-02f,-3.04920733e-01f,-8.49668503e-01f,-1.40075433e+00f,
-1.69734880e-01f,-4.16548163e-01f,-7.83120513e-01f,-1.96049996e-02f,-1.12613477e-01f,
-3.79921235e-02f,-6.88423157e-01f,-7.02870309e-01f,-1.75317317e-01f,-6.31256223e-01f,
-4.67273861e-01f,-1.22140181e+00f,-3.21052074e-01f,-4.78677183e-01f,-4.15629596e-01f,
-4.94705886e-01f,-1.06693365e-01f,-4.05523896e-01f,-3.65587287e-02f,-2.31384531e-01f,
-4.82084662e-01f,-4.59180251e-02f,-5.52048683e-01f,+2.86730081e-02f,-8.27857614e-01f,
+8.00401270e-02f,-5.36703408e-01f,+3.08215350e-01f,+1.34015217e-01f,+2.85817593e-01f,
-2.17397675e-01f,-9.41433311e-01f,-1.95729248e-02f,-2.17306510e-01f,-6.26878619e-01f,
-7.42530748e-02f,-2.59515196e-01f,-7.95924425e-01f,-2.92210698e-01f,-4.68563497e-01f,
-5.11304915e-01f,-2.11433634e-01f,-3.66516262e-01f,-6.41742468e-01f,-4.91994917e-01f,
-4.66899961e-01f,-4.68166918e-01f,-5.69654226e-01f,-9.11805391e-01f,-1.33615375e+00f,
-4.55146581e-01f,-3.63004476e-01f,-8.08821321e-01f,-5.55422246e-01f,-1.13435054e+00f,
-1.12695467e+00f,-3.81412178e-01f,-3.91853750e-01f,-4.49871927e-01f,-4.27304596e-01f,
-4.55145270e-01f,-4.39781845e-01f,-4.59261030e-01f,-3.70625019e-01f,-4.43473011e-01f,
-5.07451534e-01f,-6.20380759e-01f,-9.46329832e-01f,-5.79215765e-01f,-5.43411434e-01f,
-1.04101980e+00f,-1.21636748e+00f,-7.34312177e-01f,-4.93979990e-01f,-7.48520076e-01f,
-6.73598588e-01f,-7.27474451e-01f,-9.08228636e-01f,-5.71261704e-01f,-8.41081142e-01f,
-9.05150414e-01f,-8.24119568e-01f,-5.75231969e-01f,-9.67416167e-01f,-6.03120446e-01f,
-2.43831262e-01f,-4.97651696e-01f,-2.34434679e-01f,-3.16318780e-01f,-2.13114157e-01f,
-5.45872033e-01f,-1.45373106e+00f,-2.21567377e-01f,-6.29198253e-01f,-2.53237814e-01f,
-5.17109275e-01f,-8.95520687e-01f,-1.04772484e+00f,-2.96029001e-01f,-7.81277537e-01f,
-4.68692452e-01f,-2.88565785e-01f,-6.04637563e-01f,-1.05853975e+00f,-7.48983800e-01f,
-9.04109001e-01f,-3.25473964e-01f,-3.68317991e-01f,-9.04899418e-01f,-6.84522092e-01f,
-3.63777578e-01f,-3.59428674e-01f,-7.43336380e-01f,-4.43550169e-01f,-7.22738266e-01f,
-1.06404495e+00f,-8.27335715e-01f,-7.93213785e-01f,-5.22876441e-01f,-3.55983317e-01f,
-3.96988958e-01f,-5.43975234e-01f,-3.24639469e-01f,-1.07294238e+00f,-3.23821366e-01f,
+5.38180470e-02f,-1.75887629e-01f,+6.98370561e-02f,-4.04567540e-01f,+5.49404100e-02f,
-3.19464415e-01f,-6.11631632e-01f,-2.12007791e-01f,-2.98406184e-01f,-1.43112019e-01f,
-3.10255527e-01f,-5.17126799e-01f,-7.20049441e-01f,-2.11798266e-01f,+1.27765238e-01f,
-1.36225772e+00f,-4.81243610e-01f,-9.82790232e-01f,-6.32922411e-01f,-9.68988687e-02f,
-7.44564891e-01f,-1.23929806e-01f,-6.67381048e-01f,-6.18505538e-01f,-6.32445633e-01f,
-6.62898302e-01f,-1.32101774e-02f,-8.82619023e-02f,-3.81913990e-01f,-5.81385970e-01f,
-1.41474932e-01f,-9.44556594e-01f,+1.15585057e-02f,-1.05832838e-01f,-6.67974532e-01f,
-5.21718025e-01f,-7.57420957e-02f,+1.15322955e-01f,-9.32860255e-01f,-1.84043080e-01f,
-6.14493489e-01f,-5.40765047e-01f,-7.43371189e-01f,-3.66357923e-01f,-2.44597808e-01f,
-2.44574443e-01f,-2.43257776e-01f,-6.72269538e-02f,-3.66140991e-01f,-5.55235386e-01f,
-1.55215889e-01f,-7.96939611e-01f,-4.09990758e-01f,-7.67303705e-01f,-7.24839568e-01f,
-3.04922789e-01f,-3.94391149e-01f,-3.37764084e-01f,-7.34714031e-01f,-1.04382837e+00f,
-2.15332210e-01f,-5.17743707e-01f,-1.78506628e-01f,-2.50754476e-01f,-1.40077442e-01f,
-3.53908569e-01f,-1.84260917e+00f,-1.05156374e+00f,-7.41050601e-01f,-1.70541033e-01f,
-8.89034808e-01f,-2.87614912e-01f,-9.69241261e-01f,-2.25895748e-01f,-2.34333962e-01f,
-3.81430477e-01f,-2.32282728e-01f,-6.50540590e-01f,-4.13422436e-01f,-4.88321185e-01f,
-6.64895356e-01f,-4.71058905e-01f,-2.03102916e-01f,-7.59775400e-01f,-2.51379639e-01f,
-8.38705838e-01f,-1.45270979e+00f,-3.62872958e-01f,-5.43415964e-01f,-3.18870187e-01f,
-7.07823455e-01f,-3.13120157e-01f,-6.73097610e-01f,-3.52350026e-01f,-3.58799517e-01f,
-7.23825574e-01f,-4.90170807e-01f,-6.07803881e-01f,-3.15678090e-01f,-4.30904210e-01f,
-4.40975219e-01f,-2.81023622e-01f,+4.68719527e-02f,-6.14857137e-01f,-1.03527153e+00f,
-3.44914168e-01f,+3.30527760e-02f,-3.47154409e-01f,-8.01698625e-01f,+3.18616331e-01f,
-7.49463737e-01f,+1.82515383e-02f,-8.07935297e-02f,-5.36477208e-01f,-5.37964404e-01f,
-7.75527358e-01f,-2.56885201e-01f,-4.45547700e-01f,+2.74745468e-02f,-4.06247467e-01f,
-5.88189006e-01f,+1.36126041e-01f,-5.00487864e-01f,-6.10398054e-01f,-6.46995723e-01f,
-4.73580658e-01f,-5.37799537e-01f,+7.82198757e-02f,-1.33935779e-01f,-7.06029892e-01f,
-3.91698629e-01f,-6.68340981e-01f,-1.64149821e-01f,-5.43256223e-01f,-2.45956242e-01f,
-8.09205592e-01f,-5.85101128e-01f,+1.55492470e-01f,-9.56972480e-01f,+6.89593032e-02f,
-1.62017599e-01f,-1.00317049e+00f,-1.17426381e-01f,-2.12246925e-01f,+7.22092539e-02f,
-2.45295968e-02f,+6.68252468e-01f,+1.49028823e-02f,+6.31043017e-02f,-1.85713083e-01f,
+9.77186635e-02f,-2.45712817e-01f,-6.46908283e-01f,-3.37079376e-01f,-1.12171781e+00f,
+3.51826549e-01f,-5.01244009e-01f,-6.28054678e-01f,-2.11064726e-01f,+4.96644937e-02f,
-4.19370830e-01f,-7.42492437e-01f,-6.86781526e-01f,-4.90259528e-01f,-6.29819691e-01f,
-7.81419456e-01f,-3.49355400e-01f,-5.56612551e-01f,-3.93944561e-01f,-6.18620992e-01f,
-4.22920704e-01f,-1.41261733e+00f,-9.84742522e-01f,-6.40999913e-01f,-7.23568320e-01f,
-4.50176209e-01f,-3.86917621e-01f,-7.37444639e-01f,-6.41714156e-01f,-5.16042769e-01f,
-3.41630757e-01f,-4.05427843e-01f,-9.20084715e-01f,-3.90037179e-01f,-9.87334967e-01f,
-4.05469686e-01f,-9.19509768e-01f,-8.13223124e-01f,-4.38343376e-01f,-7.59408057e-01f,
-9.01757777e-01f,-1.08459294e+00f,-1.12144756e+00f,-3.66626620e-01f,-3.49354744e-01f,
-3.95330817e-01f,-3.61809880e-01f,-4.34805840e-01f,-1.09339404e+00f,-3.93586308e-01f,
-5.99610031e-01f,-7.81674385e-01f,-1.29008484e+00f,-7.82216907e-01f,-4.18173909e-01f,
-1.11509705e+00f,-5.67915082e-01f,-7.17057109e-01f,-6.24686360e-01f,-8.39853108e-01f,
-6.84863806e-01f,-5.87719202e-01f,-6.14348114e-01f,-1.18579972e+00f,-7.94407189e-01f,
-1.07930088e+00f,-7.91354835e-01f,-8.57312679e-01f,-6.00375056e-01f,-7.21404850e-01f,
-6.86924040e-01f,-6.67441607e-01f,-7.71872520e-01f,-1.09589839e+00f,-1.47104216e+00f,
-6.78584874e-01f,-6.33377910e-01f,-1.03714263e+00f,-7.32792497e-01f,-1.14976883e+00f,
-1.00288916e+00f,-6.41828418e-01f,-6.36517227e-01f,-6.58224106e-01f,-6.65244401e-01f,
-6.88366413e-01f,-6.57659471e-01f,-6.71359718e-01f,-6.31805420e-01f,-6.64389610e-01f,
-1.43959153e+00f,-6.79953337e-01f,-1.02847767e+00f,-7.51926482e-01f,-1.01552665e+00f,
-5.42152703e-01f,-9.01557446e-01f,-9.93821502e-01f,-5.46607018e-01f,-9.36396956e-01f,
-6.64375365e-01f,-9.79790509e-01f,-6.93312228e-01f,-7.51378536e-01f,-8.66873682e-01f,
-7.07997203e-01f,-6.38799787e-01f,-5.91581941e-01f,-1.04099405e+00f,-1.16312563e+00f,
-5.31834900e-01f,-5.46589971e-01f,-6.01374924e-01f,-5.40277421e-01f,-5.90128899e-01f,
-5.92786789e-01f,-5.87472141e-01f,-5.56770205e-01f,-5.48666894e-01f,-5.78485429e-01f,
-5.42979717e-01f,-1.89963543e+00f,-6.33171439e-01f,-5.04623353e-01f,-5.49827576e-01f,
-5.26147068e-01f,-4.89173472e-01f,-5.73331416e-01f,-5.81286013e-01f,-5.70541143e-01f,
-5.03727078e-01f,-6.63540423e-01f,-5.38570225e-01f,-4.88299370e-01f,-2.95028180e-01f,
-9.83429372e-01f,-4.95896369e-01f,-6.26417279e-01f,-4.69796985e-01f,-5.69279790e-01f,
-4.97738272e-01f,-4.54155445e-01f,-3.91240180e-01f,-6.41551912e-01f,-5.84950387e-01f,
-5.85875273e-01f,-6.86982274e-01f,-6.47869825e-01f,-1.76460731e+00f,-5.16756356e-01f,
-4.69918787e-01f,-2.73666382e-01f,-6.66103184e-01f,-4.77508157e-01f,-7.92049885e-01f,
-5.91968894e-01f,-1.10096204e+00f,-4.59700942e-01f,-5.57895422e-01f,-5.21094024e-01f,
-9.47411180e-01f,-9.35636699e-01f,-2.73947626e-01f,-2.18417808e-01f,-6.08772755e-01f,
-5.31850457e-01f,-2.35136792e-01f,-3.03554296e-01f,-7.78718293e-01f,-2.70978689e-01f,
-1.97917342e-01f,-5.70674717e-01f,-5.87458253e-01f,-3.75458151e-01f,-4.84070420e-01f,
-2.39417166e-01f,-7.34979808e-01f,-3.02395463e-01f,-4.00620908e-01f,+1.06647484e-01f,
-3.85963678e-01f,-9.67993319e-01f,-3.45594138e-01f,-3.03040028e-01f,-2.96702743e-01f,
-2.16623098e-01f,-4.66365904e-01f,-3.19378138e-01f,-8.35007668e-01f,-8.83267224e-01f,
-1.37577164e+00f,-8.78904879e-01f,-9.57439840e-01f,-7.26579547e-01f,-1.22730052e+00f,
-7.65038610e-01f,-1.23016286e+00f,-8.67918074e-01f,-5.80165088e-01f,-7.19909608e-01f,
-8.90196025e-01f,-1.03706503e+00f,-8.90604913e-01f,-5.75178802e-01f,-9.42280650e-01f,
-6.74434721e-01f,-5.55343688e-01f,-7.31501222e-01f,-1.18636596e+00f,-1.03217685e+00f,
-6.42761528e-01f,-5.67814827e-01f,-6.71419740e-01f,-1.23122931e+00f,-1.58720124e+00f,
-5.52867889e-01f,-4.26748723e-01f,-1.19783497e+00f,-6.25353813e-01f,-1.48245776e+00f,
-1.14882290e+00f,-4.46547985e-01f,-4.51330066e-01f,-5.96551001e-01f,-5.05272448e-01f,
-5.45493484e-01f,-5.73518038e-01f,-5.72841883e-01f,-4.37889755e-01f,-5.25807261e-01f,
-4.52405140e-02f,-2.72109896e-01f,-1.28100859e-02f,-1.10444002e-01f,+1.20488890e-02f,
-3.27012837e-01f,-1.10330319e+00f,-8.75425220e-01f,-3.82531077e-01f,-1.88118536e-02f,
-3.95377219e-01f,-8.05898845e-01f,-1.01924193e+00f,-1.36857808e-01f,-3.68456721e-01f,
-3.39587182e-01f,-1.59498870e-01f,-5.29550314e-01f,-1.07284784e+00f,-5.54845452e-01f,
-3.27019751e-01f,-4.25856113e-01f,-3.15546691e-01f,-3.60274673e-01f,-2.66620934e-01f,
-3.74856144e-01f,-1.02087688e+00f,-1.98134139e-01f,-9.19201553e-01f,-2.64125377e-01f,
-8.94213438e-01f,-9.46937621e-01f,-7.79103935e-01f,-3.78319055e-01f,-4.94507074e-01f,
-3.89560342e-01f,-3.73226106e-01f,-4.48181391e-01f,-9.04621243e-01f,-7.16731966e-01f,
-2.04342380e-01f,-2.87118614e-01f,-2.43456513e-01f,-1.72697306e-01f,-1.28660753e-01f,
-2.33119711e-01f,-1.11761689e+00f,-2.40250528e-01f,-6.90433919e-01f,-1.34514362e-01f,
-3.82458180e-01f,-9.98122811e-01f,-8.11250865e-01f,-7.00307012e-01f,-7.74943352e-01f,
-2.33015895e-01f,-5.24187207e-01f,-2.20316887e-01f,-8.54324937e-01f,-6.49121642e-01f,
-1.76685397e-02f,-9.43346620e-01f,+3.54866125e-02f,-2.48011231e-01f,+1.73169032e-01f,
-3.08208317e-01f,-9.13929939e-02f,-3.34038883e-01f,-6.58701807e-02f,+1.60931587e-01f,
-8.02860186e-02f,-4.23651397e-01f,-4.83550161e-01f,-1.51245132e-01f,-4.88198727e-01f,
-7.42506310e-02f,-1.80784985e-01f,-1.02676392e+00f,-5.04678130e-01f,-8.50492537e-01f,
-2.88372636e-01f,-6.51869535e-01f,-6.29823744e-01f,-5.07301927e-01f,-5.13543606e-01f,
-1.65021479e-01f,+4.59515810e-01f,-2.93347508e-01f,-1.13014393e-01f,-5.33228934e-01f,
-2.61640280e-01f,+2.29227677e-01f,-4.63555604e-01f,-8.28863978e-01f,-1.10047996e+00f,
-5.58163133e-03f,-7.48894870e-01f,-6.76493764e-01f,+3.60581949e-02f,-1.82819657e-03f,
-1.03505301e+00f,-3.54730368e-01f,-9.36332285e-01f,-4.69215721e-01f,-1.12414908e+00f,
-3.97737592e-01f,-1.07108402e+00f,-8.25522661e-01f,-4.63871181e-01f,-6.48036659e-01f,
-4.34281230e-01f,-7.94769049e-01f,-4.04228151e-01f,-2.89949775e-01f,-7.17339039e-01f,
-5.50580204e-01f,-2.94694006e-01f,-3.71172220e-01f,-6.96207047e-01f,-6.99598014e-01f,
-3.98899406e-01f,-7.59280145e-01f,-7.21173048e-01f,-5.07589817e-01f,-5.45722187e-01f,
-1.00525069e+00f,-1.90927804e-01f,-4.79025364e-01f,-4.49279696e-01f,-4.39756989e-01f,
-4.33485091e-01f,-8.37560475e-01f,-3.23619485e-01f,-4.45367366e-01f,-1.24436414e+00f,
-3.72936785e-01f,-2.12511823e-01f,-5.09500563e-01f,-4.68942702e-01f,-3.92777532e-01f,
-7.22949505e-01f,-1.66165322e-01f,+1.14599414e-01f,-6.41178608e-01f,-1.28972232e+00f,
-3.67819041e-01f,+6.10409454e-02f,-1.80894807e-01f,-2.67873526e-01f,-6.53829992e-01f,
-3.81518185e-01f,+4.25320379e-02f,+2.91555505e-02f,-8.61979783e-01f,-1.11670390e-01f,
-8.50008965e-01f,-9.28394258e-01f,-2.19677746e-01f,+3.30444030e-03f,-1.03256218e-01f,
-6.06243968e-01f,-7.31972933e-01f,-2.30422243e-01f,-3.48137617e-01f,-3.53805311e-02f,
-7.25702822e-01f,-2.46389806e-01f,-2.63654143e-01f,-3.16860944e-01f,-2.38064557e-01f,
-3.39716733e-01f,-2.94755846e-01f,-2.30149522e-01f,-8.45317006e-01f,-8.24592531e-01f,
-8.55706513e-01f,-8.82790387e-01f,-6.65091574e-01f,-1.68615377e+00f,-4.54005301e-01f,
-1.21351413e-03f,-1.54447958e-01f,-8.70983601e-01f,+3.33170705e-02f,-5.60440898e-01f,
-1.13005430e-01f,-1.38063967e+00f,-6.62164748e-01f,-9.31970716e-01f,-5.41354537e-01f,
-7.09282219e-01f,-1.02409303e-01f,-5.49166679e-01f,-4.27774824e-02f,-5.85953109e-02f,
-1.44008547e-01f,-4.64431942e-02f,-2.20394239e-01f,-1.01563796e-01f,-6.25520587e-01f,
-8.87701511e-01f,-5.82830787e-01f,-4.53777045e-01f,-8.71518612e-01f,-5.97291470e-01f,
-7.17735708e-01f,-3.51717383e-01f,-4.31818694e-01f,-3.34856808e-01f,-5.35077214e-01f,
-4.07378733e-01f,-1.23666918e+00f,-4.27802384e-01f,-6.84111178e-01f,-7.21974194e-01f,
-6.42466426e-01f,-7.36992657e-01f,-5.81701577e-01f,-7.34545112e-01f,-8.44116747e-01f,
-1.92163989e-01f,-7.65494168e-01f,-5.06485164e-01f,-2.18005449e-01f,-2.03747571e-01f,
-9.27953981e-03f,-4.65671629e-01f,-8.91180634e-02f,-2.94312209e-01f,-2.05093160e-01f,
-1.04550980e-01f,-1.57001838e-01f,-3.77877384e-01f,-4.19204295e-01f,-5.30101597e-01f,
-3.68469208e-02f,-4.84213412e-01f,-6.94580436e-01f,-4.41024303e-01f,-1.82274520e-01f,
-5.23286462e-01f,-4.71933365e-01f,-6.34302795e-01f,-3.83111805e-01f,-4.23821062e-01f,
-4.23516691e-01f,-5.21647692e-01f,-1.44194007e+00f,-9.06062007e-01f,-4.10217375e-01f,
-3.63977373e-01f,-5.34928083e-01f,-4.69273716e-01f,-5.12084723e-01f,-6.84120476e-01f,
-4.38166589e-01f,-4.76075172e-01f,-4.66114014e-01f,-4.86328304e-01f,-7.91750491e-01f,
-6.51318610e-01f,+2.15810746e-01f,+1.15859665e-01f,-5.83826482e-01f,-3.35061073e-01f,
-2.80578613e-01f,+4.01293561e-02f,-4.22170550e-01f,-3.06741685e-01f,-6.64364576e-01f,
-4.44360524e-01f,-8.10722888e-01f,-6.22770250e-01f,-5.89932382e-01f,-2.67870456e-01f,
-1.56793743e-01f,-1.00213933e+00f,+2.57839769e-01f,-6.09636247e-01f,+2.91246027e-01f,
-2.64926672e-01f,-8.40970278e-01f,-1.29447833e-01f,-4.19545889e-01f,-1.24003291e-01f,
-3.93636853e-01f,-6.47571266e-01f,-3.03739935e-01f,-5.44405699e-01f,-2.20029593e-01f,
-3.19427699e-01f,-9.93938506e-01f,-6.32678688e-01f,-3.73910427e-01f,-2.13941872e-01f,
-6.68500900e-01f,-9.30418432e-01f,-6.09349549e-01f,-7.58937836e-01f,-8.11026216e-01f,
-7.46649265e-01f,-9.16430414e-01f,-9.32124853e-01f,-1.09803033e+00f,-9.95572805e-01f,
-8.79830956e-01f,-1.16211963e+00f,-1.30488408e+00f,-7.94725895e-01f,-1.30558598e+00f,
-8.62479925e-01f,-1.45540071e+00f,-1.12224400e+00f,-1.19940329e+00f,-9.33146238e-01f,
-9.48179901e-01f,-1.13555968e+00f,-8.70530069e-01f,-1.40580392e+00f,-1.01085603e+00f,
-3.00413281e-01f,-9.19861570e-02f,+7.28202686e-02f,-5.04483700e-01f,-4.60333824e-01f,
-2.75428712e-01f,-8.11662674e-01f,-6.32242799e-01f,-1.49849668e-01f,-5.62134445e-01f,
-5.80583572e-01f,-2.26178735e-01f,-4.24556375e-01f,-4.61155742e-01f,+1.00349657e-01f,
-1.01600111e+00f,-4.71499950e-01f,-1.74482495e-01f,-2.99785644e-01f,-7.82826508e-04f,
-7.03225851e-01f,-6.78222835e-01f,-1.13240111e+00f,-6.31877601e-01f,-8.25946927e-01f,
-6.29900157e-01f,-5.64459622e-01f,-1.27305222e+00f,-4.92041618e-01f,-8.15596461e-01f,
-5.49588561e-01f,-5.81002593e-01f,-5.93487203e-01f,-7.09344983e-01f,-8.83361101e-01f,
-6.28853083e-01f,-6.97140336e-01f,-6.70684218e-01f,-5.42223215e-01f,-1.02661204e+00f,
-5.06177127e-01f,-5.27087808e-01f,-5.36854565e-01f,-5.50124705e-01f,-5.25548220e-01f,
-5.17699003e-01f,-4.85802352e-01f,-1.02550042e+00f,-1.17118585e+00f,-5.39759696e-01f,
-1.27559042e+00f,-4.82610971e-01f,-5.01740873e-01f,-5.09499311e-01f,-5.32445848e-01f,
-5.18760145e-01f,-5.13355136e-01f,-5.32146811e-01f,-4.73991632e-01f,-5.67103565e-01f,
-1.94166467e-01f,-9.87770259e-01f,-9.04712752e-02f,-3.78579170e-01f,-4.44167107e-02f,
-5.95675468e-01f,-9.73582044e-02f,-1.32576436e-01f,-9.54018891e-01f,-9.81971473e-02f,
-6.92660868e-01f,-6.53146029e-01f,-7.81282544e-01f,-3.29070985e-01f,-6.46228135e-01f,
-5.30511081e-01f,-5.87101340e-01f,-7.86034882e-01f,-4.65172589e-01f,-9.29019570e-01f,
-6.49136841e-01f,-4.06734318e-01f,-3.60543042e-01f,-6.06600523e-01f,-7.65200853e-01f,
-4.59098309e-01f,-9.21846554e-02f,-6.64754093e-01f,-5.60390711e-01f,+6.67597577e-02f,
-6.23048723e-01f,-6.44153878e-02f,-1.56544700e-01f,-6.46474183e-01f,-6.31350219e-01f,
-8.41544628e-01f,-5.76590955e-01f,-3.14927340e-01f,-1.22319572e-01f,-6.42281651e-01f,
-3.47438723e-01f,+4.59977239e-02f,+1.27346441e-01f,-6.78343594e-01f,-8.17526519e-01f,
-1.06900916e-01f,-1.60163373e-01f,-1.57602414e-01f,-3.33486766e-01f,-5.87133169e-01f,
-4.59467262e-01f,+4.67528850e-02f,+1.45342216e-01f,-9.11374152e-01f,-1.04556922e-02f,
-7.54510820e-01f,-8.01748931e-01f,-1.62280072e-03f,-5.08416533e-01f,+6.88978359e-02f,
-8.87045205e-01f,-4.60401356e-01f,-3.53653222e-01f,-5.89535058e-01f,-5.33605754e-01f,
-5.44085383e-01f,-7.65003920e-01f,-5.59232354e-01f,-7.85657525e-01f,-5.87764800e-01f,
-6.68277919e-01f,-7.11115956e-01f,-6.28260434e-01f,-4.25725877e-01f,-3.09370458e-01f,
-1.00314415e+00f,-4.22077984e-01f,-4.92980033e-01f,-8.93441200e-01f,-4.78005022e-01f,
+3.15901749e-02f,-6.40991807e-01f,+2.27226749e-01f,-6.75912499e-01f,+2.50188559e-01f,
-5.87968767e-01f,-8.67617428e-01f,-3.86380076e-01f,-4.55417708e-02f,+2.39306539e-01f,
-2.83023953e-01f,-6.29859984e-01f,-2.72675753e-01f,-3.90357599e-02f,-3.57814848e-01f,
-5.92235029e-01f,-8.08499567e-03f,-6.44535065e-01f,-6.38325930e-01f,-6.36446893e-01f,
-1.75074235e-01f,-6.68589294e-01f,+2.23641351e-01f,-5.56973219e-01f,+2.14634195e-01f,
-3.17109078e-01f,-3.91116619e-01f,-1.89285889e-01f,-2.21395165e-01f,-6.41448438e-01f,
+1.70613006e-01f,-3.93765211e-01f,-7.60727704e-01f,+6.08785124e-03f,-2.12404318e-02f,
-4.04806972e-01f,-5.33709023e-03f,-4.02010947e-01f,-6.23364031e-01f,-2.62151569e-01f,
-2.62869298e-01f,-4.58271563e-01f,-2.08421379e-01f,-6.77390337e-01f,-1.56813800e-01f,
-3.03822637e-01f,-1.45111275e+00f,-2.68119365e-01f,-7.65180886e-01f,-1.89778402e-01f,
-5.84626019e-01f,-1.11011457e+00f,-1.13541973e+00f,-2.55909353e-01f,-2.63026148e-01f,
-3.68786097e-01f,-2.65926152e-01f,-4.68462855e-01f,-1.13926721e+00f,-6.90912843e-01f,
-1.42325270e+00f,-8.90302956e-01f,-1.11838305e+00f,-1.00070500e+00f,-1.39749110e+00f,
-9.88566518e-01f,-1.37704086e+00f,-8.35054100e-01f,-7.71470606e-01f,-9.78885412e-01f,
-1.15059280e+00f,-1.26405227e+00f,-9.69859779e-01f,-9.30085063e-01f,-1.02802718e+00f,
-1.05284905e+00f,-8.74730051e-01f,-8.76578391e-01f,-1.20517755e+00f,-9.71786201e-01f,
-1.88255563e-01f,-4.69951034e-01f,+2.61765629e-01f,-2.21251279e-01f,+1.35611102e-01f,
-5.17548919e-01f,-3.20910037e-01f,-2.45611474e-01f,-1.07284769e-01f,-3.45419496e-01f,
-3.13832402e-01f,-6.13401175e-01f,-5.64095020e-01f,-1.38138263e-02f,+1.61649346e-01f,
+2.42249697e-01f,-5.36413908e-01f,-6.33839309e-01f,-5.90750337e-01f,-3.31706911e-01f,
-1.75959393e-01f,-4.82169330e-01f,+7.87321031e-02f,-8.52404952e-01f,+1.94650572e-02f,
-4.24702466e-01f,-8.45572352e-01f,-2.65666187e-01f,-3.66407484e-01f,-1.46097988e-01f,
-4.92563814e-01f,-5.90119660e-01f,-7.53406763e-01f,-6.59494847e-02f,+3.73852672e-03f,
-5.52054644e-01f,-7.03046992e-02f,-5.81976295e-01f,-7.32219040e-01f,-1.24088667e-01f,
-2.06941366e-01f,-2.04287946e-01f,-1.27986714e-01f,-1.15337871e-01f,+1.56518593e-01f,
+1.51918814e-01f,-4.92125213e-01f,-1.27371103e-01f,-4.48790550e-01f,-6.85092732e-02f,
-1.79298446e-01f,+2.80832410e-01f,-6.18771017e-01f,-2.27653384e-01f,-2.21817791e-01f,
-7.57705867e-01f,-1.58402562e-01f,-2.10714072e-01f,-8.69364798e-01f,-5.94823807e-02f,
-4.47049826e-01f,-4.60887581e-01f,-7.65122235e-01f,-4.92755860e-01f,-1.45026731e+00f,
-6.54116750e-01f,-7.14450538e-01f,-5.94388843e-01f,-6.27942502e-01f,-5.96500039e-01f,
-6.11469328e-01f,-9.35898125e-01f,-7.01065719e-01f,-4.33821827e-01f,-6.61214590e-01f,
-7.47064948e-01f,-4.58196312e-01f,-4.62972790e-01f,-1.00581753e+00f,-6.84481978e-01f,
-8.04879844e-01f,-3.58603090e-01f,-2.71535456e-01f,-6.82401896e-01f,-5.16331613e-01f,
-7.48320520e-01f,-1.12924421e+00f,-8.28578591e-01f,-6.08176887e-01f,-5.09608328e-01f,
-1.11116683e+00f,-4.95734632e-01f,-5.22406697e-01f,-2.97014683e-01f,-1.71000734e-01f,
-7.80229390e-01f,-3.23769093e-01f,-3.80495548e-01f,-6.13791823e-01f,-3.20242763e-01f,
-8.16222608e-01f,-6.40645921e-01f,-6.86873376e-01f,-4.52475309e-01f,-4.40368682e-01f,
-8.04635465e-01f,-2.17846006e-01f,-3.57936025e-01f,-8.28309894e-01f,-4.27417696e-01f,
-3.72757733e-01f,-2.92061836e-01f,-3.70954096e-01f,-8.04100096e-01f,-8.49378347e-01f,
-8.78349900e-01f,-5.95933020e-01f,-6.93379462e-01f,-3.03902894e-01f,-4.52495277e-01f,
-1.44636318e-01f,-3.20097625e-01f,-7.64570609e-02f,-4.87192929e-01f,-2.58006211e-02f,
-2.49971926e-01f,-1.64510119e+00f,-3.21982294e-01f,-6.83085799e-01f,-9.56670046e-02f,
-5.23445010e-01f,-6.89118505e-01f,-8.80520269e-02f,-2.03747630e-01f,-5.24233989e-02f,
-7.01606750e-01f,-6.02377057e-01f,-4.52440113e-01f,-1.15797818e+00f,-1.45094961e-01f,
-2.58403450e-01f,-9.42131460e-01f,-2.30499864e-01f,-3.53811413e-01f,-1.84546739e-01f,
-2.88917422e-01f,-4.83457476e-01f,-3.70435983e-01f,-6.86022520e-01f,-2.45275527e-01f,
-2.82218128e-01f,-5.72676480e-01f,-6.37418568e-01f,-4.40272987e-01f,-2.67118394e-01f,
-3.22326720e-01f,-4.97488797e-01f,-6.81557953e-01f,-3.65461230e-01f,-1.22350013e+00f,
-5.87762594e-01f,-5.36586463e-01f,-5.24725854e-01f,-4.83308315e-01f,-4.82609153e-01f,
-5.06348372e-01f,-5.02182901e-01f,-1.62882042e+00f,-1.31157565e+00f,-4.88833636e-01f,
-5.03293574e-01f,-4.87307459e-01f,-4.81116205e-01f,-5.51072359e-01f,-6.41977310e-01f,
-5.13923168e-01f,-5.53829074e-01f,-5.34813225e-01f,-4.77687657e-01f,-6.80468023e-01f,
-3.48399401e-01f,-1.26526996e-01f,-2.36962393e-01f,-9.55720901e-01f,-6.68182850e-01f,
-1.94303587e-01f,-2.42033646e-01f,-8.27438474e-01f,-3.22000653e-01f,-1.17803204e+00f,
-6.14725530e-01f,-1.02818811e+00f,-1.94277048e-01f,-5.37624180e-01f,-6.13303125e-01f,
-1.77318022e-01f,-6.48592889e-01f,-1.25723064e-01f,-1.01386559e+00f,-1.31697848e-01f,
+1.63313875e-03f,-1.33115813e-01f,-6.51478171e-01f,-4.40686256e-01f,-4.38438386e-01f,
-3.20704460e-01f,-1.48247764e-01f,-3.17653835e-01f,-2.08988979e-01f,-3.12871456e-01f,
-2.64794409e-01f,-9.95422781e-01f,-7.13032663e-01f,-1.44398260e+00f,-1.06252229e+00f,
-1.30951628e-01f,-9.77718234e-01f,-5.07469289e-02f,-6.90295041e-01f,+3.26218287e-04f,
-3.64467591e-01f,-9.96495709e-02f,-3.98463905e-02f,-5.35087228e-01f,-4.93554652e-01f,
-1.55350506e-01f,-4.98999804e-01f,-5.76411486e-01f,-7.14235604e-01f,-5.55986404e-01f,
-4.51230705e-01f,+2.25358475e-02f,-8.67031142e-02f,-6.16495132e-01f,-2.63825536e-01f,
-1.20477116e+00f,-5.54833472e-01f,-3.13703388e-01f,-9.46905196e-01f,-2.90994924e-02f,
-4.34022069e-01f,-6.47512674e-01f,-6.20532334e-01f,-1.05989635e+00f,-8.20376694e-01f,
-8.40008140e-01f,-3.44033509e-01f,-5.78753352e-01f,-3.09563696e-01f,-7.60356665e-01f,
-6.83593869e-01f,-1.37549019e+00f,-4.19154048e-01f,-4.11368757e-01f,-5.45512617e-01f,
-5.72850406e-01f,-4.03036058e-01f,-6.02800906e-01f,-6.65771663e-01f,-5.17163038e-01f,
-2.63487160e-01f,-7.97536969e-01f,-1.39743462e-01f,-2.22859100e-01f,-1.04673542e-01f,
-4.74364609e-01f,-8.95816803e-01f,-2.20641986e-01f,-4.53338087e-01f,-1.37239218e-01f,
-6.09597743e-01f,-9.19665992e-01f,-7.09664881e-01f,-3.66260707e-01f,-8.57103765e-01f,
-4.74029630e-01f,-3.69726747e-01f,-8.61990690e-01f,-1.27619779e+00f,-9.38721120e-01f,
-5.13366103e-01f,-9.14801538e-01f,-6.85808897e-01f,-2.85608202e-01f,-2.07615852e-01f,
+6.64850399e-02f,+2.76433527e-01f,+3.59635465e-02f,-1.64472789e-01f,-1.08395129e-01f,
+2.40098312e-02f,+1.56163290e-01f,-8.04375470e-01f,-7.84214973e-01f,-9.29090738e-01f,
+1.64399192e-01f,-1.72261640e-01f,-5.33501089e-01f,+2.88286954e-01f,-3.30299437e-02f,
-2.89383620e-01f,-6.54885530e-01f,-1.90802023e-01f,-8.85830879e-01f,-1.86924070e-01f,
-4.72512215e-01f,-8.88029575e-01f,-5.63753724e-01f,-2.18385249e-01f,-2.20250040e-01f,
-2.79695988e-01f,-6.78563416e-01f,-4.91660565e-01f,-3.15529078e-01f,-2.59849548e-01f,
-8.58178735e-01f,-3.40753525e-01f,-7.01839030e-01f,-7.40745246e-01f,-5.31419516e-01f,
-5.86194992e-01f,-2.00279295e-01f,-2.37138063e-01f,-1.06242275e+00f,-1.44442630e+00f,
-2.41905823e-01f,-5.31341910e-01f,-8.96992981e-01f,-3.90273124e-01f,-8.89930665e-01f,
-8.30644906e-01f,-7.01007485e-01f,-6.13354981e-01f,-1.43174458e+00f,-3.31499785e-01f,
-2.50514776e-01f,-7.47969151e-01f,-2.23317951e-01f,-5.20880282e-01f,-1.48732096e-01f,
-3.80959392e-01f,-2.14999765e-01f,-6.72935486e-01f,-1.43175229e-01f,-5.01102507e-01f,
-7.15154588e-01f,-4.22698379e-01f,-1.62591204e-01f,-7.13422537e-01f,-1.43413737e-01f,
-3.19700271e-01f,-3.44042987e-01f,-4.59704816e-01f,-3.80979627e-01f,-5.07548630e-01f,
-1.16232537e-01f,-2.43485458e-02f,-3.20258856e-01f,-3.18299830e-01f,-1.81193296e-02f,
-2.07350492e-01f,-3.36786151e-01f,-1.43027872e-01f,-3.72630864e-01f,-2.97022700e-01f,
-2.45343372e-01f,-1.35461247e+00f,-4.38905656e-01f,-3.03908259e-01f,-3.91700268e-01f,
-3.48255724e-01f,-1.25897264e+00f,-3.38509262e-01f,-2.62793094e-01f,-1.75851911e-01f,
-3.20792675e-01f,-5.16389132e-01f,-3.80102992e-01f,-1.40682805e+00f,-3.05364102e-01f,
-5.49650848e-01f,-5.22930920e-01f,-5.12331843e-01f,-5.11047423e-01f,-5.06639898e-01f,
-5.18170774e-01f,-5.18386483e-01f,-1.10246348e+00f,-1.41533661e+00f,-5.04786253e-01f,
-5.47153175e-01f,-5.11366010e-01f,-5.25251508e-01f,-5.28957129e-01f,-5.30539751e-01f,
-5.18081009e-01f,-5.28243303e-01f,-5.21535337e-01f,-5.08060932e-01f,-5.41056812e-01f,
-4.08425570e-01f,-4.86383200e-01f,-4.24025297e-01f,-4.43835139e-01f,-4.25626099e-01f,
-4.57625479e-01f,-4.05665040e-01f,-1.16750252e+00f,-9.20310855e-01f,-3.99838030e-01f,
-1.12187767e+00f,-3.96809489e-01f,-4.05281633e-01f,-4.33102906e-01f,-4.91503984e-01f,
-4.52593476e-01f,-4.25969571e-01f,-4.79625165e-01f,-4.13245976e-01f,-6.42545521e-01f,
-2.18890592e-01f,-5.23631036e-01f,-1.36680067e-01f,-3.07040602e-01f,-8.59937742e-02f,
-3.33584309e-01f,-1.35130703e+00f,-3.14598948e-01f,-7.31543183e-01f,-1.92804843e-01f,
-4.10069644e-01f,-1.04005265e+00f,-8.19013596e-01f,-1.75162107e-01f,-6.12636864e-01f,
-2.22215071e-01f,-1.54019505e-01f,-3.54511559e-01f,-1.03401446e+00f,-5.66613019e-01f,
-1.76692188e-01f,-4.78900939e-01f,-1.12946999e+00f,-2.34779656e-01f,-9.95136440e-01f,
-4.99457330e-01f,-3.24461043e-01f,-7.80483484e-01f,-1.69898123e-01f,-2.81482220e-01f,
-2.04398483e-01f,-2.19464496e-01f,-7.05393016e-01f,-6.17241383e-01f,-5.49385071e-01f,
-5.48120499e-01f,-3.75346512e-01f,-4.34674531e-01f,-2.28682294e-01f,-7.73146451e-01f,
-4.95615989e-01f,-1.62300065e-01f,-2.10862279e-01f,-7.55413771e-01f,-1.20473671e+00f,
-1.86632976e-01f,-6.11746967e-01f,-7.33288407e-01f,-3.88805658e-01f,-8.21392655e-01f,
-7.90672004e-01f,-6.64375842e-01f,-6.54980063e-01f,-8.50855112e-01f,-2.25489780e-01f,
-1.85459703e-01f,-8.34245265e-01f,-1.68195859e-01f,-5.80271900e-01f,-1.58895373e-01f,
-3.35681349e-01f,-1.95465699e-01f,-4.34962008e-03f,-1.92238852e-01f,-2.05569342e-01f,
-1.24293692e-01f,-4.42860007e-01f,-6.62154913e-01f,-8.01051497e-01f,-8.53394493e-02f,
-4.85751688e-01f,-6.75056040e-01f,-4.96941626e-01f,-5.29167295e-01f,+3.61312069e-02f,
-1.13388991e+00f,-5.13947248e-01f,-5.75807512e-01f,-5.83416581e-01f,-1.13598831e-01f,
-4.81856257e-01f,-1.02624141e-01f,-1.11615801e+00f,-1.24179006e+00f,-4.33745861e-01f,
-6.27245724e-01f,-2.75645852e-01f,-5.63128412e-01f,-5.57222366e-01f,-1.28252912e+00f,
-1.03710496e+00f,-2.00511515e-01f,-3.47991377e-01f,-3.89264941e-01f,-4.17666346e-01f,
-5.01266778e-01f,-4.25828546e-01f,-1.63776547e-01f,-1.81850821e-01f,-5.08743674e-02f,
-6.60280108e-01f,-1.88034866e-02f,-1.89812317e-01f,-9.07454312e-01f,-4.53758925e-01f,
-4.52420413e-01f,-1.48552224e-01f,-1.62335336e-01f,-2.14864492e-01f,-2.78088570e-01f,
-3.60406131e-01f,-7.42913708e-02f,-2.70765945e-02f,-1.07444715e+00f,-5.26674032e-01f,
-5.03198385e-01f,-1.12302244e+00f,-1.08136617e-01f,-1.45519269e+00f,+1.27966359e-01f,
-1.71993554e+00f,-5.13445020e-01f,-9.19784963e-01f,-4.76463825e-01f,-7.39466131e-01f,
-5.08142531e-01f,-3.91736925e-01f,-3.63594115e-01f,-4.39766765e-01f,-8.58161807e-01f,
-3.34885955e-01f,-7.72433043e-01f,-4.11224097e-01f,-5.83304942e-01f,-6.29319787e-01f,
-4.96341318e-01f,-7.12786198e-01f,-4.82726544e-01f,-5.35629630e-01f,-6.86524630e-01f,
-2.32581913e-01f,-1.20064211e+00f,-5.03936589e-01f,-4.38412845e-01f,-1.81666628e-01f,
-2.68201053e-01f,+1.98866799e-01f,-9.93913934e-02f,-6.56727701e-02f,-5.21285594e-01f,
-2.27999568e-01f,+3.71821113e-02f,-5.81565082e-01f,-5.84143639e-01f,-1.15609777e+00f,
-4.51400056e-02f,-9.05305266e-01f,-6.31020963e-01f,+1.15666695e-01f,-3.04625243e-01f,
-1.48391783e-01f,-2.50299066e-01f,-8.44790220e-01f,-5.94903469e-01f,-4.49334204e-01f,
-1.80949479e-01f,-9.31480348e-01f,-1.89007699e-01f,-1.92043886e-01f,+3.62311676e-02f,
-4.59428281e-01f,-7.48886466e-01f,-9.19202924e-01f,-1.00517124e-01f,-9.57234129e-02f,
-1.72241896e-01f,-1.13472193e-01f,-2.91206002e-01f,-8.82422924e-01f,-2.35873923e-01f,
-1.15573812e+00f,-5.41370571e-01f,-7.09725618e-01f,-4.45797294e-01f,-5.03935158e-01f,
-5.32769024e-01f,-7.46338367e-01f,-3.99613529e-01f,-8.66927981e-01f,-4.70582128e-01f,
-3.98975283e-01f,-7.83409894e-01f,-1.32521832e+00f,-6.50381148e-01f,-6.67888522e-01f,
-5.54417431e-01f,-6.89794719e-01f,-5.25348902e-01f,-8.60459805e-01f,-5.33392191e-01f,
-4.16622758e-01f,-2.72801846e-01f,-3.15544695e-01f,-7.99277842e-01f,-1.36957836e+00f,
-3.02625239e-01f,-4.98672694e-01f,-1.08666837e+00f,-3.48278224e-01f,-7.15363622e-01f,
-6.25512838e-01f,-6.68358982e-01f,-4.78254050e-01f,-9.60233390e-01f,-5.62369287e-01f,
-2.90389627e-01f,-8.10630381e-01f,-2.77667344e-01f,-5.10721028e-01f,-2.62834132e-01f,
-1.39456332e+00f,-6.67997539e-01f,-1.16681170e+00f,-6.70488298e-01f,-1.18108881e+00f,
-6.66351557e-01f,-6.43984675e-01f,-6.21306300e-01f,-6.11384928e-01f,-1.04920125e+00f,
-6.21227682e-01f,-7.21817613e-01f,-6.60424054e-01f,-7.26262629e-01f,-6.97676599e-01f,
-6.65587068e-01f,-7.23893106e-01f,-6.64099276e-01f,-6.70069695e-01f,-6.92582011e-01f,
-3.43906045e-01f,-5.16755044e-01f,-8.27745199e-01f,-3.68393838e-01f,-9.97977912e-01f,
-6.45337880e-01f,-1.07240188e+00f,-6.10109150e-01f,-2.39749387e-01f,-7.37751842e-01f,
-6.31102800e-01f,-3.49513471e-01f,-6.37753308e-01f,-3.45510632e-01f,-7.83568323e-01f,
-4.87642795e-01f,-3.51424545e-01f,-6.09482288e-01f,-5.21853924e-01f,-8.44499528e-01f,
-3.84773374e-01f,-6.32327139e-01f,-2.01983541e-01f,-5.62613368e-01f,-2.06063047e-01f,
-4.34826463e-01f,-1.75702822e+00f,-5.14353871e-01f,-9.86995995e-01f,-2.72229016e-01f,
-5.21913409e-01f,-3.22845459e-01f,-5.20732701e-01f,-3.73528302e-01f,-3.17338824e-01f,
-6.07538044e-01f,-4.53816503e-01f,-5.39270759e-01f,-2.93682724e-01f,-6.65908158e-01f,
-1.10547125e+00f,-5.43698967e-01f,-9.58572090e-01f,-5.17904460e-01f,-9.09520924e-01f,
-5.42687058e-01f,-5.06379664e-01f,-4.55692530e-01f,-1.06314182e+00f,-5.99530578e-01f,
-4.90033209e-01f,-5.56707561e-01f,-5.17115593e-01f,-6.05646312e-01f,-5.45547843e-01f,
-5.50000131e-01f,-5.98892093e-01f,-5.39249837e-01f,-5.45927882e-01f,-5.80283284e-01f,
-4.77468908e-01f,-4.97249961e-01f,-1.11744893e+00f,-2.67258823e-01f,+9.86123085e-02f,
-1.02328765e+00f,-2.87915617e-01f,-3.01069111e-01f,-3.10166001e-01f,-1.79056507e-02f,
-3.26395720e-01f,-3.43187451e-01f,-3.27865303e-01f,-1.09667635e+00f,-3.42659295e-01f,
-1.15277374e+00f,-9.71195877e-01f,-4.91566032e-01f,-3.76795501e-01f,-4.27088112e-01f,
-2.72641867e-01f,+5.27426265e-02f,-4.84130949e-01f,-2.25559086e-01f,+1.38973128e-02f,
-7.86179006e-01f,-3.90918463e-01f,-1.11822255e-01f,+1.32360384e-01f,-2.32238136e-02f,
-2.49305829e-01f,-6.50733054e-01f,-2.00537533e-01f,-5.07743299e-01f,-1.05596495e+00f,
-5.70118010e-01f,-5.73804319e-01f,+4.09427024e-02f,-4.74412173e-01f,+1.06056593e-01f,
-4.65886116e-01f,-3.31600159e-01f,-1.16306496e+00f,-6.45105660e-01f,-7.03134418e-01f,
-3.70009482e-01f,-1.40482500e-01f,-5.72015524e-01f,-4.34243232e-01f,-6.90805912e-01f,
-6.14830077e-01f,-4.01102185e-01f,-4.47877496e-01f,-8.57294738e-01f,-1.05965483e+00f,
-3.04912567e-01f,-3.82184297e-01f,-3.28889787e-01f,-5.16141593e-01f,-2.64040858e-01f,
-2.84716696e-01f,-6.39494717e-01f,-7.22256064e-01f,-3.13898146e-01f,-6.88511848e-01f,
-5.05548775e-01f,-2.10479170e-01f,-5.99230409e-01f,-3.28948945e-01f,-2.30410263e-01f,
-3.96768004e-01f,-6.74410462e-01f,-6.29174292e-01f,-6.17213428e-01f,-1.01273572e+00f,
-3.87186050e-01f,-3.17395121e-01f,-7.32482076e-01f,-8.10029209e-01f,-6.91200674e-01f,
-6.45692289e-01f,-1.88630417e-01f,-5.06738603e-01f,-9.67518806e-01f,-7.96749890e-01f,
-5.55083036e-01f,-9.71838057e-01f,-9.55124974e-01f,-1.65496305e-01f,-9.39474344e-01f,
-8.75811160e-01f,-2.93556582e-02f,-3.55111659e-01f,-4.55374330e-01f,-1.70497119e-01f,
-4.52442616e-01f,-4.73227322e-01f,-3.48906994e-01f,+2.84356922e-02f,+7.28444681e-02f,
-8.73320282e-01f,-4.80262637e-01f,-5.95913112e-01f,-6.92428112e-01f,-1.11538601e+00f,
-8.06556523e-01f,-3.19779485e-01f,-7.87687957e-01f,-8.36346984e-01f,-6.67677283e-01f,
-9.30576146e-01f,-2.81312943e-01f,-3.25303078e-01f,-5.08635402e-01f,-5.86386621e-01f,
-9.17804241e-01f,-7.15906024e-01f,-4.59454745e-01f,-2.99998313e-01f,-4.62524831e-01f,
-3.52695137e-01f,-3.92755777e-01f,-8.78747821e-01f,-4.10255909e-01f,-8.67716193e-01f,
-4.05164242e-01f,-1.04892170e+00f,-6.09847546e-01f,-3.88844192e-01f,-8.81529331e-01f,
-7.61293769e-01f,-1.06746161e+00f,-8.07885051e-01f,-3.76990408e-01f,-3.76996428e-01f,
-3.95151556e-01f,-3.78781676e-01f,-4.12158310e-01f,-1.12134242e+00f,-3.93566936e-01f,
-2.75740087e-01f,-6.18047237e-01f,-4.52314407e-01f,-3.18784624e-01f,-2.23109528e-01f,
-4.42173153e-01f,-2.27769867e-01f,-1.58227116e-01f,-6.73102677e-01f,-2.48688072e-01f,
-2.71422088e-01f,-1.03194773e+00f,-6.09197915e-01f,-6.51098013e-01f,-5.17385900e-01f,
-5.57617426e-01f,-6.70543611e-01f,-6.51905537e-01f,-7.38954246e-01f,-1.55334175e+00f,
-9.95527864e-01f,-6.14978492e-01f,-1.14919960e+00f,-5.89411259e-01f,-8.35125566e-01f,
-6.51180387e-01f,-7.15396881e-01f,-4.87206817e-01f,-5.13409555e-01f,-7.40572810e-01f,
-5.10821939e-01f,-9.34425056e-01f,-9.44131434e-01f,-1.10175395e+00f,-8.61746967e-01f,
-6.51448011e-01f,-8.87183607e-01f,-6.15517318e-01f,-1.20924246e+00f,-6.05318069e-01f,
-2.77403504e-01f,-5.96060753e-01f,-1.06834650e-01f,-7.87317991e-01f,-1.49074167e-01f,
-4.94901121e-01f,-1.17254639e+00f,-9.01692212e-01f,-7.14239299e-01f,-2.12242767e-01f,
-5.51853597e-01f,-8.81123245e-02f,-3.69416535e-01f,-1.88611314e-01f,-1.20173313e-01f,
-5.29819965e-01f,-2.48603404e-01f,-8.17659974e-01f,-6.91897795e-02f,-4.66430455e-01f,
-7.79508799e-02f,-4.80958730e-01f,-6.62706077e-01f,-2.92434186e-01f,-5.50366223e-01f,
-5.67756236e-01f,-2.15220302e-01f,-4.57969636e-01f,-4.31319326e-01f,-4.95716900e-01f,
-4.96906817e-01f,-1.82872581e+00f,-3.42371136e-01f,-4.13890481e-02f,-7.32629597e-01f,
-1.60449013e-01f,-3.00789401e-02f,-4.53832179e-01f,-3.08025330e-01f,-3.24005127e-01f,
-3.57781976e-01f,-3.94889712e-01f,-9.66560781e-01f,-3.22303712e-01f,-1.06817007e+00f,
-4.69470620e-01f,-1.25391531e+00f,-7.05704093e-01f,-6.67703450e-01f,-3.91294986e-01f,
-7.54219830e-01f,-1.15026975e+00f,-9.39361930e-01f,-3.96714747e-01f,-4.53006774e-01f,
-4.52724040e-01f,-4.06146228e-01f,-4.43450421e-01f,-1.02786243e+00f,-3.75420809e-01f,
+1.23100892e-01f,+3.58579546e-01f,-3.56291026e-01f,+2.93346923e-02f,-1.67599563e-02f,
-7.46565104e-01f,-2.65835285e-01f,-7.78943747e-02f,-5.33450603e-01f,-1.47918284e-01f,
-1.22815140e-01f,-3.99001598e-01f,-9.30941164e-01f,-4.95827109e-01f,-5.75437248e-01f,
-6.34460092e-01f,-8.82343113e-01f,+3.85919750e-01f,-6.13672137e-01f,+2.52890736e-01f,
-9.39342752e-02f,-4.01400805e-01f,+9.69776511e-03f,-8.66723597e-01f,-3.89985964e-02f,
-3.56662273e-01f,-1.22512841e+00f,-6.48308039e-01f,-2.29949519e-01f,-8.31735790e-01f,
-3.74320030e-01f,-1.46101213e+00f,-2.09250674e-01f,-6.22259118e-02f,-1.14812076e-01f,
-2.63289928e-01f,-8.96806121e-02f,-4.18543369e-01f,-9.00109231e-01f,-2.61951923e-01f,
-3.66018236e-01f,-2.82949954e-01f,-5.13939798e-01f,-2.19254687e-01f,-6.73270702e-01f,
-2.13447645e-01f,-8.59486401e-01f,-3.15750897e-01f,-6.95698321e-01f,-3.92583698e-01f,
-4.74443763e-01f,-1.64222538e-01f,-1.22842453e-01f,-3.24118316e-01f,-3.89478475e-01f,
-6.86074793e-01f,-2.70484418e-01f,-2.71456569e-01f,-9.63362217e-01f,-3.81493062e-01f,
-2.61924684e-01f,-7.09031940e-01f,-1.30974755e-01f,-7.00906336e-01f,-1.02379337e-01f,
-3.83752435e-01f,-1.57169724e+00f,-2.44880974e-01f,-5.08670568e-01f,-1.31918684e-01f,
-5.76108932e-01f,-1.25324285e+00f,-2.80691773e-01f,-2.81330079e-01f,-3.01305711e-01f,
-3.80642533e-01f,-3.07851553e-01f,-5.37692666e-01f,-8.74854982e-01f,-7.34046161e-01f,
-4.68066156e-01f,-5.76908775e-02f,-1.57315969e-01f,-7.61944890e-01f,-1.02399516e+00f,
-5.32910287e-01f,-2.02029690e-01f,-3.94684970e-01f,-2.04978943e-01f,-7.53618360e-01f,
-4.63310033e-01f,-5.69433749e-01f,-1.42092586e-01f,-8.35343599e-01f,-3.18579525e-01f,
-4.60960448e-01f,-7.13516295e-01f,-8.08800682e-02f,-1.54271138e+00f,+1.74297526e-01f,
-5.65271318e-01f,-6.54235184e-01f,-4.97051299e-01f,-6.28198206e-01f,-5.04138827e-01f,
-5.85813224e-01f,-1.54735959e+00f,-4.49483335e-01f,-9.93359685e-01f,-5.08110762e-01f,
-1.09344852e+00f,-5.99608421e-01f,-5.75496972e-01f,-5.48281074e-01f,-5.59218228e-01f,
-7.12755799e-01f,-5.67507863e-01f,-5.80634892e-01f,-5.80239594e-01f,-8.43288243e-01f,
-1.75533324e-01f,-3.05351436e-01f,-9.49544728e-01f,-6.73865974e-01f,-7.77517259e-01f,
-4.73341495e-01f,-9.33554113e-01f,-4.56015855e-01f,-4.22999591e-01f,-6.10066652e-01f,
-4.76904273e-01f,-8.07384014e-01f,-5.71132481e-01f,-7.05367088e-01f,-1.07366848e+00f,
-3.79392654e-01f,-8.70268762e-01f,-3.02541584e-01f,-6.99730933e-01f,-3.14230651e-01f,
-3.10608149e-01f,-4.81405944e-01f,-8.76174092e-01f,-5.04108548e-01f,-5.38330436e-01f,
-5.99506438e-01f,-1.84924215e-01f,-2.39001647e-01f,-3.05410415e-01f,-6.56986654e-01f,
-3.02969038e-01f,-1.21615246e-01f,-1.84783533e-01f,-1.41094232e+00f,-1.08771133e+00f,
-3.07234049e-01f,-5.45322716e-01f,-4.08717483e-01f,-8.57223347e-02f,-4.74849463e-01f,
-5.69488645e-01f,-5.69715798e-01f,-1.20180058e+00f,-1.33543217e+00f,-1.16222906e+00f,
-6.65508926e-01f,-2.89768517e-01f,-9.18364406e-01f,-3.42660159e-01f,-1.06694353e+00f,
-8.14901948e-01f,-3.38232428e-01f,-3.15586179e-01f,-4.93018508e-01f,-5.36747038e-01f,
-6.48490250e-01f,-5.18781722e-01f,-5.23471296e-01f,-3.20212185e-01f,-7.80045092e-01f,
-1.00888693e+00f,-7.75148273e-01f,-9.18335438e-01f,-7.42686689e-01f,-1.21743488e+00f,
-7.59484768e-01f,-7.08404183e-01f,-6.92958236e-01f,-6.69455945e-01f,-1.17346442e+00f,
-6.88221097e-01f,-7.58872271e-01f,-7.52822757e-01f,-1.02775788e+00f,-1.16422117e+00f,
-7.57576108e-01f,-8.53478849e-01f,-7.63079643e-01f,-7.57708669e-01f,-8.71832073e-01f,
-8.42975155e-02f,+3.43662091e-02f,+1.81455929e-02f,-1.70719400e-01f,+9.26785469e-02f,
-6.24372303e-01f,-8.54448438e-01f,-4.28021252e-01f,-4.84888881e-01f,+9.82841551e-02f,
-4.05773163e-01f,-8.79826605e-01f,-9.03108537e-01f,-2.28206128e-01f,-6.12625301e-01f,
-5.09790003e-01f,-3.45225573e-01f,-2.48133130e-02f,-6.96838260e-01f,-6.07804358e-01f,
-5.74824214e-01f,-6.77932262e-01f,-5.60280204e-01f,-4.72268879e-01f,-4.50571001e-01f,
-5.55200934e-01f,-1.10655141e+00f,-4.06009704e-01f,-8.01164508e-01f,-4.59379047e-01f,
-4.31302190e-01f,-9.61672485e-01f,-1.00454438e+00f,-7.58907318e-01f,-6.83851421e-01f,
-5.80633998e-01f,-6.85192525e-01f,-6.51774585e-01f,-7.18511283e-01f,-1.31892312e+00f,
-5.19645095e-01f,-6.38280213e-01f,-3.62759054e-01f,-1.08277106e+00f,-3.44318002e-01f,
-1.06968236e+00f,-4.74428087e-02f,-2.94250906e-01f,+2.13390008e-01f,-3.88926506e-01f,
-6.77484795e-02f,-5.72103083e-01f,-3.65592599e-01f,-8.88037384e-01f,-7.12357163e-01f,
-1.14075768e+00f,-8.29785168e-01f,-5.08623242e-01f,-6.92103028e-01f,-2.41353720e-01f,
-3.32086235e-01f,-7.34975636e-01f,-1.75375938e-01f,-9.59433079e-01f,-6.76176667e-01f,
-7.88283825e-01f,-1.03462863e+00f,-4.33004022e-01f,-4.05580878e-01f,-7.84333527e-01f,
-4.68827218e-01f,-6.57658994e-01f,-6.56409919e-01f,-3.92019808e-01f,-1.38876960e-01f,
-1.00764644e+00f,-7.62205303e-01f,-8.59626889e-01f,-1.12289298e+00f,-6.30901635e-01f,
-1.10975809e-01f,+2.45342962e-02f,-7.50337988e-02f,-5.07264197e-01f,-3.78808141e-01f,
+2.03428969e-01f,-1.00531258e-01f,-4.27730709e-01f,-6.29831076e-01f,-4.24894035e-01f,
-3.43935221e-01f,+3.70867103e-01f,+2.90267974e-01f,-4.46675926e-01f,+1.97297670e-02f,
-8.28149736e-01f,-6.11331284e-01f,-2.81907111e-01f,-9.61002171e-01f,+2.80810773e-01f,
-6.34621143e-01f,-2.80004591e-02f,-1.41614797e-02f,-6.88382089e-01f,-6.69219792e-01f,
+4.18749712e-02f,-5.61607122e-01f,-8.10079515e-01f,-3.17755312e-01f,-8.89317572e-01f,
-6.77931845e-01f,-4.40734506e-01f,-4.68781263e-01f,-5.67271769e-01f,-6.51140869e-01f,
+1.23149659e-02f,-6.84991181e-01f,-5.07668518e-02f,-6.81940258e-01f,+1.06749102e-01f,
-2.16304645e-01f,-2.57764369e-01f,-6.51301682e-01f,-2.13923931e-01f,-3.86127770e-01f,
-2.67095000e-01f,-1.08024907e+00f,-5.50089598e-01f,-5.96190214e-01f,-9.23503995e-01f,
-9.07768726e-01f,-9.73671436e-01f,-9.28516448e-01f,-2.25012317e-01f,-2.09807619e-01f,
-2.80230165e-01f,-2.35119924e-01f,-2.91188538e-01f,-9.56306398e-01f,-2.61892080e-01f,
-6.80512726e-01f,-5.71778655e-01f,-1.08606958e+00f,-7.01027453e-01f,-1.04902995e+00f,
-5.17658055e-01f,-3.04926097e-01f,-5.31203985e-01f,-7.71880209e-01f,-6.46645904e-01f,
-5.90716004e-01f,-2.93547392e-01f,-3.24698091e-01f,-4.69270378e-01f,-1.23365521e+00f,
-4.83749390e-01f,-9.28427637e-01f,-5.47628164e-01f,-3.08933645e-01f,-5.31372011e-01f,
-1.40071559e+00f,-6.54750526e-01f,-9.15923595e-01f,-8.20107996e-01f,-6.46743715e-01f,
-6.64364219e-01f,-7.90337145e-01f,-1.01058018e+00f,-3.74758005e-01f,-1.03875792e+00f,
-4.75438565e-01f,-7.00113297e-01f,-7.78743505e-01f,-4.70402151e-01f,-8.18762302e-01f,
-7.07766950e-01f,-4.50140983e-01f,-6.01135671e-01f,-6.63243175e-01f,-5.03842890e-01f,
-3.16449612e-01f,-7.29863405e-01f,-4.64318365e-01f,-5.09847254e-02f,-1.51408136e-01f,
-5.09988308e-01f,-1.34130752e+00f,-1.69327557e-01f,-7.82470182e-02f,-9.92659852e-02f,
+4.42004995e-03f,-9.38447475e-01f,+1.15409464e-01f,-2.79190511e-01f,-3.74132156e-01f,
+1.47201046e-01f,-1.75469384e-01f,-2.80202180e-01f,+1.38477847e-01f,-6.09991670e-01f,
-7.73398757e-01f,-3.40298742e-01f,-3.92695695e-01f,-8.34326684e-01f,-7.98769653e-01f,
-3.52723300e-01f,-7.96131730e-01f,-7.21992552e-01f,-3.43282610e-01f,-7.80054092e-01f,
-7.93434262e-01f,-7.29011059e-01f,-6.60837591e-01f,-6.87950552e-01f,-3.42429698e-01f,
-3.61556590e-01f,-5.98728955e-01f,-3.32414031e-01f,-7.74190724e-01f,-3.23599249e-01f,
-1.35708898e-01f,-6.85563730e-03f,-5.38024485e-01f,+6.83487952e-03f,-5.64446330e-01f,
-1.63651153e-01f,-1.15391743e+00f,-1.28558546e-01f,-2.71571785e-01f,-2.64625132e-01f,
-1.51064545e-01f,-8.90844762e-01f,-6.15585208e-01f,-8.71006787e-01f,+5.66811226e-02f,
-3.19086850e-01f,-6.04511023e-01f,-3.74528132e-02f,-8.39107931e-01f,+2.73100827e-02f,
-3.28686863e-01f,-3.57116729e-01f,-4.51345652e-01f,-4.09942091e-01f,-4.45217162e-01f,
-4.12866503e-01f,-1.44321465e+00f,-4.11643535e-01f,-3.91976565e-01f,-4.61578608e-01f,
-5.15532970e-01f,-1.57152784e+00f,-3.50651920e-01f,-3.02544922e-01f,-3.04135442e-01f,
-3.77241671e-01f,-3.06144238e-01f,-3.87870938e-01f,-3.52494150e-01f,-3.53364259e-01f,
-4.23790663e-01f,-4.63178098e-01f,-8.76135767e-01f,-4.59679812e-01f,-1.14695287e+00f,
-4.50252026e-01f,-4.04089719e-01f,-9.71138179e-01f,-9.16412532e-01f,-9.90837157e-01f,
-1.10498178e+00f,-3.93426478e-01f,-4.17299598e-01f,-4.33555692e-01f,-4.56262022e-01f,
-4.48351949e-01f,-4.32536036e-01f,-4.68894035e-01f,-3.89182419e-01f,-4.93272364e-01f,
-1.44945526e+00f,-2.10957602e-01f,-5.04208267e-01f,-6.86800361e-01f,-8.26802552e-01f,
-1.78964421e-01f,-3.61971021e-01f,-7.07251549e-01f,-6.05695844e-01f,-7.25426912e-01f,
-6.29452705e-01f,-3.72666478e-01f,-1.50888026e-01f,-1.14182301e-01f,-6.48238897e-01f,
-2.20654547e-01f,-9.55267847e-02f,-1.51921749e-01f,-3.90857667e-01f,-2.15250567e-01f,
-5.35660744e-01f,-1.19891727e+00f,-7.37068117e-01f,-6.48390710e-01f,-5.64374864e-01f,
-8.29147696e-01f,-8.04105163e-01f,-5.96484184e-01f,-7.25455105e-01f,-6.19631231e-01f,
-6.34045184e-01f,-6.15266144e-01f,-7.09329188e-01f,-7.54819989e-01f,-9.34489310e-01f,
-7.26548016e-01f,-8.49042833e-01f,-7.71579564e-01f,-6.78182662e-01f,-1.43164361e+00f,
-4.50014621e-01f,-4.79073644e-01f,-5.44006765e-01f,-4.72593307e-01f,-6.26680851e-01f,
-5.76252937e-01f,-1.05335653e+00f,-4.80811477e-01f,-4.34843063e-01f,-9.21915233e-01f,
-3.45190972e-01f,-9.57409978e-01f,-8.74629319e-01f,-1.33975124e+00f,-9.21763301e-01f,
-5.22758901e-01f,-8.80582154e-01f,-4.64729309e-01f,-1.19480884e+00f,-4.75297987e-01f,
-2.78889447e-01f,-5.10167539e-01f,-2.68750548e-01f,-3.32764864e-01f,-2.25415945e-01f,
-4.92116451e-01f,-1.07815909e+00f,-7.20802188e-01f,-4.69737142e-01f,-2.30597734e-01f,
-1.05711794e+00f,-5.75318515e-01f,-4.56642866e-01f,-3.36344332e-01f,-7.12157547e-01f,
-6.07956648e-01f,-2.99819589e-01f,-4.12138730e-01f,-4.61913437e-01f,-4.81607258e-01f,
-8.09252679e-01f,-6.63684368e-01f,-1.03149486e+00f,-7.70329356e-01f,-1.11344159e+00f,
-7.52250969e-01f,-5.98291874e-01f,-9.36093628e-01f,-9.20251548e-01f,-7.89676726e-01f,
-9.73330081e-01f,-6.42626166e-01f,-7.03415811e-01f,-5.75075388e-01f,-1.11329830e+00f,
-8.71806502e-01f,-6.15411043e-01f,-6.01392150e-01f,-7.97700763e-01f,-5.73579609e-01f,
-8.64205897e-01f,-7.15815961e-01f,-6.31960452e-01f,-7.22906828e-01f,-1.02409792e+00f,
-1.12410831e+00f,-5.73143959e-01f,-5.94862461e-01f,-6.05644405e-01f,-1.23089528e+00f,
-5.86733401e-01f,-6.64627194e-01f,-6.06642842e-01f,-7.83415258e-01f,-7.92036712e-01f,
-1.07742321e+00f,-8.89022648e-01f,-7.44651973e-01f,-7.58669376e-01f,-3.83682728e-01f,
-5.17646313e-01f,-5.67770064e-01f,-6.75396800e-01f,-2.34786034e-01f,+2.09503900e-02f,
-1.95394129e-01f,-1.10638142e+00f,-7.05271125e-01f,-1.43508399e-02f,+2.35170548e-04f,
-7.33837426e-01f,-4.51343387e-01f,-9.19840872e-01f,-7.12254107e-01f,-2.93293864e-01f,
-6.92489982e-01f,-7.30615616e-01f,-5.22977710e-01f,-8.99970293e-01f,-9.35295463e-01f,
-2.02515662e-01f,-5.61475337e-01f,-7.13356793e-01f,-6.66159153e-01f,-5.63862383e-01f,
-8.84865582e-01f,-2.68645644e-01f,-4.63266492e-01f,-2.40469515e-01f,-3.28746349e-01f,
-3.89525145e-01f,-1.18949163e+00f,-3.16382110e-01f,-3.41102451e-01f,-7.44799793e-01f,
-6.39024436e-01f,-3.30303788e-01f,-6.06669605e-01f,-1.09184468e+00f,-3.18734437e-01f,
-2.09300548e-01f,-7.15913296e-01f,-1.16410673e-01f,-8.81105721e-01f,-1.33486256e-01f,
-4.41138774e-01f,-2.49989510e-01f,-4.84401822e-01f,-2.51266181e-01f,-9.34468329e-01f,
-3.70219201e-01f,-9.51794326e-01f,-6.66129887e-02f,-1.85607508e-01f,-2.99928993e-01f,
-4.99388039e-01f,-2.22885877e-01f,-5.15634716e-01f,-7.88956344e-01f,-5.00819623e-01f,
-7.79844224e-01f,-4.23540890e-01f,-5.32926440e-01f,-1.11960018e+00f,-1.00932348e+00f,
-4.25848544e-01f,-5.30451894e-01f,-9.60545301e-01f,-5.40633559e-01f,-1.37174320e+00f,
-9.59586978e-01f,-5.81321418e-01f,-4.90629941e-01f,-4.11005944e-01f,-3.58479500e-01f,
-4.18273091e-01f,-3.84731084e-01f,-4.04482096e-01f,-5.32104671e-01f,-4.00130868e-01f,
-5.92850983e-01f,-5.05765617e-01f,-3.34830761e-01f,-4.42334682e-01f,-4.38877761e-01f,
-6.06097102e-01f,-1.27426732e+00f,-5.02985001e-01f,-4.22945350e-01f,-4.39388961e-01f,
-4.68014508e-01f,-2.31581286e-01f,-2.81170756e-01f,-4.30150747e-01f,-3.61773163e-01f,
-3.41628581e-01f,-4.29861426e-01f,-4.85608906e-01f,-2.00350475e+00f,-3.96286398e-01f,
-3.37346375e-01f,-1.39898434e-01f,+4.37811494e-01f,-2.24659428e-01f,-6.97899342e-01f,
-4.03836578e-01f,+3.97741705e-01f,-2.87405878e-01f,-4.41864997e-01f,+2.46329293e-01f,
-4.18970972e-01f,-2.77054459e-01f,-6.46607459e-01f,-4.70634222e-01f,+2.34404821e-02f,
-9.99189496e-01f,-4.39215094e-01f,-3.54655355e-01f,-5.14562666e-01f,+7.78412521e-02f,
-3.79704803e-01f,-3.19048136e-01f,-3.88152033e-01f,-4.57030773e-01f,-1.73838213e-01f,
-4.62446272e-01f,-9.32638586e-01f,-1.95133194e-01f,-1.86924934e-01f,-2.73584098e-01f,
-7.50503719e-01f,+3.96791697e-01f,+2.87109226e-01f,-1.55036435e-01f,+3.65711182e-01f,
-6.14451885e-01f,-8.84364665e-01f,-6.44072711e-01f,+3.41310769e-01f,+1.79144919e-01f,
-4.43037122e-01f,-6.56177759e-01f,-5.43766499e-01f,-4.45253313e-01f,-5.39960623e-01f,
-6.62515402e-01f,-1.21756363e+00f,-9.02395785e-01f,-3.59032512e-01f,-1.04350555e+00f,
-6.82326913e-01f,-8.08260083e-01f,-8.23534966e-01f,-5.00831664e-01f,-7.51388073e-01f,
-6.23417020e-01f,-4.91465896e-01f,-7.49238014e-01f,-1.08270144e+00f,-1.01284075e+00f,
-5.80175966e-02f,-4.46360588e-01f,-1.64409857e-02f,-3.54910731e-01f,+7.44382814e-02f,
-4.71755028e-01f,-5.00529945e-01f,-5.60446918e-01f,-4.18541551e-01f,-1.40241049e-02f,
-7.66902506e-01f,-4.97926086e-01f,-2.85873383e-01f,-1.61523372e-01f,-5.80427110e-01f,
-5.31740487e-01f,-2.00186640e-01f,-3.30136776e-01f,-5.83734810e-01f,-9.59252775e-01f,
-9.21907783e-01f,-6.59704208e-01f,-8.09335470e-01f,-3.49293679e-01f,-6.05833232e-01f,
-5.08436441e-01f,-1.08924508e+00f,-5.39239287e-01f,-1.51305467e-01f,-2.50885844e-01f,
-5.66962123e-01f,-2.62627304e-01f,-6.55091584e-01f,-3.07778955e-01f,-5.90705693e-01f,
-8.62106681e-01f,-3.56021851e-01f,-6.04102969e-01f,-1.86496720e-01f,-4.68430161e-01f,
-5.39442241e-01f,-4.72870678e-01f,-1.12668514e-01f,-3.29863280e-01f,-8.88399065e-01f,
-6.95239484e-01f,-8.67699862e-01f,-1.12658301e-02f,-1.57371268e-01f,-1.04182589e+00f,
+1.87368602e-01f,+7.20596593e-03f,-2.48240754e-01f,-8.09759945e-02f,-7.77625963e-02f,
-9.76592958e-01f,-9.56079215e-02f,-5.87574661e-01f,-7.89233949e-03f,-2.55353838e-01f,
-5.90204418e-01f,-7.03030765e-01f,-4.81231809e-01f,-2.14333445e-01f,-4.67137873e-01f,
-2.17119530e-01f,-1.16196238e-01f,-7.52058476e-02f,-1.36195019e-01f,-4.40707535e-01f,
-7.37337768e-02f,-2.68759578e-01f,-4.61872697e-01f,-4.40193951e-01f,-6.86005950e-01f,
-1.24019779e-01f,-5.15126407e-01f,-6.69736862e-01f,-4.17656422e-01f,-6.18747234e-01f,
-2.72192240e-01f,-1.49651080e-01f,+1.64460589e-03f,-5.02819300e-01f,-2.33283401e-01f,
-2.36577004e-01f,-5.65433621e-01f,-5.21697044e-01f,-6.75214827e-01f,-4.52241451e-01f,
-4.17608410e-01f,+6.46594092e-02f,+1.88710075e-02f,-3.34152907e-01f,+5.33146039e-02f,
-1.05766785e+00f,-6.76214695e-01f,-3.64105582e-01f,-6.86429143e-01f,+4.43812162e-02f,
-6.95494473e-01f,-1.93440005e-01f,-1.83362395e-01f,-1.22244942e+00f,-3.84287089e-01f,
-2.16476724e-01f,-6.55884981e-01f,-7.93624878e-01f,-3.39832813e-01f,-7.24846601e-01f,
-9.84700918e-01f,-2.89682567e-01f,-7.02429175e-01f,-3.38153452e-01f,-1.13820866e-01f,
-2.55350471e-01f,-2.54176974e-01f,-2.01615289e-01f,-3.62537473e-01f,-1.20466903e-01f,
-2.14269772e-01f,-1.14873797e-03f,+2.06188604e-01f,-6.26441166e-02f,-1.27680039e+00f,
-5.22240579e-01f,-5.11521637e-01f,-3.20955396e-01f,-1.63528360e-02f,-5.25631607e-01f,
-4.36777920e-02f,-2.89780259e-01f,-2.72820055e-01f,-3.25794339e-01f,-6.62100196e-01f,
-6.19489372e-01f,-5.57931900e-01f,-2.29819138e-02f,-6.46780193e-01f,+7.53152221e-02f,
+1.62890047e-01f,-8.71982515e-01f,+2.33938396e-01f,-2.11408868e-01f,+1.87514856e-01f,
-2.40656421e-01f,-3.51699829e-01f,-2.72535663e-02f,-4.14438844e-01f,-2.29313657e-01f,
-2.02340305e-01f,-3.26756954e-01f,-1.04411519e+00f,-2.68262774e-02f,+1.19519755e-01f,
+1.19287027e-02f,-6.50551200e-01f,-9.52517927e-01f,-4.53897119e-01f,-6.94907248e-01f,
-1.85025227e+00f,-9.49205041e-01f,-1.27451968e+00f,-1.15483415e+00f,-1.24877965e+00f,
-9.59661245e-01f,-1.58616233e+00f,-1.00915098e+00f,-9.03884470e-01f,-1.32669187e+00f,
-9.41952705e-01f,-1.23976219e+00f,-1.25875831e+00f,-1.17091119e+00f,-8.90730619e-01f,
-1.03571141e+00f,-1.03265655e+00f,-9.62758660e-01f,-1.28334200e+00f,-1.02188885e+00f,
-7.65634254e-02f,-2.68277973e-01f,-6.64212629e-02f,-4.47780669e-01f,-2.15894841e-02f,
-2.06054538e-01f,-5.92108548e-01f,-5.74626625e-01f,-4.48510855e-01f,-1.64334983e-01f,
-8.27987850e-01f,-3.02048028e-01f,-6.44467115e-01f,-5.11294901e-01f,+1.22833103e-02f,
-1.19889140e+00f,-5.50002694e-01f,-5.54108560e-01f,-8.34624827e-01f,-1.30763622e-02f,
-1.06326818e+00f,-5.84076762e-01f,-6.19804204e-01f,-6.88664973e-01f,-7.82662451e-01f,
-5.53996563e-01f,-1.44477284e+00f,-7.87142098e-01f,-5.47109067e-01f,-5.69220424e-01f,
-7.72372723e-01f,-4.76018965e-01f,-4.64585841e-01f,-5.47469199e-01f,-7.41125286e-01f,
-7.69528985e-01f,-5.16012609e-01f,-5.37477553e-01f,-1.67694402e+00f,-7.37536430e-01f,
-3.48183721e-01f,-3.67704719e-01f,-5.03709853e-01f,-3.34019661e-01f,-4.53087091e-01f,
-6.72259510e-01f,-1.10139418e+00f,-2.93869734e-01f,-3.66480261e-01f,-4.24022228e-01f,
-3.67822468e-01f,-1.38790894e+00f,-3.92354637e-01f,-2.97579288e-01f,-5.48467338e-01f,
-3.28530788e-01f,-2.52509385e-01f,-5.87972045e-01f,-2.26226971e-01f,-5.30341566e-01f,
-1.04195423e-01f,+9.94570479e-02f,+3.50881070e-01f,-4.68059719e-01f,+1.88376550e-02f,
+7.08276685e-03f,-4.07099485e-01f,-4.07130688e-01f,-2.52716154e-01f,-2.80786902e-01f,
-2.63132185e-01f,-6.67832792e-02f,-5.35923004e-01f,-3.73307347e-01f,+3.51966679e-01f,
-1.44770586e+00f,-4.68167424e-01f,-4.23779070e-01f,-4.09149647e-01f,+3.13369721e-01f,
-5.36137402e-01f,-7.38959670e-01f,-9.08390880e-01f,-5.17082930e-01f,-5.91756880e-01f,
-6.25578463e-01f,-4.66915458e-01f,-9.68735933e-01f,-4.19149220e-01f,-5.50712883e-01f,
-4.27559227e-01f,-7.23758876e-01f,-4.54069614e-01f,-6.57048285e-01f,-1.03040576e+00f,
-5.56975305e-01f,-6.96771264e-01f,-7.36745715e-01f,-5.73497772e-01f,-9.99627292e-01f,
-5.67493618e-01f,-5.10841072e-01f,-3.68970275e-01f,-5.96946657e-01f,-3.57002318e-01f,
-5.36420584e-01f,-1.68827534e+00f,-3.00986111e-01f,-6.59819424e-01f,-3.95438910e-01f,
-6.79097354e-01f,-1.11429644e+00f,-1.22378850e+00f,-6.24492407e-01f,-3.95491153e-01f,
-5.30774891e-01f,-8.01071703e-01f,-5.83565295e-01f,-9.70978737e-01f,-4.62635785e-01f,
-7.08773792e-01f,-4.20119315e-01f,-8.14510465e-01f,-1.05248952e+00f,-1.11497331e+00f,
-4.78763819e-01f,-3.69915307e-01f,-1.11522031e+00f,-7.24213600e-01f,-1.27422893e+00f,
-1.04956019e+00f,-3.85362506e-01f,-3.27393115e-01f,-5.07448971e-01f,-9.10627902e-01f,
-4.48502272e-01f,-5.42305648e-01f,-3.93548310e-01f,-3.76053333e-01f,-3.88504118e-01f,
-3.09770793e-01f,-3.53720874e-01f,-9.22251701e-01f,-6.16352081e-01f,-4.66767222e-01f,
-7.01279402e-01f,-1.98119342e-01f,-4.81832922e-01f,-3.58806461e-01f,-6.83129430e-01f,
-4.56505954e-01f,-7.39186764e-01f,-8.68963838e-01f,-1.18485737e+00f,-1.63628447e+00f,
-4.02808696e-01f,-1.29481363e+00f,-3.41830522e-01f,-5.42923748e-01f,-3.37370664e-01f,
-2.66843945e-01f,-9.00259018e-01f,-2.78354853e-01f,-3.20713729e-01f,-1.54529542e-01f,
-3.52420717e-01f,-8.82428050e-01f,-5.12745976e-01f,-4.91029650e-01f,-1.76216468e-01f,
-2.63441980e-01f,-5.12877405e-01f,-3.98560077e-01f,-2.69630373e-01f,-6.16208553e-01f,
-2.51089483e-01f,-3.64206493e-01f,-8.34427953e-01f,-6.39793515e-01f,-8.04969370e-01f,
-3.79488021e-01f,-9.99624729e-02f,-2.63460368e-01f,-7.36585081e-01f,-1.13451719e+00f,
-1.84430405e-01f,-4.18857425e-01f,-5.30571640e-01f,-5.75329423e-01f,-6.80936575e-01f,
-7.10424662e-01f,-4.35797095e-01f,-4.62284476e-01f,-5.71401238e-01f,-7.19280005e-01f,
-1.75954908e-01f,-7.14361131e-01f,-1.16371207e-01f,-6.10826612e-01f,-6.26318678e-02f,
-5.53155720e-01f,-5.56936264e-01f,-8.46718013e-01f,-5.84213018e-01f,-6.85939133e-01f,
-7.70786166e-01f,-5.41480184e-01f,-5.54397345e-01f,-5.03596604e-01f,-7.68619180e-01f,
-5.65701842e-01f,-1.68112195e+00f,-7.60456502e-01f,-5.19430399e-01f,-7.64023125e-01f,
-6.78091347e-01f,-5.07776797e-01f,-6.17112815e-01f,-6.23267174e-01f,-5.58213115e-01f,
-2.49506190e-01f,-3.25514585e-01f,-7.41871774e-01f,-2.70288020e-01f,-6.71385527e-01f,
-2.97112435e-01f,-1.30066371e+00f,-2.34741792e-01f,-6.63342595e-01f,-9.84809399e-01f,
-6.53592408e-01f,-1.06502366e+00f,-7.59291112e-01f,-2.55047202e-01f,-2.72975445e-01f,
-3.08113217e-01f,-2.57348299e-01f,-3.61023962e-01f,-8.65820289e-01f,-4.01288331e-01f,
-7.03535676e-01f,-2.49269783e-01f,-1.78813726e-01f,-5.95295489e-01f,-1.11877441e+00f,
-7.77229428e-01f,-1.56282127e-01f,-3.25340718e-01f,-6.00116789e-01f,-3.18564445e-01f,
-6.54231548e-01f,+1.60110965e-02f,-4.15474355e-01f,-1.80718035e-01f,-1.01612784e-01f,
-9.22268271e-01f,-1.87703952e-01f,-3.33967358e-01f,-5.32344505e-02f,-1.73898950e-01f,
-7.99040437e-01f,-4.40458804e-01f,-8.64769042e-01f,-4.69992042e-01f,-5.08459687e-01f,
-4.19089526e-01f,-7.56274700e-01f,-1.06678896e-01f,-3.08922064e-02f,-9.15727317e-01f,
-1.60279259e-01f,-3.53818119e-01f,-9.21500266e-01f,-9.43368897e-02f,-5.13205767e-01f,
-4.52767700e-01f,-6.80830404e-02f,-3.96477789e-01f,-2.67807961e-01f,-9.47624147e-01f,
-4.48601454e-01f,-4.35792059e-01f,-9.83912170e-01f,-8.79695475e-01f,-3.36809009e-01f,
-4.86022979e-01f,-2.63059199e-01f,-7.24830568e-01f,-6.20134234e-01f,-1.49366856e+00f,
-8.12912226e-01f,-2.92812139e-01f,-2.78953582e-01f,-3.96291137e-01f,-3.87430906e-01f,
-5.02056599e-01f,-3.80602896e-01f,-4.69105840e-01f,-2.60985136e-01f,-4.63954419e-01f,
-3.74305308e-01f,-2.33854145e-01f,-1.59544554e-02f,-4.72873658e-01f,-9.38868225e-02f,
-4.83772367e-01f,-9.61696804e-01f,-4.15083140e-01f,-4.35851306e-01f,-7.82904983e-01f,
-3.19661021e-01f,-1.73884198e-01f,-9.24173221e-02f,-3.04568946e-01f,-1.92017317e-01f,
-9.12618041e-01f,-7.39650249e-01f,-3.17747861e-01f,-2.20968023e-01f,-1.41724665e-02f,
-5.16481400e-01f,-5.73969841e-01f,-5.53097010e-01f,-5.37938178e-01f,-5.67086220e-01f,
-5.47951698e-01f,-5.07641435e-01f,-4.98421401e-01f,-1.07190990e+00f,-5.22353292e-01f,
-1.23712981e+00f,-5.11313558e-01f,-5.05172491e-01f,-5.22037268e-01f,-5.70004523e-01f,
-5.51302195e-01f,-5.26763022e-01f,-5.64615726e-01f,-5.09035051e-01f,-6.60264552e-01f,
-7.17773885e-02f,-8.29654098e-01f,+1.19055301e-01f,-2.79980242e-01f,+5.83786406e-02f,
-1.61994651e-01f,-7.85876334e-01f,-1.76735163e-01f,-1.02411127e+00f,+4.85695340e-02f,
-3.07040989e-01f,-3.82698029e-01f,-3.99804115e-01f,-4.89588715e-02f,+1.10528626e-01f,
-7.36829042e-02f,-5.43429136e-01f,-6.34392500e-01f,-2.82986820e-01f,-7.88586318e-01f,
-1.35414585e-01f,-5.75423717e-01f,-4.06661272e-01f,-1.94099098e-01f,-1.16786495e-01f,
-2.57324964e-01f,-5.74134231e-01f,-7.81026185e-02f,-3.56934309e-01f,-2.89290309e-01f,
-1.94585264e-01f,-1.06219757e+00f,-1.03023612e+00f,-3.00613612e-01f,-5.32294512e-01f,
-2.39889711e-01f,-3.52888286e-01f,-3.76752108e-01f,-9.93652940e-01f,-1.69156814e+00f,
-5.77165842e-01f,-1.95526242e-01f,-3.66464436e-01f,-6.82386160e-01f,-1.01659310e+00f,
-2.47221351e-01f,-4.58096832e-01f,-6.06952488e-01f,-3.89731258e-01f,-5.87362349e-01f,
-7.62145281e-01f,-9.30614591e-01f,-5.24936736e-01f,-6.14168942e-01f,-3.50703239e-01f,
-2.46335775e-01f,-5.89352310e-01f,-1.81783721e-01f,-7.45771229e-01f,-1.68772340e-01f,
-2.79893696e-01f,-6.24065101e-01f,-2.09076315e-01f,-6.37692750e-01f,-1.76333115e-01f,
-5.18178821e-01f,-4.72096562e-01f,-6.30944133e-01f,-1.40635043e-01f,-2.47340053e-01f,
-6.08373046e-01f,-5.66196501e-01f,-2.35043198e-01f,-3.75389576e-01f,-7.91256964e-01f,
-2.91004300e-01f,-3.91551018e-01f,-5.35897076e-01f,-4.21412528e-01f,-2.22512424e-01f,
-2.07345873e-01f,-8.28811601e-02f,-4.17240649e-01f,-3.49037021e-01f,-1.92135066e-01f,
-3.47042173e-01f,-4.00087148e-01f,-3.97282869e-01f,-1.29436898e+00f,-1.98043823e-01f,
-5.43750405e-01f,-2.92439878e-01f,-4.45370615e-01f,-5.13674378e-01f,-6.02384210e-01f,
-4.84511644e-01f,-7.41557300e-01f,-4.79903165e-03f,-5.95100343e-01f,-4.33867872e-01f,
-5.51781952e-01f,-4.54893559e-01f,-1.09661281e+00f,-6.35777771e-01f,-9.14275348e-01f,
-5.98100245e-01f,-7.21483529e-01f,-7.36376762e-01f,-5.90843797e-01f,-5.75572193e-01f,
-6.21772289e-01f,-8.66794407e-01f,-6.56296313e-01f,-8.80666077e-01f,-1.07431006e+00f,
-4.81133372e-01f,-5.32669067e-01f,-4.46963012e-01f,-8.38094175e-01f,-4.58940685e-01f,
+1.29621968e-01f,-9.27853763e-01f,-2.24581152e-01f,-2.08717316e-01f,+4.47351746e-02f,
-6.35051906e-01f,-7.22061217e-01f,-2.01301470e-01f,+1.00033551e-01f,-2.78776139e-01f,
-1.33887768e-01f,-2.78673768e-02f,+2.06473693e-01f,-1.33692652e-01f,-3.99874568e-01f,
+1.96423039e-01f,-1.65540650e-01f,-7.80631125e-01f,-2.74062306e-01f,-2.03167275e-01f,
-6.70418978e-01f,-2.76002437e-01f,-5.38281441e-01f,-8.14016342e-01f,-1.20838642e+00f,
-4.47449267e-01f,-1.23721980e-01f,-9.61272895e-01f,-4.09726620e-01f,-1.03505576e+00f,
-8.29473019e-01f,-1.20090991e-01f,-1.59140065e-01f,-2.67932951e-01f,-5.34545362e-01f,
-6.26911879e-01f,-3.21118951e-01f,-2.47914001e-01f,-1.34146184e-01f,-3.69356334e-01f,
-7.29606271e-01f,-5.13639033e-01f,-5.12818694e-01f,-2.59148180e-01f,-3.29484910e-01f,
-4.75380309e-02f,-1.67814389e-01f,+3.11360881e-02f,-1.16344482e-01f,-2.33437493e-01f,
-6.82462081e-02f,-3.64256687e-02f,-1.00575447e+00f,-5.25579035e-01f,-7.06182897e-01f,
-8.12213868e-02f,-2.32487231e-01f,-5.16899824e-01f,-1.00530153e-02f,-6.57681048e-01f,
-2.95550883e-01f,-6.64467275e-01f,-3.39413494e-01f,-6.90926671e-01f,-3.07244360e-01f,
-4.37936932e-01f,-2.50375360e-01f,-2.04844519e-01f,-5.28614402e-01f,-3.38941365e-01f,
-1.11773121e+00f,-9.65217173e-01f,-5.90727627e-01f,-2.84428090e-01f,-5.65761447e-01f,
-3.82613331e-01f,-2.69217551e-01f,-5.62075019e-01f,-8.24759007e-01f,-6.83597565e-01f,
-1.90243706e-01f,-5.35411239e-01f,-2.07701087e-01f,-2.35711947e-01f,-1.62899151e-01f,
-2.91048020e-01f,-2.40324855e-01f,-7.94432938e-01f,-4.99877304e-01f,-1.59371406e-01f,
-8.60799968e-01f,-7.63287425e-01f,-2.32395887e-01f,-2.68286854e-01f,-5.41254818e-01f,
-4.36957449e-01f,-2.50153124e-01f,-5.99496543e-01f,-1.13764465e+00f,-7.02343524e-01f,
-8.88232052e-01f,-9.03790176e-01f,-6.90038860e-01f,-1.02291119e+00f,-1.46122849e+00f,
-9.76983666e-01f,-6.83244765e-01f,-9.91190493e-01f,-9.41031814e-01f,-5.58448136e-01f,
-9.59727883e-01f,-6.97328746e-01f,-8.02862883e-01f,-8.22111964e-01f,-8.34663033e-01f,
-9.76472735e-01f,-7.73173869e-01f,-9.32358921e-01f,-6.97777689e-01f,-7.65262902e-01f,
-3.97150964e-01f,-4.76999551e-01f,-4.61447477e-01f,-7.86812067e-01f,-8.78206730e-01f,
-4.88084286e-01f,-5.76463163e-01f,-4.64609802e-01f,-4.13680911e-01f,-1.10264981e+00f,
-4.04785573e-01f,-1.46871567e+00f,-4.20750797e-01f,-3.68075699e-01f,-3.86649668e-01f,
-5.37894547e-01f,-3.80200058e-01f,-5.35458505e-01f,-1.29529893e+00f,-4.27475035e-01f,
-1.20329723e-01f,-3.13558489e-01f,-7.68364370e-01f,-6.68678060e-02f,-7.47144461e-01f,
-1.84870183e-01f,-3.92233580e-02f,-4.50838834e-01f,-4.34224308e-01f,-1.07420564e-01f,
-3.33535314e-01f,+9.20976251e-02f,-7.39010155e-01f,-3.15914989e-01f,-5.46438813e-01f,
-4.47824359e-01f,-1.53566420e-01f,-3.60582530e-01f,-8.86699796e-01f,-2.73252696e-01f,
-1.94258630e-01f,-4.19800907e-01f,-8.81241441e-01f,-1.21760882e-01f,-2.36131296e-01f,
-5.23783207e-01f,+1.86636344e-01f,-4.51089740e-01f,-4.07331854e-01f,-2.32109904e-01f,
-3.74440074e-01f,+2.09661603e-01f,+3.55297513e-02f,-7.84469068e-01f,-5.01494944e-01f,
-6.23972297e-01f,-6.97573721e-01f,-5.00833988e-01f,+1.99532405e-01f,+3.41702811e-02f,
-2.37853959e-01f,-6.26739919e-01f,-1.04493368e+00f,-2.52564490e-01f,-8.48624945e-01f,
-4.88555253e-01f,-7.02950597e-01f,-8.03630173e-01f,-3.60763222e-01f,-2.43439347e-01f,
-4.45584983e-01f,-6.89872622e-01f,-4.42638010e-01f,-3.50590646e-01f,-6.72065794e-01f,
-6.90503418e-01f,-3.05430084e-01f,-5.80904543e-01f,-8.70065451e-01f,-8.76062989e-01f,
-3.35497499e-01f,-3.89891356e-01f,-1.17240715e+00f,-1.09268773e+00f,-5.00740051e-01f,
-3.40182900e-01f,-1.50144741e-01f,-7.78152347e-01f,-4.30249751e-01f,-5.08423507e-01f,
-1.00523961e+00f,-1.76916078e-01f,-2.01678872e-01f,-2.77261943e-01f,-2.75136530e-01f,
-3.15472394e-01f,-2.69001633e-01f,-3.38168234e-01f,-1.61103532e-01f,-2.85179794e-01f,
-1.15209067e+00f,-3.48863453e-01f,-3.38166386e-01f,-7.87885666e-01f,-3.48077118e-01f,
-3.31747681e-01f,-5.20451367e-01f,-6.59175634e-01f,-6.40985429e-01f,-6.92391694e-01f,
-6.06954217e-01f,-5.18227637e-01f,-7.50463188e-01f,-3.01402420e-01f,-2.25233153e-01f,
-3.47152799e-01f,-3.05144221e-01f,-3.19282442e-01f,-4.36513066e-01f,-3.62217784e-01f,
-4.75258648e-01f,-4.73102648e-03f,-6.54988065e-02f,-9.38083410e-01f,-1.40040600e+00f,
-4.65803929e-02f,-4.68998700e-01f,-1.24776915e-01f,-2.63618290e-01f,-8.57697368e-01f,
-9.45501983e-01f,-6.77774549e-01f,-4.94616807e-01f,-9.29526746e-01f,-1.11516550e-01f,
-5.32762446e-02f,-6.81730509e-01f,+9.76237643e-04f,-6.74152374e-01f,+2.81401607e-03f,
-6.44541562e-01f,-7.41612196e-01f,-5.28353810e-01f,-8.66482973e-01f,-5.39331138e-01f,
-6.47509456e-01f,-1.17700076e+00f,-7.78753579e-01f,-9.09545898e-01f,-7.92486727e-01f,
-6.80877090e-01f,-8.84044826e-01f,-6.30700469e-01f,-9.07143354e-01f,-4.90949661e-01f,
-1.13399887e+00f,-1.04817677e+00f,-8.37188184e-01f,-8.88337851e-01f,-1.05242813e+00f,
-8.29404175e-01f,-7.64000297e-01f,-1.27572453e+00f,-8.27553988e-01f,-9.11415398e-01f,
-7.88192928e-01f,-1.09359133e+00f,-8.73178720e-01f,-6.74283683e-01f,-1.40123141e+00f,
-6.88274920e-01f,-1.20400262e+00f,-9.52960610e-01f,-1.15072227e+00f,-1.30378675e+00f,
-7.61572599e-01f,-1.17580688e+00f,-7.41608024e-01f,-9.69265044e-01f,-7.77375996e-01f,
-2.32141986e-01f,-2.48621419e-01f,-9.25281703e-01f,-5.32123029e-01f,-6.35604620e-01f,
-8.22070777e-01f,-5.75930536e-01f,-3.37974578e-01f,-2.77014732e-01f,-3.91610295e-01f,
-3.99268121e-01f,-8.90404582e-01f,-2.46339381e-01f,-8.94632220e-01f,-9.23335552e-01f,
-3.52064073e-01f,-7.91774988e-01f,-2.29139060e-01f,-1.08430505e+00f,-2.35166803e-01f,
-3.80383372e-01f,-5.50036132e-01f,-1.07722676e+00f,-6.01311982e-01f,-6.51986182e-01f,
-7.01730371e-01f,-2.66865790e-01f,-4.72113311e-01f,-4.10754651e-01f,-6.17795706e-01f,
-5.66313505e-01f,-8.91115010e-01f,-7.65350223e-01f,-1.02125382e+00f,-1.55170512e+00f,
-4.75303352e-01f,-8.39385986e-01f,-4.72522914e-01f,-6.95123851e-01f,-4.71539825e-01f,
-5.02130151e-01f,-4.73129302e-01f,-5.26568532e-01f,-9.52011049e-01f,-5.39072871e-01f,
-4.42388058e-01f,-3.46828610e-01f,-1.35891366e+00f,-3.32282037e-01f,-1.01379597e+00f,
-8.87874484e-01f,-3.86261165e-01f,-3.78695786e-01f,-4.27506387e-01f,-4.40085202e-01f,
-4.41673070e-01f,-4.26096797e-01f,-4.48633820e-01f,-3.51072699e-01f,-5.05845785e-01f,
-2.51984566e-01f,-8.31067681e-01f,-1.52068347e-01f,-3.93239796e-01f,-1.23696752e-01f,
-4.33388919e-01f,-5.82976460e-01f,-2.06024528e-01f,-7.36900747e-01f,-1.83143824e-01f,
-3.56912047e-01f,-6.51481807e-01f,-9.32199955e-01f,-3.69289517e-01f,-2.35696390e-01f,
-3.72750908e-01f,-9.89167511e-01f,-7.15123177e-01f,-4.18509066e-01f,-9.73008633e-01f,
-2.03314126e-01f,-7.12169468e-01f,-1.31223977e-01f,-4.62446630e-01f,-2.97096819e-01f,
-5.33087194e-01f,-1.80244386e-01f,-6.56587541e-01f,-5.09542346e-01f,-3.62929165e-01f,
-3.10880125e-01f,-4.30958807e-01f,-6.34103537e-01f,-1.09089091e-01f,-1.01989163e-02f,
-3.53654474e-02f,-3.13964546e-01f,-9.03483570e-01f,-3.13199013e-01f,-5.68482518e-01f,
-5.16437352e-01f,-5.53597093e-01f,-9.57582235e-01f,-6.16258621e-01f,-1.26399589e+00f,
-6.82179749e-01f,-6.84833407e-01f,-5.49937963e-01f,-6.85274124e-01f,-6.07017100e-01f,
-6.42379045e-01f,-6.05027854e-01f,-6.42693400e-01f,-1.08965170e+00f,-1.17869091e+00f,
-6.28238618e-01f,-9.36762273e-01f,-5.50005615e-01f,-7.56876290e-01f,-5.29174209e-01f,
-1.59854889e+00f,-7.67943621e-01f,-8.13887477e-01f,-7.36047983e-01f,-6.22895777e-01f,
-6.35694146e-01f,-1.29583991e+00f,-8.11319113e-01f,-5.78893840e-01f,-1.01396263e+00f,
-6.15941167e-01f,-1.18519723e+00f,-1.05029261e+00f,-8.24833632e-01f,-8.53012979e-01f,
-6.76539063e-01f,-7.35892475e-01f,-7.17617691e-01f,-1.06638956e+00f,-9.79495823e-01f,
-5.40600419e-01f,-3.56736332e-01f,-4.94220436e-01f,-7.64116943e-01f,-1.02713275e+00f,
-6.06349230e-01f,-1.48956347e+00f,-8.58544946e-01f,-4.62409735e-01f,-8.47907007e-01f,
-6.98939443e-01f,-5.11643410e-01f,-3.74211252e-01f,-3.42747599e-01f,-2.70785570e-01f,
-6.85106754e-01f,-4.06192333e-01f,-3.91083777e-01f,-3.51801723e-01f,-3.38246405e-01f,
-6.55067444e-01f,-3.61454070e-01f,-4.94890094e-01f,-1.19756913e+00f,-1.26642156e+00f,
-4.92336780e-01f,-4.23807621e-01f,-1.12818086e+00f,-5.00836372e-01f,-9.13970053e-01f,
-9.24508333e-01f,-6.14359558e-01f,-5.19865930e-01f,-7.85380721e-01f,-5.50025821e-01f,
-4.51744199e-01f,-7.50902295e-01f,-3.55875164e-01f,-9.07391310e-01f,-2.33770698e-01f,
-4.01565582e-01f,-6.48732662e-01f,-9.72462356e-01f,-6.64348423e-01f,-3.16409439e-01f,
-1.30892038e+00f,-3.43676746e-01f,-4.87045825e-01f,-4.70483005e-01f,-4.16833073e-01f,
-4.61478591e-01f,-3.91253293e-01f,-4.03812796e-01f,-1.28010345e+00f,-5.33057868e-01f,
-1.04551983e+00f,-8.14862490e-01f,-6.87925339e-01f,-3.87742370e-01f,-5.51676452e-01f,
-5.37719190e-01f,-6.41288087e-02f,-7.57807791e-01f,-5.51645160e-01f,-4.90798861e-01f,
-5.98766148e-01f,-8.85160804e-01f,-2.12070897e-01f,-2.88171191e-02f,-5.62206388e-01f,
-6.31950498e-01f,+1.51059374e-01f,-4.10331309e-01f,+1.42731562e-01f,+2.52812862e-01f,
-1.20272183e+00f,+1.04310192e-01f,-2.68058002e-01f,+6.13879822e-02f,+8.40319023e-02f,
-3.61813664e-01f,-2.77706623e-01f,-2.41632700e-01f,-3.75128180e-01f,-6.32328331e-01f,
-6.56361818e-01f,-4.06798273e-01f,-4.21931237e-01f,-3.52949858e-01f,-2.01812476e-01f,
-3.41262102e-01f,-2.90704072e-01f,-1.71146050e-01f,-6.56748593e-01f,-2.00139910e-01f,
-7.96545446e-01f,-6.96666241e-01f,-4.00560915e-01f,-1.96056485e+00f,-1.96458071e-01f,
-9.40401912e-01f,-6.50608897e-01f,-8.09688866e-01f,-6.22696817e-01f,-7.05709219e-01f,
-6.45045578e-01f,-8.83390784e-01f,-5.86969554e-01f,-1.48999453e+00f,-6.53265178e-01f,
-6.22179151e-01f,-7.27700830e-01f,-7.87937939e-01f,-6.69536412e-01f,-8.80542278e-01f,
-6.52997136e-01f,-6.54567778e-01f,-6.48908138e-01f,-8.59917581e-01f,-8.04870486e-01f,
-8.59544158e-01f,-5.32308556e-02f,-1.65200248e-01f,-8.43013108e-01f,-1.15719342e+00f,
-1.47777855e-01f,-8.85906518e-01f,-5.77887952e-01f,-4.95742291e-01f,-8.00589263e-01f,
-7.48107672e-01f,-7.84047723e-01f,-4.83170927e-01f,-6.19532168e-01f,-4.16707546e-01f,
-1.30888268e-01f,-5.94997585e-01f,-2.89310478e-02f,-6.38140380e-01f,-1.85612682e-02f,
-5.07820547e-01f,-1.48597360e-01f,+1.07525662e-01f,-5.68920553e-01f,-1.82493880e-01f,
-2.75267273e-01f,-1.10358906e+00f,-3.55491519e-01f,-5.45048892e-01f,-4.71878737e-01f,
-7.26411045e-01f,-8.76980573e-02f,-5.05408764e-01f,-2.87077218e-01f,+8.46858770e-02f,
-1.17302108e+00f,-5.21002769e-01f,-4.85331178e-01f,-2.08235860e-01f,+7.31267706e-02f,
-4.06237811e-01f,-4.43434089e-01f,-9.41912949e-01f,-4.56808239e-01f,-8.79969537e-01f,
-4.32290882e-01f,-3.38231713e-01f,-1.22232127e+00f,-1.05093431e+00f,-1.06144881e+00f,
-1.24906385e+00f,-3.62713754e-01f,-3.87684375e-01f,-4.10583645e-01f,-4.25646037e-01f,
-4.30008233e-01f,-4.07998502e-01f,-4.43689495e-01f,-3.53655994e-01f,-4.60044891e-01f,
-6.71159923e-01f,-1.18125454e-01f,-2.27749318e-01f,-3.83693665e-01f,-2.33887434e-01f,
-3.38104628e-02f,+1.88038811e-01f,+2.07086504e-02f,-1.49001643e-01f,-7.58642614e-01f,
-3.69612761e-02f,+1.44631505e-01f,+1.56943262e-01f,-7.53541768e-01f,-7.31326401e-01f,
-8.65121841e-01f,-1.90443099e-01f,-2.52950430e-01f,-6.08093441e-01f,-3.15910906e-01f,
-8.87982249e-01f,-6.61002219e-01f,-1.05693471e+00f,-6.26325488e-01f,-8.27561080e-01f,
-6.78636372e-01f,-1.02119505e+00f,-6.37895525e-01f,-9.48734045e-01f,-6.86218143e-01f,
-6.31106853e-01f,-9.00553346e-01f,-8.40343952e-01f,-7.44798779e-01f,-1.17756748e+00f,
-6.70589983e-01f,-6.96381927e-01f,-6.52802408e-01f,-1.00135767e+00f,-6.64857388e-01f,
-2.52459466e-01f,-3.60769331e-01f,-5.12365818e-01f,-3.27192634e-01f,-4.48109955e-01f,
-5.46508670e-01f,-4.21958297e-01f,-3.69184196e-01f,-3.43034655e-01f,-4.99420494e-01f,
-3.49682182e-01f,-1.70488691e+00f,-5.42264342e-01f,-1.82201371e-01f,-3.48037630e-01f,
-3.55336666e-01f,-1.57386735e-01f,-4.70588803e-01f,-3.50960940e-01f,-4.24643964e-01f,
-2.32638821e-01f,-5.85897602e-02f,-1.96924388e-01f,-2.16915086e-01f,-9.13221464e-02f,
+3.08000416e-01f,-5.37708104e-01f,-4.56258841e-02f,-5.62356770e-01f,+6.74202740e-02f,
-1.25559047e-01f,+3.81976545e-01f,+1.11015983e-01f,-3.47772866e-01f,+2.43387790e-03f,
-6.57927394e-01f,-3.59127909e-01f,-5.15371919e-01f,-1.15961516e+00f,+1.51917100e-01f,
-2.81792492e-01f,-4.17603314e-01f,-1.87040359e-01f,-2.74043202e-01f,-1.54146433e-01f,
-3.35375637e-01f,-1.51018620e+00f,-9.45460081e-01f,-4.80069578e-01f,-1.70434415e-01f,
-5.33479691e-01f,-9.78548944e-01f,-8.15130651e-01f,-3.05018932e-01f,-3.62494349e-01f,
-3.44265729e-01f,-3.16179931e-01f,-5.21354973e-01f,-7.19856918e-01f,-6.19545281e-01f,
+1.28708750e-01f,+1.60585061e-01f,-5.33589959e-01f,-5.69470286e-01f,-5.27722359e-01f,
-3.77357960e-01f,-1.07560253e+00f,-2.23316565e-01f,-2.78225929e-01f,-3.79805863e-01f,
-2.86033839e-01f,-8.45434308e-01f,-3.45656693e-01f,-9.56058800e-01f,-7.97690451e-01f,
+1.86926082e-01f,-7.45208323e-01f,+1.29594728e-01f,-1.19689703e-01f,+1.70977384e-01f,
-1.06506360e+00f,-7.12670863e-01f,-6.83134139e-01f,-4.96120542e-01f,-5.13351023e-01f,
-4.69221622e-01f,-2.30107516e-01f,-2.79053003e-01f,-3.02823603e-01f,-8.26558888e-01f,
-2.77181923e-01f,-2.66335607e-01f,-3.24227452e-01f,-5.77622712e-01f,-9.73785520e-01f,
-4.60962743e-01f,-8.41219187e-01f,-5.50215304e-01f,-2.50080436e-01f,-4.11236763e-01f,
-1.89312786e-01f,-1.95295408e-01f,-1.39751911e-01f,-4.26273823e-01f,-4.50698763e-01f,
-2.56949157e-01f,-1.11459029e+00f,-3.54260504e-01f,-5.08667491e-02f,-6.51216805e-01f,
-6.42422497e-01f,-5.29850051e-02f,+6.38523744e-03f,-6.73837900e-01f,+1.56285483e-02f,
-6.18421257e-01f,-7.07081616e-01f,-4.13661033e-01f,-1.59081662e+00f,-3.98363173e-02f,
-7.03266799e-01f,-3.70692238e-02f,+1.64793879e-02f,-9.39301491e-01f,-6.35960162e-01f,
-4.74948078e-01f,-7.62823462e-01f,+3.21050398e-02f,-2.78198212e-01f,-6.68207228e-01f,
-5.45063436e-01f,-5.36539733e-01f,-3.81614685e-01f,-4.58460152e-01f,+1.89475454e-02f,
-8.26520503e-01f,-4.99309570e-01f,-1.63809851e-01f,-7.58412600e-01f,+9.37416330e-02f,
-5.10605335e-01f,-8.43896866e-01f,-5.22714794e-01f,-4.59421813e-01f,-4.17404324e-01f,
-5.25671184e-01f,-1.06451786e+00f,-4.02542263e-01f,-7.52354026e-01f,-4.35206294e-01f,
-4.11173493e-01f,-9.33725893e-01f,-6.68414593e-01f,-6.36819661e-01f,-6.21125817e-01f,
-5.67371130e-01f,-6.45920873e-01f,-7.61514544e-01f,-9.87336934e-01f,-6.24844968e-01f,
-1.84321344e-01f,-3.03880930e-01f,-3.73570025e-01f,-3.66020262e-01f,-3.67735922e-01f,
-2.27311641e-01f,+9.03301835e-02f,-2.37853780e-01f,-1.02613885e-02f,-5.71264327e-01f,
-1.43398345e-01f,+2.48171724e-02f,+1.59760509e-02f,-1.00111902e+00f,-6.78435922e-01f,
-1.04918718e+00f,-2.74410218e-01f,-6.06348395e-01f,-6.77637398e-01f,-2.93246329e-01f,
-4.49837744e-01f,-4.77476388e-01f,-1.10655296e+00f,-4.97396857e-01f,-7.05449998e-01f,
-4.72867221e-01f,-4.22989547e-01f,-1.03326654e+00f,-7.44084239e-01f,-1.28524303e+00f,
-1.10369015e+00f,-4.29684371e-01f,-4.45256799e-01f,-4.58577991e-01f,-4.93326008e-01f,
-4.69742745e-01f,-4.59572196e-01f,-4.90389645e-01f,-4.22004580e-01f,-5.10674059e-01f,
-8.38523388e-01f,-4.21628594e-01f,-4.93289083e-01f,-1.31771731e+00f,-1.08317578e+00f,
-1.03518915e+00f,-2.71880150e-01f,-1.12968576e+00f,-3.78249109e-01f,-1.14311719e+00f,
-8.68284166e-01f,-2.77450770e-01f,-2.77822435e-01f,-5.28200984e-01f,-2.97591269e-01f,
-8.69743407e-01f,-7.29758978e-01f,-4.15275782e-01f,-2.83346117e-01f,-2.92614281e-01f,
-7.59248078e-01f,+2.04366371e-01f,+8.71468261e-02f,-3.90134186e-01f,-2.04777062e-01f,
+4.06744033e-02f,-5.42674005e-01f,-1.43156469e-01f,-1.31927341e-01f,-3.42060655e-01f,
-3.77157718e-01f,-1.74172893e-01f,-3.46959054e-01f,-5.89596629e-01f,+3.71139288e-01f,
-1.06365120e+00f,-6.11364007e-01f,+1.23428531e-01f,-3.71499300e-01f,+2.31289595e-01f,
-7.01162040e-01f,-5.53215981e-01f,-7.12494135e-01f,-2.06917077e-01f,-3.70772392e-01f,
-6.59195960e-01f,-1.94418162e-01f,-2.27460876e-01f,-1.59356147e-01f,-3.57499272e-01f,
-1.30687892e-01f,-2.69819170e-01f,-4.84741062e-01f,-5.13841987e-01f,-8.58122826e-01f,
-9.61251333e-02f,-3.53895247e-01f,-5.60822368e-01f,-2.85258025e-01f,-5.31982005e-01f,
-5.58675766e-01f,-3.52483422e-01f,-5.20287216e-01f,-8.52645874e-01f,-8.94946635e-01f,
-6.52191997e-01f,-8.55407476e-01f,-5.50231576e-01f,-3.90242308e-01f,-5.85353911e-01f,
-7.07506776e-01f,-9.35131133e-01f,-3.78812551e-01f,-3.30208302e-01f,-3.57982993e-01f,
-7.16174781e-01f,-3.70362937e-01f,-3.61199349e-01f,-9.63989139e-01f,-3.87095720e-01f,
-3.52265894e-01f,-7.02042282e-01f,-2.81412244e-01f,-3.32114071e-01f,-2.40428180e-01f,
-4.31125134e-01f,-1.06553161e+00f,-5.06353319e-01f,-1.01505840e+00f,-2.52667755e-01f,
-4.01403129e-01f,-5.81761897e-01f,-7.74458766e-01f,-4.55510229e-01f,-6.21902943e-01f,
-4.66030121e-01f,-4.37763423e-01f,-7.15438783e-01f,-6.34506762e-01f,-2.23988473e-01f,
-5.31668067e-01f,-5.45131683e-01f,-9.02122080e-01f,-3.63261014e-01f,-9.71553802e-01f,
-6.63820207e-01f,-3.42083842e-01f,-4.10007060e-01f,-5.56053817e-01f,-4.75872815e-01f,
-3.23849201e-01f,-2.93725371e-01f,-4.48518634e-01f,-6.58847570e-01f,-9.76401687e-01f,
-7.56560028e-01f,-6.54388845e-01f,-5.71486771e-01f,-2.92539597e-01f,-2.93318570e-01f,
-2.83846587e-01f,-6.55709028e-01f,-1.29993153e+00f,-7.43592858e-01f,-6.04383945e-01f,
-6.52413189e-01f,-1.37321055e-01f,-5.17738521e-01f,-1.72950819e-01f,-8.68038416e-01f,
-4.80502337e-01f,-3.88128132e-01f,-3.45315933e-01f,-8.07784200e-01f,-8.27689886e-01f,
-2.16374427e-01f,-4.97209728e-01f,-6.70155883e-01f,-4.14266467e-01f,-2.85749882e-01f,
-3.97687107e-01f,-4.17639732e-01f,-3.49350095e-01f,-4.26281631e-01f,-3.21071506e-01f,
-4.06940848e-01f,-1.39408064e+00f,-3.82615447e-01f,-1.02333272e+00f,-3.31884056e-01f,
-7.96147466e-01f,-1.11189210e+00f,-8.11397314e-01f,-3.89304906e-01f,-3.93995583e-01f,
-4.11935985e-01f,-3.95139754e-01f,-4.31411445e-01f,-1.09879100e+00f,-4.09723580e-01f,
-1.21788657e+00f,-1.11208498e+00f,-9.88810420e-01f,-1.22457552e+00f,-9.04825389e-01f,
-1.01169848e+00f,-1.70270610e+00f,-1.63692856e+00f,-9.03057635e-01f,-1.46522260e+00f,
-1.01361251e+00f,-1.29864955e+00f,-1.13691866e+00f,-1.06070983e+00f,-9.92202640e-01f,
-1.09292769e+00f,-1.21790445e+00f,-1.12926185e+00f,-1.11649609e+00f,-1.25767422e+00f,
-7.83773541e-01f,-6.02707446e-01f,-6.08403742e-01f,-5.54757416e-01f,-5.62391281e-01f,
-5.84709764e-01f,-1.27291346e+00f,-5.28238177e-01f,-1.73957920e+00f,-5.53350091e-01f,
-5.64375818e-01f,-9.26079631e-01f,-8.66748154e-01f,-6.67526722e-01f,-6.22271955e-01f,
-6.01624846e-01f,-6.35443568e-01f,-5.90620995e-01f,-7.22657323e-01f,-6.88109398e-01f,
-2.66708165e-01f,-2.19956204e-01f,+1.84584446e-02f,-6.47228122e-01f,-5.95906042e-02f,
-3.99400383e-01f,-1.29671121e+00f,-6.56677127e-01f,-4.80182230e-01f,-4.00900573e-01f,
-6.96594536e-01f,-5.11965752e-02f,-1.92072928e-01f,-3.79529983e-01f,+2.64973864e-02f,
-1.21208489e+00f,-3.41721177e-01f,-4.75111336e-01f,-2.35996529e-01f,-4.03802358e-02f,
-4.02462214e-01f,-1.33401954e+00f,-5.98122716e-01f,-5.13965905e-01f,-5.99516749e-01f,
-1.35602164e+00f,-5.73086321e-01f,-4.74124402e-01f,-5.00939369e-01f,-5.05790770e-01f,
-5.07629931e-01f,-5.17940879e-01f,-5.68098903e-01f,-4.91798401e-01f,-4.50410426e-01f,
-5.59767485e-01f,-8.62169385e-01f,-8.52617800e-01f,-5.93836784e-01f,-8.23964477e-01f,
-6.85347199e-01f,-1.09568737e-01f,-6.20831251e-01f,-6.78505063e-01f,-3.70100766e-01f,
-7.70520926e-01f,-5.52848101e-01f,-1.37007490e-01f,-3.53594214e-01f,-4.04414982e-01f,
-1.02338386e+00f,-1.64457291e-01f,-7.17149198e-01f,-2.82368600e-01f,-3.31277341e-01f,
-8.62056017e-01f,-3.73262256e-01f,-8.16067830e-02f,-6.41056076e-02f,-1.72601640e-01f,
-6.23161554e-01f,-2.63951272e-01f,-1.21896183e+00f,-1.26471043e+00f,-7.63680458e-01f,
-3.41909260e-01f,-1.64367765e-01f,-5.28834045e-01f,-6.72475278e-01f,-1.01265633e+00f,
-8.04671228e-01f,-1.98656367e-03f,-2.60836631e-01f,-4.28480953e-01f,-1.85114220e-01f,
-5.24404526e-01f,-3.10826808e-01f,-2.38647476e-01f,+3.41237560e-02f,-1.73073515e-01f,
-4.00719404e-01f,-2.87385643e-01f,-9.09140289e-01f,-1.80068925e-01f,-1.23068953e+00f,
-5.07389307e-01f,-7.90113270e-01f,-5.60406566e-01f,-5.01296163e-01f,-2.46052578e-01f,
-4.04814035e-01f,-8.52947056e-01f,-8.01475227e-01f,-4.61647332e-01f,-6.13512933e-01f,
-5.62873721e-01f,-3.42898369e-01f,-3.59940052e-01f,-6.10471964e-01f,-5.63985527e-01f,
-4.09594089e-01f,-4.08987194e-01f,-4.12144810e-01f,-7.40720630e-01f,-1.02410495e+00f,
-5.45164227e-01f,-1.12816536e+00f,-6.63479447e-01f,-3.71068865e-01f,-7.14320660e-01f,
-6.18003845e-01f,-1.58304954e+00f,-4.55780149e-01f,-4.08940107e-01f,-3.90243977e-01f,
-6.05006158e-01f,-4.44076806e-01f,-5.04089355e-01f,-1.59367442e+00f,-3.57530683e-01f,
-1.35744631e-01f,-2.62752414e-01f,+3.07429701e-01f,-6.14050031e-01f,+2.02951625e-01f,
-6.91287145e-02f,-1.04195750e+00f,-4.31135952e-01f,-3.05576950e-01f,-4.55500692e-01f,
-3.10403943e-01f,-8.28463316e-01f,+1.23225152e-01f,-1.28704324e-01f,+1.99221656e-01f,
-5.02096474e-01f,-7.96272099e-01f,-3.69249374e-01f,-1.20747340e+00f,+1.96950398e-02f,
-6.07686579e-01f,-7.40925014e-01f,-1.46333051e+00f,-8.41196775e-01f,-8.67924094e-01f,
-9.60012972e-01f,-7.68907249e-01f,-1.04831016e+00f,-6.58881664e-01f,-9.00139809e-01f,
-7.66011357e-01f,-1.01659536e+00f,-7.85170555e-01f,-9.77055073e-01f,-1.13679838e+00f,
-7.03888357e-01f,-7.42310643e-01f,-7.21427262e-01f,-1.12962008e+00f,-7.45439410e-01f,
-3.84488031e-02f,-1.23008952e-01f,+1.56935006e-01f,-5.22408128e-01f,-2.88154334e-02f,
-1.85563043e-01f,-6.47970498e-01f,-6.28387451e-01f,-3.84830445e-01f,-3.20008337e-01f,
-5.16878068e-01f,+2.16445014e-01f,+4.85226065e-02f,-1.99230388e-01f,+9.61887315e-02f,
-1.33700120e+00f,-2.94372171e-01f,-5.94132125e-01f,-1.06896488e-02f,+3.20551917e-02f,
-6.80486679e-01f,-5.40619254e-01f,-1.05660450e+00f,-5.58791816e-01f,-1.48652279e+00f,
-7.30699062e-01f,-4.82132345e-01f,-9.67419267e-01f,-8.14620316e-01f,-6.48525298e-01f,
-7.34331846e-01f,-4.96151537e-01f,-5.52317858e-01f,-6.42044246e-01f,-7.83652008e-01f,
-6.55363679e-01f,-5.46144545e-01f,-6.16452038e-01f,-4.99333054e-01f,-5.63409567e-01f,
-6.06755972e-01f,-5.48431158e-01f,-6.10749781e-01f,-1.51581192e+00f,-1.50691724e+00f,
-5.38383901e-01f,-3.70785773e-01f,-1.06308842e+00f,-4.80710000e-01f,-1.62620187e+00f,
-9.08381283e-01f,-3.90743703e-01f,-3.98575842e-01f,-5.58261573e-01f,-4.84121412e-01f,
-5.26398897e-01f,-5.36575198e-01f,-5.67051649e-01f,-3.74835223e-01f,-4.95021999e-01f,
-1.15729291e-02f,-1.05631411e+00f,+2.80073494e-01f,-4.79293138e-01f,+2.90971279e-01f,
-2.98378229e-01f,+1.66808695e-01f,-3.21765155e-01f,-6.11637533e-01f,+3.93671319e-02f,
-3.36068273e-01f,+3.75497788e-02f,-6.42375827e-01f,-2.10095182e-01f,-3.32813680e-01f,
-2.75528342e-01f,-3.33091557e-01f,-7.23300695e-01f,+1.33288980e-01f,-9.08761740e-01f,
+3.39727163e-01f,-1.07600057e+00f,-9.05835107e-02f,+1.25270663e-02f,+1.00726783e-01f,
-2.98180640e-01f,+3.59328717e-01f,-1.22307837e-01f,-4.63218279e-02f,-1.18948624e-01f,
+5.72068393e-02f,-5.93773544e-01f,-3.95815432e-01f,-5.47872603e-01f,-7.61018574e-01f,
+1.93694040e-01f,-4.56995487e-01f,-9.44415152e-01f,-2.58444995e-01f,-2.24203601e-01f,
-1.06786869e-01f,-2.29062866e-02f,-9.03718531e-01f,-7.59194970e-01f,-4.75074291e-01f,
-5.25650494e-02f,+8.48009586e-02f,-4.82128263e-01f,-2.26937532e-01f,-7.90817201e-01f,
-2.68984109e-01f,-1.02551448e+00f,-1.04981399e+00f,-1.30683196e+00f,-8.98895204e-01f,
-2.63826698e-02f,-6.95125878e-01f,-1.04916999e-02f,-6.59848392e-01f,-1.85081959e-02f,
-3.53699327e-01f,-5.74207008e-01f,-7.16169417e-01f,-4.23118979e-01f,-7.00468957e-01f,
-4.41099137e-01f,-4.39003557e-01f,-1.15367579e+00f,-3.33313614e-01f,-4.29461926e-01f,
-3.20544362e-01f,-1.40969586e+00f,-4.02751058e-01f,-6.00130916e-01f,-6.72569811e-01f,
-4.94618684e-01f,-6.08310878e-01f,-5.26645243e-01f,-1.19956017e+00f,-8.85179698e-01f,
-3.16206753e-01f,-3.14580113e-01f,-5.38890123e-01f,-2.73816735e-01f,-3.68137300e-01f,
-5.42030573e-01f,-1.88373581e-01f,-2.79834360e-01f,-1.70865625e-01f,-1.26745820e-01f,
-2.08414659e-01f,-2.19258413e-01f,-1.38608336e-01f,-8.56982410e-01f,-3.53522092e-01f,
-9.33546841e-01f,-5.67615628e-01f,-5.08843660e-01f,-1.60004306e+00f,-1.86204016e-01f,
-2.51752317e-01f,-9.35411036e-01f,+8.72229878e-03f,-3.09627295e-01f,+4.94530126e-02f,
-4.10828233e-01f,-1.38129303e-02f,-2.57790178e-01f,-7.36853540e-01f,-3.01742572e-02f,
-4.90721852e-01f,+1.84794869e-02f,-6.47320330e-01f,-3.08543950e-01f,-4.77943122e-01f,
-3.30294579e-01f,-6.25831544e-01f,-5.75978696e-01f,+4.67835516e-02f,-1.02565908e+00f,
-2.47182563e-01f,-4.66199547e-01f,-1.90120459e-01f,-2.70925671e-01f,-1.72401175e-01f,
-3.36766064e-01f,-1.19817722e+00f,-1.42767489e-01f,-4.65156645e-01f,-1.89771563e-01f,
-3.31667483e-01f,-9.01464403e-01f,-1.18613744e+00f,-4.42667365e-01f,-4.60226208e-01f,
-3.22013855e-01f,-5.40532827e-01f,-3.86829138e-01f,-9.96782243e-01f,-1.23829520e+00f,
-4.79430169e-01f,-5.68471611e-01f,-1.35287952e+00f,-5.86494446e-01f,-1.13798046e+00f,
-5.37137568e-01f,-4.02173549e-01f,-1.17045474e+00f,-8.63847315e-01f,-1.21246612e+00f,
-1.35929716e+00f,-4.02050644e-01f,-4.36242253e-01f,-5.09135783e-01f,-5.10952413e-01f,
-4.98790443e-01f,-5.02992451e-01f,-5.69083214e-01f,-4.02034730e-01f,-5.92961013e-01f,
-1.13869166e+00f,-4.81011569e-01f,-2.93577522e-01f,-4.14282799e-01f,-3.84824485e-01f,
-4.73286510e-01f,-1.10981953e+00f,-5.31782746e-01f,-1.00113595e+00f,-4.83374745e-01f,
-5.35257041e-01f,-9.20815766e-01f,-1.02932811e+00f,-7.76876628e-01f,-2.68934101e-01f,
-6.96798086e-01f,-7.98403442e-01f,-5.14740229e-01f,-1.09811282e+00f,-3.78018677e-01f,
-4.23683316e-01f,-2.55354911e-01f,-3.86852562e-01f,-8.44872236e-01f,-1.00155246e+00f,
-3.15380663e-01f,-6.43142045e-01f,-5.82262516e-01f,-5.74548960e-01f,-6.53783858e-01f,
-8.44072342e-01f,-6.78909957e-01f,-6.15016758e-01f,-6.42056882e-01f,-8.92420053e-01f,
-3.14466208e-01f,-7.19506860e-01f,-2.64430434e-01f,-7.30950892e-01f,-1.89640999e-01f,
-3.22544008e-01f,-3.78880024e-01f,-1.08574438e+00f,-3.74147564e-01f,-7.55511463e-01f,
-3.81768882e-01f,-1.35647333e+00f,-3.95712733e-01f,-7.08698928e-01f,-9.48366880e-01f,
-9.46885169e-01f,-1.17740095e+00f,-9.05812979e-01f,-3.27937812e-01f,-3.11431795e-01f,
-3.76621902e-01f,-3.39061856e-01f,-4.15049911e-01f,-8.15693140e-01f,-3.69407326e-01f,
-6.95785701e-01f,-6.89766824e-01f,-4.49143171e-01f,-7.87149295e-02f,-2.74531811e-01f,
-5.97883821e-01f,-1.16576470e-01f,-1.39738590e-01f,-2.02989578e-01f,-2.73265064e-01f,
+1.90478936e-02f,+4.54424024e-01f,-4.65740502e-01f,-6.07979238e-01f,+2.19506189e-01f,
-2.02608734e-01f,-4.37538713e-01f,-3.84239972e-01f,+5.07723749e-01f,-6.74242675e-02f,
-4.25834030e-01f,-5.35638869e-01f,-4.17604446e-01f,-4.77936506e-01f,-3.90248358e-01f,
-4.67450619e-01f,-1.49754179e+00f,-8.94379199e-01f,-7.75477350e-01f,-4.07491952e-01f,
-8.09923172e-01f,-5.74675679e-01f,-1.11267626e+00f,-4.51012880e-01f,-4.59873259e-01f,
-5.15127361e-01f,-4.63263780e-01f,-5.36543131e-01f,-5.98906398e-01f,-6.81819737e-01f,
-7.60148764e-01f,-1.94248617e-01f,-2.34635994e-01f,-6.20151579e-01f,-8.75367284e-01f,
-2.53957540e-01f,-9.01121259e-01f,-5.66472650e-01f,-5.53589582e-01f,-5.51464677e-01f,
-6.25711620e-01f,-6.18677795e-01f,-3.31585139e-01f,-6.53496981e-01f,-7.60807395e-01f,
-2.37870485e-01f,-5.84098160e-01f,-1.87191159e-01f,-7.66898870e-01f,-1.79632932e-01f,
-2.95549214e-01f,-5.27391672e-01f,-1.08298564e+00f,-3.09203118e-01f,-9.89129961e-01f,
-4.77608055e-01f,-1.06506205e+00f,-4.04747605e-01f,-2.49232560e-01f,-8.14900875e-01f,
-5.03928304e-01f,-1.03539765e+00f,-9.71658230e-01f,-3.43117833e-01f,-6.17568552e-01f,
-5.22067904e-01f,-3.43027204e-01f,-5.76087236e-01f,-9.73051965e-01f,-7.96861351e-01f,
-5.19539595e-01f,-7.41285622e-01f,-7.23020136e-01f,-7.69246578e-01f,-6.70583308e-01f,
-6.17463827e-01f,-1.04011869e+00f,-2.83592701e-01f,-2.21890658e-01f,-7.98429072e-01f,
-7.12191880e-01f,-2.27580890e-01f,-4.27938074e-01f,-4.76305932e-01f,-4.06125575e-01f,
-5.89035392e-01f,-5.94753206e-01f,-7.67018735e-01f,-1.71114057e-01f,-6.90581620e-01f,
-3.28206658e-01f,-6.81340516e-01f,-1.83971953e-02f,-4.61714774e-01f,-8.18398893e-02f,
-6.46414340e-01f,-7.98996687e-01f,-5.25722861e-01f,-5.65725148e-01f,-4.10972089e-01f,
-6.55610979e-01f,-1.07905045e-01f,-3.51551205e-01f,-4.51192439e-01f,-8.83806404e-03f,
-1.16294496e-01f,-5.00528872e-01f,-7.99612939e-01f,-1.37927353e-01f,-6.39602244e-01f,
-2.09912747e-01f,-4.14632440e-01f,-7.17567503e-01f,-2.76412159e-01f,-1.14111817e+00f,
-3.92260075e-01f,-1.07758217e-01f,-5.77749133e-01f,-2.29541212e-01f,-3.18053305e-01f,
-4.10748988e-01f,-1.07289337e-01f,-1.51242092e-01f,-4.22725469e-01f,-6.99403644e-01f,
-5.88446438e-01f,-3.13686401e-01f,-5.84821343e-01f,-1.49387574e+00f,-3.34626138e-01f,
-3.83774370e-01f,-7.01074898e-01f,-7.02825069e-01f,-1.23551182e-01f,-1.00517370e-01f,
+7.03154430e-02f,+8.51684995e-03f,-9.22905430e-02f,-2.68763244e-01f,-2.26813793e-01f,
-1.04823276e-01f,-1.53712541e-01f,-6.00609601e-01f,-1.20212100e-01f,-9.49842513e-01f,
+1.84624672e-01f,-9.63541090e-01f,-4.55507457e-01f,-2.92941481e-02f,+3.96953374e-02f,
-3.45556848e-02f,-7.82547951e-01f,-2.97334790e-01f,-5.33312380e-01f,-9.16949734e-02f,
-4.12659347e-01f,-5.04664600e-01f,-1.02026341e-02f,-7.08971396e-02f,-4.50063050e-01f,
-6.06422067e-01f,+1.07322251e-02f,-7.33973205e-01f,-4.26186711e-01f,-5.08667588e-01f,
-4.38446671e-01f,-5.79980910e-01f,-6.65729105e-01f,+3.97405773e-02f,-8.07573617e-01f,
-6.89547509e-02f,-6.69115305e-01f,-5.08781910e-01f,-2.38361105e-01f,-2.99604923e-01f,
-4.41294629e-03f,-6.40165091e-01f,-6.95418492e-02f,-6.38371035e-02f,-2.67295033e-01f,
-6.14639744e-02f,-1.51916683e-01f,-4.98522036e-02f,-2.16999665e-01f,-1.25281668e+00f,
+1.21394709e-01f,-7.57932007e-01f,-8.07005703e-01f,-1.66738972e-01f,-9.39851627e-02f,
-3.30338866e-01f,-6.59017935e-02f,-6.40963688e-02f,-7.31630325e-01f,-1.29773259e+00f,
-1.80304781e-01f,-7.83383310e-01f,-5.70397079e-01f,-6.48498058e-01f,-6.72085285e-01f,
-6.97911322e-01f,-5.95498919e-01f,-4.04560596e-01f,-9.04647052e-01f,-4.93676066e-01f,
-2.06544980e-01f,-1.14766610e+00f,-8.52302536e-02f,-4.82190639e-01f,-5.10856546e-02f,
-3.91048819e-01f,-5.16109526e-01f,-2.80700088e-01f,-4.04046834e-01f,-2.58774310e-01f,
-4.54462975e-01f,-1.61222339e+00f,-4.09294724e-01f,-1.04685760e+00f,-2.69975454e-01f,
-9.27271605e-01f,-1.09650004e+00f,-1.02266240e+00f,-4.37768847e-01f,-5.04297376e-01f,
-4.62207645e-01f,-4.40613657e-01f,-5.42931855e-01f,-1.28387952e+00f,-8.65885258e-01f,
-3.05175662e-01f,-1.06572545e+00f,-5.89936197e-01f,-4.32324260e-01f,-3.90911818e-01f,
-1.12945342e+00f,-3.05237681e-01f,-4.83041942e-01f,-2.83873409e-01f,-3.32325339e-01f,
-4.33453500e-01f,-1.26886678e+00f,-7.44549096e-01f,-6.10389650e-01f,-6.61916256e-01f,
-4.27438110e-01f,-4.49839681e-01f,-5.27384818e-01f,-7.07926512e-01f,-6.52604997e-01f,
-1.02069402e+00f,-9.33232486e-01f,-9.56386924e-01f,-1.19148469e+00f,-1.75173032e+00f,
-1.01155829e+00f,-8.87762845e-01f,-1.28616107e+00f,-1.05714738e+00f,-9.86328959e-01f,
-1.14159989e+00f,-8.90881836e-01f,-8.86721969e-01f,-9.20289159e-01f,-9.22168314e-01f,
-1.07419121e+00f,-9.15673375e-01f,-9.60819602e-01f,-8.80496740e-01f,-9.41388607e-01f,
-1.52747855e-01f,-3.09545368e-01f,+1.17856361e-01f,-6.93361700e-01f,-1.29591048e-01f,
-4.10917401e-01f,-1.00186050e+00f,-3.15245748e-01f,-5.68824291e-01f,-4.90380645e-01f,
-6.79575562e-01f,+4.87408526e-02f,-1.95589915e-01f,-3.16276759e-01f,+7.28969052e-02f,
-1.34903598e+00f,-5.18769205e-01f,-7.85929859e-01f,+1.84523687e-02f,-1.97244920e-02f,
-3.47414732e-01f,-3.99514467e-01f,-8.03117931e-01f,-1.09530950e+00f,-5.33395708e-01f,
-1.01216662e+00f,-2.31762707e-01f,-1.01048386e+00f,-5.11447966e-01f,-1.41511321e+00f,
-9.77975428e-01f,-2.71779209e-01f,-2.57376373e-01f,-3.53186727e-01f,-6.21743500e-01f,
-8.18933904e-01f,-3.54406625e-01f,-3.40615481e-01f,-2.90197790e-01f,-4.28704053e-01f,
-1.42241275e+00f,-4.81937826e-01f,-6.04118347e-01f,-4.47679579e-01f,-5.59103549e-01f,
-4.58835542e-01f,-4.33481127e-01f,-1.14010513e+00f,-8.68901849e-01f,-5.71253538e-01f,
-3.78154993e-01f,-6.75769269e-01f,-6.24887764e-01f,-4.87532675e-01f,-5.01419067e-01f,
-4.91672486e-01f,-5.28701365e-01f,-4.65413004e-01f,-6.04596853e-01f,-5.20376146e-01f,
-4.78647262e-01f,-5.43186963e-01f,-5.00974000e-01f,-5.12127280e-01f,-5.15747726e-01f,
-5.16061485e-01f,-4.73969638e-01f,-9.33471680e-01f,-9.52660501e-01f,-5.05684614e-01f,
-1.36191428e+00f,-4.59271759e-01f,-4.90434676e-01f,-5.06502151e-01f,-5.18070459e-01f,
-5.11854351e-01f,-4.97555166e-01f,-5.35767496e-01f,-4.53363419e-01f,-5.52800655e-01f,
-3.45634446e-02f,-2.54436672e-01f,-1.53691486e-01f,-2.63513625e-01f,-1.61427200e-01f,
-1.90304250e-01f,-8.19150209e-01f,-4.29240048e-01f,-8.10263991e-01f,-2.76754767e-01f,
-3.78379345e-01f,-9.66791660e-02f,-6.82883263e-02f,-3.89535457e-01f,-1.71207651e-01f,
-9.52684164e-01f,-4.03219700e-01f,-5.10203958e-01f,-9.28855181e-01f,-1.67294651e-01f,
-3.46716791e-01f,-6.80359304e-01f,-1.95524380e-01f,-6.44047737e-01f,-2.13145092e-01f,
-2.94655085e-01f,-8.15605581e-01f,-5.40511191e-01f,-9.07273829e-01f,-2.94317573e-01f,
-7.25586951e-01f,-2.83285588e-01f,-3.91002238e-01f,-2.35037997e-01f,-2.49653056e-01f,
-4.13623393e-01f,-2.50948101e-01f,-5.99173486e-01f,-3.82906556e-01f,-9.57624137e-01f,
-5.28895438e-01f,-5.04916310e-01f,-5.08435547e-01f,-4.88189399e-01f,-4.97249752e-01f,
-4.99720931e-01f,-5.09642243e-01f,-2.00918555e+00f,-7.33987808e-01f,-4.86078560e-01f,
-5.01906157e-01f,-5.06908357e-01f,-5.02976954e-01f,-5.16947925e-01f,-5.19186318e-01f,
-5.01591921e-01f,-5.17899036e-01f,-5.12632370e-01f,-4.96924162e-01f,-5.24485648e-01f,
-5.72153747e-01f,-5.54465234e-01f,-6.48379803e-01f,-1.02231491e+00f,-1.44310105e+00f,
-5.49813032e-01f,-4.64742869e-01f,-9.69916344e-01f,-6.36694551e-01f,-1.12243915e+00f,
-9.84328866e-01f,-4.68355060e-01f,-4.73132968e-01f,-5.19416928e-01f,-5.16676545e-01f,
-5.37996948e-01f,-5.16580045e-01f,-5.48591316e-01f,-4.55993772e-01f,-5.60282826e-01f,
-7.51692533e-01f,-5.38706601e-01f,+1.25830173e-01f,-2.11248249e-01f,-5.33544540e-01f,
-9.82559264e-01f,-4.23432618e-01f,-8.44605267e-02f,-5.86297274e-01f,-6.22178912e-01f,
+9.63137895e-02f,+2.12834343e-01f,-6.25376284e-01f,-4.05426651e-01f,+1.77841976e-01f,
-5.90830982e-01f,-3.82823259e-01f,-6.70942962e-01f,+2.85903543e-01f,-3.16964323e-03f,
-6.67128563e-01f,-1.37988687e-01f,-4.99144524e-01f,-5.08719027e-01f,-3.23062748e-01f,
-6.98510885e-01f,+1.99979231e-01f,+8.39913264e-02f,-4.82971996e-01f,-5.33241153e-01f,
-3.06820065e-01f,-7.75424913e-02f,+2.75768548e-01f,+1.90330043e-01f,-5.91817558e-01f,
-5.21816552e-01f,+2.00076491e-01f,-1.00471288e-01f,-1.06616281e-01f,-6.02416813e-01f,
-1.57965803e+00f,-5.91549933e-01f,-9.40022349e-01f,-6.29005492e-01f,-8.89048576e-01f,
-5.81728935e-01f,-6.01484179e-01f,-1.13425553e+00f,-4.62709129e-01f,-1.17125392e+00f,
-4.99671936e-01f,-7.63845861e-01f,-6.88256264e-01f,-6.73099518e-01f,-6.03495359e-01f,
-5.86550117e-01f,-6.52142286e-01f,-5.85720420e-01f,-6.75120711e-01f,-6.08778596e-01f,
-2.93107867e-01f,-5.97505450e-01f,-1.19501817e+00f,-8.09304774e-01f,-1.20375431e+00f,
-2.75124520e-01f,-1.09991424e-01f,-5.17942250e-01f,-2.43204311e-01f,-1.19898641e+00f,
-4.99655008e-01f,-1.34151742e-01f,-1.73908845e-01f,-2.87426740e-01f,-9.82385218e-01f,
-3.07168543e-01f,-2.47885019e-01f,-4.40318018e-01f,-1.24842472e-01f,-3.93400043e-01f,
-1.82264835e-01f,-5.89951038e-01f,-7.77414918e-01f,-4.58760150e-02f,-1.21019006e+00f,
-5.93363345e-01f,-5.20524442e-01f,-3.21533084e-01f,-3.90233636e-01f,-9.40491036e-02f,
-4.73301888e-01f,-6.54838145e-01f,-5.00760257e-01f,-1.04904726e-01f,-5.87788939e-01f,
-7.86462367e-01f,-9.41846520e-02f,-3.21270198e-01f,-5.84488511e-01f,-5.98472774e-01f,
-6.40091062e-01f,-6.73251927e-01f,-1.51920855e+00f,-8.30544412e-01f,-5.85281014e-01f,
-9.91505742e-01f,-1.04790676e+00f,-7.21003711e-01f,-7.03153551e-01f,-9.32084560e-01f,
-7.54423678e-01f,-8.84913683e-01f,-7.77679324e-01f,-8.06848466e-01f,-1.20036638e+00f,
-7.27290332e-01f,-8.24137628e-01f,-6.60250962e-01f,-8.78416896e-01f,-6.52613342e-01f,
-7.67266870e-01f,-5.32052100e-01f,-7.78872669e-01f,-9.36556458e-01f,-7.14399755e-01f,
-5.41966319e-01f,-2.71925777e-01f,-3.67672324e-01f,-3.85815889e-01f,-8.80169451e-01f,
-7.70921230e-01f,-5.50742634e-03f,+2.81633083e-02f,-7.39644095e-02f,-8.69991362e-01f,
-4.28004384e-01f,-6.68523312e-02f,-4.86015201e-01f,-1.73817147e-02f,-6.57765210e-01f,
+1.93310138e-02f,-3.29210520e-01f,-1.59424692e-01f,-5.04467309e-01f,-1.04547031e-02f,
-2.52539814e-01f,-1.42777181e+00f,-2.94232070e-01f,-7.67818213e-01f,+1.10463314e-01f,
-3.69166076e-01f,-1.02535091e-01f,-2.40376517e-01f,-1.16006337e-01f,+6.89350590e-02f,
-8.36593390e-01f,-5.56230485e-01f,-5.23013055e-01f,-3.14968824e-01f,-3.30766231e-01f,
-3.76680106e-01f,-4.88705724e-01f,-8.83253336e-01f,-3.58269513e-01f,-1.22306478e+00f,
-6.09273434e-01f,-9.78764176e-01f,-8.64652276e-01f,-5.88522732e-01f,-2.90119231e-01f,
-6.66183412e-01f,-8.76314700e-01f,-8.27787638e-01f,-4.13313240e-01f,-9.05335546e-01f,
-6.89586580e-01f,-3.89727890e-01f,-5.72862387e-01f,-9.24918234e-01f,-7.13429987e-01f,
-2.81962514e-01f,-4.09015656e-01f,-4.64666426e-01f,-5.23654997e-01f,-4.42893445e-01f,
-4.69958425e-01f,-1.52571762e+00f,-4.35815305e-01f,-3.19487065e-01f,-4.63965565e-01f,
-3.86964291e-01f,-1.47064400e+00f,-2.90386111e-01f,-2.30537876e-01f,-2.58044153e-01f,
-3.53920519e-01f,-2.50808001e-01f,-3.61791939e-01f,-2.97907948e-01f,-3.13452631e-01f,
-4.67981815e-01f,+4.75844592e-02f,+3.08549434e-01f,-1.78959504e-01f,-6.41669214e-01f,
-3.23514670e-01f,-1.02363789e+00f,-1.32572040e-01f,-2.42051333e-01f,-2.18368784e-01f,
-3.98726434e-01f,-8.62348318e-01f,-3.62871960e-02f,-9.18439180e-02f,+2.29398295e-01f,
-8.33504319e-01f,-5.25644660e-01f,-1.49224550e-02f,-6.80071712e-01f,+1.78010240e-01f,
}; 
k2c_tensor l7_kernel = {&l7_kernel_array[0],2,6480,{324, 20,  1,  1,  1}}; 
float l7_bias_array[20] = {
-2.15682054e+00f,-1.45542777e+00f,-1.68855059e+00f,-1.82241239e-02f,-1.06022930e+00f,
-8.64075601e-01f,-9.22155917e-01f,-6.78017020e-01f,-6.24032080e-01f,-8.17936003e-01f,
-2.97893643e-01f,-8.96364212e-01f,-1.63210821e+00f,-1.32221699e+00f,-1.36544120e+00f,
-5.10159671e-01f,-1.02538192e+00f,-8.55511963e-01f,-3.38309228e-01f,-2.09724164e+00f,
}; 
k2c_tensor l7_bias = {&l7_bias_array[0],1,20,{20, 1, 1, 1, 1}}; 
float l7_fwork[6804] = {0}; 

 
k2c_dense(&l5_output,input1_input,&l5_kernel, 
	&l5_bias,k2c_linear,l5_fwork); 
k2c_relu(l5_output.array,l5_output.numel); 
k2c_tensor l6_output; 
l6_output.ndim = l5_output.ndim; // copy data into output struct 
l6_output.numel = l5_output.numel; 
memcpy(l6_output.shape,l5_output.shape,K2C_MAX_NDIM*sizeof(size_t));  
l6_output.array = &l5_output.array[0]; // rename for clarity 
k2c_dense(l7_output,&l6_output,&l7_kernel, 
	&l7_bias,k2c_linear,l7_fwork); 

 } 

void xraymodel_initialize() { 

} 

void xraymodel_terminate() { 

} 

